<unk>	0
<s>	0
</s>	0
<pad>	0
<|user|>	0
<|assistant|>	0
<|end|>	0
<|system|>	0
<|pad|>	0
<|sep|>	0
<|cls|>	0
<|mask|>	0
<0x00>	0
<0x01>	0
<0x02>	0
<0x03>	0
<0x04>	0
<0x05>	0
<0x06>	0
<0x07>	0
<0x08>	0
<0x09>	0
<0x0A>	0
<0x0B>	0
<0x0C>	0
<0x0D>	0
<0x0E>	0
<0x0F>	0
<0x10>	0
<0x11>	0
<0x12>	0
<0x13>	0
<0x14>	0
<0x15>	0
<0x16>	0
<0x17>	0
<0x18>	0
<0x19>	0
<0x1A>	0
<0x1B>	0
<0x1C>	0
<0x1D>	0
<0x1E>	0
<0x1F>	0
<0x20>	0
<0x21>	0
<0x22>	0
<0x23>	0
<0x24>	0
<0x25>	0
<0x26>	0
<0x27>	0
<0x28>	0
<0x29>	0
<0x2A>	0
<0x2B>	0
<0x2C>	0
<0x2D>	0
<0x2E>	0
<0x2F>	0
<0x30>	0
<0x31>	0
<0x32>	0
<0x33>	0
<0x34>	0
<0x35>	0
<0x36>	0
<0x37>	0
<0x38>	0
<0x39>	0
<0x3A>	0
<0x3B>	0
<0x3C>	0
<0x3D>	0
<0x3E>	0
<0x3F>	0
<0x40>	0
<0x41>	0
<0x42>	0
<0x43>	0
<0x44>	0
<0x45>	0
<0x46>	0
<0x47>	0
<0x48>	0
<0x49>	0
<0x4A>	0
<0x4B>	0
<0x4C>	0
<0x4D>	0
<0x4E>	0
<0x4F>	0
<0x50>	0
<0x51>	0
<0x52>	0
<0x53>	0
<0x54>	0
<0x55>	0
<0x56>	0
<0x57>	0
<0x58>	0
<0x59>	0
<0x5A>	0
<0x5B>	0
<0x5C>	0
<0x5D>	0
<0x5E>	0
<0x5F>	0
<0x60>	0
<0x61>	0
<0x62>	0
<0x63>	0
<0x64>	0
<0x65>	0
<0x66>	0
<0x67>	0
<0x68>	0
<0x69>	0
<0x6A>	0
<0x6B>	0
<0x6C>	0
<0x6D>	0
<0x6E>	0
<0x6F>	0
<0x70>	0
<0x71>	0
<0x72>	0
<0x73>	0
<0x74>	0
<0x75>	0
<0x76>	0
<0x77>	0
<0x78>	0
<0x79>	0
<0x7A>	0
<0x7B>	0
<0x7C>	0
<0x7D>	0
<0x7E>	0
<0x7F>	0
<0x80>	0
<0x81>	0
<0x82>	0
<0x83>	0
<0x84>	0
<0x85>	0
<0x86>	0
<0x87>	0
<0x88>	0
<0x89>	0
<0x8A>	0
<0x8B>	0
<0x8C>	0
<0x8D>	0
<0x8E>	0
<0x8F>	0
<0x90>	0
<0x91>	0
<0x92>	0
<0x93>	0
<0x94>	0
<0x95>	0
<0x96>	0
<0x97>	0
<0x98>	0
<0x99>	0
<0x9A>	0
<0x9B>	0
<0x9C>	0
<0x9D>	0
<0x9E>	0
<0x9F>	0
<0xA0>	0
<0xA1>	0
<0xA2>	0
<0xA3>	0
<0xA4>	0
<0xA5>	0
<0xA6>	0
<0xA7>	0
<0xA8>	0
<0xA9>	0
<0xAA>	0
<0xAB>	0
<0xAC>	0
<0xAD>	0
<0xAE>	0
<0xAF>	0
<0xB0>	0
<0xB1>	0
<0xB2>	0
<0xB3>	0
<0xB4>	0
<0xB5>	0
<0xB6>	0
<0xB7>	0
<0xB8>	0
<0xB9>	0
<0xBA>	0
<0xBB>	0
<0xBC>	0
<0xBD>	0
<0xBE>	0
<0xBF>	0
<0xC0>	0
<0xC1>	0
<0xC2>	0
<0xC3>	0
<0xC4>	0
<0xC5>	0
<0xC6>	0
<0xC7>	0
<0xC8>	0
<0xC9>	0
<0xCA>	0
<0xCB>	0
<0xCC>	0
<0xCD>	0
<0xCE>	0
<0xCF>	0
<0xD0>	0
<0xD1>	0
<0xD2>	0
<0xD3>	0
<0xD4>	0
<0xD5>	0
<0xD6>	0
<0xD7>	0
<0xD8>	0
<0xD9>	0
<0xDA>	0
<0xDB>	0
<0xDC>	0
<0xDD>	0
<0xDE>	0
<0xDF>	0
<0xE0>	0
<0xE1>	0
<0xE2>	0
<0xE3>	0
<0xE4>	0
<0xE5>	0
<0xE6>	0
<0xE7>	0
<0xE8>	0
<0xE9>	0
<0xEA>	0
<0xEB>	0
<0xEC>	0
<0xED>	0
<0xEE>	0
<0xEF>	0
<0xF0>	0
<0xF1>	0
<0xF2>	0
<0xF3>	0
<0xF4>	0
<0xF5>	0
<0xF6>	0
<0xF7>	0
<0xF8>	0
<0xF9>	0
<0xFA>	0
<0xFB>	0
<0xFC>	0
<0xFD>	0
<0xFE>	0
<0xFF>	0
ার	-0
▁স	-1
▁ক	-2
▁ব	-3
ের	-4
▁প	-5
্র	-6
ান	-7
্য	-8
▁ম	-9
▁আ	-10
▁এ	-11
▁হ	-12
▁ন	-13
▁দ	-14
্ত	-15
▁কর	-16
েন	-17
য়ে	-18
▁জ	-19
▁অ	-20
▁ত	-21
লা	-22
িক	-23
িন	-24
▁প্র	-25
াল	-26
ায়	-27
▁র	-28
▁শ	-29
ছে	-30
ির	-31
াম	-32
কে	-33
্ব	-34
িত	-35
▁গ	-36
্ট	-37
▁চ	-38
▁বি	-39
লে	-40
াস	-41
াত	-42
বে	-43
ুর	-44
▁উ	-45
▁ও	-46
▁য	-47
টি	-48
্ষ	-49
াদ	-50
িয়ে	-51
▁পর	-52
াক	-53
াজ	-54
▁ভ	-55
ুল	-56
্থ	-57
াই	-58
েশ	-59
▁থ	-60
তে	-61
▁করে	-62
তি	-63
িল	-64
িয়	-65
বার	-66
▁ই	-67
▁২	-68
ন্	-69
▁সম	-70
▁এক	-71
▁ফ	-72
▁বা	-73
্যা	-74
▁১	-75
র্	-76
▁খ	-77
ন্ত	-78
▁হয়ে	-79
্প	-80
াহ	-81
ঙ্	-82
ছেন	-83
না	-84
▁ছ	-85
েল	-86
িস	-87
াব	-88
ীর	-89
ক্ষ	-90
্ম	-91
▁জন	-92
▁ট	-93
িশ	-94
েকে	-95
াপ	-96
দের	-97
ওয়	-98
▁জান	-99
ঙ্গ	-100
▁অন	-101
▁ড	-102
▁থেকে	-103
▁ঘ	-104
কার	-105
দ্	-106
▁সং	-107
▁উপ	-108
োগ	-109
▁দে	-110
ক্ত	-111
▁ল	-112
িনি	-113
নের	-114
নে	-115
রা	-116
▁(	-117
▁তার	-118
িতে	-119
ধ্য	-120
▁সে	-121
▁নি	-122
চ্	-123
▁হয়	-124
াশ	-125
▁২০	-126
োর	-127
ুন	-128
ীয়	-129
▁করা	-130
▁হয়েছে	-131
▁আম	-132
ার্	-133
▁সা	-134
▁না	-135
বি	-136
▁মো	-137
দেশ	-138
▁এই	-139
স্থ	-140
মান	-141
োন	-142
▁ধ	-143
দ্ধ	-144
▁আর	-145
▁পরি	-146
▁বল	-147
▁নে	-148
্রী	-149
▁নির	-150
েলা	-151
াদের	-152
▁।	-153
ষ্ট	-154
াড়	-155
েস	-156
য়ার	-157
ঞ্	-158
ৃত	-159
▁তিনি	-160
্যান	-161
্ন	-162
েম	-163
▁এব	-164
▁দু	-165
াঁ	-166
▁মা	-167
্দ	-168
িকে	-169
▁মু	-170
▁আগ	-171
নি	-172
▁এবং	-173
▁নিয়ে	-174
ুষ	-175
রে	-176
▁প্রতি	-177
তা	-178
▁'	-179
ংলা	-180
জন	-181
▁ব্য	-182
ভা	-183
র্ত	-184
পুর	-185
ালে	-186
▁অভ	-187
ক্র	-188
▁গ্র	-189
্ঠ	-190
▁সর	-191
▁স্ব	-192
▁বাংলা	-193
িব	-194
▁বিশ	-195
▁কার	-196
▁আল	-197
ধান	-198
▁পার	-199
▁আস	-200
▁এর	-201
িম	-202
াকা	-203
াজার	-204
▁হবে	-205
েক	-206
্ড	-207
▁জন্য	-208
▁বলেন	-209
ন্দ	-210
▁অব	-211
▁লা	-212
পর	-213
▁মে	-214
যোগ	-215
▁দেশ	-216
ান্ত	-217
িয়া	-218
্ক	-219
▁বলে	-220
ড়ে	-221
মে	-222
▁ঘট	-223
টা	-224
▁করেন	-225
ানে	-226
▁বাংলাদেশ	-227
▁শে	-228
ওয়া	-229
▁সু	-230
াতে	-231
▁সম্প	-232
▁দিয়ে	-233
▁যা	-234
প্র	-235
িক্ষ	-236
▁একটি	-237
▁উপজ	-238
▁পা	-239
স্ত	-240
▁মান	-241
▁মধ্য	-242
▁সি	-243
লাম	-244
ুলিশ	-245
িজ	-246
▁৩	-247
▁প্রক	-248
▁পুলিশ	-249
ছিল	-250
▁সময়	-251
দিন	-252
য়া	-253
্স	-254
▁হাস	-255
▁রাজ	-256
▁কা	-257
চ্ছে	-258
বর	-259
▁কর্ম	-260
ঞ্জ	-261
▁এস	-262
▁কম	-263
ুম	-264
িট	-265
ঙ্গে	-266
▁কো	-267
▁তা	-268
গ্র	-269
▁দেখ	-270
ামী	-271
▁করতে	-272
▁ছিল	-273
্বর	-274
পি	-275
▁রা	-276
খন	-277
ন্ধ	-278
েন্ট	-279
ুরু	-280
বাদ	-281
▁ইউ	-282
▁মধ্যে	-283
▁জানান	-284
য়ের	-285
রের	-286
ত্র	-287
্লা	-288
োস	-289
▁বিশ্ব	-290
▁ইস	-291
▁:	-292
▁অভি	-293
হত	-294
▁কি	-295
▁সদ	-296
িদ	-297
▁যে	-298
▁ব্যব	-299
▁২০১	-300
ারা	-301
্যাল	-302
▁সহ	-303
লের	-304
ন্ত্র	-305
▁২০২	-306
মা	-307
্ল	-308
▁থাক	-309
▁প্রধান	-310
▁গত	-311
েছে	-312
াত্র	-313
ুক্ত	-314
▁নাম	-315
▁সঙ্গে	-316
থা	-317
▁মহ	-318
▁সব	-319
▁চে	-320
ন্ত্রী	-321
▁শিক্ষ	-322
▁দিন	-323
ীগ	-324
টে	-325
কের	-326
▁প্রকাশ	-327
▁ঢ	-328
▁আই	-329
▁সরকার	-330
▁আব	-331
সি	-332
ানের	-333
▁কোন	-334
▁বাড়	-335
▁বিষ	-336
▁বছ	-337
াচ	-338
▁আজ	-339
▁ভার	-340
িড	-341
োনা	-342
▁এম	-343
▁৫	-344
▁তাদের	-345
▁স্থ	-346
ত্ত	-347
▁ব্যা	-348
▁৪	-349
েই	-350
ীন	-351
▁শু	-352
▁যায়	-353
তার	-354
েলার	-355
▁কাজ	-356
বা	-357
▁নির্ব	-358
▁মৃত	-359
▁সক	-360
োম	-361
▁সভ	-362
ওয়ার	-363
▁পে	-364
▁হাজার	-365
ুষ্ঠ	-366
▁আপ	-367
স্য	-368
ুব	-369
▁-	-370
ানা	-371
প্ত	-372
▁ইসলাম	-373
▁বে	-374
▁এলা	-375
নার	-376
াড়া	-377
োধ	-378
▁করেছে	-379
▁প্রত	-380
েম্বর	-381
▁সাম	-382
ভাবে	-383
ারণ	-384
থম	-385
্যু	-386
om	-387
▁শুরু	-388
an	-389
ারে	-390
োল	-391
▁নিজ	-392
▁বৃ	-393
▁রহ	-394
গুল	-395
সহ	-396
▁রয়ে	-397
কা	-398
▁উপজেলা	-399
ূর	-400
জ্	-401
চিত	-402
াদক	-403
▁মাম	-404
▁করেছেন	-405
▁বির	-406
▁তবে	-407
রি	-408
িন্ন	-409
নায়	-410
▁অনুষ্ঠ	-411
ুদ্ধ	-412
▁দুই	-413
মন্ত্রী	-414
ীব	-415
পাত	-416
ার্থ	-417
োট	-418
▁করোনা	-419
▁১০	-420
▁বেশ	-421
▁পর্য	-422
▁জাত	-423
লাই	-424
▁জানিয়ে	-425
▁কথা	-426
চে	-427
▁কে	-428
ংশ	-429
াগ	-430
▁জেলা	-431
িয়ার	-432
▁শেষ	-433
ীদের	-434
ৎস	-435
চার	-436
স্ট	-437
ণে	-438
িং	-439
োক	-440
▁মানুষ	-441
▁আহ	-442
েট	-443
ক্ষে	-444
ছি	-445
▁চল	-446
ছু	-447
▁হিস	-448
▁রাখ	-449
▁৬	-450
ষ্ঠ	-451
▁ক্ষ	-452
▁এখন	-453
▁হোস	-454
▁ওই	-455
▁বিভ	-456
▁কিন	-457
থে	-458
▁অধ	-459
▁রহমান	-460
িকা	-461
▁প্রশ	-462
▁হচ্ছে	-463
ুক	-464
▁ক্র	-465
▁সদস্য	-466
াস্থ	-467
র্থ	-468
রণ	-469
িপ	-470
এস	-471
এন	-472
ালের	-473
েন্দ	-474
▁ভারত	-475
টির	-476
তুন	-477
ন্ড	-478
▁সভাপ	-479
▁বিভিন্ন	-480
ড়া	-481
গঞ্জ	-482
▁নির্বাচ	-483
▁করার	-484
▁তারা	-485
▁ট্র	-486
▁আগে	-487
▁বু	-488
▁আদ	-489
▁হোসেন	-490
▁উদ	-491
বেন	-492
▁নতুন	-493
▁বাস	-494
ew	-495
▁৭	-496
িউ	-497
▁মাস	-498
▁হাসপাত	-499
চাল	-500
▁রয়েছে	-501
ন্ন	-502
▁B	-503
▁প্রথম	-504
েষ	-505
ারের	-506
োপ	-507
▁ছিলেন	-508
জি	-509
ব্য	-510
ূল	-511
টক	-512
▁হল	-513
েবে	-514
ুয়ার	-515
ews	-516
ষ্ট্র	-517
োজ	-518
▁কিছু	-519
ানি	-520
ধারণ	-521
▁০	-522
বেদ	-523
এম	-524
▁অবস্থ	-525
গর	-526
▁রে	-527
ামের	-528
▁কর্মক	-529
▁মার্	-530
ঞ্চ	-531
্তু	-532
তো	-533
▁পর্যন্ত	-534
টার	-535
▁চাল	-536
▁৮	-537
িও	-538
▁অভিযোগ	-539
ক্তি	-540
োষ	-541
▁হিসেবে	-542
▁টাকা	-543
লার	-544
in	-545
োর্ট	-546
ীরা	-547
▁কর্মকর্ত	-548
▁ছে	-549
র্শ	-550
র্ণ	-551
▁জু	-552
▁ইউন	-553
েন্দ্র	-554
র্ম	-555
ভাগ	-556
▁সম্পাদক	-557
▁ধর	-558
▁উপজেলার	-559
▁স্ট	-560
▁তিন	-561
▁দল	-562
ারী	-563
▁তাকে	-564
▁সেই	-565
▁গেছে	-566
▁থান	-567
▁কিন্তু	-568
ল্প	-569
▁আরও	-570
▁আশ	-571
াকে	-572
▁বছর	-573
াট	-574
▁৯	-575
খে	-576
▁মাধ্য	-577
▁জাতীয়	-578
ম্যান	-579
ছিলেন	-580
▁টি	-581
▁ঢাকা	-582
ানো	-583
▁বিষয়	-584
উজ	-585
থ্য	-586
▁–	-587
▁ম্যা	-588
মু	-589
▁নিয়	-590
িকি	-591
ক্রান্ত	-592
▁খবর	-593
ুদ্ধে	-594
▁জানা	-595
ালো	-596
er	-597
িকার	-598
▁রো	-599
দে	-600
▁গ্রে	-601
হার	-602
▁N	-603
ীগের	-604
▁সংবাদ	-605
খানে	-606
ীক্ষ	-607
▁মামলা	-608
▁দুর	-609
াইর	-610
▁ইউনিয়	-611
গুলো	-612
▁বিক	-613
▁মৃত্যু	-614
▁আমরা	-615
ত্য	-616
িকিৎস	-617
▁তথ্য	-618
্যান্ড	-619
▁বর	-620
▁ওয়	-621
▁কোনো	-622
▁স্থান	-623
▁তাঁ	-624
দ্যাল	-625
▁চিকিৎস	-626
▁১২	-627
▁আন	-628
ণা	-629
▁এমন	-630
▁শ্র	-631
ঙ্গল	-632
▁অনেক	-633
▁পরে	-634
▁১১	-635
▁দেশের	-636
▁বন্ধ	-637
ীত	-638
▁হলে	-639
es	-640
▁উদ্ধ	-641
▁অপ	-642
▁পারে	-643
্যাপ	-644
▁সাং	-645
ণের	-646
▁দেখা	-647
▁শেখ	-648
at	-649
▁পুর	-650
বন্ধ	-651
▁চেয়ার	-652
▁আওয়	-653
▁উদ্	-654
েলে	-655
ar	-656
▁উপস্থ	-657
স্প	-658
▁অনু	-659
াস্থ্য	-660
▁অপর	-661
▁নিহত	-662
▁সাধারণ	-663
▁পৌ	-664
▁আমাদের	-665
▁নির্	-666
▁দাব	-667
▁সভাপতি	-668
জ্ঞ	-669
▁দিকে	-670
▁বিরুদ্ধে	-671
াহী	-672
▁সাথে	-673
▁শহ	-674
▁পরিচাল	-675
▁অফ	-676
▁আয়	-677
বেশ	-678
।'	-679
▁লাখ	-680
▁পাশ	-681
▁আওয়ামী	-682
▁ঘোষ	-683
▁ব্র	-684
াধ	-685
▁নেত	-686
▁পরীক্ষ	-687
▁দায়	-688
▁অন্য	-689
াইল	-690
▁বিভাগ	-691
ুয়ারি	-692
িত্ব	-693
▁২০২০	-694
▁ইন	-695
▁পাল	-696
স্থা	-697
▁হতে	-698
▁পেয়ে	-699
▁গো	-700
▁এলাক	-701
▁ঝ	-702
▁গিয়ে	-703
▁অভিন	-704
▁উত্ত	-705
ুলে	-706
▁২০২১	-707
েব	-708
্লে	-709
াউ	-710
▁পি	-711
▁স্বাস্থ্য	-712
▁বার	-713
▁উদ্ধার	-714
▁কেন্দ্র	-715
▁কাছে	-716
▁পড়ে	-717
বর্ত	-718
▁P	-719
বারের	-720
▁অর্থ	-721
আই	-722
াফ	-723
▁আদাল	-724
▁নয়	-725
দি	-726
▁দ্ব	-727
▁উপস্থিত	-728
বাস	-729
ীতে	-730
▁মঙ্গল	-731
িস্ত	-732
ধবার	-733
র্জ	-734
ায়ী	-735
▁আক্রান্ত	-736
▁মাধ্যমে	-737
ূর্ব	-738
েস্ক	-739
পুরে	-740
▁সোম	-741
▁দেওয়া	-742
▁বৃহ	-743
▁বেশি	-744
মিক	-745
▁সংস	-746
▁আলো	-747
▁ছাত্র	-748
তিবার	-749
▁পড়	-750
▁গণ	-751
▁আটক	-752
▁বুধবার	-753
াইরাস	-754
স্পতিবার	-755
▁নেই	-756
িফ	-757
▁শিশ	-758
▁হার	-759
▁কর্মকর্তা	-760
▁১৯	-761
কাল	-762
▁চেয়ারম্যান	-763
▁প্রা	-764
▁হাম	-765
াম্প	-766
▁শাহ	-767
▁বিএন	-768
▁বড়	-769
▁স্থানীয়	-770
▁ছেলে	-771
ভাব	-772
▁সোমবার	-773
্যে	-774
▁প্রতিষ্ঠ	-775
▁মঙ্গলবার	-776
িশ্	-777
নিক	-778
▁ডেস্ক	-779
▁হাসপাতালে	-780
▁পাঠ	-781
▁বৃহস্পতিবার	-782
▁যোগ	-783
লেজ	-784
▁নিউজ	-785
য়েক	-786
▁মন	-787
▁অফিস	-788
▁আমি	-789
▁বিশেষ	-790
ুত	-791
ধি	-792
▁প্রকাশিত	-793
ণ্ড	-794
কারী	-795
চ্ছ	-796
▁সিন	-797
▁সর্ব	-798
▁অভিয	-799
▁ভা	-800
চ্চ	-801
▁অক	-802
▁প্রধানমন্ত্রী	-803
তিক	-804
▁১৪	-805
▁প্রায়	-806
গ্রাম	-807
▁ঘটনা	-808
টের	-809
ক্রম	-810
al	-811
▁লে	-812
সা	-813
নিবার	-814
▁লি	-815
▁২০১৯	-816
▁কারণে	-817
র্ড	-818
▁২৪	-819
ময়	-820
▁কয়েক	-821
▁অংশ	-822
ার্ড	-823
▁দেন	-824
▁এলাকায়	-825
সে	-826
পার	-827
▁আগামী	-828
▁সূ	-829
▁নিশ্	-830
▁বৈ	-831
য়ন	-832
▁কলেজ	-833
▁উল	-834
▁ধরে	-835
ত্রে	-836
▁আইন	-837
ূর্ণ	-838
্ণ	-839
▁মাহ	-840
▁১৫	-841
▁শনিবার	-842
▁অনুষ্ঠিত	-843
াম্ম	-844
নী	-845
ক্রবার	-846
▁H	-847
িটি	-848
▁ক্রিকে	-849
ang	-850
▁আমার	-851
▁পরিষ	-852
▁ছবি	-853
▁S	-854
▁বিষয়ে	-855
ফতার	-856
োজন	-857
▁আছে	-858
দার	-859
▁খান	-860
▁বক্ত	-861
▁যুব	-862
▁তৈ	-863
ট্ট	-864
▁কু	-865
▁শুক্রবার	-866
রাষ্ট্র	-867
াক্ত	-868
▁সম্ম	-869
্টার	-870
▁লক্ষ	-871
্টো	-872
দিকে	-873
▁স্ক	-874
▁তাই	-875
▁পূর্ব	-876
ঠে	-877
দা	-878
▁জানিয়েছেন	-879
en	-880
▁চার	-881
▁ঠ	-882
▁হয়েছেন	-883
েড	-884
▁প্রেস	-885
▁এবার	-886
ালা	-887
▁করোন	-888
▁পদ	-889
স্ব	-890
▁দেশে	-891
ম্প	-892
▁ফির	-893
on	-894
▁News	-895
কর	-896
▁বো	-897
ড়িয়ে	-898
ন্ত্রণ	-899
ুট	-900
▁সির	-901
▁যুক্ত	-902
▁উন্ন	-903
▁নিশ্চিত	-904
ার্স	-905
দন্ত	-906
ক্স	-907
▁মুখ	-908
▁আলম	-909
la	-910
▁গ্রামের	-911
াপ্ত	-912
চনা	-913
বিদ্যাল	-914
র্ক	-915
াস্ত	-916
াকার	-917
▁ডিস	-918
▁মি	-919
তির	-920
▁বাংলাদেশের	-921
াইন	-922
দুল	-923
িনা	-924
ছাড়া	-925
ডি	-926
▁মোট	-927
িতা	-928
কি	-929
প্ট	-930
▁আরো	-931
বেক	-932
▁আব্দ	-933
▁বিপ	-934
▁করছে	-935
▁স্প	-936
েজ	-937
ভার	-938
রু	-939
▁আহত	-940
▁শিক্ষার্থ	-941
▁বছরের	-942
▁এতে	-943
▁ঘোষণা	-944
▁বঙ্গ	-945
গঠ	-946
▁বিশ্ববিদ্যাল	-947
তম	-948
্লাহ	-949
▁থানার	-950
▁চৌ	-951
হাম্ম	-952
ত্ব	-953
▁যাবে	-954
▁দলের	-955
▁ডি	-956
or	-957
▁জুন	-958
▁সকাল	-959
▁অক্টো	-960
▁জাম	-961
▁মতো	-962
▁আন্ত	-963
▁জীব	-964
▁ভালো	-965
ুঁ	-966
▁প্রশাস	-967
▁সেপ্ট	-968
▁গ্রেফতার	-969
▁বলা	-970
▁দিতে	-971
▁আত	-972
ারি	-973
শন	-974
োয়	-975
▁বিত	-976
ুগ	-977
▁শিশু	-978
ায়ক	-979
▁কার্য	-980
▁সংখ	-981
▁ফের	-982
েত	-983
▁কল	-984
ৃষ	-985
গ্রহ	-986
▁একজন	-987
২০	-988
▁বাজার	-989
াতা	-990
▁অক্টোবর	-991
com	-992
▁কোটি	-993
ডেট	-994
▁ঘটনায়	-995
জ্জ	-996
▁রোগ	-997
▁জুলাই	-998
▁রাত	-999
▁স্ত	-1000
ome	-1001
▁A	-1002
াঁচ	-1003
্যাক	-1004
▁অপরাহ	-1005
▁সেপ্টেম্বর	-1006
হাম্মদ	-1007
▁মানুষের	-1008
▁যান	-1009
ত্যা	-1010
▁সাবেক	-1011
▁নির্দেশ	-1012
▁দেয়া	-1013
েশন	-1014
বাদিক	-1015
সু	-1016
▁সদর	-1017
▁মূল	-1018
পির	-1019
বির	-1020
▁মার্চ	-1021
জে	-1022
▁সার	-1023
্কার	-1024
▁প্রদ	-1025
▁রাতে	-1026
▁T	-1027
▁পাওয়া	-1028
ধুর	-1029
▁সিদ্ধ	-1030
লেন	-1031
▁ম্যাচ	-1032
▁দাবি	-1033
িত্র	-1034
▁উই	-1035
োহ	-1036
▁সাংবাদিক	-1037
▁ক্য	-1038
▁এপ্র	-1039
▁এছাড়া	-1040
ষ্টা	-1041
▁Home	-1042
▁কাম	-1043
▁একই	-1044
বেদন	-1045
▁অতি	-1046
াতিক	-1047
▁সিলে	-1048
▁নভ	-1049
▁কুম	-1050
ন্ম	-1051
▁সেখানে	-1052
ালী	-1053
▁দক্ষ	-1054
▁মুক্তি	-1055
▁চট্ট	-1056
▁মাল	-1057
▁আপডেট	-1058
▁কৃষ	-1059
▁দী	-1060
▁মিল	-1061
▁ঈ	-1062
▁প্রস্ত	-1063
তায়	-1064
▁সালে	-1065
ষ্টি	-1066
▁পুলিশের	-1067
মি	-1068
angla	-1069
০০	-1070
▁রু	-1071
▁প্রতিনি	-1072
▁১৩	-1073
সের	-1074
্যের	-1075
▁আলী	-1076
▁এপ্রিল	-1077
▁ভোট	-1078
▁ইউনিয়নের	-1079
▁ভূ	-1080
▁বিন	-1081
চিব	-1082
▁আদালত	-1083
লি	-1084
▁পাক	-1085
াত্রী	-1086
▁দেয়	-1087
he	-1088
▁নামে	-1089
▁মাঝ	-1090
▁সড়	-1091
▁নির্ম	-1092
▁বক্তব্য	-1093
ানোর	-1094
▁প্রয়	-1095
▁এসব	-1096
কম	-1097
▁পরিস	-1098
▁বর্ত	-1099
র্জাতিক	-1100
▁সিদ্ধান্ত	-1101
▁দি	-1102
▁১৬	-1103
▁জনের	-1104
েস্ট	-1105
▁রিপ	-1106
িন্দ	-1107
▁বর্তমান	-1108
▁তাঁর	-1109
▁সকালে	-1110
▁নারী	-1111
মন	-1112
▁সাহ	-1113
▁চৌধুর	-1114
্রি	-1115
▁বিষয়টি	-1116
োভ	-1117
ায়ের	-1118
▁পারেন	-1119
োয়া	-1120
গত	-1121
াঙ্গ	-1122
জা	-1123
▁সফ	-1124
যুক্ত	-1125
ামে	-1126
িস্ট	-1127
▁১৮	-1128
▁রান	-1129
িয়ান	-1130
▁হওয়ার	-1131
▁আন্তর্জাতিক	-1132
▁আবার	-1133
▁গুরু	-1134
▁হক	-1135
▁শতা	-1136
▁এটি	-1137
▁লীগের	-1138
দী	-1139
▁জয়	-1140
চ্ছেন	-1141
▁বয়	-1142
▁নভেম্বর	-1143
▁ব্যবহার	-1144
কেট	-1145
িসি	-1146
▁রাজধান	-1147
র্তি	-1148
িতীয়	-1149
▁"	-1150
▁সংখ্যা	-1151
▁নেতা	-1152
▁করছেন	-1153
▁ভারতের	-1154
▁D	-1155
িষ্ট	-1156
▁তৈরি	-1157
▁ভাই	-1158
লায়	-1159
▁তুলে	-1160
▁উদ্দিন	-1161
▁সেন	-1162
▁রবি	-1163
▁সাক	-1164
▁উদ্ব	-1165
্ঞ	-1166
▁গ্রহ	-1167
▁ব্যাং	-1168
▁সৌ	-1169
▁দ্বিতীয়	-1170
▁বলেছেন	-1171
বান	-1172
▁চলে	-1173
▁এলাকার	-1174
েনে	-1175
▁সাই	-1176
▁শেষে	-1177
▁সরকারি	-1178
▁ডিসেম্বর	-1179
▁বিদ	-1180
ধু	-1181
▁শর	-1182
ধা	-1183
▁জানুয়ারি	-1184
▁১৭	-1185
▁দুর্	-1186
ীল	-1187
েব্র	-1188
▁ব্যাপ	-1189
▁দিব	-1190
বল	-1191
▁মোঃ	-1192
▁মোহাম্মদ	-1193
▁এসে	-1194
▁বাড়ি	-1195
▁প্রতিনিধি	-1196
▁সামনে	-1197
▁প্রার্থ	-1198
▁যাচ্ছে	-1199
গে	-1200
▁এরপর	-1201
▁নির্বাচন	-1202
▁C	-1203
োদ	-1204
▁বস	-1205
▁গুল	-1206
িডিও	-1207
াখ	-1208
লেও	-1209
▁দিয়েছেন	-1210
▁মিনি	-1211
র্ঘ	-1212
▁মনে	-1213
ড়ি	-1214
▁লোক	-1215
▁পান	-1216
▁হাসান	-1217
▁২০১৮	-1218
ন্ট	-1219
তন	-1220
▁নিজের	-1221
▁ফেব্র	-1222
▁কর্ত	-1223
ন্স	-1224
লীগের	-1225
▁আগস্ট	-1226
াড়ি	-1227
▁পাঁচ	-1228
▁দিয়েছে	-1229
টিতে	-1230
▁ব্যবস্থা	-1231
▁কারণ	-1232
▁তদন্ত	-1233
বায়	-1234
▁বিচার	-1235
▁হন	-1236
িল্প	-1237
িটির	-1238
▁দিল	-1239
ভব	-1240
▁সম্	-1241
▁সালের	-1242
্লেখ	-1243
▁৩০	-1244
▁বিমান	-1245
▁অতিথ	-1246
▁তাল	-1247
▁সার্	-1248
▁নার	-1249
ুদ	-1250
িণ	-1251
▁উল্লেখ	-1252
▁নিরাপ	-1253
▁মেড	-1254
▁বিজ্ঞ	-1255
▁২১	-1256
্যোগ	-1257
াধীন	-1258
▁খুব	-1259
▁ফর	-1260
পক্ষ	-1261
রস	-1262
▁ঘণ	-1263
▁চাই	-1264
▁হলো	-1265
▁পু	-1266
াশি	-1267
▁ছাড়া	-1268
▁থাকে	-1269
▁অনলাই	-1270
▁জানিয়েছে	-1271
▁অনুষ্ঠানে	-1272
▁হাত	-1273
▁ব্যবস	-1274
▁কমিশ	-1275
▁২৫	-1276
)।	-1277
▁বহ	-1278
▁শিক্ষক	-1279
▁সম্প্র	-1280
▁পরীক্ষা	-1281
ন্য	-1282
▁বঙ্গবন্ধ	-1283
টায়	-1284
▁আহমে	-1285
▁মারা	-1286
▁চৌধুরী	-1287
▁পাকিস্ত	-1288
▁রয	-1289
▁উত্তর	-1290
েসব	-1291
েন্স	-1292
▁খেল	-1293
▁আত্ম	-1294
ভাইরাস	-1295
বাজার	-1296
▁রিপোর্ট	-1297
▁ওপর	-1298
▁হাতে	-1299
▁সরকারের	-1300
▁পরিবারের	-1301
ম্ব	-1302
ন্দর	-1303
▁আফ	-1304
▁বাহ	-1305
মাণ	-1306
▁সাত	-1307
▁খা	-1308
▁বাই	-1309
রুল	-1310
িয়ায়	-1311
▁উঠ	-1312
্থিত	-1313
▁শিক্ষা	-1314
▁ভিডিও	-1315
▁জাহ	-1316
▁ভর্তি	-1317
▁আব্দুল	-1318
▁রেখে	-1319
ন্ত্রণাল	-1320
▁থাকা	-1321
জিব	-1322
▁স্ম	-1323
াণ	-1324
▁পরিস্থিত	-1325
▁দাঁ	-1326
▁মর	-1327
▁দায়িত্ব	-1328
সূ	-1329
▁সংগঠ	-1330
▁মেয়	-1331
▁তো	-1332
▁করবে	-1333
▁রাষ্ট্র	-1334
▁করোনাভাইরাস	-1335
▁রোব	-1336
▁চেষ্টা	-1337
▁ফলে	-1338
▁স্ত্রী	-1339
ীকে	-1340
▁কেউ	-1341
▁অভিযান	-1342
আর	-1343
ad	-1344
▁গতকাল	-1345
▁মন্ত্রণাল	-1346
িত্ত	-1347
ুরি	-1348
▁চট্টগ্রাম	-1349
▁ধর্ষ	-1350
রত	-1351
▁থানায়	-1352
▁২২	-1353
▁ঘটে	-1354
োঁ	-1355
▁মেডিক	-1356
▁সাড়ে	-1357
▁গু	-1358
▁অবস্থায়	-1359
▁রায়	-1360
▁Bangla	-1361
েরে	-1362
▁ডা	-1363
▁বাঁ	-1364
ed	-1365
▁আহমেদ	-1366
▁হয়েছিল	-1367
গম	-1368
th	-1369
▁হাই	-1370
▁পরিচালক	-1371
▁মার	-1372
িলা	-1373
▁ক্লা	-1374
▁মত	-1375
▁শতাংশ	-1376
▁অ্যা	-1377
াপাশি	-1378
ঘট	-1379
▁মেয়ে	-1380
▁বিতরণ	-1381
বের	-1382
লো	-1383
ওয়ায়	-1384
কিন	-1385
গু	-1386
প্রাপ্ত	-1387
▁জেলার	-1388
▁চলছে	-1389
▁পাশাপাশি	-1390
▁মানব	-1391
▁সুপার	-1392
▁বাদ	-1393
মাধ্য	-1394
▁দক্ষিণ	-1395
▁করবেন	-1396
▁M	-1397
বাহ	-1398
▁সকল	-1399
ুস	-1400
▁উপল	-1401
▁বেড়ে	-1402
▁লাই	-1403
▁পরিবার	-1404
▁নির্বাহী	-1405
ৈতিক	-1406
▁নিতে	-1407
▁দীর্ঘ	-1408
▁আয়োজ	-1409
▁ধরনের	-1410
▁খেলা	-1411
ালি	-1412
▁সম্মেল	-1413
ামান	-1414
হা	-1415
্তা	-1416
ঙ্ক	-1417
▁ক্রিকেট	-1418
▁বিভাগের	-1419
▁থাকবে	-1420
▁আলোচনা	-1421
▁কাউ	-1422
্যাস	-1423
▁দৈ	-1424
▁মাদক	-1425
স্ক	-1426
াৎ	-1427
▁স্কুল	-1428
▁রোববার	-1429
▁ঐ	-1430
াপন	-1431
্যাত	-1432
▁দ্র	-1433
▁জন্ম	-1434
▁এন	-1435
▁ছাড়	-1436
▁উদ্বোধ	-1437
১৯	-1438
নাক্ত	-1439
▁ঘণ্ট	-1440
পুরের	-1441
▁হত্যা	-1442
োয়ার	-1443
▁চেয়ে	-1444
▁বিএনপি	-1445
▁মাদ	-1446
▁সিনেম	-1447
▁অফিসার	-1448
ৃত্ব	-1449
সং	-1450
▁দুপুরে	-1451
▁ব্যক্তি	-1452
র্ষ	-1453
টিং	-1454
র্ধ	-1455
▁পক্ষ	-1456
▁চা	-1457
▁এসময়	-1458
ট্র	-1459
il	-1460
▁বের	-1461
▁রবিবার	-1462
▁জানায়	-1463
▁প্রতিবেদ	-1464
বর্তী	-1465
▁চর	-1466
▁যুক্তরাষ্ট্র	-1467
▁এদিকে	-1468
গিয়ে	-1469
▁দশ	-1470
▁হয়নি	-1471
▁L	-1472
▁ক্ষে	-1473
▁উদ্যোগ	-1474
▁কমিটির	-1475
েছেন	-1476
▁শ্রী	-1477
▁নব	-1478
▁ফেব্রুয়ারি	-1479
▁বৈঠ	-1480
▁কেন	-1481
▁সপ্ত	-1482
এর	-1483
▁থেকেই	-1484
▁সহযোগ	-1485
▁অন্যান	-1486
▁ওয়ে	-1487
▁বিএনপির	-1488
▁মাঝে	-1489
),	-1490
▁লাশ	-1491
▁প্রতিষ্ঠান	-1492
কদের	-1493
ফিক	-1494
▁প্রস	-1495
▁কী	-1496
▁কন	-1497
▁বাড়িতে	-1498
▁ভারতীয়	-1499
স্ত্র	-1500
st	-1501
াযোগ	-1502
সূচ	-1503
▁আক	-1504
▁সন্ত	-1505
▁b	-1506
▁সিলেট	-1507
▁২৩	-1508
▁যদি	-1509
▁দিনের	-1510
নৈতিক	-1511
▁ইতি	-1512
▁শিল্প	-1513
▁প্রেসিড	-1514
ুয়া	-1515
গাঁ	-1516
▁অপরাহ্ণ	-1517
▁শনাক্ত	-1518
াজিক	-1519
▁ঠিক	-1520
জনের	-1521
▁সী	-1522
গা	-1523
▁আসাম	-1524
▁দর	-1525
▁আট	-1526
শেষ	-1527
েক্ষ	-1528
সল	-1529
▁টেস্ট	-1530
ায়ে	-1531
▁সুযোগ	-1532
ভি	-1533
▁জানানো	-1534
▁কেন্দ্রীয়	-1535
▁ইউনিয়ন	-1536
▁কর্তৃ	-1537
▁ফুট	-1538
▁পৌঁ	-1539
▁মাত্র	-1540
িক্ত	-1541
▁তখন	-1542
ধার	-1543
▁নেতৃত্ব	-1544
▁মৌ	-1545
যায়ী	-1546
থমিক	-1547
▁ইয়	-1548
েরা	-1549
▁চাঁ	-1550
▁সবাই	-1551
▁ভাইরাস	-1552
▁জায়	-1553
ৃহ	-1554
শ্য	-1555
▁তাহ	-1556
▁,	-1557
ুপ	-1558
ূপ	-1559
▁সময়ে	-1560
▁অনলাইন	-1561
▁উচ্চ	-1562
▁দৈনিক	-1563
ৃতি	-1564
ীতি	-1565
দর্শ	-1566
ুই	-1567
▁যুগ	-1568
্যার	-1569
▁সিরিজ	-1570
▁আবেদন	-1571
▁ইম	-1572
▁বৃদ্ধ	-1573
▁নেওয়া	-1574
▁সংসদ	-1575
▁সচিব	-1576
▁কোম্প	-1577
▁শ্রমিক	-1578
▁প্রাথমিক	-1579
▁বেগম	-1580
▁গ্রেপ্ত	-1581
▁মির	-1582
ংস	-1583
োশ	-1584
▁সড়ক	-1585
▁ঘটনার	-1586
▁মহান	-1587
▁জনপ্র	-1588
▁খালে	-1589
্চ	-1590
মুখ	-1591
▁প্রয়োজন	-1592
▁সভায়	-1593
জ্জামান	-1594
লীগ	-1595
▁নিষ	-1596
▁ধর্ম	-1597
▁হওয়া	-1598
▁গেল	-1599
▁লেখ	-1600
▁প্রেসিডেন্ট	-1601
ন্ত্রীর	-1602
▁সপ্তাহ	-1603
▁থানা	-1604
▁অন্যান্য	-1605
ীর্ষ	-1606
▁চালিয়ে	-1607
▁ঘটন	-1608
▁পালন	-1609
▁অন্ত	-1610
মিন	-1611
চিত্র	-1612
▁গ্রহণ	-1613
▁ম্যাচে	-1614
▁চি	-1615
িরা	-1616
▁হত্য	-1617
▁চলা	-1618
্যাট	-1619
▁অতিথি	-1620
▁সংঘ	-1621
▁শীর্ষ	-1622
▁ছোট	-1623
▁উপলক্ষে	-1624
▁কর্মসূচ	-1625
▁নিরাপত্ত	-1626
▁সংক্রম	-1627
▁যেতে	-1628
কাপ	-1629
েদ	-1630
য়েন্ট	-1631
▁মস	-1632
▁p	-1633
▁মামলার	-1634
▁উৎস	-1635
▁ফেসব	-1636
▁বিশ্ববিদ্যালয়ের	-1637
খান	-1638
▁সৃ	-1639
▁/	-1640
▁দুটি	-1641
বাড়	-1642
ার্জ	-1643
▁মহাস	-1644
▁যোগাযোগ	-1645
▁অনুযায়ী	-1646
▁মার্কিন	-1647
▁ইং	-1648
▁করোনায়	-1649
▁গান	-1650
▁ঘটনাস্থ	-1651
▁মাঠে	-1652
▁দ্রুত	-1653
▁বাহিন	-1654
▁মেডিকেল	-1655
▁রাজশ	-1656
▁বঙ্গবন্ধু	-1657
▁প্রাণ	-1658
▁সুর	-1659
▁সামাজিক	-1660
জীব	-1661
গ্ন	-1662
▁হামলা	-1663
▁একটা	-1664
▁আহম	-1665
▁নৌ	-1666
▁টাই	-1667
টাই	-1668
▁রাস্ত	-1669
তিরিক্ত	-1670
▁কার্যাল	-1671
▁ডে	-1672
▁জীবন	-1673
▁বয়স	-1674
▁পশ	-1675
▁লীগ	-1676
ান্দ	-1677
▁আন্দ	-1678
▁মুক্তিয	-1679
▁২৬	-1680
▁সভাপত	-1681
▁বিদ্যাল	-1682
্বাস	-1683
চেয়ে	-1684
পত্র	-1685
ur	-1686
▁সংস্থা	-1687
▁মিয়া	-1688
▁এটা	-1689
▁দুর্ঘট	-1690
▁গুরুত্ব	-1691
▁রাজধানীর	-1692
▁শুধু	-1693
▁হা	-1694
েমন	-1695
▁নিজে	-1696
▁ব্যক্ত	-1697
তর	-1698
▁যাওয়ার	-1699
▁ফার	-1700
▁দেখে	-1701
▁নজ	-1702
▁করলে	-1703
▁নির্বাচনে	-1704
সম	-1705
▁অতিরিক্ত	-1706
▁পাব	-1707
▁সভাপতিত্ব	-1708
▁মামলায়	-1709
▁পরিষদের	-1710
াকি	-1711
▁রাখা	-1712
▁উপর	-1713
▁বিয়ে	-1714
▁সংশ	-1715
is	-1716
াসহ	-1717
▁ধার	-1718
▁শুভ	-1719
▁এগিয়ে	-1720
▁সবচেয়ে	-1721
▁পাশে	-1722
হি	-1723
▁মোব	-1724
ীদ	-1725
▁দাম	-1726
জয়	-1727
▁সন্	-1728
▁a	-1729
ধ্যায়	-1730
▁উন্নয়ন	-1731
ড়াই	-1732
ডে	-1733
▁শেয়ার	-1734
▁২৮	-1735
্ধ	-1736
ম্বর	-1737
▁সাল	-1738
িখ	-1739
▁ব্যাংক	-1740
▁আহ্ব	-1741
োদন	-1742
▁অনুম	-1743
▁গ্রেপ্তার	-1744
▁প্রদান	-1745
▁সম্পর্	-1746
ন্তব্য	-1747
▁সম্প্রতি	-1748
▁বিশ্বকাপ	-1749
বহ	-1750
▁সমা	-1751
▁বর্তমানে	-1752
▁খুল	-1753
ুকে	-1754
▁পরিবর্ত	-1755
দ্ধা	-1756
▁নানা	-1757
▁খাদ	-1758
▁কার্যক্রম	-1759
মাধ্যম	-1760
▁হলেন	-1761
দেহ	-1762
ay	-1763
▁পাঠানো	-1764
▁গেলে	-1765
মার	-1766
িনার	-1767
িশোর	-1768
মিত	-1769
▁তুল	-1770
কর্ম	-1771
▁বিক্ষ	-1772
িয়ন	-1773
▁অবস্থান	-1774
▁আদালতে	-1775
▁বোর্ড	-1776
রাধ	-1777
িকল্প	-1778
এফ	-1779
▁J	-1780
▁২৭	-1781
▁সভা	-1782
▁দূ	-1783
েনার	-1784
▁দেওয়ার	-1785
নির	-1786
▁আপনার	-1787
▁অনেকে	-1788
▁শ্রে	-1789
োস্ট	-1790
লী	-1791
মন্ত্রীর	-1792
্রম	-1793
▁কোনও	-1794
▁সেল	-1795
োলা	-1796
▁প্রকল্প	-1797
▁মিড	-1798
জার	-1799
করা	-1800
্যাম	-1801
▁আন্দোল	-1802
▁সমাজ	-1803
▁প্রেম	-1804
▁মাহমু	-1805
▁রাশ	-1806
▁বাবা	-1807
াবে	-1808
াজী	-1809
কৃত	-1810
বেষ	-1811
াসের	-1812
▁শরীর	-1813
্যুর	-1814
▁হাসিনা	-1815
▁মেয়র	-1816
▁উদ্বোধন	-1817
পূর্ণ	-1818
▁সূত্র	-1819
▁ভিত্ত	-1820
▁থাকতে	-1821
▁দায়ের	-1822
্চিম	-1823
▁কুমার	-1824
▁ডাক	-1825
গান	-1826
াপুর	-1827
সিং	-1828
▁জনগ	-1829
▁গবেষ	-1830
▁আয়োজন	-1831
থায়	-1832
াকায়	-1833
▁অধ্যাপ	-1834
▁আসে	-1835
▁সৈ	-1836
▁টেক	-1837
it	-1838
▁গোপ	-1839
▁ফাঁ	-1840
▁দোক	-1841
▁ব্যাপারে	-1842
▁করোনার	-1843
দ্দিন	-1844
ক্ষণ	-1845
▁কর্তৃপক্ষ	-1846
ডাউ	-1847
▁O	-1848
াবাহ	-1849
▁পৃ	-1850
পতি	-1851
িভ	-1852
▁দিবস	-1853
▁গোল	-1854
▁কাল	-1855
▁গঠ	-1856
▁সমস	-1857
▁দেখতে	-1858
▁হলেও	-1859
▁সহায়	-1860
শা	-1861
াবাদ	-1862
▁বিল	-1863
▁বাংলাদেশে	-1864
▁ক্ষম	-1865
▁ক্ষেত্রে	-1866
াতের	-1867
ুতি	-1868
▁দৃ	-1869
ফা	-1870
কেল	-1871
িটার	-1872
▁৫০	-1873
▁মন্তব্য	-1874
▁অধিদ	-1875
▁নম্বর	-1876
▁বন্দ	-1877
▁সহকারী	-1878
▁ইউনি	-1879
▁সুস্থ	-1880
রিক	-1881
▁ফ্র	-1882
বো	-1883
রাফ	-1884
▁প্রার্থী	-1885
▁মুক্ত	-1886
▁অধ্যাপক	-1887
▁সূত্রে	-1888
▁গা	-1889
েনের	-1890
▁বিপক্ষে	-1891
'।	-1892
জিদ	-1893
▁বিদেশ	-1894
▁রাখেন	-1895
ন্দ্র	-1896
▁বিরোধ	-1897
▁মুসল	-1898
▁পরিকল্প	-1899
২৪	-1900
▁যারা	-1901
▁রযাব	-1902
▁সম্ভব	-1903
▁যাত্রী	-1904
▁সত্য	-1905
▁যাওয়া	-1906
দান	-1907
▁সাজ	-1908
াস্ট	-1909
গঞ্জের	-1910
▁কিশোর	-1911
▁ক্ষতি	-1912
ic	-1913
news	-1914
▁ময়	-1915
ফল	-1916
ল্যান্ড	-1917
▁যৌ	-1918
▁সর্বো	-1919
▁মালিক	-1920
▁বিক্ষোভ	-1921
▁করি	-1922
▁হারিয়ে	-1923
রান	-1924
▁লাগ	-1925
▁ওয়ার্ড	-1926
াসী	-1927
▁সমস্যা	-1928
▁রয়েছেন	-1929
▁ভব	-1930
▁ব্যাট	-1931
▁চিকিৎসা	-1932
েসর	-1933
▁পয়েন্ট	-1934
ভূ	-1935
▁গেছেন	-1936
▁নামের	-1937
▁t	-1938
▁প্রত্যা	-1939
▁নেয়া	-1940
▁যার	-1941
▁শহরের	-1942
দ্দ	-1943
▁মন্ত্রী	-1944
▁যেন	-1945
re	-1946
বু	-1947
▁জনপ্রিয়	-1948
েশনের	-1949
▁মড	-1950
কারি	-1951
রফ	-1952
তের	-1953
▁কাদের	-1954
▁বিব	-1955
মূল	-1956
▁চাক	-1957
▁পানি	-1958
▁পরিচালনা	-1959
▁পূর্বাহ	-1960
▁[	-1961
▁ক্যাম্প	-1962
▁লাল	-1963
গঞ্জে	-1964
▁নাগর	-1965
▁২০১৭	-1966
িজ্ঞ	-1967
▁রাজশাহী	-1968
▁প্রতির	-1969
ুটি	-1970
চল	-1971
▁লক	-1972
ধ্যে	-1973
▁টাকার	-1974
▁R	-1975
▁আছেন	-1976
ঞ্চল	-1977
মাত্র	-1978
মান্ত	-1979
▁পরিবেশ	-1980
েধ	-1981
হে	-1982
▁বিশ্বের	-1983
গের	-1984
উল	-1985
▁জম	-1986
▁অভিনয়	-1987
▁রাখতে	-1988
▁ভয়	-1989
ent	-1990
▁প্রযুক্ত	-1991
▁বই	-1992
্ষিক	-1993
▁মোবাইল	-1994
▁নিজস্ব	-1995
▁বেলা	-1996
▁সর্বোচ্চ	-1997
▁প্রতিবাদ	-1998
▁পিএম	-1999
▁যখন	-2000
গুলোর	-2001
▁আবু	-2002
▁উদ্দেশ	-2003
▁»	-2004
ha	-2005
▁করুন	-2006
▁মহিলা	-2007
লেই	-2008
▁চ্য	-2009
ুখ	-2010
▁বাত	-2011
▁মুজিব	-2012
▁সম্পর্কে	-2013
im	-2014
▁ভারপ্রাপ্ত	-2015
▁কঠ	-2016
▁এক্স	-2017
▁এলাকা	-2018
▁রেল	-2019
▁ছয়	-2020
ুশ	-2021
des	-2022
চয়	-2023
াধিক	-2024
▁সোন	-2025
নীতি	-2026
▁স্বামী	-2027
▁এসেছে	-2028
▁সংঘর্ষ	-2029
▁শান্ত	-2030
▁ফোন	-2031
▁বন	-2032
▁ভাষ	-2033
ক্ষা	-2034
েচ্ছ	-2035
▁কাছ	-2036
াদেশ	-2037
ক্সবাজার	-2038
▁জিয়া	-2039
হাট	-2040
িনায়ক	-2041
▁চালা	-2042
ৃতীয়	-2043
রুণ	-2044
▁গ্রামে	-2045
▁পরিষদ	-2046
▁পার্ট	-2047
▁২৯	-2048
ইউ	-2049
▁সিটি	-2050
ুজ্জামান	-2051
▁ভে	-2052
▁প্রমুখ	-2053
▁সংগ্রহ	-2054
▁সম্পর্ক	-2055
▁থাকার	-2056
হাস	-2057
▁দিনে	-2058
▁জব	-2059
▁সাক্ষ	-2060
য়াল	-2061
▁অপরাধ	-2062
▁অভিযোগে	-2063
স্কার	-2064
বৃ	-2065
▁পরিস্থিতি	-2066
▁ড্র	-2067
▁বাস্ত	-2068
▁সাহা	-2069
ওয়ে	-2070
▁বাজারে	-2071
▁কমিটি	-2072
ান্ড	-2073
▁২০০	-2074
চ্চিত্র	-2075
▁নাগরিক	-2076
▁পশ্চিম	-2077
▁চাপ	-2078
ৌশ	-2079
▁হুম	-2080
িলের	-2081
un	-2082
▁নুর	-2083
▁প্রতিদিন	-2084
▁চী	-2085
পিএ	-2086
▁অস্ত্র	-2087
▁পরিদর্শ	-2088
▁জানতে	-2089
▁মৃত্যুর	-2090
িকেলে	-2091
▁সভাপতিত্বে	-2092
▁প্রত্য	-2093
ণ্য	-2094
▁ধারণ	-2095
িনের	-2096
▁চলচ্চিত্র	-2097
▁লকডাউ	-2098
▁ইন্ড	-2099
▁সোহ	-2100
দ্র	-2101
▁ব্যবসায়ী	-2102
িয়র	-2103
▁দেশটির	-2104
▁খালেদা	-2105
▁তৃতীয়	-2106
▁ত্র	-2107
▁সাব	-2108
▁নিয়োগ	-2109
▁পথ	-2110
▁বদ	-2111
▁শার	-2112
▁বিজ্ঞপ্ত	-2113
▁শাখ	-2114
রাজ	-2115
▁বিস	-2116
ক্ষেপ	-2117
েত্রী	-2118
▁স্থানে	-2119
▁ফল	-2120
▁জড়	-2121
▁সত	-2122
▁সমর্থ	-2123
▁উৎ	-2124
িয়াল	-2125
▁পোস্ট	-2126
▁শুন	-2127
▁স্বাধীন	-2128
হীন	-2129
▁নদ	-2130
▁ডিজ	-2131
▁আগুন	-2132
স্ট্র	-2133
▁গৃহ	-2134
▁পারবেন	-2135
মান্ড	-2136
▁ফেলে	-2137
▁আবদুল	-2138
▁মডেল	-2139
ing	-2140
▁কক্সবাজার	-2141
ণ্ঠ	-2142
▁উঠে	-2143
্যায়ে	-2144
বিষ	-2145
▁পৌরস	-2146
▁ঢাকার	-2147
▁নগর	-2148
▁কোর	-2149
▁মিনিটে	-2150
▁পথে	-2151
▁বিজে	-2152
▁নেন	-2153
▁নেমে	-2154
▁উইকেট	-2155
▁শ্রেণ	-2156
▁আসা	-2157
▁কলক	-2158
সার	-2159
▁গ্রাম	-2160
▁বিদ্যু	-2161
▁জল	-2162
▁পৃথ	-2163
ঙ্গা	-2164
ানির	-2165
ভিড	-2166
▁প্রশ্ন	-2167
▁মাহমুদ	-2168
▁পুরো	-2169
▁২০২২	-2170
ীকার	-2171
▁রোহি	-2172
▁একে	-2173
▁আপনি	-2174
ঙ্কা	-2175
▁রেক	-2176
▁টিকা	-2177
েতা	-2178
▁সাকিব	-2179
▁মাসের	-2180
গ্রহণ	-2181
▁ফিরে	-2182
▁স্বপ	-2183
▁চো	-2184
▁রং	-2185
▁নিজেদের	-2186
বী	-2187
▁বিস্ত	-2188
▁নিয়ন্ত্র	-2189
▁সমিত	-2190
▁সৌদি	-2191
▁আগের	-2192
▁হাসপাতালের	-2193
▁নিরাপত্তা	-2194
▁ঘণ্টায়	-2195
▁আসছে	-2196
িকভাবে	-2197
▁সেন্ট	-2198
▁যাব	-2199
▁প্রবাস	-2200
▁এখনও	-2201
▁অভিনেত্রী	-2202
▁টেল	-2203
▁বাইরে	-2204
▁সেত	-2205
▁সংগঠন	-2206
▁ঘরে	-2207
টিভ	-2208
eng	-2209
▁সেবা	-2210
▁কিং	-2211
৩০	-2212
মের	-2213
▁ওসি	-2214
ীপ	-2215
▁খাদ্য	-2216
ুজ	-2217
োঁজ	-2218
▁তাহলে	-2219
▁মুহ	-2220
েন্ড	-2221
িকায়	-2222
▁বিক্রি	-2223
▁জি	-2224
ভীর	-2225
▁ফিল	-2226
▁সন্ত্র	-2227
▁৩১	-2228
▁অধিনায়ক	-2229
est	-2230
▁পৌর	-2231
▁গুলি	-2232
হের	-2233
▁গ্রুপ	-2234
▁বিশ্ববিদ্যালয়	-2235
▁করছি	-2236
▁সন্তান	-2237
▁বান	-2238
ভিস	-2239
▁অপরাহ্ন	-2240
ve	-2241
▁শিক্ষার্থীদের	-2242
ঘাত	-2243
▁চুক্ত	-2244
ীগঞ্জ	-2245
▁ছড়িয়ে	-2246
▁রেকর্ড	-2247
▁বিকেলে	-2248
গার	-2249
▁অ্যান্ড	-2250
▁বরিশ	-2251
▁রাজনৈতিক	-2252
▁মনোন	-2253
▁ঘর	-2254
▁।।	-2255
▁আলা	-2256
জু	-2257
▁নাস	-2258
▁সীমান্ত	-2259
▁দর্শ	-2260
▁হওয়ায়	-2261
িদের	-2262
engal	-2263
▁প্রতিবেদক	-2264
▁দুপুর	-2265
িউড	-2266
▁ইত	-2267
▁ট্রাম্প	-2268
▁ভাগ	-2269
▁বাজ	-2270
▁পায়	-2271
▁তরুণ	-2272
িষ	-2273
▁সাংবাদিকদের	-2274
্লিষ্ট	-2275
▁ব্যবস্থ	-2276
▁খে	-2277
▁হাসপাতাল	-2278
▁গর	-2279
▁রূপ	-2280
বন্দ	-2281
▁আবুল	-2282
▁হাজ	-2283
কালে	-2284
▁সাদ	-2285
▁কমে	-2286
▁অ্যাপ	-2287
ান্তর	-2288
▁অবশ্য	-2289
▁জর	-2290
▁শত	-2291
এই	-2292
শীল	-2293
▁প্রধানমন্ত্রীর	-2294
ail	-2295
▁কাউন্স	-2296
২১	-2297
▁আক্ত	-2298
▁মসজিদ	-2299
▁রহমানের	-2300
▁কুমিল	-2301
▁দূর	-2302
▁ট্রাক	-2303
▁শিব	-2304
▁চলতি	-2305
▁I	-2306
১৮	-2307
▁ইউপি	-2308
োপা	-2309
্জ	-2310
▁মুখে	-2311
▁আগেই	-2312
▁চিকিৎসক	-2313
▁উপজেলায়	-2314
▁পড়েছে	-2315
▁আশা	-2316
▁নিয়েছে	-2317
▁আহ্বান	-2318
▁ম্যান	-2319
▁পরিবহ	-2320
▁বাল	-2321
▁m	-2322
▁বিয়ের	-2323
▁রক্ত	-2324
▁পুরস্কার	-2325
▁শির	-2326
▁সংশ্লিষ্ট	-2327
▁নির্যাত	-2328
▁কখন	-2329
▁গড়ে	-2330
▁লক্ষ্য	-2331
মুনা	-2332
▁মরদেহ	-2333
ুলের	-2334
▁সবার	-2335
▁পক্ষে	-2336
▁কমপ	-2337
▁আহমদ	-2338
উট	-2339
▁ওয়েব	-2340
▁জেনার	-2341
াবি	-2342
▁মহানগর	-2343
▁উদ্যোগে	-2344
▁মাসে	-2345
টু	-2346
▁নাজ	-2347
বন্ধন	-2348
▁সারা	-2349
ায়ণ	-2350
▁প্রশাসন	-2351
▁চাঁদ	-2352
▁মিশ	-2353
ামা	-2354
▁যুবক	-2355
▁কাজে	-2356
▁পুন	-2357
▁মূল্য	-2358
▁বিষয়ক	-2359
▁করেছি	-2360
▁সার্ভিস	-2361
ch	-2362
desh	-2363
▁কোচ	-2364
▁রেজ	-2365
▁অর্	-2366
সভ	-2367
▁অনুষ্ঠান	-2368
▁সৃষ্টি	-2369
▁বিজয়	-2370
▁মন্ত্রণালয়ের	-2371
▁এখানে	-2372
▁জরি	-2373
াইট	-2374
▁ছেড়ে	-2375
শে	-2376
▁বাড়ির	-2377
▁শহীদ	-2378
▁F	-2379
▁মোস্ত	-2380
জনকে	-2381
▁মাই	-2382
িগ	-2383
▁চালু	-2384
▁ইন্টার	-2385
▁বিশ্বাস	-2386
ব্র	-2387
▁অস্ট্র	-2388
াভাব	-2389
▁প্রতিযোগ	-2390
▁গুরুত্বপূর্ণ	-2391
▁সুবি	-2392
▁শিকার	-2393
▁দাঁড়িয়ে	-2394
▁করলেন	-2395
▁জেনারেল	-2396
দ্ব	-2397
▁দেয়ার	-2398
▁শিক্ষার্থী	-2399
▁আমের	-2400
▁ভাব	-2401
▁খাবার	-2402
▁ভাল	-2403
▁মেস	-2404
▁সংক্রমণ	-2405
▁মহাম	-2406
▁K	-2407
▁s	-2408
▁এমপি	-2409
খালী	-2410
▁পরীক্ষার	-2411
▁আপন	-2412
▁কমিশনার	-2413
▁ভোর	-2414
োলার	-2415
▁অন্যতম	-2416
▁চিন	-2417
▁যায়নি	-2418
▁যুগ্ম	-2419
২৫	-2420
১০	-2421
▁মেনে	-2422
▁পাকিস্তান	-2423
▁শো	-2424
▁কৃষি	-2425
▁আইনজীব	-2426
▁সময়ের	-2427
াক্ষ	-2428
▁চান	-2429
▁সেরা	-2430
▁পদে	-2431
▁এখনো	-2432
▁নর	-2433
ৈধ	-2434
পাড়া	-2435
▁রি	-2436
▁অবস্থা	-2437
িন্দা	-2438
পাদ	-2439
▁মুক্তিযো	-2440
▁জনকে	-2441
▁গাড়	-2442
▁প্রস্তুতি	-2443
▁জারি	-2444
ফুল	-2445
▁রাম	-2446
▁তারিখ	-2447
্রাস	-2448
▁পরিকল্পনা	-2449
▁কণ্ঠ	-2450
▁প্রচ	-2451
ীক	-2452
▁সম্মেলনে	-2453
▁সিনিয়র	-2454
▁প্রবেশ	-2455
ার্ট	-2456
▁ঈদ	-2457
▁৪০	-2458
বাংলা	-2459
▁ক্ল	-2460
▁করেছিলেন	-2461
ায়ার	-2462
▁বিজ্ঞান	-2463
▁নাট	-2464
▁মাছ	-2465
২২	-2466
িয়াম	-2467
▁বাণ	-2468
▁অথ	-2469
▁তৃ	-2470
াফিজ	-2471
নাথ	-2472
▁অসু	-2473
▁সেটা	-2474
▁আক্তার	-2475
▁নেতৃত্বে	-2476
▁নির্বাচিত	-2477
রী	-2478
চেতন	-2479
▁ভাবে	-2480
▁প্রতিরোধ	-2481
▁নেয়	-2482
id	-2483
▁থাকায়	-2484
▁in	-2485
▁অবৈধ	-2486
ber	-2487
▁হে	-2488
▁কয়েকটি	-2489
▁প্রযুক্তি	-2490
▁আরেক	-2491
২৮	-2492
▁২০১৬	-2493
▁সিনেমা	-2494
▁অস্ট্রেল	-2495
১৭	-2496
্যাপী	-2497
সর	-2498
▁সুন	-2499
টন	-2500
▁চিত্র	-2501
▁এল	-2502
ামূল	-2503
াতার	-2504
▁কলেজের	-2505
▁হত্যার	-2506
▁নো	-2507
▁উল্লেখ্য	-2508
ূর্ত	-2509
▁Bengal	-2510
▁বার্তা	-2511
▁দার	-2512
েলের	-2513
কোর্ট	-2514
▁সুন্দর	-2515
▁অ্যাড	-2516
▁অধিদপ্ত	-2517
▁ঢাকায়	-2518
শোর	-2519
▁হত	-2520
▁জঙ্গ	-2521
▁পরিবর্তন	-2522
মেন্ট	-2523
▁গাড়ি	-2524
▁পর্যায়ে	-2525
▁পড়া	-2526
▁সহায়তা	-2527
▁হামলার	-2528
▁ধরা	-2529
le	-2530
▁কবির	-2531
▁সৈয়	-2532
তেই	-2533
▁হাল	-2534
▁সদস্যরা	-2535
▁ফাইন	-2536
▁পার্	-2537
▁ভিত্তিতে	-2538
টিয়ে	-2539
▁সাহায	-2540
▁সম্ভাব	-2541
▁এত	-2542
▁ছাত্রলীগের	-2543
▁বিস্তার	-2544
▁সিং	-2545
লেট	-2546
▁রাস	-2547
▁পুরুষ	-2548
▁জেলায়	-2549
am	-2550
▁অল	-2551
▁আমির	-2552
▁সিরাজ	-2553
াকর্ম	-2554
▁মন্ত্রণালয়	-2555
▁আও	-2556
▁ক্রিকেটার	-2557
ag	-2558
ান্স	-2559
ৃত্ত	-2560
▁একাধিক	-2561
▁অব্যা	-2562
েম্ব	-2563
▁ব্ল	-2564
▁ভারতে	-2565
১১	-2566
টিকে	-2567
▁সর্বশেষ	-2568
▁ফেসবুক	-2569
▁প্রস্তাব	-2570
িস্ট্র	-2571
িরে	-2572
িত্য	-2573
▁বলেও	-2574
াব্দ	-2575
▁U	-2576
্ফ	-2577
▁ছবির	-2578
▁পৌঁছে	-2579
▁পেশ	-2580
দেশের	-2581
▁সমাবেশ	-2582
▁ঘটেছে	-2583
▁কামাল	-2584
ভোগ	-2585
গ্রী	-2586
▁আমিন	-2587
▁পল	-2588
ড়ায়	-2589
▁পারি	-2590
▁প্রশিক্ষ	-2591
াক্ক	-2592
▁জড়িত	-2593
▁আসামি	-2594
পে	-2595
রণের	-2596
▁সতর্ক	-2597
এসসি	-2598
ro	-2599
াহিদ	-2600
মানা	-2601
▁ম্য	-2602
▁অনুর	-2603
ক্য	-2604
১২	-2605
▁নির্মাণ	-2606
▁কাউন্সিল	-2607
াগত	-2608
▁জোর	-2609
▁দেব	-2610
▁আধ	-2611
ন্দে	-2612
্রাম	-2613
তেন	-2614
▁ইক	-2615
▁রশ	-2616
▁বর্ষ	-2617
্বল	-2618
▁যাত্র	-2619
▁দাবিতে	-2620
াভাবিক	-2621
জাত	-2622
ঙ্খ	-2623
▁ওয়ান	-2624
▁বাস্তবায়	-2625
▁যত	-2626
▁কাশ	-2627
▁ফরিদ	-2628
ুণ	-2629
▁পরাম	-2630
দল	-2631
▁রাখার	-2632
বিতে	-2633
্টর	-2634
▁গাজী	-2635
▁দোকান	-2636
াবা	-2637
▁সম্পন্ন	-2638
দিও	-2639
▁প্রশাসক	-2640
সন	-2641
▁টুই	-2642
▁তৃণ	-2643
▁বিধ	-2644
▁তারকা	-2645
গুলোতে	-2646
▁নিষেধ	-2647
েনি	-2648
▁সন্ধ্যায়	-2649
।"	-2650
▁আয়োজিত	-2651
▁পরামর্শ	-2652
▁খেলে	-2653
▁প্রচার	-2654
▁ব্যাপক	-2655
বাল	-2656
▁প্রকাশের	-2657
▁লেন	-2658
ধানে	-2659
▁দলীয়	-2660
▁যুক্তরাষ্ট্রের	-2661
▁নির্দেশনা	-2662
য়াজ	-2663
▁হাইকোর্ট	-2664
▁তাম	-2665
▁শোক	-2666
▁নিয়ন্ত্রণ	-2667
ার্ম	-2668
▁ঋ	-2669
িজ্য	-2670
▁সৈয়দ	-2671
▁কারাগ	-2672
▁পরিচয়	-2673
▁ইউর	-2674
১৫	-2675
▁কাপ	-2676
ড়ার	-2677
▁প্রতিবেদন	-2678
▁ব্যবসায়	-2679
▁পঞ্চ	-2680
▁যুদ্ধ	-2681
▁ইনি	-2682
▁ক্যা	-2683
▁পেয়েছেন	-2684
য়েল	-2685
ব্যাপী	-2686
▁ফুল	-2687
▁পরবর্তী	-2688
শার	-2689
▁আন্দোলন	-2690
▁ধর্ষণ	-2691
▁নমুনা	-2692
ভো	-2693
▁সংস্ক	-2694
▁পণ্য	-2695
▁সারাদেশ	-2696
▁দফ	-2697
উন্ড	-2698
▁::	-2699
ion	-2700
সিন	-2701
▁রাজ্য	-2702
ানী	-2703
▁বুঝ	-2704
▁ইর	-2705
ৃতিক	-2706
▁নেতাকর্ম	-2707
▁বাকি	-2708
োয়েন্ট	-2709
▁খুঁ	-2710
▁নিয়মিত	-2711
▁দীর্ঘদিন	-2712
▁ফো	-2713
গায়	-2714
োনাল	-2715
▁একা	-2716
▁পাকিস্তানের	-2717
▁কোভিড	-2718
ুয়ারী	-2719
▁টিক	-2720
▁গল্প	-2721
্যাশন	-2722
▁আমাকে	-2723
▁বৃষ্টি	-2724
▁চায়	-2725
চালক	-2726
▁বৈঠক	-2727
▁সংক	-2728
▁নিখ	-2729
▁লোকজন	-2730
থমে	-2731
▁কর্মসূচি	-2732
▁লিখ	-2733
▁যেখানে	-2734
▁এদিন	-2735
িসং	-2736
▁গাছ	-2737
▁দুর্ন	-2738
ment	-2739
নগর	-2740
▁ঘটনাস্থলে	-2741
▁ভূম	-2742
▁তাতে	-2743
ine	-2744
▁যশোর	-2745
▁ধান	-2746
▁করায়	-2747
▁শক্ত	-2748
▁ফেল	-2749
ধে	-2750
৫০	-2751
▁ফুটবল	-2752
▁পালিয়ে	-2753
▁আদালতের	-2754
ুকুর	-2755
▁নারায়ণ	-2756
▁প্রভাব	-2757
▁বেসর	-2758
▁জে	-2759
িকের	-2760
▁ঘুর	-2761
াতি	-2762
১৪	-2763
▁শ্রীল	-2764
চার্জ	-2765
▁ব্যবস্থাপ	-2766
র্গ	-2767
▁বিপর	-2768
▁এছাড়াও	-2769
▁পররাষ্ট্র	-2770
▁নেওয়ার	-2771
▁উৎপাদ	-2772
▁প্রক্র	-2773
ol	-2774
▁মিনিট	-2775
▁কাট	-2776
us	-2777
▁পৌঁছ	-2778
ঙে	-2779
▁বছরে	-2780
▁নিয়েছেন	-2781
▁W	-2782
▁বসে	-2783
ওসি	-2784
্নের	-2785
▁চিকিৎসাধীন	-2786
▁আলোচ	-2787
▁পেতে	-2788
চু	-2789
▁আদেশ	-2790
▁লিখে	-2791
সান	-2792
▁ইসলামের	-2793
▁যদিও	-2794
২৭	-2795
াসন	-2796
▁থাকেন	-2797
▁on	-2798
▁অব্যাহত	-2799
াসে	-2800
ল্লা	-2801
▁বীর	-2802
▁তারপর	-2803
▁তিনটি	-2804
▁সংগঠনের	-2805
▁লাভ	-2806
▁গণমাধ্যম	-2807
▁গিয়েছে	-2808
▁হিসাবে	-2809
জন্য	-2810
▁জরুরি	-2811
▁পেয়েছে	-2812
গুলি	-2813
াচার	-2814
▁চন্দ্র	-2815
▁যাতে	-2816
▁শহর	-2817
▁টাইম	-2818
▁জো	-2819
▁V	-2820
কারে	-2821
▁এরই	-2822
▁অনেকেই	-2823
ইন	-2824
ঠি	-2825
▁চালক	-2826
▁পদক্ষেপ	-2827
িতার	-2828
সী	-2829
▁f	-2830
▁সমিতির	-2831
aily	-2832
১৬	-2833
্যান্ট	-2834
ak	-2835
▁Bangladesh	-2836
▁দশমিক	-2837
▁প্রথমে	-2838
ৃদ	-2839
▁বেড়েছে	-2840
ঘাট	-2841
▁দলে	-2842
াইজ	-2843
▁চ্যাম্প	-2844
▁তাপ	-2845
▁সম্মেলন	-2846
▁রিপোর্টার	-2847
ার্ন	-2848
▁কেজি	-2849
▁বৈঠকে	-2850
▁কত	-2851
▁সফল	-2852
▁ভাঙ	-2853
▁মজ	-2854
ালেন	-2855
গঠনিক	-2856
্লেক্স	-2857
▁ভি	-2858
াজ্ঞ	-2859
▁উঠেছে	-2860
▁পাওয়ার	-2861
▁লেনদ	-2862
▁সংস্থ	-2863
▁জমা	-2864
মনসিং	-2865
২৬	-2866
▁আনন্দ	-2867
▁.	-2868
▁বাংলাদেশি	-2869
▁চক্র	-2870
ul	-2871
িনী	-2872
▁বিনোদন	-2873
▁মুসলিম	-2874
▁গুরুতর	-2875
▁স্টাফ	-2876
▁লড়াই	-2877
▁চলাচল	-2878
▁গঠন	-2879
্যান্স	-2880
▁ছাত্রী	-2881
▁আর্থ	-2882
▁পত্র	-2883
▁দিলেন	-2884
▁আইস	-2885
▁অনুস	-2886
▁মুর	-2887
▁উদয	-2888
▁মাঠ	-2889
▁অসুস্থ	-2890
▁পূ	-2891
▁অধিকার	-2892
▁অন্তত	-2893
▁জাতির	-2894
▁বরিশাল	-2895
এসই	-2896
চ্ছি	-2897
▁বলিউড	-2898
▁বিক্র	-2899
বীর	-2900
িশন	-2901
▁হেল	-2902
▁বৃদ্ধি	-2903
▁রোগী	-2904
▁গভীর	-2905
▁সহজ	-2906
▁সন্ধ	-2907
▁সচেতন	-2908
▁ব্যবহ	-2909
▁নিউ	-2910
▁কোম্পানি	-2911
▁পাস	-2912
▁অভিযুক্ত	-2913
▁কার্যালয়ে	-2914
২৩	-2915
▁আনা	-2916
▁হাব	-2917
কারীদের	-2918
▁তালিকা	-2919
ত্ত্ব	-2920
গ্রামের	-2921
মত	-2922
▁চরিত্র	-2923
▁বলতে	-2924
▁প্রতিটি	-2925
▁কুমিল্লা	-2926
▁ব্যাংকের	-2927
ফিকুল	-2928
▁খাত	-2929
▁বাহিনীর	-2930
▁কিল	-2931
▁আফ্র	-2932
▁তাঁকে	-2933
েও	-2934
ক্লা	-2935
day	-2936
▁ঝুঁ	-2937
▁জায়গায়	-2938
▁o	-2939
্বিক	-2940
▁অঞ্চ	-2941
▁মাও	-2942
▁হাসিনার	-2943
▁রানে	-2944
িমা	-2945
ৃঙ্খ	-2946
▁আফগান	-2947
▁বিদ্যুৎ	-2948
রসাই	-2949
▁বাসায়	-2950
বছ	-2951
▁ছবিতে	-2952
▁রানের	-2953
▁ধর্ষণের	-2954
▁ইনস্ট	-2955
ংক	-2956
▁ধারণা	-2957
▁PM	-2958
▁খুলনা	-2959
▁বজ	-2960
▁কাজের	-2961
▁মামুন	-2962
বঙ্গ	-2963
▁ওপ	-2964
▁পরিবহন	-2965
মর	-2966
আপ	-2967
▁পরিমাণ	-2968
াপতি	-2969
▁স্বাভাবিক	-2970
িটন	-2971
ুদ্র	-2972
▁হস্ত	-2973
▁দোয়া	-2974
▁নির্বাচনের	-2975
▁এশ	-2976
▁প্রতিমন্ত্রী	-2977
▁দখ	-2978
▁আসার	-2979
▁আনোয়ার	-2980
▁আইনজীবী	-2981
▁অভিনেতা	-2982
▁জিয়ার	-2983
▁জরিমানা	-2984
▁হোম	-2985
▁নিষেধাজ্ঞ	-2986
▁মুক্তিযোদ্ধা	-2987
▁বগু	-2988
▁ভ্যাক	-2989
মূ	-2990
পাশ	-2991
োমুখ	-2992
▁সংব	-2993
▁কঠোর	-2994
▁পেল	-2995
▁কমিশন	-2996
▁অপেক্ষ	-2997
কো	-2998
্লাই	-2999
▁মন্ত্র	-3000
▁মনোনয়ন	-3001
▁বেসরকারি	-3002
হান	-3003
সিক	-3004
▁অগ্ন	-3005
art	-3006
▁প্লা	-3007
▁প্রয়োজনীয়	-3008
বুল	-3009
▁মুখোমুখ	-3010
▁সেনাবাহ	-3011
▁মুখ্য	-3012
▁বিকেল	-3013
▁মিছিল	-3014
▁বিদ্যালয়ের	-3015
উদ্দিন	-3016
▁ভাইস	-3017
▁বিজ্ঞপ্তিতে	-3018
▁জিতে	-3019
▁ইংল্যান্ড	-3020
▁জিজ্ঞ	-3021
▁ধাক্ক	-3022
▁মধ্যেই	-3023
▁নিক	-3024
▁পারবে	-3025
▁রাজনীতি	-3026
▁E	-3027
▁অট	-3028
▁বাং	-3029
▁গোপন	-3030
তন্ত্র	-3031
▁হিন্দ	-3032
▁ক্লাব	-3033
▁প্রশাসনের	-3034
▁বাণিজ্য	-3035
▁ম্যাচের	-3036
▁ষ	-3037
ক্ষম	-3038
িয়েছে	-3039
ৃতিতে	-3040
▁দাঁড়	-3041
▁হঠ	-3042
▁মহাসচিব	-3043
ুলত	-3044
ধ্যক্ষ	-3045
▁বয়সী	-3046
▁ভেঙে	-3047
ফো	-3048
▁মহাসড়	-3049
▁স্বীকার	-3050
াইভ	-3051
িটাল	-3052
▁আসনের	-3053
▁০৯	-3054
বায়দুল	-3055
▁গোয়	-3056
▁মাস্ক	-3057
▁তাঁদের	-3058
▁সাংগঠনিক	-3059
▁ঘণ্টা	-3060
▁ভুল	-3061
▁কমপ্লেক্স	-3062
দুর	-3063
াউন্ড	-3064
▁On	-3065
▁কোর্ট	-3066
▁মুখোমুখি	-3067
▁কল্যা	-3068
▁সঙ্গ	-3069
▁জামিন	-3070
বিত্র	-3071
▁সংক্রান্ত	-3072
নীত	-3073
▁আবহা	-3074
িতায়	-3075
▁দিক	-3076
সভাপতি	-3077
৪০	-3078
▁বায়	-3079
▁ময়মনসিং	-3080
গাঁও	-3081
রক্ষ	-3082
▁আত্মহত	-3083
▁লক্ষ্যে	-3084
▁অন্যদিকে	-3085
▁pm	-3086
ap	-3087
▁ডেই	-3088
▁বাহিনী	-3089
▁যেমন	-3090
মধ্যে	-3091
▁থাকলে	-3092
▁অনুরোধ	-3093
▁লকডাউন	-3094
▁মিজ	-3095
▁কিংবা	-3096
▁করিম	-3097
গীর	-3098
▁মাদ্রাস	-3099
▁যাচ্ছেন	-3100
পরি	-3101
▁মনির	-3102
টোয়েন্ট	-3103
▁নিন	-3104
▁বাঁচ	-3105
▁আরব	-3106
▁মোটরসাই	-3107
১৩	-3108
▁চত	-3109
▁উন্নয়	-3110
ুধ	-3111
▁বেঁ	-3112
▁প্রস্তুত	-3113
▁কং	-3114
▁আওতায়	-3115
▁ফি	-3116
াপ্র	-3117
বৃন্দ	-3118
▁ইনচার্জ	-3119
ub	-3120
▁শাম	-3121
পু	-3122
ভুক্ত	-3123
▁নূর	-3124
▁একদিন	-3125
▁টু	-3126
ীরে	-3127
▁আসেন	-3128
▁লেখা	-3129
ামেন্ট	-3130
▁টুর	-3131
▁দিল্ল	-3132
▁মাহফ	-3133
▁পৃথিব	-3134
▁কার্যকর	-3135
▁শারীর	-3136
▁ভেত	-3137
▁ট্রেন	-3138
▁পৌরসভার	-3139
▁উচিত	-3140
৩৫	-3141
কল	-3142
সঙ্গে	-3143
▁আখ	-3144
▁খেলতে	-3145
▁প্রেসক্লা	-3146
▁স্থানীয়রা	-3147
▁ওবায়দুল	-3148
▁মানববন্ধন	-3149
▁এইচ	-3150
গ্রেস	-3151
▁পবিত্র	-3152
্না	-3153
▁লিম	-3154
▁থাকলেও	-3155
▁k	-3156
▁জায়গা	-3157
▁প্রতিবেদনে	-3158
▁সহযোগিতা	-3159
▁হঠাৎ	-3160
▁অগ্র	-3161
▁সমন	-3162
▁আবারও	-3163
▁ফায়ার	-3164
▁সুবিধা	-3165
▁দিনাজ	-3166
▁সাতক্ষ	-3167
▁সম্মান	-3168
তাব	-3169
▁আসতে	-3170
▁মাথায়	-3171
▁গ্রাহ	-3172
্ফোর	-3173
ড়ান্ত	-3174
ফার	-3175
▁পেঁ	-3176
▁শাক	-3177
রির	-3178
▁আগ্র	-3179
▁এড	-3180
চর	-3181
▁পর্ব	-3182
▁ইতিহাস	-3183
▁সমালো	-3184
▁কান	-3185
▁মর্	-3186
▁শাহজ	-3187
▁মুহূর্ত	-3188
▁রম	-3189
line	-3190
সব	-3191
▁পেছ	-3192
যোগ্য	-3193
▁রাজধানী	-3194
▁দুর্ঘটনা	-3195
চি	-3196
ফর	-3197
▁শীত	-3198
ধিক	-3199
পথ	-3200
িসংঘ	-3201
▁পিছ	-3202
িদুল	-3203
▁॥	-3204
গিত	-3205
লিশ	-3206
ort	-3207
োয়াড়	-3208
▁বিস্তারিত	-3209
▁চাষ	-3210
▁পূর্বাহ্ণ	-3211
anth	-3212
্ষিকী	-3213
ফাজ	-3214
ফের	-3215
▁অসহ	-3216
িক্স	-3217
িল্যান্ড	-3218
▁Daily	-3219
em	-3220
ুষ্ঠান	-3221
▁বিরোধী	-3222
▁সাপ	-3223
▁c	-3224
▁তুর	-3225
▁নিম	-3226
▁আয়োজনে	-3227
▁চূ	-3228
▁চীনের	-3229
▁৬০	-3230
বরাহ	-3231
▁ক্রী	-3232
▁সোশ	-3233
াদি	-3234
▁সাহায্য	-3235
ST	-3236
▁নামাজ	-3237
▁স্থগিত	-3238
▁সান	-3239
▁সেখান	-3240
▁প্রমাণ	-3241
চ্ছদ	-3242
▁ম্যাজ	-3243
▁জাতিসংঘ	-3244
▁করোনাভাইরাসের	-3245
▁এনে	-3246
▁রোহিঙ্গা	-3247
▁পোশ	-3248
খাল	-3249
▁বহু	-3250
▁কংগ্রেস	-3251
য়েশ	-3252
▁টিম	-3253
▁পাই	-3254
▁ঐতি	-3255
জনক	-3256
▁পূর্ণ	-3257
নং	-3258
▁মিয়ান	-3259
▁৩৫	-3260
▁মুজিবুর	-3261
▁সন্ধ্যা	-3262
▁ঈদের	-3263
▁সমন্ব	-3264
▁খেলোয়াড়	-3265
ুরা	-3266
et	-3267
ir	-3268
্লার	-3269
ভোকেট	-3270
লানা	-3271
▁রক্ষ	-3272
▁w	-3273
িসহ	-3274
▁জিজ্ঞাস	-3275
▁পাহ	-3276
কালীন	-3277
▁অভিযানে	-3278
▁সংস্থার	-3279
আম	-3280
▁জামাল	-3281
▁নিখোঁজ	-3282
▁গোলাম	-3283
ভর	-3284
▁হৃদ	-3285
▁ফারুক	-3286
ia	-3287
▁বিস্ফোর	-3288
▁বিজেপি	-3289
▁বাসিন্দা	-3290
ুনের	-3291
পা	-3292
and	-3293
▁সংগ	-3294
▁কাজী	-3295
▁নজরুল	-3296
▁এজ	-3297
▁ওষ	-3298
▁বাতিল	-3299
▁প্রকৌশ	-3300
▁ওয়ার্	-3301
▁সবাইকে	-3302
▁বিচারপতি	-3303
ডেম	-3304
২৯	-3305
▁সদস্যদের	-3306
ct	-3307
বরে	-3308
▁১০০	-3309
▁পাবেন	-3310
▁সরবরাহ	-3311
ন্থ	-3312
ৃঙ্খলা	-3313
▁হোসেনের	-3314
▁ভো	-3315
▁সেনা	-3316
▁দেবে	-3317
',	-3318
শ্র	-3319
মানের	-3320
▁অ্যাস	-3321
▁খার	-3322
▁সেলিম	-3323
▁অনুমোদন	-3324
▁খর	-3325
▁কেটে	-3326
▁নিহতের	-3327
▁খুবই	-3328
▁অঙ্গ	-3329
▁চাইলে	-3330
▁শুটিং	-3331
▁তালিকায়	-3332
▁একাদ	-3333
▁পদ্ম	-3334
▁বন্ধু	-3335
বেল	-3336
▁পলা	-3337
▁পরীক্ষায়	-3338
বাব	-3339
▁নুরুল	-3340
▁নিয়ন্ত্রণে	-3341
▁শাস্ত	-3342
▁প্রচ্ছদ	-3343
▁সোনার	-3344
জুড়ে	-3345
▁ছু	-3346
▁কর্মী	-3347
▁উৎসব	-3348
▁বাড়ছে	-3349
bd	-3350
খা	-3351
▁ভূমিকা	-3352
▁ম্যানেজ	-3353
▁ফলা	-3354
ফোন	-3355
বাহী	-3356
িনিময়	-3357
▁বিবে	-3358
▁নগ	-3359
▁রংপুর	-3360
▁চ্যাম্পিয়ন	-3361
▁এয়ার	-3362
▁মেট্র	-3363
ওয়ান	-3364
▁পরিচিত	-3365
▁শারীরিক	-3366
▁বিভাগে	-3367
▁ডলার	-3368
▁খেলার	-3369
▁বৈশ	-3370
ho	-3371
তী	-3372
▁০৮	-3373
চ্ছিল	-3374
▁মানুষকে	-3375
▁আর্থিক	-3376
▁আকাশ	-3377
াইড	-3378
▁সফর	-3379
▁পুত্র	-3380
াজন	-3381
▁আজকের	-3382
▁The	-3383
▁ক্যার	-3384
▁আলীর	-3385
▁সুনাম	-3386
▁বাক	-3387
▁স্বপ্ন	-3388
ণার	-3389
্যাগ	-3390
▁করেছিল	-3391
▁ইউরোপ	-3392
▁চূড়ান্ত	-3393
▁জাহাঙ্গ	-3394
▁কিলোম	-3395
▁ঘুম	-3396
▁কারাগারে	-3397
িটেড	-3398
▁অর্জন	-3399
▁আক্রান্তের	-3400
▁কিছুটা	-3401
▁পরিদর্শন	-3402
রফে	-3403
▁টুর্ন	-3404
▁সন্দে	-3405
▁ক্ষতিগ্র	-3406
▁আব্দুর	-3407
উর	-3408
▁ওষুধ	-3409
▁শরীরে	-3410
▁সোশ্যাল	-3411
▁উপহার	-3412
▁খুন	-3413
▁চীন	-3414
▁জাপ	-3415
▁একটু	-3416
▁ভাইর	-3417
▁সেটি	-3418
▁দাস	-3419
▁সুলত	-3420
পাড়	-3421
ালাল	-3422
▁দপ্ত	-3423
▁মেলা	-3424
এইচ	-3425
▁সঠ	-3426
▁স্বাক্ষ	-3427
▁বলছে	-3428
▁ডেইলি	-3429
িদ্র	-3430
▁রাস্তা	-3431
▁নও	-3432
▁কৃষক	-3433
▁কাউন্সিলর	-3434
ামূলক	-3435
▁খুলে	-3436
▁শিক্ষার্থীরা	-3437
▁মৌল	-3438
শিক্ষ	-3439
▁টুর্নামেন্ট	-3440
▁হামলায়	-3441
▁ছাত্রলীগ	-3442
▁এলাকাব	-3443
িয়োগ	-3444
▁ঐক্য	-3445
▁আরিফ	-3446
হাজ	-3447
▁পার্টির	-3448
্জা	-3449
▁ব্যক্তিগত	-3450
▁ইঞ্জ	-3451
▁স্মার্ট	-3452
শেষে	-3453
পণ	-3454
াত্ম	-3455
▁ভাস	-3456
কেটে	-3457
হল	-3458
▁মিজান	-3459
▁G	-3460
▁টানা	-3461
▁আসলে	-3462
▁কালের	-3463
ধীন	-3464
▁ছাড়াও	-3465
▁পূর্বাহ্ন	-3466
▁এবারের	-3467
▁জনগণের	-3468
▁চলমান	-3469
সময়	-3470
▁নাই	-3471
▁রিজ	-3472
▁বলছেন	-3473
▁আলমগীর	-3474
াবহ	-3475
নির্ব	-3476
স্থান	-3477
▁তেল	-3478
▁এফ	-3479
▁অসহায়	-3480
▁কেন্দ্রে	-3481
▁অনুমতি	-3482
▁আনুষ্ঠান	-3483
▁নিজেকে	-3484
▁শুভেচ্ছ	-3485
▁ওয়ানডে	-3486
ost	-3487
▁নেতৃ	-3488
▁পিতা	-3489
▁কাঁ	-3490
▁সামরিক	-3491
▁মন্দ	-3492
র্স	-3493
▁চোখ	-3494
▁পুনর	-3495
্যাশনাল	-3496
▁আবেদ	-3497
▁ব্যবসা	-3498
▁ওভ	-3499
▁গ্যাস	-3500
▁জাহাঙ্গীর	-3501
▁ভাইরাল	-3502
▁প্রশিক্ষণ	-3503
▁ফখ	-3504
▁চলবে	-3505
▁সন্ত্রাস	-3506
র্ধ্ব	-3507
▁শহরে	-3508
▁খানের	-3509
িন্ট	-3510
▁অংশগ্রহণ	-3511
বিধি	-3512
▁আল্লাহ	-3513
পাল	-3514
ডাঙ্গ	-3515
ণ্ডের	-3516
▁প্রের	-3517
▁লিমিটেড	-3518
▁চুক্তি	-3519
াইদ	-3520
বিদ	-3521
▁দিচ্ছে	-3522
▁মাশ	-3523
▁রকম	-3524
▁মাধ্যমিক	-3525
িনে	-3526
▁স্বেচ্ছ	-3527
▁বঙ্গবন্ধুর	-3528
▁ভালোবাস	-3529
ep	-3530
িয়াস	-3531
▁প্রয	-3532
▁ওঠ	-3533
▁শাখার	-3534
▁>	-3535
▁ক্ষমতা	-3536
▁গোয়েন্দ	-3537
সুম	-3538
াকুর	-3539
▁কোয়ার	-3540
▁নিষেধাজ্ঞা	-3541
▁অস্ব	-3542
্যায়	-3543
▁ব্রাজ	-3544
▁মম	-3545
▁ডাক্ত	-3546
▁সামগ্রী	-3547
হিত	-3548
▁জেল	-3549
atest	-3550
▁d	-3551
▁উন্নত	-3552
▁ফাউন্ড	-3553
▁তাদেরকে	-3554
্যানেল	-3555
▁স্টেড	-3556
▁মাওলানা	-3557
▁ফজ	-3558
ষ্টির	-3559
▁ডিজিটাল	-3560
▁দিলে	-3561
▁চিকিৎসার	-3562
ীব্র	-3563
▁of	-3564
▁প্রতিষ্ঠানের	-3565
জান	-3566
▁ফ্লাই	-3567
াও	-3568
িনীর	-3569
lo	-3570
চের	-3571
▁জগ	-3572
াহার	-3573
▁ভাড়া	-3574
▁কারাদ	-3575
এল	-3576
▁খোলা	-3577
▁গবেষণা	-3578
▁ঘরের	-3579
▁করোনাভাইরাসে	-3580
▁পত	-3581
▁স্বরাষ্ট্র	-3582
সির	-3583
▁তীব্র	-3584
▁হুমকি	-3585
▁মাত	-3586
▁প্রবাসী	-3587
▁বিকাল	-3588
▁টাঙ্গ	-3589
▁বাধ্য	-3590
▁ব্যক্তির	-3591
ন্ঠ	-3592
ভিল	-3593
বিষ্য	-3594
▁ইকবাল	-3595
▁ভক্ত	-3596
▁নেয়ার	-3597
▁হাবিব	-3598
▁চলেছে	-3599
▁কয়েকজন	-3600
▁অস	-3601
▁দুঃ	-3602
▁সংঘর্ষে	-3603
চা	-3604
▁উপক	-3605
▁মিথ	-3606
▁প্রসঙ্গ	-3607
৪৫	-3608
বধ	-3609
▁বিনিয়োগ	-3610
▁সম্ভাবনা	-3611
নীয়	-3612
▁নং	-3613
▁শ্রদ্ধা	-3614
িস্ট্রেট	-3615
▁তাঁরা	-3616
▁ভ্যাকসিন	-3617
▁প্রক্রিয়া	-3618
বুব	-3619
▁কিলোমিটার	-3620
রাত	-3621
▁০১	-3622
▁লেনদেন	-3623
ুনিক	-3624
▁জ্ব	-3625
▁সিদ্দ	-3626
▁Bengali	-3627
বিশ	-3628
▁at	-3629
▁প্রসঙ্গে	-3630
▁সাক্ষাৎ	-3631
▁দৌ	-3632
▁মির্জা	-3633
'-	-3634
lis	-3635
পোর	-3636
▁বোর্ডের	-3637
▁শুভেচ্ছা	-3638
ik	-3639
▁জনক	-3640
▁মুশ	-3641
▁গড়	-3642
দিনের	-3643
▁প্ল	-3644
▁২০১৫	-3645
as	-3646
ধর	-3647
▁ঘন্ট	-3648
▁প্রদর্শ	-3649
▁ভবিষ্য	-3650
ন্দ্ব	-3651
গো	-3652
ফি	-3653
▁গৌ	-3654
▁পাবে	-3655
▁বিশেষজ্ঞ	-3656
▁পছ	-3657
▁সেক	-3658
▁পদ্ধ	-3659
▁রক্ষা	-3660
▁ক্রীড়া	-3661
▁দুর্ঘটনায়	-3662
▁পাড়	-3663
▁দুর্নীতি	-3664
▁বিদ্যালয়	-3665
▁হাজির	-3666
▁মিলে	-3667
▁প্রতিবাদে	-3668
▁কম্প	-3669
▁পেরে	-3670
▁মিয়ার	-3671
▁লিখেছেন	-3672
▁জিন	-3673
▁কার্ড	-3674
▁ম্যাজিস্ট্রেট	-3675
▁দেড়	-3676
ছড়ি	-3677
▁রিয়	-3678
েক্স	-3679
▁ভ্রাম	-3680
▁ইতোম	-3681
▁পোশাক	-3682
▁নির্যাতন	-3683
ীবাজার	-3684
▁নারীর	-3685
▁জবা	-3686
▁চতুর	-3687
▁স্বাক্ষর	-3688
োনো	-3689
▁পালিত	-3690
▁ফখরুল	-3691
▁দ্য	-3692
▁মোক	-3693
▁নিউজিল্যান্ড	-3694
▁প্রশ্নের	-3695
ায়ন	-3696
▁আসবে	-3697
▁তৃণমূল	-3698
▁ভ্রাম্য	-3699
▁বোল	-3700
▁ভয়াবহ	-3701
মুল	-3702
el	-3703
▁নায়	-3704
▁জয়ের	-3705
▁বিসি	-3706
▁কল্যাণ	-3707
▁সক্ষম	-3708
▁ঘটনাটি	-3709
জের	-3710
▁ডট	-3711
▁লো	-3712
▁প্রকল্পের	-3713
িদ্ধ	-3714
▁ওয়েবস	-3715
▁উভ	-3716
▁পারেনি	-3717
▁ধারাবাহ	-3718
▁সমস্য	-3719
ঙ্কার	-3720
▁বিবৃতিতে	-3721
কু	-3722
▁জিম	-3723
▁বর্ণ	-3724
ate	-3725
▁বেন	-3726
▁বক্তব্যে	-3727
▁জমি	-3728
▁নজর	-3729
হন	-3730
▁নদীর	-3731
দলের	-3732
▁ফ্ল	-3733
▁০৭	-3734
টোয়েন্টি	-3735
সাধারণ	-3736
াদার	-3737
▁উৎপাদন	-3738
▁হাও	-3739
▁বোঝ	-3740
▁অথবা	-3741
্রয়	-3742
▁ব্যর্থ	-3743
▁মুম্ব	-3744
ন্দন	-3745
▁news	-3746
▁টা	-3747
▁আঘাত	-3748
▁হাঁ	-3749
▁ত্রাণ	-3750
▁অতিথির	-3751
▁কর্মকর্তারা	-3752
▁জব্দ	-3753
▁প্রিয়	-3754
▁জীবনের	-3755
▁মাহবুব	-3756
▁রিমান্ড	-3757
▁স্থায়ী	-3758
সংখ	-3759
▁নোয়া	-3760
▁গোলে	-3761
▁জবাবে	-3762
▁এমনকি	-3763
▁ভবন	-3764
্দিষ্ট	-3765
▁সো	-3766
▁কলকাতা	-3767
▁BD	-3768
ুরুর	-3769
▁রাস্তায়	-3770
▁নীল	-3771
▁এদের	-3772
▁সপ্তাহে	-3773
ঘা	-3774
▁চালায়	-3775
▁সিরিজের	-3776
▁নিষিদ্ধ	-3777
াসরি	-3778
াসেব	-3779
▁বাধা	-3780
▁ক্যামের	-3781
▁বিজি	-3782
াচার্য	-3783
▁ঝড়	-3784
antho	-3785
▁আইনে	-3786
▁Latest	-3787
▁যৌন	-3788
▁০৬	-3789
▁ইঞ্জিন	-3790
oy	-3791
▁কিনা	-3792
▁কমান্ড	-3793
▁হায়	-3794
কির	-3795
▁নিরাপদ	-3796
শত	-3797
ুয়ে	-3798
▁ঝিন	-3799
▁জেনে	-3800
▁রাহ	-3801
▁আলাদা	-3802
▁ফ্রান্স	-3803
▁প্রতিক	-3804
▁পরিণ	-3805
▁বাদী	-3806
▁নগরীর	-3807
▁আফগানিস্ত	-3808
▁নদী	-3809
▁একাডেম	-3810
▁আজিজ	-3811
▁পেঁয়াজ	-3812
▁দেখিয়ে	-3813
েনা	-3814
▁নান	-3815
▁রোগীর	-3816
▁আগ্রহ	-3817
বন	-3818
▁০৫	-3819
▁যেক	-3820
▁অধ্যক্ষ	-3821
▁যেসব	-3822
▁সরাসরি	-3823
▁শের	-3824
টকম	-3825
▁বাংলার	-3826
▁নিল	-3827
▁বিশিষ্ট	-3828
ধারিত	-3829
▁অবশেষে	-3830
▁আশরাফ	-3831
রোধ	-3832
▁মেয়ের	-3833
▁উদযাপন	-3834
ফত	-3835
▁স্বর্ণ	-3836
▁পড়েন	-3837
▁তামিম	-3838
▁আইপিএ	-3839
▁ব্যাটিং	-3840
▁অনুষ্ঠানের	-3841
▁অধিদপ্তরের	-3842
দায়	-3843
▁হোক	-3844
▁ইমরান	-3845
▁করেই	-3846
▁ছিলো	-3847
▁টুইট	-3848
▁নাকি	-3849
কিছু	-3850
▁সিলেটের	-3851
্যাব	-3852
▁রিট	-3853
▁৭০	-3854
মাত্রা	-3855
▁ঠাকুর	-3856
▁নির্ধারণ	-3857
৩২	-3858
▁অ্য	-3859
▁মিডিয়া	-3860
▁নাটক	-3861
▁শিশুর	-3862
▁দারুণ	-3863
▁আত্মহত্যা	-3864
হ্ন	-3865
▁আইনের	-3866
▁টেলিভ	-3867
▁রাসেল	-3868
িউজ	-3869
▁পরিশ	-3870
সদ	-3871
▁০৪	-3872
▁যৌথ	-3873
▁রোজ	-3874
▁সংবাদমাধ্যম	-3875
▁বিভাগীয়	-3876
▁রাষ্ট্রপতি	-3877
▁মানিক	-3878
▁স্ট্র	-3879
▁চতুর্থ	-3880
▁মের	-3881
ডের	-3882
kantho	-3883
▁স্থাপ	-3884
▁সিক	-3885
▁এন্ড	-3886
ary	-3887
্নে	-3888
▁ডু	-3889
োনার	-3890
িয়ামে	-3891
▁জাক	-3892
াদ্দ	-3893
▁দাঁড়িয়েছে	-3894
শ্বর	-3895
োপাধ্যায়	-3896
▁ফেসবুকে	-3897
▁নৌকা	-3898
তুল	-3899
্মণ	-3900
▁০২	-3901
pd	-3902
hed	-3903
▁ধাপ	-3904
▁কামনা	-3905
▁মায়ের	-3906
▁সম্পূর্ণ	-3907
aper	-3908
▁স্পোর্ট	-3909
▁এসআই	-3910
▁পড়ুন	-3911
▁এএম	-3912
▁নিয়ম	-3913
▁একাদশ	-3914
নো	-3915
ublis	-3916
সম্যান	-3917
▁মেয়াদ	-3918
▁০৩	-3919
▁গোয়েন্দা	-3920
▁করপোর	-3921
▁সোহেল	-3922
▁সঠিক	-3923
▁আক্রম	-3924
▁লন্ড	-3925
▁হিন্দু	-3926
▁ওস	-3927
▁ছিন	-3928
▁প্রজ	-3929
▁ঘুরে	-3930
ভাষ	-3931
▁টাইমস	-3932
স্কৃতিক	-3933
▁মোটরসাইকেল	-3934
যাত্র	-3935
▁৪৫	-3936
▁পূর	-3937
পূর্ব	-3938
াতায়	-3939
▁কুষ্ট	-3940
শনে	-3941
▁চালানো	-3942
▁প্রত্যেক	-3943
▁কখনো	-3944
▁অভিজ্ঞ	-3945
▁অর্থাৎ	-3946
▁বিপুল	-3947
▁ধ্ব	-3948
▁ফেন	-3949
▁আটকে	-3950
aler	-3951
▁উদ্দেশ্যে	-3952
▁পরিস্থিতিতে	-3953
▁বাঙ	-3954
▁ইন্টারনে	-3955
ার্ক	-3956
▁রশিদ	-3957
▁শক্তিশ	-3958
াইয়ের	-3959
▁আওয়ামীলীগের	-3960
০১	-3961
চুর	-3962
বদ্ধ	-3963
▁বসবাস	-3964
▁শতাধিক	-3965
▁দেশটিতে	-3966
▁অবশ্যই	-3967
▁দখল	-3968
িংয়ের	-3969
▁অত্য	-3970
▁একমাত্র	-3971
▁স্বাধীনতা	-3972
▁অর্থনৈতিক	-3973
টর	-3974
▁ফুটব	-3975
▁হেফাজ	-3976
কারীরা	-3977
্টা	-3978
▁বাগ	-3979
▁আসাদ	-3980
নাকে	-3981
▁গাই	-3982
ead	-3983
োসিয়ে	-3984
▁অর্ধ	-3985
▁ব্রাহ	-3986
▁পারেননি	-3987
▁কঠিন	-3988
▁শক্তিশালী	-3989
লগ্ন	-3990
▁জনগণ	-3991
▁প্রযোজ	-3992
িংয়ে	-3993
▁জানুয়ারী	-3994
▁ফু	-3995
▁ভাইরাসের	-3996
সিটি	-3997
▁মাশরাফ	-3998
▁সিদ্দিক	-3999
▁মহাপ	-4000
▁রাজ্যের	-4001
▁বললেন	-4002
▁নিচে	-4003
▁ফেরার	-4004
এক	-4005
▁কেন্দ্রের	-4006
▁ছুটি	-4007
▁তেমন	-4008
▁শুনানি	-4009
০৯	-4010
▁শামী	-4011
▁মোড়	-4012
▁থাকবেন	-4013
▁যুবলীগের	-4014
▁চাকরি	-4015
▁সিনেমার	-4016
▁নির্ধারিত	-4017
▁আকর	-4018
▁নীতি	-4019
▁ইয়াবা	-4020
eb	-4021
▁হয়তো	-4022
▁জন্মদিন	-4023
সাম	-4024
ublished	-4025
▁বার্স	-4026
ঙ্গু	-4027
▁পড়তে	-4028
▁সাম্প	-4029
▁অশ	-4030
▁টিভি	-4031
▁মেশ	-4032
▁বিশ্বে	-4033
▁শিশুদের	-4034
▁জোট	-4035
▁রেখ	-4036
▁Pr	-4037
▁দুদ	-4038
▁উপদে	-4039
▁সেতু	-4040
▁আসামী	-4041
▁মুক্তিযুদ্ধ	-4042
▁আজাদ	-4043
▁পাট	-4044
াইলের	-4045
▁সাংস্কৃতিক	-4046
৫৫	-4047
▁চম	-4048
▁খুশ	-4049
▁কাশ্ম	-4050
▁সিল	-4051
▁জাল	-4052
দাতা	-4053
▁ওয়ার্ডের	-4054
ঞ্জন	-4055
▁সড়কের	-4056
▁ক্ষতিগ্রস্ত	-4057
▁হোট	-4058
▁ব্যাটসম্যান	-4059
▁কৃত	-4060
পোর্ট	-4061
▁মূলত	-4062
াইম	-4063
শিল্প	-4064
▁ব্যবস্থাপনা	-4065
০৫	-4066
▁পের	-4067
▁ময়ন	-4068
▁ডায়	-4069
র্ন	-4070
খ্যাত	-4071
▁শুনে	-4072
▁বাচ্চ	-4073
▁ছবিটি	-4074
▁নেতৃবৃন্দ	-4075
ক্ক	-4076
▁the	-4077
▁শুরুর	-4078
▁বিমানবন্দ	-4079
▁মদ	-4080
▁নেট	-4081
▁জের	-4082
▁অজ্ঞ	-4083
▁প্রসঙ্গত	-4084
াজা	-4085
্মী	-4086
▁হু	-4087
ভাবেই	-4088
টিউ	-4089
▁ভোটার	-4090
৩১	-4091
▁মতে	-4092
▁রেড	-4093
▁অধিক	-4094
▁অত্যন্ত	-4095
নিউজ	-4096
▁বোন	-4097
▁সুপ্র	-4098
▁ইসলামী	-4099
▁পদত্যা	-4100
▁কর্মচার	-4101
্পোর	-4102
▁সফরে	-4103
▁অ্যাডভোকেট	-4104
ive	-4105
লাপ	-4106
ৎস্য	-4107
লেক	-4108
িসির	-4109
▁রোহিঙ্গ	-4110
ড়ির	-4111
▁খারাপ	-4112
▁ব্যস্ত	-4113
▁ক্লাবের	-4114
▁আবহাওয়া	-4115
▁গ্রুপের	-4116
▁মঞ্জ	-4117
▁ব্রাহ্মণ	-4118
ন্দের	-4119
▁চট্টগ্রামের	-4120
মুক্ত	-4121
▁স্বাস্থ্যবিধি	-4122
গির	-4123
▁করল	-4124
উন্ট	-4125
▁স্মৃতি	-4126
▁সত্যতা	-4127
ড়াতে	-4128
▁উপস	-4129
▁ফোর	-4130
▁ওয়া	-4131
▁রানা	-4132
▁পানিতে	-4133
ভূত	-4134
▁কৌশ	-4135
▁৩৬	-4136
▁টাইগার	-4137
▁সমস্ত	-4138
▁হজ	-4139
▁আপনাদের	-4140
▁সদস্যের	-4141
▁মুখ্যমন্ত্রী	-4142
াভ	-4143
▁মাসুদ	-4144
ঘর	-4145
াফিজুর	-4146
▁সিভিল	-4147
ব্দ	-4148
▁অপহ	-4149
▁সমুদ্র	-4150
৪২	-4151
▁মিজানুর	-4152
সভা	-4153
▁প্যা	-4154
▁সাম্প্র	-4155
▁সন	-4156
াত্মক	-4157
ছা	-4158
▁Com	-4159
িলার	-4160
▁খরচ	-4161
▁কোথা	-4162
▁তৎ	-4163
▁সমাধান	-4164
▁চেক	-4165
▁কীভাবে	-4166
▁শ্রেণির	-4167
imes	-4168
▁সালমান	-4169
▁চরম	-4170
▁মাগ	-4171
▁ঝিনাইদ	-4172
▁মসজিদে	-4173
▁Published	-4174
ত্তি	-4175
▁তান	-4176
রব	-4177
▁মৃতের	-4178
▁কথ	-4179
▁ভিন্ন	-4180
▁মৎস্য	-4181
ণী	-4182
▁রহিম	-4183
▁রুহ	-4184
▁বন্য	-4185
▁সড়কে	-4186
ন্দকার	-4187
▁হস্তান্তর	-4188
▁হাট	-4189
▁কর্পোর	-4190
িলে	-4191
▁বিজ	-4192
▁সবুজ	-4193
▁মুশফিক	-4194
▁কব	-4195
বার্ষিকী	-4196
ামুল	-4197
▁ত্ব	-4198
▁সূচ	-4199
▁সম্পদ	-4200
▁বাবার	-4201
▁ফলাফল	-4202
▁সুই	-4203
▁খুঁজে	-4204
▁৮০	-4205
▁পরিচালিত	-4206
▁দাখ	-4207
জির	-4208
জিদের	-4209
▁সাইফুল	-4210
nd	-4211
▁মালয়েশ	-4212
▁খেয়ে	-4213
▁No	-4214
ালেঞ্জ	-4215
▁উভয়	-4216
▁জার্ম	-4217
▁নওগাঁ	-4218
বর্ষ	-4219
বাড়ী	-4220
▁সহযোগী	-4221
▁গোটা	-4222
▁মাধ্যম	-4223
বন্দর	-4224
▁হবি	-4225
▁করলেও	-4226
▁বিচারক	-4227
▁জহ	-4228
▁রোধ	-4229
চাপ	-4230
্যো	-4231
নির্বাচ	-4232
▁অবস্থিত	-4233
দূ	-4234
▁মমতা	-4235
▁কাগ	-4236
বাগ	-4237
▁ওঠে	-4238
vi	-4239
▁মতব	-4240
▁বেশির	-4241
▁ঘাট	-4242
▁আনতে	-4243
▁উক্ত	-4244
▁ডটকম	-4245
ম্ম	-4246
▁যুক্তরাজ	-4247
আমি	-4248
ধারন	-4249
▁জিত	-4250
▁শান্তি	-4251
▁মুক্তির	-4252
▁নামক	-4253
▁কন্যা	-4254
▁নির্মা	-4255
শি	-4256
▁মৌসুম	-4257
▁অনলাইনে	-4258
▁কাউকে	-4259
▁ডাকাত	-4260
।।	-4261
▁চিহ্ন	-4262
মাধ্যমে	-4263
▁তে	-4264
▁১৯৯	-4265
▁কেবল	-4266
uary	-4267
▁চ্যালেঞ্জ	-4268
াবল	-4269
▁লিখিত	-4270
ামন্ত্রী	-4271
▁দরকার	-4272
▁বেতন	-4273
▁বেল	-4274
▁উন্ম	-4275
গরে	-4276
▁স্বেচ্ছাসেব	-4277
৩৮	-4278
ক্রিয়	-4279
াউন	-4280
▁ধারাবাহিক	-4281
০২	-4282
পক্ষের	-4283
▁টেকনা	-4284
আন	-4285
▁হো	-4286
▁আদায়	-4287
alerkantho	-4288
ইল	-4289
▁মন্ড	-4290
▁খাতুন	-4291
▁লু	-4292
▁সরে	-4293
▁বিকালে	-4294
▁রফিকুল	-4295
▁kalerkantho	-4296
▁নাসির	-4297
▁সাফল	-4298
▁নিম্ন	-4299
াহান	-4300
▁জীবনে	-4301
▁ফেরত	-4302
ember	-4303
াইলে	-4304
▁আসনে	-4305
▁যাদের	-4306
▁আধুনিক	-4307
▁করব	-4308
▁গৃহবধ	-4309
▁সাতক্ষীরা	-4310
াউল	-4311
▁মেজ	-4312
▁ইমাম	-4313
▁নিকট	-4314
▁ইতোমধ্যে	-4315
▁বাস্তবায়ন	-4316
▁গোপাল	-4317
▁বিতর্ক	-4318
▁নারায়ণগঞ্জ	-4319
্নান	-4320
এসআই	-4321
▁প্রতিষ্ঠা	-4322
▁কের	-4323
▁চিন্তা	-4324
▁সন্ত্রাসী	-4325
ভাই	-4326
াইটে	-4327
▁প্রফ	-4328
০৬	-4329
▁গুগ	-4330
▁ডাক্তার	-4331
শনের	-4332
▁শিরোন	-4333
▁ঘটনাস্থল	-4334
▁ঋণ	-4335
▁কমিউ	-4336
ছিলাম	-4337
▁খোঁজ	-4338
▁দৃশ্য	-4339
▁বিডি	-4340
▁সুমন	-4341
▁যুবকের	-4342
▁ঘিরে	-4343
▁শিল্পী	-4344
▁Vi	-4345
ামীর	-4346
▁আউট	-4347
▁টায়	-4348
েক্ষিতে	-4349
▁গতি	-4350
▁আড়াই	-4351
▁তালুক	-4352
▁মুহাম্মদ	-4353
▁অত	-4354
গামী	-4355
▁মৌলভ	-4356
০৪	-4357
খানা	-4358
▁সেঞ্চ	-4359
▁ময়মনসিংহ	-4360
▁সঞ্	-4361
▁প্রতার	-4362
▁লিগ	-4363
▁ডিগ্র	-4364
▁স্ল	-4365
র্জেন্ট	-4366
০৩	-4367
ান্তি	-4368
▁লিটন	-4369
▁৩২	-4370
াতদন্ত	-4371
▁জাফ	-4372
▁তুলনায়	-4373
▁রস	-4374
▁ঘূর্ণ	-4375
▁অধি	-4376
▁চুরি	-4377
▁সাধারন	-4378
▁উপদেষ্টা	-4379
োলে	-4380
▁প্রণ	-4381
▁বিজিবি	-4382
সম্প	-4383
▁Jan	-4384
তিষ্ঠ	-4385
▁মিডিয়ায়	-4386
োধী	-4387
প্রেস	-4388
▁চাহিদ	-4389
▁নির্বাচনী	-4390
▁বাজেট	-4391
▁কাঠ	-4392
গুন	-4393
▁৩৭	-4394
▁কমিশনের	-4395
ূন্য	-4396
▁চির	-4397
▁সংবাদের	-4398
িস্টার	-4399
▁কোথাও	-4400
▁বঙ্গাব্দ	-4401
▁শাখা	-4402
▁মানসিক	-4403
ল্ড	-4404
▁Upd	-4405
▁কষ্ট	-4406
▁মাইক্র	-4407
▁আগামীকাল	-4408
▁সন্দেহ	-4409
৪১	-4410
▁দেবেন	-4411
▁স্পোর্টস	-4412
▁ময়নাতদন্ত	-4413
▁মতবিনিময়	-4414
ষণ	-4415
hak	-4416
▁নাজমুল	-4417
০৭	-4418
▁আচ	-4419
▁পাচার	-4420
▁হবেন	-4421
▁সংকট	-4422
▁ধন্য	-4423
▁চরিত্রে	-4424
▁পারিবার	-4425
▁প্রেরণ	-4426
▁আলহাজ	-4427
ফে	-4428
▁অক্স	-4429
▁পরবর্ত	-4430
্ডার	-4431
দেশে	-4432
যন্ত্র	-4433
▁মেডিক্যাল	-4434
িটিশ	-4435
▁মনি	-4436
▁জেরে	-4437
▁কোম্পানির	-4438
EW	-4439
▁১৯৭	-4440
▁ওভারে	-4441
▁গেলেন	-4442
▁সকলের	-4443
▁স্থাপন	-4444
▁বিশ্বকাপের	-4445
িত্তিক	-4446
▁সিএন	-4447
▁to	-4448
▁প্রাপ্ত	-4449
বারে	-4450
গ্রামে	-4451
ধ্যেই	-4452
ab	-4453
কেও	-4454
লোড	-4455
▁আহব	-4456
ার্থী	-4457
▁নেতারা	-4458
▁কিছুদিন	-4459
েক্টর	-4460
▁চিঠি	-4461
▁পাহাড়	-4462
ণ্ডে	-4463
টো	-4464
িঝ	-4465
৪৮	-4466
▁কুর	-4467
মারের	-4468
▁ফাঁস	-4469
▁ব্রাহ্মণবাড়	-4470
▁ইনিং	-4471
ীম	-4472
▁ফিরিয়ে	-4473
▁মুহূর্তে	-4474
০৮	-4475
omoy	-4476
▁রাশিয়া	-4477
▁প্রকৌশলী	-4478
▁ইনস্টিটি	-4479
▁সরিয়ে	-4480
▁আর্জেন্ট	-4481
গণ	-4482
িংস	-4483
▁প্রিম	-4484
মূলক	-4485
▁ব্রিটিশ	-4486
▁রঙ	-4487
▁বাছ	-4488
▁প্রতিবেশ	-4489
▁কর্মরত	-4490
▁মর্গে	-4491
▁সংসদের	-4492
EWS	-4493
পিয়ে	-4494
▁প্রান্ত	-4495
▁মোস্তফা	-4496
▁গুজ	-4497
▁৩৩	-4498
▁দলকে	-4499
▁রুম	-4500
▁বিধান	-4501
▁সন্তানের	-4502
িউল	-4503
▁ডোজ	-4504
▁নরেন্দ্র	-4505
▁ভূমিক	-4506
▁স্কুলের	-4507
রন	-4508
▁ইরানের	-4509
▁ইউনিয়নে	-4510
ইয়া	-4511
▁এরশ	-4512
▁ধাক্কা	-4513
তাই	-4514
ব্ল	-4515
৪৩	-4516
▁ধর্মীয়	-4517
▁চারটি	-4518
▁যথা	-4519
▁পৃথক	-4520
▁ভূমি	-4521
▁বিদেশি	-4522
▁অ্যাক	-4523
▁পেছনে	-4524
ain	-4525
▁পরিণত	-4526
শৃঙ্খলা	-4527
িরের	-4528
▁আসন	-4529
▁পরই	-4530
▁স্বজন	-4531
▁Online	-4532
▁মৌলভীবাজার	-4533
▁ইউনিট	-4534
োনাল্ড	-4535
▁আলোচিত	-4536
এনও	-4537
▁অর্জ	-4538
ফ্র	-4539
▁;	-4540
াগড়া	-4541
▁বিশাল	-4542
▁দুজন	-4543
▁পাতা	-4544
র্শক	-4545
▁ভ্রম	-4546
▁দেখার	-4547
▁শামীম	-4548
বাড়ি	-4549
্রীর	-4550
▁কাটা	-4551
▁কালাম	-4552
দর	-4553
▁দীপ	-4554
▁চেয়ারপার	-4555
▁কোয়ারেন্ট	-4556
▁কার্যালয়ের	-4557
go	-4558
▁শ্যাম	-4559
▁ধন্যবাদ	-4560
াদা	-4561
িথ	-4562
▁বস্ত	-4563
▁নদীতে	-4564
কত	-4565
েম্বার	-4566
▁আঁ	-4567
▁অভিষ	-4568
▁লক্ষ্মী	-4569
▁চুল	-4570
▁নাগ	-4571
▁নাটোর	-4572
▁অ্যাকা	-4573
▁কমপ্লেক্সে	-4574
্নাত	-4575
▁টিকিট	-4576
▁শরীরের	-4577
▁সপ্তাহের	-4578
▁আহসান	-4579
▁নিজেই	-4580
▁জানালেন	-4581
▁জাহিদ	-4582
েইন	-4583
▁আনার	-4584
▁ক্যাপ	-4585
▁হচ্ছেন	-4586
▁প্রেসক্লাবের	-4587
▁তাৎ	-4588
▁আশঙ্কা	-4589
▁সুপ্রিম	-4590
▁বাবু	-4591
▁সার্বিক	-4592
▁ঊ	-4593
▁বান্দ	-4594
▁পারভ	-4595
▁স্টেডিয়ামে	-4596
্তায়	-4597
▁গরু	-4598
▁২০১৪	-4599
কুল	-4600
জুর	-4601
▁৪৮	-4602
▁ভবনের	-4603
▁মৃত্যুতে	-4604
াজিত	-4605
▁ইনিংস	-4606
▁মিথ্যা	-4607
▁৩৮	-4608
্রিক	-4609
▁ডিগ্রি	-4610
▁তুরস্ক	-4611
▁দিনাজপুর	-4612
রো	-4613
▁এজন্য	-4614
ig	-4615
▁আশ্রয়	-4616
▁উইকেটে	-4617
▁তাপমাত্রা	-4618
▁ঝুল	-4619
▁নন	-4620
▁আসন্ন	-4621
▁প্রতিবন্ধ	-4622
pr	-4623
▁ওসমান	-4624
▁Post	-4625
▁বিকল্প	-4626
▁এলাকাবাসী	-4627
▁তোলা	-4628
▁যানবাহ	-4629
ডার	-4630
▁টার	-4631
▁নোটি	-4632
ated	-4633
৪৭	-4634
▁পেস	-4635
ধিকার	-4636
▁অস্থ	-4637
▁দুর্ব	-4638
▁সংলগ্ন	-4639
▁মসজিদের	-4640
সুর	-4641
▁কবর	-4642
▁সারাদেশে	-4643
▁পরবর্তীতে	-4644
ভে	-4645
৩৭	-4646
লাল	-4647
▁ভোগ	-4648
▁পুড়ে	-4649
▁মহাপরি	-4650
▁মিলিয়ে	-4651
▁মিন	-4652
▁রাজনীত	-4653
▁জিজ্ঞাসাবাদ	-4654
ামত	-4655
▁ডিম	-4656
▁হান	-4657
▁খন্দকার	-4658
▁উদ্বোধনী	-4659
az	-4660
▁নুস	-4661
▁বিদায়	-4662
▁প্রতিদ্ব	-4663
▁অভ্য	-4664
▁ইলেক	-4665
▁ডিএসই	-4666
▁বিএস	-4667
▁অ্যাল	-4668
▁মিস	-4669
কাশ	-4670
▁জবাব	-4671
▁ওয়েস্ট	-4672
▁কম্পিউ	-4673
▁সমর্থন	-4674
▁পট	-4675
▁চাঁপ	-4676
▁পুকুর	-4677
কেই	-4678
▁নগদ	-4679
▁Sy	-4680
াজের	-4681
▁কর্তব্য	-4682
▁চাম	-4683
▁মেহে	-4684
▁খবরে	-4685
▁পল্ল	-4686
▁প্রথমবারের	-4687
জিটিভ	-4688
▁কবি	-4689
▁পছন্দ	-4690
▁চাঁদপুর	-4691
▁by	-4692
▁সুখ	-4693
▁গানের	-4694
▁কোম্পান	-4695
▁আহবায়ক	-4696
ষেধ	-4697
▁ধারা	-4698
▁লাইন	-4699
▁মাথা	-4700
▁বন্দর	-4701
▁সরকারী	-4702
কর্মী	-4703
▁ব্যবধানে	-4704
▁দূরে	-4705
▁পড়েছেন	-4706
▁জানাতে	-4707
▁পারিবারিক	-4708
▁ছেলের	-4709
▁পরিষ্কার	-4710
▁অজ্ঞাত	-4711
▁ফাইনালে	-4712
▁অস্ট্রেলিয়া	-4713
▁বজায়	-4714
han	-4715
▁কমেছে	-4716
▁জ্ঞ	-4717
হর	-4718
▁কমান্ডার	-4719
▁মেঘ	-4720
্রিস্ট	-4721
▁বোমা	-4722
▁ইস্যু	-4723
▁করতেন	-4724
৩৪	-4725
▁ঝুঁকি	-4726
▁ভার্	-4727
▁সম্পাদ	-4728
▁শরী	-4729
▁ওরফে	-4730
▁যাত্রা	-4731
▁ঢুকে	-4732
িক্যাল	-4733
▁কার্যালয়	-4734
▁ত্রি	-4735
রাস	-4736
▁বিরাট	-4737
▁মহামার	-4738
▁মুন	-4739
▁বাড়িয়ে	-4740
৩৩	-4741
▁প্রফেসর	-4742
ৎকার	-4743
ইয়	-4744
▁দিয়েছিলেন	-4745
idin	-4746
▁আহ্বায়ক	-4747
▁পর্দ	-4748
▁তারেক	-4749
▁তৈরির	-4750
▁স্ত্রীর	-4751
টিল	-4752
▁তিনজন	-4753
▁বিশ্ববিদ্যালয়ে	-4754
▁পো	-4755
▁বদলে	-4756
গুলোকে	-4757
▁হোটেল	-4758
▁টেস্টে	-4759
▁পজিটিভ	-4760
▁আলোচনায়	-4761
▁জেলে	-4762
▁নষ্ট	-4763
▁ঘূর্ণিঝ	-4764
▁নেতাদের	-4765
▁তাজ	-4766
▁যুবলীগ	-4767
▁পরের	-4768
▁শক্তি	-4769
ec	-4770
ডাঙ্গা	-4771
▁তুলতে	-4772
▁ভেতরে	-4773
▁কুড়ি	-4774
ছাত্রী	-4775
৩৬	-4776
দানি	-4777
▁অঞ্চলের	-4778
ামার	-4779
চনায়	-4780
▁আসছেন	-4781
▁কলা	-4782
▁সাইফ	-4783
▁যেকোনো	-4784
▁ভ্রাম্যমাণ	-4785
▁জাকির	-4786
▁হামিদ	-4787
our	-4788
▁জুড়ে	-4789
▁শব্দ	-4790
▁কিছুই	-4791
▁উন্নয়নের	-4792
▁তালুকদার	-4793
তক	-4794
ুনে	-4795
▁থাকছে	-4796
▁লঞ্চ	-4797
▁জঙ্গি	-4798
▁তদন্তের	-4799
হাদ	-4800
▁গেম	-4801
▁পাশের	-4802
▁রুহুল	-4803
▁একসঙ্গে	-4804
▁কর্তৃপক্ষের	-4805
▁মুন্স	-4806
▁মহাপরিচালক	-4807
▁Comment	-4808
▁আন্দোলনের	-4809
বিক	-4810
▁কালো	-4811
▁দায়ে	-4812
▁চ্যানেল	-4813
োতে	-4814
▁নায়িকা	-4815
কুম	-4816
▁খ্রিস্ট	-4817
ter	-4818
▁ব্যার	-4819
ভিত্তিক	-4820
▁বিজ্ঞপ্তি	-4821
৩৯	-4822
গ্ধ	-4823
▁গাঁ	-4824
▁তালে	-4825
▁পরিদর্শক	-4826
▁লাগে	-4827
▁রাস্তার	-4828
▁সেন্টার	-4829
াতেই	-4830
▁সমালোচনা	-4831
▁শর্ত	-4832
▁চার্জ	-4833
▁নিয়েই	-4834
াদান	-4835
▁জুটি	-4836
▁ধীরে	-4837
▁প্লে	-4838
▁দফায়	-4839
▁রযাবের	-4840
▁ক্ষমতায়	-4841
iv	-4842
িদর্শক	-4843
▁পেলেন	-4844
▁কিভাবে	-4845
▁পাঠিয়ে	-4846
▁রাজ্যে	-4847
▁পরিস্থিতির	-4848
▁রয়	-4849
তিনি	-4850
বছর	-4851
▁শোনা	-4852
▁জড়িয়ে	-4853
▁যোগ্য	-4854
▁ডেঙ্গু	-4855
ডেন	-4856
▁তু	-4857
▁Pre	-4858
▁গাইবান	-4859
▁ত্যাগ	-4860
▁কারাদণ্ড	-4861
তলা	-4862
বার্তা	-4863
▁সঞ্চাল	-4864
▁চট্টগ্রামে	-4865
▁প্রতিরোধে	-4866
এমপি	-4867
▁মানে	-4868
▁রাশিয়ার	-4869
ধুম	-4870
▁দাফ	-4871
▁অটোর	-4872
াইয়ে	-4873
েশনে	-4874
োগান	-4875
াইনবাব	-4876
▁পুলিশকে	-4877
▁মুন্	-4878
▁কানা	-4879
▁ধ্বংস	-4880
▁অধিদপ্তর	-4881
বণ	-4882
▁জনে	-4883
▁শপথ	-4884
▁অফিসে	-4885
▁অবরোধ	-4886
তনে	-4887
arta	-4888
▁পুঁ	-4889
▁অফিসের	-4890
▁কয়েকদিন	-4891
paper	-4892
▁একবার	-4893
৫২	-4894
রুখ	-4895
▁৩৯	-4896
কাবে	-4897
▁কক্ষে	-4898
সারণ	-4899
▁ল্যা	-4900
▁কর্মীদের	-4901
▁কর্মকর্তাদের	-4902
ুকের	-4903
▁গুণ	-4904
য়েত	-4905
াদুর	-4906
▁রাব	-4907
▁ইউনিভ	-4908
▁দিচ্ছেন	-4909
ষ্টার	-4910
▁বিশ্বকাপে	-4911
▁যুক্তরাষ্ট্রে	-4912
পাত্র	-4913
▁শুরুতে	-4914
িজের	-4915
▁বাঁধ	-4916
▁and	-4917
▁মঞ্জুর	-4918
▁যেভাবে	-4919
▁নির্মিত	-4920
▁সংশোধ	-4921
▁দমন	-4922
▁শ্বাস	-4923
▁সার্জন	-4924
▁ইন্টারনেট	-4925
▁৩৪	-4926
িপূর্ণ	-4927
▁গণতন্ত্র	-4928
ড়িতে	-4929
▁সংগীত	-4930
▁শী	-4931
▁অ্যাকাউন্ট	-4932
▁ঈদুল	-4933
▁সালা	-4934
▁সার্ভিসের	-4935
▁বিমানবন্দরে	-4936
▁হারুন	-4937
▁অপেক্ষা	-4938
▁অধিবেশ	-4939
িডি	-4940
▁বিবাহ	-4941
▁ইভ	-4942
িবির	-4943
▁ওয়াল	-4944
▁ধরেই	-4945
▁ব্যয়	-4946
▁!	-4947
েম্বরে	-4948
▁উদ্দেশে	-4949
ation	-4950
▁অভিব	-4951
▁বক্তারা	-4952
নেস	-4953
▁দ্বারা	-4954
▁সংস্করণ	-4955
হ্য	-4956
▁সংযোগ	-4957
▁পাচ্ছে	-4958
বিআই	-4959
িকেট	-4960
▁বাসা	-4961
▁স্টেশন	-4962
▁ফিলিস্ত	-4963
▁হর	-4964
▁উপায়	-4965
▁পড়ার	-4966
▁মেসি	-4967
▁অ্যাম	-4968
্টে	-4969
▁দুর্দ	-4970
▁দুর্যোগ	-4971
▁ইফতার	-4972
▁আমদানি	-4973
ার্থে	-4974
▁সিঙ্গ	-4975
▁খাল	-4976
▁মোকাবে	-4977
িকর	-4978
▁প্রতিযোগিতা	-4979
▁প্রো	-4980
াস্ত্র	-4981
্যক	-4982
আমরা	-4983
▁ইত্য	-4984
▁আপনাকে	-4985
ংসা	-4986
▁বগুড়া	-4987
▁অভিষেক	-4988
▁বেরিয়ে	-4989
ায়া	-4990
▁ঠেক	-4991
▁ট্রাম্পের	-4992
▁অস্ট্রেলিয়ার	-4993
▁তোম	-4994
হাজার	-4995
▁আপনারা	-4996
▁প্রকৃত	-4997
▁সংবাদদাতা	-4998
য়ক	-4999
শিল্পী	-5000
▁পশ্চিমবঙ্গ	-5001
▁নির্দিষ্ট	-5002
▁কর্তৃক	-5003
▁স্বামীর	-5004
▁ডুবে	-5005
▁হাজারের	-5006
▁অবস্থার	-5007
াপ্রতিষ্ঠ	-5008
▁সেম	-5009
▁প্রচুর	-5010
▁বাজারের	-5011
▁পূজা	-5012
▁হিসাব	-5013
▁ফ্লাইট	-5014
ob	-5015
ড়ের	-5016
▁পিছিয়ে	-5017
তিতে	-5018
▁উজ্জ	-5019
▁সত্যি	-5020
▁অঞ্চলে	-5021
▁ইসরা	-5022
▁প্রিমিয়ার	-5023
▁আবাস	-5024
▁সমাজের	-5025
▁মুখপাত্র	-5026
▁Views	-5027
বাচ	-5028
▁ফোনে	-5029
▁জাহান	-5030
▁উদ্দেশ্য	-5031
▁বী	-5032
▁কারণেই	-5033
▁am	-5034
ীতির	-5035
েডার	-5036
▁দাখিল	-5037
▁সেনাবাহিনীর	-5038
▁দম	-5039
▁ইতিমধ্যে	-5040
ফর্ম	-5041
ুমান	-5042
▁বুদ্ধ	-5043
▁টাকায়	-5044
▁ওমর	-5045
▁চাঁপাইনবাব	-5046
▁কলকাতার	-5047
▁ঘন	-5048
▁নির্মাতা	-5049
▁সীমান্তে	-5050
▁প্রত্যাহার	-5051
িয়াক	-5052
▁ভাষা	-5053
▁বিকাশ	-5054
▁দিবাগত	-5055
▁চোর	-5056
▁বিপরীতে	-5057
▁বিজেপির	-5058
▁পদত্যাগ	-5059
▁হয়েছিলেন	-5060
▁মোল্লা	-5061
শী	-5062
▁গাড়ির	-5063
▁পয়েন্টে	-5064
▁রিস	-5065
বিল	-5066
▁ভর	-5067
▁পৃথিবীর	-5068
তল	-5069
াকের	-5070
▁কাঁচ	-5071
▁কাগজ	-5072
তিক্রম	-5073
▁অন্তর্	-5074
▁হেরে	-5075
▁শাহরুখ	-5076
▁বার্সেল	-5077
▁আনুষ্ঠানিক	-5078
▁ইসর	-5079
▁মহামারি	-5080
▁পঠ	-5081
৫৯	-5082
▁হিজ	-5083
ক্রমে	-5084
▁অবন	-5085
▁সিম	-5086
▁প্রত্যক্ষ	-5087
▁প্রতিদ্বন্দ্ব	-5088
▁অম	-5089
▁তর	-5090
▁গরম	-5091
▁আদর্শ	-5092
▁অভিভাব	-5093
লাইন	-5094
▁ভিত	-5095
▁চোখে	-5096
▁বলেই	-5097
▁ব্যান	-5098
▁পার্টি	-5099
▁প্রিয়া	-5100
বরণ	-5101
▁হতো	-5102
▁উত্তেজ	-5103
েক্ট	-5104
▁হাক	-5105
▁হাফ	-5106
৫৮	-5107
▁রাখে	-5108
▁পার্ব	-5109
পের	-5110
ওয়ার্ড	-5111
▁জামায়	-5112
▁দূরত্ব	-5113
▁সাংসদ	-5114
▁পর্যবে	-5115
▁তল্লা	-5116
▁উপাচার্য	-5117
▁দেহ	-5118
ঞ্চে	-5119
▁রেস	-5120
▁সালাম	-5121
▁রোড	-5122
▁পিস	-5123
▁সূর	-5124
▁যাওয়ায়	-5125
▁খুশি	-5126
▁শাস্তি	-5127
▁অর্থনীতি	-5128
▁পদ্মা	-5129
▁যন্ত্র	-5130
▁সংযুক্ত	-5131
▁অভিযোগের	-5132
পদ	-5133
মো	-5134
৪৪	-5135
ৃদ্ধ	-5136
▁বলেছে	-5137
▁রেজাউল	-5138
▁ভাইরাসে	-5139
েটে	-5140
▁আহম্ম	-5141
৫৭	-5142
▁ধরণের	-5143
৪৯	-5144
▁কর্মশ	-5145
▁গার্ড	-5146
লিক	-5147
▁মোশার	-5148
▁নারীদের	-5149
ug	-5150
aking	-5151
▁চাহিদা	-5152
▁গিয়েছিল	-5153
▁প্রাক্ত	-5154
▁ভ্যান	-5155
বাংলাদেশ	-5156
র্দ	-5157
▁অল্প	-5158
▁বিজয়ী	-5159
▁হুমায়	-5160
্লো	-5161
▁আলহাজ্ব	-5162
আল	-5163
পাট	-5164
খালীর	-5165
▁ম্যানেজার	-5166
সুল	-5167
িপ্ত	-5168
গুলির	-5169
▁পির	-5170
▁লুক	-5171
▁পেলে	-5172
▁সিরিজে	-5173
▁সংস্কার	-5174
▁কর্মসূচির	-5175
থর	-5176
News	-5177
▁করবো	-5178
▁ক্লিন	-5179
▁হিম	-5180
▁ঘণ্টার	-5181
▁কুপিয়ে	-5182
▁মনো	-5183
▁খেতে	-5184
▁পঠিত	-5185
▁মিলনায়	-5186
▁৯০	-5187
▁জটিল	-5188
▁রাউন্ড	-5189
ান্ত্রিক	-5190
িলি	-5191
▁মতি	-5192
▁সংরক্ষ	-5193
Com	-5194
পরে	-5195
পাশের	-5196
▁ভোরে	-5197
▁প্রাক	-5198
ালির	-5199
▁দফা	-5200
▁বরং	-5201
▁রুবেল	-5202
▁আব্দুল্লাহ	-5203
স্টার	-5204
▁জন্যই	-5205
▁বিপ্ল	-5206
ালেক	-5207
▁আমেরিকার	-5208
গতি	-5209
▁জ্বাল	-5210
েগ	-5211
▁ছি	-5212
▁৫০০	-5213
▁n	-5214
▁তল	-5215
reaking	-5216
▁ব্রাজিল	-5217
▁শিক্ষাপ্রতিষ্ঠ	-5218
▁কন্ট	-5219
▁বুঝতে	-5220
▁অনুশীল	-5221
৫৩	-5222
উল্লাহ	-5223
▁লাইফ	-5224
ut	-5225
▁তালা	-5226
▁দৃষ্ট	-5227
▁প্রয়োগ	-5228
▁হত্যাকা	-5229
▁আকর্ষ	-5230
▁শ্রমিকদের	-5231
▁জাগ	-5232
▁উদ্দ	-5233
▁প্রাক্তন	-5234
৫৬	-5235
ess	-5236
োকন	-5237
▁পূরণ	-5238
পিং	-5239
▁ইংরে	-5240
▁এসেছেন	-5241
▁মাদরাস	-5242
▁এসএম	-5243
▁আপিল	-5244
▁ডেকে	-5245
▁নির্ভর	-5246
৪৬	-5247
▁শরি	-5248
▁আপাত	-5249
▁১১টার	-5250
▁ডোনাল্ড	-5251
▁ভিস	-5252
ীবন	-5253
▁রহস্য	-5254
ড্ড	-5255
▁তুম	-5256
▁বেস	-5257
▁মাদ্রাসা	-5258
▁ময়নাতদন্তের	-5259
▁কখনও	-5260
▁কর্তব্যরত	-5261
▁রণ	-5262
▁খাগড়া	-5263
নিং	-5264
▁গলা	-5265
▁যাবেন	-5266
▁ফাইনাল	-5267
াবেন	-5268
▁গর্	-5269
▁ট্রাস্ট	-5270
▁Pro	-5271
ড়যন্ত্র	-5272
াহিম	-5273
▁নিঃ	-5274
▁ছাড়াই	-5275
▁শাকিব	-5276
▁রাতের	-5277
▁কারখান	-5278
▁চৌধুরীর	-5279
যথ	-5280
সিম	-5281
▁দুর্বৃত্ত	-5282
ভেল	-5283
▁ফরম	-5284
শু	-5285
▁আবেদনের	-5286
িখে	-5287
▁পতাকা	-5288
▁টেলিভিশন	-5289
দানের	-5290
কাঠ	-5291
▁নরসিং	-5292
৫৪	-5293
শান	-5294
ভূমি	-5295
▁স্	-5296
াকিব	-5297
দারের	-5298
▁বৃষ্টির	-5299
াবাদের	-5300
তাম	-5301
ত্রী	-5302
▁ইলিশ	-5303
▁১১টায়	-5304
ুরির	-5305
▁ভিড়	-5306
▁সংক্রমণের	-5307
▁ভোটের	-5308
▁কাশ্মীর	-5309
▁মুস্ত	-5310
::	-5311
▁bangla	-5312
▁আব্দুস	-5313
▁বলেছিলেন	-5314
রক্ষণ	-5315
▁কর্মীরা	-5316
িকান	-5317
▁বাব	-5318
▁অনিয়	-5319
▁দুর্গ	-5320
▁সুলতানা	-5321
▁মহাসড়কের	-5322
▁ইচ্ছ	-5323
কেন্দ্র	-5324
▁লেগে	-5325
▁Am	-5326
েতু	-5327
বাসী	-5328
▁মাশরাফি	-5329
ংখ	-5330
▁ঢাক	-5331
▁পরিচালনায়	-5332
িস্টেম	-5333
▁প্রতিষ্ঠাতা	-5334
পুরি	-5335
▁সন্ধান	-5336
মহ	-5337
▁অথচ	-5338
চ্ছিলেন	-5339
▁আরেকটি	-5340
ম্য	-5341
▁অনেকের	-5342
শাসন	-5343
ীকৃতি	-5344
▁অপার	-5345
▁বাগের	-5346
ফারেন্স	-5347
▁ভার্চু	-5348
▁মানবিক	-5349
ুরী	-5350
▁মর্য	-5351
▁নেত্র	-5352
bad	-5353
াজনক	-5354
▁এক্সপ্রেস	-5355
দূত	-5356
শের	-5357
ক্তা	-5358
▁ভবনে	-5359
▁প্রাইভ	-5360
মতো	-5361
ান্ট	-5362
rom	-5363
সাগ	-5364
প্রতি	-5365
▁গলায়	-5366
▁দুঃখ	-5367
▁উপসর্গ	-5368
োনালদ	-5369
▁সিলেটে	-5370
▁প্রকাশ্যে	-5371
▁আতঙ্ক	-5372
▁পলাতক	-5373
াত্ত	-5374
▁রাঙ	-5375
▁দপ্তর	-5376
▁বলিউডের	-5377
▁ষড়যন্ত্র	-5378
▁গ্রহণের	-5379
▁তাড়	-5380
▁স্মরণ	-5381
▁স্পষ্ট	-5382
▁ফজল	-5383
▁বেঁধে	-5384
▁যথাযথ	-5385
ণায়	-5386
▁করেনি	-5387
▁গাজীপুর	-5388
▁সিনেমায়	-5389
▁হেড	-5390
▁পক্ষের	-5391
▁বার্ষিক	-5392
▁ব্যবহৃত	-5393
বিন	-5394
▁৪২	-5395
▁নেতার	-5396
▁আহতদের	-5397
লক	-5398
ামিন	-5399
বিরোধী	-5400
▁পৌরসভা	-5401
শুর	-5402
▁পানির	-5403
▁স্মার্টফোন	-5404
ুকু	-5405
▁ফেডার	-5406
▁পরিবারকে	-5407
ধাব	-5408
▁কারা	-5409
▁উল্লাহ	-5410
▁দুধ	-5411
্বার	-5412
▁ওজন	-5413
▁তাস	-5414
▁কলেজে	-5415
ছান	-5416
▁রও	-5417
▁বরাদ্দ	-5418
▁ইট	-5419
▁আপাতত	-5420
▁হাকিম	-5421
▁মাটিতে	-5422
▁৪৯	-5423
সুমে	-5424
▁ভুগ	-5425
▁রিক	-5426
▁দর্শক	-5427
▁স্বাগত	-5428
▁ক্যারিয়ার	-5429
▁জিনিস	-5430
▁প্রিন্ট	-5431
▁কমিউনি	-5432
ow	-5433
মাস	-5434
▁মিঠ	-5435
▁সমাবেশে	-5436
▁গুগল	-5437
▁ব্যাপার	-5438
▁পর্যায়ের	-5439
▁ক্লাস	-5440
▁স্বাক্ষরিত	-5441
দৌ	-5442
▁ইল	-5443
নাব	-5444
▁শিখ	-5445
▁ওভার	-5446
▁ওয়ার্ল্ড	-5447
▁জাহাজ	-5448
▁শীর্ষে	-5449
▁প্রশংসা	-5450
ra	-5451
▁সাড়া	-5452
▁বন্দ্য	-5453
▁এসএসসি	-5454
▁ইন্টারন	-5455
▁নক	-5456
▁ফয়	-5457
▁যথ	-5458
▁রাজি	-5459
▁দূতাব	-5460
▁ফিচার	-5461
▁উত্তোল	-5462
▁সমস্যার	-5463
▁মিলনায়তনে	-5464
চ্ছেদ	-5465
হাসিক	-5466
▁অগ্নিকা	-5467
▁৪১	-5468
্যাক্স	-5469
ীনে	-5470
▁পরও	-5471
ফু	-5472
▁কামরুল	-5473
▁মেহেদী	-5474
▁রোহিঙ্গাদের	-5475
ভী	-5476
▁ইঞ্জিনিয়ার	-5477
▁জাতিসংঘের	-5478
ঘাতী	-5479
ডিসি	-5480
ত্তর	-5481
▁সিস্টেম	-5482
▁চেয়ারপারসন	-5483
▁দান	-5484
ম্বরে	-5485
▁বরাব	-5486
▁ক্রিকেটে	-5487
▁ডাঃ	-5488
▁খাওয়া	-5489
লস	-5490
▁লেখক	-5491
▁বাড়তে	-5492
চ্ছিন্ন	-5493
▁আক্রমণ	-5494
▁বাংলাদেশকে	-5495
▁Dhak	-5496
▁শূন্য	-5497
▁ঐতিহ্য	-5498
▁ইনিংসে	-5499
▁প্রাঙ্গ	-5500
▁বেশিরভাগ	-5501
ধুলা	-5502
▁উন্নয়নে	-5503
▁প্রেমের	-5504
▁পঞ্চম	-5505
▁প্রচারণ	-5506
▁গঠিত	-5507
▁সবকিছু	-5508
▁আমেরিকা	-5509
▁সংরক্ষণ	-5510
▁সেনাবাহিনী	-5511
▁মীর	-5512
▁ইউটিউ	-5513
▁দম্প	-5514
শিক্ষা	-5515
▁সাগর	-5516
▁অবনতি	-5517
.)	-5518
▁দোষ	-5519
ৃত্তি	-5520
▁খ্যাত	-5521
▁লাগিয়ে	-5522
▁দুর্দান্ত	-5523
▁ব্যবহারের	-5524
▁কোহ	-5525
▁অবদান	-5526
▁এভাবে	-5527
▁টান	-5528
▁বাবুল	-5529
▁সুরক্ষা	-5530
▁লিও	-5531
ঞ্চিত	-5532
ব্লিউ	-5533
▁গেলেও	-5534
▁বিপর্য	-5535
▁মুসলমান	-5536
ণীয়	-5537
সাং	-5538
▁হতাশ	-5539
মেন	-5540
াদু	-5541
বিন্দ	-5542
▁সুষ্ঠ	-5543
ার্সের	-5544
▁মারধর	-5545
▁ইত্যাদি	-5546
৫১	-5547
▁শিক	-5548
▁প্রাইভেট	-5549
▁সাময়	-5550
▁জজ	-5551
▁বক্স	-5552
▁ডেস্কঃ	-5553
▁বোর	-5554
▁সৌর	-5555
▁সমিতি	-5556
▁বন্দুক	-5557
▁অভ্যন্ত	-5558
▁অসংখ	-5559
ঞ্চলিক	-5560
▁মূ	-5561
▁সশ	-5562
▁আবারো	-5563
▁কাপুর	-5564
▁আহবান	-5565
▁পর্যটক	-5566
▁Breaking	-5567
োজনে	-5568
▁লিড	-5569
▁রেখেছে	-5570
বাচক	-5571
▁রাজ্জ	-5572
▁ঘূর্ণিঝড়	-5573
▁সহযোগিতায়	-5574
▁সাম্প্রতিক	-5575
▁দাফন	-5576
▁পরপর	-5577
▁সদ্য	-5578
▁বেঁচে	-5579
▁মৃতদেহ	-5580
▁স্কুলে	-5581
স্থানে	-5582
পরিব	-5583
পরিদর্শক	-5584
▁বরাত	-5585
▁মানবা	-5586
ex	-5587
ছুর	-5588
▁তম	-5589
কেরা	-5590
ুল্লাহ	-5591
▁শৈ	-5592
▁পুনরায়	-5593
▁নির্যাতনের	-5594
ox	-5595
শিপ	-5596
▁পর্যটন	-5597
▁Updated	-5598
▁৪৬	-5599
▁শিগ	-5600
▁রিয়াল	-5601
▁উড়	-5602
▁টন	-5603
▁ছিনতাই	-5604
াপোল	-5605
াহীর	-5606
▁অঞ্চল	-5607
▁বিনামূল	-5608
ea	-5609
▁বাম	-5610
▁মেল	-5611
▁সংসদে	-5612
▁নম্বরে	-5613
▁নেপ	-5614
▁ফার্ম	-5615
▁আটককৃত	-5616
▁দোকানে	-5617
▁প্রজন্ম	-5618
▁ফুটবলার	-5619
▁রোধে	-5620
▁রোগীদের	-5621
▁পুরোপুরি	-5622
াবু	-5623
▁com	-5624
▁সেগুলো	-5625
▁উপস্থিতি	-5626
্ধা	-5627
▁আগেও	-5628
▁সায়	-5629
▁জানেন	-5630
▁অসংখ্য	-5631
▁রোনালদ	-5632
▁ঐতিহাসিক	-5633
▁ইংল্যান্ডের	-5634
▁দরিদ্র	-5635
▁স্ত্রীকে	-5636
lhe	-5637
▁পরিশোধ	-5638
▁বাড়ানো	-5639
▁প্রদর্শন	-5640
▁৪৭	-5641
▁পরেই	-5642
▁চিহ্নিত	-5643
▁পাচ্ছেন	-5644
▁বন্যা	-5645
▁হাওলা	-5646
▁আঞ্চলিক	-5647
▁শিক্ষামন্ত্রী	-5648
▁নিচ্ছে	-5649
▁সবসময়	-5650
▁কম্পিউটার	-5651
▁স্বাধীনতার	-5652
▁মেশিন	-5653
▁লকডাউনের	-5654
▁#	-5655
▁মিলন	-5656
▁অধীনে	-5657
ভবনে	-5658
▁ঘোষণার	-5659
▁পয়	-5660
▁পিক	-5661
▁শ্ব	-5662
▁কারো	-5663
শ্ব	-5664
ত্থ	-5665
▁আইনশৃঙ্খলা	-5666
▁ইরান	-5667
▁একুশ	-5668
▁সক্রিয়	-5669
▁হ্যান্ড	-5670
▁মল	-5671
▁জুয়েল	-5672
▁শাহাদ	-5673
▁ব্যক্তিকে	-5674
টস	-5675
▁ভিট	-5676
▁রপ্ত	-5677
▁লাগবে	-5678
▁সহিংস	-5679
▁আবাসিক	-5680
▁ঊর্ধ্ব	-5681
▁অভিজ্ঞতা	-5682
ers	-5683
▁চলতে	-5684
▁মিলিয়ন	-5685
▁শিগগির	-5686
▁যানবাহন	-5687
ot	-5688
▁দ্বীপ	-5689
▁সংবর্ধ	-5690
▁পাখ	-5691
▁বাসের	-5692
▁কাটিয়ে	-5693
সাল	-5694
▁হয	-5695
▁জুম	-5696
▁সোনা	-5697
▁ভাষায়	-5698
▁খোঁ	-5699
▁ইব্র	-5700
▁থেকেও	-5701
▁ফেব্রুয়ারী	-5702
ata	-5703
▁অ্যান্ট	-5704
▁হেফাজতে	-5705
BD	-5706
দীর	-5707
াড়ী	-5708
কালের	-5709
▁কোথায়	-5710
▁সামান	-5711
▁স্টোর	-5712
হারের	-5713
▁শ্রীলঙ্কা	-5714
▁ইয়াস	-5715
▁ইন্স	-5716
▁আত্মীয়	-5717
▁করেননি	-5718
▁প্রতিক্র	-5719
▁সেখানেই	-5720
▁মশ	-5721
▁ভোলা	-5722
ওয়াল	-5723
▁প্রভ	-5724
▁কুমিল্লার	-5725
▁কর্ন	-5726
▁বহিষ	-5727
▁মোদি	-5728
▁সাদা	-5729
▁আসাদুজ্জামান	-5730
বিডি	-5731
▁থাম	-5732
নিষ্ঠ	-5733
▁মৌসুমে	-5734
▁শিশুকে	-5735
▁মাস্টার	-5736
▁রাষ্ট্রদূত	-5737
েফ	-5738
▁তথা	-5739
বিধান	-5740
িন্স	-5741
িফোর	-5742
িকাংশ	-5743
▁সমান	-5744
টিক	-5745
চ্যু	-5746
▁এটাই	-5747
▁অ্যাসোসিয়ে	-5748
▁নেতাকর্মীরা	-5749
▁আনিস	-5750
▁ন্যাশনাল	-5751
▁প্রতিশ্র	-5752
্যব	-5753
▁তত	-5754
▁ফিল্ম	-5755
চাই	-5756
▁সাঈ	-5757
চেঞ্জ	-5758
▁ডাউন	-5759
▁নন্দ	-5760
▁শুধুম	-5761
▁উত্তরা	-5762
▁জনকন্ঠ	-5763
▁পাসপোর্ট	-5764
ওয়ের	-5765
▁Posted	-5766
▁যাত্রীদের	-5767
▁শুধুমাত্র	-5768
▁মিয়ানমারের	-5769
ime	-5770
েসে	-5771
▁Jun	-5772
▁কেমন	-5773
▁রায়ের	-5774
াতন	-5775
▁বাঘ	-5776
▁ইন্দ	-5777
যাত্রা	-5778
▁ক্ষোভ	-5779
▁মেহের	-5780
▁প্রতিনিধ	-5781
হেতু	-5782
▁দেল	-5783
ছাত্র	-5784
▁তত্ত্ব	-5785
▁কর্মকর্তার	-5786
দু	-5787
কান	-5788
▁ঘটনাস্থলেই	-5789
▁মাটি	-5790
▁পেসার	-5791
▁সমৃদ্ধ	-5792
▁ঈশ্বর	-5793
▁লিগের	-5794
▁স্প্যান	-5795
▁মানবাধিকার	-5796
▁স্বেচ্ছাসেবক	-5797
িজি	-5798
েবল	-5799
▁অনুপ্র	-5800
▁বিশ্লে	-5801
▁সাফল্য	-5802
▁অধিকাংশ	-5803
হুম	-5804
▁পদ্ধতি	-5805
▁আসর	-5806
▁বৃদ্ধির	-5807
এসপি	-5808
মান্য	-5809
▁ফাউন্ডেশন	-5810
▁হোসাইন	-5811
▁কনফারেন্স	-5812
▁দাশ	-5813
▁পাঠানোর	-5814
▁রাষ্ট্রীয়	-5815
▁এরশাদ	-5816
▁জিম্ব	-5817
▁সেঞ্চুরি	-5818
▁ক্রিকেটের	-5819
▁নিরাপত্তার	-5820
োপল	-5821
▁পণ	-5822
▁লেগ	-5823
▁আওয়ামীলীগ	-5824
▁কক্সবাজারের	-5825
▁এশিয়া	-5826
▁বারবার	-5827
▁অবসর	-5828
▁মজুম	-5829
▁গুলিতে	-5830
▁করছিলেন	-5831
▁ধাক্কায়	-5832
▁ভয়ে	-5833
▁একের	-5834
▁অটোরিক	-5835
▁শিক্ষাব	-5836
▁বিবেচনায়	-5837
▁শনাক্তের	-5838
▁বুল	-5839
মধ্যেই	-5840
▁তৃণমূ	-5841
▁ওয়েবসাইট	-5842
িম্প	-5843
▁ডিপ	-5844
▁চক্রবর্তী	-5845
▁তৌ	-5846
▁ধোন	-5847
▁হাজী	-5848
▁আগুনে	-5849
▁শিরোপা	-5850
▁রাজশাহীর	-5851
▁সের	-5852
▁শীর্ষক	-5853
▁হকের	-5854
▁কারনে	-5855
▁প্রতীক	-5856
▁AM	-5857
▁মধু	-5858
▁মন্ডল	-5859
পথে	-5860
▁কাত	-5861
▁দত্ত	-5862
স্বাস্থ্য	-5863
্বির	-5864
▁বর্ধ	-5865
▁মোদী	-5866
▁বিদেশে	-5867
▁বিনামূল্যে	-5868
▁অড	-5869
▁আলি	-5870
▁৫৫	-5871
▁আকবর	-5872
▁খেলাধুলা	-5873
াবাদী	-5874
চন	-5875
ous	-5876
বাই	-5877
▁বহন	-5878
▁আলোক	-5879
▁ভেবে	-5880
▁বৈশাখ	-5881
▁নিবন্ধ	-5882
▁ভিত্তি	-5883
▁ব্যারিস্টার	-5884
ভির	-5885
▁Jul	-5886
বিদ্ধ	-5887
দ্রব্য	-5888
ুরো	-5889
▁অজ	-5890
▁পাঁচটি	-5891
▁মাহফিল	-5892
▁মিটার	-5893
▁রমজান	-5894
▁সাহিত্য	-5895
▁সুপারিশ	-5896
▁আড়	-5897
▁Sep	-5898
▁গায়ে	-5899
▁জানি	-5900
▁যুবককে	-5901
▁ক্যান্স	-5902
রাউন্ড	-5903
▁খল	-5904
▁বার্	-5905
▁পাবলিক	-5906
▁মেয়েকে	-5907
▁তহ	-5908
▁শরণ	-5909
ক্রেট	-5910
ন্নাথ	-5911
▁মুদ্র	-5912
ৈর	-5913
▁রবিউল	-5914
▁বোলিং	-5915
▁তাক	-5916
▁উপরে	-5917
তামূলক	-5918
▁ইউএনও	-5919
▁পটুয়া	-5920
▁ভুক্ত	-5921
উপ	-5922
▁শিম	-5923
▁গে	-5924
▁হাউ	-5925
▁অর্থমন্ত্রী	-5926
▁খ্রিস্টাব্দ	-5927
▁ভিক	-5928
▁একথা	-5929
▁পিএস	-5930
▁সূচক	-5931
▁ফাউন্ডেশনের	-5932
▁ধরতে	-5933
▁দৃষ্টি	-5934
▁সরকারকে	-5935
▁শাহজালাল	-5936
▁Oct	-5937
▁আছি	-5938
▁পত্রিকা	-5939
শান্ত	-5940
▁ভর্ত	-5941
▁গাছের	-5942
▁সুষ্ঠু	-5943
▁কর্মশালা	-5944
▁রেজা	-5945
▁বন্ধের	-5946
▁উঠতে	-5947
▁পেট্র	-5948
▁উদ্দিনের	-5949
জাম	-5950
▁৫৬	-5951
্রমে	-5952
▁জমির	-5953
▁শাহর	-5954
▁প্রতিনিধিঃ	-5955
েপ	-5956
▁•	-5957
ছার	-5958
▁Ar	-5959
▁আশঙ্ক	-5960
▁চীনা	-5961
▁১০টায়	-5962
▁উন্নতি	-5963
▁কমপক্ষে	-5964
ব্যা	-5965
▁May	-5966
মন্ড	-5967
▁আইসি	-5968
কেটের	-5969
▁বিমানবন্দর	-5970
▁৪৩	-5971
▁অন্ধ	-5972
▁শফিকুল	-5973
টিজ	-5974
বাসীর	-5975
▁নেবে	-5976
▁নিবন্ধন	-5977
▁সিঙ্গাপুর	-5978
sh	-5979
▁ভবিষ্যতে	-5980
াজি	-5981
▁১৯৮	-5982
▁মেজর	-5983
▁তাৎক্ষণ	-5984
▁দিয়েছিল	-5985
▁এক্সচেঞ্জ	-5986
ষা	-5987
াদী	-5988
াইনে	-5989
সংযোগ	-5990
▁নুসরাত	-5991
▁বিবিসি	-5992
▁বিসিবি	-5993
▁সংস্কৃতি	-5994
রাতে	-5995
▁সেতুম	-5996
▁মাইক্রো	-5997
▁নেতাকর্মীদের	-5998
মনির	-5999
atidin	-6000
▁কয়	-6001
▁মান্নান	-6002
▁ইয়াব	-6003
▁স্টক	-6004
▁প্রজ্ঞ	-6005
▁ভাইয়ের	-6006
হী	-6007
▁দাবী	-6008
▁আজম	-6009
▁অ্যাট	-6010
▁মোতায়	-6011
aj	-6012
▁ঘন্টা	-6013
▁দেশীয়	-6014
▁বিপিএ	-6015
▁মৃ	-6016
▁ডেপ	-6017
▁২০১৩	-6018
াবিলায়	-6019
od	-6020
দির	-6021
িসের	-6022
কারের	-6023
▁কথায়	-6024
▁ছুটে	-6025
জো	-6026
করণ	-6027
azar	-6028
▁গেই	-6029
খাস্ত	-6030
"।	-6031
ust	-6032
সম্ম	-6033
▁জয়ী	-6034
▁জাফর	-6035
▁ইলেকট্র	-6036
▁মিনিটের	-6037
▁রেখেছেন	-6038
ore	-6039
্তে	-6040
▁নী	-6041
২০২০	-6042
▁নায়ক	-6043
▁গৃহবধূ	-6044
অন	-6045
▁বাঙালি	-6046
▁জহির	-6047
▁ব্রিট	-6048
▁বাড়াতে	-6049
▁জগন্নাথ	-6050
ঘাতে	-6051
▁চুয়া	-6052
▁বোলার	-6053
▁অর্থবছ	-6054
তাস	-6055
▁দেখেন	-6056
▁আইসোলে	-6057
োরা	-6058
্বস্ত	-6059
▁জমিতে	-6060
▁সচিবাল	-6061
ামারী	-6062
▁১০টার	-6063
▁অক্সিজ	-6064
▁একদিনে	-6065
▁কুষ্টিয়া	-6066
▁টাঙ্গাইল	-6067
▁স্বীকৃতি	-6068
▁চিকিৎসকরা	-6069
▁শ্রীলঙ্কার	-6070
ধর্ষ	-6071
▁মেরে	-6072
ীগঞ্জে	-6073
▁মেট্রোপল	-6074
ান্দি	-6075
▁কর্ণ	-6076
▁অপারে	-6077
▁সদরের	-6078
▁বিক্রির	-6079
▁শরীফ	-6080
▁প্রচে	-6081
▁ক্ষমা	-6082
▁মিরপুর	-6083
▁রেলওয়ে	-6084
▁ফিরেছেন	-6085
▁বাড়ানোর	-6086
▁মোকাবিলায়	-6087
▁প্রত্যক্ষদর্শ	-6088
▁মিউজ	-6089
▁হযরত	-6090
▁সেতুর	-6091
▁ঘোষিত	-6092
▁পুরনো	-6093
▁মাত্রা	-6094
▁দিনব্যাপী	-6095
ইসি	-6096
▁হোয়	-6097
▁বলার	-6098
▁ইতিহাসে	-6099
▁সেকেন্ড	-6100
▁পোর্ট	-6101
▁অর	-6102
▁শহিদুল	-6103
▁Read	-6104
▁ক্ষয়	-6105
▁ফেরি	-6106
▁এনামুল	-6107
▁মৃত্যুদ	-6108
সিসি	-6109
▁ব্যক্তিদের	-6110
lhet	-6111
▁ঝুঁক	-6112
▁বাছাই	-6113
ুড	-6114
▁ভুয়া	-6115
▁ইন্টারন্যাশনাল	-6116
কন	-6117
▁যথে	-6118
▁নীলফ	-6119
▁উদ্যো	-6120
▁সুলতান	-6121
হত্ত	-6122
▁তৎপর	-6123
প্রধান	-6124
▁মারাত্মক	-6125
▁সেতুমন্ত্রী	-6126
▁পাইল	-6127
▁লিগে	-6128
▁অনেকটা	-6129
▁পারছেন	-6130
লত	-6131
▁৭৫	-6132
▁মোর	-6133
▁গিয়েছিলেন	-6134
▁পাপ	-6135
▁মোজ	-6136
▁সঞ্জ	-6137
▁কারখানা	-6138
কর্মচার	-6139
▁সামান্য	-6140
তান্ত্রিক	-6141
▁উত্তেজনা	-6142
য়ান	-6143
▁ago	-6144
▁২টি	-6145
▁এগুলো	-6146
▁নিন্দা	-6147
▁ওয়াশ	-6148
▁খাতে	-6149
▁রীতি	-6150
▁দক্ষি	-6151
▁আশ্বাস	-6152
▁উদ্দীন	-6153
▁ইতিমধ্যেই	-6154
▁বৈধ	-6155
▁প্রয়োজনে	-6156
র্ডার	-6157
▁কারও	-6158
▁নড়	-6159
▁এলে	-6160
▁নির্দেশে	-6161
টেন	-6162
ালার	-6163
▁কমল	-6164
▁হোটে	-6165
▁ওয়ার্ডে	-6166
ind	-6167
▁৫৭	-6168
▁সুজন	-6169
ঢাকা	-6170
পরিষ	-6171
▁বিনা	-6172
▁কাব	-6173
▁জনস	-6174
▁অক্ষ	-6175
▁আইনি	-6176
▁কোহলি	-6177
▁১২টার	-6178
থি	-6179
▁আচরণ	-6180
▁হানি	-6181
▁ভ্রমণ	-6182
▁ভালোবাসা	-6183
to	-6184
▁সকলকে	-6185
ড্র	-6186
▁ধা	-6187
ীর্ণ	-6188
▁ইয়াবাসহ	-6189
▁দের	-6190
▁মেয়েদের	-6191
ly	-6192
জেলা	-6193
বাদী	-6194
র্মা	-6195
▁তোলার	-6196
ময়ে	-6197
▁ডল	-6198
ুলিয়া	-6199
নকে	-6200
েন্টের	-6201
▁নিয়েও	-6202
▁পিটিয়ে	-6203
▁সিএনজি	-6204
▁রেজিস্ট্র	-6205
▁ট্রাই	-6206
▁দুইজন	-6207
▁স্বাগ	-6208
▁অভিনন্দন	-6209
▁ছাত্রদলের	-6210
েমে	-6211
▁করলো	-6212
▁গ্রামী	-6213
▁জখ	-6214
▁মন্ত্রিস	-6215
হাটে	-6216
▁চিঠ	-6217
▁উৎসাহ	-6218
▁বিবেচনা	-6219
▁অলরাউন্ড	-6220
মোহ	-6221
▁টিউ	-6222
াপাড়া	-6223
▁প্রার্থীর	-6224
রণে	-6225
▁মিম	-6226
িনিষেধ	-6227
▁রাব্ব	-6228
▁মেট্রোপলিটন	-6229
▁একদল	-6230
▁আরবের	-6231
▁সমন্বয়	-6232
বন্দি	-6233
▁মোস্তাফিজুর	-6234
har	-6235
▁বয়সে	-6236
▁চিত্রনায়	-6237
▁প্রতিযোগিতায়	-6238
াফিক	-6239
▁যিনি	-6240
▁হতাহ	-6241
▁প্রজাত	-6242
▁ব্যাটার	-6243
বর্ণ	-6244
▁বিদ্র	-6245
▁মরহুম	-6246
▁অপরদিকে	-6247
▁নিত্য	-6248
▁কর্মকা	-6249
▁ঠেকাতে	-6250
▁ফে	-6251
▁করেও	-6252
পরিচালক	-6253
▁একজনের	-6254
▁আফ্রিকার	-6255
▁রাজধানীতে	-6256
িরো	-6257
্টন	-6258
পিএম	-6259
াকারী	-6260
▁প্রোগ	-6261
▁টেকনাফ	-6262
ৃষ্ট	-6263
▁আরোপ	-6264
▁পাড়া	-6265
ুতে	-6266
▁৩০০	-6267
▁বাসিন্দ	-6268
▁কিনে	-6269
▁ক্যামেরা	-6270
▁শিক্ষকদের	-6271
চনার	-6272
▁ইনস্টা	-6273
▁মামলাটি	-6274
▁হাবিবুর	-6275
▁ব্র্যান্ড	-6276
▁বৃহত্ত	-6277
পন্থ	-6278
▁শ্রাব	-6279
▁সৃষ্ট	-6280
▁খো	-6281
▁দুন	-6282
▁গোষ্ঠ	-6283
▁ডেপুটি	-6284
▁ট্রেনের	-6285
▁অপেক্ষায়	-6286
ফিল	-6287
▁সল	-6288
▁পলাশ	-6289
▁দলটির	-6290
▁রাহুল	-6291
▁সাইকেল	-6292
্লিক	-6293
▁হোটেলে	-6294
▁মজুমদার	-6295
▁আনুষ্ঠানিকভাবে	-6296
▁অপু	-6297
▁ধাপে	-6298
▁দেখানো	-6299
▁মাননীয়	-6300
▁Pratidin	-6301
▁নির্মাণের	-6302
▁ওপেনার	-6303
▁পেন	-6304
▁যাচ্ছিল	-6305
▁বিধিনিষেধ	-6306
ারক	-6307
ুনি	-6308
▁ইজ	-6309
▁নোটিশ	-6310
▁ন্যায়	-6311
▁মনোনীত	-6312
▁টপ	-6313
▁শফ	-6314
আরসি	-6315
্যালো	-6316
▁মন্দির	-6317
ামাটি	-6318
▁হেলা	-6319
▁মহেশ	-6320
ককে	-6321
NEWS	-6322
ওয়্যার	-6323
▁বসু	-6324
▁শুক	-6325
▁ভেতর	-6326
▁হালকা	-6327
▁শেয়ারবাজার	-6328
▁গানটি	-6329
ন্না	-6330
েটের	-6331
▁পারফর	-6332
▁আলোচনার	-6333
▁খাঁ	-6334
▁অত্যা	-6335
▁আইপিএল	-6336
▁Dec	-6337
▁নোয়াখালী	-6338
▁কুয়	-6339
▁মাদ্রাসার	-6340
শ্রী	-6341
▁সাধারণত	-6342
ডাক	-6343
▁ইউনিটের	-6344
▁পার্শ্ব	-6345
▁অবস্থানে	-6346
▁৭২	-6347
ওয়াত	-6348
াবের	-6349
▁ছুঁ	-6350
▁বসত	-6351
বিজ্ঞ	-6352
▁বিধি	-6353
▁নেটওয়	-6354
গড়	-6355
পন	-6356
▁ওর	-6357
ন্তী	-6358
▁বেঞ্চ	-6359
▁মুরাদ	-6360
▁দিল্লি	-6361
▁যথেষ্ট	-6362
▁ট্রাকের	-6363
▁বাগেরহাট	-6364
▁বিদ্যালয়ে	-6365
▁গণমাধ্যমকে	-6366
যোগে	-6367
▁Mar	-6368
▁দুর্ঘটনার	-6369
▁সুনামগঞ্জ	-6370
▁ফিরতে	-6371
▁অধিদফত	-6372
▁কমিউনিটি	-6373
▁পৌনে	-6374
▁রাকিব	-6375
▁সুরক্ষ	-6376
▁ভুক্তভোগ	-6377
▁প্রতিশ্রুতি	-6378
▁মুক্তিযুদ্ধের	-6379
ঘরে	-6380
▁জনাব	-6381
▁রাজ্জাক	-6382
▁জয়ন	-6383
▁প্যার	-6384
▁টেস্টের	-6385
যান	-6386
▁By	-6387
িল্ল	-6388
▁ক্রয়	-6389
▁ডিবি	-6390
▁ভিটামিন	-6391
দ্য	-6392
▁সফট	-6393
▁জনতা	-6394
▁টের	-6395
▁দ্বি	-6396
▁মিয়ানমার	-6397
তু	-6398
▁হৃদয়	-6399
▁তদন্তে	-6400
পিট	-6401
াদে	-6402
▁To	-6403
▁ক্যাল	-6404
▁অলিম্প	-6405
▁Bd	-6406
ম্বে	-6407
▁পড়াশ	-6408
▁আতিক	-6409
▁ফ্রি	-6410
▁January	-6411
▁ইসলামিক	-6412
টিস	-6413
▁বজ্র	-6414
▁রোগে	-6415
▁সহায়তায়	-6416
▁পার্বত্য	-6417
সভায়	-6418
েন্টে	-6419
▁পূর্বাভ	-6420
▁দায়িত্বে	-6421
জিবাজার	-6422
▁সংবর্ধনা	-6423
▁৪৪	-6424
▁নোট	-6425
▁সৌরভ	-6426
▁১০টি	-6427
▁পল্লী	-6428
▁বাড়তি	-6429
▁সঞ্চালনায়	-6430
জমিন	-6431
পতির	-6432
▁ওয়ার	-6433
▁কৌশল	-6434
▁করিয়ে	-6435
▁ইউক্র	-6436
▁টিকার	-6437
▁কিড	-6438
▁খায়	-6439
▁জসিম	-6440
▁পাবনা	-6441
▁শাহীন	-6442
▁হাফিজ	-6443
▁ভাঙচুর	-6444
▁সেন্টারে	-6445
▁প্রতিবন্ধী	-6446
▁সাঁ	-6447
▁আল্লাহর	-6448
▁উপস্থাপন	-6449
টেক	-6450
বাণ	-6451
দিয়া	-6452
▁ভূঁ	-6453
▁সঙ্গীত	-6454
▁কূ	-6455
টিয়া	-6456
▁জখম	-6457
মঙ্গল	-6458
▁গোলা	-6459
পো	-6460
▁খত	-6461
▁৬৫	-6462
▁সূর্য	-6463
▁ধন	-6464
▁মোহ	-6465
▁উপলক্ষ	-6466
▁ক্রাইম	-6467
▁অনুসারে	-6468
▁বিশ্বব্যাপী	-6469
▁কিংব	-6470
জনে	-6471
▁৫২	-6472
▁কায়	-6473
▁গোস	-6474
▁সভার	-6475
▁অপহরণ	-6476
▁ব্যুরো	-6477
▁কোর্টের	-6478
▁ঝিনাইদহ	-6479
▁করপোরেশনের	-6480
▁চেন	-6481
▁বেছে	-6482
▁ফেরদৌ	-6483
▁আমিনুল	-6484
▁হাইকোর্টের	-6485
▁রাই	-6486
▁আবে	-6487
▁নিলেন	-6488
▁কিংবদন্ত	-6489
▁মাদকদ্রব্য	-6490
ির্	-6491
▁৫৮	-6492
▁৫৯	-6493
▁এলো	-6494
▁যাবত	-6495
▁মালেক	-6496
▁যেহেতু	-6497
▁আশরাফুল	-6498
▁বহিষ্কার	-6499
্টি	-6500
▁পদক	-6501
▁পাথর	-6502
▁চোখের	-6503
▁নেবেন	-6504
▁ইসরায়ে	-6505
▁বিচ্ছিন্ন	-6506
ঙ্ঘ	-6507
▁Apr	-6508
▁ভেঙ্গে	-6509
▁ভূমিকম্প	-6510
▁শাহজাহান	-6511
▁গ্রেফতারকৃত	-6512
▁আউ	-6513
▁নিউইয়	-6514
▁বরখাস্ত	-6515
▁তুরস্কের	-6516
▁সাক্ষাৎকারে	-6517
▁ঈদে	-6518
▁সংসার	-6519
▁প্রয়াত	-6520
▁ভার্চুয়াল	-6521
আমার	-6522
▁খাওয়ার	-6523
▁ফরিদপুর	-6524
pur	-6525
▁আর্	-6526
▁তোল	-6527
▁পিরোজ	-6528
ডা	-6529
রোগ	-6530
▁৯৯	-6531
▁পুলিশে	-6532
▁অংশগ্রহ	-6533
▁আসছিল	-6534
▁উপভোগ	-6535
▁নারীকে	-6536
▁শ্রম	-6537
▁ঘন্টায়	-6538
▁সামনের	-6539
▁সাময়িক	-6540
▁প্রেমিক	-6541
হু	-6542
olk	-6543
▁হই	-6544
▁শিগগিরই	-6545
নিম	-6546
গরের	-6547
ৃহীত	-6548
▁অনুপ	-6549
ডির	-6550
▁ঝাল	-6551
▁উদ্বেগ	-6552
▁পূর্বে	-6553
▁প্রতিষ্ঠানে	-6554
▁ডান	-6555
▁গুলো	-6556
▁চলাচ	-6557
চ্ছন্ন	-6558
ান্ডের	-6559
▁প্রার্থীদের	-6560
hi	-6561
▁নাগাদ	-6562
▁চলেছেন	-6563
▁জিয়াউর	-6564
▁তারিখে	-6565
▁মেম্বার	-6566
▁তাও	-6567
▁যাচাই	-6568
ক্ষেত্রে	-6569
▁প্রতিপক্ষ	-6570
▁জা	-6571
্তার	-6572
কারীর	-6573
▁অনুসন্	-6574
▁নিচ্ছেন	-6575
▁মানুষদের	-6576
▁দরজা	-6577
▁পণ্যের	-6578
▁উখ	-6579
্ট্র	-6580
▁বরাবর	-6581
▁অধিদফতরের	-6582
▁বন্দ্যোপাধ্যায়	-6583
▁৭১	-6584
▁টেলি	-6585
▁রাতেই	-6586
▁সহজেই	-6587
▁বিদ্রোহ	-6588
ূন	-6589
াসি	-6590
▁Feb	-6591
▁ফিরোজ	-6592
▁স্বল্প	-6593
▁ইন্ডাস্ট	-6594
▁সাতক্ষীর	-6595
▁প্রাথমিকভাবে	-6596
▁অমিত	-6597
▁উদযাপ	-6598
▁সাহেব	-6599
▁তাছাড়া	-6600
▁ব্যবসায়ীরা	-6601
ধন	-6602
কায়	-6603
হাল	-6604
কেলের	-6605
▁ইউসু	-6606
▁সরঞ্জ	-6607
▁যানজ	-6608
▁কিনতে	-6609
▁গাড়িতে	-6610
▁সেজন্য	-6611
▁তল্লাশি	-6612
▁প্রাকৃতিক	-6613
▁)	-6614
ভায়	-6615
▁bd	-6616
▁পড়লে	-6617
▁মধ্যপ্র	-6618
▁পুঁজিবাজার	-6619
য়েড	-6620
vious	-6621
▁আলাপ	-6622
▁বোতল	-6623
▁অভিনে	-6624
▁ব্যবসায়ীদের	-6625
▁ফেলা	-6626
▁বার্তায়	-6627
▁লিওন	-6628
▁ধার্য	-6629
জিত	-6630
▁শাস	-6631
▁চাঞ্চল	-6632
▁শ্রেষ্ঠ	-6633
গাছ	-6634
পুরা	-6635
▁সোস	-6636
ত্বরে	-6637
িটিতে	-6638
▁আসরে	-6639
ফ্রন্ট	-6640
▁তত্ত্বাব	-6641
▁পীর	-6642
▁ইন্ডিয়া	-6643
▁ইংলিশ	-6644
▁Comments	-6645
ঝো	-6646
যোগী	-6647
▁ঢুক	-6648
▁খেলায়	-6649
▁শাহিন	-6650
▁মোতায়েন	-6651
▁দর্শকদের	-6652
▁নিউজিল্যান্ডের	-6653
ader	-6654
▁মোটর	-6655
ষ্টম	-6656
▁দিয়েছি	-6657
▁আহম্মেদ	-6658
▁কৃষকদের	-6659
ম্	-6660
িউন	-6661
▁দায়ী	-6662
▁উপাদান	-6663
▁গ্রামীণ	-6664
ال	-6665
▁রিফ	-6666
▁সম্পর্কিত	-6667
▁সনদ	-6668
ঘু	-6669
গুণ	-6670
নাজ	-6671
সেবা	-6672
▁করছিল	-6673
▁বিপ্লব	-6674
▁হচ্ছিল	-6675
থার	-6676
ম্মদ	-6677
▁Aug	-6678
▁ডাল	-6679
▁বয়ে	-6680
▁বিগত	-6681
▁সম্পর্কের	-6682
▁এমনই	-6683
▁অ্যান	-6684
▁রায়হান	-6685
ালীন	-6686
▁৩টি	-6687
▁আখতার	-6688
tember	-6689
▁বিসিএস	-6690
▁প্রত্যাশা	-6691
▁পেয়েছি	-6692
▁নিযুক্ত	-6693
▁অস্বীকার	-6694
▁অসম	-6695
▁যাই	-6696
▁আফ্রিকা	-6697
▁ক্যাম্পের	-6698
▁প্রতিরক্ষা	-6699
কীয়	-6700
▁কাহ	-6701
▁মহাক	-6702
▁পার্ক	-6703
▁রান্না	-6704
▁অন্যদের	-6705
ুয়	-6706
▁Y	-6707
ভারত	-6708
ortal	-6709
দ্দীন	-6710
▁ডিভাই	-6711
▁কাস্ট	-6712
▁প্রদেশের	-6713
িউর	-6714
▁নিশ	-6715
▁খোকন	-6716
খালীতে	-6717
▁বিএসএফ	-6718
▁মুন্সি	-6719
▁স্বাগতিক	-6720
▁৬৬	-6721
▁হাউজ	-6722
▁দেশকে	-6723
▁নাসিম	-6724
▁সংক্ষ	-6725
▁৬৮	-6726
▁সৌন্দর	-6727
পাশে	-6728
২০২১	-6729
▁চালান	-6730
▁গণমাধ্যমে	-6731
ূহ	-6732
olkata	-6733
▁সংখ্যক	-6734
▁মুক্তিযোদ্ধ	-6735
▁কুকুর	-6736
▁দুজনের	-6737
▁কংগ্রেসের	-6738
▁অলরাউন্ডার	-6739
কমিশ	-6740
▁দৌলত	-6741
▁অন্তর্ভুক্ত	-6742
▁ডেম	-6743
▁মণ্ড	-6744
বন্ধনে	-6745
▁দিবসে	-6746
▁সার্ব	-6747
▁চত্বরে	-6748
আজ	-6749
▁নাঈ	-6750
▁এমনটাই	-6751
▁হবিগঞ্জ	-6752
নাল	-6753
স্ম	-6754
▁চালানোর	-6755
▁September	-6756
নাম	-6757
মূখ	-6758
▁ডেল	-6759
বৃদ্ধ	-6760
▁সাজা	-6761
▁হারে	-6762
▁ধারায়	-6763
▁ধানের	-6764
▁যাত্রীবাহী	-6765
ou	-6766
মস	-6767
টুকু	-6768
eave	-6769
ওয়াজ	-6770
▁বিনি	-6771
▁কৃতজ্ঞ	-6772
▁স্যাম	-6773
▁বিখ্যাত	-6774
রুজ্জামান	-6775
▁গুলিবিদ্ধ	-6776
শিয়ার	-6777
▁স্নাত	-6778
▁মাদারী	-6779
▁ইব্রাহিম	-6780
▁সম্ভাব্য	-6781
OM	-6782
দম	-6783
েমনি	-6784
্লাম	-6785
▁ফিট	-6786
▁ভারী	-6787
িশীল	-6788
▁সাউ	-6789
▁অস্থায়ী	-6790
▁শিক্ষার্থীর	-6791
শেদ	-6792
▁খু	-6793
▁জাতি	-6794
▁সোহাগ	-6795
▁আগ্রহী	-6796
▁নেত্রী	-6797
▁সম্মাননা	-6798
ভিডিও	-6799
▁মতোই	-6800
▁বাঁচাতে	-6801
▁পরিবর্তে	-6802
▁বিশ্বজুড়ে	-6803
▁প্রেক্ষিতে	-6804
কতা	-6805
ঙ্কর	-6806
▁ব্যথা	-6807
অব	-6808
িউডে	-6809
▁৫টি	-6810
anews	-6811
▁চারজন	-6812
▁ওয়াশিং	-6813
if	-6814
ঞ্চলের	-6815
▁নাগরিকদের	-6816
ভবন	-6817
▁মোল	-6818
▁কমান	-6819
▁পড়ছে	-6820
▁ক্ষেপণ	-6821
তলী	-6822
ober	-6823
▁তখনই	-6824
▁সেমিন	-6825
▁অর্থনীত	-6826
▁মন্ত্রি	-6827
▁কিউ	-6828
▁অবাক	-6829
ুমানিক	-6830
▁হুমায়ুন	-6831
াকু	-6832
▁বৌ	-6833
ৃতির	-6834
▁হরি	-6835
▁চলছিল	-6836
▁হানিফ	-6837
▁হাওলাদার	-6838
▁অনুষ	-6839
▁ভিসা	-6840
▁জ্ঞান	-6841
বীন্দ্র	-6842
▁ক্ষেপণাস্ত্র	-6843
▁ডিফ	-6844
পুলিশ	-6845
▁ম্যাক	-6846
▁মার্কেট	-6847
গেট	-6848
▁মাজ	-6849
▁জ্বর	-6850
▁আনসার	-6851
▁গ্রহন	-6852
▁ব্যাটাল	-6853
▁সই	-6854
▁মঞ্চ	-6855
▁মোকাবেলায়	-6856
▁তথ্যমন্ত্রী	-6857
েত্রে	-6858
▁শত্র	-6859
্যাম্প	-6860
▁সংগৃহীত	-6861
▁৫১	-6862
▁ধরেন	-6863
▁শর্মা	-6864
▁ছাত্রীকে	-6865
ুব্ধ	-6866
▁ছিট	-6867
পরিষদ	-6868
▁আসিফ	-6869
▁হ্যা	-6870
▁১০টা	-6871
▁জন্যে	-6872
▁উজ্জ্বল	-6873
▁মহাসড়কে	-6874
▁অবৈধভাবে	-6875
▁তৃণমূলের	-6876
▁প্রতিবেশী	-6877
▁ঘো	-6878
বপুর	-6879
ক্ষিণ	-6880
▁আয়ের	-6881
▁ধারাবাহিকতায়	-6882
▁মাধ	-6883
পরিবহন	-6884
▁হেলাল	-6885
▁সরঞ্জাম	-6886
প্প	-6887
রীণ	-6888
▁১টি	-6889
▁মোশাররফ	-6890
▁আনুমানিক	-6891
▁চলচ্চিত্রের	-6892
▁বক্তৃত	-6893
ok	-6894
ri	-6895
▁তরফে	-6896
িল্লাহ	-6897
জল	-6898
▁রয়ট	-6899
▁হোয়াইট	-6900
ঈন	-6901
ীড়	-6902
য়েম	-6903
▁নাচ	-6904
▁মহল	-6905
▁ভিডিওতে	-6906
▁কমিয়ে	-6907
▁খতিয়ে	-6908
▁October	-6909
পশ	-6910
▁দলটি	-6911
▁আছ	-6912
▁ফট	-6913
োপসাগ	-6914
▁প্রকার	-6915
▁স্মারক	-6916
▁লিমিটেডের	-6917
বিধ	-6918
▁চোট	-6919
▁শোভা	-6920
▁প্রবল	-6921
▁পাল্টা	-6922
▁আবর	-6923
▁কুল	-6924
▁সাইট	-6925
▁সাঈদ	-6926
▁আইসিসি	-6927
▁ক্ষুদ্র	-6928
ানিতে	-6929
▁দেখুন	-6930
▁সংঘর্ষের	-6931
▁উপলক্ষ্যে	-6932
▁দুর্নীতির	-6933
▁ইনস্টিটিউট	-6934
ক্ল	-6935
▁ভোটে	-6936
গুলিতে	-6937
▁দিয়েই	-6938
▁যু	-6939
▁আলমের	-6940
▁দেলোয়ার	-6941
▁অক্সিজেন	-6942
age	-6943
▁গ্রী	-6944
▁সোয়া	-6945
▁ছাড়িয়ে	-6946
▁বিমানের	-6947
▁গভ	-6948
▁ঝুলন্ত	-6949
াতক	-6950
িয়েল	-6951
▁সংক্ষিপ্ত	-6952
▁লাইভ	-6953
▁মুসল্ল	-6954
▁ডাউনলোড	-6955
▁বেনাপোল	-6956
▁শিরোনাম	-6957
াড়ায়	-6958
▁কড়া	-6959
▁মেন	-6960
▁Previous	-6961
িয়ত	-6962
সেরা	-6963
▁ইউসুফ	-6964
▁Newspaper	-6965
্ধব	-6966
▁পড়বে	-6967
▁জয়পুর	-6968
▁তেমনি	-6969
▁পাঞ্জ	-6970
▁রাঙ্গ	-6971
▁পাওয়ায়	-6972
▁ক্ষয়ক্ষ	-6973
▁খাবারের	-6974
mber	-6975
বিএস	-6976
▁একর	-6977
▁হের	-6978
▁প্রকৌশল	-6979
িফাইন	-6980
▁ময়না	-6981
▁অন্তর	-6982
▁গুঞ্জন	-6983
▁পারভেজ	-6984
ভাস	-6985
▁ফুটে	-6986
কর্মীদের	-6987
▁ইউনাইটে	-6988
▁সিরাজুল	-6989
port	-6990
টপ	-6991
▁কিম	-6992
দায়িক	-6993
▁নার্স	-6994
▁দুর্বল	-6995
▁গ্রাহকদের	-6996
দীপ	-6997
▁ইন্ত	-6998
▁পায়ে	-6999
▁ব্রিফ	-7000
▁স্ক্র	-7001
▁বঙ্গোপসাগ	-7002
ast	-7003
অপর	-7004
▁৫৪	-7005
▁টেব	-7006
▁গুজব	-7007
▁মালাম	-7008
মালা	-7009
▁ফিফ	-7010
▁সাফ	-7011
ামপুর	-7012
▁সেমিফাইন	-7013
▁স্থানীয়দের	-7014
ives	-7015
▁একেবারে	-7016
▁ঔ	-7017
কেত	-7018
▁নয়া	-7019
▁ভুলে	-7020
▁একক	-7021
▁তবু	-7022
▁শুল	-7023
িউদ্দিন	-7024
▁যাচ্ছি	-7025
▁স্বস্ত	-7026
▁আগাম	-7027
ডব্লিউ	-7028
▁কৃষকের	-7029
▁প্রদানের	-7030
og	-7031
▁June	-7032
▁রাজু	-7033
▁উইন্ড	-7034
জিও	-7035
নির্	-7036
মাইল	-7037
▁ফকির	-7038
▁দুইটি	-7039
▁ব্যাগ	-7040
▁গ্রন্থ	-7041
▁প্রিন্স	-7042
গন	-7043
arb	-7044
ংয়ের	-7045
▁কক্ষ	-7046
▁বাঁশ	-7047
▁সীমিত	-7048
প্রযুক্ত	-7049
▁চাচ	-7050
▁৮টা	-7051
▁লম্ব	-7052
▁পরিপ্র	-7053
▁শ্বশুর	-7054
সেন্স	-7055
▁আইএস	-7056
▁গান্ধ	-7057
▁উত্তোলন	-7058
▁ভক্তদের	-7059
্রাট	-7060
য়ালি	-7061
▁বিপদ	-7062
▁ক্যান	-7063
▁স্ট্যাট	-7064
▁l	-7065
ফোর্ড	-7066
▁ফাইল	-7067
▁আন্তরিক	-7068
▁In	-7069
ার্জি	-7070
▁তারই	-7071
▁বাড়বে	-7072
▁re	-7073
▁মোড়ে	-7074
▁আইনগত	-7075
ুড়	-7076
▁ছুর	-7077
▁সমঝো	-7078
▁গ্রেফতারের	-7079
▁পরিবর্তনের	-7080
▁৬৪	-7081
▁মোহন	-7082
▁২০১২	-7083
▁হেলিক	-7084
▁কর্মচারী	-7085
▁চিকিৎসকের	-7086
এনএস	-7087
পিএস	-7088
▁রুশ	-7089
প্রেম	-7090
▁উপকূল	-7091
▁পর্বে	-7092
পর্যায়ে	-7093
▁জিয়াকে	-7094
▁নিহতদের	-7095
AN	-7096
্কর	-7097
▁ঢে	-7098
angl	-7099
▁উপকার	-7100
▁মফ	-7101
▁ক্রিস	-7102
▁চাওয়া	-7103
▁রাজস্ব	-7104
▁এইচএসসি	-7105
▁চাঞ্চল্য	-7106
▁উপস্থিতিতে	-7107
▁মুন্সীগঞ্জ	-7108
▁h	-7109
মারী	-7110
▁ইয়া	-7111
▁সেব	-7112
ব্যুন	-7113
▁কমাতে	-7114
▁রণবীর	-7115
▁স্বপন	-7116
▁দুদকের	-7117
▁শুরুতেই	-7118
▁রবীন্দ্র	-7119
মল	-7120
মার্	-7121
বিষয়ক	-7122
▁পারলে	-7123
▁রাখুন	-7124
▁টুইটারে	-7125
▁উন্মুক্ত	-7126
▁সংরক্ষিত	-7127
▁পুষ	-7128
▁৯টার	-7129
▁ম্যাচটি	-7130
op	-7131
বস	-7132
র্মে	-7133
▁দাগ	-7134
mi	-7135
৬০	-7136
টেই	-7137
▁দণ্ড	-7138
▁প্ল্যাট	-7139
▁ব্রাহ্মণবাড়িয়া	-7140
ফির	-7141
ীপুর	-7142
▁পাইলট	-7143
▁কোরিয়ার	-7144
▁এরা	-7145
▁ফাত	-7146
ঙ্গিত	-7147
▁কোরআন	-7148
▁একজনকে	-7149
▁প্রশংস	-7150
▁যোগদান	-7151
▁সমাপ্ত	-7152
▁আফগানিস্তানের	-7153
▁৭৮	-7154
▁এক্ষ	-7155
▁বাইডেন	-7156
▁বৃষ্টিপাত	-7157
▁দুর্বৃত্তরা	-7158
জিৎ	-7159
▁ছড়	-7160
▁লুট	-7161
▁মাংস	-7162
▁মাইল	-7163
▁সিআই	-7164
▁মুশফিকুর	-7165
্কৃত	-7166
▁ছাপ	-7167
▁শাও	-7168
▁Times	-7169
▁চাকমা	-7170
▁৬৭	-7171
ানিক	-7172
▁মাঠের	-7173
য়েট	-7174
▁চকর	-7175
▁বুকে	-7176
▁করপোরেশন	-7177
▁পদ্ধতিতে	-7178
▁লতি	-7179
▁গেলো	-7180
▁গ্যা	-7181
▁Amader	-7182
▁অনুসরণ	-7183
▁আয়োজনের	-7184
০০০	-7185
▁ঘনিষ্ঠ	-7186
▁হায়দার	-7187
▁সতর্কতা	-7188
▁ক্যাম্পে	-7189
▁ট্রাইব্যুন	-7190
রাই	-7191
সাথে	-7192
▁সুম	-7193
▁সেট	-7194
▁অনন্য	-7195
▁শি	-7196
তদন্ত	-7197
▁Arch	-7198
▁নেত্রক	-7199
▁কলকাতায়	-7200
সনের	-7201
িতিশীল	-7202
▁অসাধারণ	-7203
▁সমস্যায়	-7204
বাজ	-7205
ভেন	-7206
লান	-7207
▁গোলের	-7208
▁বিতর্কিত	-7209
▁পাকিস্তানি	-7210
পশ্চিম	-7211
▁কর্মসং	-7212
▁নারায়ণগঞ্জের	-7213
▁ডির	-7214
▁জার্ন	-7215
▁প্রাচ	-7216
▁অপরাধে	-7217
▁পরিসংখ	-7218
▁পর্যায়	-7219
▁সম্প্রচার	-7220
▁পরিপ্রেক্ষিতে	-7221
দিব	-7222
বিএন	-7223
াইয়া	-7224
মুখী	-7225
▁কবীর	-7226
▁শেরপুর	-7227
▁ওয়েবসাইটে	-7228
▁প্রযুক্তির	-7229
▁৪টি	-7230
▁রিজভী	-7231
▁মহামারী	-7232
▁শিশুটির	-7233
▁সশস্ত্র	-7234
মুন	-7235
▁করতো	-7236
জ্জীবন	-7237
েন্ডার	-7238
্যাপ্ত	-7239
▁বিরাজ	-7240
▁সফরের	-7241
▁মিউজিক	-7242
▁Kolkata	-7243
িমূল	-7244
▁বুক	-7245
িসিআই	-7246
▁পরীম	-7247
▁স্থল	-7248
▁প্রবাহ	-7249
▁শিক্ষার	-7250
▁দা	-7251
কেয়া	-7252
্বুল	-7253
▁ধাম	-7254
ঙ্কের	-7255
ম্যান্স	-7256
▁প্রমূখ	-7257
্টিফ	-7258
▁রযা	-7259
ল্পনা	-7260
▁জামে	-7261
▁একইসঙ্গে	-7262
▁প্রতিষ্ঠানটি	-7263
▁দফত	-7264
▁পুত	-7265
দ্বীপ	-7266
vember	-7267
▁ইংরেজি	-7268
▁অপরাজিত	-7269
িদার	-7270
োষ্ঠ	-7271
▁এএফ	-7272
▁মেহ	-7273
▁যাক	-7274
▁চাপা	-7275
▁আবদুর	-7276
▁ব্রেক	-7277
▁গবেষণায়	-7278
ামো	-7279
▁রব	-7280
▁কবে	-7281
পাড়ায়	-7282
▁রাশেদ	-7283
▁স্টার	-7284
▁নেইমার	-7285
▁মালামাল	-7286
রূপ	-7287
যুদ্ধে	-7288
▁চুরির	-7289
▁ব্যাক	-7290
▁লড়াইয়ে	-7291
▁আশপাশের	-7292
▁সোনারগাঁ	-7293
বিত	-7294
▁লোহ	-7295
▁হুস	-7296
▁পাঠান	-7297
▁দিল্লির	-7298
▁সদস্যকে	-7299
▁মৃত্যুবরণ	-7300
▁পরিসংখ্যান	-7301
▁জানিয়েছিলেন	-7302
শাহ	-7303
▁নৈ	-7304
▁মুফ	-7305
▁কেনার	-7306
ষ্টায়	-7307
▁আমান	-7308
▁রঙের	-7309
▁সেবার	-7310
▁বৈঠকের	-7311
ীক্ষা	-7312
▁মিশ্র	-7313
▁রাজশাহীতে	-7314
▁জেন	-7315
▁ঝাঁ	-7316
▁৯টা	-7317
▁অবিল	-7318
▁করতেই	-7319
ice	-7320
মেলা	-7321
দায়ের	-7322
▁একুশে	-7323
▁বার্ষিকী	-7324
ুলি	-7325
▁টস	-7326
নেতা	-7327
▁ভিজ	-7328
▁আজকে	-7329
▁চলার	-7330
▁টার্	-7331
▁রোগের	-7332
▁বাস্তব	-7333
▁অভ্যন্তরীণ	-7334
▁বীজ	-7335
▁বোধ	-7336
▁রুপ	-7337
▁তালেবান	-7338
▁সচেতনতা	-7339
▁November	-7340
▁মহামারির	-7341
যা	-7342
bor	-7343
▁পরিষে	-7344
▁পৃষ্ঠ	-7345
▁হুঁ	-7346
▁নেতৃত্বাধীন	-7347
▁নিপ	-7348
িনাকে	-7349
▁ট্যা	-7350
▁ব্রিজ	-7351
▁যাতায়	-7352
▁কর্পোরেশনের	-7353
র্কে	-7354
▁টহল	-7355
▁সেক্রেট	-7356
হাত	-7357
্বের	-7358
▁চক্রের	-7359
▁পর্দায়	-7360
▁মহাকাশ	-7361
বেলা	-7362
▁এরকম	-7363
▁ওয়াস	-7364
▁বৃক্ষ	-7365
▁সুশান্ত	-7366
▁July	-7367
▁বালু	-7368
▁সবজি	-7369
▁Sylhet	-7370
▁ছাত্রীর	-7371
▁ট্রাফিক	-7372
▁এক্ষেত্রে	-7373
▁ভিতরে	-7374
▁গ্রাহক	-7375
▁সাইবার	-7376
▁অনুশীলন	-7377
▁স্পিকার	-7378
▁BdST	-7379
▁ক্লিক	-7380
▁উৎসবের	-7381
▁পালনের	-7382
র্পণ	-7383
স্বর	-7384
▁ওপেন	-7385
▁মেসির	-7386
▁শুল্ক	-7387
ার্সিটি	-7388
▁অনেকটাই	-7389
▁সংবাদটি	-7390
▁ছুট	-7391
▁অভাব	-7392
▁হোয়া	-7393
▁খাতের	-7394
▁সোসাই	-7395
▁দ্রব্য	-7396
▁বগুড়ার	-7397
▁আবদুল্লাহ	-7398
▁যাবজ্জীবন	-7399
▁ক্রিকেটারদের	-7400
ac	-7401
▁অবল	-7402
▁জোটের	-7403
▁ইঙ্গিত	-7404
▁সুবর্ণ	-7405
▁লালমনির	-7406
▁সাব্বির	-7407
▁ইনস্টিটিউ	-7408
োভন	-7409
▁th	-7410
▁নবম	-7411
ruary	-7412
▁পার্থ	-7413
▁Archives	-7414
▁যুক্তরাজ্য	-7415
▁মন্ত্রিপরিষদ	-7416
▁৫৩	-7417
▁বাস্তবায়নে	-7418
▁মানববন্ধনে	-7419
▁*	-7420
হতি	-7421
▁এড়াতে	-7422
▁মেলার	-7423
▁রক্ষায়	-7424
▁অবিলম্বে	-7425
▁প্রতিষ্ঠিত	-7426
nel	-7427
আইজি	-7428
▁রাজা	-7429
▁নিয়োগের	-7430
▁সিরাজগঞ্জ	-7431
▁প্রতিক্রিয়া	-7432
িংক	-7433
▁শয	-7434
▁Ind	-7435
▁ভেন	-7436
▁বিচারের	-7437
▁আফগানিস্তান	-7438
িয়েছেন	-7439
▁এবারও	-7440
▁ইস্যুতে	-7441
▁চুক্তির	-7442
▁শ্রমিকরা	-7443
▁কট	-7444
র্চা	-7445
▁গুঁ	-7446
▁চমক	-7447
িনিউজ	-7448
▁কেড়ে	-7449
▁রিয়াদ	-7450
▁জানাজা	-7451
হারা	-7452
অ্যাপ	-7453
▁১৪২৮	-7454
▁মুম্বাই	-7455
▁দশম	-7456
▁December	-7457
▁সানি	-7458
▁ভোটগ্রহণ	-7459
▁সংগ্রহের	-7460
▁ফেনী	-7461
▁সেলস	-7462
▁রোনালদো	-7463
▁লাইসেন্স	-7464
▁সিদ্দিকী	-7465
▁ছো	-7466
▁গেট	-7467
▁নাক	-7468
▁দৃষ্টান্ত	-7469
up	-7470
▁for	-7471
▁পাত	-7472
▁ভাট	-7473
▁হেন	-7474
খবর	-7475
ংকার	-7476
▁ফিত	-7477
▁ইউএস	-7478
▁সাকিবের	-7479
▁স্বতন্ত্র	-7480
▁পশ্চিমবঙ্গের	-7481
▁জরুরী	-7482
▁সম্মিল	-7483
▁বৈশ্বিক	-7484
▁ব্যাক্ত	-7485
▁February	-7486
াকাছি	-7487
▁সুরমা	-7488
দুদ	-7489
bazar	-7490
▁অবহিত	-7491
▁এরপরই	-7492
ঙ্কে	-7493
িশনের	-7494
▁মিরাজ	-7495
▁লক্ষণ	-7496
▁কন্ট্র	-7497
▁কর্মহীন	-7498
▁ইন্ডিয়ান	-7499
▁কাছাকাছি	-7500
তিকর	-7501
▁উইল	-7502
▁নাছ	-7503
▁শাসন	-7504
▁ইসরাইল	-7505
ডিস	-7506
▁খস	-7507
▁West	-7508
▁ক্ষমতাস	-7509
▁সূত্রের	-7510
▁জোন	-7511
েন্সি	-7512
▁আসামির	-7513
▁পর্যাপ্ত	-7514
▁পারফরম্যান্স	-7515
▁g	-7516
are	-7517
ংকর	-7518
ited	-7519
▁নাশ	-7520
▁জবান	-7521
▁মিষ্টি	-7522
ার্থীদের	-7523
▁বাসে	-7524
▁কৃষ্ণ	-7525
▁জাপান	-7526
▁জামান	-7527
▁ইসমাইল	-7528
▁স্কোয়া	-7529
▁৮টার	-7530
▁লাখের	-7531
▁মনোনয়নপত্র	-7532
রবান	-7533
স্টিক	-7534
▁দুদক	-7535
▁রফিক	-7536
▁২০১১	-7537
▁পরিমা	-7538
▁ফোনের	-7539
▁মাদ্র	-7540
▁ত্বকের	-7541
▁ফ্রান্সের	-7542
homoy	-7543
▁আইডি	-7544
▁মাতৃ	-7545
▁Dhaka	-7546
▁উড়িয়ে	-7547
▁গঠনের	-7548
▁স্পেশ	-7549
বিহীন	-7550
র্কের	-7551
▁ঠাকুরগাঁও	-7552
▁৭৬	-7553
▁৭৭	-7554
বার্	-7555
তিনিধি	-7556
▁লম্বা	-7557
▁ভূঁইয়া	-7558
▁জাপানের	-7559
▁গাইবান্ধা	-7560
▁ইন্ডাস্ট্র	-7561
▁কার্যক্রমের	-7562
▁সম্প্রদায়ের	-7563
ভিন	-7564
▁শ্ল	-7565
▁রিপন	-7566
▁ক্রেত	-7567
▁মতামত	-7568
▁সরদার	-7569
▁সংবিধান	-7570
খার	-7571
▁গ্লো	-7572
▁ধরার	-7573
প্রকাশ	-7574
▁লেখেন	-7575
▁হাফেজ	-7576
▁প্রেক্ষ	-7577
▁খাগড়াছড়ি	-7578
▁চালাচ্ছে	-7579
▁পত্রিকার	-7580
অপরাহ	-7581
▁খালি	-7582
▁ভেসে	-7583
▁ইচ্ছা	-7584
▁দুলাল	-7585
▁স্যান	-7586
▁হাতের	-7587
▁পর্যালো	-7588
▁বার্সেলোনা	-7589
▁''	-7590
▁মও	-7591
icle	-7592
খ্যা	-7593
জনিত	-7594
▁নবী	-7595
▁মিলা	-7596
াম্মেল	-7597
▁অপারেশন	-7598
▁ঐক্যবদ্ধ	-7599
ৃক্ত	-7600
▁উত্থ	-7601
▁এখনই	-7602
▁টেকন	-7603
▁নাঈম	-7604
▁লন্ডন	-7605
▁প্রেসক্লাব	-7606
▁সিদ্ধান্তের	-7607
▁?	-7608
াইক	-7609
২০১৯	-7610
িস্তার	-7611
▁আন্তঃ	-7612
▁কিশোরী	-7613
▁প্রদীপ	-7614
▁চালিয়েছে	-7615
াসীর	-7616
▁জেস	-7617
▁সোপ	-7618
▁মেলায়	-7619
▁রহমানকে	-7620
▁আশঙ্কাজনক	-7621
ুড়ি	-7622
প্লে	-7623
▁মোস	-7624
▁খুঁজ	-7625
▁ঘরোয়া	-7626
▁জলবায়	-7627
▁অভিনীত	-7628
▁শারমিন	-7629
▁সত্ত্ব	-7630
পাক	-7631
▁পরদিন	-7632
▁v	-7633
▁কেক	-7634
▁April	-7635
▁মাহফুজ	-7636
▁আন্দোলনে	-7637
▁ঘা	-7638
▁আলে	-7639
▁পয়সা	-7640
্রান্ত	-7641
▁তরুণী	-7642
▁রেডিও	-7643
▁হার্ট	-7644
▁হুঁশিয়ার	-7645
▁সমর্থকদের	-7646
▁বিশেষজ্ঞরা	-7647
ext	-7648
েমা	-7649
াদির	-7650
▁অবস	-7651
▁লঙ্ঘ	-7652
াশা	-7653
▁ট্যাব	-7654
▁আরিফুল	-7655
▁ছুরিকা	-7656
▁ভিডিওটি	-7657
▁অনুসন্ধান	-7658
hat	-7659
▁৬৯	-7660
▁নোবেল	-7661
▁হৃদরোগ	-7662
▁শান্তিপূর্ণ	-7663
বৃহ	-7664
▁দো	-7665
▁পাড়ি	-7666
▁বোঝা	-7667
ুয়ারিতে	-7668
▁ফেরদৌস	-7669
orth	-7670
▁জয়ে	-7671
▁কতটা	-7672
▁কনস্ট	-7673
▁একপর্যায়ে	-7674
▁লক্ষ্মীপুর	-7675
পূর	-7676
ায়নে	-7677
ুদের	-7678
▁মনের	-7679
আমাদের	-7680
▁চ্যান	-7681
▁মাসুম	-7682
▁লিভার	-7683
▁এশিয়ার	-7684
▁ট্রান্স	-7685
▁স্পিনার	-7686
▁বাংলাদেশী	-7687
পিকে	-7688
▁কাপড়	-7689
▁Portal	-7690
▁সিনেমাটি	-7691
▁বক	-7692
▁পরমাণ	-7693
কমিশনার	-7694
▁আগুনের	-7695
▁বর্ষের	-7696
▁সম্রাট	-7697
▁টুয়েন্ট	-7698
▁টাঙ্গাইলের	-7699
▁টুর্নামেন্টের	-7700
োহর	-7701
▁ফিন	-7702
াকালে	-7703
▁from	-7704
▁রশীদ	-7705
▁প্রশাসনিক	-7706
ইট	-7707
▁লড়	-7708
িপুর	-7709
িয়াকে	-7710
▁কালি	-7711
▁নৌকার	-7712
▁শ্রেণীর	-7713
▁আরা	-7714
▁সুদ	-7715
▁নিলে	-7716
▁উন্মো	-7717
▁ফরহাদ	-7718
▁বিনিময়	-7719
দারি	-7720
▁ভাত	-7721
▁রতন	-7722
▁Chan	-7723
▁আবিষ	-7724
▁ওয়াজ	-7725
▁হাছান	-7726
▁সংগ্রাম	-7727
▁কিছুক্ষণ	-7728
▁০০	-7729
িমূলক	-7730
▁হেলথ	-7731
▁দিবসের	-7732
ংকা	-7733
বোধ	-7734
▁২য়	-7735
ঘাটে	-7736
▁ইতাল	-7737
▁আওয়ার	-7738
▁খালেদ	-7739
▁সফটওয়্যার	-7740
▁প্রিয়াঙ্কা	-7741
▁আনে	-7742
▁বন্যার	-7743
▁অ্যাকশন	-7744
ঙ্গার	-7745
▁আর্ট	-7746
▁জালাল	-7747
যোগাযোগ	-7748
▁হোয়াটস	-7749
▁হাসানের	-7750
▁নেটওয়ার্ক	-7751
▁আর্ম	-7752
▁ছিলাম	-7753
▁নাহিদ	-7754
▁রাজীব	-7755
▁এসোসিয়ে	-7756
▁শাস্তির	-7757
▁রূপান্তর	-7758
▁সংক্রমিত	-7759
▁বিদ্যুতের	-7760
▁নাব	-7761
াদুর্	-7762
▁উৎসবে	-7763
▁কারিগ	-7764
▁ট্রেড	-7765
▁বন্দরে	-7766
▁উপস্থাপ	-7767
▁পরিবহনের	-7768
▁সম্প্রসারণ	-7769
▁Des	-7770
▁বঞ্চিত	-7771
▁গোবিন্দ	-7772
▁হোসেনকে	-7773
রাও	-7774
▁পিতার	-7775
▁স্লোগান	-7776
ফস	-7777
রিতে	-7778
▁ইন্তেক	-7779
▁তারকার	-7780
▁এয়ারলাই	-7781
▁প্রভাবে	-7782
▁আকারে	-7783
▁is	-7784
▁আহমেদের	-7785
▁রিমান্ডে	-7786
▁স্থানান্তর	-7787
)-	-7788
লির	-7789
ধর্ম	-7790
মিনুল	-7791
▁পরপরই	-7792
▁পাঠিয়েছে	-7793
লাস	-7794
মানে	-7795
▁সেদিন	-7796
▁ডায়াবে	-7797
▁মুম্বই	-7798
▁Channel	-7799
▁অগ	-7800
▁ভাস্কর	-7801
▁পরিবারে	-7802
▁আসামিদের	-7803
▁বিধ্বস্ত	-7804
▁প্রতিযোগিতার	-7805
▁৮৮	-7806
▁চীনে	-7807
▁মিত্র	-7808
▁অনুদান	-7809
▁প্যানেল	-7810
▁ইউনিভার্সিটি	-7811
লাউ	-7812
নগরে	-7813
▁গুন	-7814
▁কর্নেল	-7815
▁সংসদীয়	-7816
▁সংকেত	-7817
▁অর্ধেক	-7818
▁যশোরের	-7819
▁সম্পৃক্ত	-7820
▁উল্লেখযোগ্য	-7821
ফতর	-7822
▁চেত	-7823
ওয়ার্	-7824
▁অধ্য	-7825
▁ওপরে	-7826
▁নবীন	-7827
▁কাতার	-7828
▁চেন্ন	-7829
▁ছেলেকে	-7830
▁পরাজিত	-7831
▁ফেসবুকের	-7832
.]	-7833
োজিত	-7834
▁খেলবে	-7835
▁মার্ক	-7836
▁শীতের	-7837
▁দেখাতে	-7838
▁স্বার্থে	-7839
▁প্রাণঘাতী	-7840
▁রোহিত	-7841
▁ক্লাবে	-7842
▁ভর্তির	-7843
▁দাপ	-7844
▁কাজল	-7845
▁তুমি	-7846
▁সমাপ	-7847
▁August	-7848
▁বলিউডে	-7849
▁মিশিয়ে	-7850
▁বিস্ফোরণ	-7851
▁মাহমুদুল	-7852
▁নেতাকর্মী	-7853
োজা	-7854
▁কাই	-7855
▁ঢেউ	-7856
িন্টু	-7857
▁comment	-7858
▁প্রযোজনা	-7859
▁প্রার্থনা	-7860
▁ঐক্যফ্রন্ট	-7861
বিসি	-7862
▁ইউনিটে	-7863
▁সচিবালয়ে	-7864
▁সম্পাদনা	-7865
▁হারিয়েছে	-7866
হেলা	-7867
▁art	-7868
▁বলি	-7869
▁তৈরী	-7870
▁থেমে	-7871
▁বিনিময়ে	-7872
▁জ্বালানি	-7873
শাস	-7874
লব	-7875
ist	-7876
রিন	-7877
্রে	-7878
▁তীর	-7879
গেটিভ	-7880
ার্সন	-7881
▁জর্জ	-7882
▁ইউটিউব	-7883
▁দক্ষতা	-7884
▁অতিক্রম	-7885
্মা	-7886
টিসি	-7887
িকিউ	-7888
্বিত	-7889
▁আকার	-7890
▁ব্রাজিলের	-7891
▁মৃত্যুদণ্ড	-7892
▁চেয়ারম্যানের	-7893
▁টুক	-7894
শ্বাস	-7895
▁ব্লা	-7896
▁North	-7897
▁উদ্ভাব	-7898
▁দেওয়ান	-7899
▁পরমাণু	-7900
▁কারিগরি	-7901
▁দপ্তরের	-7902
▁স্থাপনা	-7903
▁বাণিজ্যিক	-7904
bi	-7905
পাস	-7906
▁আরাফ	-7907
্যেষ্ঠ	-7908
▁মঞ্চে	-7909
▁হাইওয়ে	-7910
▁সম্মিলিত	-7911
▁সম্মেলনের	-7912
▁ব্যবসায়ীকে	-7913
ঙ্গী	-7914
▁মোকাব	-7915
▁ওসমানী	-7916
▁ল্যাবে	-7917
▁শ্রেণি	-7918
▁দেশগুলোর	-7919
▁কুড়িগ্রাম	-7920
জী	-7921
ঢ্য	-7922
পিড	-7923
▁জেম	-7924
▁পোল	-7925
নিম্ন	-7926
▁রওনা	-7927
▁সেসব	-7928
▁গাজীপুরের	-7929
শালী	-7930
▁নৌবাহ	-7931
▁এজেন্ট	-7932
▁এরমধ্যে	-7933
টিআই	-7934
াতেও	-7935
▁জমে	-7936
▁রুটে	-7937
▁রিয়াজ	-7938
▁চালাতে	-7939
লীর	-7940
কেলে	-7941
▁বিলিয়ন	-7942
▁শাহরিয়ার	-7943
চারে	-7944
▁জুল	-7945
▁রনি	-7946
▁March	-7947
▁গণধর্ষ	-7948
▁পরিমাণে	-7949
▁লকডাউনে	-7950
▁ক্ষমতাসীন	-7951
▁ময়মনসিংহের	-7952
োরে	-7953
▁চক	-7954
▁জার	-7955
▁পিসি	-7956
▁ছুটির	-7957
▁টুইটার	-7958
▁হস্তক্ষেপ	-7959
▁জাজ	-7960
▁আইসিইউ	-7961
▁পরিবেশে	-7962
adm	-7963
▁ব্লক	-7964
▁খুনের	-7965
▁বেকার	-7966
▁কার্যকরী	-7967
▁ইশ	-7968
কষ্ট	-7969
ত্রীর	-7970
▁দামে	-7971
বার্ষিক	-7972
▁চেয়েছেন	-7973
বয়	-7974
▁৯৮	-7975
ার্ভ	-7976
▁ওঠার	-7977
▁জোড়া	-7978
▁আস্থা	-7979
▁সার্জ	-7980
▁পরিষেবা	-7981
মাকে	-7982
▁তেজ	-7983
▁কোহল	-7984
▁দেশজুড়ে	-7985
িজা	-7986
▁ষষ্ঠ	-7987
▁খোলার	-7988
▁ইউরোপীয়	-7989
▁পার্লাম	-7990
▁কারখানায়	-7991
▁ইউনিভার্স	-7992
্রো	-7993
মেইল	-7994
পেক্ষ	-7995
ামরিক	-7996
▁উঠছে	-7997
▁নড়াইল	-7998
▁ফোর্স	-7999
▁অভিযানের	-8000
▁অং	-8001
২০১৮	-8002
▁মেট	-8003
হাসের	-8004
▁সঙ্গী	-8005
▁অনুমোদ	-8006
▁মাক	-8007
▁ফজলে	-8008
▁মস্ত	-8009
▁রানী	-8010
▁সিসি	-8011
▁এতদিন	-8012
▁জোরদার	-8013
▁নীলফামারী	-8014
COM	-8015
ant	-8016
▁আলোর	-8017
▁জানাই	-8018
▁স্মিথ	-8019
▁ঘটিয়ে	-8020
▁ইসলামকে	-8021
▁সরেজমিন	-8022
▁r	-8023
াংশ	-8024
গুনা	-8025
পর্য	-8026
▁পারব	-8027
▁হলের	-8028
▁নিবেদন	-8029
▁২৫০	-8030
angbad	-8031
বাড়িয়া	-8032
▁ম্যাগ	-8033
▁ডিভাইস	-8034
ির্দিষ্ট	-8035
নির্বাচিত	-8036
▁১৫০	-8037
▁ভিত্তিক	-8038
▁ইউনাইটেড	-8039
কী	-8040
লাব	-8041
্লাল	-8042
▁৪০০	-8043
▁গোল্ড	-8044
▁পাননি	-8045
▁আলু	-8046
▁৬টি	-8047
▁Live	-8048
▁ঘোষনা	-8049
▁পুষ্টি	-8050
▁প্রতিন	-8051
▁বিজনেস	-8052
▁নরসিংদী	-8053
▁কিংবদন্তি	-8054
দাদ	-8055
র্ঘট	-8056
▁অংশে	-8057
▁কঙ্গ	-8058
▁মনিরুল	-8059
▁প্রোগ্রাম	-8060
দিক	-8061
দীতে	-8062
▁দফতর	-8063
▁জানার	-8064
▁রেঞ্জ	-8065
▁প্রাণহ	-8066
▁পাকিস্তানে	-8067
কোভ	-8068
হিদ	-8069
ব্যব	-8070
▁min	-8071
▁অটো	-8072
▁চিফ	-8073
▁ভঙ্গ	-8074
▁দোকানের	-8075
▁শিক্ষকের	-8076
▁পর্যবেক্ষণ	-8077
▁ভ্রাম্যমান	-8078
▁তালিকাভুক্ত	-8079
os	-8080
েশ্বর	-8081
▁চান্দ	-8082
▁ছোট্ট	-8083
▁উত্তরে	-8084
▁কোরবান	-8085
▁দেওয়ায়	-8086
▁পরিশ্রম	-8087
▁ব্যাখ্যা	-8088
um	-8089
ূলে	-8090
র্নি	-8091
প্রযুক্তি	-8092
▁টেন	-8093
▁ছক্ক	-8094
▁সার্টিফ	-8095
▁সেখানকার	-8096
▁অ্যাওয়ার্ড	-8097
▁চলচ্চিত্রে	-8098
▁মাহমুদউল্লাহ	-8099
জুল	-8100
িকো	-8101
পিতে	-8102
▁ডেভেল	-8103
▁বিতরন	-8104
▁বুলেট	-8105
▁সিনহা	-8106
কর্মীরা	-8107
▁সাপোর্ট	-8108
▁স্বার্থ	-8109
▁উদ্ধারের	-8110
▁[.]	-8111
ষ্টিতে	-8112
▁সমাপনী	-8113
ডিবি	-8114
▁ফেই	-8115
▁বাজে	-8116
▁মুকুল	-8117
▁জলবায়ু	-8118
▁চলাকালে	-8119
▁নেগেটিভ	-8120
oxs	-8121
ন্দি	-8122
▁আসল	-8123
▁ছায়া	-8124
▁কবিতা	-8125
▁বাঁধা	-8126
▁চিৎকার	-8127
▁দিনাজপুরের	-8128
▁আতা	-8129
যুদ্ধ	-8130
▁পুষ্প	-8131
▁যমুনা	-8132
▁কিশোরগঞ্জ	-8133
▁নবাব	-8134
▁মোমেন	-8135
▁জ্যেষ্ঠ	-8136
▁পেট্রোল	-8137
▁বান্দরব	-8138
▁বান্দরবান	-8139
▁≣	-8140
চিন	-8141
▁ঔষ	-8142
▁কাস	-8143
▁মুক	-8144
▁শপিং	-8145
▁শহিদ	-8146
▁ধানমন্ড	-8147
ইও	-8148
▁জৈ	-8149
▁পায়নি	-8150
▁ফিল্ড	-8151
্বুলেন্স	-8152
▁গৃহবধূর	-8153
▁রিভ	-8154
স্থাপ	-8155
▁খালা	-8156
▁বাংলায়	-8157
ল্যান্ডের	-8158
▁পরিচালনার	-8159
কলা	-8160
সাই	-8161
িশা	-8162
▁লুৎ	-8163
▁তথ্যের	-8164
▁সভাপতির	-8165
▁নাগরিকত্ব	-8166
মির	-8167
▁উস	-8168
▁কৌ	-8169
▁হুই	-8170
▁বুঝে	-8171
▁১২টা	-8172
▁আর্জেন্টিনা	-8173
নাট	-8174
পুল	-8175
ছড়িতে	-8176
▁পরেও	-8177
▁শফিক	-8178
▁বিক্রয়	-8179
▁মাগুরা	-8180
▁যুদ্ধে	-8181
▁প্রাদুর্	-8182
▁সর্বনিম্ন	-8183
▁এতো	-8184
ধ্যার	-8185
▁জম্ম	-8186
▁বাসার	-8187
▁খুলনার	-8188
▁article	-8189
▁পর্যবেক্ষ	-8190
▁৮৫	-8191
নামা	-8192
▁সাভ	-8193
▁করানো	-8194
▁online	-8195
▁ইতিবাচক	-8196
▁প্রযোজক	-8197
টরি	-8198
▁ভিউ	-8199
নেত্রী	-8200
▁আব্বাস	-8201
▁ক্যান্সার	-8202
▁নোয়াখালীর	-8203
▁প্রতিনিয়ত	-8204
.-	-8205
▁শাব	-8206
▁সহকারি	-8207
▁অগ্রগতি	-8208
মেই	-8209
য়েদ	-8210
▁ছিটকে	-8211
থের	-8212
ীদুল	-8213
্দের	-8214
deshe	-8215
চন্দ্র	-8216
▁চিঠিতে	-8217
▁জার্নাল	-8218
▁মাদ্রিদ	-8219
▁বংশ	-8220
ঙ্গাল	-8221
ঞ্চলে	-8222
▁ক্রম	-8223
▁অবলম্ব	-8224
▁এশিয়ান	-8225
▁নিশ্চয়	-8226
▁নিয়েছিলেন	-8227
BN	-8228
ee	-8229
প্রাণ	-8230
▁ব্রা	-8231
▁বিশ্লেষ	-8232
▁ইতিহাসের	-8233
▁ভুক্তভোগী	-8234
▁হাইকোর্টে	-8235
▁গণতান্ত্রিক	-8236
এক্স	-8237
দানে	-8238
▁১৯৬	-8239
▁পিছনে	-8240
▁অভিনয়ের	-8241
▁সত্ত্বেও	-8242
গল	-8243
▁৭৩	-8244
▁দাউ	-8245
াকাটা	-8246
পমেন্ট	-8247
▁মানের	-8248
▁ক্যাটা	-8249
▁চাঁদাব	-8250
▁নওগাঁর	-8251
▁প্রচারণা	-8252
▁TV	-8253
তারা	-8254
▁গাজ	-8255
▁রেহ	-8256
▁স্বপ্নের	-8257
বনে	-8258
▁৬১	-8259
▁বৈদ	-8260
▁পালা	-8261
▁লজ্জ	-8262
▁অষ্টম	-8263
▁জামায়াত	-8264
▁ব্যাংকিং	-8265
▁One	-8266
▁জায়ে	-8267
▁টেনে	-8268
▁বয়স্ক	-8269
▁মহিউদ্দিন	-8270
তিন	-8271
▁বিড	-8272
ডেস্ক	-8273
▁দেহে	-8274
গাঁওয়ে	-8275
▁ইন্ডিজ	-8276
▁দীপিকা	-8277
▁শৃঙ্খলা	-8278
▁সাক্ষ্য	-8279
▁মোজাম্মেল	-8280
টেল	-8281
▁ডুব	-8282
▁ফাই	-8283
▁কমলা	-8284
▁হাসি	-8285
▁Somoy	-8286
▁হয়েছি	-8287
▁দূর্ঘট	-8288
▁খেলেছেন	-8289
▁প্রতিপক্ষের	-8290
ুখী	-8291
টিভি	-8292
োন্ন	-8293
▁মঈন	-8294
▁৬টা	-8295
▁আরবে	-8296
িয়ামের	-8297
▁শহীদুল	-8298
▁সোপর্দ	-8299
▁পছন্দের	-8300
▁স্যানিট	-8301
▁ঐতিহ্যবাহী	-8302
ুফ	-8303
▁ال	-8304
▁স্কোর	-8305
▁টুয়েন্টিফোর	-8306
▁আঙ	-8307
▁ভাং	-8308
▁বাবর	-8309
▁হলেই	-8310
▁তাহের	-8311
▁নামাজের	-8312
▁বরিশালে	-8313
▁কর্পোরেশন	-8314
পান	-8315
সন্ত	-8316
▁স্ন	-8317
ফোনের	-8318
ুটিকে	-8319
▁নাট্য	-8320
▁বাচ্চু	-8321
▁ব্যান্ড	-8322
▁ইলেকট্রনিক	-8323
্লাস	-8324
▁আবদ	-8325
▁হরত	-8326
▁হলুদ	-8327
▁প্রশাসকের	-8328
টাও	-8329
পত্রের	-8330
▁দেখেছেন	-8331
▁Rep	-8332
▁ঘুষ	-8333
▁হবার	-8334
▁অভাবে	-8335
▁বৌদ্ধ	-8336
▁অধিদফতর	-8337
▁ইউরোপের	-8338
▁আমন্ত্রণ	-8339
▁জানাচ্ছি	-8340
জায়	-8341
▁মণ	-8342
চারের	-8343
র্তিত	-8344
▁অনিয়ম	-8345
▁চাকরির	-8346
▁প্রভাষ	-8347
▁হোয়াটসঅ্যাপ	-8348
IST	-8349
▁মুঠ	-8350
▁এখান	-8351
▁রোডের	-8352
▁ইন্তেকাল	-8353
▁ডিরেক্টর	-8354
▁প্রতিদিনের	-8355
▁Al	-8356
▁টেক্স	-8357
▁কনস্টেবল	-8358
কৃষ	-8359
▁রফত	-8360
▁কন্ঠ	-8361
▁শেরে	-8362
▁১৪২৭	-8363
▁সত্যিই	-8364
▁মাইক্রোবাস	-8365
▁আক্রান্তদের	-8366
ong	-8367
ফুর	-8368
চট্ট	-8369
সীমা	-8370
▁NEWS	-8371
▁উম্ম	-8372
▁গানে	-8373
▁হাঁট	-8374
▁মাটির	-8375
▁পরিবেশন	-8376
▁পেঁয়াজের	-8377
▁প্রাঙ্গণে	-8378
▁মক	-8379
▁বাড়ী	-8380
▁দেশটি	-8381
▁অপসারণ	-8382
▁লেগেছে	-8383
গি	-8384
রকম	-8385
▁৯৭	-8386
▁কথাও	-8387
▁কাঁচা	-8388
▁গাঁজা	-8389
▁উপযুক্ত	-8390
▁সমন্বয়ে	-8391
▁ঊর্ধ্বতন	-8392
যে	-8393
▁তুষ	-8394
▁বেড়	-8395
▁চিনি	-8396
▁বর্জ	-8397
▁মাকে	-8398
▁কুলাউ	-8399
▁বসানো	-8400
▁পেরিয়ে	-8401
▁আসামিকে	-8402
▁এডভোকেট	-8403
▁জামালপুর	-8404
▁মধ্যপ্রাচ	-8405
সিড	-8406
ায়েত	-8407
▁বেশী	-8408
▁মজিব	-8409
▁কাটার	-8410
▁জনগণকে	-8411
▁চিকিৎসায়	-8412
▁ব্যতিক্রম	-8413
▁৭৪	-8414
ফোনে	-8415
িউরি	-8416
োনেশ	-8417
▁Sun	-8418
▁মিটি	-8419
াধিকার	-8420
▁মেধাব	-8421
▁ঠিকানা	-8422
▁স্বামীকে	-8423
পস	-8424
▁ফসল	-8425
▁নানান	-8426
▁পেশায়	-8427
all	-8428
▁Te	-8429
▁মুজ	-8430
প্টার	-8431
বারেই	-8432
▁পদের	-8433
▁বাগান	-8434
▁বারের	-8435
▁দম্পতি	-8436
▁মিডিয়ার	-8437
▁কামরুজ্জামান	-8438
ফট	-8439
শির	-8440
▁আশে	-8441
▁এবি	-8442
▁পুল	-8443
▁বেড়া	-8444
▁শরীয়	-8445
▁সঙ্ক	-8446
atimes	-8447
াক্রমে	-8448
▁আরোহী	-8449
▁গবেষক	-8450
▁প্রাণী	-8451
▁ফেলেছে	-8452
▁সঙ্গেই	-8453
tt	-8454
ঃস	-8455
িসে	-8456
▁ভরা	-8457
▁মিউ	-8458
▁পোস্টে	-8459
▁নিয়োজিত	-8460
▁ভূমিকায়	-8461
▁বেসামরিক	-8462
ইং	-8463
মোট	-8464
ুত্ব	-8465
▁যাঁ	-8466
▁Time	-8467
▁আকাশে	-8468
▁আগষ্ট	-8469
▁ক্যাট	-8470
▁পুড়িয়ে	-8471
oxsbazar	-8472
বীণ	-8473
▁৬২	-8474
▁দৃঢ়	-8475
▁ক্ষেত্র	-8476
▁চিকিৎসকদের	-8477
▁পর্যালোচনা	-8478
▁জিজ্ঞাসাবাদের	-8479
▁রুট	-8480
▁ডেমো	-8481
▁সিংহ	-8482
▁রিফাত	-8483
▁পুরুষের	-8484
ঠা	-8485
বিস	-8486
▁En	-8487
বোর্ড	-8488
▁পায়ের	-8489
▁বাতিলের	-8490
▁সন্দেহে	-8491
▁রাজনীতিতে	-8492
▁প্রার্থীরা	-8493
▁ফাহ	-8494
▁ভট্ট	-8495
▁সৌন্দর্য	-8496
▁চাঁপাইনবাবগঞ্জ	-8497
▁St	-8498
▁তরফ	-8499
চ্যুত	-8500
▁আমদান	-8501
▁ছাড়ার	-8502
▁সাভার	-8503
▁স্পেশাল	-8504
▁প্রমাণিত	-8505
▁রাজনীতির	-8506
পোস্ট	-8507
োস্টার	-8508
▁তোমার	-8509
▁টেকনোল	-8510
সেব	-8511
ায়েল	-8512
▁গতিতে	-8513
▁বড়ুয়া	-8514
▁রয়টার্স	-8515
▁প্রজন্মের	-8516
াতো	-8517
▁৮৬	-8518
▁ছোঁ	-8519
▁দুবাই	-8520
▁ইলিয়াস	-8521
▁ডলারের	-8522
▁ইন্দোনেশ	-8523
বুর	-8524
▁জলা	-8525
▁রেম	-8526
▁নজরে	-8527
▁রুমে	-8528
▁অপরিব	-8529
▁ল্যাপ	-8530
▁ব্যক্তিত্ব	-8531
▁বিজিব	-8532
▁শত্রু	-8533
▁উপেক্ষ	-8534
▁মহাসড়ক	-8535
▁পৌঁছেছে	-8536
▁রপ্তানি	-8537
▁বাস্তবায়নের	-8538
▁পরোয়	-8539
▁সঞ্জয়	-8540
▁শরিফুল	-8541
▁শুনানির	-8542
▁আইসোলেশনে	-8543
▁হুঁশিয়ারি	-8544
▁লালমনিরহাট	-8545
▁নৃ	-8546
হাতি	-8547
িনায়	-8548
▁করত	-8549
▁দায়রা	-8550
▁শেষের	-8551
▁পিএনএস	-8552
▁সিকদার	-8553
▁সাউথ	-8554
▁ফেলতে	-8555
▁ভাগ্য	-8556
▁ধর্মের	-8557
▁৮৭	-8558
ainik	-8559
▁পর্ষ	-8560
▁কাশেম	-8561
▁যানজট	-8562
▁সাজ্জ	-8563
▁বগুড়ায়	-8564
▁হত্যাকাণ্ডের	-8565
ানু	-8566
ব্রত	-8567
াগার	-8568
▁দীপু	-8569
▁ফজলুল	-8570
▁সার্ক	-8571
▁মাঝারি	-8572
▁আত্মহত্যার	-8573
▁চামচ	-8574
▁হুদা	-8575
▁আপলোড	-8576
▁ফাঁড়ির	-8577
▁সম্মুখ	-8578
▁চলাকালীন	-8579
▁মালয়েশিয়া	-8580
▁শিক্ষার্থীকে	-8581
্বিন	-8582
▁IST	-8583
▁Sam	-8584
▁ইস্ট	-8585
▁কার্	-8586
▁১১টা	-8587
▁জান্নাত	-8588
▁আবিষ্কার	-8589
▁সাহায্যে	-8590
জাল	-8591
▁পোষ	-8592
▁নড়াই	-8593
▁Leave	-8594
▁নূরুল	-8595
▁পারছে	-8596
▁সংলাপ	-8597
▁ট্রলার	-8598
▁অধিবেশন	-8599
▁জনপ্রিয়তা	-8600
▁বিজ্ঞানীরা	-8601
ধারী	-8602
▁অনূ	-8603
ুরিয়া	-8604
▁সেরে	-8605
▁কার্ত	-8606
▁তহবিল	-8607
▁পর্তু	-8608
▁দিল্লিতে	-8609
▁ব্যাটারি	-8610
▁পার্শ্ববর্তী	-8611
▁প্রতিষ্ঠানটির	-8612
َا	-8613
▁বেই	-8614
িয়নের	-8615
▁রুপি	-8616
ুদ্দিন	-8617
▁আবরার	-8618
▁কুদ্দ	-8619
▁প্রবণ	-8620
▁শও	-8621
▁হট	-8622
ঙ্গি	-8623
াড়ার	-8624
পাড়ার	-8625
▁কেনা	-8626
▁পাকা	-8627
▁কাজটি	-8628
▁বয়সের	-8629
▁মোদির	-8630
▁সকলেই	-8631
▁পর্তুগ	-8632
▁কন্ট্রোল	-8633
▁রাঙামাটি	-8634
▁পেট	-8635
▁আশিক	-8636
▁ছয়টি	-8637
▁ফলাফ	-8638
▁দেয়নি	-8639
▁হয়রান	-8640
▁একাডেমি	-8641
▁স্বর্ণের	-8642
▁গন	-8643
▁সিস	-8644
▁যুবর	-8645
▁নারীরা	-8646
▁প্রায়ই	-8647
▁অভিভাবক	-8648
▁দুর্ভোগ	-8649
▁কুমিল্লায়	-8650
▁টাইগারদের	-8651
▁লাফ	-8652
▁আম্প	-8653
▁সহজে	-8654
▁মির্জ	-8655
▁শ্রমিকের	-8656
রিনা	-8657
ামেক	-8658
▁পরাজ	-8659
▁খবরের	-8660
▁মাদরাসা	-8661
▁সংস্থাটি	-8662
▁অ্যান্ড্র	-8663
▁৭৯	-8664
িজীব	-8665
▁রাখবে	-8666
স্থানীয়	-8667
▁তারপরও	-8668
▁সমঝোতা	-8669
▁তুলেছেন	-8670
▁অধিবেশনে	-8671
ick	-8672
গোল	-8673
গারে	-8674
পাতে	-8675
▁কাক	-8676
▁নুরু	-8677
▁মাইক	-8678
▁আসেনি	-8679
বিশ্বাস	-8680
▁ছাত্রদল	-8681
▁জিম্বাব	-8682
▁স্টেশনে	-8683
▁কৃতজ্ঞতা	-8684
▁ক্যাম্পাসে	-8685
রাং	-8686
িনো	-8687
▁উঁ	-8688
ৃন্দ	-8689
esday	-8690
গার্ড	-8691
▁আমলে	-8692
bangla	-8693
▁ইচ্ছে	-8694
▁মুফতি	-8695
▁পূর্ণাঙ্গ	-8696
▁যাচ্ছিলেন	-8697
▁মনিরুজ্জামান	-8698
▁সাম্প্রদায়িক	-8699
কাজ	-8700
▁অয	-8701
জিতে	-8702
বিশ্ব	-8703
লাইহি	-8704
▁বহাল	-8705
▁আলোকে	-8706
▁জয়নাল	-8707
▁নাজিম	-8708
▁সৌম্য	-8709
▁ডিজাইন	-8710
য়েব	-8711
াইনের	-8712
▁জানে	-8713
▁ডাকা	-8714
▁পথচার	-8715
▁ফিলিপ	-8716
▁ডিসেম্বরে	-8717
pp	-8718
▁পশু	-8719
▁লিওনেল	-8720
▁স্নাতক	-8721
ইস	-8722
বৈ	-8723
▁এরদ	-8724
েক্ষে	-8725
▁ছবিটির	-8726
▁প্রতিবছর	-8727
▁কক্সবাজারে	-8728
▁রাফ	-8729
▁বচ্চ	-8730
▁এনজিও	-8731
▁ধাওয়া	-8732
▁রোমান	-8733
▁শিবির	-8734
▁প্রবীণ	-8735
▁বৈদ্যু	-8736
▁অটোরিকশা	-8737
▁শিশুটিকে	-8738
ont	-8739
▁ছাই	-8740
▁নাদ	-8741
▁রোপ	-8742
▁জার্	-8743
imited	-8744
েস্টার	-8745
▁প্রচল	-8746
▁রেস্ট	-8747
▁সমবায়	-8748
▁প্রকাশিতঃ	-8749
▁কর্মসূচিতে	-8750
▁ম্যানেজমেন্ট	-8751
NS	-8752
্কে	-8753
বস্ত	-8754
েননি	-8755
▁নয়ন	-8756
▁মুল	-8757
▁সাথ	-8758
িসম্প	-8759
▁ইঞ্চ	-8760
▁বিরল	-8761
▁শর্ট	-8762
▁প্রকোপ	-8763
▁অর্থবছরের	-8764
শায়	-8765
োক্ত	-8766
▁দেখি	-8767
▁নিক্ষ	-8768
▁মাছের	-8769
▁কারবার	-8770
▁বেগমের	-8771
▁পৃথিবীতে	-8772
▁বাধ্যতামূলক	-8773
▁অ্যাম্বুলেন্স	-8774
ity	-8775
▁তৎকালীন	-8776
▁ক্যাম্পাস	-8777
▁কমপ্লেক্সের	-8778
সভার	-8779
▁কোতো	-8780
▁জাকার	-8781
▁স্বাদ	-8782
▁ব্যাটিংয়ে	-8783
▁অন্যান্যের	-8784
ith	-8785
মৃত	-8786
▁ফস	-8787
▁আলাম	-8788
▁হ্রাস	-8789
ারাষ্ট্র	-8790
▁উদ্যোক্তা	-8791
▁অপরিবর্তিত	-8792
▁যুক্তরাজ্যের	-8793
▁কপ	-8794
সচিব	-8795
▁কুত	-8796
▁দুষ	-8797
▁সময়ই	-8798
▁পাঠায়	-8799
▁ফেলার	-8800
▁শুনতে	-8801
▁অমান্য	-8802
▁জহিরুল	-8803
▁থাকছেন	-8804
▁পর্বের	-8805
▁সিকিউরি	-8806
▁কর্মসূচী	-8807
▁চুয়াডাঙ্গা	-8808
।[	-8809
▁৮৯	-8810
চ্ছু	-8811
▁বরণ	-8812
▁ভাতা	-8813
▁২০১০	-8814
Bangla	-8815
াবলম্ব	-8816
▁উল্টো	-8817
▁বাপ্প	-8818
▁নেমেছে	-8819
▁শাহাদাত	-8820
▁সুনামগঞ্জের	-8821
চাঁ	-8822
বেদনা	-8823
▁৯টায়	-8824
▁ফয়সাল	-8825
▁শোকের	-8826
স্থায়	-8827
▁গার্	-8828
▁মুসলমানদের	-8829
াগল	-8830
enews	-8831
▁টিকে	-8832
▁মতলব	-8833
▁ডেভিড	-8834
▁মন্দিরে	-8835
▁একেবারেই	-8836
ংয়ে	-8837
শাল	-8838
বলিত	-8839
▁অবত	-8840
▁আসুন	-8841
▁নন্দী	-8842
▁নবজাত	-8843
▁সপ্তম	-8844
হাম্মাদ	-8845
▁শামসুল	-8846
কাম	-8847
সীম	-8848
্যাড	-8849
▁হ্য	-8850
পুরুষ	-8851
▁এএসআই	-8852
▁ফ্যান	-8853
▁ব্যাল	-8854
▁রাজার	-8855
▁তাসকিন	-8856
▁বানিয়ে	-8857
▁মোবাইলে	-8858
▁স্বজনরা	-8859
▁প্রবেশের	-8860
▁কবরস্থানে	-8861
দেব	-8862
িতেই	-8863
▁আজও	-8864
▁তোলে	-8865
▁ব্লগ	-8866
▁নিজাম	-8867
▁শামসু	-8868
▁গ্লোবাল	-8869
▁গণমাধ্যমের	-8870
▁ঘাঁ	-8871
▁তিত	-8872
▁নিয়েছি	-8873
▁সন্ধ্যার	-8874
▁প্রজ্ঞাপন	-8875
গড়া	-8876
▁ইফ	-8877
িতাভ	-8878
োগ্র	-8879
▁মহা	-8880
তাবাদী	-8881
▁নিহতরা	-8882
▁পরিত্য	-8883
▁প্রথমবার	-8884
▁হেলিকপ্টার	-8885
রুমে	-8886
ানায়	-8887
▁আইয়	-8888
▁২০০৯	-8889
▁দাবীতে	-8890
▁লোকজনের	-8891
▁অস্ত্রোপ	-8892
َّ	-8893
েটর	-8894
জাতীয়	-8895
▁রচনা	-8896
▁আসরের	-8897
▁গোলাপ	-8898
▁চুলের	-8899
▁বলেছি	-8900
▁ল্যাব	-8901
▁গুলশান	-8902
▁ব্যবধান	-8903
▁মর্যাদা	-8904
▁যুদ্ধের	-8905
▁যোগ্যতা	-8906
▁কোয়ারেন্টাইনে	-8907
▁রক	-8908
india	-8909
▁জাদু	-8910
▁লতিফ	-8911
▁আটকের	-8912
▁পৃথিবী	-8913
▁রীতিমতো	-8914
হাম	-8915
▁৬৩	-8916
▁ওঠা	-8917
▁খাম	-8918
▁গরুর	-8919
▁বাইক	-8920
▁রাইড	-8921
▁এড়িয়ে	-8922
▁দেয়ায়	-8923
▁প্লাট	-8924
▁শতভাগ	-8925
▁অ্যাসোসিয়েশন	-8926
▁প্রত্যাহারের	-8927
ff	-8928
শিট	-8929
▁গল	-8930
▁৯৬	-8931
রক্ষক	-8932
▁বিআর	-8933
▁স্বয়	-8934
াপ্তাহ	-8935
▁কেননা	-8936
▁নাটকে	-8937
▁সাদেক	-8938
▁বালিকা	-8939
▁নাটোরের	-8940
▁রাজবাড়ী	-8941
▁সারাদেশের	-8942
েদুল	-8943
▁Lead	-8944
▁উচ্ছ	-8945
▁কলার	-8946
▁উপকরণ	-8947
▁জনতার	-8948
▁দিলীপ	-8949
▁নগরের	-8950
▁স্যাট	-8951
▁পাঁচজন	-8952
▁টে	-8953
েকশন	-8954
▁India	-8955
▁কাপ্ত	-8956
▁তাণ্ড	-8957
▁হালিম	-8958
▁১২টায়	-8959
▁তাৎক্ষণিক	-8960
▁প্রবাসীদের	-8961
Des	-8962
আউট	-8963
কাঠি	-8964
াবিদ	-8965
▁আকতার	-8966
▁ভালবাস	-8967
▁রাখবেন	-8968
▁শ্বাসকষ্ট	-8969
▁খেলোয়াড়দের	-8970
▁Ch	-8971
▁বাউ	-8972
▁আদিব	-8973
▁ব্রিগ	-8974
▁বেড়াতে	-8975
▁লাগানো	-8976
▁জনগোষ্ঠ	-8977
▁বিধানসভা	-8978
ce	-8979
ালয়	-8980
প্রয়	-8981
▁পাও	-8982
▁থাকি	-8983
▁উল্টে	-8984
▁কলম্ব	-8985
▁গভর্ন	-8986
▁ব্যাংকে	-8987
▁ফিলিস্তিনি	-8988
▁অগ্নিকাণ্ডের	-8989
সই	-8990
ধের	-8991
জানা	-8992
াপুরে	-8993
▁মিশন	-8994
▁ভিক্ষ	-8995
ধ্যায়ের	-8996
▁আজিজুল	-8997
▁মহারাষ্ট্র	-8998
ঘ্র	-8999
▁নীর	-9000
▁বদল	-9001
▁থাকুন	-9002
▁পিস্ত	-9003
▁ভাঙ্গ	-9004
▁ব্রিগেড	-9005
▁নির্দেশনায়	-9006
▁পূর্ববর্তী	-9007
▁প্রভাষক	-9008
▁বন্ধুদের	-9009
▁কর্মকর্তাকে	-9010
মকে	-9011
াতির	-9012
▁Tag	-9013
▁বোয়াল	-9014
▁টাওয়ার	-9015
▁ধারালো	-9016
▁জয়পুরহাট	-9017
াহা	-9018
▁দাড়	-9019
▁লিট	-9020
▁সিড	-9021
শক্তি	-9022
▁কোস্ট	-9023
▁মোনাজ	-9024
▁আত্মসম	-9025
▁আবেদীন	-9026
▁বিজিবির	-9027
াইল্যান্ড	-9028
▁এসেছিলেন	-9029
▁সমালোচনার	-9030
চক	-9031
রম	-9032
▁y	-9033
গাছা	-9034
ports	-9035
▁সহসভাপতি	-9036
▁টেলিযোগাযোগ	-9037
▁শট	-9038
টাকে	-9039
ান্ডে	-9040
▁স্ট্যাটাস	-9041
াগর	-9042
ানুগ	-9043
▁হতেই	-9044
▁১৯৭১	-9045
▁জ্যাক	-9046
▁সালাহ	-9047
▁খোর	-9048
য়াজ্জ	-9049
▁সূচনা	-9050
▁Limited	-9051
▁পোস্টার	-9052
▁পরিচ্ছন্ন	-9053
▁কর্মসংস্থান	-9054
ver	-9055
নিজ	-9056
লামে	-9057
্যাণ	-9058
করোনা	-9059
হত্যা	-9060
েন্টস	-9061
▁ফার্	-9062
▁মুঠো	-9063
▁প্যান	-9064
▁বিস্ম	-9065
▁জানালে	-9066
▁ট্রেনে	-9067
▁দিবসটি	-9068
▁নীতিমালা	-9069
▁ক্ষয়ক্ষতি	-9070
ড়ো	-9071
▁কোলে	-9072
▁খলিল	-9073
▁খাওয়	-9074
▁টেলিফ	-9075
▁কান্তি	-9076
▁পরোয়ানা	-9077
▁বিস্ফোরণে	-9078
ভুত	-9079
▁তবুও	-9080
েন্সের	-9081
▁গার্ম	-9082
▁জম্মু	-9083
▁তেলের	-9084
▁রযালি	-9085
▁মিলেছে	-9086
▁জনসংযোগ	-9087
োপাধ্যায়ের	-9088
▁একাধিকবার	-9089
য়েস	-9090
্টেন	-9091
▁বর্ণা	-9092
▁বাড়ার	-9093
▁অগ্নিক	-9094
▁তানভীর	-9095
▁নেতাকে	-9096
▁উত্তরপ্র	-9097
▁কাউন্সিলের	-9098
▁কোম্পানিটির	-9099
য়ী	-9100
ANG	-9101
▁কেম	-9102
▁ন্য	-9103
াটিতে	-9104
▁জহুর	-9105
▁জালে	-9106
▁যেকোন	-9107
▁শাকিল	-9108
▁ভাংচুর	-9109
▁জার্মান	-9110
▁বরিশালের	-9111
tv	-9112
শিশ	-9113
▁ধূ	-9114
টনের	-9115
দিনে	-9116
▁আঘাতে	-9117
▁জন্মশত	-9118
▁পুরাতন	-9119
▁নিরপেক্ষ	-9120
▁সন্তানদের	-9121
স্থল	-9122
▁সৈকত	-9123
▁৩টার	-9124
▁কেয়ার	-9125
▁জন্যও	-9126
▁ভাবনা	-9127
▁বিধায়ক	-9128
▁গবেষকরা	-9129
▁শিবগঞ্জ	-9130
▁অনূর্ধ্ব	-9131
▁ইন্ডিজের	-9132
▁যথাক্রমে	-9133
▁জনপ্রশাসন	-9134
▁সার্টিফিকেট	-9135
▁e	-9136
চরে	-9137
কুমার	-9138
িশিয়াল	-9139
▁তামিল	-9140
▁বোনের	-9141
▁মূল্যে	-9142
▁সমর্থক	-9143
▁স্টেশনের	-9144
▁পটুয়াখালী	-9145
ill	-9146
মতে	-9147
▁লবণ	-9148
▁শফিউল	-9149
▁সমবেদনা	-9150
▁উত্তীর্ণ	-9151
▁জনসাধারণ	-9152
▁টাইগাররা	-9153
▁জিজ্ঞাসাবাদে	-9154
▁রমজ	-9155
▁অডিট	-9156
সামগ্রী	-9157
▁উন্মোচন	-9158
▁Oneindia	-9159
▁কাগজপত্র	-9160
▁মন্ত্রীর	-9161
শিদ	-9162
হিন	-9163
িবুল	-9164
▁আলিয়া	-9165
▁পাড়ার	-9166
▁টার্গেট	-9167
▁বেশকিছু	-9168
▁ট্যাবলেট	-9169
▁বৈদ্যুতিক	-9170
▁প্রভাবশালী	-9171
▁ফুস	-9172
▁সীম	-9173
▁গুলশ	-9174
▁শওকত	-9175
বিস্তার	-9176
▁আরাফাত	-9177
▁এসেছিল	-9178
▁কোরিয়া	-9179
▁গিয়েছেন	-9180
▁সৃষ্টির	-9181
▁কারখানার	-9182
▁দেশব্যাপী	-9183
িটিভি	-9184
▁চারা	-9185
▁আজহার	-9186
▁কিডনি	-9187
▁রাষ্ট্রপতির	-9188
হজ	-9189
her	-9190
বিউ	-9191
ড্ডা	-9192
▁এসি	-9193
▁ভাষণ	-9194
▁আইফোন	-9195
▁আকর্ষণ	-9196
▁ক্ষতির	-9197
▁জুনিয়র	-9198
▁বসুন্ধ	-9199
▁বর্ণাঢ্য	-9200
▁প্ল্যাটফর্ম	-9201
হো	-9202
র্জন	-9203
▁আয়ে	-9204
▁সুত	-9205
▁ধোনি	-9206
▁বরগুন	-9207
▁যশোরে	-9208
▁বন্যায়	-9209
াপ্তাহিক	-9210
▁BanglaNews	-9211
▁যাদ	-9212
▁বিএম	-9213
▁অমিতাভ	-9214
▁লন্ডনে	-9215
▁সোনালী	-9216
▁স্পর্শ	-9217
oxsbazarNEWS	-9218
▁নাইট	-9219
ঞ্চলীয়	-9220
পূর্বক	-9221
▁পুকুরে	-9222
▁শান্তির	-9223
▁ছাড়িয়েছে	-9224
▁যাত্রীরা	-9225
▁স্যাটেলা	-9226
▁প্রদক্ষিণ	-9227
ঁটে	-9228
▁মোতা	-9229
▁পিকআপ	-9230
স্থানের	-9231
▁প্যাকে	-9232
▁দূতাবাস	-9233
▁তদন্তকারী	-9234
▁সহযোগিতার	-9235
▁নল	-9236
▁ভেজ	-9237
▁উইকি	-9238
▁ধুয়ে	-9239
াকালীন	-9240
▁অনিশ্	-9241
▁মিলবে	-9242
▁মধ্যেও	-9243
▁আইসিসির	-9244
কিল	-9245
icate	-9246
▁আবেগ	-9247
লানিউজ	-9248
▁বেলাল	-9249
▁সেটাই	-9250
▁আধিকার	-9251
▁প্রজাতির	-9252
▁স্ট্যান্ড	-9253
▁জিম্বাবুয়ে	-9254
▁মঠ	-9255
▁৯৫	-9256
রানি	-9257
বঙ্গে	-9258
▁বাশার	-9259
▁মুগ্ধ	-9260
▁রেখেই	-9261
▁নাটকের	-9262
▁থানাধীন	-9263
চট্টগ্রাম	-9264
▁জনপ্রতিনিধি	-9265
গাহ	-9266
তেও	-9267
লাভ	-9268
ন্সের	-9269
াগঞ্জ	-9270
▁নেপাল	-9271
▁ফেরেন	-9272
▁অপারেটর	-9273
▁উপেক্ষা	-9274
▁চলাচলের	-9275
▁আবহাওয়ার	-9276
▁টুর্নামেন্টে	-9277
▁ভী	-9278
▁দিত	-9279
▁নেশ	-9280
▁চাপায়	-9281
▁মেক্স	-9282
▁কমিটিতে	-9283
▁যুবদলের	-9284
▁থাইল্যান্ড	-9285
▁প্রধানমন্ত্রীকে	-9286
▁st	-9287
▁তফস	-9288
ন্যাস	-9289
▁Synd	-9290
▁সংকটে	-9291
▁গান্ধী	-9292
▁শিশুটি	-9293
এমএম	-9294
▁গণ্য	-9295
▁ফতুল	-9296
▁যত্ন	-9297
▁বৃষ্টিতে	-9298
ছর	-9299
িচ	-9300
mier	-9301
ছিলে	-9302
ভূতি	-9303
ার্চ	-9304
িল্লাহি	-9305
▁অর্থায়নে	-9306
▁স্যামসাং	-9307
▁চিত্রনায়িকা	-9308
▁প্রাদুর্ভাব	-9309
ide	-9310
ile	-9311
হারে	-9312
▁আইড	-9313
▁অফার	-9314
▁ক্ষু	-9315
▁পাখি	-9316
▁রকেট	-9317
▁জালিয়	-9318
▁মাসিক	-9319
▁ড্রাইভ	-9320
▁হতাহতের	-9321
▁প্রবৃদ্ধ	-9322
▁জবানবন্দি	-9323
▁j	-9324
▁চু	-9325
▁নকল	-9326
▁চাপে	-9327
▁ডিএন	-9328
▁বাবল	-9329
newsbd	-9330
▁দিলেও	-9331
▁বিপাকে	-9332
▁Premier	-9333
▁ওয়াশিংটন	-9334
ip	-9335
▁চাট	-9336
▁সর্	-9337
▁ফরাসি	-9338
▁কারাগার	-9339
▁স্বজনদের	-9340
▁বিস্ফোরণের	-9341
▁আয	-9342
▁৩টায়	-9343
িমিটার	-9344
▁দুজনকে	-9345
▁পাঠাতে	-9346
▁বিশ্বনাথ	-9347
iz	-9348
চির	-9349
য়েজ	-9350
পিএল	-9351
ায়িত	-9352
▁এমএ	-9353
পুত্র	-9354
প্রবাহ	-9355
▁ঠান্ড	-9356
▁ফোরাম	-9357
▁লাইনে	-9358
bideshe	-9359
▁Syndicate	-9360
র্সের	-9361
▁Next	-9362
▁২০০৮	-9363
▁হারের	-9364
▁আইসিটি	-9365
▁চেম্বার	-9366
▁বাসভবনে	-9367
▁ভবিষ্যৎ	-9368
hebideshe	-9369
▁মন্ত্রণালয়ে	-9370
LA	-9371
নাশ	-9372
াহাজ	-9373
▁আধা	-9374
▁নামিয়ে	-9375
▁বিপরীত	-9376
▁এলাকাবাসীর	-9377
PNS	-9378
▁গ্ল	-9379
▁ডিসি	-9380
▁জামাত	-9381
▁সোহরা	-9382
▁পড়াশোনা	-9383
▁ক্ষতিপূর	-9384
▁ইরফ	-9385
▁জয়া	-9386
▁ডিভ	-9387
িয়াতে	-9388
▁দুস্থ	-9389
▁শয্যা	-9390
▁হাওয়া	-9391
Deshebideshe	-9392
পাঠ	-9393
্বি	-9394
জীবন	-9395
বাদে	-9396
▁ন্যা	-9397
িস্তান	-9398
▁জনসংখ	-9399
▁বিদ্য	-9400
▁জানানোর	-9401
▁জন্মগ্রহণ	-9402
▁স্থিতিশীল	-9403
▁ক্ষতিগ্রস্থ	-9404
▁জী	-9405
▁ক্যাস	-9406
্বে	-9407
▁ওড়	-9408
▁কস	-9409
▁ইমন	-9410
▁চোপ	-9411
কোভিড	-9412
▁দেশি	-9413
▁সহায়ক	-9414
▁গানটির	-9415
▁বাচ্চা	-9416
নির্বাহী	-9417
▁অ্যাটর্নি	-9418
▁সেক্রেটারি	-9419
▁ক্যারিয়ারের	-9420
লু	-9421
▁তারাই	-9422
▁নিষ্প	-9423
▁খুলনায়	-9424
▁চকরিয়া	-9425
▁সিরিয়ার	-9426
▁শিরোনামে	-9427
▁মৃত্যুকালে	-9428
▁শোভাযাত্রা	-9429
পাই	-9430
সিস	-9431
▁গ্রিন	-9432
▁চন্দন	-9433
▁মেসেজ	-9434
▁বুলবুল	-9435
▁বিক্রেতা	-9436
মিল	-9437
াগন	-9438
ঘ্রই	-9439
যাপন	-9440
▁ওইদিন	-9441
▁মহিলার	-9442
▁স্বচ্ছ	-9443
▁ফোরামের	-9444
▁কারাদন্ড	-9445
টিএ	-9446
▁CBN	-9447
ঙ্ক্ষ	-9448
▁বরগুনা	-9449
▁মাদকের	-9450
):	-9451
oun	-9452
টিই	-9453
রোপ	-9454
ষিত	-9455
▁ঝাম	-9456
▁নিত	-9457
দেশিক	-9458
সিনের	-9459
▁অস্ত	-9460
▁অর্জনের	-9461
বিস্তারিত	-9462
▁আকর্ষণীয়	-9463
▁শিক্ষাবর্ষ	-9464
▁সোহরাওয়ার্	-9465
্টোর	-9466
▁রিম	-9467
▁ত্বক	-9468
▁মেঘনা	-9469
▁ডিএমপি	-9470
▁দেখছেন	-9471
▁ভারতকে	-9472
▁মেধাবী	-9473
▁আইপিএলের	-9474
▁প্রতিপাদ	-9475
▁মালিকানা	-9476
▁বক্তব্যের	-9477
▁সৎ	-9478
▁১ম	-9479
ীর্ত	-9480
▁ইনজ	-9481
ফাজ্জ	-9482
▁আয়ার	-9483
▁গর্ভ	-9484
▁গৌরী	-9485
▁৮টায়	-9486
স্তরের	-9487
▁যাতায়াত	-9488
▁সাপ্তাহিক	-9489
ীতা	-9490
▁যো	-9491
▁শিথ	-9492
▁গোসল	-9493
▁দগ্ধ	-9494
▁আলোকিত	-9495
▁উঠেছেন	-9496
▁সহিংসতা	-9497
▁স্প্যানিশ	-9498
ছড়া	-9499
▁কূট	-9500
পন্থী	-9501
সরকারি	-9502
ার্নিং	-9503
▁গোয়াল	-9504
▁চামড়া	-9505
▁সিলিন	-9506
▁Report	-9507
▁পারভীন	-9508
▁পিস্তল	-9509
▁সম্পত্তি	-9510
ষে	-9511
নাগ	-9512
▁অদ	-9513
▁কোটা	-9514
▁১২টি	-9515
▁ইতালির	-9516
▁মেট্রো	-9517
▁কার্তিক	-9518
▁নিয়ন্ত্রক	-9519
ker	-9520
▁উখিয়া	-9521
▁সেন্স	-9522
খোলা	-9523
ুরের	-9524
োমার	-9525
▁৮টি	-9526
▁৯টি	-9527
পক্ষে	-9528
▁করলেই	-9529
▁তলিয়ে	-9530
▁বর্ণনা	-9531
্কি	-9532
▁ডো	-9533
সমূহ	-9534
▁কেশ	-9535
▁প্রল	-9536
▁আইয়ুব	-9537
▁ইতালি	-9538
▁লাগছে	-9539
▁তারপরে	-9540
▁আমেরিকান	-9541
▁তলা	-9542
▁কবলে	-9543
▁বন্দি	-9544
▁বন্ধে	-9545
▁মনসুর	-9546
▁চেষ্টার	-9547
▁রেস্টুর	-9548
মারে	-9549
▁পরা	-9550
স্থিত	-9551
▁গড়ার	-9552
ামুক্ত	-9553
▁ড্রোন	-9554
▁তুষার	-9555
▁ওয়াহিদ	-9556
▁খায়রুল	-9557
▁হয়রানি	-9558
▁সূত্রপাত	-9559
▁ব্যবস্থাপক	-9560
ani	-9561
own	-9562
▁তলায়	-9563
▁রযাপ	-9564
▁চালকের	-9565
▁বাঁচতে	-9566
▁প্রদেশে	-9567
▁পূর্বাভাস	-9568
▁সীমান্তের	-9569
▁অলি	-9570
িয়ারে	-9571
্যাটে	-9572
▁জলিল	-9573
বাজারে	-9574
▁অনুভব	-9575
▁Dainik	-9576
▁মোতাবেক	-9577
▁রিপোর্টে	-9578
উই	-9579
▁কৃষকরা	-9580
▁ভোটারদের	-9581
▁মোকাবিলা	-9582
▁পরীক্ষার্থী	-9583
দৈ	-9584
▁Barta	-9585
▁কোচিং	-9586
▁ত্রিশ	-9587
▁রেস্ত	-9588
▁বিমানে	-9589
▁তিনজনের	-9590
▁বৈদেশিক	-9591
▁রংপুরের	-9592
▁প্রচেষ্টা	-9593
▁সেক্ষেত্রে	-9594
▁৮১	-9595
কর্ত	-9596
▁নৃত	-9597
▁পেই	-9598
▁হাদ	-9599
▁ঘাতক	-9600
▁বিটি	-9601
▁আবদুস	-9602
▁বাইরের	-9603
▁সাক্ষাত	-9604
▁মর্মান্ত	-9605
ষ্ম	-9606
▁আফর	-9607
তাদের	-9608
িপত্য	-9609
িপাড়া	-9610
▁মাইক্রোস	-9611
▁ভালোবাসার	-9612
na	-9613
মাল	-9614
মেট	-9615
রিয়া	-9616
▁ইনফ	-9617
▁চাইল	-9618
▁দখলে	-9619
▁ভিপি	-9620
▁কম্বল	-9621
▁খানকে	-9622
▁ক্ষতিকর	-9623
▁প্রজেক্ট	-9624
▁প্রেমিকা	-9625
▁হিল	-9626
িবর্গ	-9627
▁মতিন	-9628
▁শার্	-9629
▁অধিকারী	-9630
তাল	-9631
▁চিক	-9632
▁উইলিয়াম	-9633
▁কালীগঞ্জ	-9634
▁ব্যবহারকারীদের	-9635
তাহ	-9636
আইসি	-9637
বহুল	-9638
বিধা	-9639
বিলে	-9640
্টের	-9641
ঙ্কান	-9642
▁সিটির	-9643
▁বিবৃতি	-9644
▁জড়িতদের	-9645
▁প্রদর্শনী	-9646
▁ইসি	-9647
▁ছড়া	-9648
▁বৈষ	-9649
▁দুটো	-9650
▁বদলি	-9651
▁উচ্ছেদ	-9652
▁নেপালের	-9653
▁বৈশিষ্ট	-9654
▁একাডেমির	-9655
▁গণপরিবহন	-9656
োয়ান	-9657
্লামা	-9658
▁মুখের	-9659
▁ছিনিয়ে	-9660
▁ডাকাতি	-9661
▁মর্যাদ	-9662
▁ক্যারিব	-9663
▁অভিনব	-9664
▁এসেছি	-9665
▁ইয়াসমিন	-9666
▁ব্ল্যাক	-9667
▁সেন্টারের	-9668
▁ইঞ্জিনিয়ারিং	-9669
িয়াজ	-9670
▁কুশ	-9671
াজপুর	-9672
▁সুবিধ	-9673
▁দাঁড়ায়	-9674
▁সাজানো	-9675
▁সামগ্র	-9676
▁পরিচিতি	-9677
▁রক্তাক্ত	-9678
bar	-9679
িটের	-9680
▁ধৃত	-9681
▁১২০	-9682
▁করাতে	-9683
▁বাদশা	-9684
▁সন্তু	-9685
▁উইকেটের	-9686
▁সেমিফাইনালে	-9687
ীয়া	-9688
বন্ধু	-9689
▁যেটা	-9690
দরিদ্র	-9691
▁সনাক্ত	-9692
▁সাক্ষী	-9693
▁উইকিপিড	-9694
▁যৌথভাবে	-9695
▁আলাউদ্দিন	-9696
দাল	-9697
▁৫টা	-9698
টেন্ট	-9699
▁মুনা	-9700
▁ক্যাচ	-9701
▁বার্ন	-9702
▁জার্সি	-9703
▁ডিআইজি	-9704
▁ফ্যাশন	-9705
▁রক্ষার	-9706
▁সংশোধন	-9707
▁প্রাচীন	-9708
▁সন্ত্রাসীরা	-9709
শ্চ	-9710
▁কৈ	-9711
লক্ষ	-9712
িসম্পদ	-9713
▁পাত্র	-9714
▁পারছি	-9715
▁আসামিরা	-9716
ভাষা	-9717
▁বিড়	-9718
▁চলুন	-9719
▁টার্ম	-9720
▁লাশটি	-9721
▁কোর্টে	-9722
▁পদার্থ	-9723
▁জাতীয়তাবাদী	-9724
ছিলো	-9725
মণ্ড	-9726
▁পিপ	-9727
▁আস্ত	-9728
▁বাদল	-9729
াবুয়ের	-9730
▁বসন্ত	-9731
▁মাগুর	-9732
▁চার্জশিট	-9733
▁প্রতারণা	-9734
▁সেলসিয়াস	-9735
▁প্রতিদিনই	-9736
anj	-9737
টিও	-9738
▁কোট	-9739
প্রিয়	-9740
▁দেরি	-9741
▁সাহস	-9742
▁হিরো	-9743
▁পারিনি	-9744
▁আল্লামা	-9745
▁মাদরাসার	-9746
▁সংগঠনটির	-9747
▁পর্যটকদের	-9748
▁অভিনেত্রীর	-9749
▁মর্মান্তিক	-9750
,'	-9751
ঁচ	-9752
খের	-9753
▁Th	-9754
পিসি	-9755
আপডেট	-9756
ডেনের	-9757
▁ঘাটে	-9758
▁নজির	-9759
▁ছাড়তে	-9760
▁লোকের	-9761
▁শরীয়ত	-9762
▁অ্যাপল	-9763
▁আত্মার	-9764
▁এভাবেই	-9765
▁ওয়ার্ক	-9766
▁চমৎকার	-9767
▁মেয়েরা	-9768
▁স্মরণে	-9769
▁বৃহত্তম	-9770
▁ব্যবসার	-9771
ছবি	-9772
রিত	-9773
গতির	-9774
▁শাল	-9775
ান্দা	-9776
▁উদাহ	-9777
▁নামা	-9778
▁গিয়াস	-9779
▁ফেলেন	-9780
▁আইপিএলে	-9781
▁ব্রেকিং	-9782
▁চেকপোস্ট	-9783
জ্জাম	-9784
▁অনুক	-9785
▁আখাউ	-9786
▁তুমুল	-9787
▁দ্বার	-9788
▁বিদ্রোহী	-9789
▁হাসিনাকে	-9790
▁are	-9791
▁সীত	-9792
▁আতঙ্কে	-9793
▁ফিরছেন	-9794
▁লোকসভা	-9795
▁প্রকাশনা	-9796
মেয়ে	-9797
াবাজার	-9798
▁নিপীড়	-9799
▁মিলাদ	-9800
▁থাকতেন	-9801
▁ক্ষমতার	-9802
▁ভাস্কর্য	-9803
▁মালয়েশিয়ায়	-9804
▁গ্রেপ্তারের	-9805
▁৮২	-9806
লিপি	-9807
▁আটকা	-9808
▁ওয়েল	-9809
▁বিরত	-9810
তিবাচক	-9811
▁পরকীয়	-9812
▁সিন্ড	-9813
▁স্টেট	-9814
▁হাতির	-9815
▁মস্তিষ	-9816
▁ওয়াই	-9817
▁তিনজনকে	-9818
▁শ্রীপুর	-9819
▁আত্মবিশ্বাস	-9820
ীর্থ	-9821
্রাল	-9822
▁ঔষধ	-9823
সিলেট	-9824
▁দেবী	-9825
▁হানা	-9826
▁অবসান	-9827
▁উত্তম	-9828
▁ভোলার	-9829
▁চট্টোপাধ্যায়	-9830
▁চ্যাম্পিয়নশিপ	-9831
বাক	-9832
বারক	-9833
▁কপি	-9834
▁কুই	-9835
▁রুল	-9836
▁পরিচ	-9837
▁৭টার	-9838
চ্ছেদের	-9839
▁ম্যানচ	-9840
▁ক্ষুব্ধ	-9841
▁কার্যদিব	-9842
▁কোরবানির	-9843
▁ঝুঁকিপূর্ণ	-9844
▁মালয়েশিয়ার	-9845
▁নবনির্বাচিত	-9846
▁জিডি	-9847
▁দাউদ	-9848
▁এমপিও	-9849
▁ফাঁকা	-9850
▁বাল্য	-9851
▁হয়েছিলো	-9852
▁আধিকারিক	-9853
▁কিশোরীকে	-9854
গরি	-9855
য্য	-9856
্রিম	-9857
▁গুদ	-9858
াবাড়ী	-9859
াল্টি	-9860
▁Last	-9861
▁মুছে	-9862
▁সকলে	-9863
▁জীবাণ	-9864
▁আধিপত্য	-9865
▁গোপালগঞ্জ	-9866
▁জিম্বাবুয়ের	-9867
tain	-9868
▁এতি	-9869
▁জিও	-9870
োয়ার্ড	-9871
▁ইমরুল	-9872
▁তোলেন	-9873
▁প্রদেশ	-9874
▁সুতরাং	-9875
▁মালদ্বীপ	-9876
▁সালমানের	-9877
▁ব্যবস্থাপনায়	-9878
্কা	-9879
▁সজীব	-9880
▁খেয়াল	-9881
▁চিন্ত	-9882
▁জিততে	-9883
▁হায়দর	-9884
▁গোষ্ঠী	-9885
▁মিছিলে	-9886
▁ফ্লাইটে	-9887
▁ভট্টাচার্য	-9888
অধ	-9889
▁সখ	-9890
ডাউন	-9891
▁চুম	-9892
▁জড়ো	-9893
ইউএনও	-9894
িউডের	-9895
▁গরীব	-9896
▁ঘাটতি	-9897
▁ফেন্স	-9898
▁গাড়িটি	-9899
▁ম্যারা	-9900
▁সকালের	-9901
▁সহায়তার	-9902
▁ক্রিকেটাররা	-9903
▁কার্যনির্বাহী	-9904
urs	-9905
▁নই	-9906
▁জাদ	-9907
▁ঝাড়	-9908
▁রায়ে	-9909
▁খেলেন	-9910
▁গ্যাল	-9911
▁অপরাধের	-9912
▁বাসিন্দারা	-9913
▁জাস	-9914
▁ভের	-9915
সংবাদ	-9916
▁বিআই	-9917
▁এটিএম	-9918
▁ব্যাপী	-9919
▁দুপুরের	-9920
▁মার্চের	-9921
▁আমিরাতের	-9922
▁পিরোজপুর	-9923
▁অস্বাভাবিক	-9924
▁ভ্যাকসিনের	-9925
শো	-9926
এমই	-9927
▁Un	-9928
ণ্ডা	-9929
▁ফলো	-9930
▁ভ্র	-9931
▁অতীত	-9932
▁বাণী	-9933
▁অবকাঠ	-9934
▁চেয়েও	-9935
▁বিরতি	-9936
বিজ্ঞান	-9937
▁উদ্যান	-9938
▁টোয়েন্ট	-9939
▁বিস্ফোরক	-9940
ect	-9941
▁বউ	-9942
▁পুজ	-9943
ঘাতের	-9944
▁মাইন	-9945
▁কৌশলে	-9946
▁রযালী	-9947
▁রিয়েল	-9948
▁আপত্তি	-9949
▁পাহাড়ি	-9950
▁মৌসুমী	-9951
▁Leading	-9952
▁ফেডারেশন	-9953
▁মহিলাদের	-9954
one	-9955
▁এনড	-9956
▁জগত	-9957
▁লিফ	-9958
▁উঠবে	-9959
▁প্রোট	-9960
▁প্রণোদ	-9961
▁দাঁড়াতে	-9962
▁প্রতিদ্বন্দ্বী	-9963
হাব	-9964
জেটিভ	-9965
উপজেলা	-9966
▁খারিজ	-9967
▁সমাজে	-9968
▁জঙ্গিব	-9969
▁জিতেছে	-9970
▁পুলিশি	-9971
▁যুবরাজ	-9972
▁রাজিউন	-9973
▁অঙ্গীকার	-9974
▁চুক্তিতে	-9975
▁প্রতিষ্ঠার	-9976
▁সালাউদ্দিন	-9977
▁ব্যবহারকারী	-9978
▁মায়	-9979
▁ইজতে	-9980
▁অর্পণ	-9981
▁লক্ষে	-9982
▁অভ্যাস	-9983
▁অর্ডার	-9984
▁মল্লিক	-9985
▁এরশাদের	-9986
▁নিক্ষেপ	-9987
▁সাফল্যের	-9988
▁ইনস্টাগ্রামে	-9989
oc	-9990
াময়	-9991
ানার	-9992
▁অদ্	-9993
▁উপায়ে	-9994
▁কল্যাণে	-9995
▁বৃহত্তর	-9996
▁সাজ্জাদ	-9997
পোষ	-9998
▁উনি	-9999
▁রেশ	-10000
িবদ্ধ	-10001
▁ঘটছে	-10002
▁পেজে	-10003
▁দিনটি	-10004
▁বসিয়ে	-10005
▁সুখবর	-10006
▁অগাস্ট	-10007
ud	-10008
ীনের	-10009
▁অমর	-10010
▁দিলো	-10011
▁একেএম	-10012
▁টিভির	-10013
▁ডায়ের	-10014
▁বাড়ায়	-10015
▁ভিকটি	-10016
▁ঘটনাকে	-10017
▁প্রাইম	-10018
▁স্বদেশ	-10019
▁আমন্ত্র	-10020
▁নাম্বার	-10021
নির্বাচনে	-10022
▁লেনদেনের	-10023
▁ডেভেলপমেন্ট	-10024
িজে	-10025
▁খন	-10026
antha	-10027
▁আকরাম	-10028
▁এমনটা	-10029
▁স্যার	-10030
▁গ্যাসের	-10031
▁ইসরাইলের	-10032
▁বসুন্ধরা	-10033
▁উত্তরবঙ্গ	-10034
ওয়াই	-10035
িমান	-10036
িশনে	-10037
▁শিপ	-10038
▁তারক	-10039
ান্ডার	-10040
▁ক্রেতা	-10041
▁শীঘ্রই	-10042
▁সম্ভবত	-10043
▁গবেষণার	-10044
▁বন্দরের	-10045
▁ক্যাটাগর	-10046
▁ব্যবস্থার	-10047
▁সাতক্ষীরার	-10048
তনের	-10049
োনায়	-10050
▁ক্ষত	-10051
▁তাপস	-10052
▁সদরে	-10053
▁সাতটি	-10054
▁সান্ত	-10055
▁পাবনার	-10056
▁অনুপ্রবেশ	-10057
▁বাংলানিউজ	-10058
▁সোহরাওয়ার্দী	-10059
▁প্রেসিডেন্টের	-10060
net	-10061
▁জ্যো	-10062
▁জায়েদ	-10063
▁লেবান	-10064
▁ওয়ালটন	-10065
▁বিষয়ের	-10066
▁সমর্থকরা	-10067
▁কুষ্টিয়ার	-10068
ীষ	-10069
বিএ	-10070
চালিত	-10071
▁বুড়ি	-10072
▁ভীষণ	-10073
▁মজার	-10074
▁সিইও	-10075
বাসীকে	-10076
▁খামার	-10077
▁দেননি	-10078
▁সার্চ	-10079
▁প্রবণতা	-10080
▁মুহম্মদ	-10081
▁হাফিজুর	-10082
▁আফগানিস্তানে	-10083
িভার	-10084
▁কমানোর	-10085
▁মেট্রিক	-10086
▁নেতিবাচক	-10087
▁ফরোয়ার্ড	-10088
▁জগন্নাথপুর	-10089
▁অন্যান্যদের	-10090
জয়ী	-10091
পিও	-10092
্টিম	-10093
্নার	-10094
▁ধরন	-10095
▁লোকে	-10096
োগ্রাফ	-10097
▁বাহার	-10098
▁দাঁড়াল	-10099
▁আনোয়ারুল	-10100
▁চ্যানেলে	-10101
▁অবসরপ্রাপ্ত	-10102
▁৮৪	-10103
ভাজন	-10104
▁বিগ	-10105
▁আঙ্গ	-10106
▁চেপে	-10107
▁জিবি	-10108
▁দিবে	-10109
কল্যাণ	-10110
▁বইয়ের	-10111
▁একাদশে	-10112
▁তুলেছে	-10113
▁দেখবেন	-10114
▁বিদেশী	-10115
▁চেয়েছিলেন	-10116
▁পরিদর্শনে	-10117
▁ডিসেম্বরের	-10118
▁তাৎক্ষণিকভাবে	-10119
জাদ	-10120
▁be	-10121
▁Sat	-10122
▁এঘট	-10123
▁জাগো	-10124
▁হাউস	-10125
ুয়ারির	-10126
▁ব্যাব	-10127
▁অ্যালব	-10128
▁একান্ত	-10129
▁দফতরের	-10130
▁কূটনৈতিক	-10131
▁মাহবুবুর	-10132
▁দূতাবাসের	-10133
▁প্রতারণার	-10134
▁মাদারীপুর	-10135
িদি	-10136
▁ঢাল	-10137
▁পড়ল	-10138
▁কুয়ে	-10139
▁মফিজ	-10140
▁রহমত	-10141
▁আতাউর	-10142
▁ইঞ্চি	-10143
▁গৃহীত	-10144
▁উত্তাল	-10145
▁সীতাকু	-10146
▁মুজিববর্ষ	-10147
▁গৌতম	-10148
▁মজিদ	-10149
িটারের	-10150
▁আয়োজক	-10151
▁চালুর	-10152
▁নিচের	-10153
▁মাথার	-10154
▁লুকিয়ে	-10155
▁সংকটের	-10156
▁শতাংশের	-10157
▁যোগাযোগের	-10158
log	-10159
কলেজ	-10160
▁খাস	-10161
▁গড়া	-10162
▁দশকের	-10163
▁বিল্ড	-10164
▁মাসেই	-10165
▁কোহলির	-10166
▁চেন্নাই	-10167
▁পশ্চিমা	-10168
▁মামুনুল	-10169
▁রিজার্ভ	-10170
▁লন্ডনের	-10171
▁নির্বাচনকে	-10172
▁ব্রাহ্মণবাড়িয়ার	-10173
int	-10174
▁দশক	-10175
▁প্য	-10176
▁ইন্ট	-10177
▁পিপি	-10178
▁চত্বর	-10179
▁তালেব	-10180
▁দ্বিপ	-10181
▁পারবো	-10182
▁স্বয়ং	-10183
▁ভোক্তা	-10184
▁সতীর্থ	-10185
▁ডায়াবেটিস	-10186
▁সন্ত্রাসীদের	-10187
ণি	-10188
াবির	-10189
▁লাউ	-10190
▁পুরান	-10191
▁মৌলিক	-10192
▁লিটার	-10193
▁পজেটিভ	-10194
▁পরিসরে	-10195
▁পৌঁছায়	-10196
▁বাবাকে	-10197
▁অভিবাসন	-10198
▁সায়েন্স	-10199
▁ব্যবহারে	-10200
▁হাড়	-10201
ট্রিক	-10202
▁আজিম	-10203
▁গড়তে	-10204
▁ইন্না	-10205
▁ঢুকতে	-10206
▁স্টুড	-10207
▁উদাহরণ	-10208
▁শ্যামল	-10209
াপ্রাপ্ত	-10210
▁কুদ্দুস	-10211
▁প্রচণ্ড	-10212
▁ত্রিপুরা	-10213
মিগ্র	-10214
ুটিয়ে	-10215
ান্তরের	-10216
▁আদায়ের	-10217
▁কানাডার	-10218
▁দারিদ্র	-10219
▁সাপেক্ষে	-10220
▁ক্যামেরার	-10221
▁Bangladeshi	-10222
▁মৃত্যুবার্ষিকী	-10223
বক	-10224
ory	-10225
নেক	-10226
য়নের	-10227
▁ভুট	-10228
▁সিএ	-10229
▁পুনঃ	-10230
▁ইনজুর	-10231
▁লঙ্ঘন	-10232
▁শিথিল	-10233
▁আনিসুল	-10234
▁ইসলামি	-10235
▁একযোগে	-10236
▁ঝামেলা	-10237
▁এরইমধ্যে	-10238
▁ভালোভাবে	-10239
▁সম্মানিত	-10240
▁পেয়েছিলেন	-10241
▁অগ্রাধিকার	-10242
্টু	-10243
▁ভৌ	-10244
চ্চার	-10245
▁মেলে	-10246
▁রোডে	-10247
▁সরিষ	-10248
▁৪টার	-10249
িতভাবে	-10250
▁একাংশ	-10251
▁ট্রায়	-10252
▁সাগরে	-10253
▁বাজেটে	-10254
▁বৃত্তি	-10255
▁অর্থনীতির	-10256
▁ব্রিফিংয়ে	-10257
▁আইনমন্ত্রী	-10258
▁স্কুলছাত্রী	-10259
▁তত্ত্বাবধানে	-10260
মী	-10261
▁অবি	-10262
▁কিব	-10263
▁মমত	-10264
▁মরি	-10265
▁লিব	-10266
▁ডাবল	-10267
▁মোটা	-10268
▁শঙ্কা	-10269
▁যাবতীয়	-10270
▁রেজিস্ট্রার	-10271
সোম	-10272
ীনগর	-10273
ডিএসই	-10274
রুদ্ধ	-10275
সূত্র	-10276
▁কথিত	-10277
▁কাউন	-10278
▁মাস্ট	-10279
▁সামাদ	-10280
▁বিসিবির	-10281
▁সম্প্রী	-10282
▁মৌলভীবাজারের	-10283
▁কাভ	-10284
▁কির	-10285
▁ধসে	-10286
▁সবশেষ	-10287
▁হারায়	-10288
▁উপকূলীয়	-10289
▁প্রতিপাদ্য	-10290
▁সিদ্ধান্তে	-10291
ht	-10292
ুলার	-10293
▁সাধ	-10294
খ্যান	-10295
ঙ্কায়	-10296
▁তফসিল	-10297
▁মিনার	-10298
▁গ্রুপে	-10299
▁পঞ্চগড়	-10300
▁জামিনের	-10301
▁মূল্যের	-10302
▁মৌসুমের	-10303
পূ	-10304
ram	-10305
েরি	-10306
▁You	-10307
▁করো	-10308
▁দরে	-10309
▁ফুড	-10310
বিভাগ	-10311
েন্দু	-10312
▁যাবৎ	-10313
▁হননি	-10314
▁গ্রেন	-10315
▁নেটিজ	-10316
▁তৎপরতা	-10317
▁উদযাপিত	-10318
▁ডিএসইতে	-10319
▁ল্যাপটপ	-10320
▁সার্কেল	-10321
▁দ্বন্দ্ব	-10322
▁পুঁজিবাজারে	-10323
ম্ভ	-10324
▁মেগ	-10325
িয়ন্স	-10326
▁দৌড়ে	-10327
▁কানাড	-10328
▁মারুফ	-10329
▁প্রীতি	-10330
▁পরিত্যক্ত	-10331
চীন	-10332
হানা	-10333
▁থ্র	-10334
▁টিপু	-10335
▁মাহি	-10336
পেক্টর	-10337
▁ইরফান	-10338
▁গোপনে	-10339
▁জিপিএ	-10340
▁একাত্ত	-10341
tainment	-10342
▁মুমিনুল	-10343
▁অ্যান্টি	-10344
▁মেহেরপুর	-10345
▁ইসরায়েলের	-10346
▁সুপারস্টার	-10347
man	-10348
ানীর	-10349
▁দুব	-10350
▁ফ্লোর	-10351
▁অন্যের	-10352
▁ফুটবলের	-10353
▁সমর্থিত	-10354
▁ব্রিটেনের	-10355
▁বার্সেলোনার	-10356
ংগ	-10357
▁উৎপ	-10358
▁কোড	-10359
▁ছাদ	-10360
▁বাট	-10361
নার্থ	-10362
প্রথম	-10363
বার্গ	-10364
▁কেউই	-10365
▁বহুল	-10366
▁খেলাধ	-10367
▁ঘুরতে	-10368
▁জল্পনা	-10369
নিউজবিডি	-10370
▁পোর্টাল	-10371
▁শরণার্থী	-10372
▁আর্জেন্টিনার	-10373
TV	-10374
ৈল	-10375
োড	-10376
বাং	-10377
মুর	-10378
াপ্প	-10379
েদের	-10380
▁হিট	-10381
কিশোর	-10382
বর্তন	-10383
স্থলে	-10384
▁শাওন	-10385
▁ভক্তরা	-10386
▁ফেলেছেন	-10387
▁অস্ত্রের	-10388
▁নিঃশ্বাস	-10389
▁যোগাযোগমাধ্যমে	-10390
াইজের	-10391
▁উগ্র	-10392
▁খোঁজা	-10393
▁বস্তা	-10394
▁আইনানুগ	-10395
▁নজরদারি	-10396
▁কর্মকাণ্ড	-10397
▁প্রেক্ষাপ	-10398
ite	-10399
চিৎ	-10400
সাহ	-10401
irst	-10402
▁আগত	-10403
▁বিট	-10404
▁সংয	-10405
barta	-10406
▁ইউরো	-10407
▁ছাগল	-10408
▁বালা	-10409
▁মেইল	-10410
▁চাইছে	-10411
▁পেশাদার	-10412
▁বিদ্যমান	-10413
▁ব্যক্তিরা	-10414
▁ফেডারেশনের	-10415
▁অ্যাসোসিয়েশনের	-10416
▁রিল	-10417
▁৭টি	-10418
াইজার	-10419
▁মালা	-10420
▁আউয়াল	-10421
▁কখনোই	-10422
▁কাসেম	-10423
▁খালেক	-10424
▁তুহিন	-10425
▁নামবে	-10426
▁Sports	-10427
▁সুন্দরী	-10428
▁বিরোধিতা	-10429
▁সিরাজগঞ্জের	-10430
ুজা	-10431
edia	-10432
▁৪টায়	-10433
গ্রস্ত	-10434
▁টিমের	-10435
▁স্পেস	-10436
▁ফেন্সিড	-10437
▁বিশ্লেষণ	-10438
▁অনুপস্থিত	-10439
ড়ক	-10440
▁৯১	-10441
▁ডিন	-10442
▁তাব	-10443
▁উদ্ভ	-10444
▁দূর্	-10445
াসীদের	-10446
▁কারাব	-10447
▁আমিরাত	-10448
▁হাটহাজার	-10449
▁মোস্তাফিজ	-10450
▁অনুষ্ঠানটি	-10451
▁সর্বস্তরের	-10452
▁বঙ্গোপসাগরে	-10453
মেয়	-10454
ঘাটা	-10455
▁আসায়	-10456
▁শরিফ	-10457
▁শেখের	-10458
▁ইমিগ্র	-10459
▁বৈশাখী	-10460
▁নেটিজেন	-10461
▁সম্পদের	-10462
▁প্রকল্পে	-10463
▁স্থাপনের	-10464
▁ব্যবসায়ীর	-10465
▁পর্যায়ক্রমে	-10466
াহত	-10467
▁তথ	-10468
▁পড়ায়	-10469
▁মারধ	-10470
োরিয়াল	-10471
▁মিঠুন	-10472
▁অন্তঃস	-10473
▁শিকদার	-10474
মঙ্গলবার	-10475
▁ট্যাক্স	-10476
▁স্বাস্থ্যের	-10477
▁সংশ্লিষ্টদের	-10478
।''	-10479
▁ওব	-10480
▁ধোঁ	-10481
▁আইজি	-10482
▁কিংস	-10483
ত্ত্বা	-10484
সোমবার	-10485
▁Today	-10486
▁তাজুল	-10487
▁নান্দ	-10488
▁ফেইসব	-10489
▁লিয়াক	-10490
▁নির্মম	-10491
▁সিবিআই	-10492
▁দ্বিগুণ	-10493
▁প্রচলিত	-10494
▁নিউইয়র্ক	-10495
▁বন্ধুত্ব	-10496
:-	-10497
হেল	-10498
▁৯২	-10499
▁২০০৭	-10500
▁পেশার	-10501
▁মহসিন	-10502
▁কিশোরীর	-10503
▁বক্তৃতা	-10504
▁শিল্পকলা	-10505
েসি	-10506
ভেন্ট	-10507
▁ম্যাস	-10508
▁হতাহত	-10509
▁দেখেছি	-10510
▁আনন্দের	-10511
▁পাচারের	-10512
▁হান্নান	-10513
▁অস্তিত্ব	-10514
▁সন্তানকে	-10515
▁চ্যাম্পিয়ন্স	-10516
দাস	-10517
২০১৭	-10518
▁pro	-10519
▁চুন	-10520
▁তোফ	-10521
িয়ানো	-10522
▁Prot	-10523
▁এন্ট	-10524
▁গেয়ে	-10525
বুধবার	-10526
▁কাপের	-10527
▁খালিদ	-10528
▁ভ্যাট	-10529
▁বিরোধের	-10530
▁সেমিনার	-10531
▁প্রান্তে	-10532
▁জার্মানির	-10533
বিড়	-10534
াজির	-10535
▁করাই	-10536
▁কালে	-10537
▁দিনই	-10538
▁নার্	-10539
▁৫টার	-10540
যাত্রী	-10541
োল্ডার	-10542
▁একসময়	-10543
▁ভাষার	-10544
▁লোহাগ	-10545
▁সালেহ	-10546
▁হাজতে	-10547
▁একসাথে	-10548
▁ওভারের	-10549
▁ফাতেমা	-10550
▁সক্ষমতা	-10551
োধন	-10552
▁Utt	-10553
▁তাগ	-10554
▁বেদ	-10555
নাট্য	-10556
▁এরপরে	-10557
▁নামার	-10558
▁মণ্ডল	-10559
িমন্ত্রী	-10560
▁ডাকাতির	-10561
▁সিনেমাটির	-10562
▁হবিগঞ্জের	-10563
▁প্রতিকৃতিতে	-10564
▁প্রত্যাখ্যান	-10565
রেক	-10566
▁রন	-10567
▁শাশ	-10568
▁খাঁন	-10569
▁সঞ্চ	-10570
▁রাজিব	-10571
▁ফিরলেন	-10572
▁ফেনসিড	-10573
▁আশাবাদী	-10574
জ্জামানের	-10575
▁বিসিসিআই	-10576
▁বিশ্বাসের	-10577
▁কনফারেন্সের	-10578
লেখা	-10579
▁ঋণের	-10580
▁এতিম	-10581
▁আসলাম	-10582
▁করণীয়	-10583
▁নাছির	-10584
▁রক্তের	-10585
▁সিগারে	-10586
▁মধ্যকার	-10587
▁সৈয়দপুর	-10588
জমা	-10589
▁মেক	-10590
▁হংক	-10591
মানুষ	-10592
▁দুজনে	-10593
▁নামতে	-10594
▁রংপুরে	-10595
▁রফতানি	-10596
▁প্রোডাক	-10597
▁ম্যাগাজ	-10598
▁শহীদদের	-10599
▁অর্থবছরে	-10600
▁ওয়ার্নার	-10601
▁বৃক্ষরোপ	-10602
ID	-10603
য়ায়	-10604
ঘরের	-10605
▁সবই	-10606
বাদের	-10607
রাতের	-10608
▁more	-10609
▁একদম	-10610
▁ট্রফি	-10611
▁মিন্টু	-10612
▁রযাপিড	-10613
▁শ্রেণিতে	-10614
▁হারিয়েছেন	-10615
সিভ	-10616
াপি	-10617
▁টল	-10618
▁ষ্ট	-10619
▁হেম	-10620
াঙ্গা	-10621
▁পশুর	-10622
▁শাসক	-10623
সহকারী	-10624
▁মানেই	-10625
▁রঞ্জন	-10626
▁Update	-10627
▁আহমদের	-10628
▁নিলামে	-10629
▁ফাঁসির	-10630
▁উইন্ডোজ	-10631
▁বিপর্যয়	-10632
▁স্যাটেলাইট	-10633
▁এহ	-10634
িমের	-10635
▁পতন	-10636
গুপ্ত	-10637
▁জিএম	-10638
▁মেতে	-10639
▁বচ্চন	-10640
▁ভোরের	-10641
▁রকমের	-10642
▁বাসভবন	-10643
▁মেয়েটি	-10644
▁কাদেরের	-10645
▁গ্রেনেড	-10646
▁অবস্থানরত	-10647
▁ইতোমধ্যেই	-10648
▁ইনস্টাগ্রাম	-10649
িদা	-10650
োকে	-10651
▁ডাই	-10652
▁পরী	-10653
▁মেম	-10654
▁হিউ	-10655
াচ্ছে	-10656
▁আশ্র	-10657
▁ইস্ত	-10658
▁ওঠেন	-10659
▁ডেটা	-10660
▁ফুলে	-10661
Shomoy	-10662
▁আসবেন	-10663
▁নাহার	-10664
▁ফেনীর	-10665
▁ঘন্টার	-10666
▁তরুণীর	-10667
▁রাজবাড়	-10668
▁জাহিদুল	-10669
▁সেন্ট্রাল	-10670
▁নিষেধাজ্ঞার	-10671
▁আংশ	-10672
▁নাথ	-10673
▁ফটো	-10674
▁সৈক	-10675
▁নয়াদ	-10676
▁বাড়ে	-10677
▁হুয়া	-10678
▁কোর্স	-10679
▁গাঙ্গ	-10680
▁লেখাপ	-10681
▁অর্থের	-10682
▁লিয়াকত	-10683
▁চেষ্টায়	-10684
▁টার্মিন	-10685
▁নিরাপদে	-10686
স্ট্যান্ড	-10687
▁ঝিনাইদহে	-10688
▁প্রবাসীর	-10689
▁চুয়াডাঙ্গ	-10690
obile	-10691
িরপুর	-10692
প্রচার	-10693
▁daily	-10694
▁চাঁদা	-10695
▁শিশুরা	-10696
▁অনুভূতি	-10697
▁অলিম্পিক	-10698
▁ব্যানারে	-10699
▁পদত্যাগের	-10700
ateg	-10701
ত্তা	-10702
▁অনি	-10703
▁রোম	-10704
▁কমতে	-10705
▁পর্ন	-10706
▁জাতের	-10707
▁হুমকির	-10708
▁সুন্দরবন	-10709
▁و	-10710
ামি	-10711
jker	-10712
ুপ্ত	-10713
োত্তর	-10714
শনিবার	-10715
▁আদেশে	-10716
▁চাইতে	-10717
▁দালাল	-10718
▁ফ্যাক	-10719
▁বন্ধুর	-10720
▁আসছিলেন	-10721
▁ছাড়পত্র	-10722
▁পৌরসভায়	-10723
▁জন্মদিনে	-10724
▁জামায়াতের	-10725
▁মুম্বাইয়ের	-10726
▁ম্যানচেস্টার	-10727
বিআর	-10728
ানুর	-10729
াবাড়	-10730
▁জেড	-10731
▁অঙ্ক	-10732
▁অডিও	-10733
বস্ত্র	-10734
ির্ভূত	-10735
▁ধর্ষক	-10736
▁ফান্ড	-10737
▁ভয়ঙ্কর	-10738
দিনাজপুর	-10739
▁অনুষদের	-10740
▁সর্বমোট	-10741
▁মানিকগঞ্জ	-10742
▁মিয়ানমারে	-10743
▁ব্যাটালিয়ন	-10744
ah	-10745
সৌ	-10746
ইডি	-10747
য়ালী	-10748
▁কিট	-10749
নায়েত	-10750
▁আয়কর	-10751
▁১১টি	-10752
▁জানাজ	-10753
▁ড্রাই	-10754
▁মেদিন	-10755
▁সেবায়	-10756
▁স্টিভ	-10757
▁অনুমান	-10758
▁উপকারী	-10759
▁কাটাতে	-10760
▁জটিলতা	-10761
▁রয়্যাল	-10762
▁ক্যাপ্টেন	-10763
▁ফরিদপুরের	-10764
▁স্টেডিয়াম	-10765
ফোর	-10766
▁রোল	-10767
্ট্রি	-10768
কান্দি	-10769
াজাহান	-10770
▁মানতে	-10771
▁ত্রুটি	-10772
▁আইসিইউতে	-10773
▁রাজনীতিবিদ	-10774
▁—	-10775
ওয়ালা	-10776
▁জরিপ	-10777
▁ঐশ্বর	-10778
▁লাগার	-10779
▁বর্জ্য	-10780
▁কাশ্মীরের	-10781
▁ফেন্সিডিল	-10782
▁বৈশিষ্ট্য	-10783
▁কার্যক্রমে	-10784
▁স্বেচ্ছাসেবী	-10785
?'	-10786
ফেল	-10787
▁Tw	-10788
▁গোম	-10789
▁থিয়ে	-10790
▁দেখছে	-10791
▁কর্মীর	-10792
▁প্রেমে	-10793
▁বইমেলা	-10794
▁দক্ষিণা	-10795
▁মোয়াজ্জ	-10796
▁চিত্রনায়ক	-10797
▁রিটার্নিং	-10798
▁বিমানবন্দরের	-10799
রাব	-10800
▁জিল	-10801
▁টাক	-10802
▁যেত	-10803
ায়নিক	-10804
▁ডাটা	-10805
প্রস্ত	-10806
▁চর্চা	-10807
▁সন্তোষ	-10808
▁ইনিংসের	-10809
▁রাষ্ট্রের	-10810
ভিউ	-10811
▁আদম	-10812
▁ডেন	-10813
প্রবি	-10814
ভাগ্য	-10815
▁গরিব	-10816
▁জগতে	-10817
▁ফলের	-10818
▁অনন্ত	-10819
▁জব্বার	-10820
▁ফ্রন্ট	-10821
▁দায়েরের	-10822
▁ব্র্যাক	-10823
▁সম্মুখীন	-10824
ET	-10825
▁↑	-10826
▁৮৩	-10827
▁আনি	-10828
▁মাথ	-10829
ক্রাম	-10830
স্থার	-10831
▁তীরে	-10832
▁মহড়া	-10833
▁অন্যায়	-10834
▁মডেলের	-10835
▁সোসাইটি	-10836
▁জার্মানি	-10837
▁ফেনসিডিল	-10838
▁মুসলিমদের	-10839
▁প্রস্তাবিত	-10840
চরা	-10841
▁কচ	-10842
▁ভু	-10843
পাতা	-10844
▁ইনভ	-10845
▁মইন	-10846
ণাধীন	-10847
ার্ধে	-10848
▁অনশন	-10849
▁উঁচু	-10850
▁বহির	-10851
মুক্তি	-10852
▁তিনিও	-10853
▁নিলাম	-10854
▁লাশের	-10855
▁এজাহার	-10856
▁ওয়াজেদ	-10857
▁নববর্ষ	-10858
▁ঈশ্বরদী	-10859
াভাবিকভাবে	-10860
ard	-10861
জাগ	-10862
প্ল	-10863
▁৯৪	-10864
anga	-10865
বিত্ত	-10866
▁শাড়ি	-10867
▁শিমুল	-10868
▁ছুটিতে	-10869
▁জিয়াউল	-10870
▁তালিকার	-10871
ছাত্রীদের	-10872
▁ভুগছিলেন	-10873
▁AmaderShomoy	-10874
▁তথ্যপ্রযুক্তি	-10875
যুগ	-10876
▁Cr	-10877
▁তদার	-10878
▁তারিক	-10879
▁দেখায়	-10880
▁ফুলের	-10881
▁মুহুর	-10882
▁সারাদ	-10883
▁মোশারফ	-10884
▁গৃহবধূকে	-10885
নেট	-10886
দিয়ে	-10887
▁বলব	-10888
ত্তির	-10889
▁অংশের	-10890
▁ঈদগাহ	-10891
▁চালিত	-10892
▁তিনিই	-10893
▁পারাপ	-10894
▁মাজার	-10895
▁বাড়ীতে	-10896
▁সংখ্যাল	-10897
▁শ্রীমঙ্গল	-10898
▁প্রেসিডিয়াম	-10899
ঝি	-10900
▁মৈ	-10901
কাটা	-10902
্টনে	-10903
▁চেল	-10904
▁ঢেলে	-10905
▁ওজনের	-10906
▁ঠান্ডা	-10907
▁কাপ্তাই	-10908
▁বিতরণের	-10909
▁ব্যক্তিবর্গ	-10910
জিং	-10911
তবে	-10912
োটের	-10913
▁চিল	-10914
▁আবাহ	-10915
▁গৃহব	-10916
▁জননেত্রী	-10917
▁কক	-10918
▁ভল	-10919
গুড়ি	-10920
▁From	-10921
▁বাসটি	-10922
▁মশিউর	-10923
▁ছাত্রের	-10924
▁পাটোয়ার	-10925
▁Dhakatimes	-10926
▁সাতক্ষীরায়	-10927
যায়	-10928
▁উষ	-10929
এসএস	-10930
ভিএম	-10931
মোহন	-10932
ব্যাক	-10933
▁ওদের	-10934
▁কয়লা	-10935
▁জুনে	-10936
▁ভয়েস	-10937
আল্লাহ	-10938
▁অবতরণ	-10939
▁গভর্নর	-10940
▁মেলেনি	-10941
▁রাসায়নিক	-10942
▁ক্যাম্পেইন	-10943
▁রোবট	-10944
উদ্দীন	-10945
▁পুনর্	-10946
▁শাখায়	-10947
▁কানাডা	-10948
▁খোরশেদ	-10949
▁মনোয়ার	-10950
▁সুত্রে	-10951
▁করেছিলাম	-10952
▁দোকানপাট	-10953
▁সর্বাধিক	-10954
▁প্রাণহানি	-10955
▁রক্ষাকারী	-10956
ডু	-10957
যো	-10958
▁ha	-10959
▁আঃ	-10960
▁টোক	-10961
▁ভরে	-10962
▁রেফ	-10963
পারের	-10964
র্ঘ্য	-10965
▁গায়ক	-10966
▁হারা	-10967
▁Bangl	-10968
▁বনানী	-10969
▁ব্যয়ে	-10970
▁পড়েছিল	-10971
▁বিদায়ী	-10972
▁স্তরের	-10973
▁ভিক্টোর	-10974
▁মরহুমের	-10975
▁সঠিকভাবে	-10976
▁চাঁদপুরের	-10977
ওয়েল	-10978
▁adm	-10979
ত্বের	-10980
▁ছুড়ে	-10981
▁গুপ্ত	-10982
▁কৃত্রিম	-10983
▁ওয়ানডেতে	-10984
▁সুস্থতার	-10985
▁কর্মশালায়	-10986
▁আত্মসমর্পণ	-10987
▁৯৩	-10988
িমার	-10989
▁উঠল	-10990
▁৪টা	-10991
মিক্র	-10992
▁আশায়	-10993
▁রোজা	-10994
▁লাইট	-10995
▁মনিটরি	-10996
▁সেন্সর	-10997
▁হাতিয়ে	-10998
েয়	-10999
▁Z	-11000
▁ইয়েম	-11001
▁পুজো	-11002
▁সহ্য	-11003
▁কোয়াল	-11004
ational	-11005
▁সঙ্গেও	-11006
▁গ্রীষ্ম	-11007
▁মোল্লার	-11008
▁অক্সফোর্ড	-11009
ুমের	-11010
▁দীঘ	-11011
পুকুর	-11012
শ্চিন	-11013
▁আর্ক	-11014
▁গঙ্গ	-11015
▁নিরব	-11016
▁ফিতর	-11017
▁অক্ষয়	-11018
▁কাঞ্চ	-11019
▁জার্স	-11020
▁বার্সা	-11021
▁বিক্রম	-11022
▁সামর্থ	-11023
▁স্কয়ার	-11024
▁যাত্রীর	-11025
▁আমেরিকায়	-11026
▁মধ্যরাতে	-11027
▁যুগান্তর	-11028
▁ক্রেতাদের	-11029
▁বিশেষজ্ঞদের	-11030
▁অ্যান্ড্রয়েড	-11031
▁প্রতিষ্ঠানকে	-11032
ব্ব	-11033
ন্নে	-11034
▁খুর	-11035
র্চার	-11036
▁ভ্যার	-11037
প্রশাসন	-11038
▁কার্যক	-11039
▁তৈরিতে	-11040
▁তোফায়েল	-11041
▁হয়রানির	-11042
▁আত্মঘাতী	-11043
▁গণতন্ত্রের	-11044
াপা	-11045
▁ho	-11046
কন্ঠ	-11047
ন্ডার	-11048
▁উড়োজ	-11049
▁টিপস	-11050
কমার্স	-11051
স্ত্রী	-11052
▁খালাস	-11053
▁টেবিল	-11054
▁দাসের	-11055
▁ভাষণে	-11056
▁অর্জুন	-11057
▁নয়াদিল্ল	-11058
▁ঠা	-11059
ছড়ির	-11060
িকেল	-11061
োরাঁ	-11062
ৎস্প	-11063
▁ওরা	-11064
▁ডিউ	-11065
▁৬০০	-11066
▁আচার	-11067
▁গাছে	-11068
▁ডিএম	-11069
▁লাঠি	-11070
end	-11071
্ণা	-11072
টিউন	-11073
শ্রে	-11074
▁নিচ	-11075
▁হির	-11076
ুনিয়া	-11077
▁অংশী	-11078
▁মজুদ	-11079
▁জোনের	-11080
▁বোঝাই	-11081
▁ব্যায়	-11082
▁ভাইকে	-11083
▁শুক্র	-11084
▁সমগ্র	-11085
▁আঘাতের	-11086
▁পেরেছি	-11087
▁উদ্যোক্ত	-11088
েলর	-11089
্ভব	-11090
▁ch	-11091
▁অহ	-11092
্টিন	-11093
▁তলব	-11094
াহারে	-11095
▁পেটে	-11096
▁ফেরা	-11097
▁১টার	-11098
িয়েন্ট	-11099
▁কীর্ত	-11100
▁চালের	-11101
▁জোয়ার	-11102
▁বেড়েই	-11103
▁সেলফি	-11104
▁ভারসাম	-11105
▁ডেলিভার	-11106
--	-11107
ld	-11108
িজম	-11109
▁কেঁ	-11110
▁ফর্ম	-11111
▁৭টায়	-11112
▁দিনেই	-11113
রুল্লাহ	-11114
▁বিজয়ের	-11115
▁কুলাউড়া	-11116
▁ঝালকাঠি	-11117
নাস	-11118
▁Mon	-11119
▁রাইট	-11120
▁কেরান	-11121
▁জীবিত	-11122
▁সেক্স	-11123
▁শুনেছি	-11124
▁সৌজন্য	-11125
▁দুষ্কৃত	-11126
▁ক্ষতিপূরণ	-11127
load	-11128
▁জ্য	-11129
▁আওতা	-11130
▁সমাধ	-11131
▁ক্রাই	-11132
▁মোবারক	-11133
▁মন্ত্রিসভার	-11134
▁সীমান্তবর্তী	-11135
ib	-11136
ial	-11137
েজার	-11138
▁দৃশ	-11139
▁ধূম	-11140
▁মিত	-11141
▁সুফ	-11142
▁Tech	-11143
▁ইউপির	-11144
▁কামার	-11145
▁তারাও	-11146
▁বর্ধিত	-11147
▁হালনাগ	-11148
▁টেকনাফে	-11149
▁মোকাবেলা	-11150
▁চাঞ্চল্যকর	-11151
▁এয়ারলাইন্সের	-11152
qu	-11153
রয	-11154
সুদ	-11155
▁বণ	-11156
োটার	-11157
▁ইনড	-11158
▁গায়	-11159
াবদ্ধ	-11160
▁আলিম	-11161
▁যাকে	-11162
▁২০টি	-11163
▁ছক্কা	-11164
▁রিকশা	-11165
▁রেটিং	-11166
▁mobile	-11167
▁অদ্ভুত	-11168
▁এন্টার	-11169
▁শিশুসহ	-11170
▁শ্রদ্ধ	-11171
▁ম্যাচেই	-11172
▁ع	-11173
লিন	-11174
▁কাও	-11175
▁লিপ	-11176
বিষয়ে	-11177
ভ্যান	-11178
▁গাইড	-11179
▁সেবন	-11180
▁হয়েই	-11181
▁প্লাস	-11182
▁মতিউর	-11183
▁বর্ডার	-11184
শুক্রবার	-11185
▁দম্পতির	-11186
▁পূর্বাভাসে	-11187
আইডি	-11188
র্শে	-11189
াবিশ	-11190
▁যৌত	-11191
▁গেইল	-11192
▁দ্যা	-11193
▁সীমা	-11194
▁২টার	-11195
▁অপরের	-11196
▁আমজাদ	-11197
▁পরিষদে	-11198
▁মাহফিলে	-11199
▁গ্রাহকের	-11200
লাতে	-11201
▁খেত	-11202
▁মোত	-11203
তিয়ার	-11204
াবাড়ি	-11205
▁আটটি	-11206
▁গাঁজ	-11207
▁জেমস	-11208
▁১৪২৬	-11209
▁মোদীর	-11210
▁যাবার	-11211
▁হারানো	-11212
▁বহনকারী	-11213
▁দাঁড়ানোর	-11214
▁কুষ্টিয়ায়	-11215
▁দিনাজপুরে	-11216
▁টেলিভিশনের	-11217
ুথ	-11218
ীকৃত	-11219
▁পেজ	-11220
▁এবছর	-11221
▁গন্ধ	-11222
▁শ্রো	-11223
▁অবমান	-11224
▁ট্যাগ	-11225
▁লঙ্কান	-11226
▁গন্তব্য	-11227
▁রক্তচাপ	-11228
▁ইসরায়েলি	-11229
▁প্রত্যাশ	-11230
▁বিজ্ঞানী	-11231
▁সন্দেহভাজন	-11232
সেট	-11233
াতাড়ি	-11234
ফাজ্জল	-11235
▁পেলেও	-11236
▁রেমিট	-11237
▁সাদিক	-11238
▁পুরোনো	-11239
▁বায়তুল	-11240
▁পারফর্ম	-11241
▁ঝিনাইদহের	-11242
▁বিপর্যস্ত	-11243
চিতে	-11244
জীবী	-11245
তাকে	-11246
নাশক	-11247
▁পিল	-11248
পত্রে	-11249
▁বসতে	-11250
▁ভিসি	-11251
▁১৫টি	-11252
এমএমইউ	-11253
▁কাছেই	-11254
▁কুরআন	-11255
▁টেকসই	-11256
▁হ্যাক	-11257
▁পরীমনি	-11258
▁হেফাজত	-11259
▁Somoynews	-11260
▁মোয়াজ্জেম	-11261
▁সংখ্যালঘু	-11262
▁সাংবাদিকরা	-11263
স্তা	-11264
▁হয়ত	-11265
িডিয়া	-11266
▁এসপি	-11267
▁ব্রী	-11268
▁তাগিদ	-11269
▁ফ্র্যা	-11270
ার্টমেন্ট	-11271
▁অফিসিয়াল	-11272
▁দৃশ্যমান	-11273
▁মন্দিরের	-11274
▁রেজিস্ট্রেশন	-11275
শতা	-11276
▁লভ	-11277
▁দিগ	-11278
▁নথি	-11279
মূল্য	-11280
▁with	-11281
▁এলজি	-11282
▁এটিকে	-11283
▁পরাজয়	-11284
▁পাড়ায়	-11285
▁স্পেন	-11286
▁ডিগ্রী	-11287
▁মারপিট	-11288
▁ভারসাম্য	-11289
▁ঐক্যফ্রন্টের	-11290
▁প্রত্যক্ষদর্শী	-11291
শংস	-11292
▁অবাধ	-11293
▁টঙ্গ	-11294
▁রওশন	-11295
▁কাটতে	-11296
▁অবলম্বন	-11297
▁প্রশ্নে	-11298
▁মোনাজাত	-11299
▁গাজীপুরে	-11300
▁ইউক্রেনের	-11301
▁ক্যারিয়ারে	-11302
▁জানুয়ারিতে	-11303
▁সাংবাদিকের	-11304
বড়	-11305
▁&	-11306
ুখে	-11307
ঁদুর	-11308
্ধার	-11309
▁পাঁ	-11310
▁অজানা	-11311
▁তেমনই	-11312
▁নিজেও	-11313
▁Sambad	-11314
▁যুক্তি	-11315
▁হত্যাক	-11316
▁তরুণীকে	-11317
▁সার্কিট	-11318
▁এসোসিয়েশন	-11319
▁বিশ্বব্যা	-11320
▁সিকিউরিটি	-11321
মায়	-11322
াপল	-11323
▁বেক	-11324
ক্ষ্য	-11325
বার্ট	-11326
▁আরাম	-11327
▁বারী	-11328
▁শীতে	-11329
▁কুতুব	-11330
▁কোচের	-11331
▁চায়ের	-11332
▁বাবলু	-11333
▁সেক্ট	-11334
অধিনায়ক	-11335
সম্পাদক	-11336
▁ঘুমিয়ে	-11337
▁ময়দানে	-11338
▁আগামীতে	-11339
▁ইসরায়েল	-11340
▁বিবিসির	-11341
▁মামুনুর	-11342
▁সেনাদের	-11343
▁পুরুষদের	-11344
▁কোয়ার্টার	-11345
সেল	-11346
▁কও	-11347
▁রত	-11348
▁জুড	-11349
ান্তে	-11350
▁খ্রি	-11351
▁মুর্	-11352
▁অন্যরা	-11353
বৃহস্পতিবার	-11354
▁উইকিপিডিয়া	-11355
মাম	-11356
▁টয়	-11357
▁পরগ	-11358
্যাংশ	-11359
▁এটিই	-11360
▁কোষা	-11361
▁বইটি	-11362
▁মানস	-11363
▁নৃত্য	-11364
▁ফুটেজ	-11365
▁ওষুধের	-11366
▁ফিটনেস	-11367
▁বেঙ্গল	-11368
▁রোকেয়া	-11369
▁অপহরণের	-11370
▁বাহাদুর	-11371
▁সমাধানে	-11372
▁তাড়াতাড়ি	-11373
▁নৌবাহিনীর	-11374
▁ধর্মাবলম্ব	-11375
▁অস্ত্রোপচার	-11376
ন্যা	-11377
াপনে	-11378
▁শীষ	-11379
িটিকে	-11380
▁চোপড়া	-11381
▁মান্দ	-11382
▁হেঁটে	-11383
▁আপডেটঃ	-11384
▁দিচ্ছি	-11385
▁হিন্দি	-11386
▁টেকটিউন	-11387
▁হতদরিদ্র	-11388
▁হাইকমিশনার	-11389
ডিজ	-11390
▁উন	-11391
াহীন	-11392
▁দিঘ	-11393
বাগান	-11394
▁ঝগড়া	-11395
▁মিমি	-11396
▁আংশিক	-11397
▁ফতুল্লা	-11398
▁কোম্পানিটি	-11399
▁দীর্ঘদিনের	-11400
▁স্বাভাবিকভাবে	-11401
গী	-11402
িশে	-11403
▁এভ	-11404
িশ্র	-11405
▁সচল	-11406
▁ভরসা	-11407
স্টাইল	-11408
▁কাণ্ড	-11409
▁তৌহিদ	-11410
▁দাবির	-11411
▁বানানো	-11412
▁বিলুপ্ত	-11413
▁মেয়েটির	-11414
▁অব্যাহতি	-11415
▁ক্যাটরিনা	-11416
oice	-11417
ীতিক	-11418
▁গাং	-11419
▁ফলন	-11420
▁সরব	-11421
▁পাইপ	-11422
▁admin	-11423
▁পারায়	-11424
নির্দেশ	-11425
▁একদিকে	-11426
▁ধর্মঘট	-11427
▁ট্রেনিং	-11428
▁প্রক্টর	-11429
▁প্রেমিকের	-11430
▁শীতবস্ত্র	-11431
kh	-11432
ড়ী	-11433
▁চৈ	-11434
▁কলম	-11435
কার্স	-11436
ক্তিক	-11437
স্বজন	-11438
▁প্রহ	-11439
▁বললে	-11440
bdnews	-11441
িশ্বাস	-11442
▁রিভিউ	-11443
▁তিনদিন	-11444
▁বোর্ডে	-11445
▁হেলপার	-11446
▁নিম্নচাপ	-11447
▁রাজস্থান	-11448
▁সিলিন্ডার	-11449
▁দায়িত্বশীল	-11450
▁কর্মচারীদের	-11451
▁লক্ষ্যমাত্রা	-11452
োড়	-11453
সেন	-11454
ংসের	-11455
▁নাহ	-11456
স্তবক	-11457
▁আমীর	-11458
▁কোপা	-11459
▁ঘুমের	-11460
▁মমতাজ	-11461
▁অসম্ভব	-11462
▁নাটকটি	-11463
▁গ্র্যান্ড	-11464
▁টাঙ্গাইলে	-11465
▁অন্তঃসত্ত্বা	-11466
▁আইটি	-11467
▁রাণী	-11468
▁ঝালকাঠ	-11469
▁তুর্কি	-11470
▁হেক্টর	-11471
কেন্দ্রে	-11472
▁অনিয়মের	-11473
▁গ্রাহকরা	-11474
▁মহানগরীর	-11475
▁মূল্যায়ন	-11476
▁স্কুলছাত্র	-11477
▁সাজাপ্রাপ্ত	-11478
ঝিল	-11479
▁Tu	-11480
ular	-11481
▁চরফ	-11482
▁ধনী	-11483
▁ফাল	-11484
▁বিচ	-11485
▁মজা	-11486
ধুনিক	-11487
▁কারন	-11488
▁পাড়ে	-11489
▁আত্মস	-11490
▁পদোন্ন	-11491
▁বোরহান	-11492
▁মেয়াদে	-11493
▁অভিবাসী	-11494
▁কয়েকবার	-11495
▁প্যাকেট	-11496
▁বাঙালির	-11497
▁হিসেবেই	-11498
▁প্রাণিসম্পদ	-11499
ইর	-11500
৬৫	-11501
▁নথ	-11502
▁ধীর	-11503
সম্মত	-11504
▁ট্রি	-11505
▁পরিচর	-11506
্লিকেশন	-11507
▁উন্নীত	-11508
▁কার্যত	-11509
▁গণভবনে	-11510
▁দেবনাথ	-11511
▁অবদানের	-11512
▁কর্মীকে	-11513
▁মিরপুরে	-11514
▁মাতৃভাষা	-11515
▁লক্ষাধিক	-11516
▁সংশ্লিষ্টরা	-11517
▁বাসস্ট্যান্ড	-11518
্বা	-11519
▁গম	-11520
িফিক	-11521
েকের	-11522
▁করণ	-11523
▁ঘেরা	-11524
▁ভাঙন	-11525
▁সভাক	-11526
▁এনেছে	-11527
▁সালমা	-11528
▁বিভ্রান্ত	-11529
▁হত্যাকাণ্ড	-11530
▁কর্তৃপক্ষকে	-11531
সিবি	-11532
▁Wed	-11533
▁জুব	-11534
▁বায়ু	-11535
▁ক্রমশ	-11536
▁দেখলে	-11537
▁রানার	-11538
▁উপযোগী	-11539
▁স্টাইল	-11540
▁সিদ্ধির	-11541
▁ছাত্রদের	-11542
▁নিখোঁজের	-11543
▁ছুরিকাঘাতে	-11544
▁যুক্তরাজ্যে	-11545
আদাল	-11546
ানকে	-11547
ক্তির	-11548
দেশীয়	-11549
▁ঘোড়া	-11550
▁মস্ক	-11551
ownload	-11552
▁পরিমান	-11553
▁সাবধান	-11554
▁অঙ্গরাজ	-11555
▁আদিবাসী	-11556
▁জুভেন্ট	-11557
▁একাডেমিক	-11558
▁প্রশান্ত	-11559
▁বিদ্যুৎস্প	-11560
মোন	-11561
▁CO	-11562
চিয়ে	-11563
হাটি	-11564
▁উড়ে	-11565
কারীকে	-11566
▁করলাম	-11567
▁টুইটে	-11568
▁হরতাল	-11569
arbanga	-11570
▁বিপিএল	-11571
▁বুঝিয়ে	-11572
▁সবগুলো	-11573
▁গাঁজাসহ	-11574
▁মালিকের	-11575
▁Uttarbanga	-11576
▁কোষাধ্যক্ষ	-11577
াবো	-11578
পারে	-11579
বানি	-11580
্ধায়	-11581
▁৮০০	-11582
▁ইফতে	-11583
▁উষ্ণ	-11584
▁নর্থ	-11585
▁বোরো	-11586
▁লালন	-11587
▁চৌদ্দ	-11588
▁দুদিন	-11589
▁ইনভেস্ট	-11590
▁টেবিলের	-11591
▁প্রতীকে	-11592
▁নভেম্বরে	-11593
▁পরিচয়পত্র	-11594
▁প্লাস্টিক	-11595
রায়	-11596
▁গেজ	-11597
▁তোপ	-11598
ANGLA	-11599
ঙ্গের	-11600
▁বলছি	-11601
▁জিম্ম	-11602
▁গুগলের	-11603
▁মার্চে	-11604
▁ছেলেদের	-11605
▁ডিসপ্লে	-11606
▁নির্মাণাধীন	-11607
ian	-11608
গোপ	-11609
েষে	-11610
orld	-11611
এইচও	-11612
ঘটিত	-11613
িকাল	-11614
ুতের	-11615
▁লুই	-11616
িক্সা	-11617
িয়ানের	-11618
▁ফজলুর	-11619
▁সৈনিক	-11620
▁কটাক্ষ	-11621
▁নাসিমা	-11622
▁বস্ত্র	-11623
▁হত্যায়	-11624
▁উপন্যাস	-11625
▁শ্রাবন্তী	-11626
▁ইউনিভার্সিটির	-11627
শাখ	-11628
কতার	-11629
স্যুর	-11630
াশ্রম	-11631
▁শ্যু	-11632
▁আরমান	-11633
▁খুলতে	-11634
▁ফেলুন	-11635
▁ফেস্ট	-11636
▁কাউন্ট	-11637
▁তাকিয়ে	-11638
▁জায়ান্ট	-11639
▁পৌঁছালে	-11640
▁সংশোধিত	-11641
▁মালিকদের	-11642
▁সভাকক্ষে	-11643
▁প্রবৃদ্ধি	-11644
▁রিপোর্টার্স	-11645
৭০	-11646
ook	-11647
েইল	-11648
ধায়ক	-11649
প্তি	-11650
ারোপ	-11651
িয়াহ	-11652
্বেষ	-11653
hobor	-11654
▁অভিম	-11655
▁ভিতর	-11656
▁এনিয়ে	-11657
▁গুজরা	-11658
▁নৃশংস	-11659
▁প্যাট	-11660
▁মিন্ন	-11661
▁শ্রীম	-11662
প্রয়োজন	-11663
▁এখানেই	-11664
▁মুদ্রা	-11665
▁টিকাদান	-11666
▁সমন্বিত	-11667
▁পঞ্চায়েত	-11668
▁পাঠিয়েছেন	-11669
ck	-11670
▁জেত	-11671
▁অপ্র	-11672
▁মাধব	-11673
▁গর্ভব	-11674
▁জুমার	-11675
▁শর্তে	-11676
অপরাহ্ন	-11677
▁রিপাবল	-11678
▁লাফিয়ে	-11679
▁দুর্গাপ	-11680
▁দুশ্চিন	-11681
ark	-11682
নীর	-11683
িগ্ন	-11684
▁গাব	-11685
▁পাগ	-11686
▁ওয়াহ	-11687
▁লাস্ট	-11688
▁চাইছেন	-11689
▁দপ্তরে	-11690
▁মাঝামা	-11691
▁মূর্তি	-11692
▁অনুমোদিত	-11693
▁অভিনেতার	-11694
▁মর্যাদায়	-11695
▁রেস্তোরাঁ	-11696
▁মধ	-11697
ক্কর	-11698
্যতা	-11699
▁মদন	-11700
▁করান	-11701
▁নগ্ন	-11702
▁মানা	-11703
▁ময়লা	-11704
▁বকেয়া	-11705
▁মিলিত	-11706
▁মিয়াকে	-11707
▁গণশিক্ষা	-11708
▁বিষয়গুলো	-11709
ঘ্ন	-11710
▁ইহ	-11711
জিলা	-11712
দুদক	-11713
বর্ধ	-11714
ূহের	-11715
▁যুগে	-11716
গুলিকে	-11717
▁আলীকে	-11718
▁পড়ুয়া	-11719
▁রক্তে	-11720
▁আনিসুর	-11721
▁মাইলফল	-11722
▁হাজারো	-11723
▁ড্রাইভার	-11724
▁শিক্ষিকা	-11725
▁বাংলাদেশিদের	-11726
মেজ	-11727
ালিয়া	-11728
▁মোংলা	-11729
▁লেখার	-11730
▁আহাম্ম	-11731
▁প্রতারক	-11732
▁স্বস্তি	-11733
▁অনুপ্রের	-11734
▁অস্ত্রসহ	-11735
▁মহামারীর	-11736
▁রোনালদোর	-11737
▁শিক্ষককে	-11738
▁শিক্ষকরা	-11739
▁দৃষ্টান্তমূলক	-11740
▁চাঁপাইনবাবগঞ্জে	-11741
এমন	-11742
চাঁদ	-11743
চারণ	-11744
▁চিপ	-11745
মাণবিক	-11746
▁কঙ্গনা	-11747
▁পুলিশিং	-11748
▁রিসোর্ট	-11749
▁কাশ্মীরে	-11750
▁পরিকল্পন	-11751
▁পরিচালকের	-11752
▁সংস্কারের	-11753
▁মন্ত্রিসভা	-11754
খতে	-11755
নিয়	-11756
ফাত	-11757
গালা	-11758
▁ঝড়ো	-11759
▁উচিৎ	-11760
▁বন্ড	-11761
▁ধাপের	-11762
▁নৌকায়	-11763
▁আখাউড়া	-11764
▁Banglar	-11765
▁একদিনের	-11766
▁দাখিলের	-11767
▁নির্মাণে	-11768
▁মুস্তাফিজ	-11769
▁বকশ	-11770
▁তরিক	-11771
▁নীরব	-11772
▁ব্রড	-11773
▁৬টার	-11774
▁আকস্ম	-11775
▁আয়েশা	-11776
▁খবরটি	-11777
▁সংগঠক	-11778
▁মনোযোগ	-11779
▁অংশীদার	-11780
▁দুইজনকে	-11781
▁মাধ্যমেই	-11782
▁সরেজমিনে	-11783
▁কোনোভাবেই	-11784
জব	-11785
▁Re	-11786
▁চড়	-11787
টিটি	-11788
▁গতির	-11789
▁ঘটতে	-11790
▁জলের	-11791
▁দশকে	-11792
▁যোগে	-11793
▁লিংক	-11794
বাড়িতে	-11795
▁নিবিড়	-11796
▁অনুরাগ	-11797
▁মিনারে	-11798
▁অস্বস্ত	-11799
▁উৎসাহিত	-11800
▁লভ্যাংশ	-11801
▁চেয়ারপারসনের	-11802
▁মুখ্যমন্ত্রীর	-11803
▁বিনিয়োগকারীদের	-11804
মক	-11805
▁le	-11806
মজুর	-11807
্বরত	-11808
▁রাণ	-11809
▁শাপ	-11810
▁কমবে	-11811
▁উপত্য	-11812
▁যুগ্ন	-11813
▁সেনারা	-11814
▁জিতেছেন	-11815
▁আক্তারের	-11816
▁উদ্বিগ্ন	-11817
▁বুদ্ধিজীব	-11818
▁চিত্রনাট্য	-11819
▁নিয়ন্ত্রিত	-11820
▁টোয়েন্টিফোর	-11821
▁আনুষ্ঠানিকতা	-11822
টেড	-11823
আমিন	-11824
থেকে	-11825
▁লোভ	-11826
দাদুল	-11827
▁ইউএন	-11828
▁বহুম	-11829
▁অ্যার	-11830
▁ডেক্স	-11831
▁লিপ্ত	-11832
▁সুনীল	-11833
বৃন্দের	-11834
▁খেলবেন	-11835
▁নগরীতে	-11836
▁দেশগুলো	-11837
▁বিচ্ছেদ	-11838
▁স্মারকলিপি	-11839
টেও	-11840
ফিন	-11841
সকে	-11842
▁টম	-11843
সংগঠ	-11844
▁ইয়ার	-11845
▁আফজাল	-11846
▁ধারনা	-11847
▁ফোনটি	-11848
▁লুটপাট	-11849
▁শিবিরে	-11850
প্রার্থী	-11851
▁প্রকৃতি	-11852
▁মনিটরিং	-11853
▁newspaper	-11854
▁ইন্সপেক্টর	-11855
▁কুড়িগ্রামের	-11856
▁বাসিন্দাদের	-11857
▁কোয়ারেন্টিনে	-11858
এটা	-11859
র্চ	-11860
বনের	-11861
্নেয়	-11862
▁মৌখ	-11863
▁শীল	-11864
▁অবগত	-11865
▁কাশি	-11866
▁খাদে	-11867
▁পাপন	-11868
▁রাখি	-11869
▁২০০০	-11870
▁৬টায়	-11871
▁খানিক	-11872
▁তোলপাড়	-11873
▁মুন্না	-11874
▁শিল্পের	-11875
▁সংস্থাটির	-11876
▁জাফরুল্লাহ	-11877
▁সুনামগঞ্জে	-11878
▁মোটরসাইকেলের	-11879
▁মুক্তিযোদ্ধাদের	-11880
ুছ	-11881
▁রৌ	-11882
িয়াসহ	-11883
▁অর্থদ	-11884
▁কিস্ত	-11885
▁তুলনা	-11886
▁ভূইয়া	-11887
▁সফলতা	-11888
imenews	-11889
▁এবিষয়ে	-11890
▁দর্শকের	-11891
▁ফ্ল্যাট	-11892
▁পার্টনার	-11893
▁পাকিস্তানকে	-11894
ِي	-11895
ালেও	-11896
্যাশ	-11897
▁ফিফা	-11898
বিসিবি	-11899
▁ট্যুর	-11900
▁যাঁরা	-11901
▁সাহেদ	-11902
▁আনন্দে	-11903
▁বাগানে	-11904
বেসরকারি	-11905
▁Sangbad	-11906
▁হুমায়ূন	-11907
▁পারমাণবিক	-11908
▁এক্সচেঞ্জে	-11909
▁অগ্নিকাণ্ডে	-11910
▁আর্জেন্টাইন	-11911
০টি	-11912
নন্দ	-11913
▁লাহ	-11914
▁কূটন	-11915
▁চমকে	-11916
▁মেধা	-11917
বান্ধব	-11918
▁দায়িত	-11919
▁শোয়েব	-11920
▁কাস্টমস	-11921
▁রক্তক্ষ	-11922
▁স্থাপিত	-11923
প্রয়োজনীয়	-11924
▁আইসোলেশন	-11925
▁হালনাগাদ	-11926
▁গাইবান্ধার	-11927
▁পশ্চিমবঙ্গে	-11928
▁ঘৃ	-11929
বক্স	-11930
▁Nar	-11931
▁হাশ	-11932
▁তাড়া	-11933
▁দূষণ	-11934
▁পাঠক	-11935
িয়ার্স	-11936
▁দেয়াল	-11937
▁রযাংক	-11938
অপরাহ্ণ	-11939
▁কামনায়	-11940
▁পিবিআই	-11941
▁ভাসমান	-11942
▁প্রবন্ধ	-11943
▁ফার্স্ট	-11944
▁বিস্তৃত	-11945
▁বাণিজ্যমন্ত্রী	-11946
থন	-11947
ছুল	-11948
▁বট	-11949
▁শা	-11950
Live	-11951
▁New	-11952
▁মিট	-11953
িকারক	-11954
িমপুর	-11955
▁গৌরব	-11956
▁ঝড়ের	-11957
▁মঙ্গ	-11958
▁শোভন	-11959
▁বাতাস	-11960
▁সাবান	-11961
ঙ্ক্ষিত	-11962
▁আগ্নেয়	-11963
▁গল্পের	-11964
▁চেয়ারপ	-11965
▁ব্লকের	-11966
▁গর্ভবতী	-11967
▁দাঁড়ালো	-11968
▁মারধরের	-11969
চং	-11970
▁Fr	-11971
▁দৌড়	-11972
বিমান	-11973
িয়ানা	-11974
▁কলোন	-11975
▁দোষী	-11976
▁লটার	-11977
▁সূচি	-11978
▁পুতিন	-11979
▁হ্যাঁ	-11980
▁অনুষ্ট	-11981
▁আইজিপি	-11982
▁কনটেন্ট	-11983
▁পাঞ্জাব	-11984
▁রহস্যজনক	-11985
▁মার্কেটের	-11986
▁ব্যবহারকারীরা	-11987
sha	-11988
ভাল	-11989
৫টি	-11990
ীকরণ	-11991
▁জন্	-11992
▁ইবনে	-11993
▁১৩টি	-11994
▁দিবেন	-11995
▁ফাঁদে	-11996
▁মাহাব	-11997
▁লাভের	-11998
গাঁওয়ের	-11999
িকিউটিভ	-12000
▁শক্তির	-12001
▁ইতালিতে	-12002
▁ট্রেলার	-12003
▁প্লাবিত	-12004
▁সর্বত্র	-12005
▁কণ্ঠস্বর	-12006
▁পুনর্বাস	-12007
▁নারায়ণগঞ্জে	-12008
৭১	-12009
শিম	-12010
গাজী	-12011
োকার	-12012
▁পিত	-12013
▁আনুশ	-12014
▁একাই	-12015
▁গণনা	-12016
▁পৌছে	-12017
▁বসেই	-12018
▁Paper	-12019
▁পানীয়	-12020
▁হিজরি	-12021
▁নড়াইলে	-12022
▁আমিরাতে	-12023
▁বজ্রপাতে	-12024
▁শ্বাসরোধ	-12025
▁দায়িত্বরত	-12026
▁উপপরিদর্শক	-12027
▁ঃ	-12028
▁এখ	-12029
▁পাউ	-12030
চ্ছুক	-12031
▁গর্ত	-12032
▁জনসন	-12033
্যুত্থ	-12034
▁কোচবি	-12035
▁ধরিয়ে	-12036
▁BANGLA	-12037
▁এসএমএস	-12038
▁আগস্টের	-12039
▁আনন্দিত	-12040
▁ক্রিস্ট	-12041
▁প্ল্যান	-12042
▁বিতর্কের	-12043
টোয়েন্টিতে	-12044
▁মাদ্রাসায়	-12045
▁স্বাস্থ্যসেবা	-12046
▁বিদ্যুৎস্পৃষ্ট	-12047
ies	-12048
্রত	-12049
ুষ্ক	-12050
্লীল	-12051
কেটিং	-12052
ফর্মে	-12053
বাড়ির	-12054
▁জনবল	-12055
ত্তিকর	-12056
▁বিহার	-12057
▁সেলাই	-12058
▁প্রকৃতির	-12059
▁হেফাজতের	-12060
▁ফিলিস্তিন	-12061
▁ফ্র্যাঞ্চ	-12062
▁ফিলিস্তিনের	-12063
▁সুনির্দিষ্ট	-12064
শহ	-12065
arg	-12066
খুল	-12067
রাম	-12068
BDST	-12069
ইডিসি	-12070
▁আশার	-12071
▁খানম	-12072
▁সনাতন	-12073
▁স্পিড	-12074
▁জহুরুল	-12075
▁প্রচারে	-12076
▁সারাদিন	-12077
▁আমাদেরকে	-12078
উন	-12079
৪টি	-12080
▁তন	-12081
সঙ্গ	-12082
▁অপরি	-12083
▁পাশেই	-12084
▁শাহবাগ	-12085
▁হৃদরোগে	-12086
▁সমাধানের	-12087
▁ইমিগ্রেশন	-12088
▁ম্যানেজিং	-12089
▁চ্যাম্পিয়নস	-12090
▁জলে	-12091
▁ছয়জন	-12092
▁মেগা	-12093
▁ব্লাড	-12094
▁প্রণয়ন	-12095
▁বিদ্যা	-12096
▁সুব্রত	-12097
▁উৎপাদিত	-12098
▁একইভাবে	-12099
▁ঝুঁকিতে	-12100
▁বরগুনার	-12101
▁সাত্তার	-12102
▁অপারেটিং	-12103
▁তারকাদের	-12104
▁মস্তিষ্ক	-12105
▁জুডিশিয়াল	-12106
▁লক্ষ্মীপুরে	-12107
কটি	-12108
সনে	-12109
বিজি	-12110
▁এলেন	-12111
▁চাচা	-12112
▁দমকল	-12113
ামাটির	-12114
▁উল্লা	-12115
▁ক্ষেত	-12116
▁পাসের	-12117
▁বরাবরই	-12118
▁শাজাহান	-12119
▁স্কোয়াড	-12120
▁অক্টোবরে	-12121
▁সুরক্ষিত	-12122
▁নেত্রকোনা	-12123
▁অত্যাধুনিক	-12124
▁পরিকল্পনার	-12125
▁প্রক্রিয়ায়	-12126
▁কিশোরগঞ্জের	-12127
▁ঠাকুরগাঁওয়ে	-12128
YL	-12129
শর	-12130
ষাঢ়	-12131
ধারা	-12132
াল্ট	-12133
▁অনা	-12134
▁নীত	-12135
▁জেএম	-12136
▁সানা	-12137
▁চালককে	-12138
▁পোশাকে	-12139
▁ভেন্যু	-12140
▁আতঙ্কিত	-12141
▁পাহাড়ের	-12142
▁বিল্লাল	-12143
▁ভোগান্ত	-12144
▁সংক্রাম	-12145
▁পরিস্কার	-12146
▁বোলারদের	-12147
▁লিভারপুল	-12148
▁জোরপূর্বক	-12149
িসা	-12150
▁আষাঢ়	-12151
▁চোরা	-12152
▁সৃজন	-12153
▁কাহিনী	-12154
▁চলাচলে	-12155
▁পাল্টে	-12156
▁মোসাদ্দ	-12157
▁বিপিএলের	-12158
▁মার্কেটে	-12159
▁অভিভাবকদের	-12160
▁পরীক্ষামূলক	-12161
▁সেপ্টেম্বরে	-12162
..	-12163
বধূ	-12164
ৈরব	-12165
খাটে	-12166
নির্ম	-12167
বিশেষ	-12168
▁ছুরি	-12169
▁মর্ত	-12170
▁সেটে	-12171
▁জাবেদ	-12172
▁নেদার	-12173
▁বক্তা	-12174
▁লাইব্র	-12175
▁শতাব্দ	-12176
▁সূচকের	-12177
▁ফারজানা	-12178
▁ব্যাচের	-12179
▁সমন্বয়ক	-12180
▁হোটেলের	-12181
▁মাশরাফির	-12182
▁আইনজীবীরা	-12183
▁দুর্গাপুর	-12184
▁আনন্দবাজার	-12185
▁অ্যাকাউন্টে	-12186
▁ইনস্টিটিউটের	-12187
▁ট্রাইব্যুনাল	-12188
VID	-12189
এটি	-12190
মাই	-12191
▁বুব	-12192
habor	-12193
▁কানাই	-12194
▁পালনে	-12195
▁লুৎফর	-12196
▁টেকনিক	-12197
▁নিউজকে	-12198
▁রাব্বি	-12199
▁কোম্পানী	-12200
লেস	-12201
▁পিচ	-12202
ধরনের	-12203
▁কথাই	-12204
▁বেলজ	-12205
ামারীর	-12206
▁জিল্ল	-12207
▁নোমান	-12208
▁সঙ্কট	-12209
▁উর্ধ্ব	-12210
▁ওমিক্র	-12211
▁গৃহহীন	-12212
▁কাভার্ড	-12213
▁দিনমজুর	-12214
▁নবীগঞ্জ	-12215
▁ন্যায্য	-12216
▁উৎপাদনের	-12217
▁উড়োজাহাজ	-12218
▁বিক্ষোভে	-12219
▁কর্মসূচীর	-12220
▁সংবাদপত্র	-12221
▁গ্রহণযোগ্য	-12222
▁বাগেরহাটের	-12223
▁মাইক্রোসফট	-12224
▁মোটরসাইকেলে	-12225
কণ্ঠ	-12226
▁তপন	-12227
▁পিঁ	-12228
▁লাক	-12229
▁ডাকে	-12230
▁টুকরো	-12231
▁নির্দ	-12232
▁নয়াপল	-12233
▁পূজার	-12234
▁ভাবেই	-12235
▁মোকার	-12236
▁অর্ধশত	-12237
▁নির্বি	-12238
▁তোমাদের	-12239
ঙা	-12240
সপ	-12241
৯৯	-12242
এখন	-12243
মহল	-12244
ক্লু	-12245
মাতা	-12246
ৈষ্ঠ	-12247
শূন্য	-12248
ষ্কার	-12249
▁সজিব	-12250
▁পর্দা	-12251
াম্পত্য	-12252
▁আতিকুল	-12253
▁নাসরিন	-12254
▁পার্কে	-12255
▁বিয়েতে	-12256
▁প্রযোজন	-12257
▁স্পেনের	-12258
▁ইন্ডিয়ার	-12259
▁প্রচারিত	-12260
াবিন	-12261
াকাটি	-12262
▁শর্ম	-12263
▁দাঁড়া	-12264
▁মনজুর	-12265
▁মনোহর	-12266
▁জন্মের	-12267
▁বৈষম্য	-12268
▁প্রান্তিক	-12269
▁›	-12270
গড়ে	-12271
নান	-12272
আইপি	-12273
কল্প	-12274
▁বুথ	-12275
শতাধিক	-12276
▁অপহৃত	-12277
▁দখলের	-12278
▁দিগন্ত	-12279
▁নারীসহ	-12280
▁বিরক্ত	-12281
▁হারাতে	-12282
▁হালদার	-12283
▁পরিবেশের	-12284
▁প্রণোদনা	-12285
▁করোনাকালে	-12286
▁ব্যাটালিয়নের	-12287
ya	-12288
আস	-12289
▁Sh	-12290
রাইজ	-12291
▁কোষ	-12292
▁পলক	-12293
▁সেভ	-12294
▁আমিও	-12295
▁পিছু	-12296
▁বছরই	-12297
▁৫টায়	-12298
▁আস্তে	-12299
▁এএফপি	-12300
▁যুগের	-12301
▁পিএসজি	-12302
▁কৃতিত্ব	-12303
▁পেয়েছিল	-12304
▁বাজেটের	-12305
▁বিশ্রাম	-12306
▁অবকাঠামো	-12307
▁নেতৃত্বের	-12308
▁মুহূর্তের	-12309
▁গার্মেন্টস	-12310
▁বান্দরবানে	-12311
HET	-12312
ank	-12313
৮টি	-12314
▁নবা	-12315
▁বিউ	-12316
▁মশা	-12317
YLHET	-12318
press	-12319
বিবাহ	-12320
▁এটির	-12321
▁কাঁদ	-12322
▁নকশা	-12323
▁পায়রা	-12324
▁ভাবতে	-12325
▁মুর্ত	-12326
▁উপকূলে	-12327
▁জীবাণু	-12328
▁ক্লিনিক	-12329
▁গণসংযোগ	-12330
▁বিচারিক	-12331
▁স্ক্যান	-12332
▁প্রবাহিত	-12333
▁সীমাবদ্ধ	-12334
▁হিউম্যান	-12335
ুমি	-12336
োর্ড	-12337
▁আশু	-12338
▁কোভ	-12339
ন্নবী	-12340
▁অগ্রহ	-12341
▁কাজেই	-12342
▁ছুঁয়ে	-12343
▁বখাটে	-12344
▁চেয়েছে	-12345
▁জামিনে	-12346
▁অ্যাঞ্জ	-12347
▁ইউক্রেন	-12348
▁রিসার্চ	-12349
▁জানাচ্ছে	-12350
▁মির্জাপুর	-12351
▁গ্রেপ্তারকৃত	-12352
কেশ	-12353
▁Ed	-12354
আরের	-12355
চক্র	-12356
▁লেফ	-12357
▁১টা	-12358
তাবির	-12359
▁জালা	-12360
▁লেবু	-12361
াতাদের	-12362
▁খায়ের	-12363
▁মোর্শ	-12364
▁ইরাকের	-12365
▁খোঁজাখ	-12366
▁নাইজের	-12367
▁নামাজে	-12368
▁মজিবুর	-12369
▁মেরামত	-12370
বঙ্গবন্ধু	-12371
▁কোতোয়ালি	-12372
▁নেইমারের	-12373
▁শীর্ষস্থানীয়	-12374
ীহ	-12375
▁খোদ	-12376
াউন্ট	-12377
▁আত্র	-12378
▁কারি	-12379
ক্ষ্যং	-12380
▁আজকাল	-12381
▁কুয়েত	-12382
▁দিদার	-12383
▁ধোনির	-12384
▁সম্বল	-12385
▁সময়সূচ	-12386
নির্বাচন	-12387
▁প্রকাশে	-12388
▁সারোয়ার	-12389
▁দাম্পত্য	-12390
প্রধানমন্ত্রী	-12391
▁·	-12392
পেশ	-12393
িপির	-12394
▁ইন্	-12395
▁চড়া	-12396
▁রাগ	-12397
▁বেনজ	-12398
▁রবিন	-12399
▁শৈত্য	-12400
▁শ্রেন	-12401
▁হার্ড	-12402
▁আদেশের	-12403
▁সাইদুর	-12404
▁হুসেইন	-12405
▁ইউটিউবে	-12406
▁কম্পিউট	-12407
▁কৃষিবিদ	-12408
▁পার্থক্য	-12409
▁গোপালগঞ্জের	-12410
▁খাদ্যসামগ্রী	-12411
ai	-12412
সবু	-12413
ুড়ে	-12414
্বন	-12415
▁মী	-12416
প্রা	-12417
িস্থ	-12418
ুয়েল	-12419
▁পলি	-12420
▁বোম	-12421
াপরাধ	-12422
▁মায়া	-12423
▁মিঠু	-12424
▁নবাগত	-12425
▁চারজনকে	-12426
▁জ্যৈষ্ঠ	-12427
▁প্রচারের	-12428
▁মুন্সিগঞ্জের	-12429
▁My	-12430
িপার	-12431
▁জনি	-12432
▁আরেফ	-12433
▁কমছে	-12434
▁জিরো	-12435
▁ঢাবি	-12436
▁সোবহ	-12437
▁২০০১	-12438
▁জওয়ান	-12439
▁পহেলা	-12440
▁অশ্লীল	-12441
▁দুনিয়া	-12442
▁প্রখ্যাত	-12443
▁সেমিনারে	-12444
▁ক্ষেত্রেও	-12445
▁সম্প্রদায়	-12446
uk	-12447
ঞা	-12448
কোর	-12449
নাত	-12450
▁ফা	-12451
েসের	-12452
▁রেন	-12453
▁ইবাদ	-12454
▁যাদব	-12455
▁এবিএম	-12456
▁মারমা	-12457
▁অস্থির	-12458
▁উঠেছিল	-12459
▁লাইনের	-12460
▁সেলিমের	-12461
▁হারানোর	-12462
▁প্রশিক্ষণের	-12463
▁রবীন্দ্রনাথ	-12464
▁জন্মশতবার্ষিকী	-12465
সদর	-12466
▁নূ	-12467
ওয়াশ	-12468
খেলা	-12469
▁চিৎ	-12470
▁আশুল	-12471
▁এসএস	-12472
▁পেছন	-12473
▁যুবদল	-12474
▁সৈন্য	-12475
▁অবহেলা	-12476
▁চাইলেন	-12477
▁তরুণদের	-12478
▁প্রতিমা	-12479
▁আটককৃতরা	-12480
▁অসুস্থতার	-12481
ওর	-12482
হাই	-12483
ডিএফ	-12484
িনিউ	-12485
▁পাথ	-12486
▁লঘু	-12487
▁২টা	-12488
▁কন্ড	-12489
▁চাকা	-12490
▁তেলে	-12491
াপিক্স	-12492
▁গণভবন	-12493
▁নৈতিক	-12494
▁প্রতী	-12495
▁ভোলায়	-12496
▁সঞ্চয়	-12497
চ্যুয়াল	-12498
▁সম্মতি	-12499
▁দর্শকরা	-12500
▁ব্রিজের	-12501
▁মেডিকেলে	-12502
▁প্রত্যাবাস	-12503
▁সাক্ষাৎকার	-12504
▁`	-12505
ari	-12506
ফিউ	-12507
ুকা	-12508
ুলো	-12509
▁রদ	-12510
িমির	-12511
▁সৌম	-12512
▁অসাধ	-12513
▁আলেম	-12514
▁এভার	-12515
▁জুতা	-12516
▁বনাম	-12517
▁বলের	-12518
▁সিপি	-12519
নামূলক	-12520
▁টেনিস	-12521
▁বিনোদ	-12522
▁সংস্প	-12523
▁অনুভূত	-12524
▁গণধর্ষণ	-12525
▁মধ্যরাত	-12526
▁শিবিরের	-12527
▁অত্যাচার	-12528
▁আপত্তিকর	-12529
▁ডাক্তারের	-12530
▁বিশেষভাবে	-12531
▁ব্রিগেডিয়ার	-12532
কোট	-12533
টিয়	-12534
▁An	-12535
▁টক	-12536
দর্শন	-12537
বিদ্ব	-12538
াবাদে	-12539
▁বাকী	-12540
▁করিনি	-12541
▁খোঁজে	-12542
▁ভার্সন	-12543
াকারীদের	-12544
▁ইফতেখার	-12545
▁উদ্ধারে	-12546
▁ডেমোক্র	-12547
▁বক্তৃতায়	-12548
▁সোনারগাঁও	-12549
▁প্রার্থীকে	-12550
▁লাইফস্টাইল	-12551
বোন	-12552
৩টি	-12553
▁থ্রি	-12554
▁রাউজ	-12555
্যাটের	-12556
▁সাহসী	-12557
▁সিয়াম	-12558
▁আজিজুর	-12559
▁জোরালো	-12560
▁ফলাফলে	-12561
▁বিরতির	-12562
▁বিস্ময়	-12563
▁লেফটেন	-12564
কর্মচারী	-12565
▁কমলগঞ্জ	-12566
▁ট্রেনটি	-12567
▁প্যাকেজ	-12568
▁মুস্তফা	-12569
anglanews	-12570
▁Protidin	-12571
▁দায়িত্বপ্রাপ্ত	-12572
এব	-12573
ঘন	-12574
▁→	-12575
itt	-12576
টেম	-12577
দাগ	-12578
▁উজ	-12579
আন্ত	-12580
▁খেজ	-12581
▁তেঁ	-12582
▁বাধ	-12583
পরোয়া	-12584
▁ইদ্র	-12585
▁ভারি	-12586
▁টেলিক	-12587
▁শুরুটা	-12588
▁সেদিকে	-12589
▁শেয়ারের	-12590
▁ফ্রান্সে	-12591
▁গণ্যমান্য	-12592
▁সর্বাত্মক	-12593
▁প্রেসক্লাবে	-12594
▁কোম্পানীগঞ্জ	-12595
َل	-12596
োলের	-12597
▁৩টা	-12598
▁ভৈরব	-12599
▁সাইন	-12600
▁হরিণ	-12601
▁কোটির	-12602
▁লোকাল	-12603
▁আমিরুল	-12604
▁তাণ্ডব	-12605
▁বৃদ্ধা	-12606
াচার্যের	-12607
▁অনেকদিন	-12608
▁খালেদার	-12609
▁দৌলতপুর	-12610
▁সমাজসেব	-12611
▁মুঠোফোনে	-12612
▁সার্জারি	-12613
▁বিনিয়োগের	-12614
▁স্যানিটাইজার	-12615
রহ	-12616
েজন	-12617
ress	-12618
েঞ্জ	-12619
▁এগো	-12620
▁গঠনে	-12621
▁যেটি	-12622
িকারের	-12623
▁কমানো	-12624
▁গ্লাস	-12625
▁পেপার	-12626
▁ইলাইহি	-12627
▁এঘটনায়	-12628
▁টেক্সট	-12629
▁রাসেলের	-12630
▁চুক্তিবদ্ধ	-12631
▁এক্সিকিউটিভ	-12632
▁ফৌ	-12633
▁সজল	-12634
▁Page	-12635
▁ইটভা	-12636
▁কৃতি	-12637
▁বসেন	-12638
▁মূলক	-12639
▁বান্ধ	-12640
▁ফারিয়া	-12641
▁প্রকাশঃ	-12642
▁বিমানটি	-12643
▁নাগরিকের	-12644
▁স্বেচ্ছায়	-12645
▁লাস্টনিউজবিডি	-12646
OR	-12647
পল	-12648
জুন	-12649
▁শোর	-12650
চেয়ার	-12651
▁বর্ম	-12652
▁হিলি	-12653
▁পাম্প	-12654
▁সংঘের	-12655
ক্লুসিভ	-12656
▁আশাবাদ	-12657
▁গর্বিত	-12658
▁নিউজটি	-12659
▁পূর্বের	-12660
▁শিক্ষিত	-12661
▁হিসেবেও	-12662
▁পত্রিকায়	-12663
কোণ	-12664
িয়ের	-12665
▁দোহ	-12666
▁খসড়া	-12667
▁ভাঙা	-12668
▁ভোটা	-12669
াতিষ্ঠ	-12670
▁পান্ড	-12671
▁বিছান	-12672
▁বিপদে	-12673
▁বিলাস	-12674
▁সুত্র	-12675
▁হ্যাট	-12676
▁সিআইডি	-12677
▁প্রলোভন	-12678
▁বৃদ্ধের	-12679
▁মানবতার	-12680
▁সংগঠনটি	-12681
▁সাহায্যের	-12682
ear	-12683
▁>>	-12684
▁ঝল	-12685
ount	-12686
িন্ড	-12687
▁গাফ	-12688
▁ফোক	-12689
কাশ্ম	-12690
▁পাইক	-12691
▁মৃধা	-12692
▁চলন্ত	-12693
▁বাবুর	-12694
▁ভ্যাল	-12695
▁সংঘটিত	-12696
▁সুবাদে	-12697
▁সেলিনা	-12698
▁শেরপুরে	-12699
▁স্বীকৃত	-12700
▁অবিশ্বাস	-12701
▁মাহফুজুর	-12702
▁সমাজসেবা	-12703
▁তালেবানের	-12704
▁শেরেবাংলা	-12705
▁পুষ্পস্তবক	-12706
▁সংগীতশিল্পী	-12707
লীয়	-12708
▁যশ	-12709
▁স্র	-12710
জ্জনক	-12711
বিরতি	-12712
▁চার্	-12713
মহাদেশ	-12714
▁উপার্	-12715
▁শুষ্ক	-12716
▁শ্লীল	-12717
▁সেনার	-12718
▁অপূর্ব	-12719
▁মাইকেল	-12720
▁ক্যান্ট	-12721
▁ফুলবাড়ী	-12722
▁সময়সীমা	-12723
▁স্ক্রিন	-12724
▁অফিসারের	-12725
▁মূল্যবান	-12726
▁প্রশাসনকে	-12727
▁ক্রিকেটারের	-12728
হ্ম	-12729
িকস	-12730
▁ঢল	-12731
তিকে	-12732
▁ডিল	-12733
▁বেগ	-12734
▁শায়	-12735
▁দাঁত	-12736
▁রূপে	-12737
▁আজীবন	-12738
▁আড়ালে	-12739
▁জ্ঞাপন	-12740
▁পারলেও	-12741
▁রযাঙ্ক	-12742
▁বসবাসরত	-12743
▁মেগাপিক্স	-12744
▁শিল্পীদের	-12745
ago	-12746
ish	-12747
২টি	-12748
▁৩য়	-12749
বিদেশ	-12750
▁ঠিকই	-12751
▁নগরী	-12752
▁নমুন	-12753
বিএনপি	-12754
▁COVID	-12755
▁কবলিত	-12756
▁পরিচয়ে	-12757
▁মেয়রের	-12758
▁রাখছেন	-12759
▁সীমানা	-12760
▁চারজনের	-12761
▁অগ্রহায়ণ	-12762
▁আম্পায়ার	-12763
▁অজ্ঞাতনামা	-12764
▁অভিযোগপত্র	-12765
▁নীলফামারীর	-12766
▁যুদ্ধাপরাধ	-12767
▁বৃষ্টিপাতের	-12768
▁তত্ত্বাবধায়ক	-12769
▁মট	-12770
ঘাটের	-12771
বয়স্ক	-12772
▁ইজিব	-12773
▁বালি	-12774
ওয়ানের	-12775
▁দেহের	-12776
▁বিলের	-12777
▁ঠাণ্ডা	-12778
▁লাগাতে	-12779
▁নির্বাহ	-12780
▁জনসংখ্যা	-12781
▁সোসাইটির	-12782
▁মন্তব্যের	-12783
▁জামালপুরের	-12784
▁নিয়ন্ত্রণের	-12785
আগে	-12786
জিন	-12787
ঞ্ছ	-12788
ব্ধ	-12789
রার	-12790
িফা	-12791
ুকি	-12792
▁Ex	-12793
▁ঋষ	-12794
দপ্ত	-12795
▁১৪৪	-12796
▁শারদ	-12797
bengal	-12798
▁মাঝেই	-12799
▁পাউন্ড	-12800
▁ছড়িয়েছে	-12801
▁নিয়েছিল	-12802
▁সমর্থনে	-12803
▁আশেপাশের	-12804
▁কুয়াকাটা	-12805
▁টেকনাফের	-12806
▁ময়মনসিংহে	-12807
▁প্রত্যাবর্তন	-12808
ash	-12809
চড়ে	-12810
রেড	-12811
াফা	-12812
ডিপি	-12813
কৃষ্ণ	-12814
ায়নের	-12815
িস্তা	-12816
▁১৬টি	-12817
▁পেটের	-12818
▁বিয়ান	-12819
▁শাপলা	-12820
▁কমেন্ট	-12821
▁নারায়ন	-12822
▁কিশোরের	-12823
▁দেখানোর	-12824
▁অনুশীলনে	-12825
▁মাঝামাঝি	-12826
▁দর্শনার্থ	-12827
চলা	-12828
াইজি	-12829
ালাই	-12830
▁সিএম	-12831
▁টিকেট	-12832
▁বসেছে	-12833
▁রেলের	-12834
▁লোকমান	-12835
▁লোকজনকে	-12836
▁সাভারের	-12837
▁ইসলামপুর	-12838
▁পাটোয়ারী	-12839
▁বিজয়ীদের	-12840
▁প্রত্যেকে	-12841
্বস	-12842
পাতি	-12843
ড়িয়া	-12844
▁দেই	-12845
▁নীচে	-12846
েন্টাল	-12847
▁ছিন্ন	-12848
▁ডিলার	-12849
▁ফাহাদ	-12850
▁করানোর	-12851
▁তারিখের	-12852
▁ব্যানার	-12853
▁পৃষ্ঠপোষ	-12854
ER	-12855
েদা	-12856
▁ডক	-12857
▁নাফ	-12858
▁লেক	-12859
তিয়াজ	-12860
▁মহাজ	-12861
▁গুলির	-12862
▁ফাহিম	-12863
▁রুখতে	-12864
▁শিরীন	-12865
▁ডায়েরি	-12866
▁নিউজের	-12867
▁পিসিআর	-12868
▁পেরেছে	-12869
্যবস্থাপ	-12870
▁দুনিয়ায়	-12871
▁পৌঁছাতে	-12872
▁লড়াইয়ের	-12873
▁সমমানের	-12874
▁স্ট্রাই	-12875
▁জঙ্গিদের	-12876
▁দক্ষিণের	-12877
▁হাজারেরও	-12878
▁গণধর্ষণের	-12879
▁গ্রেফতারি	-12880
▁প্রাঙ্গনে	-12881
▁শিরোনামের	-12882
tertainment	-12883
DA	-12884
বাছ	-12885
▁ফিজ	-12886
▁রুব	-12887
াশ্রয়	-12888
▁আগার	-12889
▁বিপণ	-12890
▁পোষ্ট	-12891
▁রেলপথ	-12892
▁মিডফিল	-12893
▁শ্রাবণ	-12894
▁মেট্রোর	-12895
▁চক্রবর্ত	-12896
▁জানিয়েছিল	-12897
▁বিশ্বসেরা	-12898
▁মোসাদ্দেক	-12899
▁সিঙ্গাপুরে	-12900
▁প্রেক্ষাপটে	-12901
▁সয়	-12902
োটাই	-12903
ক্ষণের	-12904
মৃত্যু	-12905
▁আড্ডা	-12906
▁ঘটেনি	-12907
▁নেয়নি	-12908
▁বর্বর	-12909
▁চেহারা	-12910
▁উত্তপ্ত	-12911
▁প্রত্যয়	-12912
▁বিল্লাহ	-12913
▁সারাবিশ	-12914
▁জাকারিয়া	-12915
▁ভোগান্তি	-12916
ife	-12917
াসা	-12918
ইয়ার	-12919
▁অজয়	-12920
▁গ্য	-12921
▁সম্ব	-12922
▁স্কট	-12923
▁ফাঁসি	-12924
▁মিরসর	-12925
▁ব্যাহত	-12926
▁ভাঙ্গা	-12927
▁অ্যাসিড	-12928
▁উত্তেজন	-12929
▁ত্রিপুর	-12930
▁আলাপকালে	-12931
▁টেকনোলজি	-12932
▁বাহিনীকে	-12933
▁আড়াইহাজার	-12934
▁ম্যাগাজিন	-12935
▁ক্যাটাগরিতে	-12936
lam	-12937
নাই	-12938
মনে	-12939
্রা	-12940
াতুল	-12941
ালায়	-12942
▁গাল	-12943
▁পৌছ	-12944
▁অধীন	-12945
▁মক্ক	-12946
বন্দুক	-12947
▁গল্পে	-12948
▁ড্যান	-12949
▁সাতজন	-12950
▁সিএসই	-12951
াপ্রধান	-12952
▁অভিহিত	-12953
▁নাটোরে	-12954
▁রোগীকে	-12955
▁অন্ধকার	-12956
▁এখানকার	-12957
▁ফেইসবুক	-12958
▁হবিগঞ্জে	-12959
▁কারাগারের	-12960
▁পটুয়াখালীর	-12961
▁মালিকানাধীন	-12962
▁লেফটেন্যান্ট	-12963
িওর	-12964
▁Ad	-12965
▁রউ	-12966
▁টেম	-12967
▁ডিজি	-12968
▁মিলল	-12969
▁ওমরাহ	-12970
িশ্রমিক	-12971
▁এনায়েত	-12972
▁মুনাফা	-12973
▁হয়েছেঃ	-12974
▁আর্কাইভ	-12975
▁ট্রাকটি	-12976
▁পার্বতী	-12977
▁বার্সার	-12978
▁ফরিদপুরে	-12979
▁মোহাম্মাদ	-12980
আন্তর্জাতিক	-12981
▁পরীক্ষার্থ	-12982
▁সংবাদমাধ্যমের	-12983
▁ট্রাইব্যুনালের	-12984
খি	-12985
▁বখ	-12986
নতুন	-12987
▁Off	-12988
▁আমন	-12989
▁একট	-12990
▁জোস	-12991
▁লিজ	-12992
▁Hour	-12993
▁আভাস	-12994
▁বশির	-12995
▁বাবদ	-12996
▁বৃহৎ	-12997
কর্মীর	-12998
্রিদের	-12999
▁জিহাদ	-13000
▁সাইটে	-13001
▁অস্কার	-13002
▁ভুগছেন	-13003
▁সংসারে	-13004
▁ইসরাইলি	-13005
▁জিল্লুর	-13006
▁চাঁদপুরে	-13007
▁মধ্যদিয়ে	-13008
াতিষ্ঠানিক	-13009
▁ত্রিদেশীয়	-13010
▁টেকনিক্যাল	-13011
▁নেতৃবৃন্দের	-13012
▁নেদারল্যান্ড	-13013
ss	-13014
out	-13015
অর্থ	-13016
▁জোগ	-13017
সম্পদ	-13018
▁পেলো	-13019
▁বাদি	-13020
▁মদিন	-13021
▁Print	-13022
▁আহতরা	-13023
▁ইভিএম	-13024
▁দেখছি	-13025
▁মুহিত	-13026
▁এদেশের	-13027
▁পূর্বা	-13028
▁ইমতিয়াজ	-13029
▁পদোন্নতি	-13030
▁পৌঁছানোর	-13031
▁বিএনপিকে	-13032
▁অনির্দিষ্ট	-13033
▁স্বীকারোক্ত	-13034
▁যোগাযোগমাধ্যম	-13035
ES	-13036
াজে	-13037
▁লী	-13038
সলিম	-13039
উত্তর	-13040
▁গণিত	-13041
▁জেগে	-13042
▁মালি	-13043
▁কিছুর	-13044
▁দর্শন	-13045
▁দাবান	-13046
▁বৃত্ত	-13047
▁হাদিস	-13048
▁তরিকুল	-13049
▁জনসচেতন	-13050
▁ট্রিবিউ	-13051
▁বাতাসের	-13052
▁ম্যারাড	-13053
▁উদ্বুদ্ধ	-13054
▁কূটনীতিক	-13055
▁পেনাল্টি	-13056
▁মার্কেটিং	-13057
▁প্রক্রিয়ার	-13058
▁মুখোপাধ্যায়	-13059
▁বন্দুকযুদ্ধে	-13060
▁মুক্তিযুদ্ধে	-13061
av	-13062
১টি	-13063
৬টি	-13064
▁৫ম	-13065
ার্দ	-13066
▁দুল	-13067
▁পোহ	-13068
▁মরণ	-13069
▁৭টা	-13070
য়েটের	-13071
▁জ্বল	-13072
▁টুডে	-13073
▁ফয়েজ	-13074
▁মহাব	-13075
▁শায়ে	-13076
▁সাধন	-13077
িসংযোগ	-13078
▁ঢাকাই	-13079
▁দুটির	-13080
▁ভাঙার	-13081
▁লেবুর	-13082
যুদ্ধের	-13083
▁মিথিলা	-13084
▁সাভারে	-13085
▁ক্যালিফ	-13086
▁বাস্তবে	-13087
▁বিজেপিতে	-13088
▁টেলিভিশনে	-13089
▁বিচারপতির	-13090
▁হাটহাজারী	-13091
▁বান্দরবানের	-13092
▁হি	-13093
াকৃত	-13094
▁ইয়ে	-13095
▁ছাত	-13096
▁ধুন	-13097
▁ডিএস	-13098
▁আকন্দ	-13099
▁আলামত	-13100
▁একটাই	-13101
▁ফজিলা	-13102
জ্ঞানিক	-13103
▁ব্যাটে	-13104
▁অন্যরকম	-13105
▁কালিয়াক	-13106
▁কিবরিয়া	-13107
▁কোস্টগার্ড	-13108
▁ব্যাপকভাবে	-13109
uj	-13110
ডুব	-13111
িশার	-13112
▁আগমন	-13113
▁লাইক	-13114
▁কার্ট	-13115
▁পর্ষদ	-13116
▁অবমুক্ত	-13117
▁খ্রিষ্ট	-13118
▁মাইলফলক	-13119
▁ফাইনালের	-13120
▁সন্তুষ্ট	-13121
▁কণ্ঠশিল্পী	-13122
▁প্রতিনিধিরা	-13123
▁বিয়ানীবাজার	-13124
ali	-13125
der	-13126
▁রড	-13127
ইউপি	-13128
ফাইল	-13129
বাগে	-13130
ামাণ	-13131
ূনতম	-13132
▁গীত	-13133
▁ফাট	-13134
াপন্ন	-13135
্লাহু	-13136
▁মামা	-13137
▁১৪টি	-13138
▁প্রজন	-13139
▁তাইজুল	-13140
▁মহম্মদ	-13141
▁জেলেদের	-13142
▁তামিলনা	-13143
▁নির্যাতিত	-13144
▁সংস্পর্শে	-13145
যুব	-13146
ষ্প	-13147
▁সও	-13148
বৃহৎ	-13149
▁চিত	-13150
▁যেই	-13151
াক্ষণ	-13152
▁ফেটে	-13153
▁হজরত	-13154
▁হাঁক	-13155
▁হুইপ	-13156
nesday	-13157
চেষ্টা	-13158
মন্ত্র	-13159
▁জগতের	-13160
▁নিষ্ঠ	-13161
▁পরস্প	-13162
▁ফাস্ট	-13163
▁বাড়ীর	-13164
▁কাতারে	-13165
▁মনোভাব	-13166
▁সুযোগে	-13167
▁চালকদের	-13168
▁শুনানিতে	-13169
▁সমাবেশের	-13170
৮০	-13171
amp	-13172
একটি	-13173
ন্দী	-13174
োত্ত	-13175
▁Alo	-13176
▁খোল	-13177
▁নাও	-13178
▁ক্রো	-13179
▁রামু	-13180
▁লাদা	-13181
বাহিনী	-13182
▁ইরানি	-13183
▁পার্স	-13184
▁সহপাঠ	-13185
▁হতাশা	-13186
▁রায়পুর	-13187
▁শাহজাদ	-13188
▁অবরুদ্ধ	-13189
▁দুইজনের	-13190
▁মোর্শেদ	-13191
▁বিচ্ছেদের	-13192
▁মাদ্রিদের	-13193
▁সম্পাদকের	-13194
▁বাংলানিউজকে	-13195
▁অ্যাপ্লিকেশন	-13196
▁ফেব্রুয়ারিতে	-13197
াদশ	-13198
াড়ে	-13199
▁লৌ	-13200
▁Raj	-13201
▁মাপ	-13202
▁কাঁঠ	-13203
▁কাঁধে	-13204
▁গণপিট	-13205
▁চ্যাট	-13206
▁টুঙ্গ	-13207
▁আহম্মদ	-13208
▁ডব্লিউ	-13209
▁বাউন্ড	-13210
▁পারিশ্রমিক	-13211
▁কৃ	-13212
মাগত	-13213
বছরের	-13214
▁ইকোন	-13215
▁দলিল	-13216
▁নবায়	-13217
▁পন্থ	-13218
▁স্টল	-13219
▁ক্রীড়	-13220
▁সাইদুল	-13221
▁উত্তরের	-13222
▁ন্যূনতম	-13223
▁নরসিংদীর	-13224
নীল	-13225
োদ্	-13226
োর্ন	-13227
োল্ড	-13228
▁ঝড়ে	-13229
▁দিপ	-13230
েনাতে	-13231
▁ইউনুস	-13232
▁সাদ্দ	-13233
▁আদিত্য	-13234
▁কাঞ্চন	-13235
▁পৌঁছান	-13236
▁বিতরণী	-13237
তাবিরোধী	-13238
▁উচ্চারণ	-13239
▁বাড়িতেই	-13240
▁বেপরোয়া	-13241
▁মাধবপুর	-13242
▁সিরিয়ায়	-13243
▁প্রস্তাবে	-13244
▁প্রত্যেককে	-13245
▁মুন্সীগঞ্জের	-13246
চাক	-13247
ভূম	-13248
ভের	-13249
স্র	-13250
▁গজ	-13251
তলায়	-13252
ন্দা	-13253
েডিট	-13254
্সের	-13255
▁ঠোঁ	-13256
ঞ্জুর	-13257
▁প্রি	-13258
▁বিবর	-13259
▁বীমা	-13260
▁স্পট	-13261
তত্ত্ব	-13262
▁ইঁদুর	-13263
▁কাঠের	-13264
▁বেলায়	-13265
▁মৌখিক	-13266
▁বেগমকে	-13267
▁মাগফের	-13268
▁অনেকেরই	-13269
▁একাউন্ট	-13270
▁চিন্তিত	-13271
▁পুরষ্কার	-13272
▁Wednesday	-13273
▁সিন্ডিকেট	-13274
▁গণস্বাস্থ্য	-13275
▁জন্মবার্ষিকী	-13276
َن	-13277
।-	-13278
শেখ	-13279
▁টোল	-13280
▁নেব	-13281
▁শোন	-13282
আদালত	-13283
িনারি	-13284
▁বেগে	-13285
▁ভেজাল	-13286
▁সভানে	-13287
▁পাচ্ছি	-13288
▁ব্রাউজ	-13289
▁গণহত্যা	-13290
▁ল্যান্ড	-13291
▁ব্যাক্তি	-13292
▁জনগোষ্ঠীর	-13293
▁এমপিওভুক্ত	-13294
▁গাইবান্ধায়	-13295
uth	-13296
দীঘ	-13297
ফরম	-13298
োইন	-13299
ৎসব	-13300
▁রই	-13301
▁জকি	-13302
▁ফৌজ	-13303
করণের	-13304
মাবেশ	-13305
▁অপমান	-13306
▁জাস্ট	-13307
▁রাখছে	-13308
▁সংঘাত	-13309
▁ইভেন্ট	-13310
▁নির্মল	-13311
▁আকস্মিক	-13312
▁বেঙ্গাল	-13313
▁ম্যাক্স	-13314
▁রমজানের	-13315
▁রাউন্ডে	-13316
▁ক্যাসিনো	-13317
▁জার্সিতে	-13318
▁ওয়েবডেস্ক	-13319
▁ছুরিকাঘাত	-13320
▁নাইক্ষ্যং	-13321
▁মোহাম্মদপুর	-13322
▁অস্ট্রেলিয়ায়	-13323
▁Entertainment	-13324
▁ব্রাহ্মণবাড়িয়ায়	-13325
স্	-13326
onth	-13327
কালো	-13328
ীরের	-13329
▁খনন	-13330
▁নাল	-13331
▁ভোজ	-13332
▁মুভ	-13333
কার্ড	-13334
কার্য	-13335
পূর্ত	-13336
লাইনে	-13337
▁দেশেই	-13338
▁ভালোই	-13339
▁ভাসান	-13340
▁উচ্চতা	-13341
▁নিরসনে	-13342
▁ফিরেছে	-13343
▁লঘুচাপ	-13344
▁শ্রেণী	-13345
▁সাজঘরে	-13346
▁সিগারেট	-13347
▁প্রসিকিউ	-13348
▁হাতেনাতে	-13349
▁গ্রামবাসী	-13350
▁প্রতিরক্ষ	-13351
▁বিক্ষুব্ধ	-13352
▁এক্সক্লুসিভ	-13353
Pr	-13354
ইউজ	-13355
পিপি	-13356
িব্র	-13357
▁আমল	-13358
▁২০০৬	-13359
▁দফতরে	-13360
▁নওয়াজ	-13361
▁মিলছে	-13362
▁দ্রুতই	-13363
▁ক্ষিপ্ত	-13364
▁প্রতিহত	-13365
▁সেঞ্চুর	-13366
▁অ্যালবাম	-13367
▁শ্লীলতাহ	-13368
▁রেখেছিলেন	-13369
ef	-13370
হাটা	-13371
▁ডোম	-13372
▁সাস	-13373
▁হজম	-13374
▁কথার	-13375
▁মোছা	-13376
▁শুয়ে	-13377
▁২০০৪	-13378
বাড়ীতে	-13379
াবাংলা	-13380
▁তাতেই	-13381
▁নামছে	-13382
▁পুজোর	-13383
▁পড়লেন	-13384
▁কমার্স	-13385
▁সাইফুর	-13386
▁অনিশ্চয়	-13387
▁কারেন্ট	-13388
▁ক্রমাগত	-13389
▁রেঞ্জের	-13390
▁ক্লিনিকে	-13391
▁অগ্নিসংযোগ	-13392
▁প্রাইভেটকার	-13393
অপ	-13394
টকে	-13395
বুত	-13396
enty	-13397
েলাম	-13398
োলজি	-13399
▁চড়ে	-13400
▁ইয়াছ	-13401
▁নিঃস	-13402
▁মহলে	-13403
▁শিলা	-13404
▁অলআউট	-13405
▁নিখিল	-13406
▁পাঠ্য	-13407
▁বার্ত	-13408
▁হৃদয়ে	-13409
্যাপারে	-13410
▁অগ্রসর	-13411
▁আগস্টে	-13412
▁হাজিরা	-13413
▁তেজগাঁও	-13414
▁মাহাবুব	-13415
▁জঙ্গিবাদ	-13416
▁পূর্বকোণ	-13417
▁জন্মদিনের	-13418
▁নিষ্পত্তি	-13419
▁প্রচেষ্টায়	-13420
▁প্রত্যেকের	-13421
▁কৃষিমন্ত্রী	-13422
▁মুস্তাফিজুর	-13423
ৈক	-13424
অভিন	-13425
েজের	-13426
▁খোস	-13427
▁গের	-13428
▁৭০০	-13429
দৈনিক	-13430
ামতের	-13431
▁আনেন	-13432
▁পেশা	-13433
▁একত্র	-13434
▁এতটাই	-13435
▁কাদির	-13436
▁পাওনা	-13437
▁সাহার	-13438
পরিকল্প	-13439
▁আতিকুর	-13440
▁প্রতিশ	-13441
▁বান্ধব	-13442
▁লিফলেট	-13443
▁সঙ্গীয়	-13444
▁সেভাবে	-13445
▁দুঃখজনক	-13446
▁হারুনুর	-13447
▁কাউন্টার	-13448
▁জীবনযাপন	-13449
▁যোগদানের	-13450
▁উত্তোলনের	-13451
▁যানবাহনের	-13452
▁নোয়াখালীতে	-13453
▁প্রজ্ঞাপনে	-13454
▁আয়ারল্যান্ড	-13455
▁ক্যালিফোর্ন	-13456
▁প্রতিনিধিত্ব	-13457
ks	-13458
।#	-13459
ঘোষ	-13460
িপি	-13461
ক্ষু	-13462
▁গির	-13463
জামায়	-13464
▁অত্র	-13465
▁আর্স	-13466
▁কালী	-13467
▁নাকচ	-13468
▁গ্রেড	-13469
▁জেতার	-13470
▁মওদুদ	-13471
▁মিটিং	-13472
▁লাইভে	-13473
▁অধ্যায়	-13474
▁এজেন্স	-13475
▁সিএনএন	-13476
▁প্যারিস	-13477
▁প্রামাণ	-13478
▁ফারহানা	-13479
▁বাঁহাতি	-13480
▁গুলশানের	-13481
▁বিপজ্জনক	-13482
▁সর্ববৃহৎ	-13483
▁সহিংসতার	-13484
▁ট্রাস্টের	-13485
▁বাচ্চাদের	-13486
▁প্রজাতন্ত্র	-13487
াগেছে	-13488
▁অয়েল	-13489
▁ছত্র	-13490
মানবিক	-13491
▁সর্দি	-13492
▁নওগাঁয়	-13493
▁এরদোগান	-13494
▁প্রধানের	-13495
▁মাগফেরাত	-13496
▁ক্ষেত্রেই	-13497
te	-13498
পয়	-13499
বদল	-13500
্নু	-13501
hoto	-13502
অক্স	-13503
▁নেভ	-13504
ায়ত্ত	-13505
▁জুনা	-13506
▁জোহর	-13507
▁সাখা	-13508
▁নাবাল	-13509
▁পাইনি	-13510
▁মমতার	-13511
▁মেডিস	-13512
▁মোটেও	-13513
▁সৃজিত	-13514
বাণিজ্য	-13515
▁Twenty	-13516
▁চাঁদের	-13517
▁ট্রাকে	-13518
▁পর্দার	-13519
▁মারিয়া	-13520
▁সাশ্রয়	-13521
▁সূর্যের	-13522
▁রেমিট্যান্স	-13523
োকস	-13524
itor	-13525
এমইএ	-13526
রাকে	-13527
▁১নং	-13528
্তদের	-13529
▁ঢেকে	-13530
▁তাজা	-13531
▁বরাদ	-13532
▁টিকটক	-13533
▁শীতার	-13534
▁সাহিত	-13535
▁সেটাও	-13536
▁হোস্ট	-13537
▁হ্যাম	-13538
▁সোহরাব	-13539
▁স্প্রে	-13540
▁গৌরীপুর	-13541
▁লেনদেনে	-13542
▁অনেকগুলো	-13543
▁উপকারিতা	-13544
▁সরবরাহের	-13545
▁অ্যান্টিব	-13546
▁প্রত্যেকটি	-13547
▁বাংলাদেশির	-13548
ৃংখ	-13549
৭টি	-13550
ংকের	-13551
ির্ব	-13552
▁খাট	-13553
▁গুম	-13554
▁টিভ	-13555
▁ডুম	-13556
▁পপি	-13557
াস্তা	-13558
▁ইনকি	-13559
গ্রন্থ	-13560
িপাড়ায়	-13561
ীক্ষার	-13562
▁কান্ন	-13563
▁বর্ষণ	-13564
▁অধিনায়	-13565
▁প্রসাদ	-13566
▁শতবর্ষ	-13567
▁শারদীয়	-13568
▁পদক্ষেপের	-13569
কর্মচারীদের	-13570
)'	-13571
দস্য	-13572
াদনা	-13573
▁Web	-13574
▁খতি	-13575
▁দির	-13576
গ্রাফ	-13577
জ্জিত	-13578
▁জমান	-13579
▁তরমু	-13580
▁মাঝি	-13581
▁সাধু	-13582
▁আইটেম	-13583
▁খেতাব	-13584
▁বন্ধন	-13585
▁লিডার	-13586
▁ক্রমেই	-13587
▁খুললেন	-13588
▁এজেন্সি	-13589
▁কোরবানি	-13590
▁তামিমের	-13591
▁ভ্রমণের	-13592
▁সানরাইজ	-13593
▁ক্রেতারা	-13594
▁চরিত্রের	-13595
▁জিজ্ঞাসা	-13596
▁বিসিএসের	-13597
▁লিল্লাহি	-13598
▁নভেম্বরের	-13599
▁বিআইডব্লিউ	-13600
▁ব্যবহারকারীর	-13601
তীর	-13602
ুরে	-13603
Four	-13604
ight	-13605
রযাব	-13606
লিয়া	-13607
ূলের	-13608
▁এইড	-13609
▁টিন	-13610
▁ষোল	-13611
খানায়	-13612
ত্তেফ	-13613
বাগের	-13614
▁কিউই	-13615
▁মিলি	-13616
▁শিলি	-13617
▁সিআর	-13618
▁এমপির	-13619
▁ওবামা	-13620
▁মেহেদি	-13621
▁রেলস্ট	-13622
বিসিসিআই	-13623
▁কাপুরের	-13624
▁প্রাণের	-13625
▁শ্রীমঙ্গ	-13626
▁ব্যবসায়িক	-13627
▁ব্যবস্থায়	-13628
▁জনসাধারণের	-13629
,"	-13630
োলি	-13631
▁an	-13632
▁লং	-13633
▁চুপ	-13634
▁চৌক	-13635
▁মৃদ	-13636
▁গালি	-13637
▁সেবক	-13638
▁হাতি	-13639
▁ডাকসু	-13640
▁প্রণব	-13641
▁হারান	-13642
▁দক্ষিন	-13643
▁Tuesday	-13644
▁বিবাহিত	-13645
▁সিরাজদি	-13646
▁কর্পোরেট	-13647
▁জানাচ্ছেন	-13648
▁দূর্ঘটনায়	-13649
▁প্রচারণায়	-13650
ূত	-13651
att	-13652
াস্ক	-13653
▁ফুর	-13654
বস্তু	-13655
দক্ষিণ	-13656
মূর্তি	-13657
িডেন্ট	-13658
▁কালেক	-13659
▁খুচরা	-13660
▁ভুট্ট	-13661
▁শুদ্ধ	-13662
▁সামাল	-13663
▁সেচ্ছ	-13664
▁সেসময়	-13665
▁অর্জনে	-13666
▁ঘরবাড়ি	-13667
▁থামিয়ে	-13668
▁হেরেছে	-13669
▁কর্ণফুল	-13670
▁প্রাধান	-13671
▁বিল্ডিং	-13672
▁সংঘবদ্ধ	-13673
বাংলাদেশের	-13674
▁নিয়ন্ত্রন	-13675
▁শৈত্যপ্রবাহ	-13676
ইম	-13677
মেশ	-13678
োরের	-13679
▁ধৈর	-13680
▁মোম	-13681
▁রেট	-13682
▁বসার	-13683
▁রঙিন	-13684
▁অ্যাশ	-13685
▁জামাই	-13686
▁জামিল	-13687
▁নিরলস	-13688
▁মরিয়া	-13689
▁সম্মত	-13690
▁আগ্রাস	-13691
▁ইদ্রিস	-13692
▁গোয়াইন	-13693
▁জেএসসি	-13694
▁তেঁতুল	-13695
▁মিনহাজ	-13696
▁আত্মসাতের	-13697
▁ব্যর্থতার	-13698
▁মন্ত্রনাল	-13699
কট	-13700
ুলী	-13701
▁অচ	-13702
জিএম	-13703
সময়ে	-13704
▁For	-13705
▁পেক	-13706
▁কাপে	-13707
▁ট্রল	-13708
▁বসুর	-13709
▁মারে	-13710
▁হককে	-13711
▁গেজেট	-13712
▁বলবেন	-13713
গ্রহণের	-13714
যাত্রার	-13715
▁অনৈতিক	-13716
▁দখলদার	-13717
▁কাতারের	-13718
▁মুজাহিদ	-13719
▁রূপগঞ্জ	-13720
শংক	-13721
িতি	-13722
▁al	-13723
ইন্না	-13724
পরিচয়	-13725
সোনার	-13726
▁কাইয়	-13727
▁গরমে	-13728
▁সোজা	-13729
ategor	-13730
সম্মান	-13731
▁কচুয়া	-13732
▁সুন্ন	-13733
ন্নাহার	-13734
▁পাবনায়	-13735
▁মিশ্রণ	-13736
▁মন্ডলের	-13737
▁রহমানসহ	-13738
▁হাসানকে	-13739
▁প্রতীকের	-13740
▁সেইসঙ্গে	-13741
▁অবিশ্বাস্য	-13742
▁কেরানীগঞ্জ	-13743
▁সরবরাহকারী	-13744
দাহ	-13745
ওয়ানা	-13746
গুলোও	-13747
▁পরতে	-13748
▁বেআই	-13749
▁৩০টি	-13750
▁এএসপি	-13751
▁এবারই	-13752
▁গোলটি	-13753
▁পাল্ট	-13754
ামাটিতে	-13755
▁খুঁজতে	-13756
▁বেঞ্চে	-13757
▁সফলতার	-13758
▁সুইজার	-13759
▁হাইস্ক	-13760
▁অ্যাপের	-13761
▁আফ্রিদি	-13762
▁চিৎকারে	-13763
▁পোস্টের	-13764
▁বন্ধুরা	-13765
imenewsbd	-13766
▁আক্রমণের	-13767
▁ইন্স্যুর	-13768
▁শিমুলিয়া	-13769
▁মিডফিল্ডার	-13770
▁চেয়ারপার্সন	-13771
cc	-13772
ry	-13773
রোব	-13774
▁মগ	-13775
ীতায়	-13776
▁হিং	-13777
ফেয়ার	-13778
সমর্থ	-13779
▁আমীন	-13780
▁করুক	-13781
▁কেলে	-13782
▁টানে	-13783
▁তরুন	-13784
▁সুরে	-13785
▁১৮টি	-13786
সন্তান	-13787
▁উপরের	-13788
▁কায়েস	-13789
▁ক্যাশ	-13790
▁চাপের	-13791
▁পাতায়	-13792
▁মকবুল	-13793
▁মারার	-13794
▁হিসেব	-13795
▁পূরণের	-13796
▁বসানোর	-13797
▁মাদকাস	-13798
▁রবার্ট	-13799
▁কামালের	-13800
▁সংশোধনী	-13801
▁সৃজনশীল	-13802
▁অনলাইনের	-13803
▁আসামীদের	-13804
▁জানাগেছে	-13805
▁অংশগ্রহণের	-13806
▁অর্থনীতিতে	-13807
io	-13808
৭৫	-13809
ডিএ	-13810
নাক	-13811
▁জাভ	-13812
▁রিং	-13813
▁লাঠ	-13814
চাপায়	-13815
▁পিঠা	-13816
ডিএমপি	-13817
ভারতীয়	-13818
▁জলপাই	-13819
▁তোমরা	-13820
▁নির্ভ	-13821
▁প্যাক	-13822
যাত্রায়	-13823
▁আর্সেন	-13824
▁ওয়াটার	-13825
▁খেলেছে	-13826
▁বংশোদ্	-13827
▁রেফারি	-13828
▁লোকেরা	-13829
▁আওতাধীন	-13830
▁এপ্রিলে	-13831
▁কলারোয়া	-13832
▁কিছুতেই	-13833
▁জলাবদ্ধ	-13834
▁ব্রিটেন	-13835
▁ল্যাবরে	-13836
▁ইলেক্ট্র	-13837
▁দেশবাসীর	-13838
ুজ্জামানের	-13839
▁অস্ট্রেলিয়ান	-13840
▁প্রতিনিধিদের	-13841
▁পরীক্ষার্থীদের	-13842
খলে	-13843
বিজ	-13844
্ণু	-13845
মনের	-13846
▁অজু	-13847
▁শতক	-13848
▁আঙুল	-13849
▁ব্যত	-13850
▁হুমক	-13851
▁ভূষিত	-13852
▁ভয়ংকর	-13853
▁স্পিন	-13854
▁অর্গান	-13855
▁আবেদনে	-13856
▁ইভ্যাল	-13857
▁ডিফেন্স	-13858
▁প্রোগ্র	-13859
▁প্রোটিন	-13860
▁ব্যায়াম	-13861
▁লেখাপড়া	-13862
▁বাইডেনের	-13863
▁সংবিধানের	-13864
▁প্রতিবেদকঃ	-13865
▁ফাইন্যান্স	-13866
▁আখতারুজ্জামান	-13867
▁প্রাতিষ্ঠানিক	-13868
ুচ	-13869
তুর	-13870
রুম	-13871
ভঙ্গ	-13872
ামেড	-13873
▁সিঁ	-13874
ভাবনা	-13875
ভূক্ত	-13876
হানের	-13877
▁আহাদ	-13878
▁ছাতক	-13879
▁ফ্যা	-13880
▁এবারে	-13881
▁নির্ণ	-13882
▁অভিনয়ে	-13883
▁কাস্টম	-13884
▁ঝুলিয়ে	-13885
▁ডিএসইর	-13886
▁নিউজ২৪	-13887
▁পাহাড়ে	-13888
▁ফুটবলে	-13889
▁সাঁতার	-13890
▁প্যান্ট	-13891
▁মরদেহটি	-13892
▁সাদ্দাম	-13893
▁উপমহাদেশ	-13894
▁প্রভাবিত	-13895
▁তুলনামূলক	-13896
▁প্রত্যন্ত	-13897
▁সাংবাদিকতা	-13898
অর	-13899
nal	-13900
▁Ek	-13901
ন্ডা	-13902
▁পেম	-13903
▁বেপ	-13904
জিস্ট	-13905
ন্নাল	-13906
স্কৃত	-13907
হারুল	-13908
▁যতটা	-13909
▁হাটে	-13910
▁জুটির	-13911
▁জুনের	-13912
▁ফসলের	-13913
▁মহাপর	-13914
ইডিসিআর	-13915
▁ডিভিশন	-13916
▁বিলম্ব	-13917
▁আক্রমণে	-13918
▁মাল্টিম	-13919
▁মোস্তাক	-13920
▁তামিলনাড়	-13921
▁সামর্থ্য	-13922
▁সুরক্ষার	-13923
▁জান্নাতুল	-13924
▁খাগড়াছড়িতে	-13925
▁নেত্রকোনার	-13926
▁এসোসিয়েশনের	-13927
রাহ	-13928
েয়ে	-13929
প্রী	-13930
মিনি	-13931
টাইমস	-13932
▁অব্য	-13933
▁খসরু	-13934
▁মশার	-13935
▁সুফল	-13936
▁দিনভর	-13937
পরিবারে	-13938
▁আরেফিন	-13939
▁কল্যান	-13940
▁গুটিয়ে	-13941
▁লোকদের	-13942
▁এমনিতেই	-13943
▁তাৎপর্য	-13944
▁বেসরকারী	-13945
▁ব্রাজিলিয়ান	-13946
▁সংবাদমাধ্যমে	-13947
hor	-13948
াতী	-13949
▁ভগ	-13950
▁বকর	-13951
▁রিচ	-13952
▁লায়	-13953
পাতের	-13954
লেটের	-13955
▁ইমান	-13956
▁কভিড	-13957
▁টিটু	-13958
▁মুসা	-13959
▁৫০টি	-13960
▁থাকুক	-13961
▁বিবরণ	-13962
▁বেতার	-13963
▁ইউরোপে	-13964
প্রতিষ্ঠ	-13965
▁খাতুনের	-13966
▁বাগানের	-13967
▁দুর্গাপূ	-13968
▁প্রেমিকার	-13969
▁সেঞ্চুরির	-13970
▁হামলাকারী	-13971
▁bangladesh	-13972
▁কুড়িগ্রামে	-13973
▁কোয়ারেন্টাইন	-13974
▁স্মার্টফোনের	-13975
ারু	-13976
▁ঐক	-13977
▁লগ	-13978
াণিত	-13979
▁বনে	-13980
ision	-13981
▁আজহা	-13982
▁বাদে	-13983
▁শৈলক	-13984
ামান্য	-13985
▁আফরোজ	-13986
▁পিএইচ	-13987
▁ফাঁকি	-13988
▁টেলিকম	-13989
▁তিস্তা	-13990
▁পথচারী	-13991
▁পরিধান	-13992
▁সামনেই	-13993
▁অন্যত্র	-13994
▁চোরাচাল	-13995
▁বিতর্কে	-13996
▁বিপিএলে	-13997
▁অংশগ্রহন	-13998
▁ক্যাপশনে	-13999
▁অভ্যন্তরে	-14000
▁ক্যারিবীয়	-14001
▁বৈজ্ঞানিক	-14002
▁মিলিমিটার	-14003
▁কনফারেন্সে	-14004
▁বঙ্গোপসাগর	-14005
▁CoxsbazarNEWS	-14006
▁মধ্যপ্রাচ্যের	-14007
যার	-14008
▁দই	-14009
▁বিও	-14010
▁লোগ	-14011
▁সৌদ	-14012
বাহিত	-14013
বৈশাখ	-14014
▁ছাদে	-14015
▁পলিট	-14016
▁রমনা	-14017
বিদ্যু	-14018
▁আবদ্ধ	-14019
▁ভাষ্য	-14020
▁হাবীব	-14021
▁অজ্ঞান	-14022
▁জাজিরা	-14023
▁গোষ্ঠীর	-14024
▁প্রকাশক	-14025
▁সৌমিত্র	-14026
▁Download	-14027
▁এনডিটিভি	-14028
▁অধিনায়কের	-14029
▁বিক্ষোভের	-14030
▁মানসিকভাবে	-14031
▁অনির্দিষ্টকালের	-14032
য়িং	-14033
র্ণা	-14034
শিশু	-14035
িজাত	-14036
▁ইইউ	-14037
▁তৈয়	-14038
▁দলই	-14039
ণ্ডার	-14040
ত্রের	-14041
▁ওয়াক	-14042
▁বিলে	-14043
▁মৃদু	-14044
গ্রাহী	-14045
▁সাপের	-14046
টিক্যাল	-14047
মাত্রার	-14048
▁অপরাধী	-14049
▁আশ্বিন	-14050
▁টেবিলে	-14051
▁নিচ্ছি	-14052
▁বাদশাহ	-14053
▁মেসিকে	-14054
▁ইনকিলাব	-14055
▁শ্যুটিং	-14056
▁অনুমোদনের	-14057
▁পিরোজপুরের	-14058
▁সেনাপ্রধান	-14059
▁জনস্বাস্থ্য	-14060
▁পার্লামেন্ট	-14061
▁X	-14062
ঁড়ে	-14063
মাহ	-14064
৯টি	-14065
সিতে	-14066
▁কফি	-14067
▁রউফ	-14068
মানার	-14069
লাক্স	-14070
▁করুণ	-14071
▁ছড়ায়	-14072
▁টিউট	-14073
▁বিবি	-14074
▁সেজে	-14075
▁টোকিও	-14076
▁দিকেই	-14077
▁বিউটি	-14078
▁ওয়াসিম	-14079
▁কারিগর	-14080
▁পারস্প	-14081
▁রাখাইন	-14082
▁নির্মান	-14083
সংক্রান্ত	-14084
▁মহেন্দ্র	-14085
▁মধ্যবিত্ত	-14086
▁অংশগ্রহণকারী	-14087
!'	-14088
লিং	-14089
শাদ	-14090
সাদ	-14091
সাৎ	-14092
▁ঝর	-14093
থ্যে	-14094
▁তির	-14095
▁দূত	-14096
▁পিঠ	-14097
▁ফেস	-14098
▁রির	-14099
▁শিষ	-14100
বৃত্ত	-14101
▁কল্প	-14102
▁ছাড়ে	-14103
▁বর্গ	-14104
▁মমিন	-14105
▁রিয়া	-14106
▁ঘাঁটি	-14107
▁চাষের	-14108
▁জয়লাভ	-14109
▁দেখেই	-14110
▁বাঙ্গ	-14111
▁শতকরা	-14112
▁সময়টা	-14113
বিদেশের	-14114
▁জুনাইদ	-14115
▁দুঃস্থ	-14116
▁রোজিনা	-14117
▁সেক্টর	-14118
▁ক্রেডিট	-14119
▁নিশ্চয়ই	-14120
▁প্রভৃতি	-14121
▁সন্ধানে	-14122
▁সুস্থতা	-14123
▁গ্রামবাস	-14124
▁এব্যাপারে	-14125
▁Northbengal	-14126
ঝে	-14127
ফাই	-14128
ুবন	-14129
োলাই	-14130
্টিক	-14131
▁ঘাম	-14132
▁ধুম	-14133
▁ভূখ	-14134
▁১৪০	-14135
ction	-14136
▁খ্রী	-14137
▁বাফু	-14138
ভাঙ্গা	-14139
▁বর্ষা	-14140
াইজারের	-14141
▁কায়দায়	-14142
▁মাইকিং	-14143
▁সংযোজন	-14144
▁স্বভাব	-14145
▁পর্ষদের	-14146
▁বোলিংয়ে	-14147
▁প্রতিশোধ	-14148
▁স্থলবন্দর	-14149
▁ভার্চুয়ালি	-14150
▁প্রক্রিয়াধীন	-14151
ডো	-14152
ৃৎ	-14153
টকের	-14154
বাসস	-14155
বেশি	-14156
লাপে	-14157
▁আসি	-14158
▁ছাঁ	-14159
▁ভুই	-14160
▁More	-14161
▁খনিজ	-14162
▁গাড়ী	-14163
▁মরিচ	-14164
▁যাবো	-14165
▁রঞ্জ	-14166
▁গোদাগ	-14167
▁নিবেদ	-14168
▁বিন্দ	-14169
▁শাহেদ	-14170
▁বাতাসে	-14171
▁উৎপাদনে	-14172
▁দ্রুততম	-14173
▁বিদেশের	-14174
ঘণ	-14175
▁←	-14176
ood	-14177
▁এপ	-14178
▁জোহ	-14179
▁শনি	-14180
▁শিল	-14181
▁১৩০	-14182
চর্চা	-14183
োগানে	-14184
▁আম্ব	-14185
▁ওড়না	-14186
▁নেশা	-14187
▁ফাল্	-14188
▁বকুল	-14189
▁ভাগা	-14190
▁লামা	-14191
argest	-14192
চিকিৎস	-14193
▁দর্পণ	-14194
▁ধর্মঘ	-14195
▁ন্যাট	-14196
▁বাহুব	-14197
▁ব্যাচ	-14198
▁মহলের	-14199
akantha	-14200
▁কায়সার	-14201
▁ফিরবেন	-14202
▁হেরোইন	-14203
▁নির্মূল	-14204
▁উদযাপনের	-14205
▁ওয়ারেন্ট	-14206
▁ঢাকাগামী	-14207
▁পার্টিতে	-14208
▁প্রশংসায়	-14209
▁বিএসএফের	-14210
▁মিরপুরের	-14211
▁রাজ্যপাল	-14212
▁শ্রীলংকা	-14213
▁স্কোয়াডে	-14214
▁প্রাধান্য	-14215
▁এয়ারলাইন্স	-14216
▁প্রতিরোধের	-14217
▁ব্র্যান্ডের	-14218
ham	-14219
▁ওম	-14220
▁কুক	-14221
▁গোর	-14222
▁জেট	-14223
রক্ষী	-14224
সারের	-14225
াইটের	-14226
▁৪র্থ	-14227
▁First	-14228
▁Voice	-14229
▁টঙ্গী	-14230
▁মর্মে	-14231
▁প্রজনন	-14232
▁রাজপথে	-14233
▁সাজিয়ে	-14234
▁হলরুমে	-14235
▁ধানমন্ডি	-14236
▁অংশগ্রহণে	-14237
▁ছাত্রীদের	-14238
▁ডিফেন্ডার	-14239
▁প্রবাসীরা	-14240
▁রিপাবলিকান	-14241
বন্দুকযুদ্ধে	-14242
▁অভিযুক্তদের	-14243
CoxsbazarNEWS	-14244
▁মুক্তিযোদ্ধার	-14245
HA	-14246
গাম	-14247
আইএস	-14248
াশীষ	-14249
িকৃত	-14250
▁কেট	-14251
▁টসে	-14252
▁একমত	-14253
▁গজার	-14254
▁চায়না	-14255
▁বর্জন	-14256
▁জ্যোতি	-14257
▁সোবহান	-14258
▁উৎক্ষেপ	-14259
▁জুনায়েদ	-14260
▁শ্লোগান	-14261
▁মাহবুবুল	-14262
▁ট্রাম্পকে	-14263
▁সিরাজগঞ্জে	-14264
▁মৌলভীবাজারে	-14265
ays	-14266
ere	-14267
সাধ	-14268
সেই	-14269
িশ্চ	-14270
▁কাদ	-14271
▁টুল	-14272
▁১১০	-14273
স্তান	-14274
্যস্ত	-14275
▁বাড়ল	-14276
▁রোকন	-14277
▁২০০৫	-14278
যোদ্ধা	-14279
▁অতীতে	-14280
▁ককটেল	-14281
▁ঘেরাও	-14282
▁চেতনা	-14283
▁তিতাস	-14284
▁পিপিএম	-14285
▁বাহিরে	-14286
▁শিল্পা	-14287
▁মেক্সিক	-14288
▁সুপারের	-14289
▁জিনিসপত্র	-14290
▁প্রতিনিধিদ	-14291
উড	-14292
eat	-14293
থিত	-14294
ুনা	-14295
্নী	-14296
▁ডন	-14297
▁অবধি	-14298
▁আটজন	-14299
▁বাসস	-14300
▁রযাল	-14301
ক্ষমতা	-14302
▁ক্রিম	-14303
▁দোয়ার	-14304
▁নামেন	-14305
▁স্তরে	-14306
সামাজিক	-14307
▁অভিমান	-14308
▁পরিক্ষ	-14309
▁পেছনের	-14310
▁ভবিষ্যত	-14311
▁অবস্থানের	-14312
▁নিউইয়র্কে	-14313
▁যন্ত্রপাতি	-14314
▁উত্তরপ্রদেশের	-14315
টনে	-14316
▁জং	-14317
▁দোর	-14318
ইসলাম	-14319
জুলাই	-14320
বিধির	-14321
বেলের	-14322
▁অপশন	-14323
▁উপচে	-14324
▁ক্রস	-14325
▁চন্দ	-14326
▁দন্ড	-14327
▁ফাইভ	-14328
হত্যার	-14329
ীক্ষিত	-14330
▁সাথেই	-14331
▁ব্যাঙ্ক	-14332
▁ভাগাভাগ	-14333
▁উদ্যোগের	-14334
▁চাঁদাবাজি	-14335
▁রোহিঙ্গারা	-14336
▁ডিপার্টমেন্ট	-14337
▁প্রতিক্রিয়ায়	-14338
ভৌ	-14339
বেই	-14340
টাকা	-14341
াজীব	-14342
▁ইউজ	-14343
▁নৈশ	-14344
▁যতই	-14345
▁শবে	-14346
▁ষাট	-14347
Barta	-14348
▁মহাখ	-14349
▁রুজু	-14350
▁তালাক	-14351
▁বিঘ্ন	-14352
▁মাগফির	-14353
▁জিজ্ঞেস	-14354
▁ফ্রেন্ড	-14355
▁রিজেন্ট	-14356
▁শুটিংয়ে	-14357
▁শ্রীনগর	-14358
▁ডেলিভারি	-14359
▁পুনরুদ্ধ	-14360
▁সুবর্ণজয়	-14361
▁মহামারিতে	-14362
▁মেদিনীপুর	-14363
▁ইন্টারনেটে	-14364
▁ক্ষয়ক্ষতির	-14365
▁বুদ্ধিজীবী	-14366
কথা	-14367
দুই	-14368
ামাল	-14369
▁একন	-14370
▁নওয়	-14371
▁২নং	-14372
জাহান	-14373
বাছাই	-14374
ামুটি	-14375
▁রুখে	-14376
▁রোমা	-14377
▁সফিক	-14378
কিন্তু	-14379
▁আলমকে	-14380
▁ইরানে	-14381
▁পাতার	-14382
▁পেয়ার	-14383
▁দুইদিন	-14384
▁অ্যাক্ট	-14385
▁অ্যাপটি	-14386
▁ঠিকাদার	-14387
▁ফান্ডের	-14388
▁মিছিলটি	-14389
▁মেয়েটিকে	-14390
▁খ্রিস্টান	-14391
▁সম্প্রীতি	-14392
▁ইংল্যান্ডে	-14393
▁প্রশ্নপত্র	-14394
▁!!	-14395
▁lo	-14396
agoj	-14397
বাবা	-14398
▁কৌত	-14399
▁টুট	-14400
▁দেও	-14401
▁হ্র	-14402
Leave	-14403
মার্চ	-14404
াইজিং	-14405
াগারে	-14406
▁অরুণ	-14407
▁দফার	-14408
▁বিকে	-14409
▁সমতা	-14410
▁আবাসন	-14411
▁ধারার	-14412
▁বরাতে	-14413
▁জনসভায়	-14414
▁দুজনেই	-14415
▁জানাবেন	-14416
▁ফ্লোরিড	-14417
▁বহিরাগত	-14418
▁সংখ্যাও	-14419
▁সাখাওয়াত	-14420
▁উদ্ধারকৃত	-14421
▁ছিনতাইকারী	-14422
ON	-14423
ফ্ল	-14424
িওপ	-14425
িয়ম	-14426
ডিএস	-14427
াব্ল	-14428
▁ভিন	-14429
▁লিং	-14430
▁শাফ	-14431
▁১৬০	-14432
ঞ্জলি	-14433
▁দমকা	-14434
▁ধারে	-14435
▁১৯৭৫	-14436
▁অসাধু	-14437
▁কণ্ঠে	-14438
▁ফুসফু	-14439
▁শুধুই	-14440
▁সুস্ব	-14441
▁নবজাতক	-14442
▁জুবায়ের	-14443
▁অপপ্রচার	-14444
▁গোলরক্ষক	-14445
▁তাহিরপুর	-14446
▁বিটিআরসি	-14447
▁উপমন্ত্রী	-14448
আরস	-14449
আলম	-14450
ায়ু	-14451
োরি	-14452
▁he	-14453
▁কদ	-14454
জীবি	-14455
ভীতি	-14456
মাগম	-14457
▁কীট	-14458
▁থের	-14459
▁ভাঁ	-14460
পরিবহ	-14461
▁মজুত	-14462
▁হয়েও	-14463
স্পষ্ট	-14464
▁খেজুর	-14465
▁জেলের	-14466
▁পূরণে	-14467
▁রাখায়	-14468
▁কল্পনা	-14469
▁স্বরূপ	-14470
▁অসুবিধা	-14471
▁দক্ষিণে	-14472
▁নম্বরের	-14473
▁পালানোর	-14474
▁ফলাফলের	-14475
▁বিষাক্ত	-14476
▁পরিচর্যা	-14477
''	-14478
ফাঁ	-14479
ফান	-14480
view	-14481
ানেজ	-14482
িরার	-14483
▁ওকে	-14484
▁চিং	-14485
▁পিয়	-14486
▁বদর	-14487
uthor	-14488
িয়েশন	-14489
▁অশোক	-14490
▁আলতা	-14491
▁এনাম	-14492
▁ওমান	-14493
▁দীপক	-14494
▁এমনটি	-14495
▁কনসার	-14496
▁ক্যাড	-14497
▁ছড়ানো	-14498
▁জারির	-14499
▁বৃন্দ	-14500
▁মাদার	-14501
▁অঙ্কের	-14502
▁আরিয়ান	-14503
▁ব্রহ্ম	-14504
▁ভাবছেন	-14505
▁আড়াইটার	-14506
▁জঙ্গিরা	-14507
▁ডিএমপির	-14508
▁পুকুরের	-14509
▁পোশাকের	-14510
▁শাহরুখের	-14511
▁অটোরিকশার	-14512
▁কর্মস্থলে	-14513
▁আত্মপ্রকাশ	-14514
▁নিরাপত্তায়	-14515
▁ব্যতিক্রমী	-14516
ভোজ	-14517
▁ab	-14518
▁উর	-14519
স্বপ	-14520
ারেজ	-14521
▁দুম	-14522
▁লেজ	-14523
নগরের	-14524
▁ভিয়ে	-14525
▁শাহী	-14526
▁স্রো	-14527
রোববার	-14528
▁গণফোর	-14529
▁বাক্স	-14530
ময়মনসিং	-14531
▁Khabor	-14532
▁অনুবাদ	-14533
▁আনুশকা	-14534
▁গতিশীল	-14535
▁জনগনের	-14536
▁নজরদার	-14537
▁ক্যাডার	-14538
▁রোনাল্ড	-14539
▁শিল্পীর	-14540
▁পড়েছিলেন	-14541
▁ব্রাজিলে	-14542
▁উপপরিচালক	-14543
▁বংশোদ্ভূত	-14544
▁banglanews	-14545
▁শ্রীলঙ্কায়	-14546
▁অস্থায়ীভাবে	-14547
▁সচেতনতামূলক	-14548
ছন	-14549
ানস	-14550
মোহর	-14551
াব্য	-14552
য়ালা	-14553
▁লিভ	-14554
▁ছিনত	-14555
▁মহিষ	-14556
▁হার্	-14557
ন্নেছা	-14558
▁ব্রীজ	-14559
▁সিংড়া	-14560
▁রেসিপি	-14561
▁সর্বদা	-14562
াবুদ্দিন	-14563
▁আত্মসাৎ	-14564
▁কানাডায়	-14565
▁ট্রায়াল	-14566
▁প্রসেসর	-14567
▁বিরোধীদ	-14568
▁সমীক্ষা	-14569
▁স্টোরেজ	-14570
▁দীর্ঘমেয়	-14571
▁মোটামুটি	-14572
▁শ্যামনগর	-14573
▁সারাক্ষণ	-14574
▁ডেমোক্রেট	-14575
▁দেশগুলোতে	-14576
BA	-14577
র্য	-14578
সায়	-14579
িপা	-14580
গুরু	-14581
ভাগে	-14582
▁আফস	-14583
▁বুধ	-14584
হাজতে	-14585
▁অসীম	-14586
▁রোপন	-14587
▁আওয়াজ	-14588
▁যেতেই	-14589
▁রেহাই	-14590
▁Monday	-14591
▁জুটিতে	-14592
▁পরকীয়া	-14593
▁সংখ্যার	-14594
▁প্রশংসিত	-14595
ৈত	-14596
োনে	-14597
▁বেজ	-14598
আগামী	-14599
ক্ষীয়	-14600
বিচার	-14601
▁ইরাক	-14602
▁চট্র	-14603
▁বাঘা	-14604
▁রসুন	-14605
ক্ষণিক	-14606
▁জঙ্গী	-14607
▁ঢামেক	-14608
▁মেরিন	-14609
▁লোহার	-14610
াব্যাপী	-14611
▁তোমাকে	-14612
▁দৈনন্দ	-14613
▁Largest	-14614
▁সদস্যসহ	-14615
▁হোসেনসহ	-14616
▁টেকটিউনস	-14617
▁রাজবাড়ীর	-14618
চেয়ারম্যান	-14619
▁পাসওয়ার্ড	-14620
ink	-14621
শীদ	-14622
▁ছক	-14623
মন্দ	-14624
▁আতি	-14625
গতিতে	-14626
বালের	-14627
মার্ক	-14628
▁কলাম	-14629
▁খাতা	-14630
▁গেমস	-14631
ক্ষনিক	-14632
▁রেফার	-14633
▁আকাশের	-14634
▁কারফিউ	-14635
▁বেআইনি	-14636
▁ভিয়েতন	-14637
▁হাউসের	-14638
▁আনোয়ারা	-14639
▁কালিহাত	-14640
▁বর্ধমান	-14641
▁দৌলতদিয়া	-14642
▁সমুদ্রের	-14643
▁কেমিক্যাল	-14644
▁বৃক্ষরোপণ	-14645
▁যথাযথভাবে	-14646
▁মুসল্লিদের	-14647
▁ইন্টারনেটের	-14648
▁বঙ্গবন্ধুকে	-14649
মুহ	-14650
যজ্ঞ	-14651
িবুর	-14652
▁তরু	-14653
ওয়াসহ	-14654
ursday	-14655
াম্প্র	-14656
▁কাছের	-14657
▁মইনুল	-14658
▁ম্যাথ	-14659
ব্যবহার	-14660
▁ক্লাসে	-14661
▁পাঠদান	-14662
▁বাইপাস	-14663
▁তারকারা	-14664
▁রাকিবুল	-14665
▁দূর্ঘটনা	-14666
ভারপ্রাপ্ত	-14667
▁দেখিয়েছেন	-14668
▁জাহাঙ্গীরনগর	-14669
▁শিক্ষাবর্ষের	-14670
খায়	-14671
বলে	-14672
শাচ	-14673
▁you	-14674
▁আদা	-14675
▁জনই	-14676
▁ডিক	-14677
য়েলের	-14678
▁উল্ল	-14679
▁কপিল	-14680
▁চাকর	-14681
▁দামি	-14682
▁পারা	-14683
▁মধুর	-14684
▁মনোর	-14685
▁শচীন	-14686
▁Satur	-14687
▁শুকনো	-14688
▁শৈলকুপ	-14689
▁ক্রিশ্চ	-14690
▁নায়িকার	-14691
পাকিস্তান	-14692
▁নামঞ্জুর	-14693
▁সুস্বাদু	-14694
▁সুশান্তের	-14695
পিজ	-14696
াগণ	-14697
াগৃহ	-14698
ালান	-14699
▁কোল	-14700
▁মজন	-14701
▁রইল	-14702
▁সেফ	-14703
▁১৬৪	-14704
টিয়ার	-14705
▁বিঘা	-14706
▁১০০০	-14707
ীক্ষায়	-14708
▁পাখির	-14709
▁আলিপুর	-14710
▁ইত্তেফ	-14711
▁করিমের	-14712
▁ছড়ানোর	-14713
▁জ্বালা	-14714
▁ঢাকাসহ	-14715
▁তিনবার	-14716
▁মেটাতে	-14717
▁ঘটিয়েছে	-14718
▁ফেডারেল	-14719
▁মোহামেড	-14720
▁সুবিধার	-14721
▁Saturday	-14722
▁পূর্ণিমা	-14723
▁ফিরছিলেন	-14724
▁বাগেরহাটে	-14725
▁সিঙ্গাপুরের	-14726
ov	-14727
tun	-14728
ভৌম	-14729
োটা	-14730
▁وَ	-14731
▁খড়	-14732
▁লস	-14733
টাইম	-14734
স্কর	-14735
▁অরফ	-14736
▁১লা	-14737
▁চারে	-14738
▁চিটা	-14739
▁দিয়া	-14740
▁ফ্লা	-14741
▁শংকর	-14742
াক্ষিক	-14743
▁আসবাব	-14744
▁ত্বকে	-14745
▁দেখান	-14746
▁লিঙ্গ	-14747
▁সুভাষ	-14748
বিপ্রবি	-14749
▁আবাহনী	-14750
▁উৎসর্গ	-14751
▁বেপারী	-14752
▁সবথেকে	-14753
▁আতঙ্কের	-14754
▁নাশকতার	-14755
▁বাকিদের	-14756
▁বানানোর	-14757
▁নৌবাহিনী	-14758
▁জালিয়াতির	-14759
▁স্বয়ংক্রিয়	-14760
▁উপনির্বাচনে	-14761
দহ	-14762
ংরা	-14763
করণে	-14764
চ্ছল	-14765
▁দয়া	-14766
opular	-14767
মিলিয়ে	-14768
সাইকেল	-14769
▁দুজনই	-14770
▁পেলেই	-14771
▁বৈধতা	-14772
▁সৈকতে	-14773
▁ফেনীতে	-14774
▁আবৃত্তি	-14775
▁প্রদত্ত	-14776
▁রাশিয়ায়	-14777
▁আইনজীবীদের	-14778
▁যুদ্ধবিমান	-14779
▁সুন্দরবনের	-14780
▁হাওলাদারের	-14781
▁স্টেডিয়ামের	-14782
ঁকে	-14783
লুর	-14784
্বংস	-14785
ড়ানো	-14786
▁বরফ	-14787
▁১৮০	-14788
views	-14789
▁আছড়ে	-14790
▁জুয়া	-14791
▁যেনো	-14792
ভারতের	-14793
▁ছোঁয়া	-14794
▁ডিমের	-14795
▁দামের	-14796
▁পড়ছেন	-14797
▁মাহবু	-14798
▁অপকর্ম	-14799
▁নামকরণ	-14800
▁পিএসসি	-14801
▁মোতালে	-14802
▁রমজানে	-14803
▁নেত্রকো	-14804
▁Thursday	-14805
▁অভ্যুত্থ	-14806
▁খোঁজাখুঁ	-14807
▁বঙ্গমাতা	-14808
▁মহেশখালী	-14809
▁শরীয়তপুর	-14810
▁শেরপুরের	-14811
▁নয়াপল্টনে	-14812
শর্ত	-14813
▁উরু	-14814
▁এমব	-14815
▁গিল	-14816
কন্যা	-14817
▁তেলা	-14818
▁ব্লে	-14819
▁২টায়	-14820
নির্ভর	-14821
▁অসন্ত	-14822
▁আমরাও	-14823
▁এমনকী	-14824
▁করতেও	-14825
▁দিনেও	-14826
▁পড়েনি	-14827
▁বুকের	-14828
▁নিকটতম	-14829
▁গুলশানে	-14830
▁বৈচিত্র	-14831
▁সমুদ্রে	-14832
▁এপ্রিলের	-14833
▁দৈনন্দিন	-14834
▁বৃদ্ধিতে	-14835
▁মানচিত্র	-14836
▁আমন্ত্রিত	-14837
▁Janakantha	-14838
IL	-14839
ফলে	-14840
▁Sa	-14841
বাবু	-14842
▁এপি	-14843
▁কোত	-14844
▁পরম	-14845
▁ভিল	-14846
স্টের	-14847
▁আমেজ	-14848
▁ত্যা	-14849
▁নবান	-14850
▁শরিক	-14851
▁উজ্জল	-14852
▁কাটছে	-14853
▁বার্ধ	-14854
▁বিবিধ	-14855
▁বেক্স	-14856
▁ম্যাল	-14857
▁সময়েই	-14858
▁Shomoy	-14859
▁প্রগতি	-14860
▁সিরিয়া	-14861
▁কলাপাড়া	-14862
▁পেরেছেন	-14863
▁প্রথমেই	-14864
▁বিকাশের	-14865
▁হ্যাকার	-14866
▁আফ্রিকায়	-14867
▁কার্যকার	-14868
▁প্রযোজ্য	-14869
▁সভানেত্রী	-14870
▁দ্বিতীয়বারের	-14871
এনএ	-14872
জিল	-14873
ধাও	-14874
সীন	-14875
▁কড়	-14876
াহিত	-14877
▁মাফ	-14878
ylhet	-14879
ধর্মী	-14880
নিষেধ	-14881
সিসির	-14882
ুযায়ী	-14883
▁গুণী	-14884
▁ডিভো	-14885
▁পরিম	-14886
▁বাউল	-14887
▁মহোদ	-14888
▁লুইস	-14889
▁আসতেই	-14890
বাজারের	-14891
▁উত্তেজিত	-14892
▁চৌধুরীকে	-14893
▁পরিপূর্ণ	-14894
▁মঠবাড়িয়া	-14895
▁যথাযোগ্য	-14896
▁সেচ্ছাসেব	-14897
▁অস্থিতিশীল	-14898
▁প্রেক্ষাগৃহ	-14899
▁স্ট্যান্ডার্ড	-14900
থী	-14901
▁Mo	-14902
▁ইনস	-14903
▁স্যা	-14904
ভাইজার	-14905
▁উদঘাট	-14906
▁প্রসব	-14907
▁ফেয়ার	-14908
▁শিষ্য	-14909
▁সোহান	-14910
▁হ্যার	-14911
▁কৃষ্ণা	-14912
▁জবাবদি	-14913
▁বানিয়া	-14914
▁মতিঝিল	-14915
▁ছেড়েছেন	-14916
▁ট্র্যাক	-14917
▁ভোররাতে	-14918
▁রাশেদুল	-14919
▁সোচ্চার	-14920
▁মাহফিলের	-14921
▁পারস্পরিক	-14922
▁মাদকাসক্ত	-14923
আহ	-14924
ond	-14925
হাতে	-14926
েসিং	-14927
▁৯৯৯	-14928
টাঙ্গ	-14929
▁Desh	-14930
▁অনিল	-14931
▁গৌরন	-14932
▁ভিশন	-14933
▁মানি	-14934
▁মুভি	-14935
টিআরসি	-14936
▁Ajker	-14937
▁ডিউটি	-14938
▁বিড়াল	-14939
▁আবহাওয়	-14940
▁তুঙ্গে	-14941
▁পেশাগত	-14942
▁বিষয়টা	-14943
▁আশঙ্কায়	-14944
▁খানিকটা	-14945
▁নড়াইলের	-14946
▁মাগুরায়	-14947
▁মার্টিন	-14948
▁মুর্শিদ	-14949
▁মাগফিরাত	-14950
▁মুহুর্তে	-14951
▁কর্মকান্ড	-14952
▁সর্বকালের	-14953
▁ষড়যন্ত্রের	-14954
ারত	-14955
▁Tr	-14956
খালি	-14957
▁কনক	-14958
▁কনে	-14959
▁পুঠ	-14960
▁বুম	-14961
▁শেল	-14962
দুয়ার	-14963
নিরাপ	-14964
▁খরচে	-14965
▁বণিক	-14966
▁যাপন	-14967
▁লাখো	-14968
▁সেশন	-14969
▁Media	-14970
▁আদায়ে	-14971
▁বক্কর	-14972
▁শামিম	-14973
▁সুয়ার	-14974
▁হলিউড	-14975
▁কারিনা	-14976
▁গোপনীয়	-14977
▁তদারকি	-14978
▁পাল্লা	-14979
▁ফুটিয়ে	-14980
▁বিচারে	-14981
▁অ্যাটাক	-14982
▁মেডিসিন	-14983
▁নাগরিককে	-14984
▁সঞ্চালনা	-14985
▁ওয়ার্কার্স	-14986
▁ভূমিকম্পের	-14987
▁সদস্যবৃন্দ	-14988
পট	-14989
আনের	-14990
এমএস	-14991
গড়ের	-14992
দুর্	-14993
▁গুর	-14994
▁নাত	-14995
▁নিস	-14996
ঞ্ছিত	-14997
▁View	-14998
▁ইমেজ	-14999
▁এমডি	-15000
▁টাউন	-15001
▁ভদ্র	-15002
▁মোড়ক	-15003
▁৬ষ্ঠ	-15004
ournal	-15005
িষ্ট্র	-15006
্ক্রিয়	-15007
▁প্রথা	-15008
▁বিত্ত	-15009
▁যোদ্ধ	-15010
▁ছক্কায়	-15011
▁ভালুকা	-15012
▁যেগুলো	-15013
▁উন্নতির	-15014
▁মহিলাকে	-15015
▁হাতিয়ার	-15016
▁হুয়াওয়ে	-15017
▁বিনাশ্রম	-15018
▁মুশফিকের	-15019
▁সবমিলিয়ে	-15020
▁উদ্বোধনের	-15021
▁সংস্কৃতির	-15022
▁লক্ষ্মীপুরের	-15023
ans	-15024
now	-15025
rab	-15026
▁it	-15027
শাহী	-15028
স্টচ	-15029
াদেব	-15030
ৃশ্য	-15031
▁খোক	-15032
▁চৌর	-15033
▁মেদ	-15034
▁মোগ	-15035
▁জননী	-15036
▁সাজু	-15037
বিজিবি	-15038
িস্কার	-15039
▁দিয়েও	-15040
▁বিধবা	-15041
▁বোনকে	-15042
বাহিনীর	-15043
বিধানিক	-15044
▁অন্ধ্র	-15045
▁কাঠামো	-15046
▁কুয়াশা	-15047
▁পঞ্চাশ	-15048
▁উপার্জন	-15049
▁গোল্ডেন	-15050
▁নার্সিং	-15051
▁পাইকারি	-15052
▁বলছিলেন	-15053
▁রিয়ালের	-15054
▁পৌঁছেছেন	-15055
▁ইউরোপিয়ান	-15056
▁ছিনতাইয়ের	-15057
▁নয়াদিল্লি	-15058
▁সাহিত্যিক	-15059
▁বাংলাদেশেও	-15060
▁সংবাদপত্রের	-15061
নব	-15062
▁@	-15063
রবি	-15064
▁Is	-15065
▁বশ	-15066
ীয়ান	-15067
▁ছায়	-15068
▁ইনশা	-15069
▁গড়েন	-15070
▁নাতি	-15071
▁রয়েল	-15072
▁তাড়াশ	-15073
▁দিতেন	-15074
▁মফস্ব	-15075
▁খলিলুর	-15076
▁চুনারু	-15077
▁দেড়টার	-15078
▁সংবাদে	-15079
▁হাইড্র	-15080
▁কার্ডের	-15081
▁কুকুরের	-15082
▁ফাল্গুন	-15083
▁সমাপ্তি	-15084
▁অতিথিদের	-15085
▁জানাজানি	-15086
▁নুসরাতের	-15087
▁ভাবমূর্তি	-15088
▁মানবতাবিরোধী	-15089
সড়	-15090
িরি	-15091
iday	-15092
লিমা	-15093
২০২২	-15094
▁not	-15095
▁বেড	-15096
মেয়ের	-15097
্লোমা	-15098
▁আরবি	-15099
▁কাবা	-15100
▁জনৈক	-15101
▁জামা	-15102
▁লীগে	-15103
▁১৪৪২	-15104
▁দূর্গ	-15105
▁বুয়েট	-15106
▁যাননি	-15107
▁অতীতের	-15108
▁অর্জিত	-15109
▁অশ্বিন	-15110
▁ইনজুরি	-15111
▁কান্না	-15112
▁ধূমপান	-15113
▁বাল্যব	-15114
▁সরোয়ার	-15115
▁সিনহার	-15116
▁অরফানেজ	-15117
▁সিলেবাস	-15118
▁সেখানেও	-15119
▁অ্যাঞ্জেল	-15120
▁মুহাম্মাদ	-15121
▁উচ্চশিক্ষা	-15122
▁প্রস্তুতির	-15123
▁প্রতিবেশীরা	-15124
▁সেন্টিমিটার	-15125
▁৭ই	-15126
ত্বর	-15127
বাইল	-15128
িপাল	-15129
▁খিল	-15130
▁বসা	-15131
▁সিট	-15132
দ্রোহ	-15133
▁Most	-15134
▁এমবি	-15135
▁কখনই	-15136
▁চুলে	-15137
▁মহার	-15138
▁রাজপ	-15139
সমূহের	-15140
▁গুদাম	-15141
▁চক্ষু	-15142
▁প্যাল	-15143
বার্তায়	-15144
শ্রেষ্ঠ	-15145
▁আনিছুর	-15146
▁উত্তরণ	-15147
▁এন্ড্র	-15148
▁জিম্মি	-15149
▁প্রসার	-15150
ময়মনসিংহ	-15151
▁ব্রিফিং	-15152
▁জ্বালিয়ে	-15153
▁পুনর্বাসন	-15154
▁সংখ্যাগরি	-15155
▁উপাচার্যের	-15156
▁করোনাকালীন	-15157
▁সরকারিভাবে	-15158
▁সাময়িকভাবে	-15159
▁স্ট্রাইকার	-15160
▁ধারাবাহিকতা	-15161
▁ম্যাজিষ্ট্র	-15162
োফ	-15163
াঁক	-15164
thom	-15165
্যাহ	-15166
্লাদ	-15167
▁App	-15168
▁গাম	-15169
জন্যে	-15170
পাচার	-15171
▁Desk	-15172
▁কাঁপ	-15173
▁গাজা	-15174
▁হাদী	-15175
▁আমানত	-15176
[...]
