<unk>	0
<s>	0
</s>	0
<pad>	0
<|user|>	0
<|assistant|>	0
<|end|>	0
<|system|>	0
<|pad|>	0
<|sep|>	0
<|cls|>	0
<|mask|>	0
<0x00>	0
<0x01>	0
<0x02>	0
<0x03>	0
<0x04>	0
<0x05>	0
<0x06>	0
<0x07>	0
<0x08>	0
<0x09>	0
<0x0A>	0
<0x0B>	0
<0x0C>	0
<0x0D>	0
<0x0E>	0
<0x0F>	0
<0x10>	0
<0x11>	0
<0x12>	0
<0x13>	0
<0x14>	0
<0x15>	0
<0x16>	0
<0x17>	0
<0x18>	0
<0x19>	0
<0x1A>	0
<0x1B>	0
<0x1C>	0
<0x1D>	0
<0x1E>	0
<0x1F>	0
<0x20>	0
<0x21>	0
<0x22>	0
<0x23>	0
<0x24>	0
<0x25>	0
<0x26>	0
<0x27>	0
<0x28>	0
<0x29>	0
<0x2A>	0
<0x2B>	0
<0x2C>	0
<0x2D>	0
<0x2E>	0
<0x2F>	0
<0x30>	0
<0x31>	0
<0x32>	0
<0x33>	0
<0x34>	0
<0x35>	0
<0x36>	0
<0x37>	0
<0x38>	0
<0x39>	0
<0x3A>	0
<0x3B>	0
<0x3C>	0
<0x3D>	0
<0x3E>	0
<0x3F>	0
<0x40>	0
<0x41>	0
<0x42>	0
<0x43>	0
<0x44>	0
<0x45>	0
<0x46>	0
<0x47>	0
<0x48>	0
<0x49>	0
<0x4A>	0
<0x4B>	0
<0x4C>	0
<0x4D>	0
<0x4E>	0
<0x4F>	0
<0x50>	0
<0x51>	0
<0x52>	0
<0x53>	0
<0x54>	0
<0x55>	0
<0x56>	0
<0x57>	0
<0x58>	0
<0x59>	0
<0x5A>	0
<0x5B>	0
<0x5C>	0
<0x5D>	0
<0x5E>	0
<0x5F>	0
<0x60>	0
<0x61>	0
<0x62>	0
<0x63>	0
<0x64>	0
<0x65>	0
<0x66>	0
<0x67>	0
<0x68>	0
<0x69>	0
<0x6A>	0
<0x6B>	0
<0x6C>	0
<0x6D>	0
<0x6E>	0
<0x6F>	0
<0x70>	0
<0x71>	0
<0x72>	0
<0x73>	0
<0x74>	0
<0x75>	0
<0x76>	0
<0x77>	0
<0x78>	0
<0x79>	0
<0x7A>	0
<0x7B>	0
<0x7C>	0
<0x7D>	0
<0x7E>	0
<0x7F>	0
<0x80>	0
<0x81>	0
<0x82>	0
<0x83>	0
<0x84>	0
<0x85>	0
<0x86>	0
<0x87>	0
<0x88>	0
<0x89>	0
<0x8A>	0
<0x8B>	0
<0x8C>	0
<0x8D>	0
<0x8E>	0
<0x8F>	0
<0x90>	0
<0x91>	0
<0x92>	0
<0x93>	0
<0x94>	0
<0x95>	0
<0x96>	0
<0x97>	0
<0x98>	0
<0x99>	0
<0x9A>	0
<0x9B>	0
<0x9C>	0
<0x9D>	0
<0x9E>	0
<0x9F>	0
<0xA0>	0
<0xA1>	0
<0xA2>	0
<0xA3>	0
<0xA4>	0
<0xA5>	0
<0xA6>	0
<0xA7>	0
<0xA8>	0
<0xA9>	0
<0xAA>	0
<0xAB>	0
<0xAC>	0
<0xAD>	0
<0xAE>	0
<0xAF>	0
<0xB0>	0
<0xB1>	0
<0xB2>	0
<0xB3>	0
<0xB4>	0
<0xB5>	0
<0xB6>	0
<0xB7>	0
<0xB8>	0
<0xB9>	0
<0xBA>	0
<0xBB>	0
<0xBC>	0
<0xBD>	0
<0xBE>	0
<0xBF>	0
<0xC0>	0
<0xC1>	0
<0xC2>	0
<0xC3>	0
<0xC4>	0
<0xC5>	0
<0xC6>	0
<0xC7>	0
<0xC8>	0
<0xC9>	0
<0xCA>	0
<0xCB>	0
<0xCC>	0
<0xCD>	0
<0xCE>	0
<0xCF>	0
<0xD0>	0
<0xD1>	0
<0xD2>	0
<0xD3>	0
<0xD4>	0
<0xD5>	0
<0xD6>	0
<0xD7>	0
<0xD8>	0
<0xD9>	0
<0xDA>	0
<0xDB>	0
<0xDC>	0
<0xDD>	0
<0xDE>	0
<0xDF>	0
<0xE0>	0
<0xE1>	0
<0xE2>	0
<0xE3>	0
<0xE4>	0
<0xE5>	0
<0xE6>	0
<0xE7>	0
<0xE8>	0
<0xE9>	0
<0xEA>	0
<0xEB>	0
<0xEC>	0
<0xED>	0
<0xEE>	0
<0xEF>	0
<0xF0>	0
<0xF1>	0
<0xF2>	0
<0xF3>	0
<0xF4>	0
<0xF5>	0
<0xF6>	0
<0xF7>	0
<0xF8>	0
<0xF9>	0
<0xFA>	0
<0xFB>	0
<0xFC>	0
<0xFD>	0
<0xFE>	0
<0xFF>	0
।	-2.99889
,	-3.57515
▁ও	-4.75423
র	-4.80174
ের	-4.86976
-	-4.92396
▁	-5.03283
:	-5.09182
▁করে	-5.12582
▁থেকে	-5.29169
▁এ	-5.33136
▁(	-5.37626
)	-5.37922
▁করা	-5.42407
▁হয়েছে	-5.45157
'	-5.51473
▁হয়	-5.52937
▁এই	-5.54844
.	-5.58192
▁না	-5.67581
▁তিনি	-5.7043
▁।	-5.71326
▁এবং	-5.73981
▁'	-5.78327
কে	-5.86409
▁হবে	-5.89462
▁তার	-5.91393
▁এক	-5.9158
▁নিয়ে	-5.91948
▁বলেন	-5.91971
▁জন্য	-5.9483
2	-5.98976
▁করেন	-6.04832
▁একটি	-6.05822
ও	-6.09014
ে	-6.12836
ই	-6.15759
▁করতে	-6.21251
▁এর	-6.24006
▁সময়	-6.25477
0	-6.296
▁মধ্যে	-6.31944
▁হয়ে	-6.35266
1	-6.35894
▁বলে	-6.3784
▁সঙ্গে	-6.38298
▁:	-6.38887
▁পর	-6.40064
▁পুলিশ	-6.45031
▁জানান	-6.45068
▁তাদের	-6.50042
▁আর	-6.51772
▁জন	-6.51791
▁করেছে	-6.54515
▁-	-6.54536
▁হাজার	-6.54844
▁যায়	-6.58997
▁বাংলাদেশ	-6.6032
▁করেছেন	-6.61224
সহ	-6.615
▁তবে	-6.62396
▁দিয়ে	-6.63292
▁শুরু	-6.65103
▁গত	-6.65218
▁কথা	-6.70128
▁উপজেলা	-6.74866
▁হচ্ছে	-6.75471
▁যে	-6.77093
▁ওই	-6.77355
▁দুই	-6.7791
▁তারা	-6.80406
▁বিভিন্ন	-6.80997
▁ইসলাম	-6.81676
▁নতুন	-6.82362
▁জেলা	-6.8252
▁রয়েছে	-6.82698
▁করার	-6.8343
▁ছিলেন	-6.84396
▁আগে	-6.84647
4	-6.86876
▁আজ	-6.872
▁পর্যন্ত	-6.9019
তে	-6.91011
▁টাকা	-6.91657
▁কাজ	-6.94048
▁সম্পাদক	-6.94171
▁মো	-6.94905
▁হিসেবে	-6.95453
▁হোসেন	-6.95697
▁রহমান	-6.9613
▁গেছে	-6.96336
▁উপজেলার	-6.96514
▁কিন্তু	-6.97112
▁করোনা	-6.97523
▁আরও	-6.9763
▁তাকে	-6.97711
▁প্রথম	-6.98105
▁ঢাকা	-6.98263
▁বছর	-6.99673
▁সেই	-7.00048
▁–	-7.01027
▁জাতীয়	-7.02794
▁তা	-7.0354
▁১০	-7.03717
▁প্রধান	-7.04443
▁ছিল	-7.04485
য়	-7.04739
▁আমরা	-7.05264
▁খবর	-7.07331
▁পারে	-7.08774
▁কোনো	-7.09379
▁দেশের	-7.09568
▁দিন	-7.09712
▁দেখা	-7.11338
▁সভাপতি	-7.11517
▁পরে	-7.11758
▁১	-7.11769
▁জানা	-7.12331
▁বিরুদ্ধে	-7.12793
▁বা	-7.12896
▁২	-7.12983
▁সাথে	-7.13156
▁দিকে	-7.13213
▁আমাদের	-7.13365
▁এখন	-7.13843
▁শেখ	-7.1441
▁২০২০	-7.16292
দের	-7.16896
▁সাধারণ	-7.17624
▁২০২১	-7.18232
▁সব	-7.18405
▁হতে	-7.19718
▁লাখ	-7.19837
▁শেষ	-7.20275
▁দেওয়া	-7.21149
টি	-7.21301
▁কাছে	-7.21381
▁প্রকাশ	-7.21685
▁উদ্ধার	-7.22191
▁তথ্য	-7.2271
▁সরকার	-7.23194
▁কর্মকর্তা	-7.24103
▁কিছু	-7.24166
▁সদস্য	-7.24248
▁বেশি	-7.24297
▁৩	-7.243
▁মাধ্যমে	-7.24484
▁বুধবার	-7.24576
▁৫	-7.24727
▁সোমবার	-7.26311
▁সে	-7.26521
▁মঙ্গলবার	-7.27121
▁আমি	-7.27902
▁বৃহস্পতিবার	-7.28074
▁হাসপাতালে	-7.28222
▁অভিযোগ	-7.29188
▁চেয়ারম্যান	-7.31507
▁নিহত	-7.31539
▁মে	-7.31919
▁মৃত্যু	-7.31928
▁২০১৯	-7.3316
▁কারণে	-7.33426
▁নেই	-7.33898
!	-7.33928
▁৪	-7.34026
▁প্রধানমন্ত্রী	-7.34125
▁আওয়ামী	-7.34163
▁প্রকাশিত	-7.34242
▁এলাকায়	-7.34801
▁আটক	-7.34988
▁শনিবার	-7.35388
▁অনেক	-7.35627
▁উপস্থিত	-7.35684
▁অনুষ্ঠিত	-7.36491
▁প্রায়	-7.3673
▁ডেস্ক	-7.37349
▁ছেলে	-7.37729
▁নয়	-7.37973
▁আমার	-7.38406
▁দেন	-7.38974
▁শুক্রবার	-7.3943
▁বিষয়ে	-7.39479
▁আছে	-7.39537
▁সংবাদ	-7.39747
▁২৪	-7.40505
▁১২	-7.40565
▁জানিয়েছেন	-7.42307
▁হয়েছেন	-7.43146
/	-7.43408
▁দেশে	-7.43411
▁তিন	-7.44286
▁আক্রান্ত	-7.44351
▁এমন	-7.44763
রা	-7.46044
।'	-7.46139
▁গ্রামের	-7.46293
▁নিশ্চিত	-7.46898
▁বড়	-7.46901
▁১১	-7.46981
▁ঘোষণা	-7.46996
▁৬	-7.47358
▁করছে	-7.47598
▁হলে	-7.47788
▁বাংলাদেশের	-7.48701
▁তাই	-7.49559
▁যাবে	-7.49632
▁থানার	-7.49836
▁এতে	-7.49944
▁ধরে	-7.50217
▁নাম	-7.50389
▁সকাল	-7.50502
▁বন্ধ	-7.50799
3	-7.50981
▁বছরের	-7.51037
▁News	-7.51147
▁স্বাস্থ্য	-7.51285
▁আগামী	-7.51352
9	-7.51354
▁দলের	-7.5146
▁এবার	-7.52098
▁মামলা	-7.52213
▁বিশেষ	-7.52217
▁বলা	-7.52955
▁২০	-7.53084
▁দল	-7.53433
ন	-7.53514
▁ঘটনা	-7.54161
▁দিতে	-7.54256
▁খান	-7.54326
▁কোটি	-7.55076
▁দেয়া	-7.55239
▁ঘটনায়	-7.55354
▁স্থানীয়	-7.55482
▁অক্টোবর	-7.55549
▁আরো	-7.55983
▁৭	-7.56073
▁১৫	-7.56402
▁দাবি	-7.56775
▁মানুষ	-7.56904
▁জুন	-7.56914
▁নিউজ	-7.57017
▁সাবেক	-7.57067
▁পাওয়া	-7.57149
▁সেপ্টেম্বর	-7.5775
▁মতো	-7.57828
5	-7.57879
▁জুলাই	-7.58443
▁মার্চ	-7.58942
▁কোন	-7.59058
▁মানুষের	-7.5959
▁সদর	-7.59877
▁Home	-7.59988
▁একজন	-7.6059
?	-7.60608
▁প্রতি	-7.6076
7	-7.62192
▁আহত	-7.62219
ি	-7.63382
▁নামে	-7.64167
▁৮	-7.64307
▁ইউনিয়নের	-7.64642
▁আপডেট	-7.65067
▁এপ্রিল	-7.65154
▁সহ	-7.6525
▁পুলিশের	-7.65367
com	-7.66063
▁যা	-7.66209
▁রাতে	-7.66303
▁ছবি	-7.66543
▁এসব	-7.67169
▁তাঁর	-7.67352
▁বিষয়টি	-7.67545
▁সকালে	-7.67871
8	-7.68113
▁গিয়ে	-7.68731
▁সালে	-7.69041
▁জনের	-7.69042
া	-7.69286
▁আলী	-7.69706
▁হওয়ার	-7.69953
▁তৈরি	-7.70293
▁আন্তর্জাতিক	-7.70355
▁পড়ে	-7.70592
▁লীগের	-7.70716
স	-7.7091
▁করছেন	-7.71695
▁"	-7.71778
▁৯	-7.71957
▁ভারতের	-7.72416
▁শেষে	-7.72538
▁নভেম্বর	-7.72581
▁জানুয়ারি	-7.72816
▁রাত	-7.72837
▁গ্রেফতার	-7.72855
▁বলেছেন	-7.72872
▁এলাকার	-7.73285
▁হক	-7.73604
▁সেখানে	-7.7389
▁নেতা	-7.74273
▁মোঃ	-7.74319
▁যাচ্ছে	-7.75328
▁সরকারি	-7.75873
▁মনে	-7.7615
▁নারী	-7.76196
▁দিয়েছেন	-7.76233
▁বাড়ি	-7.76495
▁১৪	-7.76686
▁সংখ্যা	-7.76953
▁ব্যবস্থা	-7.76968
▁সামনে	-7.76983
▁শিক্ষা	-7.77041
6	-7.77052
▁২০১৮	-7.77091
▁একই	-7.77351
▁দিয়েছে	-7.77622
▁ডিসেম্বর	-7.77652
▁নির্বাচন	-7.77685
▁বেশ	-7.77769
▁টি	-7.77912
▁দেশ	-7.77967
▁অংশ	-7.77986
▁মোহাম্মদ	-7.79254
▁কি	-7.79692
▁সালের	-7.79739
▁হলো	-7.80455
ী	-7.80994
▁অনুষ্ঠানে	-7.81117
▁পরীক্ষা	-7.81131
▁সিদ্ধান্ত	-7.81304
▁থাকে	-7.81432
▁জানিয়েছে	-7.81536
▁মারা	-7.81991
▁এটি	-7.82199
▁নিজের	-7.82583
▁কলেজ	-7.82667
▁দ্বিতীয়	-7.82758
▁হাসান	-7.83026
▁আলম	-7.83544
▁আল	-7.84017
▁আগস্ট	-7.84389
▁ভালো	-7.8513
▁দেয়	-7.85247
▁পরিবারের	-7.85275
▁উদ্দিন	-7.85291
▁হন	-7.85486
▁পেয়ে	-7.85593
▁এরপর	-7.85832
▁ওপর	-7.85876
▁থাকা	-7.8599
▁যান	-7.86104
▁সরকারের	-7.86162
▁চৌধুরী	-7.86296
▁ভর্তি	-7.8681
▁মোট	-7.87115
▁চেষ্টা	-7.87387
▁তুলে	-7.87428
▁১৩	-7.87518
▁বাংলা	-7.8753
▁হাতে	-7.87561
▁করবে	-7.88277
▁প্রতিনিধি	-7.88589
▁এম	-7.88697
▁ফলে	-7.89159
▁১৮	-7.89219
▁অভিযান	-7.89499
▁গতকাল	-7.89675
▁১৬	-7.89675
▁মা	-7.89844
▁ব্যবহার	-7.9039
▁ড	-7.90446
▁থানায়	-7.90519
▁সাড়ে	-7.90806
▁১৭	-7.91112
▁৩০	-7.91246
▁অবস্থায়	-7.91266
▁ঘটে	-7.92989
▁দু	-7.93376
▁পাশাপাশি	-7.93709
▁এছাড়া	-7.93823
▁পরিচালক	-7.93912
▁আলোচনা	-7.94011
▁আহমেদ	-7.94287
▁চলছে	-7.94316
▁১৯	-7.94522
▁নির্বাহী	-7.94532
▁করবেন	-7.94569
▁ধরনের	-7.9551
▁বক্তব্য	-7.95786
▁কারণ	-7.95993
▁কেউ	-7.96007
▁রোববার	-7.96012
▁জেলার	-7.96203
▁বিএনপি	-7.96257
▁নিতে	-7.96305
▁থাকবে	-7.96498
▁বিভাগের	-7.96724
▁কে	-7.97197
▁২১	-7.97329
▁দুপুরে	-7.9771
▁কম	-7.98329
▁হয়েছিল	-7.98753
▁রবিবার	-7.98908
▁এসময়	-7.99443
▁হত্যা	-7.99741
▁চার	-8.00045
▁ফেব্রুয়ারি	-8.00451
▁এদিকে	-8.00696
▁অফিসার	-8.00955
▁হয়নি	-8.01179
▁আদালত	-8.01681
▁কমিটির	-8.01923
▁শতাংশ	-8.02446
▁মাঝে	-8.02481
▁২৫	-8.02655
▁দক্ষিণ	-8.02815
▁বিএনপির	-8.03314
▁ভারত	-8.03321
▁যদি	-8.03347
▁২২	-8.0339
▁ক্রিকেট	-8.03675
▁জানায়	-8.03869
▁বিতরণ	-8.04442
১	-8.0448
▁জানানো	-8.04765
▁আব্দুল	-8.0483
▁অপরাহ্ণ	-8.04948
▁থেকেই	-8.05449
▁স্ত্রী	-8.05524
▁ভারতীয়	-8.06052
▁সিলেট	-8.06158
▁ইউনিয়ন	-8.06441
▁দিনের	-8.06589
▁কেন্দ্রীয়	-8.06881
▁বাড়িতে	-8.07485
▁নেওয়া	-8.08035
▁উত্তর	-8.08186
▁শিশু	-8.08306
▁শিক্ষক	-8.08422
▁রান	-8.08749
▁অনলাইন	-8.08958
▁সকল	-8.08986
এর	-8.09749
▁চট্টগ্রাম	-8.10067
▁হওয়া	-8.1022
▁এসে	-8.10816
▁রেখে	-8.11132
▁সভায়	-8.11261
▁ডা	-8.11456
▁অন্য	-8.11671
▁ছাড়া	-8.11695
১৯	-8.11699
▁ঘটনার	-8.11888
▁দৈনিক	-8.12403
▁খুব	-8.12836
s	-8.13266
▁দুটি	-8.13599
▁উপলক্ষে	-8.13729
▁আ	-8.1375
▁ভিডিও	-8.14405
▁সময়ে	-8.14563
▁মাঠে	-8.14888
▁পালন	-8.14983
▁ম্যাচে	-8.15061
▁অনুযায়ী	-8.15086
▁একটা	-8.15453
▁বিশ্ববিদ্যালয়ের	-8.15473
▁অতিথি	-8.15583
▁চলে	-8.15661
▁মার্কিন	-8.15703
▁করোনায়	-8.15752
▁ম্যাচ	-8.16027
▁মামলার	-8.16224
▁সড়ক	-8.16234
▁সুযোগ	-8.16495
▁লাশ	-8.17109
▁২৩	-8.17145
▁মেডিকেল	-8.17209
▁আইন	-8.17298
এ	-8.17586
▁/	-8.17873
▁সামাজিক	-8.17988
▁রাখা	-8.1813
▁মৃত	-8.18292
▁দায়িত্ব	-8.18501
▁যেতে	-8.18598
▁নির্বাচনে	-8.19237
▁আবার	-8.19316
▁বঙ্গবন্ধু	-8.19458
▁রাজধানীর	-8.19529
▁থানা	-8.19658
▁গ্রহণ	-8.19664
▁অতিরিক্ত	-8.19823
▁জয়	-8.19979
▁পাশে	-8.20078
▁মামলায়	-8.20175
▁যাওয়ার	-8.20206
▁আবেদন	-8.20356
▁সংসদ	-8.20485
▁প্রেসিডেন্ট	-8.20554
▁বার	-8.20583
▁পরিষদের	-8.20834
▁সবচেয়ে	-8.21046
▁মিয়া	-8.21388
▁হল	-8.21467
▁মাস	-8.21914
▁তদন্ত	-8.22226
▁ভোট	-8.22422
▁মাদক	-8.22552
▁বর্তমানে	-8.22636
▁সম্প্রতি	-8.2284
▁সভা	-8.2292
▁পারেন	-8.22991
▁অন্যান্য	-8.23186
▁পাঠানো	-8.23351
▁এগিয়ে	-8.23368
▁শুধু	-8.23581
▁সুপার	-8.24141
▁আদালতে	-8.24333
▁হলেন	-8.24343
▁পাঁচ	-8.24491
▁লীগ	-8.24531
▁এটা	-8.24837
▁প্রাথমিক	-8.25182
▁পক্ষ	-8.25274
▁হাসিনা	-8.25454
▁উপর	-8.25492
▁নানা	-8.25525
▁প্রদান	-8.25659
▁আপনার	-8.25818
▁শনাক্ত	-8.25931
▁তখন	-8.26365
▁দেওয়ার	-8.27554
▁গ্রেপ্তার	-8.27901
টা	-8.27982
▁আসে	-8.2827
▁রায়	-8.2855
▁করলে	-8.28567
▁হামলা	-8.28708
▁আয়োজন	-8.28724
▁উন্নয়ন	-8.28846
▁বিয়ে	-8.29236
"	-8.29262
▁বেগম	-8.29465
▁মেয়র	-8.29477
▁নির্দেশ	-8.29688
▁কোনও	-8.29752
▁চালিয়ে	-8.29783
▁দেখে	-8.30215
▁উদ্বোধন	-8.30322
▁সহকারী	-8.30622
▁চিকিৎসা	-8.30658
▁দেখতে	-8.30715
▁থাকতে	-8.31055
▁বের	-8.31104
▁যাওয়া	-8.31117
▁২৬	-8.31134
]	-8.31171
▁অধ্যাপক	-8.31178
▁সূত্রে	-8.31275
▁হলেও	-8.31309
▁ব্যাপারে	-8.3144
▁যারা	-8.31648
▁প্রার্থী	-8.32287
▁বিপক্ষে	-8.32353
▁পরিবার	-8.3244
ল	-8.32737
▁দ্রুত	-8.32765
▁করোনার	-8.32933
▁নিজ	-8.33168
▁বিশ্ব	-8.33217
▁সচিব	-8.33395
▁পানি	-8.33562
▁অবস্থান	-8.33806
▁নেয়া	-8.33995
▁করি	-8.34008
▁অর্থ	-8.34136
ঃ	-8.3444
▁বাবা	-8.34449
▁কুমার	-8.34503
▁পরিচালনা	-8.35003
▁রয়েছেন	-8.3532
▁বাংলাদেশে	-8.35729
▁রাখেন	-8.35754
▁উপ	-8.35969
▁গেছেন	-8.35996
▁দাম	-8.36027
২	-8.3639
▁ক্ষেত্রে	-8.36399
▁শহরের	-8.36715
▁সাংবাদিক	-8.36806
▁নম্বর	-8.37025
▁২০১৭	-8.37713
▁যোগাযোগ	-8.37806
▁আছেন	-8.38123
▁মাত্র	-8.38134
▁সমস্যা	-8.38602
▁কার্যক্রম	-8.38724
▁অব	-8.38786
▁বাজার	-8.38831
▁দায়ের	-8.38955
▁নিজস্ব	-8.39202
▁সর্বোচ্চ	-8.39211
▁২৮	-8.39221
▁নামের	-8.39371
▁কী	-8.394
▁যখন	-8.3944
▁বিশ্বের	-8.39698
▁মন্তব্য	-8.39767
▁যার	-8.39821
▁মোবাইল	-8.3992
▁»	-8.39923
▁২৭	-8.39926
▁কয়েক	-8.40053
▁পিএম	-8.40176
▁রাখতে	-8.40456
▁পরিস্থিতি	-8.40682
▁ভারপ্রাপ্ত	-8.40812
▁চেয়ে	-8.4109
▁সম্পর্কে	-8.41263
▁করুন	-8.41282
▁গ্রামে	-8.41473
▁টাকার	-8.41551
▁এসেছে	-8.41649
▁সংস্থা	-8.41671
▁ছোট	-8.41795
▁অভিনয়	-8.41847
▁যেন	-8.41897
▁পরিষদ	-8.41939
▁মন্ত্রী	-8.42563
▁স্কুল	-8.42843
▁মুক্তি	-8.43043
▁প্রমুখ	-8.43269
▁অভিযোগে	-8.43337
▁কমিটি	-8.43738
▁তো	-8.43915
▁খালেদা	-8.44017
▁বাজারে	-8.4406
▁আসা	-8.44134
▁দিবস	-8.44151
▁নিরাপত্তা	-8.44509
▁থাকার	-8.44842
▁জানতে	-8.44919
▁সভাপতিত্বে	-8.45039
▁প্রতিষ্ঠান	-8.45228
▁এলাকা	-8.45401
▁দেশটির	-8.45615
▁সম্ভব	-8.45763
▁ছাত্র	-8.4579
▁বিভাগ	-8.45926
▁সিটি	-8.46047
▁৫০	-8.4605
▁আবু	-8.46052
▁ঠিক	-8.46133
▁আগুন	-8.4623
ক	-8.46461
▁যোগ	-8.46583
▁স্থানে	-8.46878
▁পথে	-8.46901
▁বেড়ে	-8.47131
▁হাত	-8.47457
▁তাহলে	-8.477
(	-8.47708
▁জানিয়ে	-8.47888
▁মেয়ে	-8.47914
▁মৃত্যুর	-8.48005
▁দিনে	-8.48125
▁টিকা	-8.48171
▁পারবেন	-8.48411
▁বিক্রি	-8.4889
▁আহমদ	-8.49249
▁কাদের	-8.49261
▁জীবন	-8.49364
▁কেন্দ্র	-8.49369
;	-8.49421
▁২০২২	-8.49632
▁ভাই	-8.49864
▁ওসি	-8.49883
▁সৌদি	-8.49927
▁আসছে	-8.50437
▁ঘণ্টায়	-8.50577
▁সেবা	-8.5081
গুলো	-8.51157
২০	-8.51281
▁ফিরে	-8.5134
▁ব্যাংক	-8.51353
▁বিকেলে	-8.51557
▁আশা	-8.51602
▁ঢাকার	-8.51695
▁মাসের	-8.51696
▁এখনও	-8.51724
▁মিনিটে	-8.51916
▁বর্তমান	-8.51924
▁উচ্চ	-8.51974
▁সুস্থ	-8.52066
▁গেলে	-8.52368
▁Bangla	-8.52393
▁বিশ্ববিদ্যালয়	-8.52402
▁উল্লেখ	-8.52443
▁নেন	-8.52593
▁নিজেদের	-8.52685
▁খেলা	-8.52787
▁অপরাহ্ন	-8.52839
▁উইকেট	-8.5284
ুল	-8.53098
▁আপনি	-8.53133
▁[	-8.5315
),	-8.53437
▁রাজশাহী	-8.53491
▁তৃতীয়	-8.53496
▁হাসপাতালের	-8.54027
▁দুপুর	-8.54069
▁ঘরে	-8.54142
▁জনপ্রিয়	-8.54292
▁শিক্ষার্থীদের	-8.54385
▁হওয়ায়	-8.5443
▁সবাই	-8.54571
▁সাংবাদিকদের	-8.54765
▁বাইরে	-8.54847
▁স্বামী	-8.55095
▁আবুল	-8.55351
▁মহিলা	-8.55493
▁করছি	-8.55588
▁জারি	-8.55627
▁অভিনেত্রী	-8.55776
▁টেস্ট	-8.5581
▁রিপোর্ট	-8.55868
▁বাস	-8.55933
▁রাজনৈতিক	-8.56162
▁আহ্বান	-8.56487
▁আগের	-8.56528
▁পৌর	-8.56918
▁চলতি	-8.57003
▁মুখে	-8.57376
▁পড়েছে	-8.57387
▁নিয়েছে	-8.57481
▁শেয়ার	-8.57663
ম	-8.57664
▁উপজেলায়	-8.57948
না	-8.57992
▁উদ্যোগে	-8.58001
▁কেন	-8.5806
▁পক্ষে	-8.58087
▁ব্যক্তি	-8.58093
▁সৃষ্টি	-8.58319
▁আগেই	-8.58505
▁অধিনায়ক	-8.5852
▁২৯	-8.58869
▁প্রধানমন্ত্রীর	-8.59036
▁বিয়ের	-8.59124
▁ফোন	-8.592
▁সারা	-8.59326
▁চিকিৎসক	-8.59478
▁কাজে	-8.5982
▁গেল	-8.60153
▁ইউপি	-8.60161
▁মাসে	-8.60219
▁বিষয়ক	-8.60529
▁অবস্থা	-8.60558
▁মডেল	-8.60559
▁রহমানের	-8.60645
▁হার	-8.60895
▁চালু	-8.60972
▁এস	-8.61031
ভাবে	-8.61074
▁ব্যবসায়ী	-8.61409
▁মন্ত্রণালয়ের	-8.61993
▁চাই	-8.62478
▁গুরুত্বপূর্ণ	-8.62555
▁প্রতিবেদক	-8.62751
▁করলেন	-8.62836
▁পরিকল্পনা	-8.62858
▁বিষয়	-8.62973
▁পদে	-8.63082
▁হাসপাতাল	-8.63303
▁ছড়িয়ে	-8.63431
▁মেনে	-8.63517
▁বাড়ির	-8.63525
ত	-8.63578
▁সংক্রমণ	-8.63601
▁অন্যতম	-8.63727
▁যায়নি	-8.63873
▁শিক্ষার্থী	-8.64082
▁বিক্ষোভ	-8.6411
▁জেনারেল	-8.64293
▁সবার	-8.64416
▁এখনো	-8.64539
▁সূত্র	-8.64572
▁সম্মেলনে	-8.6468
▁বেলা	-8.64843
▁বিমান	-8.64919
▁কাছ	-8.65112
▁সিনিয়র	-8.65146
▁সেরা	-8.65241
▁জনকে	-8.65276
▁দেয়ার	-8.65379
▁পরীক্ষার	-8.65415
৩০	-8.65502
▁যুগ্ম	-8.65596
▁নেতৃত্বে	-8.6587
▁করেছিলেন	-8.66067
▁প্রয়োজন	-8.66083
▁পড়া	-8.66246
▁হারিয়ে	-8.66415
৩	-8.66475
▁শিকার	-8.66555
▁সংগ্রহ	-8.66824
▁নির্বাচিত	-8.6691
▁কয়েকটি	-8.67006
▁সহায়তা	-8.6705
▁ধরা	-8.67147
▁বার্তা	-8.67225
▁৩১	-8.67236
▁থাকায়	-8.67271
▁রযাব	-8.67419
▁প্রশাসন	-8.67423
▁আবদুল	-8.67965
▁২০১৬	-8.67974
▁গড়ে	-8.68038
▁প্রস্তুতি	-8.68303
▁মরদেহ	-8.68669
▁পর্যায়ে	-8.68737
▁উল্লেখ্য	-8.69194
▁প্রযুক্তি	-8.69261
▁কৃষি	-8.69297
▁বিশ্বাস	-8.6936
পুর	-8.69422
▁ঢাকায়	-8.69546
▁ই	-8.69704
▁রেকর্ড	-8.69792
▁হত্যার	-8.7035
▁পয়েন্ট	-8.70468
▁আসামি	-8.70548
▁খাবার	-8.70558
▁কমিশনার	-8.70617
▁কলেজের	-8.70626
▁গুলি	-8.70718
▁হামলার	-8.70856
▁এখানে	-8.70897
▁ফেসবুক	-8.71121
▁পরিবর্তন	-8.71316
▁সম্পর্ক	-8.71423
▁কর্তৃপক্ষ	-8.71556
▁মধ্য	-8.71627
▁ছাত্রলীগের	-8.71834
▁খাদ্য	-8.71928
▁জেলায়	-8.72141
১০	-8.72218
▁সর্বশেষ	-8.72282
▁করেছি	-8.72323
▁পান	-8.72504
▁শাহ	-8.72698
▁উঠে	-8.72745
▁নির্দেশনা	-8.73013
▁ছেড়ে	-8.73133
▁গাড়ি	-8.73146
▁ঘটেছে	-8.73187
▁মাহমুদ	-8.735
▁সদস্যরা	-8.73561
▁প্রতিদিন	-8.73601
▁চান	-8.73734
▁ভিত্তিতে	-8.73819
▁মন্ত্রণালয়	-8.73956
▁ভারতে	-8.73985
▁সময়ের	-8.74483
▁অফিস	-8.7455
▁পুরস্কার	-8.74832
▁পূর্ব	-8.74983
▁প্রশাসক	-8.75052
▁বলেও	-8.7506
▁নিয়োগ	-8.75131
▁সম্পন্ন	-8.75133
▁মহানগর	-8.75147
▁দাবিতে	-8.75251
▁কামাল	-8.75279
▁ছবির	-8.7537
▁শহীদ	-8.75408
▁ফল	-8.75619
৫	-8.75736
▁অ্যান্ড	-8.76
▁এমপি	-8.76281
▁আক্তার	-8.76334
▁সেটা	-8.76379
২৫	-8.76441
▁গান	-8.76585
▁শ্রমিক	-8.76658
▁সন্ধ্যায়	-8.76729
▁ভাবে	-8.76736
▁আয়োজিত	-8.76792
▁সাকিব	-8.76994
১২	-8.77023
▁প্রশ্ন	-8.77255
▁নমুনা	-8.77329
▁রাখার	-8.77366
▁পাকিস্তান	-8.77368
▁নেমে	-8.77372
১১	-8.77579
২২	-8.77756
▁কর্মসূচি	-8.77895
▁বি	-8.77924
▁দীর্ঘ	-8.78
ার	-8.78128
▁মূল	-8.78143
▁যুক্তরাষ্ট্রের	-8.78305
▁মত	-8.78555
▁পেয়েছেন	-8.78977
▁দলীয়	-8.79307
▁ঘটনাস্থলে	-8.79484
▁করোনাভাইরাস	-8.79719
িত	-8.79777
▁তারিখ	-8.79865
▁পোস্ট	-8.80306
১৮	-8.80337
কম	-8.80349
▁নিয়ন্ত্রণ	-8.80354
২৪	-8.80444
▁তারকা	-8.80587
▁পুরো	-8.80748
▁প্রকাশের	-8.80895
▁আমাকে	-8.8104
▁লক্ষ্য	-8.81229
▁নির্মাণ	-8.81254
▁যেখানে	-8.81326
▁অনুষ্ঠান	-8.81377
▁লোকজন	-8.81631
▁পাকিস্তানের	-8.81681
▁অ	-8.81756
▁বিচার	-8.81819
▁বাংলাদেশি	-8.82084
▁মিনিট	-8.82248
▁পরবর্তী	-8.8226
▁মালিক	-8.82702
তা	-8.82715
▁তিনটি	-8.82993
▁ফেলে	-8.8303
▁in	-8.83088
▁ফের	-8.83166
▁প্রতিবেদন	-8.83215
▁ধর্ষণ	-8.83251
▁বৈঠক	-8.83322
▁সাত	-8.83509
▁পেতে	-8.83545
▁এছাড়াও	-8.8376
▁চিকিৎসাধীন	-8.83762
▁নিয়েছেন	-8.83785
▁বৃদ্ধি	-8.8408
▁৪০	-8.84275
।"	-8.8436
▁জরুরি	-8.84517
▁ছয়	-8.84532
▁সংগঠন	-8.84571
▁গ্রাম	-8.84592
▁গিয়েছে	-8.84592
▁যদিও	-8.846
▁করায়	-8.84618
▁এদিন	-8.847
ওসি	-8.84709
▁নিয়মিত	-8.84738
ো	-8.8485
▁নেয়	-8.84857
▁পেয়েছে	-8.84944
▁দলে	-8.84963
▁নেওয়ার	-8.84974
▁শীর্ষ	-8.8498
৪	-8.85085
▁হিসাবে	-8.85143
▁সংগঠনের	-8.85343
▁যাতে	-8.8545
▁আদালতের	-8.8556
▁কবির	-8.85662
▁অনেকেই	-8.85733
▁সন্তান	-8.85817
▁অব্যাহত	-8.85898
▁বৈঠকে	-8.85927
▁দশমিক	-8.86085
▁সমিতির	-8.86105
▁কেজি	-8.86125
▁বেড়েছে	-8.86206
▁অধিকার	-8.8667
▁দোয়া	-8.86698
▁সম্মেলন	-8.86826
▁সংশ্লিষ্ট	-8.86836
▁রোগী	-8.86881
▁উঠেছে	-8.86916
▁মুখ	-8.87103
▁::	-8.8721
▁ধারণা	-8.87226
▁থাকেন	-8.87395
▁দিলেন	-8.87956
▁বিনোদন	-8.88002
▁গোল	-8.88005
▁পা	-8.88143
▁পালিয়ে	-8.88143
▁কোভিড	-8.88211
▁ঘণ্টা	-8.88431
▁কার্যালয়ে	-8.88435
▁গুরুতর	-8.88681
▁ফুটবল	-8.88721
▁প্রতিটি	-8.88796
▁ব্যাপক	-8.89013
▁পায়	-8.89084
▁জাতির	-8.89091
▁আনা	-8.89165
▁অন্তত	-8.89184
২১	-8.89207
▁খুলনা	-8.89412
▁স	-8.89433
১৫	-8.89465
১৪	-8.89542
▁বলতে	-8.89577
▁মুক্তিযোদ্ধা	-8.89722
▁একাধিক	-8.89764
▁ইসলামের	-8.90006
▁রিপোর্টার	-8.90236
▁তাঁকে	-8.90333
▁চলাচল	-8.90458
▁আইনজীবী	-8.90572
▁জায়গায়	-8.90593
▁জড়িত	-8.90735
▁বাহিনীর	-8.90899
▁বাসায়	-8.91028
▁পাওয়ার	-8.91132
▁ব্যাংকের	-8.91143
▁প্রতিমন্ত্রী	-8.91401
▁PM	-8.91465
টির	-8.91626
▁বিকেল	-8.91696
▁স্বাভাবিক	-8.91734
▁প্রেস	-8.91903
▁পরিবহন	-8.91942
▁বাকি	-8.91999
▁ধর্ষণের	-8.92046
১৭	-8.92153
▁বল	-8.92192
▁হাসিনার	-8.92346
▁জরিমানা	-8.92489
▁বরিশাল	-8.92674
▁স্টাফ	-8.927
▁দীর্ঘদিন	-8.92813
▁ঈদ	-8.9282
▁পণ্য	-8.92869
▁অভিনেতা	-8.93165
▁যুবক	-8.93322
▁পরিমাণ	-8.93524
▁ভাইরাস	-8.93658
▁যাত্রী	-8.93674
▁রানের	-8.93679
▁পরিচয়	-8.93754
▁যুক্ত	-8.93759
▁বিজ্ঞপ্তিতে	-8.9381
▁অবৈধ	-8.94001
শ	-8.94017
▁পারবে	-8.94027
▁গঠন	-8.94057
▁বোর্ড	-8.94066
▁অস্ত্র	-8.94153
▁ভেঙে	-8.94409
▁বয়সী	-8.9442
▁ভাইস	-8.94485
▁বাহিনী	-8.94514
▁আসার	-8.94531
▁বিদ্যালয়ের	-8.94569
▁মহাসচিব	-8.94705
▁চায়	-8.95045
১৬	-8.9516
▁মুখোমুখি	-8.95351
▁প্রশাসনের	-8.9552
▁লক্ষ্যে	-8.95643
▁০৯	-8.95659
▁বছরে	-8.95675
২৮	-8.95812
▁বয়স	-8.95889
▁প্রথমে	-8.95919
▁কক্সবাজার	-8.96072
▁আসনের	-8.96082
▁মানববন্ধন	-8.96109
▁পরামর্শ	-8.9624
▁লকডাউন	-8.96242
▁জমা	-8.96319
▁নির্বাচনের	-8.96447
▁সাংগঠনিক	-8.96552
▁থাকলে	-8.96747
▁অন্যদিকে	-8.96751
▁pm	-8.96892
▁মধ্যেই	-8.96966
▁সহযোগিতা	-8.97143
▁ছবিতে	-8.9723
▁কমিশন	-8.97241
▁প্রস্তাব	-8.97301
▁তাঁদের	-8.97331
▁কিংবা	-8.97428
িং	-8.97437
▁আওতায়	-8.9786
▁উদ্যোগ	-8.9794
▁তাতে	-8.97947
▁ইনচার্জ	-8.98021
▁ম্যাচের	-8.98155
▁আদেশ	-8.9816
▁রানে	-8.98176
▁অনুমোদন	-8.98219
▁কাজের	-8.98366
▁খেলতে	-8.98536
▁বসে	-8.98567
▁বেসরকারি	-8.98852
▁তালিকা	-8.98941
▁উচিত	-8.9895
▁প্রতিবেদনে	-8.98985
▁স্থানীয়রা	-8.99037
▁লক্ষ	-8.99285
▁পৌরসভার	-8.99303
▁ঘর	-8.99317
▁পদক্ষেপ	-8.99338
▁জন্ম	-8.99556
▁হঠাৎ	-8.99661
▁থাকলেও	-8.99718
২৩	-8.99742
▁কণ্ঠ	-8.99767
▁যাচ্ছেন	-8.99861
▁বিদ্যুৎ	-8.99886
▁লেখা	-8.99935
▁আসতে	-8.99975
▁সংক্রান্ত	-9.00027
▁মাস্ক	-9.00054
▁সিরিজ	-9.00085
▁আবারও	-9.00266
▁মাথায়	-9.00282
ব	-9.00297
▁যেমন	-9.00383
▁বিরোধী	-9.00407
▁রাজধানী	-9.00439
▁রোহিঙ্গা	-9.00497
▁চালক	-9.00684
▁সেনা	-9.00735
▁ওবায়দুল	-9.01051
▁মাছ	-9.01119
▁আরব	-9.01214
▁প্রবেশ	-9.01262
▁শহর	-9.01491
▁সন্ধ্যা	-9.0167
▁জিয়ার	-9.01776
▁সৈয়দ	-9.018
▁নিন	-9.01865
▁সুবিধা	-9.01943
▁গোপন	-9.01954
▁পবিত্র	-9.02037
▁॥	-9.02124
▁পূর্বাহ্ণ	-9.02194
▁চলচ্চিত্র	-9.02199
▁বিস্তারিত	-9.02279
▁বাসিন্দা	-9.0228
▁সিনেমা	-9.02618
▁ফায়ার	-9.02659
▁আয়োজনে	-9.02679
▁কঠোর	-9.02957
▁বিজেপি	-9.03162
৩৫	-9.03227
▁ডি	-9.03309
▁অপরাধ	-9.03454
▁জায়গা	-9.03721
▁অনুরোধ	-9.03858
▁চীনের	-9.04025
▁গভীর	-9.04045
▁কাজী	-9.04201
▁মুজিবুর	-9.0426
▁বাতিল	-9.04452
▁পৌঁছে	-9.04541
▁আন্দোলন	-9.04572
▁ট্রাম্প	-9.04574
▁দেবে	-9.04591
▁বিচারপতি	-9.04677
▁অভিযানে	-9.04702
▁বই	-9.04747
▁গোলাম	-9.04834
▁জিয়া	-9.04836
▁প্রয়োজনীয়	-9.04841
▁অনেকে	-9.04961
▁ভূমিকা	-9.04974
▁আসেন	-9.05081
▁করোনাভাইরাসের	-9.05222
২৬	-9.0529
▁প্রকল্প	-9.05312
বি	-9.05339
▁প্রচ্ছদ	-9.05474
▁ঈদের	-9.05555
▁সাহায্য	-9.05575
▁টিম	-9.05771
▁শরীরে	-9.0579
▁নিয়ন্ত্রণে	-9.05863
▁Daily	-9.05883
১৩	-9.0595
▁এরই	-9.05986
▁চাইলে	-9.0602
▁প্রতিবাদ	-9.06033
▁বৃষ্টি	-9.06119
▁পাবেন	-9.06125
▁বিভাগে	-9.06139
▁সংস্থার	-9.0633
▁প্রচার	-9.06337
িক	-9.06349
▁কর্মী	-9.06565
▁রংপুর	-9.06606
▁তালিকায়	-9.06626
▁পরিবেশ	-9.06749
▁ডলার	-9.06835
▁কেটে	-9.06886
▁কারাগারে	-9.06914
▁Bangladesh	-9.06921
▁খুবই	-9.07012
▁পরীক্ষায়	-9.07017
▁বাদ	-9.07034
▁কোচ	-9.07043
▁চুক্তি	-9.07113
▁নুরুল	-9.07339
▁শারীরিক	-9.07712
▁প্রাণ	-9.07721
নি	-9.07771
▁সদস্যদের	-9.0781
▁দুর্ঘটনা	-9.07867
▁পরিদর্শন	-9.07937
▁ব্যবসা	-9.08012
▁আর্থিক	-9.08041
▁দোকান	-9.08175
▁দিক	-9.08262
▁মিছিল	-9.0834
▁ডেইলি	-9.08438
▁০৮	-9.08472
▁আজকের	-9.08542
জন	-9.08543
▁কমে	-9.08561
▁বিশ্বকাপ	-9.08921
▁The	-9.08927
▁উপহার	-9.08985
▁সবাইকে	-9.08997
▁নজরুল	-9.09002
৬	-9.09004
▁কিছুটা	-9.09037
▁সোশ্যাল	-9.09054
▁আব্দুর	-9.09099
▁খেলার	-9.09283
▁চন্দ্র	-9.09323
▁কেন্দ্রে	-9.09334
▁মানুষকে	-9.09439
▁বাড়ছে	-9.09645
▁বলছে	-9.09738
▁টানা	-9.09771
▁অনুমতি	-9.09867
▁জামিন	-9.10028
▁ম	-9.10125
▁হামলায়	-9.10241
▁মুসলিম	-9.10263
▁পিতা	-9.10297
▁.	-9.10548
▁শোক	-9.10642
▁অর্জন	-9.10649
▁আসলে	-9.10653
▁নিহতের	-9.10818
▁শিক্ষার্থীরা	-9.10862
▁ভুল	-9.10979
▁পার্টির	-9.10987
▁একটু	-9.11015
▁পূর্বাহ্ন	-9.1114
▁নিষেধাজ্ঞা	-9.11284
▁চলমান	-9.11328
জ	-9.11348
▁রাজনীতি	-9.11413
▁বলছেন	-9.11454
▁স্থান	-9.11557
▁মূল্য	-9.11663
▁জনগণের	-9.1171
▁ছাড়াও	-9.11783
▁ভাইরাল	-9.11939
▁সামরিক	-9.12014
▁বিজ্ঞান	-9.12057
▁লাল	-9.1219
▁কুমিল্লা	-9.1227
▁চলবে	-9.12376
▁আই	-9.12379
▁কালের	-9.12388
▁পথ	-9.12425
২৭	-9.12474
▁হোসেনের	-9.12486
৪০	-9.12563
▁হোম	-9.12649
▁চূড়ান্ত	-9.12822
▁আক্রান্তের	-9.12892
▁ডিজিটাল	-9.12952
▁আলীর	-9.13135
▁দিচ্ছে	-9.1314
▁হুমকি	-9.13396
▁গবেষণা	-9.13414
▁মাধ্যমিক	-9.13423
▁ভাল	-9.13497
▁জমি	-9.13578
▁সামগ্রী	-9.13581
▁নিজেকে	-9.13745
▁ছাত্রলীগ	-9.13764
▁on	-9.13789
▁শাখার	-9.14228
▁মাওলানা	-9.14319
▁দিলে	-9.14334
▁বিকাল	-9.14437
▁প্রবাসী	-9.14452
▁শুভেচ্ছা	-9.14464
▁করেছিল	-9.14858
▁করোনাভাইরাসে	-9.1497
▁কয়েকজন	-9.14983
▁মির্জা	-9.15015
▁তারপর	-9.1509
▁এবারের	-9.15299
▁শহরে	-9.15367
▁দাস	-9.15548
▁সংঘর্ষে	-9.15567
▁রাজ্য	-9.15571
▁রক্ষা	-9.15723
ীয়	-9.15814
▁বঙ্গবন্ধুর	-9.15819
▁১০০	-9.15993
▁স্বীকার	-9.15993
▁০১	-9.16122
▁৬০	-9.16129
▁ফারুক	-9.16151
▁কিলোমিটার	-9.16177
▁চলেছে	-9.16234
▁স্থগিত	-9.16332
▁যুক্তরাষ্ট্র	-9.16371
▁বহু	-9.16443
▁খানের	-9.1646
▁চীন	-9.16468
▁কাউন্সিলর	-9.16563
০০	-9.16586
মা	-9.16732
৭	-9.16741
▁করিম	-9.16768
▁নাগরিক	-9.16778
▁অভিযুক্ত	-9.16847
▁উৎসব	-9.16881
▁প্রতিষ্ঠানের	-9.16917
▁সি	-9.17001
▁কলকাতা	-9.17038
▁ব্যাট	-9.17063
▁প্রসঙ্গে	-9.17116
▁ক্লাব	-9.17249
▁Bengali	-9.17274
▁খোলা	-9.17425
▁পাবে	-9.17522
▁ভাগ	-9.17689
▁প্রতিবাদে	-9.17705
▁অসুস্থ	-9.17756
▁চা	-9.17791
সভাপতি	-9.17811
▁নং	-9.17816
▁সম্ভাবনা	-9.17818
▁ঘরের	-9.17992
▁২০১৫	-9.18029
▁প্রশিক্ষণ	-9.18125
▁নেয়ার	-9.18144
▁ব্যক্তির	-9.18163
▁লেনদেন	-9.18179
পাড়া	-9.18298
▁কোম্পানি	-9.18318
২৯	-9.1833
▁ইকবাল	-9.18366
▁ঘটনাটি	-9.18463
৫০	-9.1851
▁চিকিৎসার	-9.18533
▁ক্রীড়া	-9.18576
▁ব্যক্তিগত	-9.18723
▁তাঁরা	-9.18726
▁দুর্ঘটনায়	-9.1878
▁বোর্ডের	-9.18833
▁লিখেছেন	-9.19129
▁সেটি	-9.19212
▁প্রভাব	-9.1927
▁চাল	-9.19304
▁সমাজ	-9.1941
টোয়েন্টি	-9.19454
▁দ্য	-9.19585
▁পালিত	-9.19876
▁ট্রাক	-9.19956
▁of	-9.2008
▁সার্ভিস	-9.20095
▁আলো	-9.20237
▁অবশ্য	-9.20269
▁at	-9.20432
news	-9.20486
▁জব্দ	-9.20562
▁গল্প	-9.20759
▁নিখোঁজ	-9.208
▁ত্রাণ	-9.20922
▁বক্তব্যে	-9.2097
▁গোলে	-9.21136
▁সপ্তাহে	-9.21184
▁পারেনি	-9.21212
▁তাদেরকে	-9.21217
▁বিবৃতিতে	-9.21217
▁সপ্তাহ	-9.2126
▁আসবে	-9.213
▁আমিন	-9.21315
ুর	-9.21364
▁নির্যাতন	-9.21451
▁রোগ	-9.21475
▁মিয়ার	-9.21518
▁প্রশ্নের	-9.2153
▁ক্ষতি	-9.21573
▁উন্নত	-9.21793
▁যুব	-9.21879
▁ভ্যাকসিন	-9.219
▁হাজির	-9.21973
▁প্রকল্পের	-9.21975
▁তৃণমূল	-9.22073
▁অথবা	-9.22112
▁অসহায়	-9.22126
▁জবাবে	-9.22251
▁আলমগীর	-9.22433
▁০৭	-9.22433
▁শ্রদ্ধা	-9.22501
▁নদীর	-9.22582
▁আত্মহত্যা	-9.22644
▁খুলে	-9.22686
▁লোক	-9.22714
▁মনোনয়ন	-9.2285
▁ক্ষমতা	-9.22856
▁জয়ের	-9.22976
▁চালায়	-9.23049
▁তেল	-9.23094
▁বিদ্যালয়	-9.23098
▁কিনা	-9.23108
▁বিজয়	-9.23134
▁রাস্তায়	-9.23163
▁এমনকি	-9.23167
▁সফল	-9.23325
▁কার্যকর	-9.23376
০	-9.23396
▁ধান	-9.2346
▁আইনে	-9.23586
৮	-9.23588
▁Latest	-9.23798
▁স্বপ্ন	-9.23907
▁নিষিদ্ধ	-9.23949
▁পার	-9.23976
▁পশ্চিম	-9.2401
▁বাদী	-9.24245
▁আঘাত	-9.24269
▁কর্মকর্তারা	-9.24336
▁ইয়াবা	-9.24438
▁উদযাপন	-9.24441
▁০৬	-9.24511
▁নারীর	-9.24565
▁ফখরুল	-9.24586
▁ক্রিকেটার	-9.24591
▁ডট	-9.24611
▁নগরীর	-9.24631
▁ধর্ম	-9.24673
▁বাধা	-9.24685
িয়া	-9.24704
▁সিরিজের	-9.24801
▁জীবনের	-9.24831
▁পুরুষ	-9.24891
▁অতিথির	-9.24902
▁নিরাপদ	-9.25076
▁আনন্দ	-9.25122
▁যেসব	-9.2517
▁সরাসরি	-9.25184
▁সেলিম	-9.25268
▁অবশেষে	-9.2537
▁ভয়াবহ	-9.25415
▁গোয়েন্দা	-9.25454
▁অপর	-9.25463
▁ম্যাজিস্ট্রেট	-9.25506
▁০৫	-9.25707
▁কৃষক	-9.2576
▁লাভ	-9.25813
▁রোগীর	-9.26032
▁নাকি	-9.26071
▁পুত্র	-9.26097
গুলি	-9.26115
▁রাষ্ট্রপতি	-9.26197
▁কামনা	-9.26234
▁ছিলো	-9.26265
▁হোক	-9.26305
▁আনোয়ার	-9.26376
▁অধিদপ্তরের	-9.26467
▁শিল্প	-9.26481
০১	-9.26505
–	-9.26637
▁ওয়ার্ড	-9.26763
▁পড়েন	-9.26833
৪৫	-9.27036
▁নি	-9.27039
▁০২	-9.27128
▁বিভাগীয়	-9.27544
▁তীব্র	-9.27558
▁শুভ	-9.27618
▁০৪	-9.27714
▁ইমরান	-9.27778
▁ওয়ানডে	-9.27797
▁নদী	-9.27862
▁ফেসবুকে	-9.27875
▁বীর	-9.2795
প	-9.27954
▁এত	-9.28104
▁স্বাধীনতা	-9.28141
▁দাঁড়িয়েছে	-9.28165
▁ভাড়া	-9.28434
▁মিডিয়া	-9.285
▁মাঠ	-9.28547
▁দুর্নীতি	-9.28568
▁৩৫	-9.28807
▁চালানো	-9.28881
সা	-9.28882
▁দূর	-9.28956
সি	-9.29168
▁সঠিক	-9.29235
▁০৩	-9.29281
▁বিশিষ্ট	-9.29349
▁সিলেটের	-9.29383
▁ঘুরে	-9.29393
▁>	-9.29545
▁তরুণ	-9.29567
▁সতর্ক	-9.29624
▁এসআই	-9.29757
▁উদ্দেশ্যে	-9.2976
▁প্রস্তুত	-9.29801
▁অর্থাৎ	-9.29936
▁রাস্তা	-9.30012
▁সীমান্ত	-9.30096
▁টিভি	-9.30126
য়ের	-9.30135
▁বন্ধু	-9.3016
▁এদের	-9.30217
▁শতাধিক	-9.30236
▁আইনের	-9.30313
▁ছুটি	-9.3044
▁জানুয়ারী	-9.30581
▁অনুষ্ঠানের	-9.30641
▁পরিস্থিতিতে	-9.30656
▁দেশটিতে	-9.30769
▁শুটিং	-9.30919
▁আওয়ামীলীগের	-9.30952
ড	-9.30967
▁শুনানি	-9.31054
▁অবশ্যই	-9.31094
▁একমাত্র	-9.31106
▁আয়	-9.31338
▁ফেরার	-9.31421
▁নিচে	-9.31444
▁মামুন	-9.31469
▁আট	-9.31508
▁টাইমস	-9.31569
▁মায়ের	-9.316
▁শিশুর	-9.31643
▁কঠিন	-9.31679
▁পারেননি	-9.31705
▁প্রমাণ	-9.31743
▁এএম	-9.31753
▁a	-9.31817
▁সোহেল	-9.31826
▁বাংলার	-9.32017
▁জাহাঙ্গীর	-9.32054
▁সমাবেশ	-9.32121
▁আলাদা	-9.32201
▁বললেন	-9.32287
▁যশোর	-9.32308
▁বিশ্বে	-9.3234
▁রাসেল	-9.32435
▁ওষুধ	-9.32487
▁কল্যাণ	-9.32602
৩২	-9.32737
▁বিন	-9.32838
▁ব্যবস্থাপনা	-9.32894
▁নির্ধারিত	-9.32943
▁মুক্ত	-9.33033
▁শক্তিশালী	-9.33044
▁আটকে	-9.33076
▁সাল	-9.33206
▁পড়তে	-9.33231
▁ছবিটি	-9.33254
▁সেখান	-9.33302
▁পোশাক	-9.33408
▁যুবলীগের	-9.33452
▁চতুর্থ	-9.33472
▁মসজিদ	-9.33649
▁ক	-9.33684
▁ভাইরাসের	-9.33766
▁রাজ্যের	-9.33785
▁চাপ	-9.33806
▁স্থায়ী	-9.34009
▁সিনেমার	-9.34047
▁শিশুদের	-9.34063
০৫	-9.3419
▁মতে	-9.34215
▁বিপুল	-9.34252
মন্ত্রী	-9.34383
▁আবহাওয়া	-9.34403
▁সাংস্কৃতিক	-9.34415
▁শত	-9.34586
▁রশিদ	-9.34596
▁ইসলামী	-9.34681
▁পরিচিত	-9.34708
▁হয়তো	-9.34735
▁পারি	-9.34747
নং	-9.34792
০৯	-9.34816
▁অধ্যক্ষ	-9.34942
▁দারুণ	-9.34984
▁মূলত	-9.34984
▁উৎপাদন	-9.35017
▁মন	-9.35029
▁থাকবেন	-9.35126
আমি	-9.35141
▁খেলে	-9.35142
▁নিয়ম	-9.35274
▁স্বাস্থ্যবিধি	-9.35335
▁কেন্দ্রের	-9.35365
▁অর্থনৈতিক	-9.35583
▁সফরে	-9.35642
▁করল	-9.3575
ট	-9.35766
▁প্রসঙ্গত	-9.35792
▁মসজিদে	-9.35797
▁অত্যন্ত	-9.36075
▁অ্যাডভোকেট	-9.36116
▁ওয়ার্ডের	-9.36122
▁সত্যতা	-9.36126
▁ডাক	-9.36226
▁পড়ুন	-9.36237
▁গ্রুপ	-9.36292
ু	-9.36432
▁BD	-9.36466
▁ফুল	-9.36663
▁প্রক্রিয়া	-9.36835
▁হস্তান্তর	-9.36947
▁লড়াই	-9.37007
▁the	-9.37071
▁সিভিল	-9.37149
▁সমস্ত	-9.37249
▁অংশগ্রহণ	-9.37278
▁পানিতে	-9.37432
▁গ্রুপের	-9.3752
▁মিজানুর	-9.37686
▁ক্লাবের	-9.37708
▁কীভাবে	-9.38029
▁ফলাফল	-9.38039
▁মোটরসাইকেল	-9.38158
▁সড়কের	-9.38225
▁Published	-9.38311
▁শ্রেণির	-9.38478
▁ভবন	-9.3859
▁ছাত্রী	-9.3862
কা	-9.38623
▁উপদেষ্টা	-9.38664
▁নূর	-9.38703
▁আনতে	-9.38745
▁সড়কে	-9.38745
▁সরবরাহ	-9.38754
▁খুঁজে	-9.38765
০২	-9.38844
▁জেনে	-9.39104
▁জি	-9.392
▁গোটা	-9.39275
▁ট্রেন	-9.39362
▁এনে	-9.39388
▁পরিচালিত	-9.39405
দ	-9.39625
▁সিং	-9.39708
▁খুন	-9.39915
গুলোর	-9.39955
▁সহজ	-9.40054
▁চট্টগ্রামের	-9.40092
▁অবস্থিত	-9.40208
▁খারাপ	-9.40301
▁দরকার	-9.40325
▁করেই	-9.40367
৩১	-9.40399
▁ওঠে	-9.40467
▁রফিকুল	-9.4054
▁আপনাদের	-9.40545
▁মুখ্যমন্ত্রী	-9.40555
▁নৌকা	-9.40599
▁পদ	-9.40658
▁আদায়	-9.40726
▁সংকট	-9.40733
লা	-9.40735
▁করলেও	-9.40806
▁ডটকম	-9.40934
▁মৃতের	-9.40956
জি	-9.41025
▁সাতক্ষীরা	-9.41057
▁বিকালে	-9.41134
▁ফেরত	-9.41157
▁চুরি	-9.41224
০৩	-9.41253
▁বেতন	-9.41319
▁ঘটনাস্থল	-9.41326
▁বিজিবি	-9.41363
▁সন্ত্রাসী	-9.4138
▁মমতা	-9.4138
০৪	-9.41392
▁উক্ত	-9.41475
▁প্রতিরোধ	-9.41476
▁স্পোর্টস	-9.41543
e	-9.41614
▁সম্পূর্ণ	-9.41622
▁শিল্পী	-9.41646
▁গাছ	-9.41704
▁একে	-9.41926
▁নেতৃত্ব	-9.41958
▁বলিউড	-9.42078
▁পাতা	-9.42137
▁আসনে	-9.42149
▁সুন্দর	-9.42172
▁মিলে	-9.42192
▁বাবার	-9.42233
▁নারায়ণগঞ্জ	-9.42235
▁kalerkantho	-9.42242
▁আগামীকাল	-9.42246
০৬	-9.4231
▁রকম	-9.42332
▁খরচ	-9.42388
▁সম্পদ	-9.42429
▁মুহাম্মদ	-9.42562
▁চাকরি	-9.42713
▁ইতোমধ্যে	-9.42768
▁একাদশ	-9.42815
▁বিল	-9.42828
▁বিচারক	-9.42867
▁চিঠি	-9.42949
▁ময়মনসিংহ	-9.43056
▁সফর	-9.43088
▁মুক্তির	-9.4309
▁হাইকোর্ট	-9.4311
▁চরিত্রে	-9.43183
▁অনলাইনে	-9.43393
▁শান্তি	-9.43426
▁ঘিরে	-9.43427
৯	-9.43475
▁প্রিয়	-9.43548
▁করব	-9.43624
▁সদস্যের	-9.43626
▁হাই	-9.43637
▁এন্ড	-9.43657
▁বাস্তবায়ন	-9.43666
▁স্বরাষ্ট্র	-9.4368
▁সালমান	-9.43837
▁সেতু	-9.441
▁দেখিয়ে	-9.44114
▁মোস্তফা	-9.44128
৫৫	-9.44235
০৭	-9.44253
াল	-9.44261
▁তুলনায়	-9.4455
লে	-9.44561
▁সু	-9.44575
▁বঙ্গাব্দ	-9.44582
▁আশঙ্কা	-9.44632
▁আজাদ	-9.44639
▁নির্ধারণ	-9.44724
▁চাহিদা	-9.4485
▁মিডিয়ায়	-9.44904
▁নির্বাচনী	-9.44925
▁আরেক	-9.44972
▁ভোর	-9.44992
▁দিল	-9.45065
▁প্রকৌশলী	-9.45088
▁নাজমুল	-9.45088
▁কোথাও	-9.45347
▁জীবনে	-9.45392
▁শাখা	-9.45425
▁বিদেশি	-9.45606
▁নেতৃবৃন্দ	-9.45763
▁দেবেন	-9.45866
▁গ্যাস	-9.45965
▁ওভারে	-9.45976
▁বন্দর	-9.46
০৮	-9.46061
▁টায়	-9.46109
▁সাইফুল	-9.46128
▁যুবকের	-9.46157
▁মুহূর্তে	-9.46159
▁news	-9.4616
▁যাদের	-9.46352
▁কমিশনের	-9.46412
▁মেডিক্যাল	-9.46424
▁ধাক্কা	-9.4647
▁জেরে	-9.46504
▁যৌন	-9.46607
▁আধুনিক	-9.46636
▁সুমন	-9.4673
er	-9.46731
▁যুদ্ধ	-9.46741
▁কিছুদিন	-9.46765
▁মর্গে	-9.46896
▁সাধারন	-9.47002
▁গেলেন	-9.47014
▁জিতে	-9.47172
▁হিন্দু	-9.47273
▁৭০	-9.47392
▁লিটন	-9.47419
ing	-9.47444
▁সরিয়ে	-9.47586
পররাষ্ট্রমন্ত্রী	-9.47594
▁স্থাপন	-9.47645
▁চিন্তা	-9.47784
▁সংঘর্ষ	-9.47842
▁কোম্পানির	-9.47857
▁প্রেরণ	-9.47882
▁তামিম	-9.47951
▁রাশিয়া	-9.47958
▁সক্ষম	-9.47963
তম	-9.48013
ন্ত	-9.48063
▁চারটি	-9.48188
▁লিখিত	-9.48212
▁কর্মরত	-9.48337
▁মহান	-9.48469
▁শুরুর	-9.48657
▁বিশ্বকাপের	-9.48739
▁ইমাম	-9.48799
▁সীমান্তে	-9.48913
▁কাউকে	-9.48967
▁কর	-9.48972
▁মতবিনিময়	-9.48992
▁সমর্থন	-9.49053
▁মাথা	-9.49146
▁বিশাল	-9.49205
▁পেছনে	-9.49221
▁হোটেল	-9.49255
▁নেতারা	-9.4939
▁ফিরিয়ে	-9.49424
বার	-9.49459
▁কন্যা	-9.49554
▁রানা	-9.49627
▁ইউনিয়নে	-9.49669
▁কমপ্লেক্সে	-9.49751
▁ধর্মীয়	-9.49801
কৃত	-9.49831
▁ইরানের	-9.50102
▁তাপমাত্রা	-9.50134
▁Online	-9.50161
▁আলোচিত	-9.50197
▁বিডি	-9.50212
▁কেবল	-9.50304
▁ধন্যবাদ	-9.5034
'-	-9.50483
▁স্টেডিয়ামে	-9.50507
▁যাত্রা	-9.50522
▁দেড়	-9.50625
▁নরেন্দ্র	-9.50719
৩৮	-9.50803
▁অবদান	-9.50844
▁ইউনিট	-9.50914
▁ব্যবধানে	-9.50921
▁পরিণত	-9.51025
▁যত	-9.51037
▁নদীতে	-9.51087
▁তোলা	-9.51232
▁ক্ষতিগ্রস্ত	-9.51271
▁চেয়ারপারসন	-9.51273
▁দেব	-9.5129
▁শামীম	-9.51362
▁জানালেন	-9.51381
▁সংবাদের	-9.51398
▁নিজেই	-9.5151
▁এজন্য	-9.51525
▁ব্রিটিশ	-9.51596
▁সার্বিক	-9.51737
▁দিনাজপুর	-9.51791
▁এলাকাবাসী	-9.51828
▁দলকে	-9.51845
▁জোর	-9.5186
▁প্রেসক্লাবের	-9.52042
▁৮০	-9.52048
▁সংসদের	-9.52078
▁রেল	-9.52091
▁খাতুন	-9.52116
▁বাণিজ্য	-9.52184
▁২০১৪	-9.52214
▁৩২	-9.52234
▁স্কুলের	-9.52264
▁উদ্বোধনী	-9.52274
▁;	-9.52411
▁ঋণ	-9.52412
▁উইকেটে	-9.52427
▁সারাদেশে	-9.52668
▁নগদ	-9.52742
▁মাসুদ	-9.52763
▁মৃত্যুতে	-9.52787
▁আসন্ন	-9.52816
▁ডিগ্রি	-9.52854
▁গুরুত্ব	-9.52865
▁তুলতে	-9.52984
▁কুষ্টিয়া	-9.53037
▁সংলগ্ন	-9.53049
▁কার্যালয়ের	-9.53065
▁শরীরের	-9.53118
▁ঝুঁকি	-9.53218
ণ	-9.53233
▁সন্তানের	-9.53315
▁সপ্তাহের	-9.53462
▁S	-9.53609
▁পরবর্তীতে	-9.53666
▁বিদায়	-9.53674
▁ভবনের	-9.53728
▁জল	-9.53788
▁মহাপরিচালক	-9.53973
▁নামাজ	-9.54082
▁চাঁদপুর	-9.54166
▁কমান্ডার	-9.54317
▁কালাম	-9.54436
▁৪৫	-9.54451
▁পাস	-9.54495
▁সচেতন	-9.54507
▁মেলা	-9.54524
▁বাবু	-9.54909
▁পরই	-9.54912
▁সহযোগী	-9.54913
▁মিলিয়ে	-9.5497
▁দূরে	-9.54995
▁by	-9.55013
▁সকলের	-9.55031
▁ফাইনালে	-9.55068
▁তিনজন	-9.55086
▁আহবায়ক	-9.55093
▁প্রথমবারের	-9.55136
▁জঙ্গি	-9.55219
▁বজায়	-9.55233
▁কার্যালয়	-9.55235
শে	-9.55328
▁নুর	-9.55348
▁মসজিদের	-9.5543
▁পারিবারিক	-9.55518
▁পড়েছেন	-9.55633
▁নন	-9.55655
▁কমেছে	-9.55772
▁ইতিহাস	-9.55883
য়া	-9.55971
▁আহ্বায়ক	-9.5614
▁প্রফেসর	-9.56177
▁আমদানি	-9.56233
▁ওরফে	-9.56293
▁কবি	-9.56316
▁কখনো	-9.56329
▁প্রতিষ্ঠা	-9.56381
▁টেস্টে	-9.56464
▁কার্ড	-9.56508
▁শোনা	-9.56551
▁ভাষা	-9.5663
▁জানাতে	-9.56724
▁শক্তি	-9.56755
▁সবুজ	-9.56761
▁বিজ্ঞপ্তি	-9.56823
▁মৎস্য	-9.56836
▁বোমা	-9.56844
▁যুবলীগ	-9.56869
▁বিশ্ববিদ্যালয়ে	-9.56881
▁দিয়েছিলেন	-9.56882
▁খবরে	-9.56887
▁গানের	-9.57188
▁ব্যর্থ	-9.57253
▁দখল	-9.5728
▁ধীরে	-9.57373
▁নষ্ট	-9.57423
▁পরিদর্শক	-9.57544
▁বাধ্য	-9.57616
▁দাঁড়িয়ে	-9.57628
▁পুড়ে	-9.57638
▁করতেন	-9.57644
▁ফাঁস	-9.57733
▁মান	-9.57753
▁আলোচনায়	-9.57809
▁চরম	-9.57822
▁পজিটিভ	-9.57852
▁ইন	-9.57854
▁তালুকদার	-9.57975
▁পৃথক	-9.57997
▁সরকারী	-9.58004
▁নেতাদের	-9.58031
▁খন্দকার	-9.581
এম	-9.58149
▁টা	-9.58251
—	-9.58259
▁যেকোনো	-9.58292
স্থ	-9.58301
▁জাকির	-9.58343
ং	-9.58358
▁থাকছে	-9.58447
▁টার	-9.58453
▁লাগে	-9.58488
▁ভ্রাম্যমাণ	-9.5851
▁আসন	-9.58558
▁রুহুল	-9.58573
▁মেয়ের	-9.5858
▁অফিসে	-9.58633
তার	-9.58671
▁হচ্ছেন	-9.58675
▁গরু	-9.58781
▁কিশোর	-9.58796
▁আসছেন	-9.58807
▁ভিন্ন	-9.58943
য়ে	-9.58948
▁প্রতিরোধে	-9.58964
▁অপেক্ষা	-9.59002
▁ধারা	-9.59021
▁একসঙ্গে	-9.5907
▁খেয়ে	-9.59085
▁যুক্তরাষ্ট্রে	-9.59145
▁খোঁজ	-9.59187
ছে	-9.5921
▁মেসি	-9.5923
▁রহিম	-9.59231
▁সমাধান	-9.59286
▁রাজ্যে	-9.59349
th	-9.59372
▁অধিদপ্তর	-9.59539
▁কক্ষে	-9.59546
▁অঞ্চলের	-9.59573
▁অস্ট্রেলিয়া	-9.59606
▁হবেন	-9.59652
▁আহসান	-9.59737
▁জন্মদিন	-9.59753
▁চট্টগ্রামে	-9.59944
▁কংগ্রেস	-9.5998
▁বদলে	-9.6
▁জুটি	-9.60061
▁কিভাবে	-9.60097
▁দেখার	-9.60143
▁দফায়	-9.60183
▁পেলেন	-9.60203
▁বিকল্প	-9.60213
▁বিশ্বকাপে	-9.6024
▁আপিল	-9.60248
▁বগুড়া	-9.60386
▁পূজা	-9.60416
▁যেভাবে	-9.60425
▁বাসা	-9.60476
▁সার্জন	-9.60495
▁ভয়	-9.605
▁প্রেম	-9.60536
▁জেল	-9.60627
▁আমির	-9.6067
▁উভয়	-9.60701
▁রাস্তার	-9.60838
▁বাড়িয়ে	-9.60897
▁দ্বারা	-9.609
▁কর্তৃপক্ষের	-9.60972
▁মহামারি	-9.6098
▁আন্দোলনের	-9.60993
▁ব্যস্ত	-9.61036
৪৮	-9.61081
▁যৌথ	-9.61097
▁নায়িকা	-9.61097
▁কিছুই	-9.6112
▁পেঁয়াজ	-9.61133
▁সমালোচনা	-9.61153
▁ইন্টারনেট	-9.61221
▁অঞ্চলে	-9.61257
▁ডোজ	-9.61449
▁স্ত্রীর	-9.61513
▁উদ্দেশে	-9.61536
▁রাশিয়ার	-9.61663
▁লিগ	-9.61674
▁সেন্টার	-9.61736
ফ	-9.61819
ভিত্তিক	-9.61859
▁পার্টি	-9.61868
▁কর্মীদের	-9.61936
▁বিমানবন্দরে	-9.62011
▁রযাবের	-9.62049
▁দমন	-9.62093
▁দিচ্ছেন	-9.62151
▁নির্মিত	-9.62166
▁পেরে	-9.62222
▁পরিষ্কার	-9.62287
▁ওয়েস্ট	-9.62344
▁তৈরির	-9.62416
▁উন্নয়নের	-9.62433
▁কর্মকর্তাদের	-9.62433
আমরা	-9.62434
▁চর	-9.62461
▁পছন্দ	-9.62491
▁ইনিংস	-9.62583
▁তদন্তের	-9.62615
▁আপনারা	-9.62657
▁ঈদুল	-9.627
▁জাহিদ	-9.62701
▁কালো	-9.62846
৪২	-9.6287
S	-9.62892
কারী	-9.6296
▁পরিস্থিতির	-9.6299
▁and	-9.63017
▁বক্তারা	-9.63038
▁মাধ্যম	-9.63101
▁ডাক্তার	-9.63112
▁পাশের	-9.63132
▁পাচ্ছে	-9.6314
▁তারেক	-9.63149
▁ভেতরে	-9.63225
▁ঢুকে	-9.63225
▁দর	-9.63257
কার	-9.63289
▁প	-9.63293
▁দায়ে	-9.63382
৩৭	-9.63386
▁নির্মাতা	-9.63507
▁আউট	-9.63625
৩৪	-9.63628
▁আম	-9.63655
▁নামক	-9.63722
▁প্রিমিয়ার	-9.63723
▁ম্যানেজার	-9.63727
▁উপায়	-9.63732
▁দাফন	-9.63846
▁সংরক্ষণ	-9.6387
▁সার্ভিসের	-9.63886
▁আপনাকে	-9.63933
বা	-9.63944
▁অফিসের	-9.63998
▁শুরুতে	-9.64056
▁প্রতিযোগিতা	-9.64188
▁কারাদণ্ড	-9.64191
▁জনে	-9.64289
▁ওয়েব	-9.6442
▁Bengal	-9.64485
▁নির্দিষ্ট	-9.64503
▁কর্তৃক	-9.64555
তেই	-9.64563
▁ডুবে	-9.64633
▁চোখে	-9.64659
▁ধরেই	-9.64686
▁শাস্তি	-9.64747
▁প্রচুর	-9.64813
▁লিমিটেড	-9.64826
▁প্রত্যাহার	-9.64937
লি	-9.65017
▁পদ্মা	-9.65022
▁খেতে	-9.65034
গ	-9.65092
▁অস্ট্রেলিয়ার	-9.65111
▁মুখপাত্র	-9.65131
▁পিছিয়ে	-9.65179
▁মানসিক	-9.6522
▁অ্যাপ	-9.65234
▁কাল	-9.65235
▁Views	-9.65345
▁ইতিমধ্যে	-9.65389
▁দাখিল	-9.65398
▁শপথ	-9.65467
▁সংস্করণ	-9.65521
▁ফোনে	-9.65524
▁পড়ার	-9.65557
▁ফি	-9.65615
▁ট্রাম্পের	-9.65634
▁পয়েন্টে	-9.65679
▁মিথ্যা	-9.65685
▁রেজাউল	-9.65792
▁বিপরীতে	-9.66025
▁দিবাগত	-9.66039
▁মাহবুব	-9.66049
▁খুশি	-9.66104
▁চ্যাম্পিয়ন	-9.66124
▁জুড়ে	-9.66211
▁সেনাবাহিনীর	-9.66226
▁ত্যাগ	-9.66371
▁সংবাদদাতা	-9.66377
▁দুজন	-9.6643
▁বুঝতে	-9.66441
▁হয়েছিলেন	-9.66457
▁পুলিশকে	-9.66461
▁অবরোধ	-9.66471
▁ধারণ	-9.66493
▁বিজয়ী	-9.6651
▁কারা	-9.66564
▁স্টেশন	-9.66581
▁বাজেট	-9.66584
▁বিরাট	-9.66648
▁অফ	-9.66734
▁A	-9.66788
▁সমাজের	-9.66806
টিতে	-9.66837
▁চোখ	-9.66854
▁স্বামীর	-9.66939
▁রাখে	-9.66956
▁ভিড়	-9.66986
▁পৃথিবীর	-9.66993
▁টাকায়	-9.67014
৩৯	-9.67018
▁হতো	-9.671
▁অবস্থার	-9.67156
▁খেলোয়াড়	-9.67188
▁কলকাতার	-9.67272
▁চুল	-9.6744
▁ভাইরাসে	-9.67658
▁কারণেই	-9.67734
গুলোতে	-9.67738
▁সুপ্রিম	-9.6774
▁বিজেপির	-9.67808
▁পেলে	-9.67934
৩৬	-9.67988
▁তেমন	-9.68014
▁একবার	-9.68091
▁ভোরে	-9.68238
▁দফা	-9.68283
৩৩	-9.68284
▁ঐ	-9.68288
▁কত	-9.6835
▁সিরিজে	-9.68373
▁পররাষ্ট্র	-9.68406
▁যাওয়ায়	-9.68425
▁বলেছে	-9.68479
▁ধরণের	-9.68612
▁গাড়ির	-9.68613
▁নিয়েই	-9.68662
েই	-9.68664
▁পতাকা	-9.68722
▁কাটা	-9.68778
▁এসএসসি	-9.68896
▁করবো	-9.68921
▁আলহাজ্ব	-9.69024
হ	-9.69145
▁চ্যানেল	-9.6922
▁নারীদের	-9.69248
এই	-9.69295
▁মেয়াদ	-9.69314
▁কয়েকদিন	-9.69333
▁কুপিয়ে	-9.69718
▁আনার	-9.69736
▁পঠিত	-9.69759
▁সভাপতিত্ব	-9.70061
▁৯০	-9.70127
▁বরং	-9.70238
▁আসামী	-9.70297
▁প্রাক্তন	-9.70452
▁বাজারের	-9.70472
▁বেরিয়ে	-9.70532
▁to	-9.70535
৪৭	-9.70566
▁সংবাদমাধ্যম	-9.70625
আ	-9.70626
▁গরম	-9.7065
৫২	-9.70708
▁উপাচার্য	-9.70765
▁সাহা	-9.70803
দিন	-9.70835
▁পূরণ	-9.7091
▁পূর্ণ	-9.71087
▁হামিদ	-9.71127
▁মাশরাফি	-9.71197
▁পি	-9.7124
▁আমেরিকার	-9.71271
▁প্রকাশ্যে	-9.71313
▁মুজিব	-9.71346
▁কর্মসূচির	-9.71362
▁ঘণ্টার	-9.71427
▁রাজ	-9.71468
▁শ্রমিকদের	-9.71628
কালে	-9.71631
▁এসেছেন	-9.71818
▁২০০	-9.71831
▁ডোনাল্ড	-9.71887
▁বোন	-9.71891
▁টেলিভিশন	-9.71894
▁অল্প	-9.71912
▁নিউ	-9.71987
৫৯	-9.72015
▁কর্তব্যরত	-9.72157
▁ভূমি	-9.72159
▁প্রতিষ্ঠাতা	-9.72164
▁সুলতানা	-9.72182
▁১১টার	-9.7232
▁ময়নাতদন্তের	-9.72324
▁নিবন্ধন	-9.72386
▁স্মৃতি	-9.72465
▁সাড়া	-9.72497
▁জাল	-9.72554
বাংলা	-9.72587
▁লেগে	-9.72592
▁কোর্ট	-9.72617
▁আরেকটি	-9.7262
▁সংযুক্ত	-9.72702
▁যাবেন	-9.72761
▁জবাব	-9.72765
▁নাসির	-9.72901
▁বলেই	-9.73175
৪৩	-9.73243
▁সর্ব	-9.73262
বে	-9.7327
▁টিকিট	-9.73318
▁১১টায়	-9.73391
৫৮	-9.73392
▁ফ্লাইট	-9.73402
বাংলাদেশ	-9.7343
▁ফাইনাল	-9.73444
▁গিয়েছিল	-9.73493
▁চিত্র	-9.73497
▁ছাড়াই	-9.73577
▁আব্দুস	-9.73706
▁সুরক্ষা	-9.73729
▁বিদেশে	-9.73767
▁ঝড়	-9.73787
▁বলেছিলেন	-9.73846
Com	-9.73885
▁পলাতক	-9.73912
▁নগর	-9.74119
▁ঘোষ	-9.74175
▁ডেঙ্গু	-9.74214
▁সোনার	-9.74289
▁ফরিদপুর	-9.74297
▁দপ্তর	-9.74298
রি	-9.74321
▁রুবেল	-9.74446
▁জনগণ	-9.74496
▁অভিষেক	-9.74506
▁অথচ	-9.7455
▁ভবনে	-9.74553
▁রক্ত	-9.74633
▁পরিচালনায়	-9.7468
▁পৌরসভা	-9.74715
▁গণমাধ্যম	-9.74807
▁সমিতি	-9.74836
▁মহাসড়কের	-9.74855
▁am	-9.74934
▁মানব	-9.7496
▁গাজীপুর	-9.7497
▁বৃষ্টির	-9.74995
▁কর্মীরা	-9.75043
▁ক্ষমতায়	-9.75046
▁প্রশংসা	-9.75051
▁গলায়	-9.75171
▁মাদ্রাসা	-9.75222
ed	-9.7525
▁পরিবারকে	-9.7528
▁সাংসদ	-9.75305
▁আব্দুল্লাহ	-9.75342
▁মিলনায়তনে	-9.75437
▁ইংল্যান্ড	-9.75495
▁সিলেটে	-9.75634
▁রাজি	-9.75645
▁শীর্ষে	-9.7565
▁স্বাগত	-9.75796
▁ব্যাটসম্যান	-9.75807
▁খাওয়া	-9.75816
৫৪	-9.75836
▁উপসর্গ	-9.75925
▁কলেজে	-9.7595
▁সংক্রমণের	-9.75954
▁ব্যবহৃত	-9.75975
▁সিনেমায়	-9.76013
▁কখনও	-9.76141
▁হেরে	-9.76225
▁সমাবেশে	-9.76375
▁মোল্লা	-9.76429
▁জড়িয়ে	-9.76546
▁আকাশ	-9.76613
▁আবেদনের	-9.76628
▁নজর	-9.76755
৪৪	-9.76851
▁আপাতত	-9.76856
▁বলিউডের	-9.7688
▁আহতদের	-9.76893
▁টেকনাফ	-9.77055
৫৭	-9.77092
▁মেহেদী	-9.77109
▁বসবাস	-9.77174
▁স্বাক্ষরিত	-9.77289
▁সেনাবাহিনী	-9.77441
▁ইত্যাদি	-9.7749
▁বন	-9.77576
▁মান্নান	-9.77625
▁ভোটের	-9.77679
▁ব্যয়	-9.77685
▁আল্লাহ	-9.77687
▁অবনতি	-9.77693
▁আশ্রয়	-9.77718
x	-9.7776
▁বেঁধে	-9.77805
▁৩৩	-9.77817
▁ওজন	-9.77863
▁বরাত	-9.77949
▁চ্যালেঞ্জ	-9.77962
▁গুগল	-9.7803
▁কামরুল	-9.78094
▁জামাল	-9.78133
▁চৌধুরীর	-9.78148
▁লেখক	-9.78173
▁বন্দ্যোপাধ্যায়	-9.7823
▁রোহিঙ্গাদের	-9.78272
▁বাড়তে	-9.78391
▁ব্যাটিং	-9.78457
▁বিবিসি	-9.78486
▁ডাঃ	-9.7859
▁সাদা	-9.78718
▁রোধে	-9.78794
▁উপস্থিতি	-9.78807
▁বেশিরভাগ	-9.78827
৪১	-9.78844
▁করেনি	-9.78959
▁মিলন	-9.79001
▁মারধর	-9.79024
▁জাতিসংঘের	-9.79102
▁হোসাইন	-9.79123
▁বাবুল	-9.79123
▁গঠিত	-9.7915
▁চলতে	-9.7923
▁গ্রহণের	-9.79231
▁উন্নয়নে	-9.79244
৪৬	-9.79288
▁বন্যা	-9.79482
▁ক্লাস	-9.79574
▁পিস	-9.79626
▁রিমান্ড	-9.79768
▁জন্যই	-9.79773
▁সত্য	-9.7984
▁আহবান	-9.79886
▁হিসাব	-9.79928
▁পর্যায়ের	-9.79977
▁প্রতিরক্ষা	-9.80023
▁নিজে	-9.80091
▁৩৪	-9.80147
▁অভিযোগের	-9.80148
৫৩	-9.80156
▁প্রেমের	-9.80156
▁পানির	-9.80166
▁নিকট	-9.80173
▁রেজা	-9.80194
▁৩৬	-9.80256
▁কারো	-9.80292
▁পদত্যাগ	-9.80297
▁ইনিংসে	-9.80355
▁আমেরিকা	-9.80387
▁বেঁচে	-9.80389
মি	-9.80408
▁উদ্দীন	-9.80486
▁ডেস্কঃ	-9.80509
▁সালাম	-9.80529
▁আবারো	-9.80537
▁বাড়ানো	-9.80551
▁ছেলের	-9.80601
▁নাই	-9.8061
▁গেলেও	-9.80619
▁রেখেছে	-9.80674
▁মাটিতে	-9.807
▁বিদেশ	-9.80741
▁জজ	-9.80778
▁Dhaka	-9.80789
▁মোদি	-9.80794
▁bangla	-9.80816
▁ডিবি	-9.80917
▁এভাবে	-9.8102
▁সহযোগিতায়	-9.81119
▁আবাসিক	-9.81151
▁সমস্যার	-9.81158
▁ফেব্রুয়ারী	-9.8117
▁স্কুলে	-9.81212
▁দুর্দান্ত	-9.81266
▁সেঞ্চুরি	-9.81275
▁৫০০	-9.81336
৪৯	-9.81457
▁পুনরায়	-9.81531
৫৬	-9.81553
▁কম্পিউটার	-9.81571
▁হোটেলে	-9.81604
▁Updated	-9.81614
▁আইনশৃঙ্খলা	-9.81648
▁একদিন	-9.81685
▁ক্রিকেটে	-9.81788
▁দোকানে	-9.81819
▁সেগুলো	-9.81827
▁দূরত্ব	-9.81848
▁অর্থনীতি	-9.81851
▁মিলিয়ন	-9.81903
▁দুধ	-9.81906
▁সংসদে	-9.8196
ির	-9.82014
▁হেফাজতে	-9.82016
▁Breaking	-9.82034
▁শিক্ষামন্ত্রী	-9.82087
▁সন্ধান	-9.82128
▁উদ্দেশ্য	-9.82187
▁নম্বরে	-9.82246
▁স্বাধীন	-9.82256
▁অসংখ্য	-9.82263
▁রোগীদের	-9.82342
▁ঐতিহাসিক	-9.82415
▁জানেন	-9.82432
▁মনির	-9.82488
▁৪৮	-9.82495
▁পক্ষের	-9.82514
▁আঞ্চলিক	-9.82608
▁আসাদুজ্জামান	-9.82759
▁শো	-9.82766
▁ভোটার	-9.82768
▁নিচ্ছে	-9.82771
▁মানবিক	-9.82773
▁পঞ্চম	-9.82838
৫১	-9.82862
উল	-9.8288
▁স্ত্রীকে	-9.82914
▁০	-9.82918
▁ঘন্টা	-9.82933
▁কো	-9.82993
▁নির্যাতনের	-9.83057
▁লাগবে	-9.83139
দা	-9.83162
▁লা	-9.83184
▁জাতিসংঘ	-9.83236
লীগের	-9.8325
▁হাজারের	-9.83274
▁পর্যটন	-9.83339
▁রাষ্ট্রদূত	-9.83442
▁মঞ্জুর	-9.83492
▁বিনামূল্যে	-9.83501
▁উঠতে	-9.83534
▁অভিজ্ঞতা	-9.83549
▁ইংল্যান্ডের	-9.83549
▁লাইন	-9.83867
▁ধ্বংস	-9.84015
▁নেতার	-9.84015
▁কেমন	-9.8403
▁বিনিয়োগ	-9.84125
▁মানবাধিকার	-9.84225
▁শুনে	-9.84237
▁ভাষায়	-9.84262
▁সাম্প্রতিক	-9.84268
▁চিহ্নিত	-9.84295
▁নেতাকর্মীরা	-9.84304
▁হারুন	-9.84377
▁কোথায়	-9.84401
▁সংযোগ	-9.84444
▁স্বাধীনতার	-9.84527
▁শব্দ	-9.84644
▁বাংলাদেশকে	-9.84671
▁ব্যক্তিকে	-9.84773
▁পরও	-9.8481
▁জানি	-9.8482
▁শিরোপা	-9.84852
▁আছি	-9.84864
▁প্রিন্ট	-9.84945
▁পাচ্ছেন	-9.85032
▁গায়ে	-9.85101
▁করেননি	-9.85107
▁ব্যবহারের	-9.85125
▁যানবাহন	-9.85199
পা	-9.85279
▁মিটার	-9.85319
▁স্বীকৃতি	-9.85329
▁জনকন্ঠ	-9.85368
▁লকডাউনের	-9.85483
▁অপহরণ	-9.85484
▁প্রতীক	-9.85496
▁রাতের	-9.85551
▁ফাউন্ডেশন	-9.8561
▁শুধুমাত্র	-9.85664
▁Posted	-9.85667
▁ইন্টারন্যাশনাল	-9.85678
▁দেহ	-9.85698
▁রূপ	-9.85851
▁যাত্রীদের	-9.85865
▁পুরোপুরি	-9.85938
▁চক্রবর্তী	-9.85958
▁সাফল্য	-9.86074
▁ধরতে	-9.86086
পি	-9.86088
▁শিশুকে	-9.86102
▁শ	-9.86169
▁ইফতার	-9.86173
▁আওয়ামীলীগ	-9.86227
▁পরেই	-9.86273
▁অধিকাংশ	-9.86367
▁সেখানেই	-9.86465
▁এল	-9.86482
▁এশিয়া	-9.86487
▁স্পষ্ট	-9.86524
▁পাঠ	-9.86526
▁পাঁচটি	-9.86569
▁কুমিল্লার	-9.8657
▁মিয়ানমারের	-9.86587
▁ঘটনাস্থলেই	-9.86667
▁খেলাধুলা	-9.86678
▁এটাই	-9.86724
▁রাষ্ট্রীয়	-9.86785
▁বিনা	-9.86837
▁চীনা	-9.86856
▁শাকিব	-9.86902
▁শাহজালাল	-9.86962
▁ঘূর্ণিঝড়	-9.86983
▁আগেও	-9.86996
▁প্র	-9.87071
▁ন্যাশনাল	-9.87074
▁করছিলেন	-9.871
▁সম্মান	-9.87117
▁কাপ	-9.87122
▁ক্যাম্প	-9.87125
▁ধাক্কায়	-9.87212
▁রমজান	-9.87226
▁বিবেচনায়	-9.87242
▁মাহফিল	-9.87307
▁দাবী	-9.87316
▁ডেকে	-9.87367
▁ফর	-9.87439
▁আগুনে	-9.87471
▁বাসের	-9.87479
▁অতি	-9.87572
▁প্রয়োগ	-9.87581
▁মাত্রা	-9.87584
▁#	-9.8762
▁বরাদ্দ	-9.87749
▁অধীনে	-9.87761
▁গুলিতে	-9.87816
▁হাজী	-9.87825
▁টুইট	-9.87848
▁AM	-9.87872
▁লিগের	-9.87944
▁রবিউল	-9.87971
▁ব্যারিস্টার	-9.87975
▁মেয়েকে	-9.88003
▁হ	-9.88112
▁জাহান	-9.88158
▁নব	-9.88163
▁অর্থমন্ত্রী	-9.88185
▁একথা	-9.88202
▁শরীর	-9.88251
লো	-9.88262
▁টন	-9.88308
▁যুবককে	-9.88481
▁দর্শক	-9.88526
▁সাগর	-9.88555
▁শফিকুল	-9.88585
▁রিয়াল	-9.88595
অ	-9.8865
▁জয়ী	-9.88705
▁ক্যামেরা	-9.88726
▁শীর্ষক	-9.8877
▁উল্লাহ	-9.888
▁ক্রয়	-9.88813
▁উন্নতি	-9.88879
▁সারাদেশ	-9.88937
▁বোলিং	-9.88947
▁বৃদ্ধির	-9.89091
▁ক্ষমা	-9.89103
্স	-9.89204
▁মেজর	-9.89307
▁কক্সবাজারের	-9.89323
▁অজ্ঞাত	-9.89365
▁বার্ষিক	-9.89409
▁মাদরাসা	-9.89436
▁কষ্ট	-9.8949
▁তথা	-9.89507
▁ভালোবাসা	-9.89562
▁টু	-9.89724
▁মেশিন	-9.89768
▁ইং	-9.89852
▁সরে	-9.89902
▁রোড	-9.90005
▁পদ্ধতি	-9.9001
▁বিসিবি	-9.9003
▁•	-9.90037
▁প্রতিনিধিঃ	-9.90058
▁ফাউন্ডেশনের	-9.90106
▁বাড়াতে	-9.90123
ডি	-9.90135
▁কমপক্ষে	-9.90191
কেও	-9.90219
▁১০টায়	-9.90271
▁নেবে	-9.90296
▁May	-9.90302
▁চেক	-9.90363
▁সূচক	-9.90364
▁নৌ	-9.90376
▁খ্রিস্টাব্দ	-9.90398
▁আসর	-9.9058
▁রাজশাহীর	-9.90598
▁নাটক	-9.90739
▁ছুটে	-9.90784
▁সরকারকে	-9.9083
▁মৌসুমে	-9.90853
▁নিন্দা	-9.90955
▁নায়ক	-9.90987
▁গাছের	-9.91059
▁পাঠানোর	-9.91083
▁শনাক্তের	-9.91177
▁নেতাকর্মীদের	-9.91179
▁লাগিয়ে	-9.9118
▁বারবার	-9.91189
▁মাটি	-9.9124
▁হাওলাদার	-9.9124
▁একদিনে	-9.91295
▁আগ্রহ	-9.91327
▁কল	-9.91334
গত	-9.91353
▁এনামুল	-9.91417
▁সেতুমন্ত্রী	-9.91469
▁নোটিশ	-9.91521
▁সা	-9.91583
y	-9.91684
▁সংবর্ধনা	-9.917
▁ওয়ার্ডে	-9.91706
▁বিমানবন্দর	-9.91735
▁পেল	-9.91744
▁সংস্কৃতি	-9.91771
▁ট্রাস্ট	-9.91811
▁দেশীয়	-9.91825
▁টাঙ্গাইল	-9.91853
▁ওমর	-9.91885
▁ইতিহাসে	-9.91887
ভ	-9.91952
▁২০১৩	-9.9196
▁রেখেছেন	-9.92114
▁চিকিৎসকরা	-9.9219
কি	-9.92268
▁ভুয়া	-9.92395
▁রেলওয়ে	-9.92396
▁ঘোষণার	-9.92462
▁মিরপুর	-9.92567
▁শ্রীলঙ্কা	-9.92587
▁!	-9.92614
▁ক্রিকেটের	-9.92668
▁সিএনজি	-9.92682
▁পাবলিক	-9.92725
▁প্রয়োজনে	-9.92876
▁স্মার্টফোন	-9.92885
▁জমির	-9.92931
▁জমিতে	-9.92974
▁পুরনো	-9.93065
▁পাড়া	-9.93125
▁ওয়েবসাইট	-9.93152
▁দিল্লি	-9.93222
▁খাতে	-9.93244
▁ফিরেছেন	-9.93253
সে	-9.93258
▁চাষ	-9.93267
▁মোকাবিলায়	-9.93267
▁শ্রী	-9.933
▁হযরত	-9.93315
▁মৃতদেহ	-9.93348
▁পাশ	-9.93385
▁১০টার	-9.93469
▁অভিনন্দন	-9.93487
▁ঘোষিত	-9.93511
▁দিনব্যাপী	-9.93521
▁স্টক	-9.93533
ঁ	-9.93543
▁শ্রীলঙ্কার	-9.93556
▁পরের	-9.93635
▁গাজী	-9.93788
▁সদ্য	-9.9383
▁সুজন	-9.93853
▁কথায়	-9.93894
▁কারনে	-9.93932
▁এগুলো	-9.93963
▁কমিউনিটি	-9.93964
২০২০	-9.94029
▁ব্যক্তিদের	-9.94133
▁অনেকটা	-9.94151
▁বাড়ানোর	-9.94162
▁শাহরুখ	-9.94222
▁হকের	-9.94247
▁ফ্রি	-9.94324
▁নির্দেশে	-9.94324
d	-9.94405
▁গিয়েছিলেন	-9.94457
▁ব্যুরো	-9.9449
▁সক্রিয়	-9.94634
▁আদর্শ	-9.94644
▁বাঙালি	-9.94654
▁টুর্নামেন্ট	-9.94716
▁২টি	-9.94759
▁শূন্য	-9.94764
▁ago	-9.94775
্য	-9.94852
▁মানে	-9.94869
▁সেতুর	-9.94872
▁জোট	-9.94874
▁৪২	-9.94966
▁রায়ের	-9.94987
▁আক্রমণ	-9.95027
▁কারও	-9.95051
▁সন্দেহ	-9.95114
▁তল্লাশি	-9.95123
▁মেট্রোপলিটন	-9.95123
▁ইতিমধ্যেই	-9.95146
▁জাফর	-9.95194
▁৫৫	-9.95247
নগর	-9.95292
▁প্রতিবন্ধী	-9.95349
▁জো	-9.95441
▁মনি	-9.95447
▁জে	-9.95486
▁সুর	-9.95525
▁ঠেকাতে	-9.95562
▁খোকন	-9.95574
▁আইনি	-9.95625
▁উদ্দিনের	-9.95804
▁ধাপে	-9.95844
▁পূর্বে	-9.95866
▁বিবেচনা	-9.95895
▁সুরমা	-9.95907
▁ইয়াবাসহ	-9.96009
▁লিগে	-9.96011
▁১২টার	-9.96066
▁করলো	-9.9621
▁ঘুম	-9.96213
▁মেয়েদের	-9.96227
▁ব্যথা	-9.96289
▁ইউএনও	-9.96394
▁সুপারিশ	-9.96395
▁প্রাপ্ত	-9.96426
▁ভোলা	-9.96544
▁হাকিম	-9.96613
▁জখম	-9.96616
▁ছাত্রদলের	-9.96655
▁বিক্রির	-9.96655
t	-9.96682
▁সামান্য	-9.96713
▁বয়সে	-9.96763
তি	-9.96828
▁ফুট	-9.96836
▁মোস্তাফিজুর	-9.96885
▁বিস্তার	-9.96952
▁মামলাটি	-9.96984
▁একুশে	-9.97071
▁অপরদিকে	-9.97073
▁যিনি	-9.9708
▁প্রতিযোগিতায়	-9.97092
▁সকলকে	-9.97102
▁ভাইয়ের	-9.97156
আর	-9.97332
%	-9.97375
▁নুসরাত	-9.9741
▁গানটি	-9.97425
▁মজুমদার	-9.97449
▁জের	-9.97452
▁৪১	-9.97463
▁মোড়	-9.97518
▁বিধি	-9.97571
▁ভিটামিন	-9.97601
▁ফিরতে	-9.97614
▁মেম্বার	-9.97629
▁রাজধানীতে	-9.97669
▁নোয়াখালী	-9.97711
▁খাগড়াছড়ি	-9.97787
▁ইরান	-9.97807
▁তোলার	-9.97813
▁হাবিবুর	-9.97872
▁দরিদ্র	-9.97883
▁আরিফ	-9.97924
▁দৃশ্য	-9.97924
লীগ	-9.97924
▁জেলে	-9.97931
▁মিনিটের	-9.97933
▁ডেপুটি	-9.98048
▁আফ্রিকার	-9.9805
▁আজিজ	-9.98058
▁উত্তেজনা	-9.98214
▁কোহলি	-9.98217
▁অপেক্ষায়	-9.98262
▁৭৫	-9.98271
▁জিজ্ঞাসাবাদ	-9.98311
▁শিক্ষকদের	-9.98316
▁সাক্ষাৎকারে	-9.98328
▁আনুষ্ঠানিকভাবে	-9.98332
▁শিরোনাম	-9.98361
▁জনক	-9.98391
▁Pratidin	-9.98406
▁মাননীয়	-9.98429
▁আইপিএল	-9.98457
▁মনোনীত	-9.98494
▁মন্ডল	-9.9852
▁ছাড়	-9.9855
▁গতি	-9.98751
▁বন্ধের	-9.9876
▁হালকা	-9.98768
▁জনতা	-9.98777
▁সমান	-9.98897
▁জুয়েল	-9.98996
▁পেসার	-9.99062
▁এক্সপ্রেস	-9.99086
▁দলটির	-9.99103
▁এরশাদ	-9.99139
▁৩৮	-9.99141
▁কর্মকর্তার	-9.99162
▁সুনামগঞ্জ	-9.9921
▁ক্ষোভ	-9.99225
▁মাস্টার	-9.99236
▁উপরে	-9.9929
▁ক্রাইম	-9.99346
▁শরীফ	-9.99347
েও	-9.99362
▁আরবের	-9.99415
▁দেখানো	-9.9948
▁যথাযথ	-9.99481
▁রোগে	-9.99488
▁বিদ্যালয়ে	-9.99571
▁পারছেন	-9.99577
▁এইচ	-9.99642
▁দিয়েছিল	-9.99722
▁পাবনা	-9.9975
ড়	-9.9979
▁পিটিয়ে	-9.99808
▁দায়ী	-9.99837
▁রায়হান	-9.99838
▁রাজা	-9.99854
▁আহম্মেদ	-9.99856
▁সবসময়	-9.99877
▁জনাব	-9.99901
▁দুইজন	-9.99916
▁সাধারণত	-9.99919
▁পৌন	-9.99935
গামী	-9.99959
নে	-9.99988
▁ট্রেনের	-10.0002
▁যথেষ্ট	-10.0004
▁গণমাধ্যমকে	-10.0013
▁স্ব	-10.0014
▁দায়িত্বে	-10.0015
▁সবকিছু	-10.0028
▁ওপেনার	-10.003
▁৩৭	-10.0031
▁Read	-10.0033
▁অবস্থানে	-10.0041
▁ভেতর	-10.0045
▁বাড়তি	-10.005
▁নিউজিল্যান্ড	-10.005
▁অঞ্চল	-10.006
▁১০টি	-10.0067
▁তদন্তে	-10.0069
bd	-10.0073
▁মাদ্রাসার	-10.0082
▁ফিচার	-10.0083
▁মন্দির	-10.0084
▁সংসার	-10.0085
▁ইলিশ	-10.0088
▁শহিদুল	-10.0088
▁ভার্চুয়াল	-10.0102
▁অনুসারে	-10.0105
▁বিশেষজ্ঞ	-10.0111
▁মোদী	-10.0111
▁আমিনুল	-10.0115
▁নির্মাণের	-10.0123
▁মুক্তিযুদ্ধের	-10.0123
▁সেন্টারে	-10.0131
▁ঈদে	-10.0133
▁January	-10.0134
▁মেরে	-10.0134
▁By	-10.0145
▁ইসলামিক	-10.0155
▁মানিক	-10.0158
▁ইউনিটের	-10.0164
▁তম	-10.0164
▁সদরের	-10.0168
▁সঞ্চালনায়	-10.0173
▁সহায়তায়	-10.0176
▁স্বেচ্ছাসেবক	-10.0192
▁মালেক	-10.0194
▁রাহুল	-10.0196
▁উপস্থাপন	-10.0197
আমার	-10.0201
▁ট্রাকের	-10.0205
▁পত্রিকা	-10.0209
▁প্রার্থীর	-10.0211
▁কাটিয়ে	-10.0213
নো	-10.0215
▁হাট	-10.0215
▁একদল	-10.0223
▁আশরাফুল	-10.0224
তো	-10.0225
▁নীতি	-10.0235
▁সাজা	-10.0241
▁প্রয়াত	-10.0247
▁তারিখে	-10.0247
▁বিশ্বব্যাপী	-10.0248
▁এইচএসসি	-10.0264
▁বেছে	-10.0264
▁প্রত্যাশা	-10.0267
▁দুর্ঘটনার	-10.0269
▁কিছুক্ষণ	-10.0275
▁ঝুল	-10.028
▁নিলেন	-10.0296
▁যাবত	-10.0297
▁বলার	-10.0302
▁যেহেতু	-10.0307
▁আল্লাহর	-10.0307
▁হানিফ	-10.0308
▁স্পিকার	-10.0312
▁দরজা	-10.0325
▁পাল	-10.0329
▁ডে	-10.0331
▁দশ	-10.0337
খ	-10.0338
▁করপোরেশনের	-10.0338
▁মহা	-10.0342
▁সাইকেল	-10.0344
▁নিরাপত্তার	-10.0345
নিউজ	-10.0346
▁পার্বত্য	-10.0347
▁নেবেন	-10.0354
▁চাঁদ	-10.0359
▁ওয়ার্ল্ড	-10.036
▁রবি	-10.0366
▁রাষ্ট্র	-10.0372
মে	-10.0394
▁স্বাক্ষর	-10.041
▁এলে	-10.041
▁পল্লী	-10.0412
▁তুরস্কের	-10.0413
▁কোর্টের	-10.0413
▁ঝিনাইদহ	-10.0415
▁চাওয়া	-10.0416
▁ঘন্টায়	-10.0417
▁শিগগিরই	-10.042
▁দেখেন	-10.0426
▁রিট	-10.0435
▁কিনতে	-10.0436
▁নাগাদ	-10.0436
▁জিয়াউর	-10.0446
▁মোতায়েন	-10.0453
▁গণ	-10.0458
▁চলেছেন	-10.0469
এস	-10.0469
▁লাইফ	-10.0471
▁হাইকোর্টের	-10.0472
▁সোনা	-10.0473
▁সোয়া	-10.0475
বিরোধী	-10.0475
▁খাওয়ার	-10.0477
▁প্রতিষ্ঠানে	-10.0478
▁আশ্বাস	-10.0483
▁প্রার্থীদের	-10.0489
▁তথ্যমন্ত্রী	-10.0495
▁নারীকে	-10.0498
ভূমি	-10.0498
▁নিচ্ছেন	-10.0499
▁ভেঙ্গে	-10.0501
▁ধার্য	-10.0502
▁বিতর্ক	-10.0503
▁ওয়া	-10.0504
▁টেস্টের	-10.0505
i	-10.051
▁অমিত	-10.051
▁কাপড়	-10.0511
▁পড়লে	-10.0512
▁প্রাথমিকভাবে	-10.0515
▁সহজেই	-10.0517
▁প্রাকৃতিক	-10.0521
▁যাচাই	-10.0526
▁দুর্যোগ	-10.0532
▁ইন্ডিয়া	-10.0534
▁মু	-10.054
▁মিল	-10.0543
▁আনুষ্ঠানিক	-10.0546
▁চোখের	-10.0547
▁অধিদফতরের	-10.055
▁অপু	-10.0552
শিক্ষাপ্রতিষ্ঠান	-10.0555
▁ওভার	-10.0557
▁সেজন্য	-10.0566
▁মানুষদের	-10.0568
▁বিকাশ	-10.0568
রে	-10.0589
▁পাল্টা	-10.0592
▁ব্যবসায়ীদের	-10.0593
▁টিকার	-10.0593
▁আলোচনার	-10.0597
▁ভিসা	-10.0597
▁ভ্রমণ	-10.06
▁বার্তায়	-10.0604
▁গাড়িতে	-10.0606
▁একজনের	-10.0608
▁কিনে	-10.061
▁সংগীত	-10.061
▁ব্রাজিল	-10.062
▁শান্ত	-10.0621
▁রাজ্জাক	-10.0626
▁পর্ব	-10.0627
▁Comments	-10.0629
▁জানাজা	-10.0648
▁দর্শকদের	-10.0649
তেও	-10.0652
▁প্রত্যেক	-10.0653
▁কার	-10.0653
▁৬৫	-10.0654
▁পাক	-10.0658
▁সার	-10.0658
r	-10.0659
▁পাসপোর্ট	-10.0663
▁মি	-10.0669
▁কৃষকদের	-10.0675
▁খেলায়	-10.0683
▁সম্পর্কিত	-10.0685
▁ড্র	-10.0688
▁ভবিষ্যতে	-10.0688
▁মরহুম	-10.069
▁বিপ্লব	-10.0696
▁দিয়েছি	-10.0697
▁জসিম	-10.0698
▁বিগত	-10.0702
▁প্রচারণা	-10.0715
▁চাপা	-10.072
টাই	-10.0722
▁৩টি	-10.0724
▁পণ্যের	-10.073
▁নিউজিল্যান্ডের	-10.0738
▁রাতেই	-10.0742
ঢাকা	-10.0746
▁কারখানা	-10.0746
▁এন	-10.075
▁পেয়েছি	-10.0751
▁ব্যবসায়ীরা	-10.0752
▁অস্বীকার	-10.0755
▁সুলতান	-10.076
▁নিযুক্ত	-10.0766
▁সভার	-10.0782
▁শাহীন	-10.0784
▁গণমাধ্যমে	-10.0788
ছ	-10.0792
▁হবিগঞ্জ	-10.0801
▁বিবাহ	-10.0807
▁চত্বরে	-10.0812
▁বন্দরে	-10.0817
▁দিবসে	-10.0818
▁বোতল	-10.0818
▁তরফে	-10.0819
▁প্রতিবেশী	-10.0821
▁আকবর	-10.0822
▁থেকেও	-10.083
▁অন্যদের	-10.0832
▁লঞ্চ	-10.0832
▁সংখ্যক	-10.0835
▁বাঁচাতে	-10.0837
▁প্রতিশ্রুতি	-10.0839
▁আসরে	-10.0842
▁৩৯	-10.0848
▁দায়	-10.0851
▁আইসিসি	-10.0859
▁সুষ্ঠু	-10.0863
▁হুমায়ুন	-10.0876
▁প্রদেশের	-10.0884
কালীন	-10.0884
▁হারে	-10.089
▁চারজন	-10.09
▁শাহজাহান	-10.0901
▁মীর	-10.0904
▁September	-10.0905
▁দেশকে	-10.0907
▁উপাদান	-10.091
▁ডাউনলোড	-10.0912
▁এমনটাই	-10.0914
▁যাত্রীবাহী	-10.0925
▁নয়া	-10.0926
▁ধারায়	-10.0931
▁মহাসড়কে	-10.0933
▁মারাত্মক	-10.0934
▁সাক্ষাৎ	-10.0942
▁সাঈদ	-10.0942
▁ক্যাম্পের	-10.0944
▁আগ্রহী	-10.0945
▁তে	-10.0945
▁ইউসুফ	-10.0946
▁৭১	-10.095
▁৪৩	-10.0952
▁ডাকাত	-10.0954
▁টাইম	-10.0955
▁গুলিবিদ্ধ	-10.0955
▁বিখ্যাত	-10.0956
▁সচিবালয়ে	-10.0971
▁উ	-10.0974
a	-10.0975
▁ভারী	-10.0977
▁পরিবর্তে	-10.0985
▁নিয়েও	-10.0987
▁মাদকদ্রব্য	-10.0995
ভি	-10.0996
▁ডিম	-10.0998
▁মিয়ানমার	-10.0999
▁কড়া	-10.1002
▁কংগ্রেসের	-10.1004
▁প্রেক্ষিতে	-10.1007
▁বিশ্বজুড়ে	-10.1008
▁পড়ছে	-10.1009
▁এমনই	-10.1012
▁৫টি	-10.1016
▁ওয়ান	-10.1017
▁তালা	-10.1025
▁আতঙ্ক	-10.1037
▁৫২	-10.1038
▁ভোটগ্রহণ	-10.104
▁পুলিশে	-10.1045
▁গুঞ্জন	-10.1048
য	-10.1056
▁উপভোগ	-10.1056
▁যাচ্ছিল	-10.1057
▁নাগরিকদের	-10.1066
▁অবাক	-10.1067
▁আফ্রিকা	-10.1075
▁মিষ্টি	-10.1087
▁বান্দরবান	-10.1089
২০২১	-10.1089
▁চালানোর	-10.109
▁ন্যায়	-10.1101
▁১০টা	-10.1102
▁অলরাউন্ডার	-10.1103
▁৭২	-10.111
▁প্রকৃত	-10.1113
▁ধানের	-10.1115
▁আচরণ	-10.1121
▁সম্মাননা	-10.1123
▁মৌলভীবাজার	-10.1126
▁মোকাবেলায়	-10.1132
▁৪৪	-10.1135
▁আড়াই	-10.114
▁সংগৃহীত	-10.1141
▁আলি	-10.1149
▁পর্বে	-10.1154
▁অবৈধভাবে	-10.1164
▁অক্সিজেন	-10.1166
▁ধারাবাহিকতায়	-10.1171
▁আনুমানিক	-10.1179
▁মোশাররফ	-10.1189
▁ইনস্টিটিউট	-10.1193
▁ছাত্রীকে	-10.1199
▁তখনই	-10.1201
▁বাগেরহাট	-10.1202
▁ভিডিওতে	-10.1202
▁ময়না	-10.1203
▁মন্ত্রিপরিষদ	-10.121
▁৩০০	-10.1211
▁দলটি	-10.1215
▁স্বর্ণ	-10.1216
▁অনুসরণ	-10.1219
▁খতিয়	-10.123
▁উপলক্ষ্যে	-10.1231
▁প্রদর্শন	-10.1235
▁বেঞ্চ	-10.1237
▁সামনের	-10.1239
▁October	-10.1241
▁রাজু	-10.1245
ad	-10.1248
▁সতর্কতা	-10.1252
▁রাম	-10.1253
▁চালান	-10.1256
▁ম্যাচটি	-10.126
▁বেনাপোল	-10.1262
গণ	-10.1266
▁প্রকার	-10.1267
▁সংস্কার	-10.1267
▁১টি	-10.127
▁তাছাড়া	-10.1272
▁মতোই	-10.1272
▁প্রবল	-10.1274
▁আশরাফ	-10.1278
▁সন্ত্রাস	-10.1282
থ	-10.1287
▁রাউন্ড	-10.1291
▁কাউন্সিল	-10.1294
▁দেখুন	-10.1296
▁কা	-10.1304
▁দেলোয়ার	-10.1315
▁হাবিব	-10.1334
▁শর্ত	-10.1349
উ	-10.1352
▁ছাড়িয়ে	-10.1352
▁গলা	-10.1354
▁সচেতনতা	-10.1355
▁দুইটি	-10.1355
▁আয়ের	-10.1365
▁পড়বে	-10.1367
▁তৃণমূলের	-10.1371
▁লে	-10.1378
▁Previous	-10.1381
▁গুজব	-10.1382
গুলির	-10.1382
▁সিরাজুল	-10.1386
▁সান	-10.1388
▁কর্ম	-10.139
▁লিমিটেডের	-10.1391
▁এয়ার	-10.1393
▁একেবারে	-10.1399
▁ভোটে	-10.1408
▁চাঁপাইনবাবগঞ্জ	-10.1417
▁চাকমা	-10.1435
▁জ্ঞান	-10.1438
▁মতামত	-10.1441
▁ধরেন	-10.1442
▁বার্ষিকী	-10.1443
▁উত্তোলন	-10.1447
▁অধিক	-10.1452
▁পরিশোধ	-10.1453
মূলক	-10.1453
▁গ্রাহকদের	-10.1458
▁গ্রহন	-10.1458
▁ফেলা	-10.1459
▁কমিয়ে	-10.1463
▁সম্পর্কের	-10.1464
▁শর্মা	-10.1466
▁রাঙামাটি	-10.1466
▁সমুদ্র	-10.1468
▁ব্রাহ্মণবাড়িয়া	-10.1469
▁পদক	-10.1478
▁ভুলে	-10.1482
▁চলচ্চিত্রের	-10.1489
▁কর্মচারী	-10.1494
▁উজ্জ্বল	-10.1501
▁দুর্নীতির	-10.1502
তদন্ত	-10.1504
▁ঐক্য	-10.1506
▁৮টা	-10.1509
▁পাওয়ায়	-10.1512
▁গুলো	-10.1515
মান	-10.1517
▁ক্যাম্পে	-10.1518
▁স্বপন	-10.1527
▁মালামাল	-10.1535
▁বুকে	-10.1536
▁June	-10.154
▁কমাতে	-10.1548
▁ক্ষুদ্র	-10.1557
▁মোড়ে	-10.1565
স্বাস্থ্যমন্ত্রী	-10.1566
বিষয়ক	-10.1574
▁নওগাঁ	-10.1584
▁সম্ভাব্য	-10.1584
▁ফরিদ	-10.1585
চ	-10.159
▁স্থানীয়দের	-10.1597
▁ভক্তদের	-10.1599
▁ইচ্ছা	-10.1601
▁রিজভী	-10.1604
▁শিক্ষার্থীর	-10.1605
▁রপ্তানি	-10.1607
▁বাড়বে	-10.1611
▁Kolkata	-10.1613
▁টুইটারে	-10.1613
▁দৃষ্টি	-10.1618
▁হচ্ছিল	-10.1627
▁ডিএসই	-10.1636
▁হাসি	-10.1637
পরিদর্শক	-10.164
▁পারলে	-10.164
▁কোরআন	-10.1645
▁পাকিস্তানি	-10.1645
▁নেত্রী	-10.1646
▁প্রেমিক	-10.165
▁Newspaper	-10.1651
▁অনেকের	-10.1656
▁দে	-10.1662
▁সংঘর্ষের	-10.1665
▁২০১২	-10.1681
▁ইংরেজি	-10.1682
▁হায়দার	-10.1685
▁সংক্ষিপ্ত	-10.1686
▁দুজনের	-10.1693
▁সবজি	-10.1693
▁রাজস্ব	-10.1694
▁মিউজিক	-10.1697
▁সীমিত	-10.1698
আই	-10.1703
▁রাখুন	-10.1708
▁উন্মুক্ত	-10.1709
▁সংরক্ষিত	-10.171
▁জিয়াকে	-10.1711
▁বিচ্ছিন্ন	-10.1715
▁উপস্থিতিতে	-10.1716
▁করপোরেশন	-10.1718
▁নির্ভর	-10.1719
▁বরখাস্ত	-10.1719
▁চোট	-10.1719
▁বিমানের	-10.1722
▁তেমনি	-10.1724
▁কৃষকের	-10.1731
▁রিপন	-10.1732
▁পায়ে	-10.1732
▁খাবারের	-10.1747
▁হৃদয়	-10.1747
▁চলা	-10.1754
▁শুরুতেই	-10.1756
▁দুর্বৃত্তরা	-10.1763
হীন	-10.1767
কেই	-10.177
▁সাহিত্য	-10.1778
▁৫১	-10.178
▁দুদকের	-10.178
▁মুশফিকুর	-10.1786
▁নিহতদের	-10.18
▁৯টার	-10.1803
▁গেলো	-10.1804
▁কাপুর	-10.1805
▁কোরিয়ার	-10.181
▁বয়ে	-10.1812
▁জাতি	-10.1822
▁কোরবানি	-10.1823
▁Amader	-10.1828
▁পদ্ধতিতে	-10.183
▁ট্রাফিক	-10.1833
▁শেরপুর	-10.1836
▁অপরাধে	-10.1841
▁করছিল	-10.1846
▁ইউ	-10.1848
ভিডিও	-10.1849
▁মোটর	-10.1851
▁আনসার	-10.1861
▁স্থাপনা	-10.1864
▁টস	-10.1874
▁Sylhet	-10.1876
▁আফগানিস্তানের	-10.1878
▁লাইভ	-10.1882
▁ইসমাইল	-10.1884
টার	-10.1884
▁অসাধারণ	-10.1886
▁ফুটবলার	-10.189
▁ওয়েবসাইটে	-10.1891
বাড়ি	-10.1892
▁কলকাতায়	-10.1898
▁কৌশল	-10.19
▁পরিপ্রেক্ষিতে	-10.1906
▁কবীর	-10.1908
▁প্রতিষ্ঠানটি	-10.1916
▁যোগদান	-10.1919
▁লম্বা	-10.1923
এসআই	-10.1927
▁নোট	-10.1927
▁বোঝা	-10.193
▁পাচার	-10.1931
▁সমস্যায়	-10.1936
▁ক্লিক	-10.194
ছেন	-10.1941
▁দত্ত	-10.1942
▁চুয়াডাঙ্গা	-10.1944
o	-10.1944
▁অ্যাকাউন্ট	-10.1947
▁আসছিল	-10.1949
▁শ্রেষ্ঠ	-10.1949
▁লড়াইয়ে	-10.1958
▁মুক্তিযুদ্ধ	-10.196
▁দান	-10.1963
▁৪টি	-10.1967
হা	-10.197
▁চলছিল	-10.1971
▁৪৯	-10.1978
▁ব্যক্ত	-10.1979
▁বাঁধা	-10.1982
▁প্রমূখ	-10.1983
▁পরিবর্তনের	-10.1988
▁একজনকে	-10.1995
▁একইসঙ্গে	-10.1996
▁ফেরি	-10.2004
▁নিলে	-10.2006
▁সানি	-10.2006
▁কবে	-10.2013
▁হলুদ	-10.2013
▁ফিরোজ	-10.2014
▁শিশুটির	-10.2018
▁দিয়েই	-10.2028
▁৯টা	-10.203
▁বাম	-10.2036
▁সিদ্দিকী	-10.2038
▁আইনগত	-10.2039
▁গবেষণায়	-10.2042
▁যাচ্ছি	-10.2045
▁মানববন্ধনে	-10.2047
▁প্রতিক্রিয়া	-10.2047
▁ফরম	-10.205
▁পাঠিয়ে	-10.2051
▁জানিয়েছিলেন	-10.2052
▁অনুশীলন	-10.2056
▁গুলশান	-10.2057
▁Times	-10.206
▁বিক্রয়	-10.2062
▁অপরাজিত	-10.2063
▁বৃষ্টিপাত	-10.2066
▁অনন্য	-10.2068
▁গুণ	-10.2069
▁বাসে	-10.207
▁আশপাশের	-10.2071
▁উদ্বেগ	-10.2076
▁আবদুর	-10.2078
▁প্রদানের	-10.2083
▁আগ	-10.2085
▁যাবজ্জীবন	-10.2096
▁আলমের	-10.2097
▁বালু	-10.2098
▁ভাঙচুর	-10.21
িয়ে	-10.2102
▁চিকিৎসকের	-10.2103
▁রাশেদ	-10.2105
▁রাজশাহীতে	-10.2107
▁অভ্যন্তরীণ	-10.2107
▁নারায়ণগঞ্জের	-10.2111
▁চিনি	-10.2111
▁সোহাগ	-10.2114
▁কেনার	-10.2126
▁বিধিনিষেধ	-10.2127
▁November	-10.213
▁রঙের	-10.2141
▁জাহাজ	-10.2143
▁অবসর	-10.2153
▁দিল্লির	-10.2159
▁নীল	-10.2163
n	-10.2167
▁নিবেদন	-10.2186
▁পর্দায়	-10.2191
▁ফেনী	-10.2199
▁যুক্তরাজ্য	-10.22
▁চলার	-10.2204
ইন	-10.2205
▁এক্ষেত্রে	-10.2206
▁বৃদ্ধ	-10.2207
▁July	-10.2211
▁লিড	-10.2212
▁সৌরভ	-10.2212
▁বিতর্কিত	-10.2217
"।	-10.2218
▁সিরাজগঞ্জ	-10.2219
▁সাময়িক	-10.2221
▁৫৪	-10.2222
▁চুরির	-10.2223
▁সাইবার	-10.2223
▁দুদক	-10.2224
▁আইডি	-10.2227
▁হজ	-10.2229
মুক্ত	-10.2231
▁BdST	-10.2232
▁কর্পোরেশনের	-10.2232
▁অবিলম্বে	-10.2233
▁পাথর	-10.2243
▁জ্বর	-10.2243
▁সশস্ত্র	-10.2243
▁বৈশ্বিক	-10.2245
কারীদের	-10.2248
▁চক্রের	-10.225
▁পাঠান	-10.2253
▁বাস্তবায়নে	-10.2256
▁ইস্যুতে	-10.2257
▁আবদুল্লাহ	-10.2257
▁সংবাদটি	-10.2259
▁মার্কেট	-10.2261
▁পাইলট	-10.2267
▁প্রতিষ্ঠিত	-10.2267
▁ফাঁড়ি	-10.2269
▁ক্রিকেটারদের	-10.2276
▁Archives	-10.2278
▁অনেকটাই	-10.2279
▁বাছাই	-10.2289
▁অ্যাকশন	-10.2291
▁এড়াতে	-10.2292
▁পরিষেবা	-10.2294
▁খালি	-10.2294
▁আরিফুল	-10.2299
▁সিস্টেম	-10.2301
▁গণতন্ত্র	-10.2301
▁মহামারির	-10.2304
▁আত্মীয়	-10.2313
▁প্রযুক্তির	-10.2318
▁স্মরণ	-10.2322
▁সফরের	-10.2323
▁রক্ষায়	-10.2326
▁মাংস	-10.2334
▁লন্ডন	-10.234
▁যাই	-10.2345
▁ইঙ্গিত	-10.2347
▁শ্রমিকরা	-10.2348
▁বহিষ্কার	-10.2351
▁ফ্রান্স	-10.2352
▁শ্রেণি	-10.2357
▁টেক	-10.2358
▁নিম্ন	-10.2362
▁December	-10.2371
▁সিদ্দিক	-10.2373
▁১৪২৮	-10.2374
▁জোটের	-10.2382
▁মনোনয়নপত্র	-10.2383
পরিচালক	-10.2383
▁নেতৃত্বাধী	-10.2386
▁রুশ	-10.2393
▁পরিবেশন	-10.2395
জা	-10.2396
▁ছাত্রীর	-10.24
▁গাইবান্ধা	-10.2401
▁গোলের	-10.2411
সের	-10.2414
▁ব	-10.2418
▁খাতের	-10.242
▁বগুড়ার	-10.2421
▁জরুরী	-10.2429
▁ভূঁইয়া	-10.2433
▁মেসির	-10.2433
▁রোগের	-10.2435
▁February	-10.2441
▁অ্যা	-10.2442
▁কাছাকাছি	-10.2452
▁কিশোরী	-10.2453
▁হেলাল	-10.2457
▁বাইডেন	-10.2465
▁হেড	-10.2469
▁সিনেমাটি	-10.2471
▁মেলার	-10.2473
▁সদস্যকে	-10.2478
নের	-10.2479
▁ভেসে	-10.2483
▁জামে	-10.2487
▁পয়সা	-10.25
▁West	-10.2501
▁ভিত্তি	-10.2504
▁ইউটিউব	-10.2504
▁পর্যাপ্ত	-10.2511
▁সেবার	-10.2519
_	-10.2522
▁পশ্চিমবঙ্গের	-10.253
▁হাফেজ	-10.2533
▁উৎসবের	-10.2533
▁ঠাকুরগাঁও	-10.2534
▁মিস	-10.2535
▁ভিতরে	-10.2537
▁৪৬	-10.254
▁ক্যাম্পাসে	-10.2541
▁বক্স	-10.2542
▁প্রেসক্লাব	-10.2543
▁ব্যাপার	-10.2544
NEWS	-10.2547
▁এরমধ্যে	-10.2549
▁গ্রাহক	-10.2553
কো	-10.2553
▁স্টার	-10.2554
▁উড়িয়ে	-10.257
▁সরঞ্জাম	-10.2574
▁২০১১	-10.2574
▁দাশ	-10.2576
▁আজকে	-10.2577
BD	-10.2577
▁অন্তর্ভুক্ত	-10.2577
▁প্রদীপ	-10.258
▁গ্রেফতারের	-10.2581
▁সনদ	-10.2581
▁এরা	-10.2586
▁তরুণী	-10.2589
st	-10.2593
▁লক্ষ্মীপুর	-10.2596
▁চুক্তির	-10.2602
▁লেখেন	-10.2606
▁জন্যে	-10.2606
▁পাড়ি	-10.2607
▁ফেরদৌস	-10.2608
▁চালাচ্ছে	-10.2612
২০১৯	-10.2616
▁সম্প্রদায়ের	-10.2621
▁হুদা	-10.2625
▁অঙ্গ	-10.2627
▁টহল	-10.2627
▁স্লোগান	-10.2627
▁এসএম	-10.2629
▁আয়োজনের	-10.2632
▁সাব্বির	-10.2634
▁করিয়ে	-10.2636
▁বাঁধ	-10.2637
▁এফ	-10.2642
▁ত্বকের	-10.2643
▁৮টার	-10.2643
▁পিছনে	-10.2643
▁ভিডিওটি	-10.2652
▁ফরহাদ	-10.2653
▁অভিনীত	-10.2654
▁পাই	-10.2654
▁৬৪	-10.2663
▁চালিয়েছে	-10.2664
▁শারমিন	-10.2665
▁৫৩	-10.2671
▁বিচারের	-10.2672
▁প্রভাবে	-10.2672
▁দুলাল	-10.2675
▁নিয়োগের	-10.2675
▁ফ্রান্সের	-10.2675
▁স্বতন্ত্র	-10.2678
▁এবারও	-10.2683
▁বিশেষজ্ঞরা	-10.2687
▁রশীদ	-10.2688
▁ব্যাখ্যা	-10.2689
▁জাপানের	-10.2692
▁এরপরই	-10.2698
▁মেলায়	-10.2699
▁পারভেজ	-10.27
▁সাব	-10.2704
▁আন্দোলনে	-10.2704
▁যাক	-10.2706
▁মাঠের	-10.2706
▁রিয়াদ	-10.2708
▁বৈঠকের	-10.2714
▁বে	-10.2714
▁April	-10.2714
▁জ্বালানি	-10.2715
▁কাগজ	-10.272
▁শেয়ারবাজার	-10.2723
▁মৃত্যুবরণ	-10.2728
▁মোমেন	-10.273
আমাদের	-10.2732
▁পত্রিকার	-10.2734
▁সমর্থকদের	-10.2738
দি	-10.2741
▁পরিবারে	-10.2746
▁পর্যবেক্ষণ	-10.2747
P	-10.2747
▁০০	-10.2748
▁হাছান	-10.275
▁রং	-10.2751
গঞ্জ	-10.276
▁জোরদার	-10.2768
▁কতটা	-10.2768
▁আবরার	-10.277
▁সাকিবের	-10.2771
▁জয়ে	-10.2772
▁ব্যাগ	-10.2775
▁সমৃদ্ধ	-10.2775
▁সংগ্রহের	-10.2775
▁একপর্যায়ে	-10.2776
▁পলাশ	-10.278
.)	-10.2793
▁দি	-10.2796
▁৪৭	-10.2798
▁সেসব	-10.2802
▁আসিফ	-10.2806
▁ঘোষনা	-10.2807
▁বিধান	-10.2812
▁ষড়যন্ত্র	-10.2819
দার	-10.2819
▁নবম	-10.282
▁Portal	-10.2821
▁জোড়া	-10.2824
▁ইস্যু	-10.2827
▁সমন্বয়	-10.2828
▁বাংলাদেশী	-10.2837
▁কিংবদন্তি	-10.2837
▁C	-10.2838
▁ইংলিশ	-10.2842
▁from	-10.2846
▁পুকুর	-10.2851
▁সংকেত	-10.2855
▁আওয়ার	-10.2857
▁প্রশাসনিক	-10.2865
▁প্রার্থনা	-10.2866
▁বিধানসভা	-10.2874
▁অভাব	-10.2876
▁দক্ষতা	-10.2879
▁কু	-10.2881
▁পরমাণু	-10.2883
▁রিমান্ডে	-10.2885
▁ওসমানী	-10.2888
▁নাঈম	-10.2895
▁প্রতিপক্ষ	-10.2897
▁বর্ষের	-10.2897
▁গঠনের	-10.2897
▁সমঝোতা	-10.2899
▁শ্রেণীর	-10.29
▁পালনের	-10.2901
▁হাওয়া	-10.2903
▁প্রাইভেট	-10.2907
▁আনে	-10.2907
▁ইউনিভার্সিটি	-10.2912
▁রেড	-10.2915
▁এশিয়ার	-10.2925
▁নেতাকর্মী	-10.2926
▁বিরতি	-10.2941
▁সংগ্রাম	-10.2941
▁দেখাতে	-10.2942
▁তালেবান	-10.2944
▁আকারে	-10.2946
▁কারিগরি	-10.2947
▁অগ্রগতি	-10.2948
▁ইব্রাহিম	-10.2949
▁আসামির	-10.2949
▁অনুদান	-10.2954
▁সংক্রমিত	-10.2956
▁উৎসবে	-10.2965
▁আশঙ্কাজনক	-10.2966
▁প্যানেল	-10.2972
▁স্বার্থে	-10.2975
▁ছিলাম	-10.2982
▁অভাবে	-10.2983
▁বিদ্যুতের	-10.2984
▁প্রযোজনা	-10.2989
▁টাঙ্গাইলের	-10.299
▁তুমি	-10.2992
▁সেদিন	-10.2992
▁শুল্ক	-10.2993
▁টুর্নামেন্টের	-10.2996
▁অ্যাড	-10.2998
▁সরদার	-10.2999
▁মঞ্চে	-10.3
▁শিক্ষার	-10.3003
▁গার্ড	-10.3004
লেন	-10.3006
▁কর্নেল	-10.3007
▁সম্পাদনা	-10.3007
▁ঘরোয়া	-10.3011
▁নাসিম	-10.302
▁সার্কেল	-10.3021
▁ফাইল	-10.3025
▁পাঠিয়েছে	-10.3025
▁চালাতে	-10.3041
▁৫৬	-10.3044
▁ধরার	-10.3045
▁এলো	-10.3048
▁Channel	-10.3055
▁সিকদার	-10.3055
▁পরপরই	-10.3057
টিকে	-10.3057
▁নৌকার	-10.3059
▁আপ	-10.3066
▁রুটে	-10.3067
▁বিস্ফোরণ	-10.3069
▁সফটওয়্যার	-10.3073
▁বিধ্বস্ত	-10.3077
▁থেমে	-10.3077
▁সত্যি	-10.3078
▁পরিবেশে	-10.3083
▁জাপান	-10.3083
▁চীনে	-10.3085
▁রহস্য	-10.3087
▁বিনিময়	-10.3094
▁সিনহা	-10.3095
▁তৈরী	-10.3099
▁সংসদীয়	-10.3102
▁বলিউডে	-10.3102
▁মিশিয়ে	-10.3105
এক	-10.3105
▁আসামিদের	-10.3107
▁খেলবে	-10.3108
▁হা	-10.3109
▁লক্ষণ	-10.3113
▁শাস্তির	-10.3115
▁আলু	-10.3115
▁স্থানান্তর	-10.3115
▁রস	-10.3118
▁পরাজিত	-10.3118
▁করেও	-10.3124
▁২য়	-10.3124
▁ফোনের	-10.3129
▁প্রাণঘাতী	-10.313
▁বিনিময়ে	-10.3133
▁বার্সেলোনা	-10.3135
▁ইউনিটে	-10.3135
▁রনি	-10.3135
▁ক্লাবে	-10.3141
▁ইউনাইটেড	-10.3142
▁বর	-10.3142
▁রেডিও	-10.3144
▁কেক	-10.3145
▁এখনই	-10.3147
▁কর্মহীন	-10.3148
▁মুম্বাই	-10.3149
▁আকার	-10.3154
▁কার্যক্রমের	-10.3155
▁রতন	-10.3155
▁অতিক্রম	-10.3155
▁August	-10.3156
▁মনিরুল	-10.3159
▁যমুনা	-10.3166
▁রওনা	-10.3167
▁for	-10.3173
▁লিখে	-10.3174
▁অপারেশন	-10.3175
▁হারিয়েছে	-10.3178
▁এরকম	-10.3179
▁নবী	-10.318
▁ল্যাবে	-10.318
▁ছায়া	-10.3181
▁জালাল	-10.3184
▁সেন	-10.319
▁আরোপ	-10.3191
▁ক্ষেপণাস্ত্র	-10.3192
▁বলি	-10.3192
▁উত্তরা	-10.32
▁মুরাদ	-10.3215
▁কুড়িগ্রাম	-10.3215
▁প্রতিযোগিতার	-10.3229
▁পরিমাণে	-10.3231
▁আফগানিস্তান	-10.3233
▁তারই	-10.3239
▁আজম	-10.3245
▁প্রযোজক	-10.3246
▁শীতের	-10.3247
▁পিতার	-10.3268
▁দফতর	-10.3272
▁মাগুরা	-10.3274
▁সাইট	-10.3274
▁টুইটার	-10.3276
▁বিলিয়ন	-10.3289
▁বঞ্চিত	-10.3293
▁পরিবহনের	-10.3294
▁ধাওয়া	-10.3303
▁বিজনেস	-10.3309
▁করতেই	-10.3321
▁দেশগুলোর	-10.3323
▁শাহরিয়ার	-10.3324
▁যোগ্য	-10.3324
▁জোন	-10.3329
▁রি	-10.333
COM	-10.3331
▁March	-10.3333
▁রোনালদো	-10.3334
▁বীজ	-10.3334
▁বিরাজ	-10.3338
▁নড়াইল	-10.334
▁মদ	-10.3342
▁কাতার	-10.3343
▁প্রিয়াঙ্কা	-10.3352
▁কার্যকরী	-10.3353
▁সুস্থতা	-10.3357
▁বুঝে	-10.3362
▁পারব	-10.3363
▁ব্রাজিলের	-10.3363
▁মহামারী	-10.3365
▁ব্যবসায়ীকে	-10.3368
▁B	-10.337
▁ফজলে	-10.3371
▁কবিতা	-10.3372
▁মঙ্গল	-10.3373
▁হাইওয়ে	-10.3374
▁বিতরন	-10.3377
▁ওসমান	-10.3379
▁জলবায়ু	-10.3379
▁যশোরের	-10.338
▁হেলথ	-10.3386
▁বাণিজ্যিক	-10.3387
▁চেয়েছেন	-10.3389
▁ক্যারিয়ার	-10.3389
২০১৮	-10.3392
▁সিরাজ	-10.3392
▁পুকুরে	-10.3394
▁বৈধ	-10.3398
▁ল	-10.3398
▁অন	-10.3401
▁দেশজুড়ে	-10.3405
▁রহমানকে	-10.3408
▁রিফাত	-10.3408
▁উঠছে	-10.342
▁দপ্তরের	-10.3427
▁আস্থা	-10.3428
▁ঠিকানা	-10.3431
▁একক	-10.3431
▁কারখানায়	-10.3435
▁অংশে	-10.3438
ছি	-10.3438
▁রে	-10.344
▁পর্যালোচনা	-10.3443
▁দামে	-10.3446
▁ভক্ত	-10.3448
▁আগুনের	-10.3451
▁চরিত্র	-10.3451
▁গো	-10.3456
▁নরসিংদী	-10.3463
মো	-10.3467
▁গাজীপুরের	-10.3467
▁ভুক্তভোগী	-10.3468
▁Live	-10.3469
▁ওঠার	-10.3472
▁নাটোর	-10.3475
▁সমাপনী	-10.348
▁সংকটে	-10.3485
▁সম্প্রচার	-10.3494
▁মুশফিক	-10.3496
▁সূত্রের	-10.3501
▁কাজল	-10.3515
▁কাঁচা	-10.3519
৬০	-10.3526
▁নোবেল	-10.3528
▁চির	-10.3529
▁পাননি	-10.3532
▁দিবসের	-10.354
▁ফিল্ম	-10.3553
▁৬টি	-10.3553
▁ময়মনসিংহের	-10.3563
▁পশু	-10.3563
▁ছেলেকে	-10.3564
»	-10.3565
▁চলচ্চিত্রে	-10.3572
▁তাও	-10.3572
▁খুনের	-10.3578
▁ছুটির	-10.3579
▁আর্জেন্টিনা	-10.358
যা	-10.3582
▁ছোট্ট	-10.3583
▁ডিরেক্টর	-10.3586
▁ইঞ্জিন	-10.3599
▁অবহিত	-10.3604
▁ভ্রাম্যমান	-10.3604
▁চিফ	-10.3607
▁আসল	-10.3615
▁মালয়েশিয়া	-10.3616
▁ভিত্তিক	-10.3616
▁কিশোরগঞ্জ	-10.3631
▁গণধর্ষণ	-10.3633
▁শিরোনামে	-10.3635
▁শ্রম	-10.3636
▁আরা	-10.3638
ান	-10.3639
▁সিদ্ধান্তের	-10.3642
▁সেখানকার	-10.3646
ম্যান	-10.3646
▁ঘাট	-10.3647
▁পাকিস্তানে	-10.3649
▁পার্ক	-10.3655
▁সর্বনিম্ন	-10.3657
▁ছি	-10.366
▁মিরাজ	-10.3662
▁সহকারি	-10.367
▁[.]	-10.367
▁কামরুজ্জামান	-10.3671
▁নেগেটিভ	-10.3672
▁গণতান্ত্রিক	-10.3673
▁অনিয়ম	-10.3673
▁যাতায়াত	-10.3677
▁ক্যাম্পাস	-10.3677
যুক্ত	-10.3677
জনিত	-10.3681
▁চলাকালে	-10.3684
▁*	-10.3685
য়ার	-10.369
▁খোলার	-10.3691
▁খালেদ	-10.3704
▁চমক	-10.3714
▁ভয়ে	-10.3715
জনের	-10.3718
▁জ্যেষ্ঠ	-10.3724
▁রুমে	-10.3728
▁১২টা	-10.3734
▁পেশ	-10.3735
≣	-10.3736
▁প্রাণহানি	-10.3738
▁পরিসংখ্যান	-10.3738
▁হোসেনকে	-10.374
দ্য	-10.3742
▁পায়নি	-10.3745
▁চিৎকার	-10.3745
▁প্রাঙ্গণে	-10.3749
▁ফেসবুকের	-10.3749
▁রযালি	-10.3749
▁ক্যান্সার	-10.3757
▁নেইমার	-10.3758
▁যুদ্ধে	-10.3759
▁টের	-10.3766
▁উত্তরে	-10.3769
▁করানো	-10.3771
▁বহন	-10.3777
▁সেকেন্ড	-10.3786
▁গ	-10.3786
গ্রাম	-10.3787
▁জামান	-10.3789
▁উল্লেখযোগ্য	-10.3791
▁হু	-10.3797
▁গবেষক	-10.3801
▁গৃহবধূর	-10.3802
▁হাইকোর্টে	-10.3807
▁online	-10.3808
▁পাকা	-10.3808
▁লকডাউনে	-10.3812
▁article	-10.3813
▁রানী	-10.3818
▁হোয়াইট	-10.3818
▁সাহেব	-10.382
▁দেওয়ায়	-10.3822
▁ওয়াশিংটন	-10.3825
▁ছিটকে	-10.3831
▁পরদিন	-10.3837
▁চোর	-10.384
▁প্রতিনিয়ত	-10.3844
▁বাসার	-10.3849
▁স্পিনার	-10.3852
▁জামাত	-10.3852
▁গাঁজা	-10.3856
▁সোপর্দ	-10.3857
▁মোজাম্মেল	-10.3857
▁মহল	-10.3863
▁সিসি	-10.3867
▁ইউরোপীয়	-10.3872
▁বাংলায়	-10.3873
▁আহমেদের	-10.3878
▁এতদিন	-10.3885
▁মুকুল	-10.3888
▁পেশা	-10.3889
▁হাসানের	-10.3889
▁জ	-10.3892
▁দেহে	-10.3895
▁এশিয়ান	-10.3902
▁চার্জ	-10.3902
জে	-10.3907
▁আরোহী	-10.3912
▁ভ্যান	-10.3914
▁চিঠিতে	-10.3916
▁উৎস	-10.3919
▁নিয়েছিলেন	-10.3922
▁বাচ্চু	-10.3923
▁সত্ত্বেও	-10.3924
▁দিনাজপুরের	-10.3929
▁বেশী	-10.393
▁নেটওয়ার্ক	-10.3951
▁ঘন	-10.3953
▁জানাচ্ছি	-10.3957
▁শাহিন	-10.396
▁কর্পোরেশন	-10.3962
▁প্রকৌশল	-10.3962
▁নোয়াখালীর	-10.3968
▁TV	-10.397
▁৬টা	-10.3971
▁ইন্তেকাল	-10.3972
▁ব্যাংকিং	-10.3973
সাধারণ	-10.3977
▁ওপরে	-10.398
▁৫৯	-10.398
▁হুঁশিয়ারি	-10.398
▁সৌন্দর্য	-10.3983
▁জানাই	-10.3984
▁অধিদফতর	-10.3986
পুলিশ	-10.4004
িন	-10.4004
▁গা	-10.4009
▁খেলেছেন	-10.4009
▁জমে	-10.4016
▁ঐতিহ্যবাহী	-10.402
▁রান্না	-10.4023
▁মধু	-10.4025
▁ক্ষমতাসীন	-10.4026
ুজ্জামান	-10.4027
▁দোকানের	-10.4031
▁মর্যাদা	-10.404
▁লেগেছে	-10.4041
▁লি	-10.4042
▁নওগাঁর	-10.4043
▁৪০০	-10.4046
▁আলোর	-10.4048
▁ইলিয়াস	-10.4049
▁পাহাড়	-10.405
▁একের	-10.4052
▁রণবীর	-10.4055
ছিল	-10.4058
▁সম্মেলনের	-10.4058
▁টুয়েন্টিফোর	-10.406
▁ব্র্যান্ড	-10.4061
▁মনিরুজ্জামান	-10.4061
▁হয়েছি	-10.4062
▁ইঞ্জিনিয়ার	-10.4063
▁আরবে	-10.4065
▁সঙ্গী	-10.4065
সু	-10.4072
▁বরিশালে	-10.4073
▁বসানো	-10.4075
▁ব্লক	-10.4077
▁বড়ুয়া	-10.4079
▁সংশোধন	-10.408
▁প্রতিপক্ষের	-10.4081
▁আকাশে	-10.4084
▁২৫০	-10.4086
▁হাফিজ	-10.4086
ড়া	-10.4088
▁হাতের	-10.4089
▁দীপু	-10.409
▁ব্যাটারি	-10.4091
▁দেখেছেন	-10.4093
▁৫৭	-10.41
▁নেত্রকোনা	-10.4101
▁শীত	-10.4103
০০০	-10.4106
▁ডাল	-10.4107
▁একা	-10.4111
▁রাজীব	-10.4112
▁পোস্টে	-10.4112
▁হবার	-10.4114
▁আফগান	-10.4118
▁মনের	-10.4118
▁অর	-10.4129
▁?	-10.413
▁কবরস্থানে	-10.4134
▁দেশটি	-10.4135
▁জামালপুর	-10.4136
▁জানে	-10.414
▁সমন্বয়ে	-10.4142
times	-10.4145
▁আইসোলেশনে	-10.4145
▁জনগণকে	-10.415
▁রোহিত	-10.4154
▁পেরিয়ে	-10.4157
▁মাকে	-10.4159
▁ভর্তির	-10.4162
▁ইট	-10.4163
▁টাইগার	-10.4166
▁ঘনিষ্ঠ	-10.4166
▁ঊর্ধ্বতন	-10.4171
▁১৪২৭	-10.4173
▁ফেলতে	-10.4176
▁বিরোধ	-10.4178
▁সত্যিই	-10.4181
▁is	-10.4186
▁জয়নাল	-10.4188
▁খুলনার	-10.4188
▁পছন্দের	-10.4188
▁ভেবে	-10.419
▁লাইসেন্স	-10.4191
▁এডভোকেট	-10.4199
▁ইউরোপের	-10.4199
▁উপযুক্ত	-10.4202
▁উদ্যোক্তা	-10.4211
▁শরিফুল	-10.4214
▁স্বামীকে	-10.4216
tv	-10.4216
▁টেনে	-10.4217
▁কেনা	-10.4218
▁স্বপ্নের	-10.4218
▁ইতিহাসের	-10.4224
▁৮৫	-10.4225
▁ভি	-10.423
▁সেট	-10.4231
IST	-10.4232
▁কাশ্মীর	-10.4235
▁দুঃখ	-10.4235
▁রুপি	-10.4238
▁স্নাতক	-10.4243
▁কৃতজ্ঞতা	-10.4243
তলা	-10.4245
▁NEWS	-10.4247
বাজার	-10.425
▁একাডেমি	-10.4254
▁মানের	-10.4256
▁ইতিবাচক	-10.4256
▁গানে	-10.4258
▁কান	-10.426
▁ছিনতাই	-10.426
ৎ	-10.426
▁প্রার্থীরা	-10.4261
▁চামচ	-10.4262
▁তালিকাভুক্ত	-10.4262
▁পেশায়	-10.4264
▁মাসুম	-10.4266
▁সাইফ	-10.4269
▁আপলোড	-10.4269
▁বাড়ী	-10.4274
▁নামাজের	-10.4276
▁ফেলেছে	-10.4281
▁মুফতি	-10.4284
▁সাভার	-10.4285
ীর	-10.429
▁P	-10.4295
▁নিয়োজিত	-10.4297
▁বেসামরিক	-10.4299
▁চিকিৎসায়	-10.43
▁সন্দেহে	-10.4306
▁কাটার	-10.4308
▁নানান	-10.4309
▁আক্রান্তদের	-10.4309
▁Time	-10.4309
▁কর্মশালা	-10.4311
▁পুড়িয়ে	-10.4313
▁আগষ্ট	-10.4314
▁৬১	-10.4314
▁রোডের	-10.4321
▁সাহায্যে	-10.4332
▁ভূমিকায়	-10.4332
▁সংস্থাটি	-10.4337
▁পশ্চিমবঙ্গ	-10.4339
▁লাখের	-10.4342
▁পেঁয়াজের	-10.4345
▁ওঠা	-10.4348
▁পত্র	-10.4366
▁ফোর্স	-10.4366
নার	-10.437
▁চিকিৎসকদের	-10.4376
▁দেখি	-10.4386
▁প্রমাণিত	-10.4387
▁চাকরির	-10.439
▁সঙ্গীত	-10.4394
▁গৃহবধূ	-10.4397
▁বহাল	-10.4398
▁আসামিকে	-10.4398
▁দ্বীপ	-10.4404
▁ফয়সাল	-10.4408
▁পরিচালনার	-10.4409
▁রাজনীতিতে	-10.4411
▁পার্শ্ববর্ত	-10.4411
▁যানজট	-10.4413
▁ইসলামকে	-10.4413
▁ভাতা	-10.4414
▁শিক্ষকের	-10.4415
▁আলোকে	-10.4416
▁অধিবেশন	-10.4417
▁বিএসএফ	-10.442
▁ছাত্রদল	-10.4424
▁বরণ	-10.4426
▁আমলে	-10.4433
দেশের	-10.4434
▁জিনিস	-10.4434
▁প্রশাসকের	-10.4437
▁পরেও	-10.4441
▁প্রজন্মের	-10.4442
▁হলেই	-10.4442
▁গতিতে	-10.445
▁পৌঁছেছে	-10.445
▁মাঝারি	-10.4454
▁নজরে	-10.4455
▁জনপ্রিয়তা	-10.4459
▁দায়রা	-10.4465
▁সমবায়	-10.4468
▁নূরুল	-10.447
▁ছয়টি	-10.4476
▁তহবিল	-10.4479
▁পিএনএস	-10.4482
▁নাগরিকত্ব	-10.4494
▁কাশেম	-10.4498
▁বাগান	-10.45
▁১১টা	-10.4512
▁শুনতে	-10.4512
▁ফজলুল	-10.4518
▁জিজ্ঞাসাবাদের	-10.4522
▁ভিউ	-10.4524
▁থাকি	-10.4526
▁অভিনয়ের	-10.4529
▁বিরল	-10.453
▁মিডিয়ার	-10.4531
▁বগুড়ায়	-10.4531
▁ষষ্ঠ	-10.4533
▁মাল	-10.4534
▁জামায়াত	-10.4534
▁ন	-10.4537
▁মতলব	-10.4537
মুখী	-10.454
▁চলাকালীন	-10.454
▁প্রজ্ঞাপন	-10.4541
▁ফসল	-10.4542
▁ফিতর	-10.4542
▁শৃঙ্খলা	-10.4544
▁অটো	-10.4551
▁প্রতিদিনের	-10.4552
▁ডিজাইন	-10.4559
▁বিজ্ঞানীরা	-10.4562
▁পারছে	-10.4563
▁দক্ষ	-10.4567
▁অস্থায়ী	-10.4568
▁বিশ	-10.4574
▁৬২	-10.4578
▁Leave	-10.4583
▁অনুসন্ধান	-10.4583
▁দীপিকা	-10.4586
▁হত্যাকাণ্ডের	-10.459
▁ঝালকাঠি	-10.459
▁বুক	-10.4593
▁খ্যাত	-10.4601
▁গেট	-10.4604
▁কন্ট্রোল	-10.4606
▁দিল্লিতে	-10.461
জাতীয়	-10.461
গা	-10.4618
▁IST	-10.4622
▁পুরুষের	-10.4626
নিয়ে	-10.4629
▁১৫০	-10.4631
▁অধিবেশনে	-10.4633
▁কাজটি	-10.4633
▁৫৮	-10.4636
▁সকলেই	-10.4636
▁রফিক	-10.4639
▁বালিকা	-10.464
▁দেয়নি	-10.4642
▁হ্রাস	-10.4647
▁টাইগারদের	-10.4649
▁comment	-10.4653
▁সুন্দরবন	-10.4656
▁যোগ্যতা	-10.4658
▁গোসল	-10.466
▁সহজে	-10.4668
▁ভাষণ	-10.467
▁লবণ	-10.4672
▁বাতিলের	-10.4672
▁রাখবে	-10.4673
▁কুমিল্লায়	-10.4674
▁স্টেশনে	-10.4675
▁স্বজনরা	-10.4679
▁নাহিদ	-10.4679
গুলোকে	-10.4682
▁করতো	-10.4684
▁চিহ্ন	-10.4686
▁জম্মু	-10.4688
▁গ্লোবাল	-10.469
▁কক্সবাজারে	-10.4694
▁তুলেছেন	-10.4694
▁মহিউদ্দিন	-10.4695
▁রাজনীতির	-10.4697
▁স্বল্প	-10.4698
▁অভিযানের	-10.4701
▁প্রতিষ্ঠানটির	-10.4703
▁কর্মসূচী	-10.4707
▁তোমার	-10.4707
▁সঞ্জয়	-10.471
▁উপকরণ	-10.4714
▁পূর্ণাঙ্গ	-10.4714
▁আসেনি	-10.4715
▁যাচ্ছিলেন	-10.4715
▁শিক্ষার্থীকে	-10.4721
▁আমন্ত্রণ	-10.4722
▁শুনানির	-10.4728
▁জহিরুল	-10.4729
▁স্বর্ণের	-10.4735
▁রচনা	-10.474
▁M	-10.4741
▁অবতরণ	-10.4743
▁সূচনা	-10.4746
▁লোকসভা	-10.475
▁কনস্টেবল	-10.4753
▁মহাসড়ক	-10.4753
রো	-10.4757
▁লিওনেল	-10.4758
▁ডলারের	-10.4759
▁শিবগঞ্জ	-10.4762
▁সৌম্য	-10.4768
▁মোদির	-10.4768
▁ধর্মের	-10.4769
▁তারপরও	-10.477
▁ডান	-10.4772
▁বাস্তবায়নের	-10.4772
▁পাখি	-10.4774
▁আটককৃত	-10.4777
▁ব্যাটিংয়ে	-10.4781
▁নাটকে	-10.4782
▁Barta	-10.4784
▁সম্মিলিত	-10.4787
ছিলেন	-10.4787
▁জুনিয়র	-10.4792
▁অষ্টম	-10.4797
▁মিশন	-10.4798
▁সেরে	-10.48
▁দম্পতি	-10.4803
▁জালে	-10.4807
▁আত্মহত্যার	-10.481
▁বৌদ্ধ	-10.4811
▁শিশুটিকে	-10.4818
▁বৈশাখ	-10.483
▁টপ	-10.4839
▁I	-10.484
▁পায়ের	-10.4846
▁সার্টিফিকেট	-10.4848
▁প্রভাষক	-10.4848
▁তৎকালীন	-10.4848
▁পৃথিবীতে	-10.4849
▁মন্দিরে	-10.4852
▁প্রকাশিতঃ	-10.4857
▁বাসভবনে	-10.4859
▁ঐক্যবদ্ধ	-10.4861
▁৬৬	-10.4862
▁সেমিফাইনালে	-10.4867
▁কর্মসূচিতে	-10.487
▁মানিকগঞ্জ	-10.487
▁কাগজপত্র	-10.4872
▁মোবাইলে	-10.4872
।[	-10.4874
▁অ্যাসোসিয়েশন	-10.4875
▁অপরিবর্তিত	-10.4877
▁পাঠায়	-10.4878
▁পেটে	-10.4882
▁বেড়াতে	-10.4884
▁অর্থবছরের	-10.4888
কু	-10.4897
▁রুল	-10.4902
▁সই	-10.4903
▁নেমেছে	-10.4905
▁লতিফ	-10.4908
▁চেয়ারম্যানের	-10.4909
▁ছাই	-10.4917
▁শামসুল	-10.4923
▁পাঁচজন	-10.4924
▁নয়ন	-10.4929
A	-10.4931
▁৯টায়	-10.4934
▁মুসলমানদের	-10.4942
▁২০১০	-10.4944
▁রাজবাড়ী	-10.4944
in	-10.4947
▁জনপ্রশাসন	-10.4947
▁তোলে	-10.495
▁আলিয়া	-10.4951
▁ডেভিড	-10.4953
▁স্বাদ	-10.4955
▁অর্ধেক	-10.496
▁প্রথমবার	-10.4964
▁উন্মোচন	-10.4965
এন	-10.4967
ভা	-10.4968
▁আসুন	-10.497
▁করত	-10.4974
▁শাকিল	-10.4982
▁একেবারেই	-10.4982
▁কিডনি	-10.4983
▁নিল	-10.4983
▁কোয়ারেন্টাইনে	-10.4986
▁উৎসাহ	-10.4987
▁দশম	-10.4997
▁ধোনি	-10.5005
▁ফেলার	-10.5009
▁থাকছেন	-10.5011
▁T	-10.5015
▁বিবৃতি	-10.5017
▁প্রবীণ	-10.5017
▁দুর্বল	-10.5019
▁পদের	-10.5024
▁যুক্তরাজ্যের	-10.5032
▁তুরস্ক	-10.5035
▁নিয়েছি	-10.5039
▁মাহমুদউল্লাহ	-10.5048
▁ছবিটির	-10.5059
▁তাহের	-10.506
▁দাবীতে	-10.5061
▁এএসআই	-10.5061
▁লাগানো	-10.5067
▁২০০৯	-10.507
▁ব্যাংকে	-10.5071
▁মেট্রো	-10.5072
▁পরোয়ানা	-10.5073
▁রীতিমতো	-10.5073
▁অর্থায়নে	-10.5073
▁বারের	-10.5073
▁বলেছি	-10.5074
▁শ্রমিকের	-10.508
▁প্রভাবশালী	-10.5083
▁আবদু	-10.5084
▁সুনামগঞ্জের	-10.5086
▁আজিজুল	-10.5087
▁শতভাগ	-10.5088
▁পারভীন	-10.5088
▁বাশার	-10.5091
▁কান্তি	-10.5092
▁উল	-10.5096
▁এড়িয়ে	-10.5096
u	-10.5104
▁বয়সের	-10.5104
▁প্রচেষ্টা	-10.5104
▁সহসভাপতি	-10.5106
▁কোটা	-10.5107
▁বাইক	-10.5107
▁India	-10.5107
▁দিবসটি	-10.5107
▁কেননা	-10.5116
▁বেলাল	-10.5117
▁অটোরিকশা	-10.512
▁প্রায়ই	-10.5121
▁কোরিয়া	-10.5121
▁কমপ্লেক্সের	-10.5132
▁min	-10.5132
▁ভাবনা	-10.5132
▁পর্বের	-10.5132
▁তাৎক্ষণিক	-10.5133
▁৭৩	-10.5135
▁টুর্নামেন্টে	-10.5141
▁মাছের	-10.5145
▁১২টায়	-10.5145
▁আকর্ষণ	-10.5147
▁প্রত্যক্ষদর্শী	-10.5148
▁Lead	-10.5149
▁পূর্ববর্তী	-10.5151
▁রাখবেন	-10.5164
▁প্রবাসীদের	-10.5166
▁খেলোয়াড়দের	-10.5167
টে	-10.517
▁হত	-10.5173
▁কথাও	-10.5179
▁ট্রেনে	-10.5179
▁শে	-10.5179
▁আবেদীন	-10.5179
▁উল্টে	-10.518
▁উচ্ছেদ	-10.518
▁ক্ষয়ক্ষতি	-10.5189
▁সিআইডি	-10.5195
▁শওকত	-10.5196
আজ	-10.5196
পূর্ব	-10.5208
বাহী	-10.5208
▁থাকুন	-10.521
▁নকল	-10.5216
▁ডাকাতি	-10.5217
▁ধাপ	-10.5217
▁কর্মসংস্থান	-10.5222
al	-10.5223
▁নীতিমালা	-10.5227
▁মূল্যে	-10.5233
▁নাটোরের	-10.524
▁ড্রোন	-10.5241
▁নারীরা	-10.5242
▁ধারালো	-10.5243
▁প্রিন্স	-10.5244
▁জবানবন্দি	-10.5245
▁ইতালি	-10.5245
▁দাগ	-10.5247
শা	-10.5248
▁শোকের	-10.5251
▁বন্ধুদের	-10.5253
▁আঘাতে	-10.5254
▁শি	-10.5258
▁সাউথ	-10.526
▁পঞ্চগড়	-10.526
▁দেয়ায়	-10.526
▁এসেছিলেন	-10.526
▁ছাড়ার	-10.5262
▁অগ্নিকাণ্ডের	-10.5262
▁বরাবর	-10.5262
▁ডিসি	-10.5262
▁নির্দেশনায়	-10.5264
▁কমপ্লেক্স	-10.5266
▁নিক্ষেপ	-10.5266
▁শিবির	-10.5267
▁চুলের	-10.527
▁টেলিযোগাযোগ	-10.5272
▁পৃথিবী	-10.5273
▁মাসিক	-10.5276
▁প্রত্যাহারের	-10.5276
▁সমর্থক	-10.5279
▁বিস্ফোরণে	-10.528
▁গণমাধ্যমের	-10.5289
▁সেক্রেটারি	-10.529
▁গরুর	-10.5291
▁যুগ	-10.5291
▁মৃত্যুদণ্ড	-10.5292
▁পরা	-10.5296
▁দিলীপ	-10.5303
▁টার্গেট	-10.5305
▁ঘাটতি	-10.5307
▁পোস্টার	-10.5308
▁১৯৭১	-10.5309
▁সৈকত	-10.531
▁Limited	-10.5319
▁পটুয়াখালী	-10.532
▁ফরাসি	-10.5321
খালী	-10.5323
▁নগরের	-10.5326
▁আসরের	-10.5327
▁উল্টো	-10.5327
▁ধারাবাহিক	-10.5335
▁নিয়ন্ত্রক	-10.5336
▁পুরাতন	-10.5338
▁প্রবেশের	-10.5339
▁একাধিকবার	-10.5339
▁আরাফাত	-10.534
▁চাপে	-10.5346
▁হানা	-10.5347
▁সমবেদনা	-10.535
▁মিলেছে	-10.5355
▁পিস্তল	-10.5367
bidesh	-10.5367
দিয়া	-10.5367
▁সোনালী	-10.5369
▁জিজ্ঞাসাবাদে	-10.537
▁জনসংযোগ	-10.5373
▁জনতার	-10.5376
▁যুদ্ধের	-10.5378
▁তবুও	-10.5378
▁৬৮	-10.5383
▁সিংহ	-10.5383
▁তানভীর	-10.5384
▁গবেষকরা	-10.5389
▁প্রতিদ্বন্দ্বী	-10.5391
▁বাড়ার	-10.5395
▁চক্র	-10.5396
▁আইসিটি	-10.5397
বো	-10.5398
▁ভাংচুর	-10.5399
▁টাইগাররা	-10.5404
▁শাসন	-10.5406
▁প্রতিবছর	-10.5421
▁গান্ধী	-10.5423
▁আইফোন	-10.5426
▁যথাক্রমে	-10.5429
▁অনূর্ধ্ব	-10.5431
an	-10.5433
▁প্লে	-10.5437
▁এক্স	-10.544
▁কলা	-10.5441
▁কোম্পানিটির	-10.5448
▁স্মার্ট	-10.545
কর	-10.5452
▁লালমনিরহাট	-10.5456
▁যেটা	-10.5456
▁যশোরে	-10.5458
▁সন্তানদের	-10.546
Oneindia	-10.5461
▁নিজাম	-10.5467
▁যেকোন	-10.5469
▁সমালোচনার	-10.5471
▁সন্ধ্যার	-10.5474
▁কোম্পানী	-10.5475
▁সারাদেশের	-10.5475
▁দুবাই	-10.5479
▁৩টার	-10.5488
▁চিত্রনায়িকা	-10.5492
▁শাহাদাত	-10.5494
▁দেশব্যাপী	-10.5495
দেশ	-10.5495
▁লোকজনের	-10.5495
চট্টগ্রাম	-10.5498
▁বৈদ্যুতিক	-10.5499
▁হালিম	-10.5501
▁প্রকাশনা	-10.5503
▁দূতাবাস	-10.5504
▁সম্প্রসারণ	-10.5506
▁উপেক্ষা	-10.5508
▁প্রদক্ষিণ	-10.5508
▁ইন্ডিজের	-10.5509
▁বিজিবির	-10.5511
▁ঘাতক	-10.5512
▁জয়া	-10.5512
▁পেট্রোল	-10.5513
▁কাউন্সিলের	-10.5516
▁ঘুষ	-10.5519
▁বন্দি	-10.5519
চার	-10.5524
▁লন্ডনে	-10.5526
▁যাত্রীরা	-10.5528
m	-10.5534
▁মৌসুমী	-10.5537
▁৬৩	-10.5538
▁অর্পণ	-10.554
▁বর্ণাঢ্য	-10.554
▁এজেন্ট	-10.5542
▁বেগমের	-10.5542
▁গিয়েছেন	-10.5544
▁ছাড়িয়েছে	-10.5546
▁অভিভাবক	-10.5547
▁ঠাকুরগাঁওয়ে	-10.555
প্র	-10.5552
▁BanglaNews	-10.5559
▁সঙ্গেই	-10.5572
▁রযালী	-10.5573
▁হয়রানি	-10.5573
▁বন্যায়	-10.5576
▁তদন্তকারী	-10.5579
শি	-10.5584
▁ডিএমপি	-10.5588
▁গ্রেফতারকৃত	-10.5589
▁দা	-10.559
▁পড়াশোনা	-10.5592
▁ব্রিজ	-10.5594
▁শান্তিপূর্ণ	-10.5602
▁মিলবে	-10.5604
▁মুখ্য	-10.5606
▁ব্যবস্থাপক	-10.5608
▁সপ্তম	-10.5617
বিস্তারিত	-10.5619
▁ধুয়ে	-10.562
▁শট	-10.562
▁অন্যান্যের	-10.5626
▁বিপাকে	-10.5626
▁৭৪	-10.563
▁পরিচিতি	-10.5632
▁মেঘনা	-10.5637
▁আগাম	-10.564
▁কারখানার	-10.5644
▁সহিংসতা	-10.5644
▁ফেরেন	-10.5651
▁ফ্যাশন	-10.5651
▁Somoy	-10.5652
▁থানাধীন	-10.5652
▁অবসান	-10.5653
▁তেলের	-10.5653
▁প্রজাতির	-10.5653
▁শিশুটি	-10.5655
▁কেড়ে	-10.5657
▁ব্যবসায়	-10.566
▁উদ্ধারের	-10.5661
▁পাঠাতে	-10.5664
▁স্পেশাল	-10.5665
▁পু	-10.5665
▁ইচ্ছে	-10.5666
▁ফ	-10.5682
সমূহ	-10.5684
▁চাপায়	-10.5697
▁পাড়ার	-10.5699
▁বর্ণনা	-10.5699
▁সাক্ষী	-10.5707
▁কপি	-10.5714
▁ইন্ডিজ	-10.5715
▁নামিয়ে	-10.5721
▁স্টেশনের	-10.5722
▁আলাপ	-10.5727
▁বোধ	-10.5729
▁Premi	-10.5733
▁যুবদলের	-10.5733
▁চারা	-10.5734
▁Comment	-10.5738
▁চামড়া	-10.5739
▁সহায়ক	-10.5741
▁নেতাকে	-10.5741
▁চকরিয়া	-10.5743
▁দেশি	-10.5747
▁মৃত্যুবার্ষিকী	-10.5752
▁ফোরাম	-10.5754
▁প্রদেশে	-10.5757
▁আইসিসির	-10.5759
▁ওইদিন	-10.5767
▁লাইনে	-10.5768
▁সম	-10.5769
▁তথ্যের	-10.5769
▁বৃত্তি	-10.5769
▁সেটাই	-10.5776
▁ত্বক	-10.5778
▁সম্পত্তি	-10.5779
▁ইন্ডিয়ান	-10.5784
▁স্বজনদের	-10.5792
▁হতাহতের	-10.5794
▁কমিটিতে	-10.5795
▁শ্রীপুর	-10.5796
▁জিততে	-10.5801
▁অমান্য	-10.5805
▁৩টায়	-10.5805
ফা	-10.5807
▁সেলসিয়াস	-10.5807
▁পাট	-10.5809
▁আপন	-10.5813
Deshe	-10.5813
ড়ি	-10.5814
▁Syndicate	-10.5814
▁চেম্বার	-10.5824
▁উখিয়া	-10.5827
▁খাত	-10.5828
▁বাঁচতে	-10.5831
▁ভবিষ্যৎ	-10.5831
▁বৃষ্টিতে	-10.5839
▁এতো	-10.584
▁Next	-10.5843
▁ডিসেম্বরে	-10.585
▁নেট	-10.5851
▁বিপরীত	-10.5851
▁২০০৮	-10.5854
▁আন্তরিক	-10.5855
▁রকেট	-10.5856
▁মেধাবী	-10.5856
▁৯৫	-10.5856
▁রয়টার্স	-10.5859
▁সামাদ	-10.586
▁বরগুনা	-10.5861
▁মন্ত্রণালয়ে	-10.5862
▁দিলেও	-10.5862
▁বাধ্যতামূলক	-10.5863
▁হলের	-10.5863
▁ক্ষতির	-10.5863
▁অ্যাটর্নি	-10.5864
▁পেজে	-10.5868
▁রিয়াজ	-10.5869
▁মাহমুদুল	-10.5876
▁হাউজ	-10.5879
▁আজও	-10.588
▁বাতাস	-10.5881
▁রাষ্ট্রপতির	-10.5882
কাল	-10.5886
▁বরিশালের	-10.5889
▁নাটকের	-10.5893
▁বিধায়ক	-10.5894
▁আকরাম	-10.5897
▁G	-10.5897
▁শাওন	-10.5898
▁রেখেই	-10.5901
▁নাইট	-10.5904
▁জনসংখ্যা	-10.5916
▁হতেই	-10.5917
▁ডিআইজি	-10.592
▁পরীক্ষার্থী	-10.5921
▁পূর্বাভাস	-10.5927
▁নার্স	-10.593
▁বোলার	-10.5938
▁মৃত্যুকালে	-10.5946
▁আপত্তি	-10.5946
▁আবহাওয়ার	-10.5952
▁বেশকিছু	-10.5957
▁হতাশ	-10.5961
▁D	-10.5965
▁দেওয়ান	-10.5967
▁বিস্ফোরণের	-10.5971
▁বানিয়ে	-10.5974
▁তলা	-10.5977
▁ব্যক্তিত্ব	-10.5979
▁ডিভাইস	-10.5985
গো	-10.5985
▁সিরিয়ার	-10.5991
▁বদলি	-10.5992
▁রাকিব	-10.5993
▁খুলনায়	-10.5994
▁CBN	-10.5996
▁কম্বল	-10.5999
▁জানার	-10.5999
▁ঈশ্বরদী	-10.6006
▁ভারতকে	-10.6012
▁আকর্ষণীয়	-10.6014
▁সহযোগিতার	-10.6016
▁সাপ্তাহিক	-10.6016
▁প্রাণী	-10.6017
▁বিমানে	-10.6021
▁মেয়েরা	-10.6021
▁ত	-10.6022
▁জায়েদ	-10.6027
▁আমেরিকান	-10.603
▁দেখছেন	-10.6034
▁রূপান্তর	-10.6038
▁৯টি	-10.6039
▁ডাকা	-10.6042
▁দখলে	-10.6042
▁ধসে	-10.6043
▁কৃষকরা	-10.6049
▁ভর	-10.6051
▁মিলাদ	-10.6055
▁রিপোর্টে	-10.6057
▁১২টি	-10.6061
▁৮টায়	-10.6061
কোভিড	-10.6062
▁জটিল	-10.6062
▁স্প্যানিশ	-10.6064
▁আইয়ুব	-10.6064
▁আলোকিত	-10.6065
▁ফোরামের	-10.6073
▁শহিদ	-10.6073
▁অনুভব	-10.608
▁তলিয়ে	-10.608
▁এলাকাবাসীর	-10.6086
PN	-10.6088
▁মোকাবিলা	-10.609
▁ক্যারিয়ারের	-10.6092
▁গানটির	-10.6092
▁পেট	-10.6093
▁সুন্দরী	-10.6094
▁প্রতারণা	-10.6095
▁উঠেছেন	-10.6096
▁সোহরাওয়ার্দী	-10.6097
▁আধা	-10.6098
▁ইউএস	-10.6101
▁অধিকারী	-10.6105
▁কোচিং	-10.6105
▁জলিল	-10.6107
রাও	-10.6112
▁রফতানি	-10.6113
ব্য	-10.6113
▁লাগছে	-10.6114
▁সমাপ্ত	-10.6119
▁আইপিএলে	-10.6121
▁আশেপাশে	-10.6131
▁সূত্রপাত	-10.6132
▁সৃষ্টির	-10.6133
▁ভোক্তা	-10.6133
▁কবলে	-10.6135
▁চলাচলের	-10.6138
▁৭৬	-10.6139
▁মঞ্চ	-10.6144
▁৮টি	-10.6148
ঘাট	-10.6151
▁বন্যার	-10.6153
▁বাদশা	-10.6155
▁অ্যাওয়ার্ড	-10.6155
ায়	-10.616
▁ফাঁকা	-10.6168
▁দেবী	-10.6168
▁কর্মকর্তাকে	-10.617
▁ম্যানেজমেন্ট	-10.6174
▁প্রদর্শনী	-10.618
▁৭৮	-10.6181
▁খায়রুল	-10.6183
▁ছাড়তে	-10.6184
▁কারাগার	-10.6185
▁বোনের	-10.6187
▁ইতালির	-10.6187
▁ত্রিপুরা	-10.6189
▁বক্তৃতা	-10.6189
▁বিষ	-10.6195
▁লাশটি	-10.6196
▁তলায়	-10.6204
▁গড়	-10.6209
▁মোতাবেক	-10.6216
▁সেক্ষেত্রে	-10.6217
▁শাড়ি	-10.6228
▁গড়ার	-10.6228
▁কুরআন	-10.6232
▁কুদ্দুস	-10.6232
▁খ	-10.6233
▁গ্রামীণ	-10.6234
মোট	-10.6236
▁ক্ষতিগ্রস্থ	-10.624
▁মিজান	-10.624
▁উত্তীর্ণ	-10.6242
বিহীন	-10.6242
▁বিপদ	-10.6243
▁মন্ত্রীর	-10.6249
▁বৈদেশিক	-10.6251
▁ভোটারদের	-10.6251
▁আইপিএলের	-10.6256
ভারত	-10.6258
newsbd	-10.6261
অব	-10.6264
▁গণপরিবহন	-10.6266
লার	-10.6267
▁তীরে	-10.6268
▁ব্লগ	-10.6271
▁মতিন	-10.6273
▁ল্যাব	-10.6274
▁মাহি	-10.6282
▁কৌশলে	-10.6283
▁জাতীয়তাবাদী	-10.6286
▁সভাপতির	-10.6286
▁ট্রলার	-10.6292
▁সৃষ্ট	-10.6297
সার	-10.6299
▁৮২	-10.6302
▁ক্ষতিকর	-10.6302
▁কারাদন্ড	-10.6304
▁দেরি	-10.6306
▁চাঁপাইনবাবগঞ্জে	-10.631
▁বিদ্রোহী	-10.631
▁মুন্সীগঞ্জ	-10.6311
▁বয়স্ক	-10.6312
▁মর্মান্তিক	-10.6318
▁মিত্র	-10.632
▁রেজিস্ট্রার	-10.6323
প্রতি	-10.6324
তিনি	-10.6326
▁কোর্টে	-10.6332
▁প্রধানমন্ত্রীকে	-10.6333
▁K	-10.6333
▁তুহিন	-10.6335
▁সাজানো	-10.6338
▁৬৭	-10.634
▁রঙ	-10.6343
▁বঙ্গোপসাগরে	-10.6345
▁ব্যবহারকারীদের	-10.6348
▁সক্ষমতা	-10.635
▁ইঞ্জিনিয়ারিং	-10.6351
▁করলেই	-10.6352
▁চালকের	-10.6355
▁অ্যাপল	-10.6357
▁এসেছিল	-10.6358
▁বাণী	-10.6358
বাড়ী	-10.6359
▁কখন	-10.6359
▁প্রবণতা	-10.6363
▁সং	-10.6367
▁সৎ	-10.6371
▁ভিপি	-10.6372
▁উত্তম	-10.6372
▁ফকির	-10.6374
▁স্বাগতিক	-10.6375
▁সাহস	-10.6384
▁হোয়াটসঅ্যাপ	-10.6387
▁এসেছি	-10.6387
▁ইয়াসমিন	-10.6387
▁শক্ত	-10.6387
▁ঘাটে	-10.6389
▁ত্রুটি	-10.6391
▁৫টা	-10.6392
▁স্ট্যাটাস	-10.6394
▁পারছি	-10.6394
▁জড়িতদের	-10.6397
▁অর্জনের	-10.6408
▁নাশকতা	-10.6408
▁বিসিএস	-10.641
▁রোজ	-10.6411
▁হে	-10.6415
▁এমনটা	-10.6415
▁রোধ	-10.6416
▁অল	-10.6416
▁মাদ্রিদ	-10.6421
▁রক্তাক্ত	-10.6422
▁জার্মান	-10.6427
মন	-10.643
▁৮১	-10.643
▁অমিতাভ	-10.6433
▁বস্তা	-10.6434
ষ	-10.644
▁ট্যাবলেট	-10.6444
▁সন্ত্রাসীরা	-10.6445
গাঁও	-10.645
▁টেকনাফে	-10.6458
▁আলাউদ্দিন	-10.6459
▁যৌথভাবে	-10.6462
▁কার্তিক	-10.6462
▁আটকা	-10.6463
▁ভালোবাসার	-10.6465
▁সময়ই	-10.647
▁একাডেমির	-10.6472
▁আসামিরা	-10.6474
▁হার্ট	-10.6478
▁আত্মসমর্পণ	-10.6479
▁নেপালের	-10.6479
▁জার্নাল	-10.648
▁বসুন্ধরা	-10.648
▁নীলফামারী	-10.6483
▁ফুলবাড়ী	-10.6487
▁তিনজনের	-10.6488
▁ফেলেন	-10.6488
^	-10.6492
▁খারিজ	-10.6492
▁জন্মগ্রহণ	-10.6495
▁একসময়	-10.6496
আপডেট	-10.6497
▁আব্বাস	-10.6503
▁আতঙ্কে	-10.6504
▁ওপেন	-10.6504
এফ	-10.6504
▁স্মরণে	-10.6508
▁হান্নান	-10.6509
▁চলুন	-10.6509
▁তুমুল	-10.651
গুলিতে	-10.6519
▁আত্মার	-10.6529
▁শ্বশুর	-10.6532
▁ক্রিকেটাররা	-10.6536
▁নিলামে	-10.6538
▁অস্বাভাবিক	-10.6543
▁হারের	-10.6546
▁পর্যটকদের	-10.6552
▁কালীগঞ্জ	-10.6555
▁সাম্প্রদায়িক	-10.656
▁বন্ধে	-10.6561
▁বৃহত্তম	-10.6563
▁ইমন	-10.6565
▁ব্রিফিংয়ে	-10.6566
▁পারিনি	-10.6566
▁খেয়াল	-10.6568
▁১ম	-10.6572
▁শিল্পকলা	-10.658
▁চাঞ্চল্য	-10.6581
▁বাসিন্দারা	-10.6587
▁বুলবুল	-10.6588
▁প্রকোপ	-10.6588
▁সম্রাট	-10.6596
▁ফ্লাইটে	-10.6597
▁ক্যাচ	-10.66
▁অ্যান্টি	-10.6606
▁সংগঠনটির	-10.6609
▁ফেডারেশন	-10.661
▁ঢুকতে	-10.6615
▁স্কোর	-10.6617
▁পাহাড়ি	-10.6617
▁গরীব	-10.6618
▁সমাজে	-10.662
▁ফিরছেন	-10.6625
▁পরিশ্রম	-10.6626
গন	-10.6627
▁জগন্নাথপুর	-10.663
▁এভাবেই	-10.6632
▁খানকে	-10.6632
▁গোষ্ঠী	-10.6634
▁এটিএম	-10.6636
▁are	-10.6636
▁বিশ্লেষণ	-10.6637
▁পরিসরে	-10.6638
▁হিরো	-10.6639
▁ইনস্টাগ্রামে	-10.6643
▁চাঁদা	-10.6644
▁মালয়েশিয়ায়	-10.6645
▁গোপালগঞ্জ	-10.6645
▁নেপাল	-10.6647
▁টিপু	-10.6651
▁হেলিকপ্টার	-10.6652
ইউএনও	-10.6658
সব	-10.6665
▁প্রতিদিনই	-10.6672
▁ভ	-10.6678
▁কৃষ্ণ	-10.6679
▁কল্যাণে	-10.6679
▁তোলেন	-10.6682
▁তফসিল	-10.6683
▁দাঁড়াতে	-10.6683
▁রব	-10.6683
▁তাসকিন	-10.6684
▁ঠান্ডা	-10.6686
▁লিটার	-10.6687
▁থাকতেন	-10.669
▁মুছে	-10.6693
▁শফিউল	-10.6694
▁রংপুরের	-10.6695
▁সাজ্জাদ	-10.6701
▁ক্ষুব্ধ	-10.6704
▁নবনির্বাচিত	-10.6705
▁জড়ো	-10.6705
▁ঝুঁকিপূর্ণ	-10.6707
▁ফটো	-10.6707
▁অভিজ্ঞ	-10.6712
▁জিবি	-10.6717
▁শের	-10.6717
▁জব্বার	-10.6722
▁গাড়িটি	-10.6723
▁সার্চ	-10.6725
▁ইমরুল	-10.6725
▁হয়েছিলো	-10.6732
▁মিছিলে	-10.6735
▁আখতার	-10.6735
▁অভিনব	-10.6737
▁আল্লাম	-10.6737
▁কবর	-10.6738
▁পিরোজপুর	-10.6739
▁দাঁড়ায়	-10.6739
▁আধিপত্য	-10.674
▁Last	-10.6747
▁ইউরো	-10.6747
▁সর্বস্তরে	-10.6749
▁৬৯	-10.6756
▁মনসুর	-10.6757
▁ব্যবধান	-10.6757
▁কার্যনির্বাহী	-10.6759
▁সুতরাং	-10.6762
▁উপকূলে	-10.6763
নী	-10.6765
▁ইনজুরি	-10.6766
▁৭টার	-10.6766
▁শয্যা	-10.6767
▁কিশোরীকে	-10.6768
▁ইউরোপ	-10.6768
▁লক্ষে	-10.677
্বরাষ্ট্রমন্ত্রী	-10.6773
▁কিম	-10.6774
▁প্ল্যাটফর্ম	-10.6774
b	-10.6778
মু	-10.6779
▁সেন্টারের	-10.678
▁ময়লা	-10.6781
▁জাগো	-10.6782
▁শোভাযাত্রা	-10.6783
▁আকতার	-10.6789
▁সম্পৃক্ত	-10.679
▁ব্যবস্থাপনায়	-10.6792
▁তিনজনকে	-10.6793
▁রায়ে	-10.6797
▁লক্ষ্যমাত্রা	-10.6797
▁দাঁত	-10.6801
▁প্রোগ্রাম	-10.6803
▁দগ্ধ	-10.6808
▁ভাব	-10.6809
▁চেপে	-10.6813
▁সাতটি	-10.6813
▁মার	-10.6813
▁জিম্বাবুয়ের	-10.6815
▁মালয়েশিয়ার	-10.6817
▁দাঁড়াল	-10.6819
ভুক্ত	-10.6822
▁শরণার্থী	-10.6822
▁অফার	-10.6822
▁ইঞ্চি	-10.6822
>	-10.6823
▁অর্ডার	-10.6823
▁খেলেন	-10.6827
▁গভর্নর	-10.6831
▁বিস্ফোরক	-10.6832
▁মারুফ	-10.6835
▁ক্যাম্পেইন	-10.6835
▁বিশ্বনাথ	-10.6843
েড	-10.6844
▁প্রো	-10.6844
▁রক্ষার	-10.6847
▁স্মিথ	-10.685
▁সমর্থকরা	-10.6851
▁বাসভবন	-10.6853
▁ইন্না	-10.6856
▁মাদকের	-10.6857
▁মেলে	-10.6862
▁ভোলার	-10.6865
▁স্মারক	-10.6867
▁উঠবে	-10.6869
▁ঘুরতে	-10.6874
▁বাসটি	-10.6878
▁কুলাউড়া	-10.6879
▁ব্যাপী	-10.6881
▁চমৎকার	-10.6882
▁ওয়ালটন	-10.6883
▁দিনটি	-10.689
▁জল্পনা	-10.6891
▁সিঙ্গাপুর	-10.6897
▁নিষেধ	-10.6899
▁ক্রেতা	-10.69
▁জিতেছে	-10.69
▁বিরত	-10.69
▁লঙ্ঘন	-10.6901
▁অগাস্ট	-10.6903
▁মহিলার	-10.6905
▁শঙ্কা	-10.6907
▁উনি	-10.6912
▁রাজিউন	-10.6914
▁চুক্তিতে	-10.6914
▁৭৭	-10.6915
▁সকলে	-10.6915
কর্মীদের	-10.6916
▁আসাদ	-10.692
টু	-10.6923
▁বৃহত্তর	-10.6924
▁দিলো	-10.6926
▁সাদেক	-10.6927
▁মহিলাদের	-10.6934
▁সুশান্ত	-10.6936
▁ঘটছে	-10.694
▁হাসিনাকে	-10.694
▁তারাই	-10.6942
▁বিদেশী	-10.6943
▁উপায়ে	-10.6945
রাজ	-10.6948
▁বাইরের	-10.6948
▁আমিরাতের	-10.6951
▁বাবর	-10.6958
▁অগ্রাধিকার	-10.6958
▁বাড়ায়	-10.6961
▁একেএম	-10.6961
▁''	-10.6963
▁পুষ্টি	-10.6967
▁দ্বিতীয়বার	-10.6967
▁ব্যবসার	-10.6969
▁বিরোধিতা	-10.6978
▁ডেভেলপমেন্ট	-10.6978
বাগ	-10.698
▁ভাষণে	-10.6982
ুন	-10.6984
▁বন্দুক	-10.6985
▁ক্ষমতার	-10.6985
▁তত্ত্বাবধানে	-10.6985
▁ফাতেমা	-10.6987
p	-10.6998
▁জনপ্রতিনিধি	-10.6998
▁একাদশে	-10.6999
▁বাদল	-10.7002
▁ভাঙন	-10.7002
▁গ্রিন	-10.7003
চালিত	-10.7004
▁ঔষধ	-10.7006
▁মুহম্মদ	-10.7014
▁শীঘ্রই	-10.7014
▁পিকআপ	-10.7017
▁জানানোর	-10.7017
▁মোনাজাত	-10.7018
▁টিকে	-10.7019
▁খাঁন	-10.702
▁আফগানিস্তানে	-10.702
▁দৌড়ে	-10.7021
▁Report	-10.7025
▁সম্ভবত	-10.7027
▁সালমানের	-10.7027
▁মৌলিক	-10.7036
▁মৌসুম	-10.7048
▁মাদারীপুর	-10.7049
▁ইসরাইলের	-10.7058
▁ভীষণ	-10.7069
▁অ্যান্ড্রয়েড	-10.707
প্রতিদ্বন্দ্বিতা	-10.707
▁চেয়েও	-10.7071
▁হাফিজুর	-10.7072
▁আয়োজক	-10.7074
▁আনোয়ারুল	-10.7077
▁এরশাদের	-10.7078
▁খালাস	-10.7082
▁সৈয়দপুর	-10.7083
▁সিইও	-10.7084
▁এনজিও	-10.7085
▁দিবে	-10.7085
C	-10.7086
▁নেতিবাচক	-10.7089
▁তৎপরতা	-10.7091
▁ডায়াবেটিস	-10.7095
▁চাইতে	-10.7096
দু	-10.7099
▁চ্যানেলে	-10.7099
▁দেননি	-10.7101
▁অবসরপ্রাপ্ত	-10.711
▁পারবো	-10.7115
▁ট্রফি	-10.7117
▁নই	-10.7118
▁নাম্বার	-10.7118
▁পড়ল	-10.712
▁সাফল্যের	-10.712
▁তাপস	-10.7124
▁যোগাযোগমাধ্যমে	-10.7124
▁সিটির	-10.7125
▁আতাউর	-10.7126
▁কূটনৈতিক	-10.7126
▁চেন্নাই	-10.7127
▁দেখবেন	-10.7127
▁তাৎক্ষণিকভাবে	-10.7128
▁মাহবুবুর	-10.7128
▁চেয়েছিলেন	-10.7128
▁করো	-10.7129
▁বিট	-10.7129
▁কানাডা	-10.713
▁তুলেছে	-10.7131
I	-10.7133
▁বৈশাখী	-10.7137
▁পারফরম্যান্স	-10.7139
▁গৃহীত	-10.7144
▁উত্তাল	-10.7144
▁বর্জ্য	-10.7147
▁কমানোর	-10.7149
▁মূল্যায়ন	-10.715
▁মজার	-10.715
B	-10.7153
News	-10.7154
▁কুয়েত	-10.7156
▁পরিদর্শনে	-10.7158
▁বইয়ের	-10.716
▁লুকিয়ে	-10.7164
▁পরিচয়পত্র	-10.7166
▁কেয়ার	-10.7168
▁ভ্যাকসিনের	-10.7168
▁প্রতিষ্ঠার	-10.7169
▁সিম	-10.7173
▁নিরপেক্ষ	-10.7179
▁যত্ন	-10.7179
▁জার্সি	-10.718
▁অন্যান্যদের	-10.718
▁জুতা	-10.7181
▁গৌতম	-10.7181
▁ভট্টাচার্য	-10.7182
▁এরইমধ্যে	-10.7182
▁ডাকসু	-10.7183
▁সেমিনার	-10.7184
দী	-10.7184
▁নাজিম	-10.7185
▁ব্রেকিং	-10.7187
▁সাপেক্ষে	-10.7188
▁প্রতিপাদ্য	-10.7194
▁রোডে	-10.7195
▁পুলিশি	-10.7196
▁প্রতীকে	-10.7197
▁আনিসুল	-10.7201
▁পাবনার	-10.7201
▁প্রান্তে	-10.7206
▁আইনমন্ত্রী	-10.7206
▁গড়তে	-10.7213
▁বসিয়ে	-10.7218
›	-10.7219
▁পজেটিভ	-10.7221
▁মোটা	-10.7221
D	-10.7223
▁হ্যান্ড	-10.7224
▁আমিরাত	-10.7226
▁নথি	-10.7227
▁রঞ্জন	-10.7231
▁অভিনেত্রীর	-10.7231
▁ঐতিহ্য	-10.7231
▁E	-10.7236
▁প্রতারণার	-10.7236
▁সন্ত্রাসীদের	-10.7252
▁নজরদারি	-10.7254
▁প্রচণ্ড	-10.7257
মার	-10.7258
▁ভক্তরা	-10.7266
▁দূতাবাসের	-10.7266
▁গ্যাসের	-10.7269
▁সাফ	-10.7273
▁Bangladeshi	-10.7278
▁মুগ্ধ	-10.7278
▁সম্মানিত	-10.728
▁চর্চা	-10.7287
▁সুপারস্টার	-10.7291
▁গ্রুপে	-10.7292
▁পেয়েছিলেন	-10.73
ডিএসই	-10.73
▁সাগরে	-10.7304
▁ভালোভাবে	-10.7306
▁মিন্টু	-10.7307
▁বাজেটে	-10.7307
▁জা	-10.731
▁দফতরের	-10.7311
▁একযোগে	-10.7314
▁সাতক্ষীরার	-10.7318
▁সালেহ	-10.7321
▁নাহার	-10.7326
▁দশক	-10.7326
▁স্পর্শ	-10.7331
▁দরে	-10.7331
▁চট্টোপাধ্যায়	-10.7333
▁তথ্যপ্রযুক্তি	-10.7333
▁কথিত	-10.7335
▁টিভির	-10.7335
▁মধ্যেও	-10.7337
▁হস্তক্ষেপ	-10.7341
▁পুঁজিবাজারে	-10.7343
▁দশকের	-10.7344
▁ব্রাহ্মণবাড়িয়ার	-10.7347
▁সনাক্ত	-10.7347
▁এড	-10.7351
▁মেহেরপুর	-10.7351
▁ইরফান	-10.7352
▁কাটাতে	-10.7353
▁নাছির	-10.7354
▁রেজিস্ট্রেশন	-10.7355
▁সবশেষ	-10.7356
▁ইসলামি	-10.7357
▁কানাডার	-10.7359
▁অপরাধের	-10.7362
▁যুবরাজ	-10.7365
▁সংলাপ	-10.7366
▁লেনদেনের	-10.7366
▁কোহলির	-10.7369
▁উইকেটের	-10.7371
▁উপকূলীয়	-10.7371
▁মুমিনুল	-10.7373
▁জহির	-10.7373
▁ব্যক্তিরা	-10.7376
▁আটকের	-10.7377
▁সংবিধান	-10.7378
▁কক্ষ	-10.7379
উদ্দিন	-10.738
▁৭টি	-10.7386
▁মাসেই	-10.7388
রত	-10.7391
▁অনুষ্ঠানটি	-10.7395
▁প্রকল্পে	-10.7397
▁লাইট	-10.7398
▁৪টার	-10.74
▁বাবাকে	-10.74
মঙ্গলবার	-10.7402
▁উইকিপিডিয়া	-10.7402
▁লোকের	-10.7405
উপজেলা	-10.7407
▁ডিএসইতে	-10.7408
▁উদযাপিত	-10.7409
▁বাচ্চা	-10.7411
▁পরপর	-10.7415
T	-10.7423
▁লন্ডনের	-10.7425
▁মজিদ	-10.7426
▁শ্যামল	-10.7427
▁খাল	-10.7428
▁সহায়তার	-10.7429
▁হননি	-10.743
▁এবছর	-10.7431
▁মাটির	-10.7436
েন	-10.7438
▁গবেষণার	-10.744
▁সুখবর	-10.7441
▁রিজার্ভ	-10.7445
প্রত্যক্ষদর্শীরা	-10.7448
▁অন্যায়	-10.7451
▁সদরে	-10.7453
▁বান্দরবানে	-10.7455
▁পরিত্যক্ত	-10.7461
▁শ্রীমঙ্গল	-10.7463
▁ক্যামেরার	-10.7463
▁সজীব	-10.7469
▁খালিদ	-10.747
▁মাথার	-10.7472
▁সমর্থিত	-10.7473
শন	-10.7473
▁গোপনে	-10.7478
▁আগামীতে	-10.7479
সোমবার	-10.7479
▁মেইল	-10.7487
▁কন্ঠ	-10.7487
▁ছ	-10.749
▁আউয়াল	-10.7491
শৃঙ্খলা	-10.7494
▁ব্যবহারে	-10.7498
▁ছাড়পত্র	-10.7506
▁ভাগ্য	-10.7506
▁নিঃশ্বাস	-10.7507
▁চার্জশিট	-10.7508
▁খবরের	-10.7508
▁একসাথে	-10.751
ষ্ট	-10.7511
▁হাউস	-10.7512
▁ফেলেছেন	-10.7516
▁তত	-10.7518
▁মানতে	-10.7518
k	-10.7519
▁দুজনকে	-10.7519
▁গ্রেপ্তারের	-10.7521
▁অর্থনীতির	-10.7521
▁আইনানুগ	-10.7525
▁বিদ্যমান	-10.7525
▁ইসরায়েলের	-10.7526
▁তলব	-10.7531
▁ছাগল	-10.7532
▁আবিষ্কার	-10.7533
▁নামতে	-10.7534
▁কর্মকাণ্ড	-10.7538
▁চাইছে	-10.7538
▁তরফ	-10.754
▁সোসাইটি	-10.7541
ইউ	-10.7543
▁বিসিবির	-10.7544
▁মৌলভীবাজারের	-10.7545
▁ব্যাটালিয়ন	-10.7546
ST	-10.7548
▁তাজুল	-10.7551
▁বহুল	-10.7552
▁মুখের	-10.7552
▁বক্তব্যের	-10.7553
▁ব্রিটেনের	-10.7555
হার	-10.7557
▁ম্যানচেস্টার	-10.7558
▁নিউইয়র্ক	-10.7563
▁দ্বিগুণ	-10.7564
▁জন্মদিনে	-10.7564
▁শিকদার	-10.7565
▁নিচের	-10.7566
▁সাপ	-10.7568
▁জটিলতা	-10.7572
▁স্যার	-10.7573
▁নামবে	-10.7574
বুধবার	-10.7577
▁বিক্রেতা	-10.7577
▁স্বেচ্ছাসেবী	-10.7579
▁ভিসি	-10.7584
▁মধ্যরাতে	-10.7592
▁৪টায়	-10.7594
▁বার্সেলোনার	-10.7595
▁ইসি	-10.7595
▁চেষ্টার	-10.7601
▁শ্বাসকষ্ট	-10.7602
▁নাচ	-10.7607
▁আর্জেন্টিনার	-10.7609
▁শহীদুল	-10.761
▁হাজতে	-10.7612
▁আদায়ের	-10.7613
▁পর্যায়ক্রমে	-10.7623
▁ফেন্সিডিল	-10.7623
▁খোরশেদ	-10.7624
▁ঘটনাকে	-10.7624
▁মেয়েটি	-10.7629
▁ফেডারেশনের	-10.7629
লাম	-10.7633
▁কখনোই	-10.7634
▁ব্যানারে	-10.7634
▁গেম	-10.7639
▁ময়দানে	-10.7639
▁প্রচলিত	-10.7644
▁আয়কর	-10.7645
▁অ্যাসোসিয়েশনের	-10.7645
▁অভ্যাস	-10.7647
▁অনুভূতি	-10.765
▁দেখেছি	-10.7652
▁বাড়ে	-10.7653
▁অভিবাসন	-10.7655
▁সিদ্ধান্তে	-10.7658
▁জগতে	-10.7659
▁মাতৃভাষা	-10.7662
▁ক্রিস	-10.7662
▁মৌসুমের	-10.7662
▁সেন্ট্রাল	-10.7664
▁ঢেউ	-10.7665
▁ফিলিস্তিনি	-10.7669
▁অনুমান	-10.7671
▁জিপিএ	-10.7679
▁লিয়াকত	-10.7682
ফি	-10.7684
▁কাস্টমস	-10.7688
২০১৭	-10.7689
▁সন্তানকে	-10.7689
▁ক্যাপ্টেন	-10.7689
▁জাহিদুল	-10.7692
্	-10.7694
▁প্রেমে	-10.7694
▁সংশ্লিষ্টদের	-10.7695
▁চ্যাম্পিয়ন্স	-10.7703
▁রোজা	-10.7703
▁৮৪	-10.7704
▁তাল	-10.7708
▁দূষণ	-10.7708
▁২০০৭	-10.7709
▁নির্বাচনকে	-10.771
▁আসায়	-10.7712
▁পড়ায়	-10.7714
▁মল্লিক	-10.7715
▁পৌঁছানো	-10.7715
শনিবার	-10.7716
▁শা	-10.7718
▁মহসিন	-10.7719
▁মজুদ	-10.7725
▁৯২	-10.7732
▁স্টেট	-10.7733
▁ধ	-10.7738
▁মোশারফ	-10.7742
▁অর্থবছরে	-10.7742
▁ভরসা	-10.7746
▁সিরাজগঞ্জের	-10.7746
খবর	-10.7748
▁৯৮	-10.7749
সহকারী	-10.776
▁প্রত্যাখ্যান	-10.7761
▁ফেনসিডিল	-10.7761
▁প্রতিকৃতিতে	-10.7764
▁জার্মানি	-10.7764
c	-10.7764
▁আশাবাদী	-10.7766
▁মেধা	-10.7767
▁স্বাস্থ্যসেবা	-10.777
▁বচ্চন	-10.7771
জনকে	-10.7773
▁পুরান	-10.7776
▁প্রদেশ	-10.778
▁ফিরলেন	-10.7783
▁মামুনুল	-10.7787
িতে	-10.7788
▁৮৮	-10.779
▁রংপুরে	-10.7793
▁যাবৎ	-10.7794
▁জার্মানির	-10.7796
▁ভোগ	-10.7796
করোনা	-10.7797
▁চি	-10.7801
▁করণীয়	-10.7802
▁অলিম্পিক	-10.7812
▁ধর্ষক	-10.7814
ময়	-10.7818
▁এসি	-10.782
▁শ্রেণিতে	-10.7823
▁হারায়	-10.7824
net	-10.7826
▁ভাস্কর্য	-10.7827
▁কিশোরীর	-10.7835
Shomoy	-10.7836
▁কেউই	-10.7838
▁রযাপিড	-10.7842
▁more	-10.7843
▁আন	-10.7843
▁জিএম	-10.7845
▁কুকুর	-10.7846
▁পাচারের	-10.7848
▁সেলফি	-10.7849
▁৫টার	-10.7849
▁বিরোধের	-10.7851
▁হারিয়েছেন	-10.7853
▁ফেরা	-10.7856
▁বার্সা	-10.7856
▁জামিনের	-10.7858
▁নিরাপদে	-10.7859
▁Update	-10.7859
▁উইন্ডোজ	-10.7864
▁সালাউদ্দিন	-10.7865
▁ডাকাতির	-10.7869
▁শহীদদের	-10.788
▁গ্রেনেড	-10.7881
▁হাটহাজারী	-10.7883
▁অবস্থানরত	-10.7884
▁অব্যাহতি	-10.7885
▁ঝিনাইদহে	-10.7885
▁চালুর	-10.7889
▁কনফারেন্সের	-10.7889
▁বেকার	-10.789
▁ওঠেন	-10.7894
▁মূল্যের	-10.7894
এইচ	-10.79
▁নামার	-10.7905
▁পর্যটক	-10.7906
▁দ	-10.7908
▁মিয়ানমারে	-10.7909
বু	-10.7909
▁সিনেমাটির	-10.791
▁মানেই	-10.7913
▁সূর্য	-10.7916
জার	-10.7918
▁মজা	-10.7921
▁স্থাপনের	-10.7922
▁দোকানপাট	-10.7923
▁সম্পদের	-10.7929
▁ঠাকুর	-10.793
▁মহড়া	-10.7931
বার্তা	-10.7933
▁daily	-10.7942
▁চিত্রনায়ক	-10.7943
▁ফাঁসির	-10.7943
ধ	-10.7948
▁আইসিইউতে	-10.7949
▁ব্যান্ড	-10.7956
▁গণনা	-10.7957
▁কালে	-10.7959
▁জন্যও	-10.796
▁প্রেসিডিয়াম	-10.7962
▁ভয়ঙ্কর	-10.7963
▁ইতোমধ্যেই	-10.7964
▁Today	-10.7964
▁যাব	-10.7968
▁মঈন	-10.7968
▁কাপের	-10.7969
▁হবিগঞ্জের	-10.7976
▁আসছিলেন	-10.7983
ডিবি	-10.7985
▁কোপা	-10.7985
সিলেট	-10.7986
চি	-10.7986
▁মানা	-10.799
▁অস্ত্রের	-10.7992
▁কমতে	-10.7992
▁আগত	-10.7995
▁জাতের	-10.7999
▁আদেশে	-10.7999
▁ওয়াজেদ	-10.8003
▁হাল	-10.8005
▁অডিও	-10.8005
▁৯৩	-10.8006
▁পৌরসভায়	-10.8008
▁১১টি	-10.801
▁প্রেসিডেন্টের	-10.8012
▁যোগাযোগের	-10.8012
▁ওয়ানডেতে	-10.8013
▁এক্সচেঞ্জ	-10.8013
▁মুম্বাইয়ের	-10.8019
▁কোয়ার্টার	-10.8019
▁বিগ	-10.802
▁ভাষার	-10.8021
Bangla	-10.8021
▁রাখি	-10.8022
▁১২০	-10.8024
▁টিমের	-10.8024
▁মূর্তি	-10.8024
▁ইনস্টাগ্রাম	-10.8025
▁জিম্বাবুয়ে	-10.8028
▁ফুটবলের	-10.8028
▁যুক্তি	-10.8029
▁বেশির	-10.8032
তবে	-10.8034
বোধ	-10.8037
▁নিত্য	-10.8041
▁তরুণীর	-10.8043
▁মশিউর	-10.8044
▁সেল	-10.8046
▁ধরন	-10.8048
▁ফেনীর	-10.8048
▁আসবেন	-10.805
▁এএফপি	-10.805
▁পুজো	-10.805
তায়	-10.805
▁ফরিদপুরে	-10.8053
▁ফুড	-10.8058
ছবি	-10.806
▁খালেক	-10.8065
▁অবলম্বন	-10.8072
যে	-10.8075
▁দ্রব্য	-10.8075
▁দেখছে	-10.8079
l	-10.8081
▁জিডি	-10.8081
▁ঋণের	-10.8082
▁চেষ্টায়	-10.8084
▁দুদিন	-10.8085
▁রিটার্নিং	-10.8085
▁রিকশা	-10.8088
▁জননেত্রী	-10.8089
েশন	-10.809
▁রক্তের	-10.8092
▁ভরে	-10.8093
▁যুগান্তর	-10.8096
▁মেট্রিক	-10.8098
▁ডিসপ্লে	-10.81
▁সম্মুখীন	-10.8105
▁Sports	-10.8112
▁সেবায়	-10.8114
টাও	-10.8118
জান	-10.8119
▁ঘন্টার	-10.8119
▁হতাহত	-10.8125
▁Dainik	-10.8126
▁করাতে	-10.8128
▁বর্ডার	-10.8128
▁আনন্দের	-10.813
▁মিঠুন	-10.8135
▁উঠল	-10.8145
▁একান্ত	-10.8148
▁জামায়াতের	-10.8152
▁সীমা	-10.8155
▁পদত্যাগের	-10.8158
▁প্রস্তাবিত	-10.8158
▁প্রতারক	-10.8159
ুয়া	-10.8165
▁You	-10.8168
▁পৌঁছায়	-10.817
কমার্স	-10.817
▁সার্কিট	-10.817
▁ছুটিতে	-10.8172
▁মুদ্রা	-10.8179
যোগ্য	-10.8184
▁আসলাম	-10.8186
▁লাগার	-10.8187
▁ভুগছিলেন	-10.8188
▁অন্তঃসত্ত্বা	-10.819
▁মুসলিমদের	-10.8191
▁ব্যক্তিবর্গ	-10.8192
▁জিয়াউল	-10.8193
পূর্ণ	-10.8196
▁রকমের	-10.8197
▁জানালে	-10.8198
করণ	-10.8199
কর্মী	-10.8199
▁যেত	-10.8199
রী	-10.8203
▁রক্ষাকারী	-10.821
▁রোল	-10.821
▁গৃহবধূকে	-10.821
▁৮৩	-10.8212
স্ত	-10.8213
▁সাপোর্ট	-10.8213
▁রুম	-10.8214
▁ওভারের	-10.8217
বাসী	-10.8218
▁বনানী	-10.822
▁মেলেনি	-10.8223
▁কাপ্তাই	-10.823
▁স্যামসাং	-10.823
▁দোষী	-10.823
▁জঙ্গিবাদ	-10.8236
▁শরিফ	-10.8236
▁শিথিল	-10.8237
▁চালিত	-10.8238
▁নিবন্ধ	-10.824
▁দ্যা	-10.8242
▁পে	-10.8242
▁সুত্রে	-10.8242
▁বাড়ীতে	-10.8247
▁বাঁ	-10.8247
▁বৈশিষ্ট্য	-10.8248
▁সালমা	-10.8248
▁পতন	-10.8249
▁ঢেলে	-10.825
▁মণ্ডল	-10.8254
▁সহ্য	-10.8255
▁কার্যক্রমে	-10.8256
▁ছাদ	-10.8263
▁মিমি	-10.8265
▁বাস্তব	-10.8265
বান	-10.8265
▁কাশ্মীরের	-10.8266
▁সরব	-10.8271
▁রাসায়নিক	-10.8271
▁রা	-10.8273
▁বাতাসে	-10.8277
▁ব্যবহারকারী	-10.8281
▁পোর্টাল	-10.8283
▁ছক্কা	-10.8287
▁North	-10.829
▁স্টোর	-10.829
▁রাষ্ট্রের	-10.8291
▁From	-10.8292
▁ছুরি	-10.8293
▁বিজ্ঞানী	-10.8293
▁মঠবাড়িয়া	-10.8293
▁অনশন	-10.8293
▁রোকেয়া	-10.8294
▁কিংস	-10.8298
পত্র	-10.8301
▁হিলি	-10.8302
▁২০টি	-10.8303
▁হাতিয়ে	-10.8307
িংয়ের	-10.8311
প্রশাসন	-10.8316
▁সমগ্র	-10.8317
তারা	-10.8317
▁পড়েছিল	-10.832
▁কোম্পানিটি	-10.8322
▁পালা	-10.8325
▁ভয়েস	-10.8327
▁সাতক্ষীরায়	-10.8328
▁সাক্ষ্য	-10.8334
▁খুলতে	-10.8334
▁সর্বাধিক	-10.8334
▁ধর্ষন	-10.8335
▁ব্যয়ে	-10.8336
▁মধ্যকা	-10.8337
▁বিদায়ী	-10.835
দল	-10.8351
▁অনুষদ	-10.8351
▁হেক্টর	-10.8355
▁সমন্বিত	-10.8358
▁বসতে	-10.8359
▁সঠিকভাবে	-10.8365
▁স্প্যান	-10.8366
▁শেষের	-10.8368
▁৪টা	-10.8369
▁শাখায়	-10.8369
▁করেছিলাম	-10.8372
ইসি	-10.8374
▁৮৭	-10.8376
▁তোফায়েল	-10.8377
▁নির্মম	-10.8378
▁শিমুল	-10.8381
▁টিপস	-10.8383
▁ক্ষতিপূরণ	-10.8384
▁সুখ	-10.8388
▁কর্মশালায়	-10.839
▁নিষেধাজ্ঞার	-10.8392
▁স্বদেশ	-10.8397
▁টেবিল	-10.8398
▁গিয়াস	-10.84
▁পূর্বাভাসে	-10.8401
▁বেঙ্গল	-10.8403
▁হুমকির	-10.8406
▁উপকারী	-10.8408
▁শিশুরা	-10.841
▁সেন্সর	-10.8411
▁৯৯	-10.8411
▁বাজে	-10.8412
▁পরীমনি	-10.8414
▁শতাংশের	-10.8417
▁বিশ্বাসের	-10.8418
▁আত্মঘাতী	-10.842
▁উদাহরণ	-10.842
▁আমজাদ	-10.842
▁প্যাকেজ	-10.8422
▁আইএস	-10.8426
▁হৃদরোগে	-10.8426
▁ঢাবি	-10.8431
▁R	-10.8435
▁অঙ্গীকার	-10.8441
▁ভোরের	-10.8442
▁ক্রেতাদের	-10.8449
▁ইসরায়েলি	-10.845
▁শুনেছি	-10.8452
▁লেখাপড়া	-10.8453
▁অন্যের	-10.8454
▁ফতুল্লা	-10.8458
▁বিশেষজ্ঞদের	-10.8458
▁প্রবাসীর	-10.8459
▁s	-10.846
▁স্তরের	-10.8461
▁স্যাটেলাইট	-10.8464
▁আমেরিকায়	-10.8465
▁অজানা	-10.8467
▁টেকনোলজি	-10.8468
▁বিপর্যয়	-10.8471
▁আশায়	-10.8471
▁মশা	-10.8472
▁ফিটনেস	-10.8473
পাড়ার	-10.8477
▁বোঝাই	-10.8481
▁আইজিপি	-10.8481
অধিনায়ক	-10.8482
াই	-10.8483
▁সংগঠক	-10.8484
▁পেরেছি	-10.8486
বছর	-10.8487
▁এসপি	-10.8488
▁আটটি	-10.849
▁দুটো	-10.8492
▁মোকাবেলা	-10.8499
▁মতিউর	-10.8504
▁ল্যাপটপ	-10.8505
▁কোড	-10.8506
▁প্রাচীন	-10.8507
▁হেফাজত	-10.8513
▁ব্যবসায়ীর	-10.852
▁হাফ	-10.8524
▁জেমস	-10.8539
▁গাছে	-10.854
ar	-10.8542
▁In	-10.8543
▁প্লাস	-10.8547
শুক্রবার	-10.8547
▁জন্মশতবার্ষিকী	-10.8547
▁জীবিত	-10.8548
রাম	-10.8549
▁ভ্যাট	-10.855
▁বিমানবন্দরের	-10.8553
▁টুইটে	-10.8557
▁জরিপ	-10.8558
▁জয়পুরহাট	-10.8562
৬৫	-10.8563
▁বর্ষ	-10.8564
▁সাংবাদিকরা	-10.8566
▁mobile	-10.8569
▁কাটতে	-10.8576
▁৭টায়	-10.8577
৭০	-10.8578
▁দৃঢ়	-10.858
▁ফুলের	-10.8582
▁রো	-10.8586
▁অভিবাসী	-10.8588
▁ছুরিকাঘাতে	-10.8591
▁ডিগ্রী	-10.8592
▁তুর্কি	-10.8593
▁ইনিংসের	-10.8594
▁হয়রানির	-10.8594
জু	-10.8595
▁কাহিনী	-10.8595
▁বইটি	-10.86
লাল	-10.8603
▁জগন্নাথ	-10.8604
▁স্টেডিয়াম	-10.8605
ডা	-10.8611
▁বন্ধুর	-10.8611
▁সীমান্তবর্তী	-10.8612
▁মাহফিলে	-10.8613
▁প্রতিষ্ঠানকে	-10.8613
▁দিনই	-10.8615
▁মুম্বই	-10.8616
▁গণতন্ত্রের	-10.8617
▁৬০০	-10.8619
▁হালদার	-10.8619
▁বহনকারী	-10.862
▁মেক্সিকো	-10.8621
▁হারানো	-10.8621
▁এসোসিয়েশন	-10.8622
▁ওজনের	-10.8623
▁F	-10.8626
বল	-10.8627
▁ফুটেজ	-10.8628
▁১৫টি	-10.863
▁সৌজন্য	-10.863
▁নাটকটি	-10.8631
f	-10.8631
▁১টার	-10.8633
▁চাঞ্চল্যকর	-10.8634
▁বর্ধিত	-10.8635
▁টিকেট	-10.8638
▁b	-10.8646
▁পশুর	-10.8647
▁সবই	-10.8648
▁ভা	-10.8654
▁Uttar	-10.8656
▁হালনাগাদ	-10.8656
▁পাড়ে	-10.866
ওয়া	-10.866
▁চাঁদপুরের	-10.8661
▁ঘুমিয়ে	-10.8661
▁ভাইকে	-10.8667
স্ট	-10.8669
▁ম্যান	-10.8672
▁সূচি	-10.8673
▁রেটিং	-10.8673
▁কাদেরের	-10.8675
▁প্রক্টর	-10.8676
বৃহস্পতিবার	-10.8678
?'	-10.8678
▁৯৭	-10.868
▁ফরোয়ার্ড	-10.868
▁ত্রি	-10.8682
▁রুট	-10.8684
▁জোনের	-10.8685
▁—	-10.8688
▁মন্ত্রিসভার	-10.869
▁এয়ারলাইন্সের	-10.8691
▁স্বস্তি	-10.8696
▁মমতাজ	-10.8696
▁নীচে	-10.87
ক্ত	-10.8704
▁ফোনটি	-10.8705
▁পড়ুয়া	-10.8706
▁শিক্ষিকা	-10.8714
▁আখাউড়া	-10.8715
কর্মীরা	-10.8715
▁মিঠু	-10.8715
▁পরাজয়	-10.8716
▁ব্যবস্থার	-10.872
▁পুরোনো	-10.8727
▁দিনাজপুরে	-10.8727
হাট	-10.8728
▁৯৪	-10.8729
▁বারী	-10.873
▁মহাকাশ	-10.8731
▁প্রান্তিক	-10.874
h	-10.874
▁যাবার	-10.8742
▁সিকিউরিটি	-10.8742
▁ক্যারিয়ারে	-10.8745
▁১৪২৬	-10.8748
▁৯১	-10.8748
সন	-10.875
▁কুষ্টিয়ায়	-10.8754
▁গণভবনে	-10.8757
▁ফিট	-10.876
চা	-10.8762
▁বাবলু	-10.8764
▁হিন্দি	-10.8764
▁বসু	-10.8765
▁বিপর্যস্ত	-10.8766
▁মোয়াজ্জেম	-10.8766
▁যৌতুক	-10.8766
▁ঝগড়া	-10.8767
▁দাঁড়ানোর	-10.8769
▁বিদ্যা	-10.8769
▁নিপীড়ন	-10.877
▁সেটে	-10.8773
▁সুনাম	-10.8776
▁বস	-10.878
▁অর্জুন	-10.8783
▁অফিসিয়াল	-10.8784
▁২টার	-10.8785
▁সচল	-10.8787
▁রওশন	-10.8789
▁মার্ক	-10.8789
▁টেকসই	-10.879
▁পরিমান	-10.8791
▁খাদে	-10.8794
▁বোরো	-10.8795
▁বায়তুল	-10.8796
▁বদল	-10.8797
▁ডিসেম্বরের	-10.8797
▁পর্দা	-10.88
▁শফিক	-10.881
▁মিলিত	-10.8814
▁রসুন	-10.8814
▁ক্যাটরিনা	-10.8815
▁চেহারা	-10.8816
▁৮৬	-10.8818
▁গাজীপুরে	-10.8819
▁তৈরিতে	-10.8819
▁প্লাস্টিক	-10.8824
▁অক্ষয়	-10.8824
▁বক্তা	-10.8827
▁দিচ্ছি	-10.8828
▁দিনেই	-10.8829
▁কোর্স	-10.8831
▁বুথ	-10.8834
▁অস্ত্রোপচার	-10.8838
▁কয়লা	-10.884
g	-10.884
▁পেলেও	-10.8842
▁কারন	-10.8843
▁মার্চে	-10.8845
▁প্রবৃদ্ধি	-10.8845
▁শীতে	-10.8849
▁অবাধ	-10.885
▁আমীর	-10.8855
▁সঙ্কট	-10.8856
বৃন্দ	-10.8857
▁পেজ	-10.8858
▁ধনী	-10.8863
▁পরিষদে	-10.8869
▁টিকাদান	-10.8873
▁শাহবাগ	-10.8874
▁বিষয়গুলো	-10.8874
দুদক	-10.8874
▁ফান্ড	-10.888
▁শিশুসহ	-10.888
▁অভি	-10.8884
▁ইমিগ্রেশন	-10.8886
▁মডেলের	-10.8887
▁Samb	-10.889
▁ঐক্যফ্রন্টের	-10.8891
▁দাসের	-10.8892
▁মুনাফা	-10.8893
▁প্রাণিসম্পদ	-10.8898
▁৮৯	-10.8898
▁অর্থের	-10.8899
▁স্বার্থ	-10.89
▁আলিম	-10.89
▁দোষ	-10.8901
▁যন্ত্র	-10.8902
▁গ্রাহকের	-10.8902
▁সায়েন্স	-10.8903
▁মেয়াদে	-10.8904
পে	-10.8905
▁বানানো	-10.8906
▁করণ	-10.8908
▁দুপুরের	-10.8908
▁ভূমিকম্প	-10.891
▁ভূ	-10.8914
▁পাড়ায়	-10.8915
▁ইউক্রেনের	-10.8918
▁মোদীর	-10.8918
▁লুট	-10.8919
▁বিমানটি	-10.892
শিক্ষা	-10.892
টন	-10.8928
▁তরুণীকে	-10.8929
▁রাজস্থান	-10.8931
ূ	-10.8933
▁একদিকে	-10.8934
▁ধর্মঘট	-10.8935
▁মোবারক	-10.8937
▁চ	-10.8938
▁আঙুল	-10.8939
▁সমাধানে	-10.8939
▁পুরুষদের	-10.8939
▁চাচা	-10.8941
▁তাড়াতাড়ি	-10.8943
বেন	-10.8946
▁তেমনই	-10.8947
on	-10.8948
▁নিজেও	-10.895
▁বোর্ডে	-10.895
▁অমর	-10.895
▁সেনাদের	-10.8951
▁সিলিন্ডার	-10.8953
▁অপারেটর	-10.8953
▁On	-10.8964
▁ঝামেলা	-10.8965
বাদ	-10.8967
▁হাইকমিশনার	-10.8967
▁বিজয়ের	-10.8967
▁আদিবাসী	-10.8969
▁সাবান	-10.897
▁আজহার	-10.8973
▁বায়ু	-10.8974
▁সাক্ষাত	-10.8975
▁চালের	-10.8975
▁যুগে	-10.8981
▁কিং	-10.8981
▁প্রশ্নে	-10.8983
হাজার	-10.8985
▁আংশিক	-10.8985
▁পেশাদার	-10.8986
▁আইটি	-10.8987
▁এক্সচেঞ্জে	-10.8988
▁হুমায়ূন	-10.899
▁অন্যরা	-10.899
▁ম্যাচেই	-10.8991
▁ঝিনাইদহের	-10.8992
বিষয়ে	-10.8992
▁আয়েশা	-10.8995
▁ফলন	-10.8995
▁নৌবাহিনীর	-10.8999
▁গ্রাহকরা	-10.9001
▁তুলনা	-10.9001
▁টঙ্গী	-10.9002
▁টাঙ্গাইলে	-10.901
▁কৃত্রিম	-10.9011
▁ট্রেনিং	-10.9014
▁মুসলমান	-10.9017
রাই	-10.9018
▁বললে	-10.9022
▁টাওয়ার	-10.9026
▁লুক	-10.9026
▁আপডেটঃ	-10.9026
▁শীতবস্ত্র	-10.9033
▁বকেয়া	-10.9033
▁টেলিভিশনের	-10.9033
▁শর্তে	-10.9033
▁দায়েরের	-10.9036
▁ভাঙা	-10.9037
▁আঘাতের	-10.9037
▁মিরপুরে	-10.9037
▁পারায়	-10.904
▁সারাদিন	-10.9043
▁bd	-10.9043
▁অপসারণ	-10.9049
▁তাকিয়ে	-10.9051
▁ডিন	-10.9061
▁আঃ	-10.9061
▁ইসরায়েল	-10.9063
▁কয়েকবার	-10.9066
▁নাসিমা	-10.9068
▁একাডেমিক	-10.9068
মেন্ট	-10.907
▁সার্জারি	-10.9078
▁রিসার্চ	-10.9079
banga	-10.908
বড়	-10.908
▁পদার্থ	-10.9081
▁শ্রাবন্তী	-10.9086
▁আমান	-10.9091
▁হত্যাকাণ্ড	-10.9093
▁অপরের	-10.9094
▁যাকে	-10.9096
চর	-10.9099
▁হই	-10.9101
▁সাজাপ্রাপ্ত	-10.9104
▁কার্যত	-10.9105
▁ভৈরব	-10.9106
▁বুঝিয়ে	-10.9107
▁দৃশ্যমান	-10.9109
▁বলছি	-10.911
▁ছাত্রের	-10.9114
▁নো	-10.9115
▁পিলার	-10.9115
▁যুক্তরাজ্যে	-10.9116
▁মন্দিরের	-10.912
▁মেয়েটির	-10.9121
▁কর্মচারীদের	-10.9122
▁বন্দুকযুদ্ধে	-10.9123
▁গরিব	-10.9123
▁অগ্নিকান্ডে	-10.9124
▁লুটপাট	-10.9126
▁মহানগরীর	-10.9128
▁হরতাল	-10.9136
▁রিভিউ	-10.9139
▁আশুলিয়া	-10.9142
▁দেখলে	-10.9146
কান্দি	-10.9146
▁হেঁটে	-10.9147
▁কনটেন্ট	-10.9148
▁কর্মীর	-10.9148
▁সংশ্লিষ্টরা	-10.9149
▁লক্ষাধিক	-10.915
▁বিবিসির	-10.915
▁বিপিএল	-10.9154
ত্ব	-10.9161
▁যাত্রীর	-10.9164
জেলা	-10.9166
।''	-10.9166
▁এনেছে	-10.9167
▁মোল্লার	-10.9167
▁বিচ্ছেদ	-10.9167
▁সীমানা	-10.9167
▁দৃষ্টান্ত	-10.9169
œ	-10.9169
▁উপযোগী	-10.9169
▁প্রেমিকের	-10.9173
▁তাণ্ডব	-10.9175
ছা	-10.9176
লী	-10.9186
▁কোচের	-10.9187
পুরুষ	-10.9193
▁মারমা	-10.9193
▁জনবল	-10.9195
▁তাড়া	-10.9195
▁চোপড়া	-10.9204
▁হেলপার	-10.9207
▁প্রীতি	-10.921
▁পঞ্চায়েত	-10.921
▁কাশ্মীরে	-10.9215
▁গায়ক	-10.9219
▁&	-10.9221
িল	-10.9229
▁অনিয়মের	-10.9234
প্রাপ্ত	-10.9237
▁করলাম	-10.924
▁কোষাধ্যক্ষ	-10.924
▁মন্ত্রিসভা	-10.9241
▁নকশা	-10.9242
barta	-10.9243
▁শিক্ষকরা	-10.9243
▁পাঠক	-10.9247
▁সফলতা	-10.925
▁প্রকৃতি	-10.9252
▁তুষার	-10.9253
▁ঝড়ো	-10.9254
▁নেশা	-10.9255
▁ট্রাকটি	-10.9259
▁গাঁজাসহ	-10.9261
▁সুনীল	-10.9261
▁আত্ম	-10.9262
▁ট্যাগ	-10.9263
▁সবগুলো	-10.9265
▁ঘটতে	-10.9265
▁দম্পতির	-10.9266
জুড়ে	-10.9268
▁ভিতর	-10.9275
▁প্রত্যাবর্তন	-10.9275
▁ফজলুর	-10.9277
▁পায়রা	-10.928
এটা	-10.9282
▁নির্মাণাধীন	-10.9285
▁নববর্ষ	-10.9286
▁ফেলুন	-10.9286
▁ঘুমের	-10.9289
▁ছাত্রদের	-10.9289
ly	-10.929
▁মোহাম্মদপুর	-10.9297
▁দেখায়	-10.9304
▁অদ্ভুত	-10.9306
▁হিজরি	-10.9307
▁কটাক্ষ	-10.9307
▁আনিসুর	-10.9309
▁কর্তৃপক্ষকে	-10.931
অপরাহ্ন	-10.9312
▁লাশের	-10.9313
▁স্বজন	-10.9315
▁ভাবতে	-10.9316
bangla	-10.9317
▁ভূইয়া	-10.9318
▁প্রি	-10.932
▁উঁচু	-10.9322
▁লালন	-10.9323
▁রাফি	-10.9324
▁রক্তে	-10.9325
▁সন্দেহভাজন	-10.9325
▁with	-10.9326
▁ওষুধের	-10.9326
▁দুনিয়া	-10.9328
▁পৌঁছালে	-10.9328
▁সভাকক্ষে	-10.9331
▁লাফিয়ে	-10.9332
রু	-10.9334
▁বার্ন	-10.9334
▁সংশোধিত	-10.9335
▁রিপোর্টার্স	-10.9336
▁বাণিজ্যমন্ত্রী	-10.9337
▁ইন্সপেক্টর	-10.9341
▁গণশিক্ষা	-10.935
▁শপিং	-10.9357
▁বাঙালির	-10.9359
▁দশকে	-10.9361
▁বাকী	-10.9364
▁পাঠিয়েছেন	-10.9365
▁কর্মীকে	-10.9365
▁৮০০	-10.9367
▁চত্বর	-10.9371
▁সোনারগাঁ	-10.9373
▁আজকাল	-10.9381
▁admin	-10.9382
▁এটিই	-10.9383
▁কঙ্গনা	-10.9385
▁টেবিলের	-10.9387
▁কাঁধে	-10.9388
▁কমলা	-10.9389
▁Jan	-10.9391
▁জোহর	-10.9394
▁মুন	-10.9397
▁মালিকদের	-10.9397
▁কোলে	-10.9398
▁আইসোলেশন	-10.94
▁অনুমোদিত	-10.9401
▁দপ্তরে	-10.9404
▁লোহাগাড়া	-10.9404
▁জুমার	-10.9416
▁মর্যাদায়	-10.9416
▁ফিফা	-10.9416
▁চাইছেন	-10.9419
▁মনোযোগ	-10.9421
▁এটিকে	-10.9424
▁শিবিরে	-10.943
▁আনুষ্ঠানিকতা	-10.943
▁ধারনা	-10.943
▁গৌরব	-10.943
▁এনিয়ে	-10.9433
▁কমলগঞ্জ	-10.9433
ঘর	-10.9435
▁স্মারকলিপি	-10.9438
▁অস্তিত্ব	-10.9441
▁মামুনু	-10.9441
এল	-10.9441
▁শাক	-10.9442
▁প্রবাহ	-10.9448
▁রবীন্দ্র	-10.945
▁পেনাল্টি	-10.9453
▁ইউপির	-10.9458
▁গেইল	-10.9459
▁সেমিনারে	-10.9459
▁চায়ের	-10.9463
▁লিংক	-10.9464
▁ইউনিভার্সিটির	-10.9465
▁সেবন	-10.9468
▁গর্ভবতী	-10.9471
▁দৃষ্টান্তমূলক	-10.9472
▁নবীন	-10.9473
বিসিবি	-10.9477
▁হত্যায়	-10.9478
▁লিঙ্গ	-10.9481
▁খানম	-10.9486
▁অনন্ত	-10.9489
▁ঠাণ্ডা	-10.9495
▁উদ্বিগ্ন	-10.9496
▁নিয়ন্ত্রিত	-10.9501
▁রাব্বি	-10.9502
▁মিনারে	-10.9514
▁করোনাকালে	-10.9518
▁উচিৎ	-10.9519
▁বাংলাদেশিদের	-10.9519
▁হয়ত	-10.952
▁খবরটি	-10.9521
▁সরেজমিনে	-10.9536
▁প্রান্ত	-10.9536
▁প্রজেক্ট	-10.9537
▁কমবে	-10.954
ব্যাপী	-10.954
▁স্থিতিশীল	-10.9542
▁প্রেমিকা	-10.9543
▁লাঠি	-10.9546
▁মায়া	-10.9546
▁গুগলের	-10.9547
▁বস্ত্র	-10.955
▁থ্রি	-10.9552
কুল	-10.9552
▁এখানেই	-10.9553
▁কোনোভাবেই	-10.9553
▁দীর্ঘদিনের	-10.9556
َ	-10.9557
▁নৌকায়	-10.956
▁ছেলেদের	-10.9562
▁হাজারো	-10.9566
▁লভ্যাংশ	-10.9566
▁ফারজানা	-10.9566
▁কোয়ারেন্টিনে	-10.9568
▁উৎসাহিত	-10.9569
▁মনিটরিং	-10.957
▁বিনিয়োগকারীদের	-10.957
▁অস্ত্রসহ	-10.9572
▁রোনালদোর	-10.9572
॥	-10.9573
বেসরকারি	-10.9573
▁শিক্ষককে	-10.9575
▁দুস্থ	-10.9575
▁উড়ে	-10.9576
র্	-10.9577
▁পুলিশিং	-10.9578
▁ডায়েরি	-10.958
▁কুয়াশা	-10.9584
▁পাপন	-10.9588
সম্পাদক	-10.9591
▁আমিরাতে	-10.9592
▁অগ্নিকাণ্ডে	-10.9593
▁যুগ্ন	-10.9594
▁টোয়েন্টিফোর	-10.9595
▁দেশগুলো	-10.9596
▁সমন্বয়ক	-10.9596
▁জিতেছেন	-10.9599
▁পলক	-10.9602
▁বিতরণের	-10.9603
▁প্রণোদনা	-10.9603
▁শোয়েব	-10.961
▁সেনারা	-10.961
▁অ্যাকাউন্টে	-10.9613
·	-10.9614
▁লিপ্ত	-10.9614
▁যাঁরা	-10.9617
▁চমকে	-10.9621
▁আনন্দে	-10.9622
▁নিখোঁজের	-10.9627
▁নগরীতে	-10.9628
▁অবগত	-10.9629
▁খেলবেন	-10.9635
▁ফেইসবুক	-10.9638
▁আর্জেন্টাইন	-10.9638
▁কিবরিয়া	-10.9638
▁সুনামগঞ্জে	-10.9639
▁তোলপাড়	-10.964
▁নির্মাণে	-10.964
▁ট্রেনটি	-10.9642
গার	-10.9643
তিন	-10.9645
▁ইতালিতে	-10.9646
▁মহামারীর	-10.9648
▁দুইজনকে	-10.9653
▁কাছেই	-10.9657
িকা	-10.9657
▁ওয়াল	-10.9657
▁প্যাকেট	-10.9659
▁ভিকটিম	-10.9659
▁এমএ	-10.9661
▁প্রজন্ম	-10.9661
▁জাফরুল্লাহ	-10.9663
▁ভাঙ্গা	-10.9663
লু	-10.9666
▁পাড়	-10.9669
Live	-10.9669
▁ইলেকট্রনিক	-10.9671
▁ফাঁদে	-10.9672
হি	-10.9672
▁অবকাঠামো	-10.9674
▁ধরিয়ে	-10.9675
▁মৃধা	-10.9676
▁বাগানে	-10.9677
▁৬টায়	-10.968
▁ব্যবহারকারীরা	-10.968
▁সালাহ	-10.9682
▁পিচ	-10.9685
▁সমাজসেবা	-10.9686
জুডিশিয়াল	-10.9686
▁কণ্ঠস্বর	-10.9687
▁সংস্কারের	-10.9688
▁বাসিন্দাদের	-10.9693
▁বাগেরহাটে	-10.9693
অপরাহ্ণ	-10.9693
▁মিনার	-10.9694
▁ব্লাড	-10.9694
en	-10.97
▁জর্জ	-10.97
▁৬টার	-10.97
▁যোগে	-10.9701
▁টুকরো	-10.9708
▁ছুড়ে	-10.9709
▁পার্থক্য	-10.971
পাড়ায়	-10.9711
▁পারমাণবিক	-10.9712
▁বেড়া	-10.9718
▁Sangbad	-10.9718
▁নিলাম	-10.9723
▁মুক্তিযোদ্ধাদের	-10.9725
▁৭৯	-10.9725
▁জিও	-10.9725
▁পোর্ট	-10.9727
▁২০০০	-10.9729
▁Post	-10.9732
▁স্থাপিত	-10.9735
▁বিল্লাল	-10.9735
▁বাই	-10.9741
টোয়েন্টিতে	-10.9743
▁ইউটিউবে	-10.9743
▁জনি	-10.9746
▁অসম্ভব	-10.9749
▁জিরো	-10.9753
▁পাকিস্তানকে	-10.9755
▁বজ্রপাতে	-10.9756
▁সম্মতি	-10.9756
▁দিবেন	-10.9756
▁ভাসমান	-10.9759
▁ইবনে	-10.9762
▁মোহন	-10.9763
বর	-10.9764
▁ছয়জন	-10.9767
▁চেয়ার	-10.9768
▁আড্ডা	-10.977
▁হ্যাঁ	-10.9773
▁নারায়ণগঞ্জে	-10.9774
▁৯৬	-10.9779
▁কাঠ	-10.9779
▁মামা	-10.9781
▁চলাচলে	-10.9782
▁তপন	-10.9784
▁১৩টি	-10.9785
▁দাঁড়ালো	-10.9785
▁জহুরুল	-10.9785
▁উপপরিদর্শক	-10.9788
▁মধ্যরাত	-10.9789
▁নড়াইলে	-10.9791
▁ভরা	-10.9791
▁শীল	-10.9794
▁বিস্তৃত	-10.9795
▁চালককে	-10.9799
▁শোভন	-10.9803
▁দাখিলের	-10.9804
▁ফারিয়া	-10.9804
বঙ্গবন্ধু	-10.9807
▁কামনায়	-10.9807
▁জাবেদ	-10.9808
▁রহস্যজনক	-10.9808
পেশার	-10.9808
▁পুঁজিবাজার	-10.9809
▁ছাদে	-10.9815
[	-10.9817
▁আত্মসাত	-10.9817
▁বাঘা	-10.9818
▁সংস্থাটির	-10.9821
▁জনসন	-10.9822
▁মিয়াকে	-10.9831
▁নজির	-10.9832
▁প্লাবিত	-10.9832
▁আকন্দ	-10.9832
▁দায়িত্বশীল	-10.9836
bdnews	-10.9842
▁নিরসনে	-10.9842
▁সাংবাদিকের	-10.9847
▁স্বাস্থ্যের	-10.9848
▁মারপিট	-10.985
▁কুড়িগ্রামের	-10.985
▁কুয়াকাটা	-10.9853
▁প্রণয়ন	-10.9854
▁সুব্রত	-10.9857
▁ড্রাইভার	-10.9858
▁সুরক্ষিত	-10.9858
▁দায়িত্বরত	-10.986
▁আনন্দিত	-10.9866
▁Paper	-10.9869
▁সময়সীমা	-10.987
▁মিম	-10.9871
▁পাল্টে	-10.9871
▁আফজাল	-10.9872
▁সাত্তার	-10.9878
▁মালিকের	-10.9879
বীর	-10.989
▁জুম	-10.989
▁একাই	-10.9891
িয়ান	-10.9895
▁কাশি	-10.9897
▁ঢল	-10.9897
▁সনাতন	-10.9901
▁নাথ	-10.9903
▁সুনির্দিষ্ট	-10.9906
▁মাইক্রোসফট	-10.9907
▁গাইবান্ধার	-10.9908
▁দৌলতপুর	-10.9911
▁মাদ্রাসায়	-10.9911
▁ফাইজার	-10.9912
▁সেন্ট	-10.9913
▁No	-10.9926
জয়	-10.9926
▁প্রাদুর্ভাব	-10.9931
▁খাদ্যসামগ্রী	-10.9931
িয়ার	-10.9936
▁মুখ্যমন্ত্রীর	-10.9939
▁ভার	-10.9942
▁লক্ষ্মীপুরে	-10.9942
পক্ষের	-10.9949
▁ব্লকের	-10.9953
▁স্পেন	-10.9954
▁হাতি	-10.9954
▁ম্যানেজিং	-10.9955
▁অয়েল	-10.9956
▁বখাটে	-10.9957
▁দুবাইয়ে	-10.9959
▁পিএসজি	-10.996
সদর	-10.9961
▁জীবনযাপন	-10.9961
▁ডেটা	-10.9965
▁চিত্রনাট্য	-10.9966
▁ঝুঁকিতে	-10.9967
▁ফিলিস্তিনের	-10.9971
▁জলের	-10.9971
▁চ্যাম্পিয়নস	-10.9972
▁নাক	-10.9976
▁ট্রাইব্যুনাল	-10.9979
▁ব্যায়াম	-10.998
▁উৎপাদিত	-10.9981
▁অপারেটিং	-10.9981
▁সজল	-10.9981
▁একইভাবে	-10.9981
তুল	-10.9982
▁মুঠোফোনে	-10.9985
▁মুন্না	-10.999
পুরে	-10.9992
▁লুৎফর	-10.9992
▁পার্কে	-10.9995
▁প্রকৃতির	-10.9996
▁অভিনেতার	-10.9997
▁প্রতিমা	-10.9998
নু	-10.9999
▁প্রচারে	-11
▁ভাত	-11.0004
▁কমান্ড	-11.0005
▁অত্যাধুনিক	-11.0005
▁হুসেইন	-11.0005
▁দর্শকের	-11.0009
▁বসেই	-11.0015
▁সাদ	-11.0016
াস	-11.0019
▁মার্কেটে	-11.002
▁চন্দন	-11.0026
▁রাজনীতিবিদ	-11.0027
▁জলে	-11.0028
▁পরিস্কার	-11.003
▁জোরপূর্বক	-11.003
লের	-11.0033
▁আতঙ্কিত	-11.0034
▁নগরী	-11.0034
▁হারাতে	-11.0036
▁রোবট	-11.0038
▁বরাবরই	-11.0039
▁বোলারদের	-11.0042
▁একদিনের	-11.0042
▁মোটরসাইকেলে	-11.0044
থেকে	-11.0045
▁ক্যাসিনো	-11.0046
▁মারধরের	-11.0048
▁প্রক্রিয়ায়	-11.005
▁লেখার	-11.0052
or	-11.0053
▁পদোন্নতি	-11.0054
▁তারকাদের	-11.0054
▁আষাঢ়	-11.0055
▁মার্কেটের	-11.0055
▁বউ	-11.0055
▁রাজিব	-11.0056
▁তারাও	-11.0064
▁আতিকুল	-11.0066
▁অভিভাবকদের	-11.0067
টেক	-11.007
▁আইনজীবীরা	-11.007
▁স্কোয়াড	-11.0072
▁খাওয়ানো	-11.0074
▁সংবাদপত্র	-11.0078
G	-11.0081
▁গোপাল	-11.0081
▁নগ্ন	-11.0087
▁নভেম্বরে	-11.0087
▁বিয়েতে	-11.0091
▁ফ্ল্যাট	-11.0094
▁দেয়াল	-11.0097
о	-11.0105
▁কোতোয়ালি	-11.0105
▁বরগুনার	-11.0105
ঙ্গ	-11.0106
▁সংশোধনী	-11.0107
▁প্রশান্ত	-11.0111
পশ্চিম	-11.0112
ঙ্গা	-11.0112
▁বাদি	-11.0114
▁গণভবন	-11.0114
সংক্রান্ত	-11.0115
ঠা	-11.0119
▁উপকার	-11.012
▁তারকার	-11.0123
▁ঝড়ের	-11.0124
বিডি	-11.0124
▁মোটরসাইকেলের	-11.0127
▁মুহূর্ত	-11.0127
▁ট্রেড	-11.0127
▁ব্যাচের	-11.0129
▁সুবাদে	-11.0131
▁শিল্পের	-11.0134
▁ডেলিভারি	-11.0138
▁আলীকে	-11.0139
য়ান	-11.0142
▁তারপরে	-11.0143
▁অংশের	-11.0144
▁অ্যাম্বুলেন্স	-11.0146
▁আজিম	-11.0147
গান	-11.0148
▁বিতর্কের	-11.0148
▁ফ্রান্সে	-11.0153
▁সংগীতশিল্পী	-11.0156
▁পর্যায়	-11.0158
+	-11.0162
▁পোশাকে	-11.0163
▁কাণ্ড	-11.0167
▁প্রচারিত	-11.0168
▁ধাপের	-11.0169
▁তিনদিন	-11.0172
▁শক্তির	-11.0172
▁রহমত	-11.0174
▁বর্ধমান	-11.0178
ডে	-11.0179
▁জানুয়ারিতে	-11.0182
▁ভার্সন	-11.0182
▁মজিবুর	-11.0183
▁এলেন	-11.0184
▁মেরামত	-11.0186
▁ইসরাইল	-11.0191
বিএনপি	-11.0193
▁অনেকদিন	-11.0194
▁গুলশানে	-11.0194
্ট	-11.0195
▁কিশোরগঞ্জের	-11.0196
▁দ্বন্দ্ব	-11.0199
▁মাইক্রো	-11.0203
▁জাকারিয়া	-11.0208
▁ভারি	-11.0208
▁মোসাদ্দেক	-11.0209
▁বিপিএলের	-11.0211
▁পল	-11.0211
▁বৃদ্ধা	-11.0212
▁শ্রেণী	-11.0213
▁মেসেজ	-11.0217
েল	-11.0221
▁ক্লিনিক	-11.0223
▁রাবি	-11.0228
▁কমানো	-11.0228
▁উপন্যাস	-11.0231
লিয়া	-11.0235
▁কমল	-11.0235
▁দিগন্ত	-11.0236
▁বাঁশ	-11.0236
▁পিএসসি	-11.0239
▁রড	-11.0239
▁আশিক	-11.0244
▁পাহাড়ের	-11.0244
ri	-11.0245
▁বিসিসিআই	-11.0251
▁পেয়েছিল	-11.0253
▁নামাজে	-11.0255
▁গাড়ী	-11.0256
▁রক্তচাপ	-11.0257
▁নর্থ	-11.0258
পর	-11.026
▁মাঝ	-11.0262
ঘটনায়	-11.0264
▁আস্তে	-11.0266
▁হেফাজতের	-11.0266
▁কর্মসূচীর	-11.0273
▁৫টায়	-11.0273
▁কিট	-11.0275
▁স্কয়ার	-11.0275
▁বিক্ষোভে	-11.028
▁লাভের	-11.0283
▁প্রবাহিত	-11.0284
▁অজয়	-11.0286
গু	-11.0286
▁প্রসঙ্গ	-11.0288
▁পিছু	-11.0289
▁সাধন	-11.0295
▁গুরু	-11.0296
▁হিসেবেই	-11.0298
ড়ে	-11.0302
▁আক্তারের	-11.0306
▁ইসলামপুর	-11.0307
▁আহম্মদ	-11.0308
▁স্পেনের	-11.0308
▁জানাচ্ছে	-11.0309
▁সংঘ	-11.0309
▁পাশেই	-11.031
পার	-11.0311
▁মাইকেল	-11.0312
▁চেয়েছে	-11.0312
▁লাইফস্টাইল	-11.0314
▁মাইল	-11.0317
কর্মচারী	-11.0318
▁ইনস্টিটিউটের	-11.0322
টো	-11.0323
▁গল্পের	-11.0323
মত	-11.0328
▁পশ্চিমবঙ্গে	-11.0329
▁উন্নীত	-11.0329
▁ব্যাটালিয়নের	-11.0333
▁ফয়েজ	-11.0333
▁ডাটা	-11.0334
▁শত্রু	-11.0334
▁কাউন্টার	-11.0335
▁সমর্থনে	-11.0335
am	-11.0336
▁শীর্ষস্থানীয়	-11.0337
▁অজ্ঞাতনামা	-11.0339
▁যুবদল	-11.034
▁সাক্ষাৎকার	-11.0341
▁মুজিববর্ষ	-11.0345
▁গু	-11.0346
▁১টা	-11.0347
▁সূচকের	-11.0351
▁শ্রাবণ	-11.0352
▁জামিনে	-11.0353
▁পাসের	-11.0358
▁পানীয়	-11.0359
▁সারোয়ার	-11.036
▁দেবনাথ	-11.036
▁সেলিনা	-11.036
▁বসত	-11.0361
▁তত্ত্বাবধায়ক	-11.0362
▁স্যানিটাইজার	-11.0363
▁শাসক	-11.0364
▁শত্রুতা	-11.0367
▁সমাধানের	-11.0367
বাদী	-11.0368
▁মৃ	-11.0373
বাবা	-11.0379
▁সাদিক	-11.0381
▁মাশরাফির	-11.0381
▁ব্যতিক্রম	-11.0383
▁সাইদুর	-11.0388
▁পেছন	-11.0388
▁নবীগঞ্জ	-11.0391
দলীয়	-11.0394
▁ভাবেই	-11.0395
▁সংগঠনটি	-11.0395
▁খায়ের	-11.0396
▁কৃষিবিদ	-11.0397
▁দক্ষিন	-11.0397
▁সততা	-11.0398
▁ইন্ডিয়ার	-11.04
▁কমছে	-11.04
▁মারিয়া	-11.0402
▁উঠেছিল	-11.0403
▁নবাগত	-11.0405
▁চাকা	-11.0406
▁যেটি	-11.0407
▁রূপগঞ্জ	-11.0408
▁ইতি	-11.041
▁মুস্তফা	-11.0412
▁জ্যৈষ্ঠ	-11.0412
▁পুতিন	-11.0413
▁O	-11.0418
▁নামা	-11.0425
ল্লা	-11.0426
▁মাঝি	-11.0428
▁পালনে	-11.0428
▁বিপদে	-11.0429
▁বিষয়ের	-11.0435
▁প্রখ্যাত	-11.0438
▁ইরাকের	-11.0439
▁পহেলা	-11.044
▁আজিজুর	-11.044
▁শুরুটা	-11.0441
▁কমেন্ট	-11.0444
▁মেদিনীপুর	-11.0445
▁মাধ্যমেই	-11.0449
▁একাত্তর	-11.0451
▁ধোনির	-11.0452
▁সাহসী	-11.0452
▁রূপে	-11.0458
▁পৌছে	-11.0473
▁আমিরুল	-11.0474
▁২০০১	-11.0477
M	-11.0477
▁মুন্সিগঞ্জের	-11.048
▁নেইমারের	-11.0484
▁মহেশখালী	-11.0484
▁বেল	-11.0484
▁পাটোয়ারী	-11.0485
▁২টা	-11.0487
▁ফলাফলে	-11.0487
▁বৃক্ষ	-11.0489
▁ম্যাক	-11.0493
▁যুগের	-11.0494
▁চারজনকে	-11.0496
▁পৌঁছাতে	-11.0501
▁এজাহার	-11.0501
▁আটককৃতরা	-11.0502
▁সুদ	-11.0504
▁ব্র্যাক	-11.0513
ঘ	-11.0513
▁এবিএম	-11.0514
▁টেনিস	-11.0514
▁খোঁজে	-11.0518
▁আদা	-11.052
▁গন্ধ	-11.052
▁ফলের	-11.0521
▁মাইলফলক	-11.0524
ন্ড	-11.0527
▁উপকূল	-11.0527
▁তীর	-11.0529
▁খসড়া	-11.0529
▁চাইলেন	-11.0533
রাত	-11.0535
▁ঈদগাহ	-11.0535
▁তরুণদের	-11.0537
▁ভোলায়	-11.0542
▁ব্রিগেডিয়ার	-11.0542
▁বনাম	-11.0543
▁ব্যাটে	-11.0544
▁আপত্তিকর	-11.0545
▁ক্রমশ	-11.0548
▁বসেন	-11.0549
▁দুর্ভোগ	-11.055
▁গোপালগঞ্জের	-11.055
▁ইসরাইলি	-11.0553
▁অসুস্থতার	-11.0555
▁ইন্টার	-11.0558
▁রাঙ্গামাটি	-11.0559
▁দুর্গাপুর	-11.0559
▁আশাবাদ	-11.0561
▁বৈষম্য	-11.0563
▁হারানোর	-11.0564
▁সোনারগাঁও	-11.0565
▁মেতে	-11.0566
▁আড়ালে	-11.0571
▁ইরানি	-11.0571
▁বাঁশখালী	-11.0572
▁জ্ঞাপন	-11.0574
▁হাজিরা	-11.0581
▁বক্তৃতায়	-11.0582
▁করিনি	-11.0586
▁পিঠা	-11.0586
দিনের	-11.0587
▁প্রেসক্লাবে	-11.0588
▁উত্তরবঙ্গ	-11.0588
▁হতদরিদ্র	-11.0588
যোগে	-11.0589
▁মোংলা	-11.0592
▁কাজেই	-11.0593
▁সঙ্গেও	-11.0594
▁গণ্যমান্য	-11.0595
▁be	-11.0596
▁Protidin	-11.0597
▁প্রেক্ষাপটে	-11.0598
নেট	-11.06
মিন	-11.0604
▁বিশেষভাবে	-11.0605
▁উৎপাদনের	-11.0611
▁গ্রেফতারি	-11.0611
▁লোকমান	-11.0614
▁শেরেবাংলা	-11.0616
▁সংখ্যালঘু	-11.0616
▁পীর	-11.0618
▁কলারোয়া	-11.062
▁দর্শন	-11.062
▁সর্বাত্মক	-11.0625
ঙ	-11.0629
▁শিক্ষিত	-11.0629
▁আমীন	-11.0629
▁এখান	-11.063
▁পাত্র	-11.063
▁অনু	-11.063
▁দায়িত্বপ্রাপ্ত	-11.0633
▁ভোগান্তি	-11.0638
▁৩টা	-11.0639
▁অভিযোগপত্র	-11.0643
▁প্রলোভন	-11.0643
▁মির্জাপুর	-11.0645
▁কাঠামো	-11.0648
▁অগ্রহায়ণ	-11.0648
▁ইলাইহি	-11.0649
▁Page	-11.0652
▁কার্য	-11.0655
▁লাগাতে	-11.0658
▁মিনি	-11.066
▁অসুবিধা	-11.067
▁ব্রিজের	-11.0671
▁চুক্তিবদ্ধ	-11.0675
▁এক্সিকিউটিভ	-11.0675
▁রুখতে	-11.0676
▁বাজেটের	-11.0676
▁শাহেদ	-11.0679
ফুল	-11.0684
▁নোমান	-11.0691
▁প্রাইম	-11.0692
▁সমীক্ষা	-11.0692
▁দখলের	-11.0695
▁ফাঁসি	-11.0696
বান্ধব	-11.0696
▁আসি	-11.0697
▁বলব	-11.0701
▁মাহফুজুর	-11.0702
▁বিশ্বসেরা	-11.0703
▁স্বেচ্ছায়	-11.0703
▁লাস্টনিউজবিডি	-11.0704
▁তরিকুল	-11.0706
▁লিভারপুল	-11.0706
ক্স	-11.0706
▁আজীবন	-11.0707
▁টুডে	-11.0708
▁কাসেম	-11.0709
▁ময়নাতদন্ত	-11.0711
▁সিবিআই	-11.0717
▁আবেগ	-11.0723
▁লক	-11.0725
▁১৪৪	-11.0727
▁অপূর্ব	-11.0728
▁গর্বিত	-11.073
▁তিতাস	-11.0737
▁আড়াইটা	-11.0738
▁সুরে	-11.0738
▁বাহার	-11.074
▁মুহূর্তের	-11.074
▁সমৃদ্ধি	-11.0745
▁নাসরিন	-11.0749
▁বেন	-11.075
▁শেরপুরে	-11.0753
▁পুষ্পস্তবক	-11.0755
▁পত্রিকায়	-11.0756
প্রধান	-11.0757
▁গণহত্যা	-11.0759
▁newspaper	-11.0762
▁মেডিকেলে	-11.0765
▁বাস্তবে	-11.0768
তু	-11.077
▁সরবরাহকারী	-11.0772
▁ক্ষেত্রেও	-11.0774
▁সেলাই	-11.0775
▁বড়লেখা	-11.078
▁চলন্ত	-11.0782
▁সংঘের	-11.0782
দে	-11.0782
▁মূল্যবান	-11.0783
▁শিবিরের	-11.0783
▁বিশ্রাম	-11.0785
▁ডাকে	-11.0797
▁মানবতার	-11.0804
▁রিয়া	-11.0807
▁কণ্ঠশিল্পী	-11.0809
▁সাহেদ	-11.0817
▁সিঙ্গাপুরে	-11.0817
▁সাইটে	-11.0818
▁জন্মের	-11.0818
▁বন্ধুত্ব	-11.082
▁গঠনে	-11.0825
নিরীক্ষা	-11.0827
▁গ্লাস	-11.0832
▁সাজঘরে	-11.0836
▁হিট	-11.0836
▁বসবাসরত	-11.0836
▁পাওনা	-11.0838
▁গল্পে	-11.0841
▁ঃ	-11.0844
▁সিগারেট	-11.0846
▁একদম	-11.0847
▁মাঝামাঝি	-11.0849
প্রধানমন্ত্রী	-11.085
▁ব্যানার	-11.0854
▁সজিব	-11.0854
ir	-11.0856
ইল	-11.0857
▁লাইনের	-11.0861
▁গম	-11.0863
▁প্রাঙ্গনে	-11.0866
▁শিরীন	-11.0867
▁কবলিত	-11.0867
▁COVID	-11.0867
▁ছাপ	-11.0869
▁ক্যাটাগরিতে	-11.0872
▁শিল্পীদের	-11.0878
▁স্পেস	-11.0878
▁ডাক্তারের	-11.0886
▁সিল	-11.0888
¤	-11.089
▁ইউনুস	-11.089
▁রাখছেন	-11.089
▁মেহেদি	-11.0891
▁পারলেও	-11.0893
▁প্রাইভেটকার	-11.0894
▁ফার্স্ট	-11.0895
▁রবিন	-11.0895
ডাঙ্গা	-11.0896
▁টিটু	-11.0896
▁ছিনতাইকারী	-11.0898
▁প্রশাসনকে	-11.0905
▁পাঞ্জাব	-11.0908
▁গাজা	-11.0912
সচিব	-11.0913
▁নিষ্পত্তি	-11.0916
▁বুলেট	-11.0917
▁দ্বি	-11.0918
▁গার্মেন্টস	-11.0918
▁খলিল	-11.0919
▁ছড়িয়েছে	-11.092
▁সংঘট	-11.0921
▁পেলো	-11.0924
▁১৬টি	-11.0935
▁সেলিমের	-11.0937
▁অনুশীলনে	-11.0937
▁বৃদ্ধের	-11.0937
▁বিনিয়োগের	-11.0938
▁পরিকল্পনার	-11.0939
▁ফাহাদ	-11.0943
▁খসরু	-11.0944
E	-11.0946
▁প্রবাস	-11.0947
▁নিয়েছিল	-11.0948
▁তালেবানের	-11.0951
▁`	-11.0951
▁ওরা	-11.0952
▁ময়মনসিংহে	-11.0953
▁কৃতি	-11.0958
▁তোমাদের	-11.0961
▁আহাদ	-11.0961
▁আনন্দবাজার	-11.0961
হে	-11.0962
▁প্রা	-11.0966
▁পরিবেশের	-11.097
▁প্রস্তাবে	-11.097
▁নিবিড়	-11.0972
▁সোবহান	-11.0972
▁বসেছে	-11.0972
▁ধূমপান	-11.0973
▁দেখছি	-11.0978
▁ধৃত	-11.0981
▁অক্টোবরে	-11.0988
▁তৎপর	-11.0991
▁নীলফামারীর	-11.0991
জুন	-11.0992
ইয়া	-11.0993
▁মোর্শেদ	-11.0995
▁হয়েই	-11.0996
▁প্রত্যেককে	-11.0998
▁ছুরিকাঘাত	-11.0998
▁হুইপ	-11.0999
▁শেখের	-11.1001
▁হিউম্যান	-11.1004
▁জানিয়েছিল	-11.1004
▁বিজয়ীদের	-11.1005
▁সোসাইটির	-11.1006
▁বীমা	-11.1007
▁বালি	-11.1011
▁ম্যাগাজিন	-11.1011
▁প্রশিক্ষণের	-11.1014
▁ডাবল	-11.102
▁ঘটিয়ে	-11.102
▁সাতজন	-11.102
▁ভাট	-11.1022
▁পরিচয়ে	-11.1022
▁পেরেছে	-11.1024
▁রানার	-11.1024
▁আলামত	-11.1027
▁অপহৃত	-11.1027
▁উপকারিতা	-11.1029
▁হামলাকারী	-11.103
▁নিউজকে	-11.1031
▁কসবা	-11.1032
▁নদ	-11.1035
▁দুনিয়ায়	-11.1037
▁পরিচালকের	-11.1046
▁পিসিআর	-11.1047
▁নাটোরে	-11.1048
▁ডাউন	-11.1052
▁বাহাদুর	-11.1053
▁মিশ্র	-11.1055
▁আর্মি	-11.1061
▁জিল্লুর	-11.1062
F	-11.1063
▁জঙ্গিদের	-11.1064
বার্ষিক	-11.1066
▁রামু	-11.1066
পু	-11.1069
▁প্রসাদ	-11.1072
▁প্রার্থীকে	-11.1072
াম	-11.1073
▁প্রচারের	-11.1075
▁সেপ্টেম্বরে	-11.1077
▁সমমানের	-11.1077
▁রেফারি	-11.1077
▁চারজনের	-11.1081
▁উত্তপ্ত	-11.1082
▁সকালের	-11.1084
▁আভাস	-11.1084
▁প্রসব	-11.1085
▁বিল্লাহ	-11.1086
▁বাবদ	-11.1086
▁সংসারে	-11.1089
▁জেএমবি	-11.1089
রযাব	-11.1091
▁মুসা	-11.1091
▁নেয়নি	-11.1093
▁জামালপুরের	-11.1095
▁এসএমএস	-11.1097
আন্তর্জাতিক	-11.11
▁জন্মবার্ষিকী	-11.1101
▁পূজার	-11.1107
▁সৈনিক	-11.1109
▁ঘটেনি	-11.1109
▁প্রত্যেকটি	-11.1109
▁মহলে	-11.111
▁Print	-11.111
▁ব্যাহত	-11.111
▁ওবামা	-11.1111
▁আলাপকালে	-11.1111
▁অত্যাচার	-11.1112
▁মালিকানাধীন	-11.1112
▁সংস্পর্শে	-11.1116
▁ভেজাল	-11.1116
▁কোম্পানীগঞ্জ	-11.1116
▁আমাদেরকে	-11.1116
▁স্টাইল	-11.1119
▁হবিগঞ্জে	-11.112
▁চেকপোস্ট	-11.1122
▁চায়না	-11.1123
▁আদেশের	-11.1123
▁রাসেলের	-11.1124
=	-11.1125
▁খাতা	-11.1126
▁কনফারেন্স	-11.1127
বাস	-11.1132
▁অভিহিত	-11.1138
▁লেফটেন্যান্ট	-11.1138
▁জিজ্ঞাসা	-11.1139
▁বৃহৎ	-11.114
▁মুখোপাধ্যায়	-11.1144
▁এখানকার	-11.1145
শত	-11.115
▁বঙ্গোপসাগর	-11.1153
▁শিমুলিয়া	-11.1153
ভার	-11.1155
▁ঠিকই	-11.1159
একটি	-11.116
▁উচ্চতা	-11.1163
▁মিলল	-11.1164
▁দর্শকরা	-11.1165
▁ভাঙার	-11.1166
▁ছাতক	-11.1167
▁Coxsbazar	-11.1167
▁ওমরাহ	-11.1168
▁জুলাইয়ে	-11.1169
▁তালাক	-11.117
▁দাম্পত্য	-11.1172
▁সিয়াম	-11.1176
▁রাউন্ডে	-11.1177
▁প্রকাশে	-11.1179
▁কৃষিমন্ত্রী	-11.1184
▁আশার	-11.1186
▁গোলাগুলি	-11.1188
▁বন্ধন	-11.1191
▁ত্রিদেশীয়	-11.1194
▁মধ্যদিয়ে	-11.1194
▁টেকনিক্যাল	-11.1196
▁ভুগছেন	-11.1196
▁Hour	-11.1197
▁চাঁদপুরে	-11.1198
▁দেখানোর	-11.1201
▁করানোর	-11.1202
▁বিহার	-11.1204
▁সাভারের	-11.1205
▁করান	-11.1207
ার্স	-11.1207
▁H	-11.1209
কন্ঠ	-11.1216
▁ইভেন্ট	-11.1218
▁৭টা	-11.122
▁মাইক	-11.1221
▁যন্ত্রপাতি	-11.1222
▁ইমতিয়াজ	-11.1223
▁কিশোরের	-11.1224
▁শর্ট	-11.1224
▁পর্ষদ	-11.1229
▁পার্থ	-11.1233
▁মুক্তিযুদ্ধে	-11.1234
আমিন	-11.1235
▁লাইক	-11.1235
▁১৪টি	-11.1236
▁লড়াইয়ের	-11.1239
▁সাভারে	-11.1239
▁জেগে	-11.1239
▁মাধবপুর	-11.1239
▁পাঠদান	-11.1241
▁পেপার	-11.1243
▁>>	-11.1246
▁লেগ	-11.1246
▁পপি	-11.1249
▁নাগরিকের	-11.125
▁সন্তোষ	-11.125
▁মিডফিল্ডার	-11.125
ডিসি	-11.1251
চে	-11.1252
▁কাতারে	-11.1252
▁ফেটে	-11.1253
ুল্লাহ	-11.1255
কলেজ	-11.1256
▁বার্সার	-11.1257
▁সর্দি	-11.1257
▁প্রত্যয়	-11.1265
▁আমিও	-11.1268
at	-11.127
▁নিক	-11.127
▁দমকল	-11.1271
▁আমন	-11.1271
▁পুনর্বাসন	-11.1271
▁৩য়	-11.1275
বাড়িয়া	-11.1276
▁ইদ্রিস	-11.1278
▁→	-11.128
▁Jul	-11.1281
▁পটুয়াখালীর	-11.1287
▁Voice	-11.1287
▁ট্রাইব্যুনালের	-11.1288
▁তাইজুল	-11.1288
▁মূলক	-11.129
▁বেগে	-11.1291
েবল	-11.1292
▁ব্যাপকভাবে	-11.1296
▁লামা	-11.1298
▁লোকজনকে	-11.1298
▁ভিশন	-11.13
অর	-11.13
▁প্রজ্ঞাপনে	-11.1303
▁টেলিভিশনে	-11.1306
а	-11.1306
▁কোস্টগার্ড	-11.1308
আদালত	-11.1309
▁স্প্রে	-11.131
▁মোল্যা	-11.131
▁চান্দিনা	-11.131
▁অন্যরকম	-11.131
▁বিতরণী	-11.131
▁আগমন	-11.1311
▁ফারহানা	-11.1313
▁নেব	-11.1316
v	-11.1318
▁দলিল	-11.1324
োর	-11.1325
▁দেহের	-11.1329
▁হাতির	-11.1331
▁দ্বিতীয়ার্ধে	-11.1333
▁রোপন	-11.1335
▁বিবি	-11.1336
▁দালাল	-11.1337
▁অবরুদ্ধ	-11.134
বাসীর	-11.134
▁গুম	-11.134
▁কল্পনা	-11.1341
▁আরমান	-11.1342
▁চাঁদাবাজি	-11.1344
িস	-11.1353
বিশেষ	-11.1353
▁ক্রিকেটারের	-11.1354
▁কোম্পানিগুলো	-11.1357
▁দয়া	-11.1357
▁লেবুর	-11.1358
▁সুযোগে	-11.1361
▁আফ্রিদি	-11.1363
▁সমাধি	-11.1363
▁আহতরা	-11.1365
▁ওয়াসিম	-11.1367
▁লাইভে	-11.1368
▁রেলের	-11.1371
▁মোহাম্মাদ	-11.1377
▁নৃত্য	-11.1378
▁ব্যবসায়িক	-11.1381
▁এদেশের	-11.1381
▁মাঝেই	-11.1383
▁বিজেপিতে	-11.1386
গি	-11.1388
▁জেলেদের	-11.1388
▁নে	-11.1389
▁হজরত	-11.1393
▁সিন্ডিকেট	-11.1393
▁মওদুদ	-11.1394
▁সিসিটিভি	-11.1394
▁সংযোজন	-11.1394
▁মাজার	-11.1395
▁ফা	-11.1396
▁বর্ষা	-11.1397
▁বিলের	-11.1399
▁পথচারী	-11.1402
▁প্রতিহত	-11.1408
▁ঘরবাড়ি	-11.1409
▁বাহিনীকে	-11.1411
সংলগ্ন	-11.1411
▁লোকেরা	-11.1412
▁মুহুর্তে	-11.1413
▁ব্ল্যাক	-11.1414
▁সেসময়	-11.1419
▁রোগীকে	-11.1426
▁প্রতিষ্ঠানগুলো	-11.1426
▁বাগ	-11.1427
▁ওয়ার্নার	-11.1433
▁বাংলানিউজকে	-11.1433
▁নির্মল	-11.1436
এটি	-11.1439
▁হৃদরোগ	-11.1441
▁দৌড়	-11.1442
▁শার্শা	-11.1444
w	-11.1445
▁কাদির	-11.1449
এমন	-11.1449
▁লিফলেট	-11.1449
▁এজেন্সি	-11.1453
▁শুনানিতে	-11.1459
▁চালকদের	-11.1461
▁মাস্টার্স	-11.1461
বাণিজ্য	-11.1464
▁গোলটি	-11.1466
▁শাপলা	-11.1469
▁পৌঁছান	-11.1475
▁ন্যূনতম	-11.1478
▁পূর্বকোণ	-11.1478
▁জার্সিতে	-11.1478
▁রাখাইন	-11.1479
▁বাইপাস	-11.148
ন্য	-11.1482
`	-11.1487
▁গ্রামবাসী	-11.1491
▁গৌরীপুর	-11.1492
আপ	-11.1495
▁আজহা	-11.1503
▁মৌখিক	-11.1506
▁চিন্তিত	-11.1507
▁অগ্নিসংযোগ	-11.1509
▁সিরিয়ায়	-11.1515
▁সন্তুষ্ট	-11.1515
▁বিচ্ছেদের	-11.1517
R	-11.152
▁জুনে	-11.152
▁নিখিল	-11.152
▁সাহায্যের	-11.152
▁বছরই	-11.1524
▁প্রতিনিধিরা	-11.1528
▁রমনা	-11.1531
▁অং	-11.1535
▁ইফতেখার	-11.1536
▁Wednesday	-11.1536
▁প্রজনন	-11.1536
▁পুরষ্কার	-11.1536
▁জনগোষ্ঠীর	-11.1536
▁গণস্বাস্থ্য	-11.1536
▁তাজা	-11.1538
▁প্রণব	-11.1539
▁ঝড়ে	-11.1539
ইন্না	-11.1539
il	-11.154
▁রাজপথে	-11.1542
▁নামকরণ	-11.1546
▁সিএনএন	-11.1546
▁ওমিক্রন	-11.1547
▁অন্ধকার	-11.1548
▁সাইদুল	-11.1552
▁চারপাশে	-11.1552
▁সেবক	-11.1553
বার্ষিকী	-11.1554
▁নিয়ন্ত্রন	-11.1557
▁জগতের	-11.1559
▁জোরালো	-11.1561
▁সংবাদমাধ্যমের	-11.1562
▁বাড়ীর	-11.1562
▁রাখছে	-11.1565
▁মাগফেরাত	-11.1565
▁সোহরাব	-11.1565
▁সভানেত্রী	-11.1566
▁বঙ্গমাতা	-11.1569
▁উদ্ধারে	-11.157
▁কফি	-11.1572
▁ফাঁকি	-11.1572
▁মাহফুজ	-11.1573
▁মাদ্রিদের	-11.158
▁গাইবান্ধায়	-11.1587
▁টান	-11.159
▁কলম	-11.1593
▁মুভি	-11.1594
▁ওয়েবডেস্ক	-11.1595
▁Entertainment	-11.1598
▁শেয়ারের	-11.1598
▁ক্লিনিকে	-11.16
▁সেনার	-11.1601
▁অনেকেরই	-11.1602
▁ডিভিশন	-11.1605
▁নেতৃত্বের	-11.1606
▁বকুল	-11.1607
৮০	-11.1607
▁নেতৃবৃন্দের	-11.1607
▁জাসদ	-11.1608
▁ভঙ্গ	-11.1609
▁চিন	-11.1609
▁জামাই	-11.1611
▁অংশগ্রহণকারী	-11.1616
▁বিপিএলে	-11.1617
▁চড়ে	-11.1618
▁ব্রাহ্মণবাড়িয়ায়	-11.1618
▁সাদ্দাম	-11.1623
▁ইবাদত	-11.1624
▁হাতেনাতে	-11.1624
▁তিস্তা	-11.1624
▁এক্সক্লুসিভ	-11.1626
▁ফিরেছে	-11.1628
▁সাইফুর	-11.1628
▁কাঠের	-11.1628
▁বঙ্গ	-11.1629
▁কীর্তি	-11.1629
▁Banglar	-11.1629
▁৫ম	-11.163
▁দফতরে	-11.1631
▁শুয়ে	-11.1631
▁তোমরা	-11.1633
▁মস্কো	-11.1634
▁অস্ট্রেলিয়ায়	-11.1636
▁নাট্য	-11.1636
▁দাবির	-11.1639
▁গেজেট	-11.1641
▁নির্যাতিত	-11.1644
দক্ষিণ	-11.1646
ব্যাপারে	-11.1646
আল	-11.165
▁টোল	-11.1651
▁হতাশা	-11.1652
▁সেদিকে	-11.1652
▁মিলছে	-11.1653
Four	-11.1653
▁অলআউট	-11.1653
▁বাঁহাতি	-11.1653
▁অ্যাপ্লিকেশন	-11.1653
▁ইভিএম	-11.1654
▁ক্ষিপ্ত	-11.1654
▁আনোয়ারা	-11.1656
▁রেখেছিলেন	-11.1659
▁হৃদয়ে	-11.166
গে	-11.166
▁নরসিংদীর	-11.1664
▁বিঘা	-11.1664
▁এরদোগান	-11.1664
▁তেজগাঁও	-11.1668
O	-11.167
▁বাঘ	-11.1671
▁কমার্স	-11.1671
দৈনিক	-11.1676
▁মারে	-11.1677
লিন	-11.168
▁এএসপি	-11.168
▁ক্রমাগত	-11.1682
▁কচুয়া	-11.1684
▁নাইক্ষ্যংছড়ি	-11.1685
▁প্রত্যক্ষ	-11.1687
ারি	-11.1687
বিদেশের	-11.1695
▁২০০৬	-11.1695
▁অক্সফোর্ড	-11.1696
▁বাসস	-11.1696
ওয়ান	-11.1697
▁দুইজনের	-11.1698
▁মুন্সীগঞ্জের	-11.1698
▁পড়লেন	-11.1699
ur	-11.17
▁নামছে	-11.1703
▁আনেন	-11.1704
▁প্রশ্নপত্র	-11.1704
▁গ্রন্থ	-11.1705
▁পারফর্ম	-11.1707
▁লেবু	-11.1708
▁শান্তির	-11.1709
▁কারবারি	-11.1709
▁ওয়াই	-11.171
▁প্রয়োজনীয়তা	-11.1711
▁মুস্তাফিজুর	-11.1712
▁খুচরা	-11.1713
▁জেএসসি	-11.1714
▁এনডিটিভি	-11.1721
▁সর্বদা	-11.1721
▁২০০৪	-11.1724
▁বকর	-11.1726
▁প্রচেষ্টায়	-11.1729
▁সোহান	-11.1729
▁অভ্যন্তরে	-11.173
▁জুয়া	-11.1733
▁ঘাম	-11.1739
▁প্রক্রিয়ার	-11.1739
▁আতিকুর	-11.1742
▁বশির	-11.1743
▁সাংবাদিকতা	-11.1746
▁কাটাকাটি	-11.175
▁টিকটক	-11.1755
ُ	-11.1755
বন	-11.1756
▁এতটাই	-11.1756
▁কাপে	-11.1757
▁সঙ্গীয়	-11.1761
াবাদ	-11.1761
▁রেঞ্জের	-11.1765
▁খামার	-11.1767
▁সর্ববৃহৎ	-11.1771
▁নাকচ	-11.1771
▁শারদীয়	-11.1772
েরা	-11.1774
▁নোয়াখালীতে	-11.1774
▁কর্পোরেট	-11.1776
▁বিপজ্জনক	-11.1776
▁ঠিকাদার	-11.1778
▁পূর্ণিমা	-11.1782
▁ফ্রন্ট	-11.1782
▁বাচ্চাদের	-11.1783
▁মিটিং	-11.1786
▁ধারে	-11.1788
▁প্যারিস	-11.1788
শী	-11.1789
▁অত্র	-11.1794
ডিএমপি	-11.1795
ul	-11.1796
নিক	-11.1796
▁শ্রীনগর	-11.1796
▁বেলায়	-11.1798
▁পুজোর	-11.1802
▁যোগাযোগমাধ্যম	-11.1803
▁কালি	-11.1803
▁খুঁজতে	-11.1804
▁মরিয়া	-11.1806
▁দিনমজুর	-11.1807
▁বেঞ্চে	-11.1809
▁সর্বত্র	-11.181
▁নির্মূল	-11.181
▁সেভাবে	-11.1811
▁দূত	-11.1813
▁একটাই	-11.1813
▁শুষ্ক	-11.1816
▁জাজিরা	-11.1821
▁অনেকগুলো	-11.1821
▁লো	-11.1822
▁মতিঝিল	-11.1822
▁বর্ষণ	-11.1824
▁নওগাঁয়	-11.1825
▁টেবিলে	-11.1827
▁জেতার	-11.1827
▁সিংড়া	-11.183
▁Twenty	-11.1831
▁রেমিট্যান্স	-11.1833
শেখ	-11.1833
▁লিল্লাহি	-11.1834
▁মানি	-11.1834
কর্মচারীদের	-11.1834
▁পাইনি	-11.1835
▁বাদে	-11.1836
▁পূর্বের	-11.1838
▁মোটেও	-11.1844
▁উপনির্বাচনে	-11.1846
▁আগস্টে	-11.1849
▁দেড়টা	-11.1855
▁খালেদার	-11.186
▁মিলিমিটার	-11.1861
▁ঢেকে	-11.1861
▁সোজা	-11.1861
▁একাংশ	-11.1863
▁বেগমকে	-11.1865
▁কাঞ্চন	-11.1867
▁কথাই	-11.1871
হু	-11.1872
বিশ্ব	-11.1872
▁আমের	-11.1874
▁হয়েছেঃ	-11.1877
▁উপার্জন	-11.1878
▁ক্রেতারা	-11.1879
▁মালা	-11.1883
▁সময়টা	-11.1886
▁লেনদেনে	-11.1886
▁স্টল	-11.1888
▁থামিয়ে	-11.1891
▁আশ্বিন	-11.1891
▁দো	-11.1894
▁ফিল্ড	-11.1898
▁যাদব	-11.1899
▁হাওর	-11.1902
▁জায়ান্ট	-11.1903
▁কায়েস	-11.1904
▁খনন	-11.1907
▁রাই	-11.1909
▁তাতেই	-11.1916
▁সংঘাত	-11.1917
▁আর্কাইভ	-11.1918
▁ইউরোপে	-11.1919
▁ঘাঁটি	-11.1919
▁হারান	-11.1919
*	-11.192
▁মকবুল	-11.1921
▁পরিধান	-11.1921
▁আলহাজ	-11.1922
▁ইনকিলাব	-11.1922
▁সামাল	-11.1922
▁খুললেন	-11.1922
▁প্রাতিষ্ঠানিক	-11.1923
▁প্রকাশক	-11.1924
▁সম্মত	-11.1924
▁আগস্টের	-11.1926
▁ফেব্রুয়ারিতে	-11.1928
▁ট্রাকে	-11.1928
▁ক্রমেই	-11.193
৭৫	-11.1931
▁কারাগারের	-11.1932
এক্স	-11.1939
▁মার্কেটিং	-11.1942
▁নির্মান	-11.1943
▁সূর্যের	-11.1945
▁পর্দার	-11.1946
▁সঞ্চয়	-11.1946
▁৭০০	-11.1946
▁গ্র্যান্ড	-11.1947
▁হট	-11.1948
▁যোগদানের	-11.1949
▁রমজানের	-11.1951
▁ককটেল	-11.1952
L	-11.1952
▁Download	-11.1953
▁হাটে	-11.1957
▁বিতর্কে	-11.1963
▁দ্বীপে	-11.1964
▁চেয়ারপার্সন	-11.1964
▁বসন্ত	-11.1968
▁উত্তোলনের	-11.1969
বন্দুকযুদ্ধে	-11.1973
▁বাস্তবতা	-11.1976
▁জামা	-11.1978
▁বিবাহিত	-11.1978
▁Tuesday	-11.1981
▁দুইদিন	-11.1981
মাস	-11.1984
▁সহিংসতার	-11.1985
▁রঙিন	-11.1987
▁আকস্মিক	-11.1987
▁পাহাড়ে	-11.1988
▁জনসাধারণের	-11.1988
▁ফুটবলে	-11.1989
▁দূর্ঘটনায়	-11.1989
▁এমডি	-11.199
▁জানাচ্ছেন	-11.1991
▁ঘেরাও	-11.1991
▁বিএনপিকে	-11.1992
▁সাজ	-11.1995
▁পাচ্ছি	-11.1995
▁পারিশ্রমিক	-11.1995
▁বাড়িতেই	-11.1998
শান	-11.2
▁দেই	-11.2008
▁হেরেছে	-11.2009
▁ঝুলিয়ে	-11.2011
▁প্রচারণায়	-11.2011
▁প্রভৃতি	-11.2012
▁শৈত্যপ্রবাহ	-11.2012
▁সংঘবদ্ধ	-11.2012
▁কারেন্ট	-11.2012
▁ডিফেন্ডার	-11.2014
▁মেডিসিন	-11.2015
▁কাম	-11.2019
▁দ্রুতই	-11.2021
▁পেস	-11.2024
্ব	-11.2025
▁প্রোটিন	-11.2026
▁চিৎকারে	-11.2033
▁খাঁ	-11.2036
▁ঘোড়া	-11.2039
▁অগ্রসর	-11.2042
▁আরেফিন	-11.2042
▁ওড়না	-11.2042
▁পরিবহণ	-11.2045
▁বেপরোয়া	-11.2051
▁বিউটি	-11.2052
সো	-11.2054
▁মরদেহটি	-11.2061
▁১৮টি	-11.2063
▁মাইক্রোবাস	-11.2063
▁তারিখের	-11.2063
▁যানবাহনের	-11.2063
▁আলেম	-11.2068
ra	-11.207
▁রিজেন্ট	-11.2073
▁জান্নাতুল	-11.2074
▁মন্ত্রনালয়	-11.2077
▁বৈজ্ঞানিক	-11.2077
▁সুন্দরবনে	-11.2078
▁ফাইনালের	-11.2079
K	-11.2084
▁বিসিএসের	-11.2084
মের	-11.2086
▁অনৈতিক	-11.2089
▁বলবেন	-11.2094
▁হায়াত	-11.2095
▁শতক	-11.2101
▁বৃক্ষরোপণ	-11.2103
▁কর্মস্থলে	-11.2105
▁সেইসঙ্গে	-11.2106
▁বিষয়টা	-11.211
▁গরমে	-11.2111
▁চাঁদের	-11.2111
▁অর্থনীতিতে	-11.2115
▁অলি	-11.2115
ভারতীয়	-11.2115
▁চেতনা	-11.2115
▁ব্যর্থতার	-11.2116
উর	-11.2117
▁বসার	-11.2121
▁অগ্নি	-11.2124
▁মন্তব্যের	-11.2124
▁সেটাও	-11.213
▁ইয়ার	-11.2131
▁ভালুকা	-11.2132
▁পাবনায়	-11.2133
▁হাদিস	-11.2134
▁জানাগেছে	-11.2135
▁অর্জনে	-11.2138
▁মনো	-11.2143
▁স্বাস্থ্যকর্মী	-11.2143
▁বন্ধুরা	-11.2145
▁লুইস	-11.2145
▁আখতারুজ্জামান	-11.215
▁ডিফেন্স	-11.2151
▁প্রাক	-11.2152
▁ব্রিটেন	-11.2152
▁জং	-11.2156
▁আক্রমণে	-11.2156
▁Sun	-11.2158
▁ক্ষেত্রেই	-11.2162
▁যতটা	-11.2163
▁আওতাধীন	-11.2165
▁করুক	-11.2166
▁কাপুরের	-11.2166
পরে	-11.2166
▁রুজু	-11.2167
es	-11.2169
▁জুনায়েদ	-11.2172
▁লটারি	-11.2176
▁মিথিলা	-11.2176
শীল	-11.218
▁জেরা	-11.2181
▁ফ্যান	-11.2183
▁গড়া	-11.2188
▁বৈধতা	-11.2188
ন্ন	-11.2189
▁সমাপ্তি	-11.2191
▁অস্ট্রেলিয়ান	-11.2193
▁খেতাব	-11.2195
▁খেলেছে	-11.2195
▁গুলির	-11.2201
▁মেয়রের	-11.2201
▁অন্যত্র	-11.2201
▁আসামীদের	-11.2205
▁ভাঙ্গন	-11.2207
▁স্পট	-11.2208
▁খোদ	-11.2209
▁পরীক্ষার্থীদের	-11.2211
▁হারুনু	-11.2213
▁ক্যাপশনে	-11.2213
▁রয়ে	-11.2214
▁ভ্রমণের	-11.2218
▁অপরাধী	-11.2218
▁ভালোই	-11.222
▁ব্যবহারকারীর	-11.222
H	-11.2221
▁জন্মদিনের	-11.2222
সুবিধা	-11.2222
▁ব্যবস্থায়	-11.2222
▁সমাবেশের	-11.2226
▁হিসেবেও	-11.2227
▁ভূষিত	-11.2227
▁ব্রাজিলিয়ান	-11.2228
▁৩০টি	-11.2228
▁মহকুমা	-11.2228
▁আবৃত্তি	-11.2229
▁ভয়ংকর	-11.223
বাংলাদেশের	-11.2231
▁তাহিরপুর	-11.2231
▁কিছুতেই	-11.2232
▁কুড়িগ্রামে	-11.2233
▁কনফারেন্সে	-11.2233
▁দেশবাসীর	-11.2248
▁সফলতার	-11.225
▁কোয়ারেন্টাইন	-11.225
▁শিব	-11.2251
▁পাতায়	-11.2252
▁দুঃখজনক	-11.2256
▁প্রত্যন্ত	-11.2258
▁প্রতিবেদকঃ	-11.2259
▁দীপক	-11.2264
▁অশ্লীল	-11.2266
্যা	-11.227
▁প্রভাবিত	-11.227
▁নাতি	-11.227
▁ইস্ট	-11.2272
▁সম্প্রীতি	-11.2275
▁গণিত	-11.2277
টাকে	-11.2287
▁দিনভর	-11.2291
তাই	-11.2292
▁ক্রেডিট	-11.2294
▁গ্রেড	-11.2294
▁বন্ড	-11.2295
▁উচ্চারণ	-11.2298
▁সন্ধানে	-11.2305
▁জিনিসপত্র	-11.2307
পাকিস্তান	-11.2308
▁স্কোয়াডে	-11.231
▁Jun	-11.2311
▁বাক	-11.2315
▁সো	-11.2319
▁ফুটে	-11.2321
▁মইনুল	-11.2322
▁গুটিয়ে	-11.2322
▁দর্পণ	-11.2322
তান্ত্রিক	-11.2323
▁ধানমন্ডি	-11.2323
▁মমতার	-11.2326
▁দৌলতদিয়া	-11.2326
▁আইটেম	-11.2328
▁সংবাদমাধ্যমে	-11.2328
▁বেসরকারী	-11.2329
▁এমনিতেই	-11.2329
ৌ	-11.2333
▁রউফ	-11.2337
▁শেরে	-11.2337
▁খাগড়াছড়িতে	-11.2339
▁মহানবী	-11.2339
ঞ্জ	-11.2343
▁খুঁটি	-11.2345
▁কাতারের	-11.235
▁সুফল	-11.2351
▁বসানোর	-11.2352
▁থাকুক	-11.2352
▁মাল্টিমিডিয়া	-11.2352
▁অ্যাসিড	-11.2352
▁৫০টি	-11.2352
▁তামিমের	-11.2356
▁পাইপ	-11.2358
▁সরবরাহের	-11.2359
▁কভিড	-11.2361
কণ্ঠ	-11.2362
▁অভিমান	-11.2364
▁শ্লোগান	-11.2367
▁মন্ডলের	-11.2369
▁মাই	-11.237
▁সেক্টর	-11.2375
▁নিয়ন্ত্রণের	-11.2379
স্ক	-11.2382
▁লোকদের	-11.2382
▁জিন	-11.2383
▁ভাবমূর্তি	-11.2384
▁জুনাইদ	-11.2385
▁New	-11.2385
▁সংবিধানের	-11.2385
▁বিধবা	-11.2387
▁সিইসি	-11.2387
▁তাগিদ	-11.239
▁অসীম	-11.2392
▁bangladesh	-11.2393
▁যেগুলো	-11.2393
▁জান	-11.2393
▁রোজিনা	-11.2399
▁এসোসিয়েশনের	-11.2401
▁ট্যাক্স	-11.2405
▁প্রবন্ধ	-11.2408
▁কেনাকাটা	-11.2408
বাসস	-11.2408
▁ইংল্যান্ডে	-11.2411
Coxsbazar	-11.2413
▁অনির্দিষ্টকালের	-11.2415
▁সৌমিত্র	-11.2416
▁আবদ্ধ	-11.2417
▁ফোর	-11.2417
▁প্রতিনিধিদের	-11.2418
▁কায়দায়	-11.2418
▁প্রথমার্ধে	-11.2419
▁উদ্যানে	-11.2419
এখন	-11.2423
▁মানসিকভাবে	-11.2425
▁টার্মিনাল	-11.2427
▁বাইডেনের	-11.2433
▁বর্জন	-11.2436
▁জু	-11.2438
▁যাবো	-11.2439
▁বিক্ষুব্ধ	-11.2441
▁নিউজ২৪	-11.2442
▁স্থলবন্দর	-11.2444
কথা	-11.2447
▁আশংকা	-11.2447
▁অবমুক্ত	-11.2448
▁দাপট	-11.245
▁অশান্তি	-11.245
▁দাঁড়	-11.2451
▁ডেক্স	-11.2453
মী	-11.2458
▁ফসলের	-11.2458
▁ছাড়ে	-11.2458
▁বিটিআরসি	-11.2458
কারীরা	-11.246
▁মাইকিং	-11.246
▁জনস্বাস্থ্য	-11.2461
▁বোলিংয়ে	-11.2465
ম্প	-11.2471
সী	-11.2473
▁রবীন্দ্রনাথ	-11.2474
▁প্রেমিকার	-11.2477
▁রবার্ট	-11.2478
▁ভরি	-11.2481
▁কলাপাড়া	-11.2481
▁জয়লাভ	-11.2481
▁টসে	-11.2482
▁মধ্যপ্রাচ্যের	-11.2484
Northbengal	-11.2484
▁শতকরা	-11.2486
▁কিস্তি	-11.2493
▁আক্রমণের	-11.2495
▁এপ্রিলে	-11.2496
▁মুহিত	-11.2498
▁বুদ্ধিজীবী	-11.2503
▁J	-11.2505
▁পরিচর্যা	-11.2506
▁এয়ারলাইন্স	-11.2508
▁ইইউ	-11.2511
▁প্রাধান্য	-11.2511
▁ইভ্যালি	-11.2511
▁হলরুমে	-11.2512
▁সমতা	-11.2517
▁নিশ্চয়ই	-11.252
▁নয়াপল্টনে	-11.2521
েশ	-11.2526
▁আর্থ	-11.2529
▁কায়সার	-11.253
▁বিলুপ্ত	-11.2534
▁অ্যাপটি	-11.2538
▁আটজন	-11.2543
▁প্রক্রিয়াধীন	-11.2543
▁রিপাবলিকান	-11.2544
▁লজ্জা	-11.2545
▁বিল্ডিং	-11.2545
▁সেক্স	-11.2545
▁মজুরি	-11.2547
▁দাদা	-11.2547
▁বইমেলা	-11.2548
▁পেমেন্ট	-11.2549
▁মর্মে	-11.2549
▁মেটাতে	-11.2549
▁পিবিআই	-11.2555
▁জানালা	-11.2558
▁ভার্চুয়ালি	-11.256
মনি	-11.256
▁c	-11.2562
▁সাপের	-11.2564
▁স্টিভ	-11.2564
▁নিউইয়র্কে	-11.2565
▁দেশেই	-11.2567
▁খায়	-11.2568
▁ওদের	-11.2568
▁মজুত	-11.2569
▁প্রবাসীরা	-11.2569
▁অ্যাপের	-11.2572
▁দুর্গা	-11.2573
▁তিনিই	-11.2573
▁More	-11.2574
▁শীতার্ত	-11.2575
▁শৈলকুপা	-11.2577
▁হিসেব	-11.2577
▁ক্ষেত	-11.2584
▁গোষ্ঠীর	-11.2587
▁স্পিন	-11.2587
▁দ্রুততম	-11.2589
▁বাড়ল	-11.2592
▁ব্রাজিলে	-11.2593
▁খেজুর	-11.2594
▁পার্টিতে	-11.2595
▁বাহিরে	-11.2597
▁পূরণের	-11.2599
▁m	-11.2601
▁সাজু	-11.2602
▁চরিত্রের	-11.2602
←	-11.2607
পো	-11.2608
▁সাখাওয়াত	-11.2609
▁দক্ষিণাঞ্চল	-11.261
▁ফিরবেন	-11.261
▁সাদিয়া	-11.2613
▁মিছিলটি	-11.2616
▁দূর্ঘটনা	-11.2617
▁ওয়াটার	-11.2618
▁Mar	-11.262
▁অংশগ্রহণে	-11.2622
▁মেসিকে	-11.2622
▁কুয়েতে	-11.2623
রিয়া	-11.2624
▁পদক্ষেপের	-11.2626
▁পিরোজপুরের	-11.2631
▁নিচ্ছি	-11.2637
▁টানে	-11.2637
বাছাই	-11.2638
▁পর্ষদের	-11.2638
দহ	-11.2638
▁বরাতে	-11.2639
▁First	-11.264
▁জিম্মি	-11.264
▁বিষয়বস্তু	-11.264
▁স্থল	-11.264
▁ঢাকাগামী	-11.264
▁স্ক্রিন	-11.2642
▁বাগানের	-11.2642
▁৪র্থ	-11.2644
▁প্রশংসায়	-11.2647
▁ডু	-11.2649
▁মাহবুবুল	-11.265
দুই	-11.2654
▁সিরাজগঞ্জে	-11.2655
▁বিরক্ত	-11.2658
▁মৌলভীবাজারে	-11.2658
▁মশার	-11.2659
▁গোলরক্ষক	-11.266
▁ট্রাম্পকে	-11.266
▁সুরক্ষার	-11.266
▁উহান	-11.2663
▁প্ল্যান	-11.2669
নতুন	-11.267
▁সিরিয়া	-11.2671
▁অসাধু	-11.2672
▁কণ্ঠে	-11.2674
▁আবেদনে	-11.2675
▁দিয়া	-11.2676
▁সময়সূচি	-11.2676
▁উপপরিচালক	-11.2679
স্ত্রী	-11.2679
▁উৎপাদনে	-11.2681
▁অফিসারের	-11.2682
▁প্রাণের	-11.2683
▁স্তরে	-11.2688
li	-11.2692
ছাত্রীদের	-11.2696
▁স্মার্টফোনের	-11.2698
দান	-11.2699
▁সেঞ্চুরির	-11.27
▁তাপ	-11.2701
▁অভিনয়ে	-11.2703
‎	-11.2704
▁বক্কর	-11.2705
▁অজ্ঞান	-11.2705
▁অভিযুক্তদের	-11.2705
▁সহযোগীতা	-11.2705
বাবু	-11.2706
উত্তর	-11.2707
▁আতিক	-11.2709
ভাই	-11.2709
▁তোমাকে	-11.271
▁উপমন্ত্রী	-11.2712
▁প্রসেসর	-11.2713
▁একমত	-11.2716
জো	-11.2718
▁ঢাকাই	-11.272
▁জুটির	-11.272
▁পিপিএম	-11.2721
েস	-11.2725
▁শুটিংয়ে	-11.2725
▁বগি	-11.2727
ক্রমে	-11.2727
▁পরতে	-11.2727
▁V	-11.2728
▁ডন	-11.2729
▁রেট	-11.273
▁ফাহিম	-11.2733
▁মানিকগঞ্জে	-11.2736
▁টোকিও	-11.2736
▁অবধি	-11.2739
▁দুইবার	-11.2741
▁নৌবাহিনী	-11.2743
▁আবাসন	-11.2743
▁পরিচ্ছন্ন	-11.2745
▁অংশগ্রহণের	-11.2746
▁রাশি	-11.2751
▁১৩০	-11.2753
▁২০০৫	-11.2754
ِ	-11.2755
▁ফার্ম	-11.2758
▁ছাত্রীদের	-11.2761
▁মর্তুজা	-11.2761
▁সম্প্রদায়	-11.2766
re	-11.2768
▁মন্টু	-11.2771
কিন্তু	-11.2771
▁জামিল	-11.2774
▁তিনটা	-11.2774
▁ইন্টারনেটে	-11.2776
▁বিএসএফের	-11.2784
ন্দ	-11.2787
▁খাতুনের	-11.2788
▁ব্যাক	-11.2788
▁শফি	-11.2789
▁ব্র্যান্ডের	-11.279
সমূহের	-11.279
▁চক্ষু	-11.279
▁পূরণে	-11.2791
▁পাউন্ড	-11.2792
▁গাংনী	-11.2794
নিউজ২৪	-11.2796
▁প্রতিক্রিয়ায়	-11.2796
▁উদ্বুদ্ধ	-11.2801
▁তারকারা	-11.2801
▁কারফিউ	-11.2803
▁জিজ্ঞেস	-11.2803
▁অবিশ্বাস্য	-11.2803
Leave	-11.2804
ভর্তি	-11.2804
▁দমকা	-11.2804
▁রোহিঙ্গারা	-11.2804
▁অপপ্রচার	-11.2804
▁রুখে	-11.2805
▁মৌ	-11.2806
▁আওয়াজ	-11.2806
▁ঐক্যফ্রন্ট	-11.2808
▁১৪০	-11.2812
▁পরকীয়া	-11.2814
কী	-11.2822
▁উত্তরপ্রদেশের	-11.2823
▁যুদ্ধবিমান	-11.2824
▁অসম	-11.2826
▁মোস্তাক	-11.2827
দুল	-11.2832
▁ব্লু	-11.2833
▁you	-11.2835
▁টমেটো	-11.2836
▁BANGLA	-11.2837
▁টেকটিউনস	-11.2837
▁তদারকি	-11.2838
ل	-11.2842
▁স্থলে	-11.2842
▁হজম	-11.2844
▁খ্রিস্টান	-11.2846
▁সোনারগাঁয়ে	-11.2847
▁হাসানকে	-11.2847
▁আফরোজ	-11.2849
▁জনসভায়	-11.2852
স্টার	-11.2852
▁জঙ্গিরা	-11.2853
▁ছড়ানো	-11.2854
▁চাপের	-11.2855
▁তিনিও	-11.2858
▁জানাবেন	-11.2859
▁ইরানে	-11.286
নায়	-11.2861
▁বস্তু	-11.2868
▁১১০	-11.2869
▁চাষের	-11.2869
▁মাগফিরাত	-11.2869
▁স্ট্রাইকার	-11.2869
▁রোপণ	-11.2869
z	-11.287
রোববার	-11.287
▁পোড়া	-11.288
▁ফাস্ট	-11.288
▁তবু	-11.288
▁পশ্চিমা	-11.2883
▁দুজনেই	-11.2888
▁অটোরিক্সা	-11.2889
▁মহামারিতে	-11.289
▁২নং	-11.2892
▁মহলের	-11.2892
▁অর্ধ	-11.2894
▁মেয়েটিকে	-11.2895
▁১৬০	-11.2896
▁বু	-11.2897
▁নামেন	-11.2902
ময়মনসিংহ	-11.2904
▁জুবায়ের	-11.2905
▁আটটা	-11.2909
▁শামিম	-11.291
▁১৯৭৫	-11.2911
▁উদ্ধারকৃত	-11.2913
▁ট্রেলার	-11.2916
অ্যা	-11.2922
▁দক্ষিণের	-11.2923
▁এবারে	-11.2923
▁পিসি	-11.2924
▁প্রতিনিধিত্ব	-11.2924
▁পর্যবেক্ষণে	-11.2925
bani	-11.2929
▁ত্বকে	-11.2931
▁ট্রায়াল	-11.2931
▁নবজাতক	-11.2932
▁গেমস	-11.2935
▁ভাগাভাগি	-11.2936
▁দেখেই	-11.2936
▁বর্ষসেরা	-11.2936
▁!!	-11.2936
▁বিষাক্ত	-11.2937
বিজিবি	-11.2938
▁শ্যামনগর	-11.2939
▁অবসরে	-11.2939
▁জান্নাত	-11.2942
▁রযাঙ্কিংয়ে	-11.2943
▁পালানোর	-11.2946
▁কাট	-11.2947
▁ইভেন্টে	-11.2952
▁দামি	-11.2958
▁কর্মকার	-11.2959
▁স্টোরেজ	-11.2962
▁সামর্থ্য	-11.2962
▁গৃহ	-11.2964
▁প্যান্ট	-11.2966
▁গ্রহণযোগ্য	-11.2967
স্বাস্থ্য	-11.2968
▁ফান্ডের	-11.2968
▁আত্মসাৎ	-11.2969
▁বণিক	-11.2969
▁আত্মপ্রকাশ	-11.2969
▁ফর্মে	-11.2969
শো	-11.2969
▁রাকিবুল	-11.2971
▁ফরিদগঞ্জ	-11.2972
▁বিচারপতির	-11.2973
▁ব্যতিক্রমী	-11.2975
ch	-11.2975
▁ছড়ায়	-11.2975
ডেস্ক	-11.2975
▁নির্বাহ	-11.2979
▁ক্ষয়ক্ষতির	-11.2981
▁বন্দী	-11.2982
▁ভাবছেন	-11.2984
গুলিকে	-11.2986
এসপি	-11.2987
▁পরি	-11.2987
▁পাগল	-11.2991
▁প্রতিভা	-11.2991
▁অন্তর	-11.2993
▁ইমেজ	-11.2994
▁হককে	-11.2995
▁মদন	-11.2997
▁যোদ্ধা	-11.3
▁বাংলাদেশির	-11.3001
▁রেঞ্জ	-11.3001
▁ক্ষেত্র	-11.3002
▁Ajker	-11.3003
▁বংশোদ্ভূত	-11.3003
▁সারাক্ষণ	-11.3004
▁টম	-11.3005
▁রেহাই	-11.3005
▁উজ্জল	-11.3006
▁অস্থায়ীভাবে	-11.3007
▁উত্থান	-11.3008
▁আলাইহি	-11.3009
▁Khabor	-11.3013
▁পড়েছিলেন	-11.3014
▁দেশগুলোতে	-11.3017
▁সচেতনতামূলক	-11.3018
▁অঙ্কের	-11.3022
▁পাইকারি	-11.3023
▁ফ্র্যাঞ্চাইজি	-11.3023
▁ডিউটি	-11.3026
▁মিরপুরের	-11.3026
▁ভাবা	-11.3027
▁মৃদু	-11.3029
▁অনুবাদ	-11.3036
▁ডেমোক্রেট	-11.3036
▁উৎসর্গ	-11.3037
▁শ্রীলঙ্কায়	-11.3037
▁মোটামুটি	-11.3037
▁কর্ণফুলী	-11.3039
খুলনা	-11.304
▁জনগনের	-11.304
▁জাহাঙ্গীরনগর	-11.3041
▁জানাজানি	-11.3045
▁সত্যিকার	-11.3047
▁বেপারী	-11.305
▁কানাডায়	-11.3052
▁ক্লাসে	-11.3053
▁ভোররাতে	-11.3054
▁১৬৪	-11.3054
▁তাক	-11.3055
▁মরিচ	-11.3055
▁মুখার্জি	-11.3055
▁মনোভাব	-11.3058
▁বিক্রম	-11.3061
▁লোহার	-11.3063
▁Large	-11.307
▁Monday	-11.307
▁প্রতিশোধ	-11.307
▁ন্যাটো	-11.3071
▁প্রশংসিত	-11.3071
▁ছাত্রনেতা	-11.3072
▁রুমা	-11.3072
▁নামঞ্জুর	-11.3073
▁তৌহিদ	-11.3075
▁গুদাম	-11.3075
।#	-11.3076
▁যথাযথভাবে	-11.3078
▁সৈকতে	-11.3079
▁বোনাস	-11.308
kantho	-11.3082
▁এটির	-11.3084
▁সামনেই	-11.3088
▁বরফ	-11.3088
▁প্রিয়া	-11.3089
▁তারিক	-11.309
▁পারা	-11.309
▁সমূহ	-11.3092
▁তাজ	-11.3092
▁অশোক	-11.3098
▁রেখা	-11.31
▁সঞ্চালনা	-11.3103
▁ভবিষ্যত	-11.3106
▁মরিয়ম	-11.3106
খা	-11.3107
ভারপ্রাপ্ত	-11.3107
▁কামালের	-11.3111
▁দুটির	-11.3112
▁তামিল	-11.3117
▁রযাম	-11.3117
িম	-11.3118
▁নয়াদিল্লি	-11.3119
▁নিরাপত্তায়	-11.3121
▁পাসওয়ার্ড	-11.3121
▁রহমানসহ	-11.3123
▁রাখায়	-11.3134
▁ধর	-11.3137
▁নওয়াজ	-11.3138
▁শুকনো	-11.314
▁ইরাক	-11.314
▁ট্রাক্টর	-11.3141
▁ডিএমপির	-11.3144
▁কান্না	-11.3144
▁ইয়র্ক	-11.3145
▁অনার্স	-11.3145
▁মুসল্লিদের	-11.3145
▁সদস্যবৃন্দ	-11.3149
▁অটোরিকশার	-11.3152
▁এমনটি	-11.3161
▁সাবিনা	-11.3163
▁জনপদ	-11.3163
▁ইটভাটা	-11.3164
এমপি	-11.3166
▁পোষ্ট	-11.3168
▁মহেন্দ্র	-11.3172
▁মেঘ	-11.3174
▁বিজ্ঞ	-11.3175
▁খনিজ	-11.3176
▁নিশ্চয়তা	-11.3176
▁দেখিয়েছেন	-11.3179
▁রীতি	-11.318
▁রাব্বানী	-11.3183
▁ঢলে	-11.3184
▁হলিউড	-11.3184
স্তা	-11.3186
▁শ্রীমঙ্গলে	-11.3186
▁বাউল	-11.3187
▁মুন্সি	-11.3189
্যাল	-11.3194
▁রেসিপি	-11.3195
▁তিনবার	-11.3204
পাল	-11.3205
ল্লাল্লাহু	-11.3207
▁দৈনন্দিন	-11.3207
▁ফেডারেল	-11.3207
▁সুস্বাদু	-11.3207
▁আলতাফ	-11.3207
▁ত্রান	-11.3207
মন্ত্রীর	-11.3207
▁Off	-11.3208
▁শ্রীলংকা	-11.3214
▁মাতা	-11.3216
▁মস্তিষ্কে	-11.3217
▁নাজমা	-11.3218
▁হাড়	-11.322
▁জনসচেতনতা	-11.322
▁বর্ণ	-11.3221
প্রথম	-11.3223
▁খু	-11.3223
নাথ	-11.3225
গড়	-11.3227
▁হ্যাটট্রিক	-11.323
▁পোস্টের	-11.3232
▁মোড়ক	-11.3235
▁রেলপথ	-11.3236
▁ঘটিয়েছে	-11.3236
▁টাউন	-11.3237
▁Saturday	-11.3241
▁ফিরছিলেন	-11.3241
▁মজনু	-11.3241
▁বিশৃঙ্খলা	-11.3247
▁শরীয়তপুর	-11.3248
▁নান্নু	-11.325
▁ইত্তেফাক	-11.325
হান	-11.325
▁পল্টন	-11.3253
ৈ	-11.3255
▁যেই	-11.3257
▁উদযাপনের	-11.3258
▁শিক্ষাবর্ষের	-11.3259
▁গ্যালারি	-11.326
▁বাসস্ট্যান্ড	-11.3262
▁ইজিবাইক	-11.327
▁রইল	-11.3272
▁শাহরুখের	-11.3272
▁গৃহহীন	-11.3272
▁কোচবিহার	-11.3273
▁প্রদত্ত	-11.3276
▁গুঁড়া	-11.3279
▁বানাতে	-11.328
▁মুহাম্মাদ	-11.328
▁লস	-11.3286
▁মনোয়ার	-11.3287
▁অপো	-11.3288
▁আছড়	-11.3289
ইউপি	-11.3289
▁দলই	-11.329
▁রাজবাড়ীর	-11.3293
জল	-11.3293
▁খরচে	-11.3295
িনা	-11.3297
▁আত্মবিশ্বাস	-11.3298
▁ক্ষত	-11.3303
▁সমুদ্রে	-11.3303
▁সাথী	-11.3304
le	-11.3306
ীন	-11.3307
▁ইয়াসিন	-11.331
▁শামসুজ্জামান	-11.331
▁প্রযোজ্য	-11.3311
▁শিশির	-11.3313
▁১৮০	-11.3313
ন্ট	-11.3315
▁Media	-11.3318
▁ঢামেক	-11.3322
▁লিভার	-11.3322
▁কাটছে	-11.3323
▁গেটে	-11.3327
▁ছড়ানোর	-11.3327
▁সাহিত্যিক	-11.3327
▁বনে	-11.3335
▁মাওয়া	-11.3336
▁কেরানীগঞ্জ	-11.3336
▁ঢেউয়ে	-11.334
▁পরিণতি	-11.3342
▁পেছনের	-11.3343
▁নিচ	-11.3344
▁ফেনীতে	-11.3344
▁Thursday	-11.3345
▁ভাষ্য	-11.3345
▁মোতালেব	-11.3345
▁খোঁজাখুঁজি	-11.3345
▁বসা	-11.3347
▁সুশান্তের	-11.3352
▁প্রতিকার	-11.3356
▁ধার	-11.3357
▁ফরম্যাটে	-11.3357
▁বিলে	-11.3358
▁ইউক্রেন	-11.336
▁অর্ধশত	-11.336
▁ধারাবাহিকতা	-11.3361
▁হাউসের	-11.3362
▁শুধুই	-11.3362
▁রাশিয়ায়	-11.3366
▁বাকিদের	-11.3367
▁আজান	-11.337
▁ড্রাইভ	-11.3371
▁বিশ্বাসী	-11.3373
▁কারিনা	-11.3373
বুল	-11.3376
▁Janakantha	-11.338
▁আমন্ত্রিত	-11.338
▁সেন্টিমিটার	-11.338
▁হাতিয়ার	-11.3382
▁নিকটতম	-11.3383
▁এমনকী	-11.3386
হাটি	-11.3386
▁৯৯৯	-11.3388
▁ধারার	-11.339
ভে	-11.3393
▁২টায়	-11.3396
▁রমজানে	-11.3396
স্বীকারোক্তিমূলক	-11.34
▁আইনজীবীদের	-11.3402
▁পাখির	-11.3402
▁বানানোর	-11.3404
▁চে	-11.3406
▁আইসিইউ	-11.3408
▁বরিস	-11.3409
и	-11.3414
▁যেনো	-11.3414
▁অনিল	-11.3417
▁বিবিধ	-11.3418
▁ছিনতাইয়ে	-11.3419
▁জালিয়াতির	-11.342
▁কর্মকান্ড	-11.3421
খোলা	-11.3421
▁যশ	-11.3423
▁পেরেছেন	-11.3423
▁দক্ষিণে	-11.3423
▁পেলেই	-11.3424
▁তরল	-11.3424
▁অনিক	-11.3424
▁দুজনই	-11.3425
▁দাউদ	-11.3442
▁আফ্রিকায়	-11.3445
▁বিপণন	-11.3446
▁বাল্য	-11.3447
▁এতিম	-11.3448
▁অংশগ্রহন	-11.3449
е	-11.3449
▁উত্তেজিত	-11.345
▁সার্বক্ষণিক	-11.345
▁হিজরী	-11.345
▁যথাযোগ্য	-11.345
▁মুর্তজা	-11.3451
▁শাহিনুর	-11.3452
▁দ্বাদশ	-11.3454
▁উদ্ভাবন	-11.346
▁বাড়িঘর	-11.3461
▁বিপ্লবী	-11.3461
▁পড়েনি	-11.3461
▁হকি	-11.3468
▁সেমি	-11.3468
▁বিএম	-11.3469
▁উচ্চশিক্ষা	-11.3469
▁নন্দী	-11.347
▁সমুদ্রের	-11.3472
▁তেহরান	-11.3472
জুলাই	-11.3476
▁খাস	-11.348
সিএসই	-11.3481
▁গাওয়া	-11.3484
▁সোচ্চার	-11.3485
▁বিনাশ্রম	-11.3485
▁মানবতাবিরোধী	-11.3485
▁খানিকটা	-11.3486
▁পারস্পরিক	-11.3486
▁ডিভোর্স	-11.3487
▁বোনকে	-11.3488
োয়া	-11.3489
▁জ্বালিয়ে	-11.349
▁রাইটস	-11.349
▁অধ্যায়	-11.3491
▁আগ্রাসন	-11.3491
▁যাপন	-11.3491
▁রাশেদুল	-11.3491
▁মারতে	-11.3491
▁ছেড়েছেন	-11.3494
▁সিঙ্গাপুরের	-11.3494
▁উত্তরের	-11.3494
▁মাদকাসক্ত	-11.3496
তর	-11.3497
▁চক	-11.35
▁সাবধান	-11.3501
স্	-11.3508
▁পড়ছেন	-11.3508
▁শুভেন্দু	-11.3508
ওয়ালা	-11.3509
▁১০০০	-11.351
▁হুয়াওয়ে	-11.351
▁বুদ্ধি	-11.3516
▁কাইয়ুম	-11.352
▁তুঙ্গে	-11.352
▁সর্বকালের	-11.3521
▁গৌরনদী	-11.3521
ছড়া	-11.3524
▁অধিনায়কের	-11.3527
▁Shomoy	-11.3529
▁রাবার	-11.3531
▁পেশাগত	-11.3532
▁সানা	-11.3534
▁লিডার	-11.354
▁হি	-11.3541
▁প্রতিবেশীরা	-11.3541
▁লাখো	-11.3542
▁মাগুরায়	-11.3544
▁সফলভাবে	-11.3547
▁জনসভা	-11.3555
▁ওয়ার্কার্স	-11.3556
▁নির্দেশিকা	-11.3556
▁পাতার	-11.3557
▁আখ্যা	-11.3558
▁আমতলী	-11.3559
▁ম্যা	-11.3559
▁রানি	-11.356
▁বুলেটিনে	-11.3561
▁জননী	-11.3565
▁নাগরিককে	-11.3567
চ্ছে	-11.3567
▁লিওন	-11.3567
▁অনুপ্রেরণা	-11.3572
▁আশঙ্কায়	-11.3579
▁বেতার	-11.3579
▁ফলাফলের	-11.3583
▁মারামারি	-11.3584
▁মক্কা	-11.3587
▁বাদাম	-11.3587
ছিলাম	-11.3588
▁মুক্তিযোদ্ধার	-11.359
▁মল	-11.359
তী	-11.3591
▁অরফানেজ	-11.3591
▁সবমিলিয়ে	-11.3591
▁জনৈক	-11.3591
▁আস	-11.3593
▁চঞ্চল	-11.3594
▁বৃদ্ধিতে	-11.3596
▁৬ষ্ঠ	-11.3596
▁প্রতিরোধের	-11.3597
▁তৃতীয়বার	-11.3597
▁View	-11.3598
▁এরআগে	-11.3601
▁বুয়েট	-11.3601
▁মেরিন	-11.3602
▁জানাযা	-11.3605
রূপ	-11.3606
▁ছক্কায়	-11.3606
▁অবহেলা	-11.361
▁এনায়েত	-11.3611
▁কেশবপুর	-11.3615
▁বঙ্গবন্ধুকে	-11.3623
▁বিক্ষোভের	-11.3623
▁অসুস্থতা	-11.3623
▁রায়পুর	-11.3624
▁হরমোন	-11.3627
াব	-11.3627
▁টক	-11.3628
রহাট	-11.3628
▁গনি	-11.3629
▁জেসমিন	-11.3629
▁যেতেই	-11.363
▁গীতিকার	-11.363
▁বলছিলেন	-11.3631
▁ইউরোপিয়ান	-11.3631
মার্চ	-11.3634
▁পরিচ্ছন্নতা	-11.3634
▁আদায়ে	-11.3634
▁ফুটিয়ে	-11.3638
▁গোল্ডেন	-11.3639
▁রোমান	-11.3641
▁রয়েল	-11.3643
▁পৌঁছেছেন	-11.3646
▁পোশাকের	-11.3648
হর	-11.3649
িস্ট	-11.365
▁হ্যাক	-11.3651
▁করাই	-11.3652
েন্ট	-11.3656
▁কৃতিত্ব	-11.3658
▁কৃতজ্ঞ	-11.3658
▁ইন্টারনেটের	-11.3659
২০২২	-11.366
▁এমদাদুল	-11.3662
▁সরোয়ার	-11.3663
▁ফাঁকে	-11.3663
▁সমাজকল্যাণ	-11.3663
▁সংখ্যাও	-11.3664
▁নুরুজ্জামান	-11.3665
▁@	-11.367
▁বাদশাহ	-11.3672
▁বিয়ানীবাজার	-11.3673
▁আসতেই	-11.3674
▁প্রত্যাবাসন	-11.3677
▁বিদ্যুৎস্পৃষ্ট	-11.3677
ধা	-11.369
ওয়ার	-11.369
ৃ	-11.3694
শু	-11.3695
▁শাওমি	-11.3699
▁অর্জিত	-11.3699
▁উৎক্ষেপণ	-11.3699
▁Tag	-11.3699
▁একত্রিত	-11.3699
▁ছুঁয়ে	-11.3699
▁শিল্পীর	-11.37
▁প্রথমেই	-11.37
▁মফস্বল	-11.37
▁শেরপুরের	-11.3701
▁রাখলে	-11.3701
▁শরণখোলা	-11.3701
▁সাতদিন	-11.3702
▁আমানত	-11.3702
▁আনুশকা	-11.3703
▁মেগা	-11.3705
▁নিয়মে	-11.3707
▁আতঙ্কের	-11.3708
▁ব্যর্থতা	-11.3709
▁তামাক	-11.3711
▁দফার	-11.3711
▁চারে	-11.3713
▁পুঁজি	-11.3713
▁মনজুর	-11.3714
▁আকাশের	-11.372
ইং	-11.3723
▁ভূমিকম্পে	-11.3724
▁১৪৪২	-11.3726
▁আলমকে	-11.3727
▁সাপোর্টে	-11.3727
▁মালিকানা	-11.3729
▁শরিক	-11.373
▁রিলিজ	-11.3731
▁মহারাষ্ট্র	-11.3732
▁কুকুরের	-11.3733
▁হুসাইন	-11.3735
▁আনিছুর	-11.3735
▁মাজহারুল	-11.3737
▁Most	-11.3738
▁টেলিকম	-11.3738
▁যাননি	-11.3739
▁ক্ষেতে	-11.3739
▁সরকারিভাবে	-11.374
▁খলিলু	-11.374
▁সাময়িকভাবে	-11.3741
সাংগঠনিক	-11.3742
▁গড়েন	-11.3742
▁অতীত	-11.3745
▁খেলোয়াড়রা	-11.3746
▁রাউজান	-11.3747
▁আধিকারিক	-11.3748
▁তু	-11.3752
▁পরস্পর	-11.3753
▁জেলের	-11.3753
বেলা	-11.3757
▁বিচারে	-11.3758
▁নবাবগঞ্জ	-11.3758
▁প্ল্যাটফর্মে	-11.3759
▁সংবাদপত্রের	-11.376
▁পাব	-11.3761
▁ভূমিকম্পের	-11.3761
▁বিকাশের	-11.3763
▁অশ্বিন	-11.3765
▁ইয়া	-11.3765
▁প্রভাত	-11.3767
▁সেনাপ্রধান	-11.3768
▁করোনাকালীন	-11.3769
▁হিমশিম	-11.3771
▁সোনিয়া	-11.3773
▁শীষ	-11.3774
▁শিপন	-11.3774
▁কখনই	-11.3779
▁বিক্ষোভকারীদের	-11.3781
rimenewsbd	-11.3783
▁জরিপে	-11.3783
▁গ্রেফতারকৃতরা	-11.3784
▁ষড়যন্ত্রের	-11.3785
▁হত্যাকারীদের	-11.3786
▁ছোঁয়া	-11.3789
▁পথসভা	-11.379
▁স্কুলছাত্রীকে	-11.3798
▁উড়োজাহাজ	-11.3801
▁টলিউড	-11.3801
▁অপমান	-11.3802
▁জানায়নি	-11.3803
▁ওমান	-11.3803
▁মুশফিকের	-11.3805
▁লিখতে	-11.3805
▁টেক্সটাইল	-11.3805
▁বায়ার্ন	-11.3806
▁গণসংযোগ	-11.3806
▁জেলহাজতে	-11.3807
▁চুলে	-11.3809
▁উধাও	-11.3809
▁শুকিয়ে	-11.3809
▁গাবতলী	-11.3809
▁নায়িকার	-11.381
▁শ্বাস	-11.3816
▁মুন্সিগঞ্জ	-11.3816
পুত্র	-11.3817
▁থা	-11.382
▁অপশন	-11.3821
▁মহিলাকে	-11.3823
▁মালিকরা	-11.3824
▁দিনেও	-11.3824
▁ন্যায্য	-11.3827
▁বিভ্রান্তি	-11.3828
▁বাউন্ডারি	-11.3834
সেন	-11.3836
▁আগ্নেয়াস্ত্র	-11.3844
▁সাব্যস্ত	-11.3844
▁প্রতিষেধক	-11.3844
▁আবাহনী	-11.3844
▁গোল্ডকাপ	-11.3844
▁ঘটবে	-11.3844
▁দুর্গন্ধ	-11.3844
▁রেজাল্ট	-11.3844
▁ক্রিসেন্ট	-11.3844
▁বুকের	-11.3846
▁লীগে	-11.3846
▁নিলেও	-11.3847
▁আশ	-11.3847
▁আমা	-11.385
Barta	-11.3851
▁মৈত্রী	-11.3852
▁সেতুটি	-11.3856
▁অতীতের	-11.3857
▁নড়াইলের	-11.3859
▁গজ	-11.386
▁১শ	-11.3861
মারা	-11.3862
▁কেমিক্যাল	-11.3864
▁পুর	-11.3864
কারি	-11.3866
▁২১শে	-11.3867
▁অতিথিদের	-11.3869
▁পীরগঞ্জ	-11.387
▁পূর্তি	-11.387
▁সংহতি	-11.3872
▁দিকেই	-11.3878
▁গতবছর	-11.3878
▁জেড	-11.3878
প্রযুক্তি	-11.3879
▁সৃজিত	-11.3881
▁ফাইবার	-11.3881
▁জনসমাগম	-11.3881
▁বাপ্পি	-11.3882
▁মিতু	-11.3882
▁কার্যকারিতা	-11.3882
▁টিউটোরিয়াল	-11.3882
▁রাগ	-11.3882
▁সাজে	-11.3885
▁শিরিন	-11.3892
রচর	-11.3895
▁দড়ি	-11.3898
▁লিখেন	-11.3901
▁কোটির	-11.3901
▁আফ্রিকান	-11.3901
শিশু	-11.3903
ওয়ে	-11.3908
▁মোরশেদ	-11.3909
▁দিতেন	-11.3911
▁অতীতে	-11.3912
▁তৎ	-11.3913
▁ইন্দোনেশিয়ার	-11.3914
দেশে	-11.3917
▁অর্ধশতাধিক	-11.3917
▁দেবহাটা	-11.3918
▁Amar	-11.3918
▁মান্না	-11.3918
▁শফিকুর	-11.3919
▁শংকর	-11.3919
▁স্নাতকোত্তর	-11.392
▁সদস্যসহ	-11.3921
সার্স	-11.3922
▁বোল্ড	-11.3923
▁বিক্ষোভকারীরা	-11.3923
▁গ্রে	-11.3924
▁সিনহার	-11.3924
▁ঢালিউড	-11.3931
▁সৃজনশীল	-11.3931
▁করিমের	-11.3932
▁এনআরসি	-11.3932
▁প্রত্যেকের	-11.3937
▁পাল্লা	-11.3939
পরিকল্পনামন্ত্রী	-11.3939
▁বাঁধন	-11.3942
নিয়া	-11.3943
▁জ্বরে	-11.3944
▁লক্ষ্মীপুরের	-11.3947
▁সানরাইজার্স	-11.395
▁বাঁচিয়ে	-11.3954
▁নিত্যপ্রয়োজনীয়	-11.3954
▁প্রচন্ড	-11.3954
▁p	-11.3954
▁পিন্টু	-11.3954
▁সংস্কৃতির	-11.3955
▁লোহাগড়া	-11.3956
▁সম্বলিত	-11.3957
▁প্রশিক্ষক	-11.3959
▁মাঘ	-11.396
▁উন্নতির	-11.3962
▁জুটিতে	-11.3964
▁স্টেডিয়ামের	-11.3966
▁বাক্য	-11.3966
▁মাহফিলের	-11.3967
▁সোম	-11.3968
▁সিরিজটি	-11.3972
বাজ	-11.3972
▁প্রথা	-11.3973
▁হোতা	-11.3975
▁দৃশ্যে	-11.3976
▁সুমাইয়া	-11.3977
▁নুসরাতের	-11.3977
▁যন্ত্রণা	-11.3978
▁দরবারে	-11.3979
▁চলাফেরা	-11.3982
▁রিয়ালের	-11.3985
▁ইন্সটিটিউট	-11.3988
▁ম্যাজিষ্ট্রেট	-11.3991
▁Friday	-11.3991
▁তুচ্ছ	-11.3991
▁অনিশ্চিত	-11.3991
▁বেড	-11.3992
▁চাচাতো	-11.3992
▁থাকতো	-11.3993
▁অ্যাটাক	-11.3994
▁দাউদকান্দি	-11.3994
▁গাইড	-11.3995
▁পাঠাগার	-11.3995
▁মাসব্যাপী	-11.3995
▁পার্টনার	-11.3998
▁নভেল	-11.3999
▁ফর্ম	-11.4007
▁শেয়ারবাজারে	-11.4009
it	-11.4009
▁ব্যাঙ্ক	-11.401
▁ইজতেমা	-11.4011
▁ওয়ারেন্ট	-11.4011
▁গতির	-11.4013
▁নিরব	-11.4014
▁মাষ্টার	-11.4016
▁সেমিফাইনাল	-11.4016
মাত্র	-11.4016
▁কুল	-11.4018
জীবন	-11.4019
▁বিদ্যুত	-11.402
▁খাচ্ছে	-11.4023
▁১৭টি	-11.4024
▁ঐশ্বরিয়া	-11.4025
▁মদিনা	-11.4026
▁বসবে	-11.4027
▁নৌযান	-11.4029
বিল	-11.4029
▁খাবেন	-11.403
▁ডিপ্লোমা	-11.4031
▁স্বীকৃত	-11.4031
▁কাহিনি	-11.4032
▁ফুলেল	-11.4033
ারের	-11.4034
▁সাজিয়ে	-11.4035
▁জলঢাকা	-11.4035
লেও	-11.4036
চেয়ারম্যান	-11.4036
▁দেখেছে	-11.4038
পুরের	-11.4039
▁কানে	-11.404
▁ব্রীজ	-11.4041
▁চিনের	-11.4042
▁আসামীকে	-11.4042
▁কোস্ট	-11.4042
▁মোস্তাফিজ	-11.4043
▁স্বাভাবিকভাবেই	-11.4043
▁শ্বাসরোধ	-11.4047
nd	-11.4049
শ্রী	-11.4055
▁মেহের	-11.406
▁সময়েই	-11.406
▁আইপিও	-11.406
▁লেবানন	-11.4062
▁মাঝখানে	-11.4063
▁প্রাণে	-11.4064
▁শু	-11.4064
▁প্রসিকিউটর	-11.4066
▁ভৌমিক	-11.4066
▁ছোড়া	-11.4066
▁জীবাণু	-11.4067
▁নিউজের	-11.4072
▁নবাব	-11.4072
সামাজিক	-11.4074
▁আয়ারল্যান্ড	-11.4074
▁মধুর	-11.4078
▁স্বাস্থ্যকর	-11.408
▁ক্যান্সারের	-11.4082
▁+	-11.4082
▁সহকর্মী	-11.4084
প্রিয়	-11.4089
▁সেজে	-11.4092
ভারতের	-11.4097
▁আসছি	-11.41
▁ঝুলে	-11.41
▁সংশয়	-11.4101
▁ধন	-11.4102
▁অন্তর্গত	-11.4103
▁ইয়াসির	-11.4103
▁দণ্ড	-11.4104
▁মূল্যবোধ	-11.4105
কান	-11.4105
▁মুদি	-11.4107
▁আশপাশে	-11.4107
▁সুখী	-11.4111
▁মৃতদের	-11.4112
▁লোগো	-11.4117
▁উপরের	-11.4119
▁গৃহকর্মী	-11.4119
▁দেশবাসীকে	-11.4127
▁জালালাবাদ	-11.4132
▁কয়েকজনকে	-11.4136
▁আরবি	-11.4136
▁টিভিতে	-11.4136
▁দাঁড়ানো	-11.4136
▁উনার	-11.4136
▁পলিসি	-11.4138
▁লায়ন	-11.414
▁খোন্দকার	-11.4141
▁সামলাতে	-11.4143
▁তথ্যমতে	-11.4144
▁পিপলস	-11.4144
▁সংবাদমাধ্যমকে	-11.4147
▁লঞ্চের	-11.4149
▁ভাইরাসটি	-11.415
▁উপাচার্যের	-11.4151
▁আরেকজন	-11.4153
▁খনি	-11.4153
▁বাকিরা	-11.4155
▁পরামর্শক	-11.4155
▁বাংলাদেশেও	-11.4158
▁উর্ধ্বত	-11.4161
▁তানিয়া	-11.4166
কাটা	-11.417
▁হাউসে	-11.4172
দিনাজপুর২৪	-11.4172
▁কার্ডের	-11.4176
কমিশনার	-11.4177
▁আদনান	-11.4177
▁পদ্ধতির	-11.4177
মায়ের	-11.4178
▁মালিককে	-11.4178
▁শচীন	-11.4179
▁পদপ্রার্থী	-11.4179
▁রাজ্যপাল	-11.4179
▁ক্যামেরায়	-11.4181
▁গ্যালাক্সি	-11.4182
▁স্মরণীয়	-11.4182
▁সারি	-11.4183
▁মহম্মদ	-11.4183
▁ঘটায়	-11.4184
▁খ্যাতি	-11.4185
▁রুমের	-11.4186
▁লালপুর	-11.4186
▁ডেল্টা	-11.4187
▁আলমডাঙ্গা	-11.4188
▁আফিফ	-11.419
▁অপকর্ম	-11.4193
ণা	-11.4193
▁লোকাল	-11.4197
▁সিট	-11.4198
▁ডিপার্টমেন্ট	-11.4199
লাখ	-11.4203
▁স্বীকারোক্তি	-11.4203
▁today	-11.4204
▁বসতঘর	-11.4205
▁সাথেই	-11.4206
▁অ্যালবাম	-11.4206
▁হোসেনসহ	-11.4207
▁চড়	-11.4209
সান	-11.4214
▁Desk	-11.4216
▁প্লাজা	-11.4217
▁রাতভর	-11.4218
▁খাদিজা	-11.4218
▁কোতোয়ালী	-11.4219
▁ধর্মাবলম্বীদের	-11.4219
ীদের	-11.422
▁ঘি	-11.4223
▁খুনি	-11.4225
▁মহাপরিদর্শক	-11.4225
▁গোপালপুর	-11.4227
▁২০০৩	-11.4228
▁জঙ্গলে	-11.423
▁একটানা	-11.4232
▁সুবর্ণজয়ন্তী	-11.4234
▁জঙ্গী	-11.424
▁ভাবছে	-11.424
▁হাজি	-11.4242
▁ফেরাতে	-11.4242
▁ধোঁয়া	-11.4243
▁ব্যাটিংয়ের	-11.4246
▁চুয়াডাঙ্গায়	-11.4246
▁আকারের	-11.4249
▁গ্র	-11.4254
▁বাপ্পী	-11.4254
▁বাইসাইকেল	-11.4254
▁ওয়াহিদ	-11.4256
▁ঠেলে	-11.4256
▁ব্যাটসম্যানদের	-11.4257
▁বিছানায়	-11.4258
▁চেয়েছিল	-11.4262
কন্যা	-11.4264
▁নিয়ন্ত্রনে	-11.4266
▁কনের	-11.4267
▁কৃষকলীগ	-11.4268
▁আবহে	-11.427
▁উপকৃত	-11.4271
▁লেভেল	-11.4274
র্ক	-11.4275
▁ইসির	-11.4277
▁ভাতিজা	-11.4277
▁মাদারীপুরের	-11.428
▁ভবিষ্যতের	-11.428
খালি	-11.4284
▁সুবিধার	-11.4289
▁দেখান	-11.4291
▁হাবীব	-11.4291
▁পারতেন	-11.4293
▁কারাবন্দি	-11.4293
▁চাকরিতে	-11.4295
▁ইনফরমেশন	-11.4295
▁চাকুরী	-11.4295
▁সমন্বয়কারী	-11.4295
▁বিহারের	-11.4296
▁নারায়ণ	-11.4298
▁ইসলামিয়া	-11.4299
▁থিয়েটার	-11.4301
▁জামায়াতে	-11.4306
▁মুসল্লি	-11.4307
▁জাদুঘর	-11.4309
▁বুদ্ধ	-11.431
▁হো	-11.4312
জ্ঞ	-11.4313
▁লাগা	-11.4314
উল্লাহ	-11.4315
▁মহাকাশে	-11.4317
▁আচরণের	-11.4317
▁চোরাচালান	-11.4318
থা	-11.432
▁অনুভূত	-11.4324
▁তৌফিক	-11.433
▁কমিউনিস্ট	-11.4331
▁কেঁপে	-11.4331
▁লোকসান	-11.4334
▁তৃণমূলে	-11.4334
▁এবি	-11.4338
U	-11.4339
▁হংকং	-11.4339
▁কর্মকাণ্ডে	-11.434
▁শিখতে	-11.434
▁ছাড়েন	-11.4346
জী	-11.4346
▁এক্সচেঞ্জের	-11.4348
সেই	-11.4349
▁প্যাক	-11.4349
▁সন্ত্রাসবাদ	-11.4349
▁উদ্যোক্তাদের	-11.4353
▁পরার	-11.4353
▁শিখা	-11.4353
▁অন্যান্যরা	-11.4353
▁শবে	-11.4358
▁খাদ্যমন্ত্রী	-11.436
▁লাউ	-11.436
▁ভালবাসা	-11.436
▁পরামর্শে	-11.436
▁যোগী	-11.4364
▁রসায়ন	-11.4365
▁উচ্ছ্বসিত	-11.4369
▁সর্দার	-11.4369
▁ইয়াছিন	-11.4369
▁জালিয়াতি	-11.4369
▁স্বয়ং	-11.4369
▁আহাম্মদ	-11.437
▁দারুন	-11.437
কল	-11.4373
▁আহমাদ	-11.4373
▁কামরান	-11.4373
▁খেলছেন	-11.4374
▁১৯৯৬	-11.4377
▁ঘটল	-11.4377
▁বয়	-11.4379
▁পরীক্ষামূলক	-11.4382
X	-11.4382
▁স্ট্রোক	-11.4384
▁কথাবার্তা	-11.4384
▁অস্থিরতা	-11.4384
▁ক্ষতিগ্রস্তদের	-11.4386
▁বলবে	-11.4388
el	-11.4389
▁কঠোরভাবে	-11.439
▁ফেয়ার	-11.439
নিউজবিডি	-11.4394
▁চৌধুরীকে	-11.4394
▁জিম	-11.4395
▁আসলেই	-11.4397
▁এইসব	-11.4403
▁খলিফা	-11.4404
▁যানজটের	-11.4407
▁ভারসাম্য	-11.4407
▁সাবমেরিন	-11.4408
▁উদ	-11.4408
▁সায়েম	-11.4408
▁ঘ	-11.441
▁দৈর্ঘ্য	-11.441
▁অতঃপর	-11.4411
▁লেবার	-11.4412
▁লিগ্যাল	-11.4413
উন	-11.4417
▁অনুপস্থিত	-11.4417
▁সারির	-11.4418
▁মোড়ল	-11.4418
মেইল	-11.4419
▁বাজি	-11.442
ঢামেক	-11.442
সার্বিক	-11.442
#	-11.4427
▁কামড়ে	-11.4429
সূত্র	-11.4429
▁পরিপূর্ণ	-11.4431
▁ধরেছেন	-11.4432
▁আরিয়ান	-11.4435
▁গোবিন্দগঞ্জ	-11.4437
▁ব্যানার্জি	-11.4441
খ্যাত	-11.4442
▁নির্বাচক	-11.4443
▁ঘোষণায়	-11.4444
▁Popular	-11.4447
▁সুশীল	-11.4448
▁চড়া	-11.4448
▁আবির	-11.4449
▁কাপাসিয়া	-11.4449
▁ইনশাআল্লাহ	-11.445
▁প্রকল্পটি	-11.445
▁আসাম	-11.445
▁ইউনিসেফ	-11.445
▁তরঙ্গ	-11.4453
▁পারাপার	-11.4461
সেল	-11.4462
ভাগ	-11.4464
▁ক্রু	-11.4464
▁পার্লামেন্টে	-11.4466
ya	-11.4468
▁প্রজাতন্ত্র	-11.4472
▁সিটিতে	-11.4474
▁মস্তিষ্ক	-11.4476
▁দক্ষতার	-11.4478
ation	-11.4482
ছড়ি	-11.4485
▁সাহার	-11.4486
▁Campus	-11.4486
▁Sunday	-11.4486
▁টুটুল	-11.4486
তলী	-11.4486
▁নির্ণয়	-11.4486
▁খোঁজখবর	-11.4487
▁কার্গো	-11.4488
▁বর্ণিত	-11.4488
▁ডিমের	-11.4488
ধরনের	-11.4489
ানো	-11.4491
ষ্ঠ	-11.4491
▁চোরাই	-11.4492
id	-11.4495
▁কপিল	-11.4497
▁রাষ্ট্রপক্ষের	-11.4499
িশ	-11.4499
▁হলি	-11.4499
নুর	-11.45
▁নানাভাবে	-11.4502
▁তারপরই	-11.4502
▁উইকেটরক্ষক	-11.4504
▁পার্লামেন্ট	-11.4505
▁পাচারকারী	-11.4505
▁থাকত	-11.4506
▁ইয়েমেনের	-11.4507
▁সাকিবকে	-11.4511
▁খোসা	-11.4513
▁শুটিংয়ের	-11.4515
!'	-11.4518
▁All	-11.4518
করা	-11.4518
▁স্ট্যান্ডার্ড	-11.4519
▁কর্মশালার	-11.4519
▁গোলাপ	-11.452
▁বসছে	-11.4521
বিদ	-11.4521
▁ঘোষের	-11.4521
▁ওয়াজ	-11.4522
▁দিনগত	-11.4524
▁ডেন্টাল	-11.4525
▁পাউডার	-11.4525
▁ধর্মপ্রাণ	-11.4525
▁কতটুকু	-11.4526
▁অংকে	-11.4527
ন্না	-11.4527
▁নিবন্ধিত	-11.4528
সেরা	-11.4529
▁আরিফুর	-11.4529
▁ববি	-11.4529
▁রক্তদান	-11.4532
▁গুলোতে	-11.4533
▁বিশেষত	-11.4536
Home	-11.4538
▁শিল্পীরা	-11.4541
▁মুল	-11.4545
▁১০১	-11.455
▁নিজেরাই	-11.4553
র্ন	-11.4553
▁সাগরের	-11.4554
▁হেরোইন	-11.4559
▁জাজ	-11.4561
▁ইকবালের	-11.4564
▁বিবেচিত	-11.4564
▁ঠিকঠাক	-11.4564
▁কর্ণধার	-11.4564
রিক	-11.4564
▁দ্বিপাক্ষিক	-11.4564
▁আপেল	-11.4566
▁মেঘলা	-11.4566
▁বাল্যবিবাহ	-11.4568
▁মুরগির	-11.4568
▁বয়ান	-11.4568
▁বিভক্ত	-11.4573
▁স্তর	-11.4575
▁সারাবাংলা	-11.4575
▁অপরাধীদের	-11.4576
▁মুরগি	-11.4576
▁বিরোধীদের	-11.4576
রাজশাহী	-11.4577
▁ডিএনএ	-11.4578
▁ঝুঁকির	-11.4579
▁প্রতিষ্ঠায়	-11.4581
▁একশ	-11.4583
▁১২৫	-11.4584
▁সৈন্য	-11.4584
▁কোয়ারেন্টিন	-11.4586
▁Nov	-11.4587
▁ত্রিশাল	-11.4587
▁অভিজ্ঞতার	-11.459
▁প্রযোজনায়	-11.4592
▁কোষ	-11.4594
▁কোর	-11.4594
W	-11.4595
▁আনছে	-11.4596
▁সেখানেও	-11.4598
▁ফিলিস্তিন	-11.46
▁যাত্রীকে	-11.4602
▁তোফাজ্জল	-11.4604
▁গড়লেন	-11.4604
▁কর্মকাণ্ডের	-11.4607
▁ছাড়াল	-11.4608
▁পার্কের	-11.4609
▁অধীন	-11.461
▁৫শ	-11.4611
▁যতদিন	-11.4611
▁মাত্রার	-11.4611
▁পঞ্চগড়ে	-11.4611
▁নীতির	-11.4611
▁মিনা	-11.4613
▁মঞ্জুরুল	-11.4613
৭১	-11.4614
মেয়ে	-11.4614
▁জীবিকা	-11.4615
▁হোন	-11.4615
▁দই	-11.4615
▁মহেশপুর	-11.4616
টাঙ্গাইল	-11.4617
আগামী	-11.4619
pm	-11.462
ভাব	-11.4621
▁জাপানে	-11.4624
▁একাউন্ট	-11.4625
▁কালীগঞ্জে	-11.4626
▁ভাড়াটিয়া	-11.4628
ak	-11.463
▁শিলিগুড়ি	-11.463
▁অসহায়দের	-11.4636
▁ছড়াচ্ছে	-11.4638
▁টয়লেট	-11.4639
▁শোনার	-11.4641
▁বাজেয়াপ্ত	-11.4643
▁রচিত	-11.4643
▁রেলমন্ত্রী	-11.4645
▁বোরহান	-11.4646
▁মুন্সীগঞ্জে	-11.4651
▁ইনস্টিটিউটে	-11.4651
▁সমতায়	-11.4655
▁অবস্থানের	-11.4657
লেস	-11.4659
▁আবাদ	-11.466
▁খাজা	-11.4664
▁মিশনে	-11.4665
থি	-11.4666
▁রাজাপুর	-11.4667
▁বাঁধে	-11.4667
▁ঝাঁপ	-11.4668
▁বেহাল	-11.4668
▁উল্লেখিত	-11.4672
▁গন	-11.4676
▁ওখানে	-11.4677
▁আলোচক	-11.4677
▁পথেই	-11.4678
▁ধস	-11.4678
▁গন্তব্যে	-11.468
▁হত্যাকাণ্ডে	-11.4681
▁গোয়াইনঘাট	-11.4681
▁Prothom	-11.4683
▁মজবুত	-11.4683
▁দ্বারস্থ	-11.4683
▁সারওয়ার	-11.4683
▁আচার্য	-11.4683
▁ইব্রাহীম	-11.4684
▁কওমি	-11.4685
▁ভুইয়া	-11.4685
▁সিমেন্ট	-11.4689
▁শব্দে	-11.4695
োন	-11.4696
বারের	-11.4698
▁বিভ্রান্ত	-11.4698
▁ব্রেক	-11.4701
▁অনলাইনের	-11.4702
▁হত্যাকান্ডের	-11.4702
▁পেঁপে	-11.4706
▁সংবাদে	-11.4706
▁মুস্তাফিজ	-11.4708
▁উবার	-11.4708
▁My	-11.4716
▁থাইল্যান্ডের	-11.4719
▁সীতাকুণ্ড	-11.472
▁জেলেরা	-11.472
খান	-11.4721
▁সন্দেহজনক	-11.4723
▁বেলুন	-11.4723
▁স্কুলছাত্রী	-11.4728
▁শার্ট	-11.4728
▁মেনন	-11.4733
▁ডেঙ্গুতে	-11.4739
▁জবি	-11.4744
▁৭ই	-11.4744
▁তীব্রতা	-11.4746
▁আঁকা	-11.4746
▁রহিমের	-11.4747
তথ্য	-11.4748
▁পিপিই	-11.4752
জের	-11.4755
দো	-11.4756
▁ঘাস	-11.4757
▁টিকিটের	-11.4758
▁অ্যাপস	-11.476
▁অপ্রীতিকর	-11.4762
▁বিলাসবহুল	-11.4762
▁গুরুত্বারোপ	-11.4762
▁নারকেল	-11.4763
▁শাজাহান	-11.4763
▁লক্ষ্মী	-11.4763
▁বাড়িয়েছে	-11.4763
▁সৈয়দা	-11.4764
▁ব্রিটেনে	-11.4764
▁অপমৃত্যু	-11.4765
▁Kagoj	-11.4765
▁জানুন	-11.4766
▁কদর	-11.4766
▁নির্বিশেষে	-11.4767
▁চক্রবর্তীর	-11.4769
▁বিশ্বকে	-11.4774
▁চেলসি	-11.4775
▁দেবার	-11.4776
▁কর্মক্ষেত্রে	-11.4777
ক্ষ	-11.4779
▁ভাইরাসটিতে	-11.4781
▁স্বচ্ছতা	-11.4784
▁বাক্স	-11.4786
▁কপালে	-11.4788
▁কাকে	-11.479
▁সবুজের	-11.4793
▁এটাকে	-11.4793
▁হ্যা	-11.4795
▁রেশন	-11.4795
▁মান্দা	-11.4798
▁দেবাশীষ	-11.4803
▁দ্বিপক্ষীয়	-11.4803
▁ইনজেকশন	-11.4803
▁আবিদ	-11.4803
▁ভোটাধিকার	-11.4803
▁টাইপ	-11.4803
▁সাশ্রয়ী	-11.4804
▁কালিয়াকৈর	-11.4805
▁Oct	-11.4806
▁কোমর	-11.4807
সির	-11.4808
▁সর	-11.4809
▁নাসের	-11.4813
▁মজিবর	-11.4814
▁রূপগঞ্জে	-11.4816
▁বৃদ্ধার	-11.4818
▁ক্যানসার	-11.4818
▁ফেলবে	-11.4819
co	-11.4821
টিভি	-11.4822
মারী	-11.4823
▁খা	-11.4823
▁থিম	-11.4824
▁রিয়ার	-11.4826
▁রয়টার্সের	-11.483
▁১০৫	-11.483
▁বালক	-11.4832
ডার	-11.4832
▁বুয়েটের	-11.4832
▁অঙ্গনে	-11.4833
▁মধ্যম	-11.4834
সরকার	-11.4835
▁আনাম	-11.4836
▁সংখ্যায়	-11.4837
▁শাশুড়ি	-11.4838
▁নরসিংদীতে	-11.4838
▁রেস্টুরেন্ট	-11.484
▁কমিশনে	-11.484
▁পৌঁছলে	-11.4841
▁ক্ষুধা	-11.4841
▁রয়্যাল	-11.4841
▁NTV	-11.4843
▁রক্ষণাবেক্ষণ	-11.4844
▁অন্যথায়	-11.4844
▁বিশ্বজিৎ	-11.4844
▁Author	-11.4845
▁ইলেকট্রিক	-11.4845
▁শিক্ষাবর্ষে	-11.4847
▁ভিত্তিহীন	-11.485
▁সুরক্ষায়	-11.4853
▁সীমাবদ্ধ	-11.4858
বগুড়া	-11.4859
▁আলীম	-11.4865
▁অগ্নিকাণ্ড	-11.4865
▁অবলম্বনে	-11.4868
▁মানুষেরা	-11.4868
▁খাইয়ে	-11.4869
কুমার	-11.487
▁ডিলার	-11.4871
গ্র	-11.4871
▁নভেম্বরের	-11.4872
▁রেলওয়ের	-11.4872
ঙ্গে	-11.4872
▁কর্মবিরতি	-11.4873
▁পিঠে	-11.4874
▁গুপ্ত	-11.4878
িয়	-11.4878
▁সেক্টরে	-11.4881
▁বটে	-11.4882
▁অগ্রণী	-11.4883
▁সুভাষ	-11.4883
▁Our	-11.4884
▁বান্ধবী	-11.4884
▁দোহার	-11.4884
▁আশাশুনি	-11.4885
▁সিদ্দিকুর	-11.4887
▁রায়কে	-11.4889
▁কমায়	-11.4891
▁পারলেন	-11.4891
▁হাওড়া	-11.4893
▁সংলাপে	-11.4896
▁পিএসজির	-11.4897
▁লাগানোর	-11.4901
▁উত্তরাঞ্চল	-11.4904
▁সিডনি	-11.4905
পদ	-11.4906
▁নম্বরের	-11.4906
চন্দ্র	-11.4909
▁আটককৃতদের	-11.4909
ল্যান্ড	-11.491
▁ফারুকী	-11.4911
▁ক্লাবটি	-11.4912
▁মহেশ	-11.4916
▁এমসি	-11.4918
▁ডেমোক্র্যাট	-11.4918
▁রশি	-11.492
▁ব্যালট	-11.4921
▁কন	-11.4923
▁কুশল	-11.4923
▁সুরতহাল	-11.4924
▁ইলেকট্রনিক্স	-11.4926
▁সয়াবিন	-11.4926
▁বিরামপুর	-11.4926
▁অন্ধকারে	-11.4926
will	-11.4927
▁বিধ্বংসী	-11.4928
N	-11.493
▁ব্যাংকগুলো	-11.4932
▁লেবাননে	-11.4934
▁সপরিবারে	-11.4939
্রতিষ্ঠাবার্ষিকী	-11.494
▁পুরস্কারের	-11.4944
▁পর্তুগাল	-11.4944
▁নেননি	-11.4946
▁সমাজকে	-11.4948
৯০	-11.4951
▁ফাল্গুন	-11.4954
▁প্রত্যাশী	-11.4957
▁ইডেন	-11.4958
▁মুন্সী	-11.4959
▁নবীনগর	-11.4962
▁ওয়ার্ক	-11.4963
▁অচেতন	-11.4965
▁ব্যতীত	-11.4965
▁হোয়াইটওয়াশ	-11.4965
▁অনুপ্রাণিত	-11.4965
▁উকিল	-11.4965
হারা	-11.4966
▁বদরুল	-11.4966
▁কীটনাশক	-11.4967
▁সারাবিশ্বে	-11.4967
▁আন্দোলনরত	-11.4968
ধেয়ে	-11.4969
▁উত্থাপন	-11.4969
▁উদ্ভিদ	-11.4969
▁বমি	-11.497
▁সিকিউরিটিজ	-11.4972
▁গেয়ে	-11.4974
▁লেন	-11.4974
▁নৈতিক	-11.4978
▁জানাযায়	-11.4978
▁জিডিপি	-11.4979
বির	-11.498
দিনাজপুর	-11.498
▁দশা	-11.4981
▁আমিনুর	-11.4982
▁সাঁতার	-11.4984
▁বিআরটিএ	-11.4985
▁ফে	-11.4987
▁উদ্যোগের	-11.4987
▁সতীর্থ	-11.4988
▁বিকৃত	-11.4989
▁ইনজুরিতে	-11.4989
▁ব্যাক্তি	-11.4994
▁প্রস্তুতির	-11.4996
▁সুমি	-11.4997
▁নাসার	-11.4998
▁রায়গঞ্জ	-11.4998
▁গতিশীল	-11.4999
নোর	-11.5
পাতা	-11.5001
▁পরিশোধের	-11.5002
নির্বাচনে	-11.5003
▁মারার	-11.5004
▁নৌপরিবহন	-11.5004
▁প্লেয়ার	-11.5006
▁পাটকল	-11.5006
্ল	-11.5007
▁ঠিকমতো	-11.5008
▁লাভবান	-11.5008
▁আচার	-11.5008
▁অর্থে	-11.5009
▁মিলার	-11.5009
▁রাবেয়া	-11.5012
▁সপ্তাহেই	-11.5016
▁সৈয়দপুরে	-11.5017
▁ফু	-11.5019
▁সবসময়ই	-11.5019
▁রাষ্ট্রপক্ষে	-11.5021
▁নান্দাইল	-11.5022
▁সেশন	-11.5023
▁চ্যাম্পিয়নশিপের	-11.5026
নাল	-11.5029
▁কমলাপুর	-11.5032
▁পারত	-11.5034
▁বাবুর	-11.5035
পের	-11.5036
▁সোনাগাজী	-11.5037
▁ধরেছে	-11.5038
▁শটে	-11.5038
▁গজারিয়া	-11.504
নির্বাচন	-11.504
কন	-11.5041
▁শিক্ষায়	-11.5042
▁শ্যুটিং	-11.5043
▁e	-11.5043
▁চাষে	-11.5043
▁নাচের	-11.5045
▁গফুর	-11.5047
▁দেখিয়েছে	-11.5047
▁নিদর্শন	-11.5047
▁কনভেনশন	-11.5047
▁দণ্ডপ্রাপ্ত	-11.5047
▁অ্যাপে	-11.5048
▁চেইন	-11.5049
▁বৃন্দ	-11.505
▁মাছটি	-11.505
▁আজারবাইজান	-11.5051
▁তরমুজ	-11.5052
▁হবো	-11.5053
▁ফেল	-11.5055
▁চু	-11.5055
▁পুতুল	-11.5055
▁আম্পায়ার	-11.5056
▁চ্যান্সেলর	-11.506
▁খালে	-11.5063
পুকুর	-11.5063
▁সুবর্ণ	-11.5067
▁আচমকা	-11.5067
যান	-11.5071
▁সাইদ	-11.5071
▁৮ম	-11.5071
াতে	-11.5072
▁সিরিয়াল	-11.5072
▁ঠিকানায়	-11.5075
▁চারদিকে	-11.5076
িতা	-11.5077
la	-11.508
▁বয়সি	-11.508
▁শর্মার	-11.5085
▁Crime	-11.5088
▁ভু	-11.509
▁এরপরও	-11.5091
▁বরেণ্য	-11.5093
▁মোহা	-11.5095
জির	-11.5096
▁ধোয়া	-11.51
▁বিজ্ঞানীদের	-11.5105
উপাচার্য	-11.5106
বিদেশি	-11.5108
▁বলেননি	-11.511
▁জাপানি	-11.5112
▁অধিনায়কত্ব	-11.5112
▁সিলেটভিউ	-11.5113
▁লালমোহন	-11.5117
▁রুহ	-11.5117
▁ত্যাগের	-11.512
▁হাইস্কুল	-11.5121
▁টুকু	-11.5121
▁পিপি	-11.5122
▁কাজটা	-11.5124
▁মানুষজন	-11.5126
▁সবজির	-11.5128
▁টেলিফোন	-11.5129
▁সুপারভাইজার	-11.513
▁ঠাঁই	-11.513
▁মোস্তাফা	-11.513
▁এলোপাতাড়ি	-11.513
▁ভয়ভীতি	-11.513
▁কাশিমপুর	-11.513
▁চেনা	-11.513
আইএস	-11.5131
▁দখলদার	-11.5131
▁হারালেন	-11.5132
অ্যাস্ট্রাজেনেকা	-11.5133
▁ধুনট	-11.5134
▁দেখবে	-11.5135
▁গোলাপি	-11.5135
▁বলবো	-11.5136
▁চিন্তার	-11.5138
▁সেশনে	-11.5138
te	-11.514
▁জ্বলে	-11.5144
▁মালদা	-11.5144
▁মন্ত্রিসভায়	-11.5145
▁কনে	-11.5147
▁খেলোয়াড়ের	-11.515
রবিবার	-11.5154
▁অনার	-11.5157
▁জাতিকে	-11.5157
▁গে	-11.516
▁ক্যাডার	-11.5161
▁শপিংমল	-11.5166
▁রানেই	-11.5167
▁এমপির	-11.517
▁বুস্টার	-11.5172
▁দুরন্ত	-11.5172
▁সার্জেন্ট	-11.5173
▁উম্মে	-11.5173
▁ক্যা	-11.5174
▁ব্রণ	-11.5174
▁প্রার্থিতা	-11.5175
▁মাহাবুব	-11.5176
ন্দা	-11.5176
▁বইছে	-11.5179
▁আমরাও	-11.518
য়ো	-11.5181
▁গোপালগঞ্জে	-11.5181
▁অতিথিরা	-11.5184
▁খাবারে	-11.5185
▁মাসুদু	-11.519
▁হব	-11.5191
গঞ্জে	-11.5191
▁শিক্ষাগত	-11.5193
▁ইসলামাবাদ	-11.5193
▁ক্ষয়	-11.5194
▁নেপালে	-11.5195
পথে	-11.5196
ত্ত	-11.5196
▁দেবো	-11.5204
▁কালী	-11.5205
▁ইন্ডাস্ট্রির	-11.5207
▁যথা	-11.5209
▁নাটকটির	-11.5212
▁কার্যদিবস	-11.5212
▁নামানো	-11.5212
▁সবারই	-11.5213
▁বরুণ	-11.5213
▁খেটে	-11.5215
▁সামিল	-11.5215
▁ছাত্রকে	-11.5216
▁শ্যাম	-11.5217
▁রাঙামাটিতে	-11.5217
্র	-11.5217
▁কর্তন	-11.5218
▁চাউল	-11.5225
▁১লা	-11.5228
▁ওয়েবসাইটের	-11.5232
▁Desh	-11.5237
টেন	-11.5237
▁ট্রেডিং	-11.5237
▁দামের	-11.524
ত্যু	-11.5243
▁হংকংয়ে	-11.5248
▁শরীফের	-11.5248
রণ	-11.5251
▁ক্যাশ	-11.5251
▁অনুষ্ঠ	-11.5253
▁আমদানির	-11.5253
▁সামগ্রিক	-11.5254
▁বহুমুখী	-11.5254
▁বললেই	-11.5254
▁this	-11.5255
▁অনুষ্টিত	-11.5255
▁স্থপতি	-11.5255
▁দেখলাম	-11.5255
▁বাস্তবায়িত	-11.5255
রান	-11.5256
▁অনাদায়	-11.5257
▁নেটিজেনদের	-11.5257
▁বেক্সিমকো	-11.5258
▁পাইকগাছা	-11.5258
▁দুবার	-11.5258
▁পরিকল্পিতভাবে	-11.5258
▁হাঁটতে	-11.5259
▁ইঁদুর	-11.526
▁২৫টি	-11.526
▁ভিজিট	-11.526
▁পল্লবী	-11.5261
▁অপব্যবহার	-11.5262
▁লোকালয়	-11.5263
▁গণ্য	-11.5263
▁আগামি	-11.5264
▁সংক্রমণে	-11.5267
▁সবকটি	-11.5268
রুল	-11.5269
▁মৌসুমি	-11.527
▁স্ক্যান	-11.5272
▁পো	-11.5276
▁তলার	-11.5277
▁ফ্রিজ	-11.5277
অপারেশন	-11.5277
▁সমমান	-11.528
▁চিন্তায়	-11.5281
▁দুর্বলতা	-11.5281
লাইন	-11.5281
▁জাপা	-11.5282
▁কয়েকশ	-11.5282
▁আমেজ	-11.5286
▁খুলছে	-11.5291
▁ছবিগুলো	-11.5293
▁থমকে	-11.5297
▁পুরস্কৃত	-11.5297
▁আদমদীঘি	-11.5297
▁আশ্বস্ত	-11.5297
▁ফজর	-11.5297
▁পড়বেন	-11.5298
▁ইয়াকুব	-11.5298
▁অমানবিক	-11.5298
▁খালের	-11.5298
▁এন্টারপ্রাইজ	-11.5298
▁বিলীন	-11.5298
▁শ্বশুরবাড়ি	-11.5299
▁প্রাপ্তি	-11.5301
▁কেএম	-11.5304
▁হাউজে	-11.5304
▁লঙ্ঘনের	-11.5307
▁বিবাদ	-11.5307
▁গ্রামীণফোন	-11.5309
▁আফতাব	-11.5312
৮টি	-11.5313
৬২	-11.5314
▁অপ	-11.5316
▁চাননি	-11.5317
সম্পাদনা	-11.5317
▁গেইট	-11.5318
▁অলিম্পিকে	-11.5325
▁ডিজাইনার	-11.5325
▁২জন	-11.5325
▁কষ্টের	-11.5327
▁রিক্সা	-11.5328
▁নীরব	-11.5328
▁ভ্যারিয়েন্ট	-11.5329
▁পুনরুদ্ধার	-11.5329
▁কথাগুলো	-11.5333
▁ট্যাংক	-11.5334
▁পটিয়া	-11.5338
▁ফুটপাত	-11.5338
ten	-11.5339
▁অতর্কিত	-11.534
▁শাহনাজ	-11.534
▁শোকাহত	-11.534
▁শবনম	-11.5341
▁কাটাচ্ছেন	-11.5342
▁জাত	-11.5343
▁পরিকল্পিত	-11.5344
▁রাজস্থানের	-11.5347
▁উত্তেজনার	-11.5347
▁৬নং	-11.5348
▁ধৈর্য	-11.5349
▁নগরে	-11.5352
▁স্ট্রিট	-11.5353
▁পাঁচজনের	-11.5354
▁পরীমণি	-11.5355
▁আন্ত	-11.5355
▁Tags	-11.5356
▁বডি	-11.5359
us	-11.5361
▁লালমনিরহাটে	-11.5363
কক্সবাজার	-11.5367
▁নেওয়াজ	-11.5369
▁ইনু	-11.5375
▁বাংলাদেশিরা	-11.5375
▁উদ্যান	-11.5377
▁তুলনামূলক	-11.5381
▁সওদাগর	-11.5382
▁হেলমেট	-11.5382
▁বড়সড়	-11.5382
▁সাক্ষ্যগ্রহণ	-11.5383
▁দলগুলোর	-11.5383
▁হাসনাত	-11.5383
▁চৌরাস্তা	-11.5384
▁উন্নয়নশীল	-11.5386
▁পণ্যবাহী	-11.5386
▁অনুসন্ধানে	-11.5387
▁ব্যাপারটা	-11.5388
▁মেশিনে	-11.5389
▁বিভিন্নভাবে	-11.5389
▁বিবরণ	-11.539
▁Cox	-11.5391
▁নরম	-11.5392
▁উদ্বোধনের	-11.5392
▁রাহাত	-11.5392
V	-11.5392
▁৭ম	-11.5395
▁আমল	-11.5398
▁মিনিটেই	-11.54
▁মহল্লার	-11.5401
পন	-11.5403
ভাতা	-11.5405
▁ছবিও	-11.5406
▁সুগার	-11.5408
▁ধানমন্ডির	-11.5409
▁কিমি	-11.5411
স্বজন	-11.5417
▁নিধন	-11.5417
▁দামুড়হুদা	-11.542
▁অনুপ্রবেশ	-11.5424
▁কার্টুন	-11.5425
▁কতিপয়	-11.5425
▁আখ্যায়িত	-11.5425
▁সুবিধাবঞ্চিত	-11.5426
▁দমনে	-11.5426
▁উখিয়ার	-11.5427
▁ঘৃণা	-11.5429
▁দেখাবে	-11.5429
▁ছেলেরা	-11.5433
▁তরুন	-11.5436
াত	-11.5436
▁সৌজন্যে	-11.5436
▁দাঁড়িয়েছেন	-11.5436
▁বস্তি	-11.5444
▁N	-11.5445
সংবাদ	-11.5448
▁নারাজ	-11.5448
▁চালালে	-11.545
লায়	-11.5452
▁post	-11.5452
▁দলগুলো	-11.5456
▁ইন্দোনেশিয়া	-11.546
েয়	-11.5461
▁জহুর	-11.5463
ধারী	-11.5464
োস	-11.5464
▁f	-11.5467
▁লোভ	-11.5469
▁রান্নার	-11.5469
▁মেদ	-11.5471
▁দিতেই	-11.5471
▁আক্তারকে	-11.5476
▁লু	-11.5478
▁ইন্ডাস্ট্রিজ	-11.5481
ডু	-11.5481
প্রতিষ্ঠানে	-11.5482
▁ঘটাতে	-11.5483
▁Dec	-11.5485
sh	-11.5493
▁বিলম্ব	-11.5493
বাবার	-11.5497
▁আর্ট	-11.55
▁সুফিয়ান	-11.5504
▁চ্যানেলের	-11.5505
ীয়া	-11.5505
▁শিয়া	-11.5507
▁থাবা	-11.5509
মিউচ্যুয়াল	-11.5511
▁রাব্বী	-11.5511
▁দূষিত	-11.5511
▁আনীত	-11.5511
▁জামিয়া	-11.5512
▁দুর্গম	-11.5512
▁ছন্দে	-11.5513
▁নেটিজেনরা	-11.5514
ঙ্ক	-11.5516
▁এমতাবস্থায়	-11.5516
▁শ্রমিককে	-11.5516
▁গ্রেপ্তারকৃত	-11.5517
▁সোনালি	-11.5517
▁দিপু	-11.5518
▁রুটের	-11.5518
▁পলাশবাড়ী	-11.5519
ডো	-11.552
▁মধ্যবিত্ত	-11.552
▁গণি	-11.5522
▁ইলিশের	-11.5526
▁ইবি	-11.5527
▁পতনের	-11.5529
▁স্বাগতিকরা	-11.553
▁উষ্ণ	-11.5534
দেব	-11.5539
▁আজগর	-11.5539
▁বাঙালী	-11.5542
বিজ্ঞান	-11.5544
মাল	-11.5549
▁মিড	-11.555
▁শিবগঞ্জে	-11.5552
▁রীতিমত	-11.5553
▁ইউনুছ	-11.5554
▁দিশেহারা	-11.5554
▁বেনজীর	-11.5554
▁হানাদার	-11.5555
▁বরকত	-11.5557
▁১৪২৯	-11.5557
▁রাজাকার	-11.5559
▁ইতালিয়ান	-11.556
মেন	-11.5561
▁ফাটল	-11.5561
▁পাঁচজনকে	-11.5564
টাকা	-11.5565
▁For	-11.5566
▁স্পেনে	-11.5568
▁গোবিন্দ	-11.5568
▁কর্তব্য	-11.5569
▁হাওরে	-11.5569
▁তিশা	-11.557
▁ভোগান্তিতে	-11.5572
▁হরি	-11.5573
▁বলেছিল	-11.5575
▁যুবকদের	-11.5576
▁স্থায়ীভাবে	-11.5577
▁উন	-11.5579
▁কালা	-11.558
▁রেস্টুরেন্টে	-11.5583
▁ব্য	-11.5584
▁কিশোরকে	-11.5584
▁জামালপুরে	-11.5588
▁জুভেন্টাস	-11.5588
▁সঙ্গ	-11.559
▁ঢোকার	-11.559
▁বেতনের	-11.5591
▁রাণী	-11.5592
▁আন্দ্রে	-11.5592
▁টেলি	-11.5593
মুখ	-11.5593
▁রাজন	-11.5594
পাক	-11.5594
▁উৎপাদনকারী	-11.5595
▁কুর্মিটোলা	-11.5598
▁হেনস্থা	-11.5598
▁শ্যাম্পু	-11.5599
▁হিজাব	-11.56
▁ফেললেন	-11.5601
▁ঝাঁপিয়ে	-11.5601
▁মার্টিন	-11.5601
সশ্রম	-11.5602
▁এমরান	-11.5602
▁নিবে	-11.5603
▁ফরিদা	-11.5605
▁গায়িকা	-11.5605
▁রয়েছি	-11.5606
▁আলা	-11.5607
▁উদ্ধৃতি	-11.5608
▁গর্ভে	-11.5609
তন	-11.5609
▁মমিন	-11.5615
▁চলচ্চিত্রটি	-11.5617
▁ব্রা	-11.562
um	-11.5621
▁চাবি	-11.5621
▁মাহে	-11.5622
▁রাইডার্স	-11.5623
▁ডাক্তাররা	-11.5623
▁অর্থদণ্ড	-11.5624
▁ছুঁড়ে	-11.5627
▁করুণ	-11.5628
▁আড়াইহাজার	-11.5628
▁মরে	-11.5629
▁অভিভাবকরা	-11.563
▁নাইম	-11.5632
▁রাশিয়ান	-11.5633
বুক	-11.5633
▁হারাম	-11.5634
▁বুথে	-11.5638
▁শিবপুর	-11.5639
▁মাত্রই	-11.5639
▁চরফ্যাশন	-11.564
▁তৌহিদুল	-11.5641
▁চৈত্র	-11.5642
▁তল্লাশী	-11.5642
▁ফিরতি	-11.5642
▁খোলামেলা	-11.5642
▁স্রোত	-11.5643
▁রজব	-11.5643
▁গম্ভীর	-11.5644
▁এরপরেই	-11.5646
▁মোবাইলের	-11.5647
▁বাংলাবাজার	-11.5649
▁মিশে	-11.565
▁ছাপিয়ে	-11.5651
▁হ্যায়	-11.5651
▁ঐক্যের	-11.5651
▁মেগাপিক্সেল	-11.5655
▁নির্যাতিতা	-11.566
▁নিজেরা	-11.5663
▁ভিসার	-11.5664
▁আমু	-11.5666
▁এদেশে	-11.5666
▁হামজা	-11.5669
▁it	-11.5669
▁সেচ	-11.567
▁ইস	-11.5673
য়েন	-11.5676
িও	-11.568
▁দাওয়াত	-11.568
▁খেলছে	-11.5681
▁অকাল	-11.5681
▁জীবনকে	-11.5681
▁মহাখালী	-11.5683
▁মোকাররম	-11.5683
▁আত্রাই	-11.5685
▁অবকাশ	-11.5686
▁একইসাথে	-11.5687
▁উইং	-11.5688
▁চুপ	-11.5691
▁ফরিদুল	-11.5694
▁জাতিসংঘে	-11.5695
▁সেগুলোর	-11.5695
▁ফ্যানের	-11.5697
▁সিংয়ের	-11.5698
▁আয়োজকরা	-11.5702
▁মাহমুদুর	-11.5703
▁মূলধন	-11.5703
▁রুপ	-11.5704
▁আফরোজা	-11.5706
▁প্লাস্টিকের	-11.5706
▁নিউইয়র্কের	-11.5708
▁কয়েন	-11.5708
▁স্তন	-11.5708
▁জকিগঞ্জ	-11.571
▁প্রদর্শ	-11.5712
লেট	-11.5713
▁গর্ত	-11.5713
ফে	-11.5718
▁ডাচ	-11.5722
▁রোমান্টিক	-11.5723
▁তারিখঃ	-11.5724
▁টপকে	-11.5726
▁Sep	-11.5727
▁ক্রস	-11.5727
▁সানিয়া	-11.5727
▁তাৎক্ষনিক	-11.5729
▁অর্গানাইজেশন	-11.573
সময়	-11.573
▁অনিচ্ছুক	-11.5731
▁আর্ন্তজাতিক	-11.5731
▁অধীর	-11.5733
▁আয়রন	-11.5734
▁জার্মানিতে	-11.5734
▁দুর্যোগে	-11.5735
▁গুহ	-11.5737
ma	-11.5738
▁পঞ্চাশ	-11.5738
▁পূর্বক	-11.5739
বাজারে	-11.5742
▁বিজিএমইএ	-11.5743
▁রশিদের	-11.5745
সিটি	-11.5748
▁থাই	-11.5752
এবং	-11.5753
▁মোটেই	-11.5756
পিএম	-11.5758
▁ভরাট	-11.5758
▁১২৮	-11.5758
▁স্থানীয়ভাবে	-11.5759
▁কমিশনারের	-11.5759
▁খেলাধুলার	-11.576
▁লঙ্কান	-11.5762
▁গোদাগাড়ী	-11.5766
▁ইউজার	-11.5767
▁উই	-11.5769
আইপিএল	-11.5771
▁ঝরে	-11.5774
▁পিঁড়িতে	-11.5774
▁অভিজাত	-11.5774
▁বর্মন	-11.5774
▁আদৌ	-11.5774
▁চ্যালেঞ্জার্স	-11.5775
▁বেলকুচি	-11.5775
▁ক্রিশ্চিয়ানো	-11.5776
▁এডুকেশন	-11.5777
▁blog	-11.5777
▁মিলি	-11.5778
▁মেনেই	-11.5778
▁দেখাচ্ছে	-11.5779
▁গোপনীয়তা	-11.578
▁প্রান্তিকে	-11.5782
▁জুড়ী	-11.5782
▁উপচে	-11.5784
▁স্পোর্টিং	-11.5786
▁Tech	-11.5787
▁জামাতে	-11.5787
▁রেহানা	-11.5788
▁L	-11.5789
হাই	-11.5789
▁অজি	-11.5794
▁নৌরুটে	-11.5795
▁নেমেছেন	-11.5796
▁স্বচ্ছ	-11.5801
▁হীরা	-11.5805
▁বিপর্যয়ের	-11.5805
মিডিয়া	-11.581
▁সুইজারল্যান্ড	-11.5811
▁শ্রেনীর	-11.5813
▁দুঃস্থ	-11.5813
▁মিথ্যাচার	-11.5817
▁পেঁচিয়ে	-11.5818
▁ওয়াদুদ	-11.5818
▁Apr	-11.5818
▁সজাগ	-11.5818
▁থাকব	-11.5819
▁বসুরহাট	-11.5819
▁মিশ্রণ	-11.5819
▁চিংড়ি	-11.5819
▁সংক্রমন	-11.582
ন্ডা	-11.5823
▁শিল্পা	-11.5824
▁পোষণ	-11.5825
▁৩৭০	-11.5825
▁শাহজাদপুর	-11.5828
▁এরপরে	-11.583
▁ইমেইল	-11.583
▁তৈয়ব	-11.5832
▁বন্ধনে	-11.5832
▁প্রেক্ষাগৃহে	-11.5833
▁সিদ্ধার্থ	-11.5833
▁নবায়ন	-11.5833
▁বক্সে	-11.5833
▁অভিবাসীদের	-11.5834
▁মালদ্বীপের	-11.5836
▁ডেট	-11.5839
▁শারীরিকভাবে	-11.5841
▁ঘাঁটিতে	-11.5841
াদি	-11.5844
▁বাইরেও	-11.5844
▁Pro	-11.5844
শার	-11.5846
▁বিকাশে	-11.5846
▁ইন্ডাস্ট্রি	-11.5847
▁অনুসারী	-11.5848
▁নন্দীগ্রাম	-11.5849
▁প্লাটফর্ম	-11.5849
▁পাপ	-11.5851
▁ফ্লোরিডা	-11.5854
▁সম্পাদন	-11.5861
▁বিশুদ্ধ	-11.5862
বর্তমান	-11.5863
▁প্রিন্সিপাল	-11.5863
▁মানহানি	-11.5863
▁ঊর্ধ্বমুখী	-11.5863
▁বেইজিং	-11.5864
▁সমসাময়িক	-11.5865
▁সিগন্যাল	-11.5866
▁বলুন	-11.5866
ক্র	-11.5868
▁উপসচিব	-11.5871
▁সেতুতে	-11.5871
▁উগ্র	-11.5873
খানা	-11.5874
▁হরিণ	-11.5874
▁স্নান	-11.5875
লাই	-11.5875
শিক্ষক	-11.5876
▁প্রতিষ্ঠানগুলোর	-11.5877
লাভ	-11.5877
▁ঘটলে	-11.5877
▁রেশ	-11.5878
▁কমিটিকে	-11.588
▁শ্রীলংকার	-11.5881
▁মুদ্রায়	-11.5882
▁২০০২	-11.5882
▁সায়	-11.5887
▁দিরাই	-11.5896
▁অংশীদার	-11.5898
▁জৈব	-11.5904
▁বেআইনি	-11.5905
▁পাম্প	-11.5906
▁ব্যাবহার	-11.5908
▁জমকালো	-11.5908
▁পরিবর্তিত	-11.5908
▁স্থগিতাদেশ	-11.5908
▁ঘুমাতে	-11.5908
▁দিলাম	-11.591
স্ব	-11.591
▁ধাওয়ান	-11.591
▁জাহানারা	-11.5912
▁রিং	-11.5913
▁চৌদ্দগ্রাম	-11.5915
▁ঝলক	-11.5922
▁পাগলা	-11.5925
▁জটিলতায়	-11.5928
▁মাহির	-11.5932
ER	-11.5932
ঢাবি	-11.5932
▁মিডিয়াতে	-11.5934
▁স্বরূপ	-11.5936
এবার	-11.5939
un	-11.5943
▁মধ্যপ্রাচ্য	-11.5946
চু	-11.5947
▁পোপ	-11.5949
▁১৯টি	-11.595
▁জুনের	-11.5951
▁জয়নুল	-11.5953
▁জমজমাট	-11.5953
▁সমাজসেবক	-11.5953
▁সরস্বতী	-11.5954
▁পলি	-11.5955
রায়	-11.5956
▁ঘাটাইল	-11.5956
▁যান্ত্রিক	-11.5957
▁ভাগে	-11.5957
▁আত্মবিশ্বাসী	-11.5958
▁ডুমুরিয়া	-11.5958
▁কলহের	-11.5961
সেবা	-11.5966
▁অস্থিতিশীল	-11.5969
▁প্রদর্শনের	-11.5972
▁মাত্রায়	-11.5974
বেল	-11.5974
▁শাহের	-11.5976
▁ভেন্যু	-11.5978
▁গোয়ালন্দ	-11.5979
▁কৌশলগত	-11.5982
▁স্ট্যাটাসে	-11.5985
▁পঞ্চায়েতের	-11.5985
▁গণপিটুনি	-11.5985
▁আবেদনপত্র	-11.5986
▁বিষয়টিকে	-11.5988
▁কল্যান	-11.599
▁উসমান	-11.599
▁রিটার্ন	-11.5993
▁রাজ্জাকের	-11.5993
▁বাঁকুড়া	-11.5994
কাঙ্ক্ষিত	-11.5995
▁সবুর	-11.5996
েন্দ্র	-11.5997
▁bdsaradin	-11.5998
▁অস্বীকৃতি	-11.5998
▁পথিকৃৎ	-11.5998
▁খুরশীদ	-11.5998
▁মেমোরিয়াল	-11.5998
▁বেধড়ক	-11.5998
▁হাতীবান্ধা	-11.5999
▁বিয়ার	-11.5999
▁দণ্ডিত	-11.6
▁ছাড়লেন	-11.6001
▁মুকুট	-11.6002
▁মদের	-11.6003
▁ইরাকে	-11.6004
নীতি	-11.6007
গঠিত	-11.6007
▁লিটনের	-11.6008
▁সাইড	-11.6009
▁উমর	-11.6011
▁কাগজে	-11.6011
▁শিল্পমন্ত্রী	-11.6011
▁জেতা	-11.6011
▁সৌদিতে	-11.6012
▁এনেছেন	-11.6012
▁ছড়াতে	-11.6014
▁ফেস	-11.6015
▁বরগুনায়	-11.6022
▁দিলেই	-11.6024
যার	-11.6034
▁আইকন	-11.6036
▁সুস্থ্য	-11.6037
নিষেধ	-11.6039
▁দাঁড়াবে	-11.604
▁উঠলে	-11.604
কাশি	-11.6041
▁মুহূর্তেই	-11.6043
▁ভ্লাদিমির	-11.6043
▁সুবিধার্থে	-11.6043
▁ইনভেস্টিগেশন	-11.6044
▁বিপাশা	-11.6045
▁বললেও	-11.6046
▁কুক	-11.6047
▁ভরপুর	-11.6048
▁বড়ো	-11.6049
▁মাউন্ট	-11.605
▁বাড়িটি	-11.605
▁প্রেরন	-11.6052
▁ফেরান	-11.6053
▁কালু	-11.6054
▁শব্দটি	-11.6055
▁পুনঃ	-11.6055
▁ডিজি	-11.6057
▁কর্মকর্তাবৃন্দ	-11.6058
▁শ্যামলী	-11.6059
▁ব্রিগেড	-11.6059
্ড	-11.606
OR	-11.6061
▁স্ট্যান্ড	-11.6064
স্ত্রীর	-11.6066
▁not	-11.6068
▁মুক্তা	-11.6068
পরিচয়	-11.6069
▁বাঘের	-11.6072
ছাত্রী	-11.6072
▁জানাল	-11.6072
জিত	-11.6073
▁দাড়ি	-11.6075
▁তরুণের	-11.6079
▁লিপি	-11.6081
▁চট্রগ্রাম	-11.6083
▁দোষীদ	-11.6083
▁কালিহাতী	-11.6084
▁রাস্তাটি	-11.6084
▁পাঁচটা	-11.6085
▁কর্মস্থল	-11.6087
▁ফিফটি	-11.6088
▁রব্বানী	-11.6089
▁ইনডেক্স	-11.6089
▁পথিমধ্যে	-11.6089
▁ট্রাস্টি	-11.6089
▁hours	-11.6089
▁সালাহউদ্দিন	-11.6089
▁সনদপত্র	-11.6091
▁কিউ	-11.6091
▁উঠিয়ে	-11.6094
▁হায়দরাবাদের	-11.6095
▁গুন	-11.6097
▁প্রতিবন্ধকতা	-11.6098
▁বো	-11.61
দুর	-11.61
▁মিসবাহ	-11.61
▁ফুলে	-11.6101
▁বিশ্বব্যাংক	-11.6105
▁ফিরছে	-11.6111
▁আসমা	-11.6115
▁উপস্থাপনা	-11.6119
যদি	-11.6119
▁নিবেন	-11.612
▁বুড়িচং	-11.6124
▁চারদিন	-11.6124
▁বিশ্লেষণে	-11.6134
▁দিদার	-11.6134
▁খাইরুল	-11.6135
▁আসবাবপত্র	-11.6135
▁Bhorer	-11.6135
▁লেক	-11.6136
▁দুরত্ব	-11.6136
▁মাইনুল	-11.6136
ন্স	-11.6137
▁English	-11.6137
▁ভূমিহীন	-11.6137
▁ভ্রমণে	-11.6139
▁ক্রিম	-11.6139
▁বেগ	-11.614
▁পাঞ্জাবের	-11.6145
▁শুক্র	-11.6146
দলের	-11.6148
▁জগৎ	-11.6148
▁বজ্রসহ	-11.615
▁সবকিছুই	-11.615
▁একাদশের	-11.6151
▁রোগীরা	-11.6152
▁মোদিকে	-11.6153
▁মঞ্জু	-11.6153
▁মুসলমানরা	-11.6154
▁চালাচ্ছেন	-11.6156
▁এটাও	-11.6158
▁লাগান	-11.6158
ভাঙ্গা	-11.6162
▁চিকিৎসকেরা	-11.6162
▁প্রোফাইল	-11.6163
▁১৪৪১	-11.6167
▁জলপাইগুড়ি	-11.6173
▁প্রযুক্তিগত	-11.6174
▁অপসারণের	-11.6176
▁পুঠিয়া	-11.6177
▁আবুধাবি	-11.6177
জামায়াত	-11.6178
▁যথাসময়ে	-11.6181
▁জসীম	-11.6181
▁তামান্না	-11.6182
▁Rajshahi	-11.6182
▁দাঁড়ালেন	-11.6183
▁খতিব	-11.6183
▁ছাতকে	-11.6184
▁নৃশংস	-11.6187
▁পূর্বাঞ্চল	-11.6189
বী	-11.6189
▁জেলেকে	-11.6189
▁৩৫০	-11.6192
▁ভিক্টোরিয়া	-11.6193
▁বান্ধব	-11.6193
▁হরিপুর	-11.6194
▁জ্বালা	-11.6195
▁মানুষই	-11.6195
▁এসিড	-11.6196
▁ডোজের	-11.6197
▁হর	-11.6198
▁আবর্জনা	-11.6199
▁মহারাষ্ট্রের	-11.62
▁কাবুল	-11.6202
▁১টায়	-11.6203
▁আত	-11.6206
▁নার্সিং	-11.6208
▁নিরসন	-11.6208
এপ্রিল	-11.6208
▁মিন্নি	-11.6209
▁নিই	-11.6211
▁জোরে	-11.6213
▁অপরকে	-11.6215
▁লরি	-11.6215
▁আনবে	-11.6215
▁তাণ্ডবে	-11.6216
▁স্মার্টফোনে	-11.6218
সিন	-11.6219
▁থাইল্যান্ড	-11.6222
ীত	-11.6223
▁প্রাণীর	-11.6223
▁প্রতিনিধিদল	-11.6226
▁জনই	-11.6227
▁রোকন	-11.6228
▁আলোয়	-11.6228
▁বন্যার্ত	-11.6228
▁আর্জি	-11.6229
▁ব্যাথা	-11.6229
▁শাহাবুদ্দিন	-11.6229
▁শিডিউল	-11.623
▁কন্টেন্ট	-11.623
▁অন্ধ	-11.6231
▁যমজ	-11.6233
▁রেখেছি	-11.6233
▁দূরপাল্লার	-11.6234
▁দুর্গাপূজা	-11.6236
▁সংক্রামক	-11.6237
▁বহুতল	-11.6237
▁সিএএ	-11.6244
পূর্বক	-11.6245
▁বাড়লেও	-11.6246
▁শিক্ষাবিদ	-11.6247
newspaper	-11.6255
▁চুনারুঘাট	-11.6257
▁সুত্র	-11.6261
▁বুবলী	-11.6265
যোগ	-11.6266
▁চকবাজার	-11.6266
▁Re	-11.6266
▁পুলিস	-11.6268
▁কুমারের	-11.627
অক্সিডেন্ট	-11.6271
▁গণপূর্ত	-11.6272
▁সমুদ্রবন্দর	-11.6272
▁নিঃশর্ত	-11.6274
▁পোহাতে	-11.6274
▁আশিকুর	-11.6276
▁ছোড়ে	-11.6277
▁চৌগাছা	-11.6278
▁জ্যাক	-11.6278
প্রেস	-11.6278
▁দাও	-11.6279
▁লিমন	-11.6279
নারী	-11.628
▁রিয়েল	-11.628
▁নিম	-11.6284
▁জাহাজের	-11.6286
▁করতোয়া	-11.6286
িট	-11.629
▁ইন্স্যুরেন্স	-11.629
▁ভেতরের	-11.6291
বিনোদন	-11.6302
▁মানসিকতা	-11.6303
▁১০০টি	-11.6303
▁নাগরিকরা	-11.6303
▁চাওয়ার	-11.6305
▁তালে	-11.6306
▁bdnews	-11.6307
ষা	-11.6308
ন্ডার	-11.6308
▁তালুকদারের	-11.6311
রওয়ানা	-11.6314
▁বিটিভি	-11.6315
▁অরুণ	-11.6316
▁কাইফ	-11.6316
▁সুখের	-11.6318
▁ড্রেজার	-11.6321
▁সমাগম	-11.6321
▁একাডেমী	-11.6322
▁রিমান্ডের	-11.6322
▁কর্মচারীরা	-11.6323
ফল	-11.6324
▁পদত্যাগপত্র	-11.6326
জেন	-11.6327
▁দুর্বৃত্তদের	-11.6327
▁উপলব্ধি	-11.6327
▁পরনে	-11.6328
▁করোনামুক্ত	-11.6329
▁মিরসরাই	-11.6332
▁আলমগীরের	-11.6332
সম্পন্ন	-11.6332
▁লং	-11.6332
▁সচিবের	-11.6333
▁নেত্রকোণা	-11.6337
▁গুণী	-11.6337
▁এরদোয়ান	-11.6339
▁থাকাকালীন	-11.6339
▁এসএ	-11.6345
ুক	-11.6348
▁তিনদিনের	-11.635
▁সেভেন	-11.6353
▁t	-11.6353
▁কাজগুলো	-11.6353
▁স্পিড	-11.6355
▁ভোটাররা	-11.6355
▁১০২	-11.636
▁দরবার	-11.6365
▁কিশোরগঞ্জে	-11.6367
▁শাহাদাৎ	-11.6367
▁ক্যান্টনমেন্ট	-11.6368
▁কালকিনি	-11.6368
▁পেশাজীবী	-11.6368
▁ক্রেস্ট	-11.6368
▁লাইনচ্যুত	-11.6368
▁says	-11.6368
▁আকৃষ্ট	-11.6368
▁ঝিকরগাছা	-11.637
▁রমেশ	-11.6372
▁রাখলেন	-11.6375
▁খেলাধূলা	-11.6375
▁মঞ্চের	-11.6378
▁হিলারি	-11.6379
▁বহুবার	-11.6379
▁কান্নায়	-11.638
j	-11.6381
▁প্রয়াস	-11.6381
▁২শ	-11.6382
▁দাবানল	-11.6383
▁ভাঁজ	-11.6384
▁সত্যের	-11.6387
▁r	-11.6389
▁কালিগঞ্জ	-11.6395
▁লতা	-11.6398
▁বুঝি	-11.6398
▁মানিয়ে	-11.6404
▁নির্ভরযোগ্য	-11.6409
▁হায়দরাবাদ	-11.6409
▁সংখ্যার	-11.6409
▁যুবতী	-11.6412
▁হজের	-11.6413
▁ডলারে	-11.6413
ر	-11.6413
▁সরাইল	-11.6414
▁চীফ	-11.6415
▁গলাকাটা	-11.6415
▁বিজ	-11.6416
▁বিড়াল	-11.6417
▁কাঁচামাল	-11.6417
▁রযাংকিংয়ে	-11.6418
▁ছা	-11.6418
▁অধ্যুষিত	-11.6418
▁হিংসা	-11.6418
▁নোটিশে	-11.642
▁সুষ্ঠুভাবে	-11.6424
▁গড়েছেন	-11.6425
▁দূরের	-11.6426
এইচএম	-11.6426
ুদ্দিন	-11.6428
▁পেইজ	-11.6429
▁মাগুরার	-11.6433
▁বালা	-11.6433
▁সামগ্রীর	-11.6433
▁জনজীবন	-11.6435
▁অনুপম	-11.6435
▁আন্তঃ	-11.6436
▁দম	-11.6436
▁রু	-11.6438
▁বসতি	-11.6439
▁বজলুর	-11.6439
▁সুদের	-11.644
▁অনুদানের	-11.6442
▁উঠা	-11.6442
▁দক্ষিণবঙ্গ	-11.6445
▁উইলিয়ামসন	-11.6445
▁কিংসের	-11.6447
পন্থী	-11.6452
▁সাংবিধানিক	-11.6452
▁প্রতিযোগীতা	-11.6452
▁আইনজীবীর	-11.6452
▁মতই	-11.6453
▁প্রবেশে	-11.6454
▁রাঙ্গুনিয়া	-11.6456
TV	-11.646
▁কার্যকলাপ	-11.646
▁জানাবে	-11.6461
▁দুঃসংবাদ	-11.6462
▁শেষবার	-11.6463
▁লাগাতার	-11.6463
▁শহীদুল্লাহ	-11.6465
▁আদিত্য	-11.6466
▁বারাক	-11.6468
▁হিন্দুস্তান	-11.6469
▁সুরকার	-11.647
▁প্রাদুর্ভাবের	-11.647
▁অনুষদে	-11.6471
▁প্রশিক্ষন	-11.6471
টুকু	-11.6473
▁কর্মসংস্থানের	-11.6473
▁গাঙ্গুলি	-11.6474
▁সুজিত	-11.6474
▁সৌদির	-11.6479
▁মিশা	-11.648
▁প্রত্যেকেই	-11.6481
▁সুখে	-11.6481
▁বিরতিতে	-11.6482
▁কার্বন	-11.6484
শিল্পী	-11.6488
কাম	-11.6492
যশোর	-11.6492
▁শিগগির	-11.6493
▁শায়েস্তাগঞ্জ	-11.6494
▁হিল	-11.6495
চিত্র	-11.6497
▁লস্কর	-11.6498
▁দাতা	-11.6499
▁সুশাসন	-11.6499
▁ajker	-11.6501
▁যাত্রায়	-11.6505
▁নিউজিল্যান্ডে	-11.6509
▁১০৬	-11.6509
▁পূর্বধলা	-11.651
▁প্রিমিয়াম	-11.651
▁জাভেদ	-11.651
▁পাথরঘাটা	-11.651
▁বাঁশের	-11.6511
▁উইমেন	-11.6511
▁সানজিদা	-11.6513
গেট	-11.6515
▁মেইন	-11.6519
▁তুরস্কে	-11.6519
িরা	-11.652
▁ধর্মঘটের	-11.652
▁ঘটেছিল	-11.6521
▁বাল্যবিয়ে	-11.6522
▁সমীক্ষায়	-11.6525
▁মোছা	-11.6526
▁পদ্মায়	-11.6527
▁গেলেই	-11.653
▁পার্বতীপুর	-11.6532
▁শঙ্কায়	-11.6533
▁দুনিয়ার	-11.6537
▁নীলফামারীতে	-11.6537
▁গুদামে	-11.6541
খালেদা	-11.6542
▁দিশা	-11.6546
টের	-11.655
▁সুস্পষ্ট	-11.6553
▁যৌক্তিক	-11.6554
▁নেপথ্যে	-11.6555
▁কুইজ	-11.6557
▁প্রদানে	-11.6557
▁Version	-11.6558
▁কোলেস্টেরল	-11.6558
▁বহিষ্কৃত	-11.6558
▁ওয়েলফেয়ার	-11.6558
▁পাটওয়ারী	-11.6558
▁চিন্তাভাবনা	-11.6558
▁সেগুলি	-11.6559
শিল্প	-11.6562
জানা	-11.6562
শূন্য	-11.6562
▁তহবিলে	-11.6564
▁সাংবাদিককে	-11.6567
▁পাথরের	-11.6567
ণে	-11.6569
▁স্থির	-11.6569
▁মানায়	-11.657
▁লেডি	-11.657
▁চেতনায়	-11.6571
▁মেরামতের	-11.6573
▁কাঁঠাল	-11.6575
▁ফাইন্যান্স	-11.6579
▁প্রতিযোগী	-11.658
▁হাজীগঞ্জ	-11.658
ধর্ম	-11.6581
▁মফিজ	-11.6582
▁কক্ষের	-11.6583
▁কয়েকদিনের	-11.6587
ঠ	-11.6587
সম্মান	-11.6588
▁দিয়েও	-11.6588
▁বিপিএম	-11.6589
▁কষ্টে	-11.659
▁ফুটবলারদের	-11.6592
▁উপত্যকা	-11.6595
অনেক	-11.6597
▁নায়েক	-11.6599
▁বেড়াচ্ছে	-11.6601
▁নিঃসন্দেহে	-11.6606
▁নিরীহ	-11.6606
▁অগ্রিম	-11.6606
▁শিবচর	-11.6606
▁বিওপি	-11.6607
▁ফৌজদারি	-11.6607
▁বাঁচার	-11.6608
▁ভাঙ্গুড়া	-11.661
িজ	-11.6612
▁গিয়েছিলাম	-11.6613
▁স্লোগানে	-11.6616
▁সহকারে	-11.6616
▁সরদারের	-11.6616
▁নিচু	-11.6617
হত	-11.662
▁রুটিন	-11.662
▁আদলে	-11.6621
▁নবজাতকের	-11.6625
▁পুন	-11.6626
▁ব্যক্তিগতভাবে	-11.6628
ধর	-11.663
▁ভে	-11.6634
▁জিহাদ	-11.6636
ফার	-11.6637
▁কাজও	-11.6639
▁সিলেবাস	-11.6641
▁করিনা	-11.6642
▁সিলভা	-11.6642
▁গ্রামীণফোনের	-11.6645
প্ত	-11.6646
▁রোহিঙ্গাকে	-11.6647
▁অস্বস্তি	-11.6647
▁সতর্কবার্তা	-11.6647
▁শিখর	-11.6648
▁বিজ্ঞপ্তির	-11.6648
▁গ্রেফতারে	-11.6649
▁লাগলে	-11.665
▁কর্নার	-11.6652
▁ক্যাবল	-11.6652
▁বাজারজাত	-11.6653
▁চিনে	-11.6653
▁উপাধ্যক্ষ	-11.6654
▁ফিল্ডিং	-11.6654
▁সিদ্ধিরগঞ্জ	-11.6656
দর	-11.666
▁বেস	-11.666
▁কামড়	-11.6662
▁বাঁচানোর	-11.6665
▁নিলো	-11.6667
▁ব্যাচ	-11.667
▁মুম্বাইয়ে	-11.6671
▁কেনো	-11.6674
▁যুদ্ধাপরাধী	-11.6674
ছেলে	-11.6675
▁পুরোটাই	-11.6676
▁টানেল	-11.6677
▁মোহামেডান	-11.6677
▁শুভশ্রী	-11.6679
▁পলিথিন	-11.668
▁লাফ	-11.6682
▁وَ	-11.6683
▁পকেটে	-11.6684
▁বাংলাদেশিকে	-11.6684
▁বেধে	-11.6684
▁আলুর	-11.6684
▁প্রতীকী	-11.6685
বিএসএমএমইউ	-11.6686
▁সিরাজদিখান	-11.6688
▁রাস্তাঘাট	-11.6691
▁সেবনের	-11.6691
▁জীব	-11.6692
▁ডিএসসিসি	-11.6693
▁আয়াত	-11.6694
বোঝাই	-11.6694
▁বলল	-11.6695
▁পুজা	-11.6697
▁কোল	-11.6698
et	-11.6698
▁সেকেন্ডের	-11.6699
বিশিষ্ট	-11.6699
▁পরিমাপ	-11.67
▁তাৎপর্য	-11.6702
▁টেলিফোনে	-11.6703
▁সেক্রেটারী	-11.6704
▁মেজবাহ	-11.6707
▁বসবাসকারী	-11.6707
▁পুরানো	-11.6707
▁সাই	-11.6708
▁জিতেছিল	-11.6711
▁নাসা	-11.6711
▁মাহিয়া	-11.6711
▁ফিরলে	-11.6712
▁সংগঠিত	-11.6713
▁জয়পুরহাটে	-11.6719
▁সমীর	-11.672
▁চরে	-11.6721
▁সাবরিনা	-11.6722
▁শোভা	-11.6722
▁পেনশন	-11.6723
▁ইন্ডাস্ট্রিতে	-11.6725
▁পরিয়ে	-11.6725
▁Express	-11.6727
▁বোট	-11.6732
▁ফজল	-11.6733
▁ফাইভ	-11.6735
▁শিক্ষাঙ্গন	-11.6738
▁বরাদ্দের	-11.6739
▁মহানগরের	-11.6739
ঘরে	-11.674
ভাবেই	-11.6743
▁নামটি	-11.6743
▁দূতাবাসে	-11.6744
▁ফুসফুস	-11.6744
▁ঘা	-11.6745
▁ফেলছে	-11.6747
▁নোটিস	-11.6747
▁সড়কটি	-11.6747
েন্দু	-11.6751
▁গয়েশ্বর	-11.6751
▁জাটকা	-11.6751
▁মহসীন	-11.6751
▁সীমান্তরক্ষী	-11.6751
▁তেলাওয়াত	-11.6751
▁চর্বি	-11.6751
▁মাহমুদা	-11.6752
▁ছিঁড়ে	-11.6754
৭২	-11.6754
▁তখনও	-11.6754
▁উপনির্বাচন	-11.6755
কিন	-11.6755
▁এমপিও	-11.6755
▁এনার্জি	-11.6755
▁বিধিমালা	-11.6755
▁মণ	-11.6756
▁পেকুয়া	-11.6757
পতি	-11.6757
▁ফলো	-11.6758
▁বিসর্জন	-11.6759
▁৯০০	-11.6762
▁শান্তিপূর্ণভাবে	-11.6763
▁ড্রেন	-11.6766
▁সুমনের	-11.6767
▁টাওয়ারে	-11.6768
▁এগুলোর	-11.6769
▁বিদ্রোহীদের	-11.6774
▁খানেক	-11.6775
▁অডিটোরিয়ামে	-11.6775
▁জিয়ারত	-11.6776
▁ডোমার	-11.6778
▁সামিট	-11.678
▁ইউনিটির	-11.6782
▁খুশির	-11.6783
▁আয়ারল্যান্ডের	-11.6783
▁নয়টি	-11.6785
▁বাফুফে	-11.6786
ঞ্চ	-11.6788
▁গ্রামবাসীর	-11.6788
▁ব্রড	-11.6789
▁যাত্রাবাড়ী	-11.6792
▁রাইস	-11.6797
▁১৬ই	-11.6797
▁গেছি	-11.6798
▁গুলোর	-11.6798
▁অদূরে	-11.6798
▁হ্যারি	-11.6798
▁সিস্টেমের	-11.6799
▁অস্কার	-11.68
▁অগ্নিদগ্ধ	-11.68
▁Pabna	-11.68
▁বোয়িং	-11.68
▁নির্মাণকাজ	-11.6801
▁বর্ষীয়া	-11.6801
▁ফাঁদ	-11.6801
▁উরুগুয়ে	-11.6802
▁শীতকালীন	-11.6802
▁যতটুকু	-11.6802
▁উচ্চতর	-11.6803
▁ভুট্টা	-11.6804
▁কান্ট্রি	-11.6805
▁ক্যান্সারে	-11.6809
নাম	-11.6809
▁কুসুম	-11.6811
▁উপত্যকায়	-11.6811
▁নর	-11.6813
▁ছাপা	-11.6816
▁পর্ন	-11.6817
▁পদ্মার	-11.6822
▁ভিক্ষুক	-11.6825
▁২২টি	-11.6826
▁কিরণ	-11.6826
▁এমপিওভুক্ত	-11.6827
নেতা	-11.6827
আউট	-11.683
▁ভিআইপি	-11.6834
▁৪০টি	-11.6834
▁স্বস্তির	-11.6839
▁ব্রিফিং	-11.684
হেন	-11.6843
▁ইউক্রেনে	-11.6848
▁Aug	-11.685
▁অপরিহার্য	-11.685
▁ইন্দিরা	-11.685
▁লাঞ্ছিত	-11.685
▁রিসোর্ট	-11.685
▁ভুঁইয়া	-11.6851
▁থামাতে	-11.6851
▁হাসেম	-11.6852
েশ্বর	-11.6852
▁পিএইচডি	-11.6854
▁W	-11.6856
▁দুর্ভোগে	-11.6857
▁মারেন	-11.6857
আলম	-11.686
▁SYLHET	-11.6861
▁রাখাইনে	-11.6864
▁মিশনের	-11.6864
▁পিটিআই	-11.6865
▁জুট	-11.6865
▁জীবন্ত	-11.6865
▁প্রবাসে	-11.6866
▁views	-11.6866
▁জরিমানার	-11.687
▁তাহসান	-11.6871
▁ছে	-11.6872
▁অনুকূলে	-11.6872
▁ছোটবেলা	-11.6872
ইট	-11.6873
▁খেলাপি	-11.6873
▁মানচিত্র	-11.6873
▁মিঃ	-11.6873
se	-11.6874
▁চকরিয়ায়	-11.6876
▁শামীমা	-11.6876
▁বহিরাগত	-11.6878
▁ঘাটের	-11.6881
▁সম্প্রীতির	-11.6881
শক্তি	-11.6884
▁প্রতিবেদনের	-11.6886
▁সেটার	-11.689
ফাই	-11.6892
▁পরম	-11.6895
▁স্ট্রাইক	-11.6897
▁শুনলে	-11.6897
▁রাতারাতি	-11.6899
▁অভিজিৎ	-11.6899
▁শিল্পপতি	-11.69
▁জুলফিকার	-11.6901
▁ফলোয়ার	-11.6903
▁পার্লামেন্টের	-11.6904
ডেন	-11.6904
▁১৯৯০	-11.6906
▁নিয়োগে	-11.6909
▁কুমারখালী	-11.6909
জিডি	-11.6911
▁বিনয়	-11.6912
▁রেখেছিল	-11.6912
জাত	-11.6915
▁লাগতে	-11.6917
▁দুর্ঘটনাটি	-11.6918
▁আন্তরিকতা	-11.6919
▁উচ্চতায়	-11.6919
▁অক্সিজেনের	-11.6923
▁শাল	-11.6927
▁মাদার	-11.6928
ক্রান্ত	-11.6928
৬৬	-11.6929
▁চাষী	-11.6936
▁পরিকল্পনায়	-11.6936
▁গৃহবধুর	-11.6937
গ্রামের	-11.694
▁কয়েকজনের	-11.694
▁গলার	-11.694
▁দুর্যোগের	-11.6941
▁ধ্বংসের	-11.6942
মোঃ	-11.6942
▁ছড়া	-11.6942
মানের	-11.6946
▁হার্দিক	-11.6949
▁কৌশিক	-11.6949
▁ক্রমবর্ধমান	-11.6949
▁দৃষ্টিনন্দন	-11.6949
▁আসুক	-11.6949
▁শিবলী	-11.695
▁সেলস	-11.695
▁বারে	-11.6952
▁কানাইঘাট	-11.6953
▁ভাঙতে	-11.6953
▁ইঞ্জিনিয়ার্স	-11.6955
▁সেমাই	-11.6955
▁মহিবুল	-11.6956
▁গোল্ড	-11.6957
▁দিনগুলোতে	-11.6957
▁মালদ্বীপ	-11.696
▁X	-11.6962
▁টিউন	-11.6963
▁মনু	-11.6965
▁ঋষি	-11.6968
▁হয়েও	-11.6968
▁জনিত	-11.6969
▁আক্ষেপ	-11.6972
▁লেন্স	-11.6972
▁অ্যাপলের	-11.6973
▁১১২	-11.6974
▁বিস্ময়	-11.6975
▁পায়েল	-11.6978
▁প্রিয়াঙ্কার	-11.698
▁ট্রলি	-11.6981
ওয়াই	-11.6983
▁as	-11.6984
▁ভাবি	-11.6984
প্রা	-11.6989
▁জয়ন্তী	-11.6991
▁কিন্ত	-11.6991
▁বীরভূম	-11.6992
▁ময়দান	-11.6994
▁২০শে	-11.6995
▁পাশা	-11.6995
▁কোর্সের	-11.6995
▁Narayanganj	-11.6999
▁হৃদযন্ত্র	-11.6999
▁শিহাব	-11.6999
▁মানসম্মত	-11.6999
▁টিজার	-11.7
▁জুতো	-11.7
▁টাকাসহ	-11.7001
▁ডাক্তারি	-11.7002
▁লীগকে	-11.7003
▁শাবনূর	-11.7004
▁লৌহজং	-11.7007
পাট	-11.7008
▁মেশিনের	-11.7011
▁আমিনের	-11.7015
▁ইসলামসহ	-11.7018
▁শ্রোতাদের	-11.7018
▁মুক্তার	-11.7021
▁নেওয়ায়	-11.7023
মিস	-11.7024
দ্ধ	-11.7026
▁এরিয়া	-11.7029
▁আখ	-11.7032
সাবেক	-11.7034
ta	-11.7036
ol	-11.7038
▁এফএম	-11.7041
▁হৃদয়ের	-11.7043
▁বদর	-11.7043
▁প্রদর্শনীর	-11.7044
▁উদ্দিনকে	-11.7045
▁সানী	-11.7049
▁Ctg	-11.7049
▁ব্যাডমিন্টন	-11.7049
▁গুণগ্রাহী	-11.7049
▁সিফাত	-11.705
▁মার্শাল	-11.705
▁সমকাল	-11.705
▁কাউখালী	-11.7051
▁সুইডেন	-11.7051
▁উদ্বেগের	-11.7052
▁শিল্পে	-11.7052
▁বিস্ময়কর	-11.7053
▁আশীর্বাদ	-11.7054
▁Uncategorized	-11.7055
▁নকলা	-11.7057
▁নীড়	-11.7057
▁বইটির	-11.7059
কিউ	-11.706
as	-11.706
▁গান্ধীর	-11.7061
▁নুরু	-11.7061
▁রোদ	-11.7063
▁বিআইডব্লিউটিএ	-11.7066
▁কালবৈশাখী	-11.7067
দ্র	-11.7068
দিকে	-11.7068
▁আশুলিয়ায়	-11.7068
▁ডায়েট	-11.7071
▁স্বাগতিকদের	-11.7072
টিয়া	-11.7074
▁উদযাপনে	-11.7077
▁তবেই	-11.7079
▁অভিনেত্রীকে	-11.708
▁বেত	-11.7081
ia	-11.7082
▁ভোটারের	-11.7083
উদ্দীন	-11.7084
▁সেরাম	-11.7087
▁পপ	-11.7091
▁অনুশীলনের	-11.7092
▁উদ্ধোধন	-11.7093
ا	-11.7098
▁Sa	-11.7099
▁আলোড়ন	-11.71
▁ভয়ানক	-11.71
▁নলছিটি	-11.71
▁ব্রহ্মপুত্র	-11.71
▁ক্রাইস্টচার্চে	-11.71
▁পাঁচবার	-11.7101
▁ভিভো	-11.7102
▁ভাসানী	-11.7102
▁রহিমা	-11.7102
▁পেস্ট	-11.7102
▁National	-11.7104
▁আসলেও	-11.7104
▁কাঁটা	-11.7108
▁ভ্যানের	-11.7109
ফু	-11.711
▁সম্মানে	-11.7113
ti	-11.7115
▁মুসল্লিরা	-11.7115
▁সহযোগীতায়	-11.7115
▁ভুটান	-11.7118
▁কিডনির	-11.7118
▁গ্রহণে	-11.7118
▁ال	-11.7119
▁ভীড়	-11.7122
▁রিয়াদের	-11.7123
▁বকশীগঞ্জ	-11.7125
▁ব্যাপারটি	-11.7126
▁গবেষকদের	-11.7129
▁সেভ	-11.7134
মারি	-11.7135
▁মাও	-11.7135
ro	-11.7135
▁কোট	-11.7136
▁সাহেবের	-11.7137
▁১৯৯৯	-11.7137
বিপিএল	-11.7138
▁প্রতিমন্ত্রীর	-11.7138
▁রেললাইন	-11.7138
িয়াল	-11.7141
িনী	-11.7145
ণ্ড	-11.7146
▁শোধ	-11.7146
▁বিএসইসি	-11.7147
▁first	-11.715
▁পড়াশুনা	-11.715
▁that	-11.715
▁উজ্জীবিত	-11.715
▁বাবুনগরী	-11.715
▁ইহুদিবাদী	-11.715
▁উচ্চমাধ্যমিক	-11.7151
▁জওয়ান	-11.7151
▁মালবাহী	-11.7151
▁হাতছাড়া	-11.7152
▁জমায়েত	-11.7152
▁নোংরা	-11.7152
কান্দা	-11.7152
bangladesh	-11.7152
▁ইয়ুথ	-11.7154
▁করিয়া	-11.7154
▁বরেন্দ্র	-11.7155
▁উপড়ে	-11.7155
▁হাইকমিশন	-11.7157
▁সরল	-11.7158
▁চ্যাট	-11.7161
▁করদাতা	-11.7161
জনক	-11.7161
▁এপ্রিলের	-11.7162
▁গতবারের	-11.7164
▁গোয়াল	-11.7166
কিছু	-11.7167
▁হাম	-11.7169
▁জানাননি	-11.7171
▁ক্লান্তি	-11.7172
২০১৬	-11.7173
▁দশটা	-11.7173
▁দুজনে	-11.7175
ানোর	-11.7178
▁দারিদ্র্য	-11.7182
৬৮	-11.7186
▁উদ্ধারকারী	-11.7187
েজ	-11.7188
▁নিম্নচাপ	-11.7188
▁সম্পত্তির	-11.719
▁ত্রিশ	-11.7195
▁পরীমনির	-11.7196
▁পাহারা	-11.7196
▁অবহেলিত	-11.7201
▁গেরুয়া	-11.7201
▁বার্ধক্যজনিত	-11.7201
▁বিদেহী	-11.7202
▁শ্রীলেখা	-11.7202
▁হলিউডের	-11.7202
ত্তা	-11.7202
▁অভিমত	-11.7202
▁বাঘাইছড়ি	-11.7204
▁সরওয়ার	-11.7204
▁বিকল	-11.7206
▁lead	-11.7209
▁ধারাবাহিকভাবে	-11.7209
▁উদ্ভাবনী	-11.721
▁লিঃ	-11.721
▁প্রকাশ্য	-11.7211
▁গ্রীন	-11.7212
▁আযহা	-11.7212
▁এসকে	-11.7213
▁একত্রে	-11.7215
▁আদর	-11.7219
▁সরানোর	-11.7223
শাহ	-11.7228
▁মেরি	-11.723
▁আবহাওয়াবিদ	-11.7231
▁পোস্টটি	-11.7233
▁পর্যবেক্ষক	-11.7235
ন্দি	-11.7236
▁মুজিবনগর	-11.7236
▁ঝালকাঠিতে	-11.7237
▁ঘূর্ণিঝড়ের	-11.7237
▁পটুয়াখালীতে	-11.7237
▁ঘুরিয়ে	-11.7238
▁সেঞ্চুরিতে	-11.7238
ইন্নালিল্লাহি	-11.7238
▁বিষয়েও	-11.7238
▁পরিবেশক	-11.724
▁উঠার	-11.724
▁স্টিল	-11.7241
▁প্রতিবেশি	-11.7247
▁হার্টের	-11.7247
▁অঙ্গরাজ্যের	-11.7248
প্রচার	-11.7249
▁ডাই	-11.7252
▁অনবদ্য	-11.7253
▁কাওসার	-11.7253
▁প্লাটুন	-11.7253
▁ক্যাপ	-11.7253
▁কুখ্যাত	-11.7253
মিয়া	-11.7255
▁শৈশব	-11.7256
▁নারিকেল	-11.7257
▁ব্যাকটেরিয়া	-11.7257
▁ম্যাচেও	-11.7257
▁কেটেছে	-11.7257
▁Life	-11.7258
▁চিঠির	-11.7261
টিও	-11.7263
▁নিশ্চিতে	-11.7263
▁এন্ট্রি	-11.7264
বর্তমানে	-11.7266
বাড়িতে	-11.7266
▁বাধার	-11.7266
▁লাহোর	-11.7267
▁বাঁশি	-11.7267
▁মোমিন	-11.7267
▁অনুরোধে	-11.727
▁খামারে	-11.727
▁ঘুড়ি	-11.7272
▁ব্যাংকটি	-11.7273
▁শামস	-11.7274
▁সেক্টরের	-11.7277
▁রোজার	-11.7279
Y	-11.728
▁এলজি	-11.7282
▁এইড	-11.7282
ي	-11.7284
▁আহমেদকে	-11.7284
বলে	-11.7284
স্থানীয়	-11.7284
মুলক	-11.7286
▁সাক্ষাতে	-11.7287
▁সূ	-11.7288
কিশোর	-11.7289
ক্ষণ	-11.729
▁বন্যপ্রাণী	-11.729
▁আসানসোল	-11.7292
▁আগ্রহের	-11.7297
▁শান্তিতে	-11.7301
▁রামেক	-11.7301
▁ফ্ল্যাটে	-11.7302
▁ভর্তুকি	-11.7304
▁এয়ারওয়েজ	-11.7304
▁বেলায়েত	-11.7305
▁জবাই	-11.7305
▁অস্বাস্থ্যকর	-11.7306
▁সমবেত	-11.7306
▁অর্থায়ন	-11.7309
▁জ্যোতি	-11.7311
▁world	-11.7311
▁কনক	-11.7313
▁আস্তানা	-11.7313
▁Alo	-11.7315
▁ভিডিপি	-11.7317
▁তত্ত্ব	-11.7321
▁নিষ্ক্রিয়	-11.7322
ন্দ্র	-11.7323
▁প্রজন্মকে	-11.7324
▁পারদ	-11.7325
জ্জ	-11.7325
▁কমিশনকে	-11.7333
▁অবমাননার	-11.7334
▁মণ্ডপে	-11.7335
▁কাচ	-11.7336
to	-11.7337
▁জোড়	-11.7338
▁প্রোডাক্ট	-11.7339
▁১জন	-11.734
▁অসুখ	-11.7344
▁মুম্বইয়ের	-11.7346
▁একতা	-11.7346
na	-11.7347
রাবি	-11.7347
▁জনশক্তি	-11.7347
▁রক্তক্ষরণ	-11.7348
▁সেভাবেই	-11.7349
▁খুঁজছে	-11.7351
▁ব্যাবসায়ী	-11.7352
▁দাপটে	-11.7352
▁গালিগালাজ	-11.7356
▁আশংকাজনক	-11.7356
▁উৎসবমুখর	-11.7356
▁মরা	-11.7357
▁শামিল	-11.7358
▁নামও	-11.7358
▁মটর	-11.7359
▁আসাদুল	-11.7359
তাদের	-11.736
ক্কা	-11.7361
মূল	-11.7361
▁ফোকাস	-11.7362
▁পোনা	-11.7362
পক্ষ	-11.7363
▁বিপত্তি	-11.7364
▁ওনার	-11.7365
▁বায়ো	-11.7365
▁খুদে	-11.7368
েট	-11.7368
▁ঘটিকায়	-11.737
▁শীতল	-11.7373
▁পাঠকদের	-11.7374
হো	-11.7376
▁লাইব্রেরি	-11.7377
▁রাষ্ট্রায়ত্ত	-11.7377
▁অডিট	-11.7378
▁বিভাগকে	-11.7379
▁অফিসার্স	-11.738
▁দ্র	-11.738
▁ছবিটিতে	-11.7381
ভো	-11.7381
▁রাইট	-11.7382
▁লিচু	-11.7382
▁পাপুল	-11.7383
▁মুজাহিদ	-11.7383
▁অভিযুক্তকে	-11.7383
▁বসবাসের	-11.7385
▁শাকিবের	-11.7386
▁মামুনের	-11.7391
▁পিছ	-11.7392
▁হাঁস	-11.7393
ers	-11.7395
বর্ণ	-11.7396
▁মধ্যপ্রদেশ	-11.7399
▁গ্যাং	-11.7402
▁বিলটি	-11.7404
▁লেখালেখি	-11.7408
▁খ্রীষ্টাব্দ	-11.7408
▁ফয়সল	-11.7408
▁পরিযায়ী	-11.7408
▁যথারীতি	-11.7408
▁সিলগালা	-11.7408
▁প্রত্যাশিত	-11.7408
▁বাম্পার	-11.7409
▁কারওয়ান	-11.741
▁বিরূপ	-11.741
▁বিনষ্ট	-11.741
কেন্দ্র	-11.7411
▁খেলেছিলেন	-11.7411
▁Get	-11.7414
▁কর্ণেল	-11.7415
▁পারতো	-11.7415
▁কারিগর	-11.7416
▁প্রোগ্রামের	-11.7417
▁সংস্থাকে	-11.7417
▁আন্দোলনকারীদের	-11.7419
▁ম্যাজিক	-11.742
▁বিড়ি	-11.7422
▁চিপ	-11.7424
▁ভবিষ্যতেও	-11.7425
▁সৈকতের	-11.7428
▁ফিলিস্তিনিদের	-11.7429
▁অবমাননা	-11.743
▁১০৭	-11.7438
▁একাংশের	-11.7438
▁জিতল	-11.7438
▁রাজনীতিক	-11.7443
ানি	-11.7444
▁শতবর্ষ	-11.7444
▁সাং	-11.7449
▁অস্ট্রিয়া	-11.7453
▁দাঙ্গা	-11.7453
▁সোর্স	-11.7456
রাজনীতি	-11.7456
▁দরজায়	-11.7457
▁২১টি	-11.7459
▁বইয়ে	-11.746
▁জাস্টিন	-11.7461
▁শোকসন্তপ্ত	-11.7461
▁সামলে	-11.7461
▁করতাম	-11.7462
▁উপমহাদেশের	-11.7462
▁বোয়ালমারী	-11.7462
▁সুবীর	-11.7462
▁ভালোবেসে	-11.7462
▁পানছড়ি	-11.7463
▁কেবিন	-11.7463
bi	-11.7463
▁ফাতিমা	-11.7463
▁গি	-11.7464
▁অধিবেশনের	-11.7464
▁গণহত্যার	-11.7464
▁ট	-11.7466
▁ভোটকেন্দ্রে	-11.7467
▁উলুম	-11.7467
িদের	-11.7467
▁de	-11.7467
▁কাটানোর	-11.7468
শেষ	-11.7468
▁বছরেও	-11.7468
▁১৯৯৮	-11.7469
▁গুঁড়ি	-11.747
▁দ্বীন	-11.7471
▁শিলা	-11.7472
▁খুনিদের	-11.7472
▁৪৫০	-11.7473
▁সিজন	-11.7473
▁জাম	-11.7475
▁হামিদুল	-11.7476
বের	-11.7477
▁তারকাকে	-11.7478
▁নখ	-11.7478
▁মুরাদনগর	-11.7478
▁চাকায়	-11.7479
▁উদ্বোধনকালে	-11.7479
য়েল	-11.7481
▁আমন্ত্রণে	-11.7482
▁প্যারিসে	-11.7482
আওয়ামী	-11.7482
▁বাঙ্গালী	-11.7488
▁পাড়ুকোন	-11.7488
▁শখ	-11.7488
▁আর্সেনাল	-11.7489
▁জিতলে	-11.749
▁এতটা	-11.7491
▁সেটির	-11.7491
▁চারটা	-11.7495
▁ড্রাইভিং	-11.7495
▁বিশ্বব্যাংকের	-11.7496
▁মনিটর	-11.75
▁Al	-11.75
মোবাইল	-11.75
▁এলেও	-11.75
▁ঘড়ি	-11.7502
shine	-11.7507
▁ঢাবির	-11.7507
▁ভুটানের	-11.7509
▁লাকসাম	-11.7513
▁স্থাপত্য	-11.7513
▁গাফিলতি	-11.7513
▁পম্পেও	-11.7513
▁পর্তুগিজ	-11.7513
▁প্রযোজিত	-11.7513
▁প্রিলিমিনারি	-11.7513
▁৮নং	-11.7514
▁লবন	-11.7514
ল্ড	-11.7514
পরি	-11.7515
▁স্টাডিজ	-11.7516
▁কমরেড	-11.7516
▁একরামুল	-11.7516
▁জুমা	-11.7518
▁বেলজিয়াম	-11.7518
▁ক্যাটাগরি	-11.7518
▁বিশ্লেষকরা	-11.7519
স্থানে	-11.752
▁প্যানেলের	-11.752
▁পকেট	-11.7523
▁ইংরেজী	-11.7524
▁গার্ল	-11.7526
▁নেটওয়ার্কের	-11.7526
▁অনিশ্চয়তা	-11.7527
▁নীরবতা	-11.7528
▁পাতলা	-11.753
▁অন্ত	-11.7531
▁ক্রিকেটকে	-11.7533
ছিলো	-11.7533
▁চন্দ	-11.7533
াঙ্গ	-11.7534
▁হবেনা	-11.7536
he	-11.7539
▁ব্যাটসম্যানরা	-11.754
▁প্রসার	-11.7541
▁দোকানদার	-11.7542
▁এডিস	-11.7543
হাতি	-11.7543
▁ফটকে	-11.7544
▁মসলা	-11.7545
▁১৪২৫	-11.7546
ানন্দ	-11.7546
▁মনোজ	-11.7548
▁ড্যানিয়েল	-11.7548
▁আদি	-11.7549
▁বহুদিন	-11.7549
▁গঙ্গা	-11.7549
▁হুইল	-11.755
ধি	-11.7551
হাত	-11.7553
▁২৪টি	-11.7553
▁কুচি	-11.7553
▁হাতেই	-11.7553
▁জুয়ার	-11.7556
▁ক্লিনিকের	-11.7558
▁রাঙ্গা	-11.7558
▁১৭০	-11.7559
▁পুরসভার	-11.7563
▁ইয়াং	-11.7563
▁ফজিলাতুন্নেছা	-11.7566
▁সোলায়মান	-11.7566
▁সিনোফার্ম	-11.7566
▁মিঞা	-11.7566
▁ক্যাপসুল	-11.7566
▁প্রশ্নবিদ্ধ	-11.7566
র্ম	-11.7567
▁দেখভাল	-11.7567
▁সীতাকুণ্ডে	-11.757
্যু	-11.757
▁শিক্ষাবোর্ড	-11.757
▁রূপান্তরিত	-11.7571
▁শ্লীলতাহানির	-11.7571
▁নেয়ায়	-11.7571
▁নানক	-11.7571
▁প্রমান	-11.7572
▁ঢালী	-11.7574
▁কর্মকর্তাসহ	-11.7575
▁উচ্ছ্বাস	-11.7575
▁মসজিদটি	-11.7576
▁টিসিবির	-11.7579
▁সিএসই	-11.7581
▁বসেছেন	-11.7582
করে	-11.7583
▁চুমু	-11.7587
▁কামার	-11.7587
▁মাকসুদ	-11.7588
▁মফিজুল	-11.7591
▁গর্ব	-11.7594
▁আলামিন	-11.7595
▁রাইফেল	-11.7599
▁আইডিয়া	-11.7599
▁পৃষ্ঠা	-11.7599
▁ডিভিশনের	-11.76
▁রোশন	-11.76
▁দুদু	-11.7604
SYLHET	-11.7607
চীন	-11.761
সরকারি	-11.7613
▁মোটরসাইকেলটি	-11.7616
টক	-11.7618
স্থল	-11.7619
▁এলিজাবেথ	-11.7619
▁হাশেম	-11.7619
▁ডাব	-11.7619
▁লায়লা	-11.7619
▁ডানহাতি	-11.7619
▁পরিহার	-11.762
▁পারতাম	-11.762
▁জ্যাকেট	-11.762
▁আহ	-11.7621
▁আয়ু	-11.7622
▁সর্বপ্রথম	-11.7622
▁শুনেছেন	-11.7622
▁ভাসতে	-11.7622
▁সিপিসি	-11.7627
▁পড়াশোনার	-11.7627
▁লাদাখ	-11.7628
▁সহযোগীরা	-11.7628
▁মুখোশ	-11.763
▁দুশ্চিন্তা	-11.763
▁শরীফুল	-11.7631
▁ডাক্তারদের	-11.7631
▁পড়ালেখা	-11.7631
আইসিসি	-11.7632
▁রত্না	-11.7634
দিক	-11.7635
প্রতিষ্ঠানের	-11.7636
উপ	-11.7636
▁রাজার	-11.7637
বাই	-11.7638
▁সম্রাটের	-11.7638
▁বিরোধীরা	-11.7639
▁ট্রফির	-11.7641
rd	-11.7643
▁অঞ্জন	-11.7643
▁আইনটি	-11.7646
ion	-11.7654
▁ব্যস্ততা	-11.7656
▁ফিল্মস	-11.7657
▁হেলিকপ্টারে	-11.7657
▁নতুনভাবে	-11.7661
▁যাত্রার	-11.7662
▁শ্রীপুরে	-11.7662
লিশ	-11.7665
▁আব	-11.7667
আরও	-11.7671
▁আকৃতির	-11.7672
[...]
