<unk>	0
<s>	0
</s>	0
<pad>	0
<|user|>	0
<|assistant|>	0
<|end|>	0
<|system|>	0
<|pad|>	0
<|sep|>	0
<|cls|>	0
<|mask|>	0
<0x00>	0
<0x01>	0
<0x02>	0
<0x03>	0
<0x04>	0
<0x05>	0
<0x06>	0
<0x07>	0
<0x08>	0
<0x09>	0
<0x0A>	0
<0x0B>	0
<0x0C>	0
<0x0D>	0
<0x0E>	0
<0x0F>	0
<0x10>	0
<0x11>	0
<0x12>	0
<0x13>	0
<0x14>	0
<0x15>	0
<0x16>	0
<0x17>	0
<0x18>	0
<0x19>	0
<0x1A>	0
<0x1B>	0
<0x1C>	0
<0x1D>	0
<0x1E>	0
<0x1F>	0
<0x20>	0
<0x21>	0
<0x22>	0
<0x23>	0
<0x24>	0
<0x25>	0
<0x26>	0
<0x27>	0
<0x28>	0
<0x29>	0
<0x2A>	0
<0x2B>	0
<0x2C>	0
<0x2D>	0
<0x2E>	0
<0x2F>	0
<0x30>	0
<0x31>	0
<0x32>	0
<0x33>	0
<0x34>	0
<0x35>	0
<0x36>	0
<0x37>	0
<0x38>	0
<0x39>	0
<0x3A>	0
<0x3B>	0
<0x3C>	0
<0x3D>	0
<0x3E>	0
<0x3F>	0
<0x40>	0
<0x41>	0
<0x42>	0
<0x43>	0
<0x44>	0
<0x45>	0
<0x46>	0
<0x47>	0
<0x48>	0
<0x49>	0
<0x4A>	0
<0x4B>	0
<0x4C>	0
<0x4D>	0
<0x4E>	0
<0x4F>	0
<0x50>	0
<0x51>	0
<0x52>	0
<0x53>	0
<0x54>	0
<0x55>	0
<0x56>	0
<0x57>	0
<0x58>	0
<0x59>	0
<0x5A>	0
<0x5B>	0
<0x5C>	0
<0x5D>	0
<0x5E>	0
<0x5F>	0
<0x60>	0
<0x61>	0
<0x62>	0
<0x63>	0
<0x64>	0
<0x65>	0
<0x66>	0
<0x67>	0
<0x68>	0
<0x69>	0
<0x6A>	0
<0x6B>	0
<0x6C>	0
<0x6D>	0
<0x6E>	0
<0x6F>	0
<0x70>	0
<0x71>	0
<0x72>	0
<0x73>	0
<0x74>	0
<0x75>	0
<0x76>	0
<0x77>	0
<0x78>	0
<0x79>	0
<0x7A>	0
<0x7B>	0
<0x7C>	0
<0x7D>	0
<0x7E>	0
<0x7F>	0
<0x80>	0
<0x81>	0
<0x82>	0
<0x83>	0
<0x84>	0
<0x85>	0
<0x86>	0
<0x87>	0
<0x88>	0
<0x89>	0
<0x8A>	0
<0x8B>	0
<0x8C>	0
<0x8D>	0
<0x8E>	0
<0x8F>	0
<0x90>	0
<0x91>	0
<0x92>	0
<0x93>	0
<0x94>	0
<0x95>	0
<0x96>	0
<0x97>	0
<0x98>	0
<0x99>	0
<0x9A>	0
<0x9B>	0
<0x9C>	0
<0x9D>	0
<0x9E>	0
<0x9F>	0
<0xA0>	0
<0xA1>	0
<0xA2>	0
<0xA3>	0
<0xA4>	0
<0xA5>	0
<0xA6>	0
<0xA7>	0
<0xA8>	0
<0xA9>	0
<0xAA>	0
<0xAB>	0
<0xAC>	0
<0xAD>	0
<0xAE>	0
<0xAF>	0
<0xB0>	0
<0xB1>	0
<0xB2>	0
<0xB3>	0
<0xB4>	0
<0xB5>	0
<0xB6>	0
<0xB7>	0
<0xB8>	0
<0xB9>	0
<0xBA>	0
<0xBB>	0
<0xBC>	0
<0xBD>	0
<0xBE>	0
<0xBF>	0
<0xC0>	0
<0xC1>	0
<0xC2>	0
<0xC3>	0
<0xC4>	0
<0xC5>	0
<0xC6>	0
<0xC7>	0
<0xC8>	0
<0xC9>	0
<0xCA>	0
<0xCB>	0
<0xCC>	0
<0xCD>	0
<0xCE>	0
<0xCF>	0
<0xD0>	0
<0xD1>	0
<0xD2>	0
<0xD3>	0
<0xD4>	0
<0xD5>	0
<0xD6>	0
<0xD7>	0
<0xD8>	0
<0xD9>	0
<0xDA>	0
<0xDB>	0
<0xDC>	0
<0xDD>	0
<0xDE>	0
<0xDF>	0
<0xE0>	0
<0xE1>	0
<0xE2>	0
<0xE3>	0
<0xE4>	0
<0xE5>	0
<0xE6>	0
<0xE7>	0
<0xE8>	0
<0xE9>	0
<0xEA>	0
<0xEB>	0
<0xEC>	0
<0xED>	0
<0xEE>	0
<0xEF>	0
<0xF0>	0
<0xF1>	0
<0xF2>	0
<0xF3>	0
<0xF4>	0
<0xF5>	0
<0xF6>	0
<0xF7>	0
<0xF8>	0
<0xF9>	0
<0xFA>	0
<0xFB>	0
<0xFC>	0
<0xFD>	0
<0xFE>	0
<0xFF>	0
।	-3.10108
,	-3.67901
ের	-4.33335
র	-4.44122
▁	-4.81771
▁ও	-4.82629
ে	-4.8274
-	-5.02323
:	-5.19325
▁করে	-5.2231
▁এ	-5.33587
কে	-5.36142
▁থেকে	-5.39196
▁(	-5.47884
)	-5.48321
▁করা	-5.50553
▁হয়েছে	-5.55061
'	-5.60987
▁হয়	-5.62343
ই	-5.63999
▁এই	-5.64379
.	-5.68274
▁না	-5.69383
ও	-5.79789
▁তিনি	-5.80051
▁।	-5.84002
▁এবং	-5.84347
▁'	-5.88167
▁এক	-5.95688
▁হবে	-5.99411
▁তার	-6.00614
▁নিয়ে	-6.0183
▁বলেন	-6.01991
▁জন্য	-6.02755
য়	-6.05054
2	-6.09342
▁করেন	-6.15473
▁একটি	-6.16091
ন	-6.16428
তে	-6.18207
টি	-6.2538
▁করতে	-6.30983
▁সময়	-6.32415
▁এর	-6.34212
রা	-6.35305
0	-6.39966
▁পর	-6.40855
▁মধ্যে	-6.41036
▁হয়ে	-6.45289
1	-6.4626
▁বলে	-6.4699
▁সঙ্গে	-6.47611
দের	-6.49758
▁:	-6.49879
▁জন	-6.50429
া	-6.5102
▁পুলিশ	-6.53404
▁জানান	-6.54966
▁আর	-6.55107
সহ	-6.59565
▁তাদের	-6.59618
স	-6.60767
▁হাজার	-6.63754
▁করেছে	-6.64841
▁-	-6.65578
▁বাংলাদেশ	-6.68592
▁যায়	-6.68739
ক	-6.71531
ি	-6.71608
▁করেছেন	-6.71816
▁দিয়ে	-6.71847
▁তবে	-6.72148
▁গত	-6.74324
ী	-6.74553
▁শুরু	-6.74994
▁কথা	-6.77028
▁যে	-6.80848
▁উপজেলা	-6.84252
ল	-6.8481
▁হচ্ছে	-6.85356
▁দুই	-6.85896
▁তারা	-6.87375
▁ওই	-6.8859
▁ইসলাম	-6.8991
▁বিভিন্ন	-6.89975
▁জেলা	-6.90864
▁নতুন	-6.91252
ম	-6.91728
▁মো	-6.92542
▁রয়েছে	-6.92914
▁বা	-6.93642
▁আগে	-6.93945
▁আজ	-6.93995
▁ছিলেন	-6.94855
▁করার	-6.95225
4	-6.97243
▁তা	-6.97463
▁কাজ	-6.98487
▁টাকা	-6.99985
▁পর্যন্ত	-7.00556
▁১	-7.01541
▁হিসেবে	-7.02772
▁সম্পাদক	-7.03097
▁হোসেন	-7.03823
▁রহমান	-7.04308
▁প্রথম	-7.04598
▁ঢাকা	-7.0505
▁বছর	-7.05624
▁২	-7.06235
▁গেছে	-7.06551
▁করোনা	-7.06555
না	-7.06791
▁১০	-7.06841
▁তাকে	-7.07233
▁উপজেলার	-7.07319
▁কিন্তু	-7.0748
▁আরও	-7.08138
▁সেই	-7.09097
▁–	-7.11412
▁জাতীয়	-7.11686
▁দিন	-7.11946
▁প্রধান	-7.12202
▁খবর	-7.1362
▁আমরা	-7.14128
▁ছিল	-7.14406
▁৩	-7.14589
▁দেখা	-7.15591
▁মে	-7.16642
▁কোনো	-7.17313
▁জানা	-7.17476
▁সে	-7.1857
▁পারে	-7.18672
▁সভাপতি	-7.18811
▁শেখ	-7.20185
▁পরে	-7.2053
▁দেশের	-7.20598
▁৫	-7.20852
▁সাথে	-7.21718
▁আমাদের	-7.21882
▁দিকে	-7.22096
▁বিরুদ্ধে	-7.22399
▁সব	-7.22469
▁এখন	-7.23377
▁শেষ	-7.24802
▁তথ্য	-7.24815
▁উদ্ধার	-7.2489
▁২০২০	-7.26504
▁প্রকাশ	-7.26629
▁সাধারণ	-7.27533
▁২০২১	-7.28211
▁লাখ	-7.28604
▁কাছে	-7.28842
▁দেওয়া	-7.29377
▁৪	-7.29424
▁হতে	-7.29512
▁বেশি	-7.29563
▁সরকার	-7.29643
▁সদস্য	-7.30394
ত	-7.31064
▁কর্মকর্তা	-7.31396
▁মাধ্যমে	-7.32142
▁কিছু	-7.3259
ব	-7.32741
শ	-7.33706
▁আমি	-7.34664
▁বুধবার	-7.34947
▁অভিযোগ	-7.36227
▁সোমবার	-7.36682
▁মঙ্গলবার	-7.37494
▁হাসপাতালে	-7.37949
▁বৃহস্পতিবার	-7.38444
!	-7.38771
তা	-7.39191
▁আটক	-7.39513
জ	-7.39764
▁মৃত্যু	-7.39879
▁চেয়ারম্যান	-7.39909
টা	-7.40131
▁অনেক	-7.40457
বি	-7.41274
▁নিহত	-7.41302
▁নয়	-7.42181
▁ছেলে	-7.43225
▁১২	-7.43391
▁কারণে	-7.43454
▁২০১৯	-7.43536
▁নেই	-7.43761
▁প্রধানমন্ত্রী	-7.43982
▁প্রকাশিত	-7.44176
▁আওয়ামী	-7.44398
▁সংবাদ	-7.44849
▁৬	-7.45059
▁এলাকায়	-7.45225
▁শনিবার	-7.4576
▁উপস্থিত	-7.45792
▁২৪	-7.45861
▁ডেস্ক	-7.46719
▁অনুষ্ঠিত	-7.46857
▁প্রায়	-7.46874
▁বিষয়ে	-7.469
পুর	-7.4697
▁তিন	-7.47562
▁আমার	-7.4772
▁নাম	-7.47833
▁বড়	-7.48186
▁আ	-7.48321
▁১১	-7.4859
▁দেন	-7.48779
▁আছে	-7.49333
▁শুক্রবার	-7.49801
নি	-7.50296
▁দেশে	-7.50989
/	-7.5141
▁২০	-7.51595
▁এমন	-7.51607
▁দল	-7.5208
▁জানিয়েছেন	-7.5278
▁৭	-7.52993
▁নিশ্চিত	-7.53502
।'	-7.53589
▁আক্রান্ত	-7.53629
▁হয়েছেন	-7.54657
▁মা	-7.54835
▁স্বাস্থ্য	-7.54886
▁ঘোষণা	-7.54912
ট	-7.56743
▁১৯	-7.56769
▁গ্রামের	-7.56985
▁প্রতি	-7.57072
▁সকাল	-7.57436
▁ধরে	-7.57565
▁তাই	-7.57581
▁হলে	-7.57774
▁করছে	-7.57798
▁মানুষ	-7.57803
▁১৫	-7.58081
ার	-7.58133
▁এবার	-7.58312
▁বন্ধ	-7.58631
ো	-7.58799
▁নিউজ	-7.58927
▁বিশেষ	-7.59012
▁অ	-7.59174
▁যাবে	-7.59281
▁ঘটনা	-7.59614
▁মামলা	-7.60006
▁খান	-7.60101
▁দিতে	-7.60273
▁থানার	-7.60385
▁বলা	-7.60514
▁বাংলাদেশের	-7.60569
▁সহ	-7.60616
▁আগামী	-7.61252
3	-7.61347
▁৮	-7.61388
▁News	-7.61409
▁বছরের	-7.61512
▁এতে	-7.61568
9	-7.6172
▁জুন	-7.61866
▁অক্টোবর	-7.61989
▁কোটি	-7.61994
▁দাবি	-7.62075
▁দলের	-7.62098
▁কোন	-7.62135
প	-7.62468
ভাবে	-7.62884
▁স্থানীয়	-7.63881
▁সেপ্টেম্বর	-7.63941
দ	-7.64142
▁দেয়া	-7.64455
▁আরো	-7.64844
▁মার্চ	-7.64844
s	-7.64849
▁ঘটনায়	-7.65888
▁পাওয়া	-7.66568
▁দু	-7.67379
▁সাবেক	-7.67438
▁সদর	-7.67441
▁যা	-7.68021
▁মতো	-7.68112
5	-7.68245
▁কি	-7.68352
▁৯	-7.68395
?	-7.68453
▁জুলাই	-7.68567
▁মানুষের	-7.68674
▁টি	-7.69397
▁ছবি	-7.69684
▁Home	-7.70358
▁একজন	-7.70367
▁এপ্রিল	-7.71156
▁নামে	-7.71177
লা	-7.71238
▁আহত	-7.72404
7	-7.72558
▁আলী	-7.72837
▁বিষয়টি	-7.72949
▁দেশ	-7.73421
▁১৪	-7.73935
মা	-7.74312
com	-7.74315
এ	-7.74761
▁আল	-7.74994
▁গিয়ে	-7.75125
▁আপডেট	-7.75216
▁ইউনিয়নের	-7.75433
▁এসব	-7.75642
িং	-7.75924
▁সালে	-7.7627
লি	-7.76299
▁সকালে	-7.76332
▁রাতে	-7.76811
▁নভেম্বর	-7.77041
▁বি	-7.77056
▁হক	-7.77195
▁ব্যবস্থা	-7.77311
▁তাঁর	-7.7758
▁পুলিশের	-7.77609
▁সংখ্যা	-7.78306
8	-7.78479
▁শিক্ষা	-7.78923
ঃ	-7.78989
▁পড়ে	-7.79323
হ	-7.79559
▁আন্তর্জাতিক	-7.79757
▁তৈরি	-7.79941
▁রাত	-7.802
▁হওয়ার	-7.80573
▁গ্রেফতার	-7.80642
▁অংশ	-7.81173
▁জানুয়ারি	-7.81174
▁লীগের	-7.81481
▁নেতা	-7.8173
▁জনের	-7.81749
গুলো	-7.81837
▁সেখানে	-7.81857
▁শেষে	-7.81953
১	-7.82123
▁"	-7.82235
▁ড	-7.82275
▁করছেন	-7.82284
▁বাড়ি	-7.82355
▁বলেছেন	-7.83038
▁ডিসেম্বর	-7.83074
▁ভারতের	-7.83363
▁এলাকার	-7.83893
▁১৮	-7.83922
কা	-7.84
▁সামনে	-7.84128
▁কে	-7.84478
▁মোঃ	-7.84739
▁যাচ্ছে	-7.84956
ফ	-7.8529
▁নারী	-7.85338
▁হাসান	-7.85652
▁মনে	-7.85961
▁সরকারি	-7.8607
ুল	-7.86098
▁১৩	-7.86127
▁একই	-7.86566
▁নির্বাচন	-7.86666
▁দিয়েছেন	-7.86794
▁বেশ	-7.87079
▁এম	-7.87149
6	-7.87418
▁আলম	-7.87436
▁২০১৮	-7.87471
▁সিদ্ধান্ত	-7.87514
▁১৬	-7.87638
▁দিয়েছে	-7.87923
▁আগস্ট	-7.87934
▁১৭	-7.88114
▁পরীক্ষা	-7.8817
▁মারা	-7.88237
▁এটি	-7.88541
▁মোহাম্মদ	-7.88756
▁নি	-7.88931
জি	-7.89394
▁ভালো	-7.90321
িত	-7.90545
সা	-7.90555
▁সালের	-7.90716
▁হলো	-7.90717
▁থাকে	-7.91028
িক	-7.91106
▁এরপর	-7.91109
▁অনুষ্ঠানে	-7.91372
▁কলেজ	-7.91415
▁নিজের	-7.91468
▁স	-7.91574
▁দ্বিতীয়	-7.91725
▁বাংলা	-7.91752
▁জানিয়েছে	-7.91766
▁কম	-7.92071
▁চৌধুরী	-7.92228
▁তুলে	-7.9311
▁উদ্দিন	-7.9311
▁ই	-7.93372
▁থাকা	-7.93388
▁চার	-7.93756
▁হাতে	-7.93831
▁ওপর	-7.93869
▁পেয়ে	-7.93896
লে	-7.93931
সি	-7.94014
ড	-7.94633
▁৩০	-7.95054
▁যান	-7.95255
▁দেয়	-7.95401
▁চেষ্টা	-7.95469
▁ভর্তি	-7.95629
▁হন	-7.95747
▁পরিবারের	-7.96077
▁ফলে	-7.96118
▁মোট	-7.96334
ু	-7.96621
ঁ	-7.96737
▁অভিযান	-7.97572
▁সরকারের	-7.97612
▁পরিচালক	-7.97753
▁ব্যবহার	-7.97827
▁প্রতিনিধি	-7.98071
▁গতকাল	-7.98389
▁করবে	-7.98609
▁২১	-7.99555
▁ম	-7.99633
ছে	-8.0005
▁আহমেদ	-8.00807
▁দক্ষিণ	-8.00907
▁থানায়	-8.00999
▁বিএনপি	-8.01127
▁সাড়ে	-8.01173
▁অবস্থায়	-8.01711
গ	-8.02026
▁উপ	-8.02859
▁চলছে	-8.0289
▁শতাংশ	-8.03088
▁ঘটে	-8.03158
▁উত্তর	-8.03276
▁কারণ	-8.03884
▁আলোচনা	-8.03918
▁পাশাপাশি	-8.04071
▁এছাড়া	-8.04128
▁২৫	-8.04268
▁বক্তব্য	-8.04281
▁অফিসার	-8.04339
▁নির্বাহী	-8.04368
▁নিতে	-8.04529
▁অন্য	-8.04598
জন	-8.05
্য	-8.05094
▁করবেন	-8.0512
▁কেউ	-8.05233
▁বিতরণ	-8.056
▁থাকবে	-8.05805
▁ডা	-8.05878
▁ধরনের	-8.05947
▁মাঝে	-8.06182
▁রোববার	-8.06384
▁২২	-8.06551
▁ভারত	-8.06828
২	-8.06882
▁জয়	-8.07097
▁হত্যা	-8.07247
▁বিভাগের	-8.07574
▁জেলার	-8.0771
▁সু	-8.08054
▁দুপুরে	-8.08095
বা	-8.08366
▁ক্রিকেট	-8.08453
▁ফেব্রুয়ারি	-8.08478
▁হয়েছিল	-8.08938
▁এসময়	-8.08948
▁আদালত	-8.09249
▁রবিবার	-8.09295
য়ে	-8.10179
▁শিশু	-8.10433
▁এদিকে	-8.11097
▁রান	-8.11997
▁হয়নি	-8.12067
▁বার	-8.1219
▁নেওয়া	-8.12331
▁কমিটির	-8.12548
▁স্ত্রী	-8.12898
▁বিশ্ব	-8.12944
▁শিক্ষক	-8.1319
▁ভারতীয়	-8.13591
▁যদি	-8.13651
▁বাড়িতে	-8.13893
▁বিএনপির	-8.14105
তম	-8.14372
▁আব্দুল	-8.14397
▁ইউনিয়ন	-8.14459
▁ছাড়া	-8.14565
▁জানায়	-8.14566
▁অনলাইন	-8.14574
টির	-8.14666
▁সিলেট	-8.1468
ং	-8.14699
▁ম্যাচ	-8.14842
▁জানানো	-8.15007
▁অপরাহ্ণ	-8.15322
▁আইন	-8.15563
১৯	-8.1592
▁পা	-8.16226
এর	-8.16473
▁পালন	-8.16473
▁কেন্দ্রীয়	-8.16577
▁সুযোগ	-8.16683
▁অতিথি	-8.17171
রি	-8.17248
▁ক	-8.1742
পি	-8.17645
▁হওয়া	-8.17993
▁সকল	-8.18003
▁দুটি	-8.18035
▁থেকেই	-8.18043
▁সড়ক	-8.18558
▁চট্টগ্রাম	-8.18588
▁দিনের	-8.1898
▁ভিডিও	-8.19434
▁২৩	-8.19916
▁প্র	-8.19924
▁সি	-8.19985
▁মৃত	-8.20301
▁একটা	-8.20416
▁রেখে	-8.20492
▁লাশ	-8.20575
▁দৈনিক	-8.20593
▁এসে	-8.20646
▁মেডিকেল	-8.20984
▁রাখা	-8.21148
▁দায়িত্ব	-8.2115
▁অর্থ	-8.21383
▁ভোট	-8.21638
▁সভায়	-8.21792
▁আবেদন	-8.21869
▁চলে	-8.22606
▁ম্যাচে	-8.22884
▁ঘটনার	-8.22963
▁খুব	-8.23118
▁বঙ্গবন্ধু	-8.23641
▁মাঠে	-8.23728
ভ	-8.23794
▁যেতে	-8.23993
▁উপলক্ষে	-8.24092
৩	-8.24123
▁সময়ে	-8.24235
▁মাস	-8.24663
▁মার্কিন	-8.24737
▁গ্রহণ	-8.24895
▁হল	-8.25177
মি	-8.25346
▁অনুযায়ী	-8.25453
▁মাদক	-8.25703
▁বিশ্ববিদ্যালয়ের	-8.26305
ণ	-8.26582
▁করোনায়	-8.26598
▁সামাজিক	-8.26691
▁/	-8.26891
▁লীগ	-8.2717
▁পাঁচ	-8.27178
▁মামলার	-8.27296
▁মিয়া	-8.27802
"	-8.27831
▁এটা	-8.27844
▁সুপার	-8.27916
▁থানা	-8.27969
▁রায়	-8.28132
▁পক্ষ	-8.28195
ুর	-8.28288
▁তদন্ত	-8.28595
▁উপর	-8.28604
▁প্রদান	-8.28728
▁প্রেসিডেন্ট	-8.28897
▁অন্যান্য	-8.28939
▁শুধু	-8.2954
লো	-8.29599
▁আবার	-8.29603
▁অব	-8.29667
▁সংসদ	-8.29728
▁সভা	-8.29833
▁তখন	-8.29988
▁ছাত্র	-8.30044
▁রাজধানীর	-8.3006
▁পাশে	-8.30154
▁অতিরিক্ত	-8.30194
▁নির্বাচনে	-8.30199
২০	-8.30522
চ	-8.30673
▁মামলায়	-8.30842
▁যাওয়ার	-8.30894
▁দেখে	-8.3105
▁নানা	-8.3121
বে	-8.31223
▁এগিয়ে	-8.31299
▁সবচেয়ে	-8.31414
য়া	-8.31602
▁শনাক্ত	-8.31641
▁পরিষদের	-8.31664
▁২৬	-8.31783
▁মেয়র	-8.32166
জা	-8.32358
▁সাংবাদিক	-8.32499
▁বেগম	-8.32888
▁পারেন	-8.33127
▁সম্প্রতি	-8.3321
▁পাঠানো	-8.33384
▁গ্রেপ্তার	-8.33489
▁বর্তমানে	-8.33526
▁পরিবার	-8.33721
▁উন্নয়ন	-8.33744
তি	-8.34073
▁প্রাথমিক	-8.3419
▁করি	-8.34291
▁প্রার্থী	-8.34314
▁দ্রুত	-8.34863
▁হলেন	-8.35052
উ	-8.35096
▁আদালতে	-8.35108
▁২৮	-8.35205
দা	-8.35271
▁হাসিনা	-8.35304
কার	-8.35776
▁উদ্বোধন	-8.3584
▁বিয়ে	-8.35946
▁নির্দেশ	-8.35976
▁আপনার	-8.36056
▁তো	-8.36074
▁কুমার	-8.36397
▁দাম	-8.36419
▁চালিয়ে	-8.36695
▁কোনও	-8.36745
▁আয়োজন	-8.37295
▁বের	-8.37327
▁হামলা	-8.37612
আ	-8.37895
▁সচিব	-8.37908
▁থাকতে	-8.38233
▁অবস্থান	-8.38334
▁২৭	-8.38464
▁আসে	-8.38661
▁করলে	-8.38784
▁দায়ের	-8.38907
▁চিকিৎসা	-8.38957
▁দেওয়ার	-8.38984
িয়া	-8.39146
▁পানি	-8.39197
▁জীবন	-8.39315
]	-8.39442
▁নেয়া	-8.3973
ির	-8.39779
▁কয়েক	-8.39884
▁ব্যাপারে	-8.4005
▁যাওয়া	-8.40094
▁দেখতে	-8.4036
▁কা	-8.40538
ড়	-8.40742
▁সহকারী	-8.41025
▁ক্ষেত্রে	-8.41154
▁সংস্থা	-8.4135
▁অধ্যাপক	-8.41538
▁সূত্রে	-8.41778
▁বিপক্ষে	-8.41797
▁হলেও	-8.41866
▁সমস্যা	-8.41875
▁মন্তব্য	-8.42013
▁নম্বর	-8.42124
▁নিজ	-8.42318
▁যারা	-8.42382
▁ছোট	-8.42493
▁নিরাপত্তা	-8.42899
▁মাত্র	-8.42929
▁মুক্তি	-8.43107
▁এলাকা	-8.43162
▁পরিচালনা	-8.43449
▁ডি	-8.43679
▁রাখেন	-8.43694
▁বাবা	-8.43715
▁বাজার	-8.44095
▁মোবাইল	-8.44236
▁মন্ত্রী	-8.44241
▁যোগ	-8.44403
▁বাংলাদেশে	-8.44539
ডি	-8.4457
নে	-8.44618
▁কী	-8.44712
▁করোনার	-8.44773
তার	-8.44972
▁সিটি	-8.45187
▁চেয়ে	-8.45292
▁ভাই	-8.45495
▁বাস	-8.45593
▁স্কুল	-8.45763
▁কেন্দ্র	-8.45973
▁অভিনয়	-8.46061
▁ব্যাংক	-8.46313
▁রয়েছেন	-8.46383
বার	-8.46467
▁কার্যক্রম	-8.46507
৪	-8.46537
▁যোগাযোগ	-8.46763
▁জি	-8.46785
▁গেছেন	-8.46977
▁খালেদা	-8.47093
▁হাত	-8.47357
▁হার	-8.47477
▁শহরের	-8.47707
▁রাখতে	-8.47879
e	-8.48068
▁২০১৭	-8.48096
▁মু	-8.48282
▁উচ্চ	-8.48331
৫	-8.48612
▁কমিটি	-8.4869
▁আছেন	-8.48943
▁খেলা	-8.49208
▁শাহ	-8.49397
▁নিজস্ব	-8.4956
▁সর্বোচ্চ	-8.49571
▁যখন	-8.49809
▁সৌদি	-8.49817
▁সা	-8.49913
▁পিএম	-8.50025
ড়া	-8.50187
▁সেবা	-8.50235
▁পি	-8.50241
▁»	-8.50311
▁সম্পর্কে	-8.50388
পাড়া	-8.50462
▁যার	-8.50587
খ	-8.50592
▁পরিস্থিতি	-8.50594
পা	-8.50637
▁এস	-8.50733
য়ের	-8.5092
▁৫০	-8.51074
▁শেয়ার	-8.5113
▁চাই	-8.5114
▁ভারপ্রাপ্ত	-8.51188
▁পথে	-8.51195
▁পরিষদ	-8.51208
▁রি	-8.51253
▁বিশ্বের	-8.51263
▁করুন	-8.51297
▁বিভাগ	-8.51405
▁আসা	-8.51478
▁দিবস	-8.51745
▁আশা	-8.51751
▁এসেছে	-8.51902
▁জানতে	-8.51913
▁গ্রামে	-8.51966
▁বে	-8.52285
▁নামের	-8.52379
▁প্রতিষ্ঠান	-8.525
▁যেন	-8.52613
▁ঠিক	-8.52955
▁সম্ভব	-8.52983
হা	-8.53025
▁টিকা	-8.53149
▁টাকার	-8.53565
▁প্রমুখ	-8.53637
▁বাজারে	-8.5386
▁উ	-8.53897
▁আই	-8.54047
▁ফিরে	-8.54114
▁আবু	-8.54253
▁দিনে	-8.54318
▁সারা	-8.54437
▁স্থানে	-8.54656
েই	-8.54933
ন্ত	-8.55179
▁অভিযোগে	-8.55253
▁আগুন	-8.55433
ীয়	-8.55531
▁কাদের	-8.55534
▁সভাপতিত্বে	-8.55574
▁মহিলা	-8.55718
▁২৯	-8.55816
▁থাকার	-8.55896
ভি	-8.55982
▁দেশটির	-8.56084
▁বিক্রি	-8.56084
▁মেয়ে	-8.56153
▁কু	-8.56273
▁জানিয়ে	-8.56447
▁বেড়ে	-8.56711
কি	-8.56734
▁তাহলে	-8.57172
▁চা	-8.57263
▁শ	-8.57343
▁পরিকল্পনা	-8.5755
▁ব	-8.57616
;	-8.57618
▁ওসি	-8.57725
▁মিনিটে	-8.57728
▁রিপোর্ট	-8.57757
),	-8.57799
(	-8.57917
নো	-8.57976
▁পারবেন	-8.58051
স্ট	-8.58278
▁আহমদ	-8.58347
সে	-8.58378
ষ	-8.58913
▁গেলে	-8.5892
▁কেন	-8.58946
কারী	-8.58971
▁মৃত্যুর	-8.59164
৩০	-8.5946
▁অভিনেত্রী	-8.59496
▁২০২২	-8.59583
▁আপনি	-8.59818
▁বাইরে	-8.60139
▁পূর্ব	-8.60294
▁নিজেদের	-8.60476
▁আসছে	-8.60647
▁বিশ্ববিদ্যালয়	-8.6073
▁টেস্ট	-8.60925
▁ঘণ্টায়	-8.61045
▁ঘরে	-8.61087
▁সুস্থ	-8.61227
▁উইকেট	-8.61345
▁অধিনায়ক	-8.61441
▁বিকেলে	-8.61585
▁বর্তমান	-8.61613
ছেন	-8.61868
▁বল	-8.6197
▁করছি	-8.62052
▁সৃষ্টি	-8.6207
ায়	-8.62138
▁Bangla	-8.62197
▁এখনও	-8.62398
▁[	-8.62419
▁উল্লেখ	-8.62759
▁জারি	-8.62772
▁বিষয়	-8.62829
▁তৃতীয়	-8.62877
▁নেন	-8.63016
▁পৌর	-8.63198
▁হাসপাতাল	-8.63208
▁অপরাহ্ন	-8.63219
নের	-8.63279
▁মাসের	-8.63281
▁রাজশাহী	-8.63414
▁দুপুর	-8.63462
▁শিক্ষার্থীদের	-8.63646
▁ঢাকার	-8.6383
▁ফল	-8.63848
▁রেকর্ড	-8.63884
▁সূত্র	-8.63997
▁প	-8.64029
▁রাজনৈতিক	-8.64107
▁জনপ্রিয়	-8.64152
▁ফোন	-8.64323
▁আহ্বান	-8.64415
▁মডেল	-8.64467
▁স্বামী	-8.6464
▁সবাই	-8.64733
▁মুখে	-8.64788
▁হওয়ায়	-8.65035
▁সাংবাদিকদের	-8.65243
▁প্রস্তুতি	-8.65364
▁শিকার	-8.65566
▁চিকিৎসক	-8.65742
▁আবুল	-8.65816
▁উদ্যোগে	-8.65909
er	-8.65952
২৪	-8.65979
▁সেরা	-8.66074
অ	-8.66197
▁হাসপাতালের	-8.66225
গা	-8.66268
মান	-8.66341
▁অবস্থা	-8.66377
▁ব্যক্তি	-8.66414
▁ইউপি	-8.66643
▁পক্ষে	-8.66741
▁সংক্রমণ	-8.66812
▁S	-8.66849
▁বিক্ষোভ	-8.66975
▁চলতি	-8.67355
▁আগের	-8.67479
▁পড়েছে	-8.67667
▁নিয়েছে	-8.68073
▁মেনে	-8.68363
কো	-8.6843
▁পুরস্কার	-8.68431
▁জন্ম	-8.68912
t	-8.69098
৭	-8.69105
▁কৃষি	-8.69197
৬	-8.69225
▁উপজেলায়	-8.69237
▁বিষয়ক	-8.69251
▁মধ্য	-8.69273
▁বার্তা	-8.69392
▁পড়া	-8.69425
▁প্রতিবেদক	-8.69481
▁সবার	-8.6949
▁মাসে	-8.69542
▁আগেই	-8.69676
▁নেতৃত্বে	-8.69678
শা	-8.69678
▁গেল	-8.69712
▁শিক্ষার্থী	-8.69749
▁ব্যবসায়ী	-8.69868
▁বিয়ের	-8.70029
▁অ্যা	-8.70207
▁খাদ্য	-8.70226
▁সংগ্রহ	-8.70346
▁গুলি	-8.70547
▁প্রধানমন্ত্রীর	-8.70601
১০	-8.70656
▁চালু	-8.70804
▁মত	-8.70852
▁হারিয়ে	-8.70884
▁বিমান	-8.70939
▁প্রযুক্তি	-8.71242
৮	-8.71319
▁আক্তার	-8.71364
▁মাহমুদ	-8.71438
▁৩১	-8.71584
▁এমপি	-8.71898
▁খাবার	-8.72081
▁ছড়িয়ে	-8.72386
▁বেলা	-8.72807
▁মন্ত্রণালয়ের	-8.72926
▁মহানগর	-8.72933
▁গুরুত্বপূর্ণ	-8.72933
▁কাজে	-8.72963
▁জেনারেল	-8.73032
▁বিশ্বাস	-8.73049
▁সম্পর্ক	-8.7318
▁শ্রমিক	-8.73319
▁গাড়ি	-8.73322
০০	-8.73367
▁উঠে	-8.73375
▁গড়ে	-8.73383
▁করলেন	-8.73427
▁নিয়োগ	-8.73484
▁পদে	-8.7365
য়ার	-8.7382
২৫	-8.7383
▁ধরা	-8.73877
▁রহমানের	-8.73935
কু	-8.73998
▁কমিশনার	-8.74124
▁অন্যতম	-8.74139
▁যুগ্ম	-8.74176
▁কাছ	-8.74356
▁যায়নি	-8.74576
মে	-8.74711
দিন	-8.74774
▁প্রশাসন	-8.74806
▁বাড়ির	-8.74821
▁পরিবর্তন	-8.74954
▁এখনো	-8.75061
▁কামাল	-8.75133
▁সম্মেলনে	-8.75185
▁প্রয়োজন	-8.75333
▁সিনিয়র	-8.75513
▁রযাব	-8.75541
▁তারকা	-8.75576
▁বাংলাদেশি	-8.75663
▁গোল	-8.75799
▁পোস্ট	-8.75938
▁সহায়তা	-8.75943
▁বিচার	-8.76038
▁পান	-8.76175
▁প্রশ্ন	-8.76259
▁মরদেহ	-8.76497
▁পরীক্ষার	-8.76669
▁গান	-8.76677
▁গ্রাম	-8.76737
ষ্ট	-8.76766
ভা	-8.76768
▁করেছিলেন	-8.76779
১২	-8.76821
▁ফের	-8.76893
▁দেয়ার	-8.76901
লেন	-8.7691
▁লা	-8.77004
আর	-8.77093
▁আবদুল	-8.77125
▁নির্বাচিত	-8.77294
▁কয়েকটি	-8.77555
▁পয়েন্ট	-8.7768
▁নেমে	-8.77859
▁সাকিব	-8.77918
▁২০১৬	-8.77937
▁থাকায়	-8.77985
al	-8.78005
▁জনকে	-8.78017
▁দীর্ঘ	-8.78324
▁মূল	-8.78417
শি	-8.7847
▁ছেড়ে	-8.78471
▁সেটা	-8.78616
▁পর্যায়ে	-8.78853
▁উল্লেখ্য	-8.79018
রো	-8.79249
ছ	-8.79298
▁শহীদ	-8.79308
▁মন্ত্রণালয়	-8.79777
▁আসামি	-8.79783
▁পার	-8.8003
▁নমুনা	-8.80044
থ	-8.80208
▁ফেসবুক	-8.80378
▁নিয়ন্ত্রণ	-8.80605
▁মুখ	-8.80652
▁শা	-8.80699
▁ঢাকায়	-8.80766
১১	-8.80853
▁জে	-8.80865
▁প্রাণ	-8.80942
▁হা	-8.80994
▁এখানে	-8.81184
▁কর্তৃপক্ষ	-8.81192
▁নির্দেশনা	-8.81234
y	-8.81376
▁হত্যার	-8.81397
▁ভিত্তিতে	-8.81415
কম	-8.81421
▁৪০	-8.81483
▁সাত	-8.81512
▁সদস্যরা	-8.81668
n	-8.81686
▁হামলার	-8.8177
▁জমা	-8.81883
▁মালিক	-8.81995
স্থ	-8.82008
▁প্রতিদিন	-8.82011
▁ভারতে	-8.82158
▁করেছি	-8.82241
▁চান	-8.82408
▁কলেজের	-8.82425
▁অফিস	-8.82524
৯	-8.8256
▁ছাত্রলীগের	-8.82587
▁সর্বশেষ	-8.82642
▁পাকিস্তান	-8.82677
▁তারিখ	-8.82686
প্র	-8.827
াল	-8.82741
১৮	-8.82836
▁ছয়	-8.8292
ীর	-8.82963
▁প্রশাসক	-8.83224
২২	-8.83455
ছি	-8.83469
▁জেলায়	-8.83525
▁in	-8.83609
▁ঘটেছে	-8.83613
▁ধর্ষণ	-8.83691
▁অ্যান্ড	-8.83712
ইন	-8.83884
▁প্রতিবেদন	-8.84184
দি	-8.84364
▁ভাবে	-8.84701
▁অনুষ্ঠান	-8.85024
▁ফেলে	-8.85388
১৫	-8.85477
▁সম্পন্ন	-8.85571
▁দাবিতে	-8.86003
মন্ত্রী	-8.86157
কৃত	-8.86225
▁প্রস্তাব	-8.86237
▁বলেও	-8.86301
▁কবির	-8.8631
▁সংগঠন	-8.86512
▁লক্ষ্য	-8.86557
▁ফুটবল	-8.86686
u	-8.86765
▁মুক্তিযোদ্ধা	-8.86955
▁ছবির	-8.87016
▁পুরো	-8.87055
▁আয়োজিত	-8.87158
▁সন্ধ্যায়	-8.87207
নার	-8.87272
▁কেজি	-8.87402
শে	-8.87406
▁জা	-8.87433
টার	-8.87699
▁কর্মসূচি	-8.87806
▁করোনাভাইরাস	-8.87864
▁দলীয়	-8.87983
▁পেতে	-8.88251
▁নির্মাণ	-8.88373
মু	-8.88374
▁পরিবেশ	-8.88487
▁রাখার	-8.88524
▁সন্তান	-8.88589
▁ত	-8.88632
▁শহর	-8.88941
▁ফি	-8.89047
▁পরবর্তী	-8.89058
▁ধর্ম	-8.89086
▁বৈঠক	-8.89207
▁যুক্তরাষ্ট্রের	-8.8925
▁শীর্ষ	-8.89373
▁লোকজন	-8.89478
▁পেয়েছেন	-8.89524
o	-8.89669
▁ঘটনাস্থলে	-8.90149
০	-8.90156
য	-8.90172
১৪	-8.90409
ন্ড	-8.90437
▁কো	-8.90604
গুলোতে	-8.90692
▁নিয়মিত	-8.90749
ওসি	-8.91039
▁লোক	-8.91091
▁মিনিট	-8.91248
▁কোভিড	-8.91301
▁আমাকে	-8.91415
▁প্রেস	-8.91476
▁মাছ	-8.9148
▁যুবক	-8.91483
▁ইন	-8.91493
▁ঈদ	-8.91493
▁পণ্য	-8.9154
▁যেখানে	-8.91666
▁বিনোদন	-8.91825
▁প্রবেশ	-8.91832
▁সংশ্লিষ্ট	-8.92012
▁গ	-8.92068
টে	-8.92293
▁সময়ের	-8.92443
▁আনা	-8.92574
রু	-8.92588
▁মি	-8.92598
২৩	-8.92664
▁রোগী	-8.92716
▁পাকিস্তানের	-8.92724
গুলোর	-8.92746
▁আইনজীবী	-8.92751
▁পালিয়ে	-8.92791
▁তিনটি	-8.92807
▁এদিন	-8.92851
▁বলতে	-8.92857
▁পায়	-8.92955
২১	-8.93308
▁হিসাবে	-8.93344
▁কমিশন	-8.93459
▁বৃদ্ধি	-8.93565
টিতে	-8.93663
▁মন	-8.93814
▁চিকিৎসাধীন	-8.94129
▁প্রকাশের	-8.94165
▁এছাড়াও	-8.943
▁দোয়া	-8.94339
দার	-8.9435
▁লেখা	-8.94353
কালে	-8.94371
১৭	-8.94404
▁পরামর্শ	-8.94459
▁সুবিধা	-8.94575
▁শিল্প	-8.94581
▁নিয়েছেন	-8.94621
▁সম্মেলন	-8.94647
▁যাত্রী	-8.94675
an	-8.94676
▁জরিমানা	-8.94749
▁চন্দ্র	-8.94768
।"	-8.94778
▁জরুরি	-8.94875
▁বসে	-8.94881
▁গিয়েছে	-8.94899
▁নেয়	-8.94933
▁লাল	-8.94981
▁সেনা	-8.95102
▁যদিও	-8.95125
▁থাকেন	-8.95218
▁পেয়েছে	-8.95232
ছিল	-8.95383
▁পরিবহন	-8.95673
েশন	-8.95733
▁বাকি	-8.95752
▁চলাচল	-8.95767
▁প্রতিমন্ত্রী	-8.95889
▁পদক্ষেপ	-8.96008
▁অব্যাহত	-8.96073
▁অধিকার	-8.961
▁রিপোর্টার	-8.96105
▁বোর্ড	-8.96131
▁জায়গা	-8.96182
▁ন	-8.96184
▁যাতে	-8.96223
▁নেওয়ার	-8.96245
▁অনেকেই	-8.96275
▁ঘণ্টা	-8.96311
▁সংগঠনের	-8.96336
▁বন	-8.96454
▁দশমিক	-8.96455
▁কণ্ঠ	-8.96465
▁দলে	-8.96505
▁বৈঠকে	-8.96599
সের	-8.96602
▁বেড়েছে	-8.96612
▁সমিতির	-8.96639
▁ধারণা	-8.96685
▁স্বাভাবিক	-8.96795
▁::	-8.96873
▁বিরোধী	-8.9706
▁ব্যাপক	-8.97161
▁উঠেছে	-8.97167
ত্ব	-8.97433
▁শোক	-8.97464
▁হ	-8.97709
▁অভিনেতা	-8.97757
গুলি	-8.97772
রে	-8.97788
▁প্রচার	-8.978
▁আদালতের	-8.9787
▁গুরুতর	-8.97892
▁স্টাফ	-8.98135
▁আদেশ	-8.98189
▁অস্ত্র	-8.9829
▁খুলনা	-8.98389
▁উদ্যোগ	-8.98438
▁দিলেন	-8.98467
▁অন্তত	-8.98739
▁কার্যালয়ে	-8.98756
গঞ্জ	-8.98761
▁রাজ	-8.988
▁প্রতিটি	-8.98814
ar	-8.99055
৫০	-8.99139
▁চায়	-8.99244
▁জাতির	-8.99267
▁গভীর	-8.99269
১৬	-8.99282
▁পরিচয়	-8.99411
▁করায়	-8.9965
▁লক্ষ	-8.99785
▁পরিমাণ	-8.9981
ছিলেন	-8.9982
▁জড়িত	-8.99878
▁আসতে	-8.99926
▁বয়সী	-9.00016
▁আন্দোলন	-9.00048
▁একাধিক	-9.00129
S	-9.00147
২৮	-9.00266
▁বাহিনী	-9.00266
িন	-9.00348
▁বছরে	-9.00536
▁তাঁকে	-9.00698
▁গঠন	-9.00703
▁রোহিঙ্গা	-9.0073
ফা	-9.00761
▁দোকান	-9.00887
▁ঘর	-9.00918
▁ভেঙে	-9.00972
▁জায়গায়	-9.01125
▁থাকলে	-9.0115
▁বিকেল	-9.01248
p	-9.01306
▁ভাল	-9.01472
▁বাসায়	-9.0151
▁বাহিনীর	-9.01635
▁পাওয়ার	-9.01681
▁বয়স	-9.01777
জে	-9.01806
▁PM	-9.01809
▁বরিশাল	-9.01931
▁ভাইরাস	-9.01984
▁ভুল	-9.02095
শন	-9.02115
৪০	-9.02189
▁চালক	-9.02293
▁আম	-9.02305
লু	-9.02318
▁রে	-9.02446
▁জ	-9.02538
▁সিনেমা	-9.026
ূ	-9.02635
▁দীর্ঘদিন	-9.02647
▁বিচারপতি	-9.02678
▁ব্যাংকের	-9.02693
▁ছবিতে	-9.02724
এম	-9.02738
▁বেসরকারি	-9.02749
▁গল্প	-9.02769
▁রানে	-9.02804
▁লক্ষ্যে	-9.02882
▁আসলে	-9.03005
▁যুক্ত	-9.03074
▁ধর্ষণের	-9.03097
▁সাহায্য	-9.03203
গত	-9.03344
▁হাসিনার	-9.03401
তো	-9.03479
▁পদ	-9.0354
▁অবৈধ	-9.0365
▁বিল	-9.03656
গো	-9.03808
নগর	-9.03833
▁ভাইস	-9.03849
▁ভাগ	-9.03905
▁পারবে	-9.03944
▁ট্রাম্প	-9.03992
▁সিরিজ	-9.04
▁প্রথমে	-9.04014
▁মাস্ক	-9.04171
▁তাতে	-9.04178
▁জিয়া	-9.04194
রী	-9.04236
▁কক্সবাজার	-9.04239
▁বিজ্ঞপ্তিতে	-9.04245
্যা	-9.04265
▁বই	-9.0429
▁প্রশিক্ষণ	-9.04472
▁হোম	-9.04683
▁জিয়ার	-9.04696
▁ইসলামের	-9.04888
িয়ে	-9.04893
▁রাজ্য	-9.04924
্	-9.04969
▁মূল্য	-9.05021
▁মহাসচিব	-9.05081
▁ওয়া	-9.05164
▁আসার	-9.05188
▁অনুমোদন	-9.05233
▁সেটি	-9.05242
▁লকডাউন	-9.05368
১৩	-9.0546
▁বিদ্যালয়ের	-9.05504
▁অপর	-9.05532
▁অর্জন	-9.05653
▁তালিকা	-9.05685
▁মুখোমুখি	-9.05714
▁তাঁদের	-9.05714
▁মানববন্ধন	-9.05781
▁সাংগঠনিক	-9.05786
▁রানের	-9.05936
▁নাগরিক	-9.0597
i	-9.0599
৩৫	-9.0599
▁০৯	-9.06233
▁চাইলে	-9.06266
▁সহযোগিতা	-9.06348
▁দুর্ঘটনা	-9.06415
▁যেমন	-9.06541
▁বিদ্যুৎ	-9.06549
▁সংক্রান্ত	-9.06599
▁প্রশাসনের	-9.06628
news	-9.06673
▁প্রতিবাদ	-9.06759
২৬	-9.06826
▁দূর	-9.06898
▁চলচ্চিত্র	-9.06993
▁মান	-9.07031
▁আসনের	-9.0704
ক্স	-9.07049
▁অন্যদিকে	-9.07117
▁মহা	-9.07172
ড়ি	-9.07231
▁pm	-9.07273
পে	-9.07299
▁গোপন	-9.07383
▁প্রতিবেদনে	-9.07401
এস	-9.07402
র্	-9.07457
হার	-9.07482
▁জল	-9.07551
▁আরব	-9.07573
▁অনুরোধ	-9.07632
▁স্বপ্ন	-9.07664
▁খেলতে	-9.07689
▁গা	-9.077
▁বিজেপি	-9.07713
▁কিংবা	-9.07799
▁স্থান	-9.08043
▁রাজধানী	-9.08135
▁কারাগারে	-9.08216
▁আওতায়	-9.08241
▁করিম	-9.08265
▁A	-9.08315
▁ইনচার্জ	-9.08387
▁প্রকল্প	-9.08695
▁অপরাধ	-9.08714
▁কয়েকজন	-9.08766
▁পথ	-9.08802
▁অভিযুক্ত	-9.09167
▁ফায়ার	-9.09231
▁P	-9.09275
▁উচিত	-9.09319
▁ডলার	-9.09323
▁নির্বাচনের	-9.09331
▁আসেন	-9.0938
▁মধ্যেই	-9.09392
▁ল	-9.09548
▁লে	-9.0957
ing	-9.09581
▁ওবায়দুল	-9.09655
▁পবিত্র	-9.09774
▁চুক্তি	-9.09788
▁পৌরসভার	-9.09862
▁স্থানীয়রা	-9.0992
▁পৌঁছে	-9.09942
স্ত	-9.09998
▁হঠাৎ	-9.10018
▁যাচ্ছেন	-9.10072
▁বিজ্ঞান	-9.10073
▁থাকলেও	-9.10183
▁রোগ	-9.10325
চে	-9.10379
ুজ্জামান	-9.10566
▁জমি	-9.10608
▁নিন	-9.10699
▁মাথায়	-9.1075
▁আয়	-9.10751
▁ভূমিকা	-9.10763
▁সমাজ	-9.10771
▁আবারও	-9.10799
▁বাসিন্দা	-9.1082
▁কোচ	-9.10836
ৎ	-9.10933
▁দেব	-9.10935
▁ম্যাচের	-9.10942
▁সৈয়দ	-9.11116
েল	-9.11177
▁কাজী	-9.11239
▁চাল	-9.11271
▁ফুল	-9.11442
▁শান্তি	-9.11485
▁সন্ধ্যা	-9.11668
▁দিক	-9.1168
▁কঠোর	-9.11697
ম্ব	-9.11793
মূলক	-9.11798
কাল	-9.11951
▁দেবে	-9.11982
▁টিম	-9.12089
▁সেলিম	-9.12187
▁বাদ	-9.12277
▁॥	-9.12513
▁পূর্বাহ্ণ	-9.12566
▁বিস্তারিত	-9.12688
ওয়া	-9.12691
▁নিয়ন্ত্রণে	-9.12735
▁কল	-9.1274
মো	-9.12846
A	-9.12984
th	-9.12991
▁বাতিল	-9.13016
▁Daily	-9.13052
▁Bangladesh	-9.13184
▁ট্রাক	-9.13189
▁ক্ষমতা	-9.13194
▁ডে	-9.13264
▁গো	-9.13289
▁মুসলিম	-9.13322
হি	-9.13382
লার	-9.13445
▁স্	-9.13472
নী	-9.13479
▁তারপর	-9.13553
▁যুব	-9.13573
▁ব্যবসা	-9.13575
▁পিতা	-9.13591
▁হুমকি	-9.13629
▁পরিদর্শন	-9.13647
▁টানা	-9.13723
২৭	-9.13724
▁লেনদেন	-9.13783
▁আলো	-9.13834
▁বহু	-9.13891
▁কাজের	-9.13911
তেই	-9.13917
▁আয়োজনে	-9.1394
▁কর্মী	-9.14016
▁শি	-9.14129
▁আর্থিক	-9.14137
▁ফা	-9.14149
▁মিছিল	-9.14222
চার	-9.14368
k	-9.14398
▁উপহার	-9.14411
▁ক্রিকেটার	-9.14461
▁মুজিবুর	-9.14638
ed	-9.1471
▁গবেষণা	-9.14805
▁প্রয়োজনীয়	-9.14986
▁চীনের	-9.15036
▁রা	-9.152
▁গোলাম	-9.15221
▁শুভ	-9.15275
▁নিয়ম	-9.15406
▁কোম্পানি	-9.15506
▁কমে	-9.15621
▁বিভাগে	-9.1569
▁উদযাপন	-9.15718
▁নজরুল	-9.15739
▁প্রচ্ছদ	-9.15844
▁রংপুর	-9.15881
▁খ	-9.16079
▁বৃষ্টি	-9.1612
▁শরীরে	-9.16143
▁তেল	-9.16143
▁সামগ্রী	-9.16168
▁ইকবাল	-9.1618
▁বিশ্বকাপ	-9.16328
r	-9.16409
▁প্রক্রিয়া	-9.16453
ধ	-9.16499
▁কেটে	-9.16593
▁কাউন্সিলর	-9.16596
▁অভিযানে	-9.16609
▁করোনাভাইরাসের	-9.16613
▁ক্লাব	-9.16651
▁মির্জা	-9.16679
▁পাবেন	-9.16685
েও	-9.16763
▁পরি	-9.16774
▁সম্ভাবনা	-9.16776
▁সবাইকে	-9.16826
▁ঈদের	-9.16864
▁লি	-9.16871
▁পুরুষ	-9.16916
▁The	-9.16937
a	-9.17003
▁১০০	-9.17044
সু	-9.1713
▁সদস্যদের	-9.17151
▁তালিকায়	-9.1716
▁দিলে	-9.17175
টোয়েন্টি	-9.17201
বো	-9.17281
▁শ্রদ্ধা	-9.17366
▁অনুমতি	-9.17368
▁ফারুক	-9.17473
▁বাড়ছে	-9.17474
▁সংস্থার	-9.17596
যা	-9.17598
▁নুরুল	-9.17635
▁খুবই	-9.17727
▁লাভ	-9.17733
▁জামিন	-9.17758
▁একটু	-9.17773
▁দাস	-9.17886
▁পরীক্ষায়	-9.17926
▁অংশগ্রহণ	-9.1804
▁শারীরিক	-9.18043
চি	-9.18159
▁অনেকে	-9.18184
▁৬০	-9.18322
লী	-9.18539
▁নিষেধাজ্ঞা	-9.18544
▁পু	-9.18692
▁ডেইলি	-9.18785
▁এরই	-9.1882
▁চীন	-9.18916
▁মিডিয়া	-9.18947
উল	-9.18972
▁তৃণমূল	-9.19015
▁আজকের	-9.19022
▁০৮	-9.19028
▁ছাত্রলীগ	-9.19111
▁চূড়ান্ত	-9.19115
▁রাজনীতি	-9.19172
▁যুক্তরাষ্ট্র	-9.19192
▁আমিন	-9.1927
এফ	-9.19275
▁প্রবাসী	-9.19314
▁সোশ্যাল	-9.1941
in	-9.19448
▁আব্দুর	-9.19449
▁এন	-9.19484
▁কিলোমিটার	-9.19521
ঙ্ক	-9.19552
▁কিছুটা	-9.19628
▁টা	-9.19673
▁শিক্ষার্থীরা	-9.19819
▁বলছে	-9.20005
▁হে	-9.20205
▁তরুণ	-9.20222
২৯	-9.20314
ুন	-9.20351
▁বীর	-9.20399
সার	-9.20463
▁চলবে	-9.20552
▁খেলার	-9.20562
▁ধান	-9.20648
▁কেন্দ্রে	-9.20827
▁মানুষকে	-9.20854
▁বাধা	-9.2089
▁হামলায়	-9.20947
▁ডিজিটাল	-9.20977
চা	-9.21013
▁সপ্তাহ	-9.21098
▁সার্ভিস	-9.21276
▁মাধ্যমিক	-9.213
▁স্থগিত	-9.21345
▁ব্যাট	-9.21462
▁পূর্বাহ্ন	-9.21497
▁পার্টির	-9.21608
▁চলমান	-9.2169
▁চাষ	-9.21695
▁আলমগীর	-9.21723
▁খোলা	-9.21909
▁বলছেন	-9.22003
▁রাসেল	-9.2203
▁.	-9.22036
▁কুমিল্লা	-9.22045
▁০১	-9.22104
▁শুভেচ্ছা	-9.22253
▁অসুস্থ	-9.22266
▁ভাইরাল	-9.22292
▁নির্যাতন	-9.2235
▁সামরিক	-9.22369
▁জনগণের	-9.2237
▁নিজেকে	-9.22419
▁ছাড়াও	-9.2242
▁উৎসব	-9.22494
▁আট	-9.2251
▁সপ্তাহে	-9.22543
▁পশ্চিম	-9.22563
▁ভাড়া	-9.22573
▁ডাক	-9.2259
▁নদী	-9.22727
▁কালের	-9.22959
▁সাল	-9.22969
▁on	-9.23063
▁শহরে	-9.2311
▁জেনে	-9.23202
▁দিচ্ছে	-9.23323
্স	-9.23438
▁এত	-9.2352
▁নূর	-9.23533
▁বন্ধু	-9.23634
▁জো	-9.23945
▁C	-9.23972
▁বিকাল	-9.24146
▁রক্ষা	-9.2423
গণ	-9.24273
▁করেছিল	-9.24335
▁a	-9.24441
▁নিহতের	-9.24448
▁গোয়েন্দা	-9.24517
▁আলীর	-9.24585
d	-9.24619
▁মাওলানা	-9.24676
▁কর	-9.24699
৪৫	-9.24718
▁শাখার	-9.24893
P	-9.24913
▁৩৫	-9.24918
▁বিন	-9.25159
▁of	-9.25342
▁নুর	-9.25549
▁ত্রাণ	-9.2561
দু	-9.2562
▁ক্রীড়া	-9.25761
▁করোনাভাইরাসে	-9.25815
▁সংঘর্ষে	-9.26005
▁ভ্যাকসিন	-9.26124
▁তাঁরা	-9.26175
▁আক্রান্তের	-9.26231
▁মুক্ত	-9.26283
▁খুলে	-9.26288
▁বিজয়	-9.26301
▁ভি	-9.26304
▁ইউ	-9.26342
▁স্বীকার	-9.26358
তলা	-9.26436
▁পুত্র	-9.26449
▁বাদী	-9.26522
▁চলেছে	-9.26526
▁D	-9.26554
▁দা	-9.26588
▁প্রতিবাদে	-9.26641
▁কল্যাণ	-9.26644
▁স্ব	-9.26694
▁আনন্দ	-9.26721
▁B	-9.26776
▁ভা	-9.26803
▁কলকাতা	-9.26936
▁বিদ্যালয়	-9.27108
▁বঙ্গবন্ধুর	-9.2724
ৈ	-9.27251
▁শত	-9.2727
▁খেলে	-9.27338
▁Bengali	-9.27523
ভার	-9.27546
▁ভয়াবহ	-9.27591
▁প্রসঙ্গে	-9.27594
▁রশিদ	-9.27597
▁ক্ষতি	-9.27617
▁উৎপাদন	-9.27674
▁হাই	-9.27675
▁হোসেনের	-9.27776
▁পে	-9.27813
০১	-9.2784
তু	-9.27859
▁খরচ	-9.27916
▁পাবে	-9.2793
▁মনোনয়ন	-9.27985
▁ঘটনাটি	-9.28007
সভাপতি	-9.2802
▁দ্য	-9.28033
▁নং	-9.28105
▁চিকিৎসার	-9.28199
▁কৃষক	-9.2833
▁চাপ	-9.28351
▁২০১৫	-9.28358
▁হু	-9.28467
পার	-9.28477
▁প্রতিষ্ঠানের	-9.28572
x	-9.28586
▁এবারের	-9.2868
▁at	-9.28738
▁কার্যকর	-9.28765
▁প্রভাব	-9.28898
▁মামুন	-9.28901
▁ইমরান	-9.28963
▁ব্যক্তিগত	-9.29057
▁ব্যক্তির	-9.29092
▁স্বরাষ্ট্র	-9.29115
▁দাঁড়িয়েছে	-9.29241
▁ওয়ার্ড	-9.29272
কর	-9.29292
িয়ার	-9.29305
▁দুর্ঘটনায়	-9.29335
াস	-9.29448
▁লিখেছেন	-9.29498
▁নেয়ার	-9.29501
▁অবশ্য	-9.29715
▁ম্যাজিস্ট্রেট	-9.29735
▁দুর্নীতি	-9.29814
০৯	-9.29821
▁নেতৃবৃন্দ	-9.29858
ান	-9.29864
▁ঘরের	-9.29878
▁খানের	-9.29879
▁কার্ড	-9.3001
▁পোশাক	-9.30076
▁বোর্ডের	-9.3009
▁আসবে	-9.30095
▁কিনা	-9.30148
▁পালিত	-9.30259
লাম	-9.30268
▁গোলে	-9.30296
▁ফখরুল	-9.30436
▁অসহায়	-9.30476
▁আঘাত	-9.30573
▁তামিম	-9.30609
▁নিখোঁজ	-9.30621
▁সরবরাহ	-9.30667
▁হাজির	-9.30747
C	-9.30889
▁জব্দ	-9.30931
▁T	-9.30952
▁ডট	-9.30987
▁সোহেল	-9.31013
হীন	-9.31061
▁টাইমস	-9.31238
▁মমতা	-9.3126
▁চিন্তা	-9.31316
▁ভ	-9.31467
▁স্বাধীনতা	-9.31496
আই	-9.31512
খা	-9.31579
বাস	-9.31593
▁বিবৃতিতে	-9.31609
▁উন্নত	-9.31627
▁রু	-9.31739
▁সমাবেশ	-9.31825
▁দি	-9.31841
বাড়ি	-9.31966
▁শিল্পী	-9.32057
▁যাত্রা	-9.32067
▁প্রতিরোধ	-9.32073
▁চর	-9.32107
▁পারেনি	-9.32129
▁অ্যাপ	-9.32154
ন্ন	-9.3216
▁পাতা	-9.32366
▁রেল	-9.32415
৩২	-9.32427
▁অথবা	-9.32471
▁রাষ্ট্রপতি	-9.32519
▁গণ	-9.32575
▁আত্মহত্যা	-9.32655
▁ইয়াবা	-9.32787
▁তাদেরকে	-9.32823
st	-9.32854
▁মিয়ার	-9.32995
▁জবাবে	-9.33016
▁০৭	-9.33024
▁প্রশ্নের	-9.33032
▁বক্তব্যে	-9.33063
▁প্রকল্পের	-9.33156
▁চ	-9.33206
▁মাঠ	-9.3326
▁ওষুধ	-9.33375
▁সতর্ক	-9.33398
▁নদীর	-9.33406
▁সফল	-9.33466
▁চালায়	-9.3348
▁এমনকি	-9.33561
▁রোগীর	-9.33599
▁নিষিদ্ধ	-9.33655
▁রাস্তায়	-9.33669
▁কন্যা	-9.33808
▁কর্মকর্তারা	-9.33863
ক্ষ	-9.33908
c	-9.33993
▁রূপ	-9.34025
▁দিল	-9.34101
▁নিরাপদ	-9.34143
▁Latest	-9.34173
▁আলাদা	-9.34258
–	-9.34259
▁অতিথির	-9.34341
ঠ	-9.34389
▁কিশোর	-9.34402
ম্প	-9.34537
▁প্রস্তুত	-9.34607
্ব	-9.34629
▁হিন্দু	-9.34681
▁সর্ব	-9.34712
▁জাহাঙ্গীর	-9.34798
▁নগরীর	-9.35068
নং	-9.35088
▁০৬	-9.35129
▁অধ্যক্ষ	-9.35154
▁ব্যবস্থাপনা	-9.3535
বেন	-9.35419
b	-9.35541
▁সরাসরি	-9.35544
▁যেসব	-9.35555
▁মসজিদ	-9.35578
▁বিশিষ্ট	-9.35601
▁বেতন	-9.35641
▁আইনে	-9.35643
▁আজাদ	-9.35707
▁অবশেষে	-9.35717
▁আনোয়ার	-9.35784
▁জয়ের	-9.35931
▁প্রমাণ	-9.3597
▁ছিলো	-9.36003
ডা	-9.36105
ইউ	-9.3619
▁০৫	-9.36193
▁সিরিজের	-9.36241
▁সফর	-9.36264
▁নারীর	-9.3632
▁কামনা	-9.36485
▁আদায়	-9.36489
▁গ্রুপ	-9.36519
T	-9.36579
▁ফলাফল	-9.36583
▁গুরুত্ব	-9.36586
▁পড়েন	-9.36589
or	-9.36608
▁রাস্তা	-9.36627
েন	-9.36687
▁নির্ধারণ	-9.36809
▁উদ্দেশ্যে	-9.3682
▁হোক	-9.36851
▁কাটা	-9.36938
▁নাকি	-9.36981
▁কারা	-9.37
▁খাতুন	-9.3712
▁দারুণ	-9.37204
▁জীবনের	-9.37235
▁অধিদপ্তরের	-9.37252
▁ছবিটি	-9.37313
▁সুমন	-9.37323
▁পড়তে	-9.37331
জার	-9.37347
রাজ	-9.3736
▁তীব্র	-9.37584
▁০২	-9.37608
▁বাবু	-9.37658
▁ঘুরে	-9.37786
▁মোটরসাইকেল	-9.37817
▁বিডি	-9.37873
▁চতুর্থ	-9.37913
▁বিভাগীয়	-9.37914
▁আরেক	-9.38024
▁ওয়ানডে	-9.38053
০৫	-9.38168
▁০৪	-9.38212
▁সীমান্ত	-9.38262
মার	-9.38409
▁সুন্দর	-9.38415
▁চিঠি	-9.38484
▁শুটিং	-9.38595
িতে	-9.38797
B	-9.38801
▁টিভি	-9.3887
▁সংকট	-9.3889
▁চালানো	-9.38928
▁ফেসবুকে	-9.38944
০৬	-9.38983
▁বিচারক	-9.39005
▁ইসলামী	-9.39051
▁সম্পূর্ণ	-9.39059
▁মায়ের	-9.39104
▁পড়ুন	-9.39166
০২	-9.39177
▁ট্রেন	-9.39189
সন	-9.39219
▁যৌন	-9.3933
▁হস্তান্তর	-9.39387
▁খুন	-9.39443
▁শুনানি	-9.39543
▁সঠিক	-9.39561
শী	-9.39702
▁এসআই	-9.3971
▁বিপুল	-9.39764
▁০৩	-9.39779
▁রহিম	-9.39814
▁পারি	-9.39866
▁নেতৃত্ব	-9.39881
দী	-9.39896
▁সম	-9.39973
▁আবহাওয়া	-9.39984
▁>	-9.39993
▁নিচে	-9.40035
▁নৌকা	-9.40063
▁গাছ	-9.4019
▁টু	-9.40191
ঞ্জ	-9.40232
▁অর্থাৎ	-9.40292
re	-9.40334
▁the	-9.40418
▁প্রেরণ	-9.40531
▁ছুটি	-9.40596
▁ইন্টারনেট	-9.40611
▁শতাধিক	-9.40612
৫৫	-9.40696
▁বু	-9.40825
▁সহযোগী	-9.40848
▁জানুয়ারী	-9.4093
▁একাদশ	-9.40976
▁উভয়	-9.41065
▁রকম	-9.41088
▁দেশটিতে	-9.41214
▁সেতু	-9.41255
▁কর্ম	-9.41268
▁ছাত্রী	-9.4127
▁পরিস্থিতিতে	-9.41288
▁অর্থনৈতিক	-9.41482
▁একমাত্র	-9.41484
▁এএম	-9.41538
▁যশোর	-9.41572
▁অবশ্যই	-9.416
ফি	-9.41632
▁আওয়ামীলীগের	-9.41638
▁শক্তিশালী	-9.41804
▁সিলেটের	-9.41858
▁সাহা	-9.41944
▁এদের	-9.41947
▁BD	-9.41959
▁প্রিয়	-9.41985
▁যত	-9.42002
▁কঠিন	-9.42034
▁করল	-9.42142
▁ফেরার	-9.42174
▁পারেননি	-9.42197
ad	-9.42202
▁চিত্র	-9.42222
▁শোনা	-9.42288
▁ইমাম	-9.42317
▁ওঠে	-9.42372
▁সহজ	-9.4248
▁বিশ্বে	-9.42505
▁এনে	-9.42527
ন্দ	-9.42559
▁ব্যা	-9.42617
▁স্থায়ী	-9.42632
ুয়া	-9.42697
▁বললেন	-9.42714
ন্স	-9.42784
০৭	-9.42846
▁বাংলার	-9.42854
▁রাশিয়া	-9.42904
বাদ	-9.42947
▁সেখান	-9.42962
▁লিটন	-9.42972
▁বন্দর	-9.42978
০৪	-9.43051
াব	-9.43052
▁আসামী	-9.4324
জু	-9.4325
▁আইনের	-9.43263
▁বোমা	-9.43263
আমি	-9.43305
▁নির্ধারিত	-9.43334
▁আটকে	-9.43378
▁স্বাস্থ্যবিধি	-9.43396
এন	-9.43432
৩১	-9.43446
▁শিশুর	-9.43456
▁অনুষ্ঠানের	-9.43556
▁শো	-9.4358
▁পরিচিত	-9.43582
▁ইউনিট	-9.43656
▁শামীম	-9.43901
▁দর	-9.43904
দে	-9.43917
মন	-9.44031
▁হয়তো	-9.44033
বাংলা	-9.44078
▁সিং	-9.44079
▁জোর	-9.44101
▁চি	-9.44153
▁যুবলীগের	-9.44243
▁রানা	-9.44272
▁বিদেশি	-9.44304
০৩	-9.44442
▁লড়াই	-9.4446
▁চরিত্রে	-9.44467
▁ভবন	-9.44523
▁জেল	-9.44709
▁শিশুদের	-9.44713
▁জিতে	-9.44774
▁সাংস্কৃতিক	-9.44788
▁ডটকম	-9.44837
ৌ	-9.45007
▁৭০	-9.45045
▁সিনেমার	-9.45059
িম	-9.45152
▁সন্ত্রাসী	-9.45174
▁ভাইরাসের	-9.45205
▁মুহূর্তে	-9.45274
নিয়া	-9.45397
▁রাজ্যের	-9.45431
▁মূলত	-9.45442
▁থাকবেন	-9.45482
০৮	-9.45505
▁অনু	-9.45566
▁মেলা	-9.45607
ri	-9.45633
▁চাকরি	-9.45848
▁মাসুদ	-9.45909
▁সম্পদ	-9.46007
পু	-9.46152
▁প্রসঙ্গত	-9.46154
▁মুখ্যমন্ত্রী	-9.46183
▁নায়িকা	-9.46189
▁মিলে	-9.46238
ঘ	-9.46298
পো	-9.46326
▁সফরে	-9.46395
▁অত্যন্ত	-9.4643
▁প্রকৌশলী	-9.46452
▁মতে	-9.4647
▁অ্যাডভোকেট	-9.46478
▁মসজিদে	-9.4651
▁দরকার	-9.4651
▁ঝুঁকি	-9.46526
▁সত্যতা	-9.4654
নু	-9.46543
▁উক্ত	-9.46545
▁খারাপ	-9.46768
▁রো	-9.46843
▁এল	-9.47047
▁চরম	-9.47063
▁জেরে	-9.47263
▁সালমান	-9.47302
▁কাল	-9.47354
▁ওয়ার্ডের	-9.47388
▁উপদেষ্টা	-9.47401
▁বাণিজ্য	-9.47417
▁পেরে	-9.47451
▁সিভিল	-9.47507
▁সমস্ত	-9.47613
▁সবুজ	-9.47669
▁পদ্মা	-9.47678
▁আপনাদের	-9.47694
▁জঙ্গি	-9.47696
▁পেছনে	-9.47702
▁জুটি	-9.47777
▁চুল	-9.47787
োর	-9.47867
▁কেন্দ্রের	-9.47872
▁শক্তি	-9.47895
▁তাপমাত্রা	-9.47988
▁মিজানুর	-9.48046
▁পানিতে	-9.48137
▁৩২	-9.48151
▁ওভারে	-9.48255
▁গোটা	-9.48321
িকা	-9.48338
▁বাস্তবায়ন	-9.48369
▁কীভাবে	-9.48472
▁আশ্রয়	-9.4848
বল	-9.48559
▁মাথা	-9.48578
টো	-9.48583
▁দেখিয়ে	-9.48592
▁গ্রুপের	-9.4862
▁Published	-9.48678
শু	-9.48714
▁৪৫	-9.48726
৩৮	-9.4882
▁ভোর	-9.48873
▁ভিন্ন	-9.48887
▁শ্রেণির	-9.49026
▁ক্লাবের	-9.49048
▁করব	-9.49099
▁ক্যা	-9.4912
▁খুঁজে	-9.49211
▁আনতে	-9.49311
▁বিদায়	-9.49411
▁দেড়	-9.49489
বান	-9.49507
▁আমদানি	-9.49571
▁ঘিরে	-9.49575
গু	-9.4971
▁পরিচালিত	-9.49773
▁স্থাপন	-9.49833
▁মোস্তফা	-9.49921
▁খেয়ে	-9.49983
▁বলিউড	-9.49998
▁ফেরত	-9.50051
▁স্টেডিয়ামে	-9.50122
বাংলাদেশ	-9.50286
মত	-9.50305
▁প্রতিষ্ঠা	-9.50413
ক্ত	-9.50515
▁অবস্থিত	-9.50578
▁আশঙ্কা	-9.50589
করণ	-9.50664
▁ডাক্তার	-9.50673
▁গ্যাস	-9.50756
▁কিছুদিন	-9.50812
h	-9.50869
▁ঘটনাস্থল	-9.50875
▁সাতক্ষীরা	-9.50941
▁রফিকুল	-9.50992
▁সড়কে	-9.51008
▁সং	-9.51043
▁রাষ্ট্র	-9.51044
▁চুরি	-9.51044
▁সড়কের	-9.51093
▁যুদ্ধ	-9.51342
▁ধারা	-9.51355
▁বিজিবি	-9.51406
▁করলেও	-9.51422
▁মাধ্যম	-9.51453
▁কাউকে	-9.51474
▁নারায়ণগঞ্জ	-9.51481
▁ঋণ	-9.51609
▁লিখিত	-9.51753
▁অনলাইনে	-9.51814
le	-9.51826
বাজার	-9.5188
f	-9.51887
▁স্পোর্টস	-9.51891
ন্ট	-9.52052
g	-9.52146
▁রাম	-9.52211
▁s	-9.52277
▁খেলোয়াড়	-9.52297
▁ময়মনসিংহ	-9.52337
▁হাইকোর্ট	-9.52353
ra	-9.5237
▁বিকালে	-9.52479
লিয়া	-9.52543
▁অপেক্ষা	-9.52581
▁kalerkantho	-9.52608
▁আগামীকাল	-9.52659
গে	-9.52686
▁চট্টগ্রামের	-9.52766
▁হোটেল	-9.528
▁আসনে	-9.5282
▁আধুনিক	-9.5286
▁নিউ	-9.52909
▁মুহাম্মদ	-9.52917
▁সংবাদমাধ্যম	-9.52936
▁ভূমি	-9.52956
▁ইতোমধ্যে	-9.52978
▁নাজমুল	-9.53032
▁মতবিনিময়	-9.53279
▁খোঁজ	-9.53417
▁গু	-9.53444
▁news	-9.53479
▁মৃতের	-9.53542
▁কত	-9.5357
▁৮০	-9.53639
▁এলাকাবাসী	-9.5374
▁বাবার	-9.53767
▁মেডিক্যাল	-9.5385
▁মেয়াদ	-9.53864
▁বিজ্ঞপ্তি	-9.53879
পত্র	-9.53928
▁স্মার্টফোন	-9.53954
▁সাইফুল	-9.54084
▁যাদের	-9.54089
▁এন্ড	-9.5414
I	-9.5423
▁রক্ত	-9.54296
▁দৃশ্য	-9.54318
▁সাধারন	-9.54322
টিকে	-9.54417
▁শাখা	-9.54494
▁দমন	-9.54546
▁জীবনে	-9.54668
▁মুক্তির	-9.54698
গ্রাম	-9.54824
▁বঙ্গাব্দ	-9.54949
▁নির্মাতা	-9.54949
▁তুলনায়	-9.54955
▁সেঞ্চুরি	-9.54972
▁হি	-9.5499
৪৮	-9.55002
▁ত্যাগ	-9.55006
▁ফ	-9.55045
▁কষ্ট	-9.55048
▁ডিগ্রি	-9.55107
▁জন্মদিন	-9.55195
▁চাহিদা	-9.55212
▁নে	-9.55249
▁কেবল	-9.55301
▁ছ	-9.55341
গ্র	-9.55363
▁বাসা	-9.5547
▁মিডিয়ায়	-9.55505
▁ভাষা	-9.5565
▁নির্বাচনী	-9.55688
▁কোথাও	-9.55713
হু	-9.55727
▁বিশাল	-9.55796
▁K	-9.55841
য়ান	-9.55909
মুক্ত	-9.55926
▁মর্গে	-9.55955
বু	-9.55981
▁কংগ্রেস	-9.56007
▁আকাশ	-9.5612
ত্ত	-9.56172
▁সম্মান	-9.56206
▁তালুকদার	-9.56219
রণ	-9.5625
স্	-9.56428
▁সংঘর্ষ	-9.5644
▁মহান	-9.56526
▁দেবেন	-9.56542
▁যুবকের	-9.5657
▁দখল	-9.56592
▁সংস্করণ	-9.56593
স্ক	-9.56593
পররাষ্ট্রমন্ত্রী	-9.56633
▁আউট	-9.56643
▁লাগে	-9.56664
▁ধাক্কা	-9.56681
▁সার্বিক	-9.56705
▁ফাইনালে	-9.56803
▁নগর	-9.56807
▁টায়	-9.56923
▁তোলা	-9.56964
▁অতি	-9.57052
▁রমজান	-9.57184
▁ফাঁস	-9.57246
নিউজ	-9.57268
—	-9.57293
▁সমর্থন	-9.57351
▁স্মৃতি	-9.57378
▁ফিরিয়ে	-9.57403
▁জু	-9.57456
▁গরু	-9.57495
▁দাঁড়িয়ে	-9.57595
▁ঘোষ	-9.57641
'-	-9.57655
▁আমির	-9.57739
▁চ্যানেল	-9.5774
▁পারিবারিক	-9.57777
▁আহসান	-9.57778
▁গেলেন	-9.57816
▁হামিদ	-9.57856
▁কমিশনের	-9.5787
▁সরিয়ে	-9.57969
▁সমালোচনা	-9.58039
ভিত্তিক	-9.58111
▁নেতারা	-9.58123
▁সক্ষম	-9.5818
▁কবি	-9.58233
৩৭	-9.58235
▁আসন	-9.5827
লের	-9.58283
▁অ্যাড	-9.58382
▁ক্ষতিগ্রস্ত	-9.58388
▁ব্যাটসম্যান	-9.58636
▁ব্রিটিশ	-9.58647
মেন্ট	-9.58667
▁প্রেম	-9.5868
▁কর্মরত	-9.58709
▁কোম্পানির	-9.58908
মিন	-9.58931
▁কয়েকদিন	-9.59018
▁চ্যাম্পিয়ন	-9.59063
▁আন	-9.59134
▁কারাদণ্ড	-9.59155
▁ডোজ	-9.59213
▁জাহিদ	-9.59216
▁চারটি	-9.59217
৩৪	-9.59267
▁পাল	-9.59283
দ্ধ	-9.59298
দেশ	-9.59301
▁সদস্যের	-9.59314
▁পূজা	-9.59316
▁সচেতন	-9.59455
▁অফ	-9.59476
টু	-9.59477
ল্লা	-9.59508
▁নরেন্দ্র	-9.59525
▁শে	-9.59553
▁খুশি	-9.59593
প্রতি	-9.59727
▁মাহবুব	-9.59791
▁দফা	-9.59817
▁কমপ্লেক্সে	-9.59969
খালী	-9.5997
াম	-9.59988
টাই	-9.60064
▁পাস	-9.60172
▁ধর্মীয়	-9.60172
৩৯	-9.60185
াই	-9.60222
▁ক্লাস	-9.60274
▁বিশ্বকাপের	-9.60283
▁পৃথক	-9.60298
৪২	-9.6051
▁Online	-9.60542
▁ইতিহাস	-9.6055
▁আলোচিত	-9.6059
▁সারাদেশে	-9.60606
▁করেই	-9.60663
▁ধন্যবাদ	-9.60688
▁ভয়	-9.60876
D	-9.60967
▁নগদ	-9.60967
ক্ষণ	-9.60972
▁পরিণত	-9.60979
▁ইরানের	-9.6098
৩৩	-9.60984
▁কালাম	-9.60997
▁টিকিট	-9.61024
▁ঐ	-9.61024
▁দিনাজপুর	-9.61067
▁অবদান	-9.61208
▁ভেতরে	-9.61218
▁নামাজ	-9.61234
▁টেস্টে	-9.61263
▁উপাচার্য	-9.613
▁মেসি	-9.61436
৪৭	-9.61458
▁অস্ট্রেলিয়া	-9.61493
m	-9.61588
l	-9.61624
▁নদীতে	-9.61626
▁চেয়ারপারসন	-9.61639
▁ব্যবধানে	-9.61655
▁সীমান্তে	-9.61708
▁মুজিব	-9.61715
▁এজন্য	-9.61866
▁বদলে	-9.61917
▁নব	-9.61942
▁জানালেন	-9.61944
▁কক্ষে	-9.61964
▁নিজেই	-9.62047
▁সুরক্ষা	-9.62093
▁অধিদপ্তর	-9.62142
▁মেশিন	-9.62149
▁ইউনিয়নে	-9.62178
▁সন্তানের	-9.62238
▁দলকে	-9.62244
▁ধ	-9.62369
▁টার	-9.62399
▁নন	-9.62536
▁২০১৪	-9.62543
▁দূরে	-9.62564
on	-9.62719
▁প্রেসক্লাবের	-9.62746
▁মৎস্য	-9.6277
▁হাসি	-9.62774
▁সকলের	-9.6294
▁ইনিংস	-9.62964
▁উদ্বোধনী	-9.62975
▁পছন্দ	-9.63008
▁;	-9.63028
▁লঞ্চ	-9.63064
▁প্রতিযোগিতা	-9.63145
▁কার	-9.63178
▁আসন্ন	-9.6318
▁খাওয়া	-9.63228
▁ভিড়	-9.63249
▁কুষ্টিয়া	-9.63265
▁কমান্ডার	-9.63301
ডে	-9.63311
স্ব	-9.6339
ত্র	-9.63405
▁চাঁদপুর	-9.63409
▁বিকল্প	-9.63419
▁কালো	-9.63435
▁সংলগ্ন	-9.63462
▁এক্স	-9.63467
▁তুলতে	-9.63527
▁কন	-9.63538
▁মিলিয়ে	-9.636
▁প্রতিরোধে	-9.63679
▁ফর	-9.63716
▁দুজন	-9.63725
▁যানবাহন	-9.63801
▁পুড়ে	-9.63813
৩৬	-9.63932
▁চ্যালেঞ্জ	-9.63967
▁বর	-9.64099
▁উইকেটে	-9.64099
▁মৃত্যুতে	-9.64175
▁সংরক্ষণ	-9.64204
▁পূরণ	-9.64216
▁পরবর্তীতে	-9.64253
▁মহাপরিচালক	-9.64325
▁খন্দকার	-9.64377
▁ধারণ	-9.64446
▁কার্যালয়	-9.64479
৫২	-9.64528
▁শরীরের	-9.64569
▁তিনজন	-9.64612
▁কার্যালয়ের	-9.64627
ুল্লাহ	-9.64676
▁সংসদের	-9.64732
▁ভে	-9.64756
▁ব্যস্ত	-9.64765
▁স্কুলের	-9.64776
▁ড্র	-9.64785
▁সত্য	-9.64817
▁শুরুর	-9.64824
▁ভবনের	-9.65064
▁শ্রী	-9.6508
▁একবার	-9.65103
▁নামক	-9.65116
গার	-9.65202
▁আনার	-9.65329
▁সপ্তাহের	-9.65372
▁by	-9.65376
▁সার্জন	-9.65453
▁আহবায়ক	-9.65468
▁পার্টি	-9.65521
▁বজায়	-9.65599
▁নৌ	-9.6572
▁প্রথমবারের	-9.6575
▁ভোটার	-9.65761
▁লিগ	-9.65785
▁জাকির	-9.65839
▁ফ্লাইট	-9.6584
▁৩৬	-9.65858
▁তেমন	-9.65896
▁পরিষ্কার	-9.6595
ড়ে	-9.66094
▁ধীরে	-9.66132
O	-9.66177
▁কমেছে	-9.66184
▁ঢুকে	-9.66189
▁সার	-9.66308
▁মানব	-9.66435
ch	-9.66477
▁পড়েছেন	-9.66498
▁আহ্বায়ক	-9.66512
am	-9.66533
▁প্রফেসর	-9.6654
▁কখনো	-9.6656
▁বিরাট	-9.66662
▁যুবলীগ	-9.66663
▁ওরফে	-9.66668
▁সংবাদের	-9.66673
▁ভ্রমণ	-9.6671
▁যৌথ	-9.66728
▁সোনা	-9.66728
ণ্ড	-9.66782
উদ্দিন	-9.66788
▁আপিল	-9.66842
▁সরকারী	-9.66847
এই	-9.66928
▁গরম	-9.6693
▁ব্যর্থ	-9.66967
ফে	-9.67018
▁মসজিদের	-9.67022
▁শাস্তি	-9.67043
ৃ	-9.67051
৫৯	-9.6707
▁বাধ্য	-9.67109
▁নাই	-9.67129
▁নাসির	-9.67257
▁পজিটিভ	-9.6737
▁দিয়েছিলেন	-9.67445
▁ওয়েব	-9.67482
৪১	-9.67528
▁সাংসদ	-9.6755
▁তারেক	-9.67554
▁কম্পিউটার	-9.67577
বিরোধী	-9.67758
▁খা	-9.67792
▁নষ্ট	-9.67824
▁সেন্টার	-9.67862
▁G	-9.67898
▁অভিষেক	-9.67908
ারি	-9.67914
▁পরিদর্শক	-9.68022
▁ঘূর্ণিঝড়	-9.68044
▁বিদেশ	-9.68106
▁হো	-9.68113
▁সংস্কৃতি	-9.68119
▁ধ্বংস	-9.68208
৪৩	-9.68275
▁লিমিটেড	-9.68287
▁গণমাধ্যম	-9.68464
▁জানাতে	-9.68474
▁সমাধান	-9.68551
▁বিশ্ববিদ্যালয়ে	-9.686
▁থাকছে	-9.68604
ভূমি	-9.68617
▁বিশ্বকাপে	-9.68642
▁যেকোনো	-9.68663
▁রাজ্যে	-9.68678
▁পূর্ণ	-9.68697
▁৩৩	-9.68818
▁ভ্রাম্যমাণ	-9.68871
▁রুবেল	-9.68876
▁নেতাদের	-9.68884
প্রাপ্ত	-9.68916
▁আলোচনায়	-9.68933
▁দায়ে	-9.69054
▁রুহুল	-9.69061
▁প্রত্যেক	-9.69103
নায়	-9.69167
▁বাড়িয়ে	-9.69205
▁গানের	-9.69225
পুরে	-9.6926
আপ	-9.69265
ঠা	-9.69294
▁পরই	-9.69347
▁খু	-9.69399
▁একসঙ্গে	-9.69418
▁সাদা	-9.69473
▁ফাইনাল	-9.69531
▁শব্দ	-9.69561
▁রিয়াল	-9.6957
▁বিজয়ী	-9.69597
▁আসছেন	-9.69671
▁ওয়েস্ট	-9.69677
▁বো	-9.69693
▁জুড়ে	-9.69729
▁পতাকা	-9.69783
▁বোঝা	-9.69788
৫৮	-9.6979
▁অভিজ্ঞতা	-9.69802
▁মোল্লা	-9.69882
▁মাশরাফি	-9.69883
▁সেনাবাহিনী	-9.69987
▁মেয়ের	-9.70079
▁অফিসে	-9.70099
▁যুক্তরাষ্ট্রে	-9.70194
▁দশ	-9.70273
▁বগুড়া	-9.70282
িল	-9.70481
▁৪৮	-9.70574
▁চাঁদ	-9.70576
▁স্টেশন	-9.70651
▁কিভাবে	-9.7071
▁দফায়	-9.70716
▁পিছিয়ে	-9.70721
▁পেলেন	-9.70741
ur	-9.70762
▁অঞ্চলের	-9.70841
▁শপথ	-9.70847
▁ডেঙ্গু	-9.7087
▁ক্ষমতায়	-9.7087
▁মহামারি	-9.70879
▁জড়িয়ে	-9.70879
▁মাত্রা	-9.70896
▁পেঁয়াজ	-9.70942
▁পো	-9.70991
▁হচ্ছেন	-9.7104
৪৯	-9.71061
▁সান	-9.71088
ার্স	-9.7124
লীগের	-9.71243
▁সিরিজে	-9.71282
▁দ্বারা	-9.71296
▁ট	-9.71306
▁সাব	-9.71353
▁মিল	-9.71415
▁পাই	-9.71423
▁যেভাবে	-9.71486
▁অবরোধ	-9.71518
▁c	-9.7159
পর	-9.71609
▁বেরিয়ে	-9.71616
▁নজর	-9.71636
▁সেগুলো	-9.71682
▁রাস্তার	-9.71732
থা	-9.7174
▁অঞ্চলে	-9.71844
▁পররাষ্ট্র	-9.71858
▁উদ্দেশে	-9.71879
▁উপসর্গ	-9.71941
▁প্রত্যাহার	-9.7195
ছিলাম	-9.72088
▁উপায়	-9.72097
it	-9.72153
▁ম্যা	-9.72236
▁লেগে	-9.72264
▁লেখক	-9.72379
৫৭	-9.72392
▁করতেন	-9.72424
▁চক্রবর্তী	-9.72505
▁নির্মিত	-9.72506
▁বিমানবন্দরে	-9.72507
M	-9.72556
গামী	-9.72564
▁কর্মীদের	-9.72584
ছা	-9.726
▁চট্টগ্রামে	-9.72601
▁খবরে	-9.72608
▁রাশিয়ার	-9.72629
▁বরাদ্দ	-9.7263
আমরা	-9.72641
▁পাচ্ছে	-9.72672
▁কর্তৃপক্ষের	-9.72676
▁দাখিল	-9.72712
▁বোন	-9.72761
ha	-9.72792
▁সংবাদদাতা	-9.72796
ঙ	-9.72801
▁সুপ্রিম	-9.72818
▁দিচ্ছেন	-9.72824
▁আন্দোলনের	-9.72831
▁and	-9.72857
▁মন্ডল	-9.72882
Com	-9.73002
▁রেজা	-9.73016
▁কিছুই	-9.7304
▁বসবাস	-9.73088
▁ঈদুল	-9.73097
ব্য	-9.73137
▁নীতি	-9.73262
▁জাল	-9.73374
ঙ্গা	-9.73377
▁আপনারা	-9.73413
▁বক্তারা	-9.73449
▁দাফন	-9.7345
▁ছাড়	-9.73477
▁অঙ্গ	-9.73575
▁স্ত্রীর	-9.73595
▁চোখে	-9.73605
▁কর্মকর্তাদের	-9.73625
▁সংযোগ	-9.73702
▁সো	-9.73728
▁দুর্যোগ	-9.7383
▁রযাবের	-9.73882
▁মিথ্যা	-9.73883
▁ইফতার	-9.73894
৫৬	-9.73934
▁৩৮	-9.73959
▁ইংল্যান্ড	-9.74012
৫৩	-9.74032
ধা	-9.74042
▁প্রিমিয়ার	-9.74085
▁ম্যানেজার	-9.74085
▁৩৪	-9.74108
মাস	-9.74215
▁আপনাকে	-9.74277
বী	-9.74366
▁বেঁধে	-9.74468
▁ভূ	-9.74475
▁আল্লাহ	-9.7454
▁৯০	-9.74541
▁পরিস্থিতির	-9.74547
তায়	-9.74567
স্তা	-9.74698
তী	-9.74738
j	-9.74741
▁মানসিক	-9.7481
▁Bengal	-9.74833
▁রাজি	-9.74836
▁নির্দিষ্ট	-9.74894
▁কর্তৃক	-9.74918
▁মাদ্রাসা	-9.74935
▁সাগর	-9.74984
৫৪	-9.75014
ঘাট	-9.75028
▁ঝুল	-9.75046
▁তৈরির	-9.75164
▁প্রচুর	-9.75174
▁সার্ভিসের	-9.75219
▁ডুবে	-9.75261
▁পাশের	-9.75267
▁মোদি	-9.75324
▁চোখ	-9.75327
▁উন্নয়নের	-9.75366
▁আরিফ	-9.75366
▁পয়েন্টে	-9.75381
▁ইত্যাদি	-9.75416
▁দেখার	-9.75421
▁খেতে	-9.75448
▁to	-9.75489
▁মুখপাত্র	-9.75496
▁হেরে	-9.75497
▁সাম	-9.75508
▁পদ্ধতি	-9.75534
ল্ড	-9.75552
▁তদন্তের	-9.75595
▁ইতিমধ্যে	-9.75598
▁হবেন	-9.75696
▁Views	-9.75699
▁এসএসসি	-9.75699
▁২০০	-9.75704
▁ঝড়	-9.75746
▁বাজেট	-9.75801
৪৪	-9.75918
▁অস্ট্রেলিয়ার	-9.75934
টন	-9.76065
▁অফিসের	-9.76099
▁রেজাউল	-9.76155
▁M	-9.76239
▁ধরেই	-9.76352
▁খেলাধুলা	-9.76401
▁দিবাগত	-9.76408
▁শুরুতে	-9.76415
▁অভি	-9.76451
ায়ন	-9.76452
▁লাইন	-9.76465
▁বিকাশ	-9.76481
লীগ	-9.76493
▁নাটক	-9.76577
▁বিপরীতে	-9.76638
▁ডাকাত	-9.76641
৪৬	-9.76688
▁রোড	-9.76722
▁প্রতীক	-9.76792
▁রবি	-9.76798
▁উন্নতি	-9.76803
▁জাতিসংঘ	-9.76807
▁বুঝতে	-9.76843
ho	-9.77006
▁দুধ	-9.77037
▁শাহরুখ	-9.77059
▁রাখে	-9.77062
▁রিট	-9.77078
▁প্রশংসা	-9.77089
▁রাজা	-9.77105
▁সেনাবাহিনীর	-9.77107
▁পড়ার	-9.77116
▁অন	-9.77119
▁হয়েছিলেন	-9.7714
▁আলি	-9.77158
▁পেলে	-9.77159
▁ট্রাম্পের	-9.77262
▁জাতি	-9.77298
▁উত্তেজনা	-9.77322
▁E	-9.77409
▁ফোনে	-9.77491
▁সুর	-9.77495
▁হতো	-9.77508
▁সুলতানা	-9.77605
▁আদর্শ	-9.77611
▁পৃথিবীর	-9.7762
পূর্ণ	-9.77629
▁কারো	-9.77749
▁মনি	-9.77826
▁কুপিয়ে	-9.7785
েশ	-9.77896
▁সালাম	-9.77912
َ	-9.77917
কর্মী	-9.77956
▁দূরত্ব	-9.78008
জো	-9.78023
▁দান	-9.78106
ভে	-9.78151
▁কলকাতার	-9.78204
এইচ	-9.78241
▁স্বামীর	-9.78382
বৃন্দ	-9.78438
িস	-9.78442
তেও	-9.78462
▁ব্যয়	-9.78529
▁am	-9.78541
▁সমাজের	-9.78568
▁সংযুক্ত	-9.78586
▁অবস্থার	-9.78651
োয়া	-9.7872
▁নিবন্ধন	-9.78754
▁দপ্তর	-9.78782
▁টন	-9.7881
▁স্বাগত	-9.78817
াদ	-9.78861
▁ভাইরাসে	-9.78907
▁হিসাব	-9.78944
▁বিজেপির	-9.7895
েড	-9.7896
▁কর্মচারী	-9.78974
▁ধরণের	-9.78987
▁৩৭	-9.78988
▁F	-9.7905
র্ন	-9.79057
বর	-9.79072
▁ভোরে	-9.7909
▁গুগল	-9.79091
▁শিরোপা	-9.79249
▁অল্প	-9.79326
sh	-9.79332
▁করবো	-9.79335
▁ফুটবলার	-9.79369
▁যাওয়ায়	-9.79381
▁আলহাজ্ব	-9.79385
▁বলেছে	-9.79434
▁কোর্ট	-9.79498
▁এফ	-9.79513
▁পৌরসভা	-9.79537
E	-9.79625
▁রিমান্ড	-9.7964
▁কারণেই	-9.79656
▁সমাবেশে	-9.79668
কেও	-9.79688
▁সবকিছু	-9.79739
▁টাকায়	-9.79758
▁সভাপতিত্ব	-9.79988
▁নিকট	-9.80061
▁সোনার	-9.80063
▁নারীদের	-9.80105
▁পঠিত	-9.80125
▁গিয়েছিল	-9.80192
▁নুসরাত	-9.80193
▁গাড়ির	-9.80198
▁শরীফ	-9.80222
▁জামাল	-9.80309
▁আগ্রহ	-9.80341
▁শূন্য	-9.8041
▁আব্দুল্লাহ	-9.806
▁বরং	-9.80646
গন	-9.80661
বাড়ী	-9.80773
▁প্রাক্তন	-9.80804
▁মিলন	-9.80888
▁মনির	-9.80894
▁ছা	-9.80965
▁সমিতি	-9.80968
ষ্ঠ	-9.81037
▁টেলিভিশন	-9.81107
▁উপস্থিতি	-9.81119
▁এশিয়া	-9.81204
্ল	-9.81282
্ট	-9.81355
en	-9.81402
▁গতি	-9.81442
▁জবাব	-9.81501
▁জনগণ	-9.81529
▁বাবুল	-9.81537
▁বাঁধ	-9.81568
▁আক্রমণ	-9.81584
▁শুনে	-9.81591
▁পুলিশকে	-9.81633
▁প্রকাশ্যে	-9.81666
েট	-9.81706
▁প্রয়োগ	-9.81741
ানো	-9.81754
▁অবনতি	-9.81763
▁দর্শক	-9.81814
▁মাহফিল	-9.81852
এল	-9.8197
র্ণ	-9.8197
▁আমেরিকার	-9.82023
▁মাদরাসা	-9.82038
▁সাড়া	-9.82046
▁শ্রমিকদের	-9.8221
▁মঞ্জুর	-9.82237
▁ডোনাল্ড	-9.82246
▁ডেকে	-9.82247
ম্যান	-9.8235
▁জাহান	-9.8236
▁৪২	-9.82513
▁কর্তব্যরত	-9.82524
▁প্রতিষ্ঠাতা	-9.82572
▁ফরিদপুর	-9.82604
▁কর্মসূচির	-9.82614
▁কখনও	-9.82644
▁ঘণ্টার	-9.82649
▁গায়ে	-9.82655
▁দৃষ্টি	-9.82692
▁ঘ	-9.82769
্ম	-9.82797
▁৩৯	-9.82799
▁এসেছেন	-9.82815
▁ময়নাতদন্তের	-9.82855
ঙ্গ	-9.8286
▁শাকিব	-9.82871
▁আমেরিকা	-9.82929
▁প্রিন্ট	-9.82946
▁১১টার	-9.82963
▁সাজা	-9.82978
য়াল	-9.82989
▁শরীর	-9.8313
▁অর্থনীতি	-9.8317
▁আরেকটি	-9.83221
▁কর্মীরা	-9.83325
▁শিক্ষামন্ত্রী	-9.83411
▁ফুট	-9.83417
স্টার	-9.83436
▁যাবেন	-9.83503
▁শ্রীলঙ্কা	-9.83565
ir	-9.83642
▁দেহ	-9.8366
▁মাস্টার	-9.83699
▁হাট	-9.83706
▁রেলওয়ে	-9.83719
▁ইলিশ	-9.83802
▁বিনিয়োগ	-9.83819
▁১১টায়	-9.83857
▁পাক	-9.83858
৫১	-9.83938
▁স্বাধীন	-9.83942
▁ফিচার	-9.83947
▁জেলে	-9.84013
▁আব্দুস	-9.84077
েন্স	-9.84097
▁নিউজিল্যান্ড	-9.84158
▁মানবিক	-9.84175
▁আত্ম	-9.84219
▁পলাতক	-9.84271
▁গাজীপুর	-9.84272
েক	-9.8428
▁বাজারের	-9.84295
▁তে	-9.84319
L	-9.84336
▁বলেছিলেন	-9.84497
▁মেহেদী	-9.84553
▁মাল	-9.84554
▁ওয়েবসাইট	-9.84567
▁সন্ধান	-9.84611
▁মীর	-9.84615
▁ছাড়াই	-9.84782
নোর	-9.84845
▁ভবিষ্যতে	-9.84903
▁অথচ	-9.84908
▁মিরপুর	-9.84934
▁সাফল্য	-9.84955
র্ত	-9.84972
▁নিজে	-9.84976
▁নিয়েই	-9.85075
▁পাঠ	-9.85116
▁চে	-9.85131
ীদের	-9.85257
▁ডিবি	-9.85259
▁এক্সপ্রেস	-9.85266
▁সূচক	-9.85267
▁আচরণ	-9.8527
R	-9.85293
▁ঘুম	-9.85298
শো	-9.85361
▁মারধর	-9.85465
▁নোটিশ	-9.85481
▁ভবনে	-9.8549
দুল	-9.85506
▁পরিচালনায়	-9.85657
▁৪১	-9.85666
▁ষড়যন্ত্র	-9.85692
▁গলায়	-9.85694
▁টেকনাফ	-9.85703
▁বিনা	-9.85727
▁পর্যটন	-9.85763
▁মহাসড়কের	-9.85766
▁একে	-9.8581
▁ইনিংসে	-9.85813
▁স্পষ্ট	-9.85844
▁মিলনায়তনে	-9.85849
▁আস	-9.85894
▁ফ্রি	-9.85995
ত্য	-9.86026
▁বৃষ্টির	-9.86029
মের	-9.86098
চু	-9.86137
রাম	-9.86188
▁বাড়তে	-9.86195
▁দ	-9.86202
▁I	-9.86278
▁ব্যবহৃত	-9.86338
মী	-9.86511
w	-9.86565
▁পরিবারকে	-9.86574
▁অপ	-9.86594
▁সিনেমায়	-9.8674
▁চেক	-9.86757
▁রাষ্ট্রদূত	-9.86772
▁বিদেশে	-9.86829
▁ওজন	-9.86858
▁উদ্দেশ্য	-9.86937
▁এইচ	-9.86986
▁মানিক	-9.87003
▁কলা	-9.87006
▁কোহলি	-9.87008
হে	-9.87012
িংয়ের	-9.87015
▁দরজা	-9.87076
▁শীর্ষে	-9.87129
▁পদত্যাগ	-9.87132
▁আপাতত	-9.87206
▁হাকিম	-9.87206
▁আহবান	-9.8721
▁বিষ	-9.87279
▁৫০০	-9.87316
▁জোট	-9.87329
▁গাজী	-9.87365
▁ভালোবাসা	-9.87369
▁উল্লাহ	-9.8737
▁পঞ্চম	-9.87464
রিয়া	-9.8752
▁ইচ্ছা	-9.87588
র্ক	-9.87589
▁চির	-9.87663
▁বরাত	-9.87668
▁মাটিতে	-9.87675
▁স্বাক্ষরিত	-9.87675
কালীন	-9.87684
▁বলেই	-9.87691
▁আহতদের	-9.87848
▁জানি	-9.87986
জনের	-9.87996
▁মার	-9.8801
▁ক্রয়	-9.88048
▁মান্নান	-9.88055
▁মিলিয়ন	-9.88085
হান	-9.8813
▁সংক্রমণের	-9.88131
▁কাপ	-9.88166
▁অর্থমন্ত্রী	-9.88221
▁নায়ক	-9.88233
▁বলিউডের	-9.88246
ন্দা	-9.88304
শিয়া	-9.88309
▁সাইকেল	-9.8831
▁ব্যাটিং	-9.88317
▁সিস্টেম	-9.88375
▁কামরুল	-9.88452
▁বিবিসি	-9.88495
N	-9.88563
▁সমান	-9.88593
▁বন্দ্যোপাধ্যায়	-9.88596
এক	-9.88762
▁রোহিঙ্গাদের	-9.88813
▁সিলেটে	-9.88861
বাসী	-9.88944
শিক্ষাপ্রতিষ্ঠান	-9.8898
▁পেসার	-9.89003
▁সুজন	-9.89003
▁গড়	-9.89032
▁ডাঃ	-9.89075
▁Dhaka	-9.89113
▁বন্যা	-9.89183
▁বেশিরভাগ	-9.89187
▁প্রতিরক্ষা	-9.89205
▁হজ	-9.89224
▁মিটার	-9.89226
ক্র	-9.89232
▁জাহাজ	-9.89259
▁জজ	-9.89271
▁অঞ্চল	-9.8944
▁ডিম	-9.89442
▁হোসাইন	-9.89484
▁ভ্যান	-9.89532
কল	-9.8955
▁গঠিত	-9.89576
▁জনে	-9.89589
▁হারুন	-9.89631
ুক	-9.89644
▁লু	-9.89645
▁রোধে	-9.89678
▁চলতে	-9.8972
▁পিস	-9.89735
রাও	-9.89775
▁প্রতিবন্ধী	-9.89855
▁bangla	-9.89861
▁সংগ্রাম	-9.89879
▁দুর্দান্ত	-9.89931
▁কমিউনিটি	-9.89931
▁লাগিয়ে	-9.89931
▁আবেদনের	-9.89938
▁ক্যাম্প	-9.89961
▁জাফর	-9.90009
গি	-9.90037
▁কলেজে	-9.9006
▁মহ	-9.90067
▁জাতিসংঘের	-9.9007
▁সবসময়	-9.90129
গুলির	-9.90134
▁ভিসা	-9.90144
▁শাহজালাল	-9.90155
৬০	-9.90157
▁কান	-9.90344
▁জানেন	-9.90388
H	-9.90536
চর	-9.90575
▁ক্যামেরা	-9.9058
াত	-9.90584
▁বাঙালি	-9.90596
▁বাড়ানো	-9.90615
▁সমুদ্র	-9.90621
▁বেঁচে	-9.90755
িয়ান	-9.90771
▁আছি	-9.90795
▁বক্স	-9.90896
▁Breaking	-9.90981
▁একদিন	-9.91018
▁রেখেছে	-9.91037
কারীদের	-9.91046
▁নিম্ন	-9.91052
bd	-9.91054
▁আইনশৃঙ্খলা	-9.91069
▁উদ্দীন	-9.91071
▁ডেস্কঃ	-9.9108
▁আবারো	-9.91081
▁টুইট	-9.91117
▁ঐতিহাসিক	-9.9116
র্গ	-9.91183
▁চৌধুরীর	-9.912
▁পল্লী	-9.91297
▁সাম্প্রতিক	-9.91315
▁গেলেও	-9.91334
▁অজ্ঞাত	-9.91356
▁মৃতদেহ	-9.91364
▁অসংখ্য	-9.9137
▁মাটি	-9.91374
▁শান্ত	-9.91462
▁ভোটের	-9.91474
▁প্রেমের	-9.91497
▁আবাসিক	-9.91511
▁ফেব্রুয়ারী	-9.91543
▁পর্যায়ের	-9.91559
▁রাজ্জাক	-9.91587
▁বালু	-9.91624
সী	-9.91626
্যু	-9.91706
▁মানবাধিকার	-9.9174
▁সহযোগিতায়	-9.91831
▁পুনরায়	-9.91892
%	-9.91967
▁জুয়েল	-9.9197
▁Updated	-9.91971
বির	-9.91994
▁হাজী	-9.92008
▁উন্নয়নে	-9.92103
▁নম্বরে	-9.92155
▁০	-9.92182
▁হেফাজতে	-9.92257
▁ফাউন্ডেশন	-9.92266
at	-9.92286
▁পানির	-9.9231
es	-9.92467
▁গ্রহণের	-9.9247
▁পুরোপুরি	-9.92502
▁R	-9.92685
▁ঝ	-9.92699
▁রোগীদের	-9.92924
▁আঞ্চলিক	-9.92962
সো	-9.92973
▁নিচ্ছে	-9.92974
▁তথা	-9.9298
▁ক্ষমা	-9.92988
▁দরিদ্র	-9.93042
শান	-9.93053
▁ক্রিকেটে	-9.93091
▁আসাদুজ্জামান	-9.93122
▁পরিশোধ	-9.93137
▁চিহ্নিত	-9.93213
রাত	-9.93221
▁সিএনজি	-9.93271
▁ঐক্য	-9.93273
েজ	-9.93277
▁সমস্যার	-9.93304
ফিক	-9.93319
▁এয়ার	-9.93458
▁দোকানে	-9.93478
▁ইং	-9.93478
▁আজিজ	-9.9348
▁H	-9.93483
▁হেড	-9.93497
▁লাগবে	-9.93502
বন	-9.93516
▁ঘন্টা	-9.9363
ান্ত	-9.93654
▁অধীনে	-9.93694
▁একদিনে	-9.93711
ময়	-9.93748
▁বিনামূল্যে	-9.93812
la	-9.93824
ীন	-9.93888
▁স্কুলে	-9.93893
il	-9.93898
জ্জ	-9.93912
▁ইরান	-9.93926
▁সক্রিয়	-9.93968
▁উঠতে	-9.94067
▁#	-9.94069
▁ছেলের	-9.94071
▁মোড়	-9.94136
▁গুণ	-9.9419
▁তম	-9.94206
ডিসি	-9.94265
▁রবিউল	-9.94291
▁এভাবে	-9.9431
▁পাচ্ছেন	-9.94344
▁মামলাটি	-9.9439
▁স্ত্রীকে	-9.94427
▁কেমন	-9.94432
হাট	-9.94439
র্ট	-9.94467
▁বিসিবি	-9.94471
▁নির্যাতনের	-9.94539
▁মৌসুমে	-9.94682
▁আসর	-9.94698
▁৫৫	-9.94713
▁স্বীকৃতি	-9.94733
▁ইংল্যান্ডের	-9.94753
▁কোথায়	-9.94777
▁নেতাকর্মীরা	-9.9481
▁হোটেলে	-9.94851
▁ভাষায়	-9.94858
▁অপু	-9.94866
▁সংসদে	-9.94969
▁ব্য	-9.94985
▁বয়সে	-9.94998
▁নির্	-9.95001
▁হাওলাদার	-9.95062
▁অপহরণ	-9.95079
▁এরশাদ	-9.95086
রত	-9.95099
শীল	-9.95147
▁প্রতিবেশী	-9.9517
▁বাছাই	-9.95295
▁পর্ব	-9.95447
▁রেড	-9.95451
▁ফিল্ম	-9.95456
▁পত্রিকা	-9.95468
▁মেরে	-9.95518
মুখী	-9.95605
▁সতর্কতা	-9.95608
▁স্বাধীনতার	-9.95641
▁জনকন্ঠ	-9.95754
▁রাহুল	-9.95772
▁ন্যাশনাল	-9.95783
▁ব্যাপার	-9.958
▁ব্যক্তিকে	-9.95803
▁গানটি	-9.95896
▁সাহিত্য	-9.95907
▁Posted	-9.96013
▁শুধুমাত্র	-9.96025
▁হাবিব	-9.96027
▁মধু	-9.96039
▁পাসপোর্ট	-9.9604
▁আওয়ামীলীগ	-9.96043
▁ইন্টারন্যাশনাল	-9.96053
জান	-9.9607
▁৪৩	-9.96082
টের	-9.96131
▁ক্ষোভ	-9.96168
▁চাওয়া	-9.96192
▁মালেক	-9.96195
▁টে	-9.96335
▁অটো	-9.96353
▁দায়	-9.964
▁ওমর	-9.96415
▁ফে	-9.9642
▁যাত্রীদের	-9.96426
নাল	-9.96446
▁পাশ	-9.96463
▁সন্দেহ	-9.96563
▁কিনে	-9.96589
▁মোদী	-9.9661
▁ধরতে	-9.96703
▁এলে	-9.96719
▁অধিকাংশ	-9.96728
▁দত্ত	-9.96736
▁নীল	-9.96788
▁খ্রিস্টাব্দ	-9.96806
▁জের	-9.96829
েস	-9.96897
ডো	-9.96949
▁সদ্য	-9.97002
▁জন্যই	-9.97003
▁পড়লে	-9.97039
▁জ্বর	-9.97046
▁শর্মা	-9.97054
▁কাট	-9.97073
▁করেনি	-9.97079
▁মাহি	-9.97156
▁রাষ্ট্রীয়	-9.97157
▁বিধি	-9.97316
▁নেতার	-9.97335
▁করেননি	-9.97356
কেই	-9.97383
লেও	-9.97396
▁লকডাউনের	-9.97406
▁ঘটনাস্থলেই	-9.97464
▁পক্ষের	-9.97476
▁b	-9.97477
▁বারবার	-9.97513
▁পাঁচটি	-9.97531
▁করছিলেন	-9.97543
াঙ্গ	-9.97549
▁চীনা	-9.97553
▁দাবী	-9.9759
▁মিয়ানমারের	-9.97616
পাত	-9.9762
াইল	-9.97627
▁কুমিল্লার	-9.97673
▁প্রত্যাশা	-9.97698
▁কারনে	-9.97734
▁ধর	-9.97736
▁রস	-9.97737
▁বিবেচনায়	-9.97755
▁মানে	-9.97757
▁পাবলিক	-9.97771
▁ধাক্কায়	-9.97799
জুড়ে	-9.97802
▁শিশুকে	-9.97803
▁নিন্দা	-9.97814
▁টুর্নামেন্ট	-9.97831
▁মজুমদার	-9.97851
▁নয়া	-9.97869
গী	-9.97878
li	-9.97879
▁আপ	-9.97883
সং	-9.97902
▁বাইডেন	-9.97933
▁শীর্ষক	-9.97971
▁সেখানেই	-9.98101
▁সারাদেশ	-9.98113
▁AM	-9.98138
▁ব্যাগ	-9.98218
▁এগুলো	-9.98236
▁এটাই	-9.9824
▁ব্যারিস্টার	-9.98337
▁আকবর	-9.9834
▁দো	-9.98371
▁পরও	-9.98407
▁সাঈদ	-9.98505
▁ভেবে	-9.98535
▁বিমানবন্দর	-9.9854
▁ইনস্টিটিউট	-9.98593
▁সরে	-9.98651
▁বোলিং	-9.98656
▁ফেরি	-9.98658
▁সুপারিশ	-9.98681
▁৪৯	-9.98726
▁স্বেচ্ছাসেবক	-9.98767
▁দে	-9.98808
▁সচেতনতা	-9.98812
▁গুলিতে	-9.98849
▁অভিযোগের	-9.98863
রাই	-9.98925
▁একথা	-9.98951
▁আরা	-9.98959
▁সংগীত	-9.98961
▁আগেও	-9.99
▁শফিকুল	-9.99005
দল	-9.99036
▁টেক	-9.99044
শত	-9.99064
শ্ব	-9.99071
▁মেয়েকে	-9.9911
হর	-9.99135
▁ক্যান্সার	-9.99152
▁ব্যুরো	-9.99152
▁উল	-9.99198
▁ব্যথা	-9.99323
▁ভাব	-9.99358
▁পরেই	-9.99456
▁যুবককে	-9.99485
▁লিগের	-9.99485
▁বার্ষিক	-9.99526
র্থ	-9.99572
▁বাম	-9.99584
▁ভেতর	-9.99609
▁ব্যবহারের	-9.99612
▁৭৫	-9.99627
▁মেজর	-9.99657
▁চু	-9.9966
▁শু	-9.9977
▁ইউএনও	-9.9979
এসআই	-9.99807
▁অটোরিকশা	-9.99809
▁আগুনে	-9.99864
▁স্টক	-9.99916
▁বিস্তার	-9.99939
▁ওভার	-9.99945
▁গলা	-9.99949
▁বাংলাদেশকে	-10.0002
▁সংসার	-10.0002
▁গুজব	-10.0006
▁জয়ী	-10.001
▁কাউন্সিল	-10.0011
▁কাপড়	-10.0027
▁দেখেন	-10.0039
▁•	-10.0041
▁বৃদ্ধির	-10.0048
▁প্রতিনিধিঃ	-10.0054
▁পেল	-10.0056
▁কমপক্ষে	-10.0056
▁বিবেচনা	-10.0057
▁বাড়াতে	-10.0063
যুক্ত	-10.0064
▁প্রাপ্ত	-10.0066
▁May	-10.0068
▁আতঙ্ক	-10.0071
▁নেবে	-10.0072
ইল	-10.0077
েন্ট	-10.0078
▁১০টায়	-10.0081
কী	-10.0082
গান	-10.009
প্ত	-10.0092
▁ফাউন্ডেশনের	-10.0106
▁টাঙ্গাইল	-10.0114
▁হৃদয়	-10.0115
▁w	-10.0115
▁সোয়া	-10.0116
▁কারখানা	-10.0121
▁বেনাপোল	-10.0128
▁কক্সবাজারের	-10.0129
▁ট্রাস্ট	-10.0132
▁উপস্থাপন	-10.0139
▁ছুটে	-10.014
▁কাগজ	-10.0146
▁বাসের	-10.0148
য়েল	-10.0148
▁প্যা	-10.0148
▁গ্রহন	-10.0152
▁মিস	-10.0153
▁প্রদর্শন	-10.0154
▁নেতাকর্মীদের	-10.0164
▁স্বর্ণ	-10.0169
▁শিরোনাম	-10.0172
un	-10.0174
ল্যান্ড	-10.018
▁এনামুল	-10.018
▁গৃহ	-10.0181
লাইন	-10.0182
▁দুইজন	-10.0183
▁সেতুমন্ত্রী	-10.0184
▁ভাইয়ের	-10.0186
২০২০	-10.0189
▁প্রতিশ্রুতি	-10.019
ta	-10.0198
▁সংবর্ধনা	-10.0206
াতে	-10.0211
▁তালা	-10.0213
▁উপরে	-10.0213
▁নির্দেশে	-10.0217
▁দেশীয়	-10.0225
ওয়ার	-10.0228
▁২০১৩	-10.0229
▁জানাজা	-10.023
▁চাপা	-10.0232
▁রাজশাহীর	-10.0233
▁সুলতান	-10.0237
ol	-10.0242
গুলোকে	-10.0247
ানোর	-10.0249
▁বিপ্লব	-10.025
যোগ	-10.0251
▁অবসর	-10.0257
▁চরিত্র	-10.0265
▁গাছের	-10.0269
▁নোট	-10.0271
▁রেখেছেন	-10.0274
▁রায়হান	-10.0277
▁ভুয়া	-10.0278
na	-10.028
▁ইতিহাসে	-10.0281
▁বাঁ	-10.0287
ম্ম	-10.0288
▁নিরাপত্তার	-10.0288
▁শাহীন	-10.029
লিন	-10.0293
▁ওপেনার	-10.0295
▁ওয়ার্ডে	-10.0303
▁স্বাক্ষর	-10.0304
▁চিকিৎসকরা	-10.0309
সাধারণ	-10.0309
▁দিল্লি	-10.0311
▁অক্সিজেন	-10.0316
▁আজম	-10.0319
▁মদ	-10.032
▁বোতল	-10.0321
▁সকলকে	-10.0322
▁পাড়া	-10.0324
▁লিগে	-10.0324
▁জমির	-10.0331
▁পাঠানোর	-10.0331
▁নেত্রী	-10.0332
▁সবজি	-10.0335
খান	-10.0335
▁হ্যা	-10.0338
তুল	-10.034
▁পুরনো	-10.0343
▁জমিতে	-10.0366
▁হযরত	-10.0367
▁ব্রাজিল	-10.0368
▁রাতের	-10.0369
▁ফিরেছেন	-10.0373
▁মৌ	-10.0373
▁মোকাবিলায়	-10.0373
▁ভোলা	-10.038
▁অভিনন্দন	-10.0385
▁সেকেন্ড	-10.0385
▁বিশেষজ্ঞ	-10.0389
▁রায়ের	-10.039
▁দিনব্যাপী	-10.0391
▁জ্ঞান	-10.0394
▁লো	-10.0395
▁ভু	-10.0399
▁ঘোষিত	-10.0401
াবাদ	-10.0404
▁পাখি	-10.0408
▁সরকারকে	-10.0409
▁ব্রা	-10.0409
▁লাইফ	-10.041
▁প্রা	-10.0412
▁তল্লাশি	-10.0419
▁Read	-10.042
▁খাতে	-10.0424
▁১০টার	-10.0435
▁পূর্বে	-10.0436
▁অপারেশন	-10.0437
ক্ল	-10.0438
▁মেম্বার	-10.0438
▁শ্রীলঙ্কার	-10.045
▁মোতায়েন	-10.0453
▁f	-10.0456
বার্তা	-10.0458
▁আশরাফ	-10.0458
▁শনাক্তের	-10.0458
▁মারাত্মক	-10.0462
▁ছি	-10.0466
▁প্লে	-10.0466
▁ব্যক্তিদের	-10.0479
▁গণতন্ত্র	-10.0479
▁যাচাই	-10.0488
দ্য	-10.0489
▁অনেকটা	-10.0491
▁গিয়েছিলেন	-10.0493
▁বাড়ানোর	-10.0493
রূপ	-10.0496
নির	-10.0499
▁মর	-10.0501
▁আশ্বাস	-10.0505
চ্ছ	-10.0506
▁সামান্য	-10.0506
▁পর্যবেক্ষণ	-10.0514
▁ago	-10.0515
দান	-10.0522
ন্ডার	-10.0526
▁!	-10.0538
▁রিয়াদ	-10.0539
BD	-10.0539
▁মিশন	-10.0546
▁মেট্রোপলিটন	-10.0549
ul	-10.0549
▁অ্যাকাউন্ট	-10.055
▁ধাপে	-10.0555
িস্ট	-10.0558
▁বলি	-10.0559
ভুক্ত	-10.0567
▁ইতিমধ্যেই	-10.057
▁আশরাফুল	-10.057
▁কারও	-10.0572
িনা	-10.0574
কুল	-10.0581
▁প্রয়োজনে	-10.059
▁ঠেকাতে	-10.0593
▁খোকন	-10.0593
▁পদক	-10.0604
he	-10.0608
▁সেতুর	-10.0609
▁সিদ্দিক	-10.061
যে	-10.0614
▁ঘন	-10.0614
▁পারছেন	-10.0622
▁চিন	-10.0626
▁দিয়েছিল	-10.0633
▁দ্বীপ	-10.0633
▁বিরতি	-10.0635
দ্র	-10.0637
▁৪৪	-10.0638
▁ইয়াবাসহ	-10.0639
্র	-10.0639
ِ	-10.0643
▁পিটিয়ে	-10.0645
▁সুরমা	-10.0648
▁মাংস	-10.0648
▁মন্দির	-10.065
সির	-10.0652
▁টপ	-10.0658
▁সিনহা	-10.0658
▁পেশ	-10.0665
▁করলো	-10.067
গাঁও	-10.0671
▁৭২	-10.0676
▁আইনি	-10.0678
▁চার্জ	-10.068
▁১২টার	-10.0681
▁এইচএসসি	-10.0681
▁আগ্রহী	-10.0683
বছর	-10.0686
▁মেয়েদের	-10.0687
▁জাপান	-10.0695
বাগ	-10.0696
▁জখম	-10.0698
▁সাই	-10.0711
▁ঘোষণার	-10.0713
▁সেন	-10.0717
সব	-10.0722
▁খাল	-10.0724
▁মোস্তাফিজুর	-10.0726
▁আনসার	-10.0727
্লা	-10.0728
দাতা	-10.0728
▁দেখানো	-10.0732
▁ছাত্রদলের	-10.0737
▁জোন	-10.0737
▁বিবাহ	-10.0739
িতা	-10.0742
▁৬৫	-10.0742
▁মঙ্গল	-10.0742
▁মরহুম	-10.0743
▁যিনি	-10.0743
▁অপরদিকে	-10.0744
▁ক্রিকেটের	-10.0745
▁আত্মীয়	-10.0754
▁ইট	-10.0755
▁জিজ্ঞাসাবাদ	-10.0756
▁৪৬	-10.0758
▁উপাদান	-10.076
▁কাটিয়ে	-10.0762
নিক	-10.0762
▁দক্ষতা	-10.0762
▁নোয়াখালী	-10.0764
▁আইপিএল	-10.0769
▁প্রতিযোগিতায়	-10.077
▁সন্ত্রাস	-10.078
থি	-10.0782
▁শেরপুর	-10.0786
▁উই	-10.0794
িজ	-10.0795
▁ভিটামিন	-10.0796
▁ফিরতে	-10.0797
▁পাঁচজন	-10.0802
▁কোরআন	-10.0805
টেন	-10.0806
▁খাগড়াছড়ি	-10.0806
▁হাওয়া	-10.081
▁একুশে	-10.0811
বাদী	-10.0811
রুল	-10.0814
মাল	-10.0817
▁২টি	-10.0819
▁কথায়	-10.0822
▁ক্রাইম	-10.0823
▁করিয়ে	-10.0823
▁ব্র্যান্ড	-10.0823
▁তত	-10.0825
▁হাজারের	-10.0825
▁হাবিবুর	-10.0826
▁নেতাকর্মী	-10.0827
ঢাকা	-10.0831
▁রাজধানীতে	-10.0833
▁পাথর	-10.0834
েরা	-10.0839
▁উদ্বেগ	-10.0841
▁ডেপুটি	-10.0841
▁ফরম	-10.0846
▁সুনামগঞ্জ	-10.0848
▁সাইট	-10.0862
▁বিক্রির	-10.0867
▁শাহজাহান	-10.0869
▁আনুষ্ঠানিকভাবে	-10.0873
▁Pratidin	-10.0877
বের	-10.0877
▁প্যানেল	-10.0877
ঘর	-10.0878
▁মাননীয়	-10.0878
▁তোলার	-10.0879
▁আফ্রিকার	-10.0879
▁ওয়ার্ল্ড	-10.0884
▁মনোনীত	-10.0886
ষা	-10.0887
▁তারিখে	-10.0889
▁অপেক্ষায়	-10.0891
▁বিধিনিষেধ	-10.0895
ন্ডি	-10.0897
▁মুশফিক	-10.0901
▁সাক্ষাৎকারে	-10.0911
▁দায়ী	-10.0913
▁হালকা	-10.0916
▁শিক্ষকদের	-10.0921
▁ইংরেজি	-10.0936
▁৪৭	-10.0938
▁দুঃখ	-10.094
ণা	-10.094
▁সানি	-10.0942
▁রাজবাড়ী	-10.0943
▁আরোপ	-10.0943
জের	-10.0945
পাল	-10.0949
▁মিয়ানমার	-10.0952
ইয়া	-10.0954
▁পাবনা	-10.0967
K	-10.0968
ট্র	-10.0972
▁থা	-10.0973
র্ড	-10.0974
▁পার্বত্য	-10.0977
▁পরা	-10.0977
▁চোট	-10.0978
▁যথাযথ	-10.098
▁ফেলা	-10.0984
▁শেয়ারবাজার	-10.0986
▁ইন্ডিয়া	-10.0989
▁ভক্ত	-10.0991
▁প্রাকৃতিক	-10.0995
▁টাইম	-10.0995
us	-10.0998
▁সিদ্দিকী	-10.1002
▁ওয়ান	-10.1009
▁জনতা	-10.101
▁দলটির	-10.101
▁অলরাউন্ডার	-10.1013
▁চাকমা	-10.1013
▁আহম্মেদ	-10.1022
ধর	-10.1025
▁শর্ত	-10.1029
▁হকের	-10.1029
▁গুঞ্জন	-10.1032
▁৫২	-10.1037
▁যথেষ্ট	-10.104
▁জনাব	-10.1044
▁চোর	-10.1045
▁চালান	-10.1047
▁রাউন্ড	-10.105
▁যাচ্ছিল	-10.105
ic	-10.1064
▁পৌন	-10.1065
▁ব্র	-10.1076
▁গণমাধ্যমকে	-10.1084
▁বাড়তি	-10.1086
▁উদ্দিনের	-10.1087
▁বিদ্যালয়ে	-10.1095
▁জনক	-10.1095
▁ঝিনাইদহ	-10.1105
দিয়া	-10.1106
▁সাধারণত	-10.1108
▁অবস্থানে	-10.1108
▁শহিদুল	-10.1108
▁পাট	-10.1109
▁By	-10.1109
▁নেটওয়ার্ক	-10.1114
ডার	-10.1115
▁রোগে	-10.1124
▁ভার্চুয়াল	-10.113
▁পারলে	-10.1136
▁যাবত	-10.1141
▁অনুসারে	-10.1142
হো	-10.1146
▁সঙ্গী	-10.1147
▁হানিফ	-10.1151
▁সৌরভ	-10.116
▁আমিনুল	-10.1161
▁বৃদ্ধ	-10.1162
ক্যা	-10.1164
▁সংস্কার	-10.117
▁January	-10.117
▁আরবের	-10.1174
▁মিনিটের	-10.1174
▁ময়না	-10.1179
▁আইডি	-10.1179
▁মাদ্রাসার	-10.118
▁জামাত	-10.118
▁ট্রেনের	-10.1184
▁সঞ্চালনায়	-10.1214
দুর	-10.1215
▁সুখ	-10.1219
▁মুক্তিযুদ্ধের	-10.122
▁সেন্টারে	-10.1224
▁৭১	-10.1228
আমার	-10.1229
▁পাল্টা	-10.1229
িট	-10.1233
▁হাফিজ	-10.1233
বাই	-10.1235
▁ভাঙচুর	-10.1235
▁জসিম	-10.1235
▁প্রোগ্রাম	-10.1235
▁পলাশ	-10.1244
▁তু	-10.1247
▁গেট	-10.1248
▁প্রাণী	-10.1251
▁প্রকার	-10.1251
▁ইসলামিক	-10.1252
রিক	-10.1253
ঞ্চ	-10.1253
▁বেঞ্চ	-10.1255
▁হচ্ছিল	-10.1257
▁চত্বরে	-10.1258
▁স্টার	-10.1263
▁একদল	-10.1265
▁সহায়তায়	-10.127
▁বুকে	-10.1278
▁গবেষক	-10.1283
▁বিশ্বব্যাপী	-10.1283
▁প্রয়াত	-10.1283
▁পার্ক	-10.1283
োল	-10.129
অ্যা	-10.1292
বীর	-10.1292
▁খতিয়	-10.1295
▁তহবিল	-10.13
▁অনুদান	-10.1301
স্প	-10.1308
▁প্রো	-10.131
▁ভুক্তভোগী	-10.131
▁রান্না	-10.1316
▁বেছে	-10.1317
▁সেজন্য	-10.1319
▁কিছুক্ষণ	-10.1321
ti	-10.1321
রকম	-10.1322
G	-10.1323
▁প্রতিপক্ষ	-10.1325
▁মাদকদ্রব্য	-10.1329
▁আড়াই	-10.1333
▁বহিষ্কার	-10.1338
▁যেহেতু	-10.134
▁রাজু	-10.1341
▁কড়া	-10.1343
ধি	-10.1346
▁স্পিকার	-10.1348
▁ইউনিটের	-10.1356
▁ভেঙ্গে	-10.1357
▁নিলেন	-10.1361
▁নির্মাণের	-10.1364
▁সরদার	-10.1367
▁ঈদে	-10.1368
▁১০টি	-10.1371
দ্ব	-10.1371
▁প্রেমিক	-10.1371
নীয়	-10.1373
ْ	-10.1375
▁রিজভী	-10.1376
▁বার্ষিকী	-10.1379
▁বরখাস্ত	-10.1385
▁ফেরদৌস	-10.1385
▁ট্রাকের	-10.139
▁আফ্রিকা	-10.1395
▁স্বপন	-10.1396
▁সাহেব	-10.1401
টেক	-10.1403
▁আল্লাহর	-10.1403
▁ম্যাচটি	-10.1403
▁হ্যান্ড	-10.1414
▁আগ	-10.1417
▁নেবেন	-10.1417
▁এসএম	-10.1424
▁করপোরেশনের	-10.1427
▁বিতর্ক	-10.1428
ট্রি	-10.1431
▁নবী	-10.1431
▁দুর্ঘটনার	-10.1431
▁উপভোগ	-10.1435
▁তদন্তে	-10.1435
▁কবিতা	-10.1437
▁সাময়িক	-10.1438
▁সিরাজ	-10.1444
v	-10.1444
যোগ্য	-10.1447
▁স্লোগান	-10.1452
▁আইসিসি	-10.1455
▁পাচার	-10.1456
▁শিগগিরই	-10.146
লাই	-10.1464
পুরের	-10.1466
বাজ	-10.1467
▁ঘন্টায়	-10.1471
▁নাগাদ	-10.1471
▁কিনতে	-10.1472
▁অনন্য	-10.1476
▁প্রার্থীর	-10.1476
▁দায়িত্বে	-10.1479
▁জিয়াউর	-10.1482
য়ো	-10.1495
▁৩০০	-10.1496
▁পেয়েছি	-10.1499
▁তুরস্কের	-10.15
▁হেলাল	-10.1501
▁দিয়েছি	-10.1507
▁অনুশীলন	-10.1511
▁ছায়া	-10.1513
▁কর্মকর্তার	-10.1519
▁মুন	-10.1521
▁লক্ষ্মীপুর	-10.1531
▁তথ্যমন্ত্রী	-10.1539
▁মোড়ে	-10.1539
▁ধার্য	-10.154
▁অমিত	-10.1546
▁অনুসন্ধান	-10.1548
▁আনুষ্ঠানিক	-10.1548
▁ফিরোজ	-10.1549
▁কোর্টের	-10.1549
▁পেট	-10.1549
শক্তি	-10.1549
▁চলেছেন	-10.1552
ন্ডা	-10.1554
▁ম্যান	-10.1554
▁রং	-10.1557
▁দলটি	-10.1558
▁তাছাড়া	-10.1559
▁নিচ্ছেন	-10.1561
▁সহজেই	-10.1566
▁প্রাথমিকভাবে	-10.1568
▁সম্মাননা	-10.1572
▁প্রার্থীদের	-10.1573
▁রাশেদ	-10.1573
▁নার্স	-10.1582
▁ব্যবসায়ীরা	-10.1586
পথ	-10.1587
▁আসছিল	-10.1589
জির	-10.1592
▁বন্ধের	-10.1599
▁খাওয়ার	-10.1601
▁গেম	-10.1601
দিকে	-10.1603
▁যানজট	-10.1606
টিক	-10.1607
▁উখিয়া	-10.1616
▁সিসি	-10.1616
র্ষ	-10.1619
▁m	-10.1622
▁অধিদফতরের	-10.1627
পুলিশ	-10.1633
▁হাইকোর্টের	-10.1635
▁শ্রেষ্ঠ	-10.1635
র্দ	-10.1637
▁করপোরেশন	-10.1641
▁মিউজিক	-10.1645
▁প্রিয়াঙ্কা	-10.1645
▁ডিএসই	-10.1645
তন	-10.1646
▁মিরাজ	-10.1646
▁ভূঁইয়া	-10.1654
▁খো	-10.1655
▁আসরে	-10.1657
নাথ	-10.1659
মায়	-10.166
▁ব্যবসায়ীদের	-10.1662
▁ইংলিশ	-10.1665
পন	-10.1666
▁Comments	-10.1667
▁ইউসুফ	-10.1674
▁W	-10.1681
▁ফাইল	-10.1684
অব	-10.1686
▁গাড়িতে	-10.1692
▁মিষ্টি	-10.1694
▁দর্শকদের	-10.1695
বিদ	-10.1698
পূর্ব	-10.1703
জনক	-10.1704
▁বার্তায়	-10.1708
▁মানুষদের	-10.1709
কশন	-10.1711
▁দাশ	-10.1712
▁নারীকে	-10.1715
▁গ্রাহক	-10.1719
▁চোখের	-10.1719
▁হবিগঞ্জ	-10.1727
▁সম্পর্কিত	-10.1729
▁কৃষকদের	-10.173
▁প্রচারণা	-10.1741
▁বিগত	-10.1751
▁ত্রি	-10.176
▁কৃষ্ণ	-10.1761
▁বয়ে	-10.1762
▁হাউজ	-10.1763
▁ন্যায়	-10.1765
▁চলা	-10.1771
▁লিখে	-10.1774
▁কোরিয়া	-10.1774
▁প্রতিষ্ঠানে	-10.1784
উন	-10.1785
▁অস্বীকার	-10.1792
▁পাইলট	-10.1792
▁সুন্দরবন	-10.1793
বুল	-10.1794
▁নিযুক্ত	-10.1796
২০২১	-10.1799
▁পাহাড়	-10.1803
▁খেলায়	-10.181
▁হারে	-10.1813
▁সিম	-10.1815
▁বলার	-10.182
el	-10.1823
▁বার্সেলোনা	-10.1824
▁ফাঁড়ি	-10.1832
সমূহ	-10.1834
▁কবর	-10.1837
▁মাগুরা	-10.1838
▁সিনেমাটি	-10.1838
▁একা	-10.184
জেন	-10.1841
▁নির্ভর	-10.1842
▁নো	-10.1844
▁গুলো	-10.1844
পের	-10.1845
.)	-10.1846
▁টিকার	-10.1847
▁উজ্জ্বল	-10.1852
▁সদরের	-10.1855
▁নিউজিল্যান্ডের	-10.1856
▁জামায়াত	-10.1858
▁সৌন্দর্য	-10.1861
▁ডিভাইস	-10.1871
▁চারজন	-10.1872
▁৫১	-10.1877
▁কর্মশালা	-10.1878
▁টেস্টের	-10.1879
▁সংখ্যক	-10.1883
▁L	-10.1884
▁বান্দরবান	-10.1885
▁বাঁচাতে	-10.1889
▁তরফে	-10.1891
▁খালি	-10.1893
▁N	-10.1894
▁গণমাধ্যমে	-10.1895
▁Sylhet	-10.1895
▁সুষ্ঠু	-10.1896
hi	-10.1896
▁কুকুর	-10.1903
▁ইস	-10.1906
ro	-10.1908
▁হুমায়ুন	-10.1911
▁অন্তর্ভুক্ত	-10.1911
▁কমিয়ে	-10.1913
▁৫৪	-10.1914
▁আলোচনার	-10.1918
গল	-10.1934
▁অন্যদের	-10.194
▁September	-10.1941
ভারত	-10.1942
আজ	-10.1944
▁অনা	-10.1945
▁ডাউনলোড	-10.195
ভিডিও	-10.1951
▁রাতেই	-10.1953
▁নাসিম	-10.1957
▁১০টা	-10.1958
▁গ্র	-10.196
▁এমনটাই	-10.1961
▁যাত্রীবাহী	-10.1962
▁স্থাপনা	-10.1969
▁বাগেরহাট	-10.1972
▁মহি	-10.1975
▁সাক্ষাৎ	-10.1976
▁মহাসড়কে	-10.1976
▁প্রদেশের	-10.1977
▁পণ্যের	-10.1978
▁ফরিদ	-10.1981
▁নাঈম	-10.1982
▁চৌ	-10.1983
▁O	-10.1984
▁পয়সা	-10.1991
▁গুলিবিদ্ধ	-10.1991
▁বিখ্যাত	-10.1994
▁নাচ	-10.1998
▁ধারায়	-10.1999
▁অনুসরণ	-10.2001
▁ইব্রাহিম	-10.2001
▁সম্ভাব্য	-10.2001
▁প্রবল	-10.2002
িও	-10.2004
▁আলু	-10.2007
▁পাঠিয়ে	-10.2009
▁৫৬	-10.2009
▁পরিবর্তে	-10.2022
▁ভারী	-10.2022
▁উত্তোলন	-10.2023
▁ওঠা	-10.2023
▁ঘা	-10.2026
▁পড়ছে	-10.2028
বিল	-10.2031
▁সোহাগ	-10.2032
▁দুদক	-10.2033
▁রনি	-10.2033
▁কৃষকের	-10.2037
▁হাস	-10.204
▁ভাগ্য	-10.2041
▁প্রেক্ষিতে	-10.2042
▁বিশ্বজুড়ে	-10.2046
▁ওয়েবসাইটে	-10.205
▁মাদারীপুর	-10.2052
▁মৌলভীবাজার	-10.2054
▁সভার	-10.2069
▁রপ্তানি	-10.2073
▁ভোটগ্রহণ	-10.2074
▁নেপাল	-10.2076
▁চলছিল	-10.2078
▁৩টি	-10.2079
▁টুইটারে	-10.2082
▁সচিবালয়ে	-10.2086
ঝ	-10.209
▁ক্যাম্পের	-10.2094
▁বিচ্ছিন্ন	-10.2097
▁পত্র	-10.21
▁স্মরণ	-10.2102
▁জিনিস	-10.2103
▁অবাক	-10.2105
▁সাফ	-10.2111
di	-10.2113
▁মোটর	-10.212
▁রানী	-10.2125
▁প্রতিষ্ঠানটি	-10.2125
▁প্রকৃত	-10.2129
▁কিশোরী	-10.213
▁নাগরিকদের	-10.213
পরিদর্শক	-10.213
বাহ	-10.213
▁তাও	-10.2131
▁ক্ষেপণাস্ত্র	-10.2133
▁অধিক	-10.2137
▁দুজনের	-10.2137
▁হই	-10.2149
▁কংগ্রেসের	-10.2149
▁আধা	-10.2154
দো	-10.2154
▁দিবসে	-10.2154
▁মানিকগঞ্জ	-10.2158
▁বাচ্চা	-10.2159
▁কিশোরগঞ্জ	-10.216
দেশের	-10.2161
▁চাঁপাইনবাবগঞ্জ	-10.2162
▁নড়াইল	-10.2167
▁উত্তরা	-10.2171
▁সংগৃহীত	-10.2174
ীতে	-10.2178
▁মোকাবেলায়	-10.2178
▁বিরোধ	-10.2184
▁অপরাজিত	-10.2185
নাম	-10.2187
টুকু	-10.2188
কন	-10.2193
▁মহল	-10.2198
▁দেশকে	-10.2206
ুদ্দিন	-10.2207
▁চালানোর	-10.2208
▁পুকুর	-10.2208
▁অবৈধভাবে	-10.2211
▁আসিফ	-10.2211
▁ধারাবাহিকতায়	-10.2213
▁আনুমানিক	-10.2215
▁মোশাররফ	-10.2226
ভো	-10.2227
▁তৈরী	-10.2236
▁পর্বে	-10.2246
▁মন্ত্রিপরিষদ	-10.2246
▁প্রতিক্রিয়া	-10.2247
লাল	-10.2258
▁অর	-10.2259
জাত	-10.226
▁এমনই	-10.2266
▁বৈ	-10.2266
▁উপলক্ষ্যে	-10.2267
▁কৌশল	-10.2269
▁কিউ	-10.2271
▁বিক্রেতা	-10.2276
▁October	-10.2277
▁কাপুর	-10.228
▁ছাত্রীকে	-10.2281
▁অভাব	-10.2286
▁ঘাট	-10.2288
▁অগ্রগতি	-10.2288
▁বীজ	-10.2288
▁মর্যাদা	-10.2291
▁আস্থা	-10.2292
▁একজনের	-10.2293
বিশ্ব	-10.2296
কান	-10.2298
ন্টি	-10.23
▁ভোগ	-10.2302
▁ভিডিওটি	-10.2306
▁রয়টার্স	-10.2309
দ্দ	-10.2313
ংক	-10.2315
▁ধানের	-10.2319
▁ক্ষুদ্র	-10.2319
▁৬৪	-10.2323
ফুল	-10.2324
▁ভিডিওতে	-10.2327
কেন্দ্র	-10.2328
▁লিড	-10.2328
▁দেখুন	-10.233
▁সৌ	-10.233
▁রিপন	-10.2332
▁শাসন	-10.2335
▁ইঞ্জিন	-10.2339
▁ধন	-10.2341
▁ফোর্স	-10.2342
▁তখনই	-10.2343
▁দেলোয়ার	-10.235
▁দেবী	-10.2353
রান	-10.2354
▁৫টি	-10.2355
▁বাঁধা	-10.2358
▁সাব্বির	-10.2361
▁গার্ড	-10.2363
▁নেট	-10.2366
ন্ধ	-10.2368
্যাল	-10.2368
কারি	-10.2369
▁যাচ্ছি	-10.237
ীরা	-10.2376
▁সংক্ষিপ্ত	-10.2382
▁বৃষ্টিপাত	-10.2383
▁জামালপুর	-10.2385
▁পড়বে	-10.2387
▁ছাড়িয়ে	-10.2387
▁ধরেন	-10.2389
▁রুমে	-10.2396
▁বন্দরে	-10.2401
নেতা	-10.2402
NEWS	-10.2406
▁বরাবর	-10.241
▁Previous	-10.2419
র্ম	-10.242
▁একেবারে	-10.2421
▁Newspaper	-10.2424
▁সিরাজুল	-10.2428
▁লাইভ	-10.243
▁৫৭	-10.2439
▁করছিল	-10.2441
▁হায়দার	-10.2445
▁পশু	-10.2451
▁ব্রাহ্মণবাড়িয়া	-10.2453
▁পারভেজ	-10.2455
▁তেমনি	-10.2457
nd	-10.2457
▁জান	-10.2463
▁শ্রেণি	-10.2463
▁ইউনাইটেড	-10.2466
▁৫৯	-10.2467
▁ভুলে	-10.2469
▁বাংলাদেশী	-10.2469
▁বিশ	-10.2474
▁ইউনিভার্সিটি	-10.2476
▁মতামত	-10.2476
▁ধর্ষক	-10.2487
▁মতোই	-10.2488
▁ব্লক	-10.2489
▁রাঙামাটি	-10.2494
উর	-10.2494
▁যোগদান	-10.2494
▁রুশ	-10.2495
ন্য	-10.2501
▁গ্রাহকদের	-10.2503
▁পরীক্ষার্থী	-10.2504
ম্	-10.2505
বদ্ধ	-10.2513
▁শিব	-10.2514
▁বিধানসভা	-10.2516
শ্রী	-10.2518
▁আফগান	-10.2519
▁লক্ষণ	-10.2519
তদন্ত	-10.2523
▁কাশ্মীর	-10.2523
▁ইউটিউব	-10.2524
যান	-10.2525
▁লিমিটেডের	-10.2526
▁মুক্তিযুদ্ধ	-10.2527
▁সই	-10.253
▁নিয়েও	-10.2531
▁সেল	-10.2534
▁৮টা	-10.2541
▁বাই	-10.2549
ভাই	-10.2555
▁আকার	-10.2555
▁তাল	-10.2556
▁তুল	-10.2559
▁ক্লিক	-10.2562
▁তৃণমূলের	-10.2565
▁প্রার্থনা	-10.2572
▁মালামাল	-10.2572
▁ডাল	-10.2574
▁নওগাঁ	-10.2574
▁June	-10.2576
▁রুপি	-10.2577
▁ইসি	-10.2578
পথে	-10.2582
▁রুটে	-10.2586
▁কমাতে	-10.2588
▁অল	-10.259
▁বাচ্চু	-10.2593
▁সংলাপ	-10.2593
▁সীমিত	-10.2594
পরিচালক	-10.2594
▁প্রদর্শনী	-10.2597
▁ক্যাম্পে	-10.26
বিষয়ক	-10.2608
▁শ্রম	-10.2612
▁টহল	-10.2615
▁সঙ্গীত	-10.2618
▁আকারে	-10.2623
▁বিহার	-10.2633
▁দুর্নীতির	-10.2642
▁পর্যটক	-10.2643
▁ভক্তদের	-10.2643
▁আয়ের	-10.2646
▁Kolkata	-10.2647
▁বাড়বে	-10.2647
▁কিডনি	-10.2647
_	-10.2647
▁ব্যাটিংয়ে	-10.2651
ন্দ্র	-10.2651
▁জ্বালানি	-10.2653
ফল	-10.2661
▁সামনের	-10.267
▁ডিজাইন	-10.2672
▁তরুণী	-10.2672
▁তি	-10.2675
▁গ্যা	-10.2676
▁আইনগত	-10.2679
▁১টি	-10.2681
▁অ্যাকশন	-10.2682
▁আরোহী	-10.2683
▁সেট	-10.2689
▁সমঝোতা	-10.269
▁জামে	-10.2698
▁ভিতরে	-10.2701
▁তুরস্ক	-10.2701
▁স্বস্তি	-10.2702
বাহী	-10.2713
▁২০১২	-10.2715
▁বিক্রয়	-10.2717
▁নোবেল	-10.2723
▁রাজস্ব	-10.2725
ation	-10.2727
▁পাকিস্তানি	-10.2729
▁রণবীর	-10.2734
▁স্থানীয়দের	-10.2738
বোধ	-10.2739
চিত্র	-10.274
▁ফ্রান্স	-10.2743
▁চলচ্চিত্রের	-10.2744
▁উন্মুক্ত	-10.2744
▁পরিষেবা	-10.2744
▁সংরক্ষিত	-10.2744
▁পাওয়ায়	-10.2744
▁রাখুন	-10.2745
▁প্রযোজনা	-10.2754
▁লম্বা	-10.2756
▁দুইটি	-10.2757
▁পরিবেশন	-10.2758
▁সমন্বয়	-10.2771
▁চালিয়েছে	-10.2775
ُ	-10.2777
▁উপস্থিতিতে	-10.2783
▁নিজাম	-10.2783
জনিত	-10.2783
▁বহন	-10.2784
▁আমন্ত্রণ	-10.2788
▁রযালি	-10.2793
▁জোড়া	-10.2795
▁থেকেও	-10.28
▁দুর্বৃত্তরা	-10.2805
▁শিক্ষার্থীর	-10.2813
▁পরের	-10.2813
▁৫৩	-10.2819
▁জিয়াকে	-10.2822
▁পাঠান	-10.2823
▁মুশফিকুর	-10.2824
▁শুল্ক	-10.2832
▁শুরুতেই	-10.2832
▁জামান	-10.2834
▁ভিত্তি	-10.2837
▁Times	-10.2844
▁গুলশান	-10.285
▁ইস্যু	-10.2851
▁হেলিকপ্টার	-10.2854
▁কোরবানি	-10.2854
▁গেলো	-10.2859
▁মহামারী	-10.2859
▁দুলাল	-10.2859
▁Amader	-10.2865
▁ওয়াশিংটন	-10.2865
▁ট্রাফিক	-10.2865
▁তালেবান	-10.2867
▁ধারাবাহিক	-10.2868
▁ফো	-10.2869
▁দুদকের	-10.2875
▁সনদ	-10.2875
▁শিবগঞ্জ	-10.2876
▁ঘনিষ্ঠ	-10.2876
▁৯টার	-10.2888
▁ভোটে	-10.2889
▁এড	-10.2891
▁চক্র	-10.2891
▁জনপ্রিয়তা	-10.2891
▁পদ্ধতিতে	-10.2891
▁স্ট্যাটাস	-10.2898
▁মঞ্চে	-10.2898
▁স্বার্থে	-10.2902
▁ফসল	-10.2903
ce	-10.2904
▁সংঘর্ষের	-10.2907
▁ডান	-10.2907
▁বন্দি	-10.2908
ফু	-10.2909
▁মৃত্যুদণ্ড	-10.2915
পতি	-10.2915
U	-10.2916
▁কোরিয়ার	-10.2918
▁ইসমাইল	-10.292
০০০	-10.2922
▁টস	-10.2924
▁অসাধারণ	-10.2926
▁উঠছে	-10.2929
▁বিতর্কিত	-10.2935
▁লাগানো	-10.2937
▁নেইমার	-10.2938
▁নেত্রকোনা	-10.2939
▁পরিপ্রেক্ষিতে	-10.2942
▁হলুদ	-10.2943
▁কবীর	-10.2945
▁দীপিকা	-10.2953
▁দশম	-10.2961
▁শীত	-10.2962
▁চুয়াডাঙ্গা	-10.2963
▁রশীদ	-10.2964
▁যাই	-10.2966
▁লড়াইয়ে	-10.2966
▁নিহতদের	-10.2967
▁মার্কেট	-10.2967
িয়াল	-10.297
▁পাকা	-10.297
F	-10.2972
▁কলকাতায়	-10.2974
▁সম্পর্কের	-10.2975
▁সফটওয়্যার	-10.2975
▁অলিম্পিক	-10.2975
▁বিতরন	-10.2975
▁পঞ্চগড়	-10.2975
▁সশস্ত্র	-10.2986
▁নিত্য	-10.2987
▁পায়ে	-10.299
▁ইম	-10.2991
▁আফগানিস্তানের	-10.2995
▁নিল	-10.3005
সেন	-10.3007
▁ব্যক্ত	-10.3008
সম	-10.3011
▁রহস্য	-10.3012
জী	-10.3013
ent	-10.3014
▁গান্ধী	-10.302
▁প্রমূখ	-10.302
ck	-10.3025
▁বিধান	-10.3027
▁হার্ট	-10.3028
ঢ	-10.3029
▁যমুনা	-10.3031
▁একইসঙ্গে	-10.3031
▁টাইগার	-10.3032
▁মৃত্যুবরণ	-10.3033
▁৫৮	-10.3035
▁অপরাধে	-10.3039
▁বাণিজ্যিক	-10.3039
সিক	-10.3041
▁আর্জেন্টিনা	-10.3043
৭০	-10.3045
▁একাডেমি	-10.3048
▁খাবারের	-10.3048
▁স্বল্প	-10.3054
▁বিমানের	-10.3055
তলী	-10.3055
et	-10.306
▁শট	-10.3061
▁ইঙ্গিত	-10.3065
z	-10.3065
▁আব	-10.3065
▁এলো	-10.3065
▁৯টা	-10.3067
▁কবে	-10.3068
▁সমস্যায়	-10.3072
▁বাসে	-10.3074
ly	-10.3075
সময়	-10.3076
▁ইয়া	-10.3078
▁৬৮	-10.3083
▁In	-10.3087
▁কর্মসংস্থান	-10.3087
▁পরিসংখ্যান	-10.3087
বিহীন	-10.3094
▁ব্রিজ	-10.3094
▁বান	-10.3095
▁জানিয়েছিলেন	-10.3095
▁শিশুটির	-10.3095
▁আবরার	-10.3099
▁ভাতা	-10.31
▁p	-10.3105
▁চকরিয়া	-10.311
▁কাম	-10.311
▁আশপাশের	-10.3111
▁যুক্তরাজ্য	-10.3121
▁হাল	-10.3123
▁জোরদার	-10.3124
▁গবেষণায়	-10.3128
▁বৃদ্ধা	-10.3128
র্জ	-10.3129
▁যাবজ্জীবন	-10.3132
▁ঝালকাঠি	-10.3132
দেব	-10.3133
▁কুয়েত	-10.3133
▁বিনিময়	-10.3137
লির	-10.3138
▁সেরে	-10.3139
▁আবদুর	-10.3142
▁সমৃদ্ধ	-10.3142
▁অভ্যন্তরীণ	-10.3143
▁আফগানিস্তান	-10.3144
▁মোমেন	-10.3144
▁রিমান্ডে	-10.3145
▁জালাল	-10.3146
▁সিরাজগঞ্জ	-10.3147
ইট	-10.315
▁রোনালদো	-10.3153
ওয়ে	-10.3164
▁November	-10.3166
্টার	-10.3167
▁অভিভাবক	-10.317
▁যাক	-10.317
▁সম্পাদনা	-10.3171
মাই	-10.3176
▁শঙ্কা	-10.3179
▁বিরাজ	-10.3179
▁চিনি	-10.3181
জনকে	-10.3185
▁ভাবনা	-10.3188
▁ফেনী	-10.3188
▁ট্রফি	-10.3189
▁সুশান্ত	-10.319
"।	-10.3191
▁নিলে	-10.3198
▁ত্রিপুরা	-10.32
▁রাজশাহীতে	-10.3201
▁মাহ	-10.3203
▁সেদিন	-10.3205
te	-10.3211
বিজ্ঞান	-10.3211
▁ছাত্রীর	-10.3212
▁রোজা	-10.3212
▁সরঞ্জাম	-10.3222
▁নিবেদন	-10.3223
▁মহাকাশ	-10.3223
▁রঙের	-10.3226
▁চালাতে	-10.323
▁কেনার	-10.3233
স্বাস্থ্যমন্ত্রী	-10.3235
▁মেহেরপুর	-10.3235
▁পর্দায়	-10.3235
▁প্রযোজক	-10.3239
▁দিল্লির	-10.3242
▁কিংবদন্তি	-10.3246
▁July	-10.3246
▁মার্	-10.3249
ারের	-10.325
▁এক্ষেত্রে	-10.3256
▁টের	-10.3256
▁লন্ডন	-10.3258
▁দেখি	-10.3259
▁সাইবার	-10.326
▁কাজল	-10.326
▁ভেসে	-10.3261
▁কোর্স	-10.3262
▁গি	-10.3263
▁ল্যা	-10.3265
▁অবিলম্বে	-10.3268
▁BdST	-10.3269
▁লতিফ	-10.3269
▁পালা	-10.3269
জিত	-10.327
▁বৈশ্বিক	-10.328
যুদ্ধ	-10.328
কান্দি	-10.3283
▁নারায়ণগঞ্জের	-10.3283
▁৪টি	-10.3288
▁একজনকে	-10.3289
▁পরিবর্তনের	-10.329
▁আবদুল্লাহ	-10.3292
ل	-10.3293
▁চলার	-10.3297
ণে	-10.33
▁প্রতিষ্ঠিত	-10.3303
▁ইস্যুতে	-10.3306
▁গ্রামবাসী	-10.3309
কৃ	-10.331
▁Archives	-10.3314
▁কর্পোরেশনের	-10.3317
▁বিপদ	-10.3318
me	-10.3318
▁মুম্বাই	-10.332
▁গাঁজা	-10.3324
▁মানববন্ধনে	-10.3325
▁লালমনিরহাট	-10.3326
▁এড়াতে	-10.3327
িরা	-10.3327
▁রতন	-10.3328
ডাঙ্গা	-10.3332
▁মেসির	-10.3332
রিন	-10.3332
▁উদ্যোক্তা	-10.3334
▁চুরির	-10.3338
▁সংকেত	-10.3338
▁অনেকটাই	-10.334
▁ক্রিকেটারদের	-10.3341
▁সার্	-10.3343
▁আরিফুল	-10.3344
▁বোলার	-10.3348
▁প্ল্যাটফর্ম	-10.3349
্লি	-10.3353
▁আখ	-10.3354
▁চক্রের	-10.3359
▁শহিদ	-10.3359
▁for	-10.336
▁পড়াশোনা	-10.3361
পাড়ার	-10.3362
▁এরকম	-10.3365
▁নবম	-10.3366
▁হুদা	-10.3372
▁ফেল	-10.3378
▁আদ	-10.338
ا	-10.3383
▁প্রি	-10.3383
▁দামে	-10.3384
▁গাইবান্ধা	-10.339
▁*	-10.3392
▁বাস্তবায়নে	-10.3394
▁বিপর্যয়	-10.3395
▁ডিসি	-10.3398
ক্রমে	-10.34
▁মহামারির	-10.3405
News	-10.3406
পদ	-10.3406
▁ব্যাটারি	-10.3407
▁December	-10.3407
▁রক্ষায়	-10.3407
▁১৪২৮	-10.3412
▁হাফেজ	-10.3418
▁ইউএস	-10.3418
▁ফরহাদ	-10.3419
▁মনোনয়নপত্র	-10.3421
ধু	-10.3421
▁সম্প্রচার	-10.3425
▁চিকিৎসকের	-10.3427
▁ভর	-10.3429
▁লাইসেন্স	-10.343
▁স্পিনার	-10.343
▁নীতিমালা	-10.3431
▁বুক	-10.3433
রহাট	-10.3434
to	-10.3435
▁বাইক	-10.344
▁পিছনে	-10.3444
▁মুকুল	-10.3445
▁শ্রমিকরা	-10.3449
▁সিংহ	-10.3451
▁মালয়েশিয়া	-10.3453
▁স্বতন্ত্র	-10.3454
▁বানিয়ে	-10.3458
কট	-10.3463
▁জরুরী	-10.3465
▁প্রেসক্লাব	-10.3467
▁এজেন্ট	-10.3468
▁February	-10.3477
▁নেতৃত্বাধী	-10.3478
বান্ধব	-10.348
▁মঞ্চ	-10.3484
▁কাছাকাছি	-10.3488
▁যাতায়াত	-10.3488
▁যত্ন	-10.3489
▁অবহিত	-10.3502
▁য	-10.351
নেট	-10.3513
▁জোটের	-10.3513
▁সংবাদটি	-10.3515
▁স্বাদ	-10.3515
▁কর্মহীন	-10.3516
মোট	-10.3519
as	-10.3522
▁জয়পুরহাট	-10.3524
▁শয্যা	-10.3524
▁সম্পত্তি	-10.3524
▁বগুড়ার	-10.3524
বেলা	-10.353
▁West	-10.3536
▁মুরাদ	-10.3536
▁ঠাকুরগাঁও	-10.3541
▁মানা	-10.3542
▁প্রদানের	-10.3543
▁পর্যাপ্ত	-10.3547
▁পারফরম্যান্স	-10.3547
▁টুইটার	-10.3547
▁কোটা	-10.3551
▁ওয়াল	-10.3554
▁শাহিন	-10.3556
▁প্রযুক্তির	-10.356
▁সাপ	-10.3562
টায়	-10.3564
▁খাতের	-10.3571
▁দিয়েই	-10.3579
▁জিন	-10.3582
▁ডিরেক্টর	-10.3582
▁প্রদীপ	-10.3585
মুল	-10.359
▁এরমধ্যে	-10.359
▁পাড়ি	-10.3592
ন্না	-10.3606
▁রচনা	-10.3607
▁উড়িয়ে	-10.3607
▁২০১১	-10.3608
পী	-10.3611
▁সফরের	-10.3616
▁বেল	-10.3616
▁গে	-10.3617
▁ফ্ল	-10.3623
▁পশ্চিমবঙ্গের	-10.3632
▁চালাচ্ছে	-10.3634
▁নাট্য	-10.3636
লায়	-10.3641
▁ট্রলার	-10.3642
▁লেখেন	-10.3642
▁পরিবেশে	-10.3642
২০১৯	-10.3643
▁মেলার	-10.3648
▁পটুয়াখালী	-10.3649
▁ফটো	-10.3655
▁ব্লগ	-10.3666
▁দূতাবাস	-10.3667
শার	-10.3669
▁চেম্বার	-10.3678
▁অর্ধেক	-10.3679
▁ঘরোয়া	-10.368
▁আলিয়া	-10.3683
▁মুন্সীগঞ্জ	-10.369
▁অভিনীত	-10.3691
▁বিনিময়ে	-10.3692
মেইল	-10.3692
▁সম্প্রদায়ের	-10.3693
▁যোগ্যতা	-10.37
▁দম্পতি	-10.3701
▁শারমিন	-10.3701
▁থেমে	-10.3702
▁আশঙ্কাজনক	-10.3702
▁মাতা	-10.3706
▁পর্যালোচনা	-10.3713
িয়	-10.3713
▁ল্যাবে	-10.3717
▁বুঝে	-10.3719
পরি	-10.3724
▁ব্যাখ্যা	-10.3726
ak	-10.3727
▁সত্যি	-10.3729
▁৮টার	-10.3735
▁আসল	-10.3738
▁ফিতর	-10.374
▁বিশেষজ্ঞরা	-10.3742
াদি	-10.3743
▁তলা	-10.3744
▁পরদিন	-10.3746
▁ত্বকের	-10.3746
ডিবি	-10.3747
▁April	-10.3749
▁রোগের	-10.3751
আমাদের	-10.3753
মানের	-10.3754
▁সাক্ষী	-10.3763
াজ	-10.377
▁পাঠক	-10.3771
▁রোজ	-10.3772
▁অনেকের	-10.3773
বার্ষিকী	-10.3774
▁সমর্থকদের	-10.3776
▁উৎসবের	-10.3779
গঞ্জে	-10.378
▁মেলায়	-10.378
▁চুক্তির	-10.3782
▁হাছান	-10.3785
▁ফ্রান্সের	-10.3795
▁উৎস	-10.3796
▁বৈধ	-10.3802
▁কাতার	-10.3804
্ন	-10.3804
ইসি	-10.3805
▁জাপানের	-10.3806
▁আলমের	-10.3813
▁কতটা	-10.3813
▁একপর্যায়ে	-10.3817
▁কার্য	-10.3827
▁মাসুম	-10.3828
▁Re	-10.3832
তির	-10.3832
▁একক	-10.3833
▁জলবায়ু	-10.3834
▁সম্রাট	-10.3834
ক্ষিত	-10.3834
▁পত্রিকার	-10.3837
▁রেডিও	-10.3841
▁সেসব	-10.3844
▁ক্যাম্পাসে	-10.3848
ba	-10.3853
▁Portal	-10.3858
▁ব্যাক্তি	-10.3858
গাছ	-10.3859
▁এবারও	-10.3859
▁ধোনি	-10.386
ানী	-10.3862
▁সেবার	-10.3867
মূল্য	-10.3869
▁হেলথ	-10.387
ডু	-10.3874
▁ঘোষনা	-10.3874
ক্ক	-10.3875
▁হত	-10.3877
▁সাইফ	-10.3878
▁from	-10.3882
৮০	-10.3882
▁বিলিয়ন	-10.3884
▁পতন	-10.3885
▁গোলের	-10.3886
লিং	-10.389
▁পেশা	-10.3891
▁৬৬	-10.3891
▁লিখ	-10.3891
▁কাঁচা	-10.3895
▁রিফাত	-10.3896
▁আওয়ার	-10.3897
▁প্রশাসনিক	-10.3901
▁কালীগঞ্জ	-10.3901
▁নাহিদ	-10.3909
▁এরপরই	-10.391
▁উৎসাহ	-10.3915
িশ	-10.3917
▁আজকে	-10.3918
▁পরমাণু	-10.3919
▁সদস্যকে	-10.3926
times	-10.393
▁শরণার্থী	-10.3931
ay	-10.3933
▁ওসমানী	-10.3935
id	-10.3939
▁প্রাইভেট	-10.3941
▁০০	-10.3947
▁ক্র	-10.3949
▁শিখ	-10.395
ছড়ি	-10.395
▁আন্দোলনে	-10.3951
▁রফিক	-10.3953
▁চামড়া	-10.3956
▁আনে	-10.3959
গড়	-10.3961
▁প্রভাবে	-10.3965
▁পৃথিবী	-10.3965
ঙ্কা	-10.3969
lo	-10.397
▁শ্রেণীর	-10.3976
▁হাইওয়ে	-10.3981
▁প্রচেষ্টা	-10.3981
▁জনপ্রতিনিধি	-10.3985
▁কারিগরি	-10.3987
ক্কা	-10.3992
▁সংক্রমিত	-10.3992
▁বিস্ফোরণ	-10.3993
▁রাজীব	-10.3993
▁আইএস	-10.3995
▁শৃঙ্খলা	-10.3998
▁বর্ষের	-10.3998
▁বিচারের	-10.4005
গুলিতে	-10.4006
▁সম্প্রসারণ	-10.4007
▁নিয়োগের	-10.4012
দিনের	-10.4013
▁টেনে	-10.4015
▁ওসমান	-10.4015
কল্প	-10.4019
▁তুমি	-10.4021
▁অধিবেশন	-10.4022
মহা	-10.4025
ট্রা	-10.4027
▁বঞ্চিত	-10.4031
▁চর্চা	-10.4035
▁জয়ে	-10.4038
▁কর্নেল	-10.4042
▁এশিয়ার	-10.4043
▁পাঠিয়েছে	-10.4051
সুর	-10.4052
▁ইন্তেকাল	-10.4054
▁সার্কেল	-10.4054
ম্যা	-10.4063
▁বিদ্যুতের	-10.4064
▁টার্গেট	-10.4067
▁পাঞ্জাব	-10.4067
▁কর্মসূচী	-10.4074
▁সহিংসতা	-10.4075
▁চমক	-10.4076
▁ক্যাম্পাস	-10.4077
▁নজরদারি	-10.4079
▁গোপালগঞ্জ	-10.4081
জীবন	-10.4084
▁বিদ্যা	-10.4088
▁অস	-10.4089
▁Channel	-10.4091
▁সিকদার	-10.4091
▁খেল	-10.4097
ক্রম	-10.4098
▁এতো	-10.4101
▁পরপরই	-10.4102
▁ঠাকুর	-10.4103
▁ফকির	-10.4104
▁সাকিবের	-10.4105
▁সংগ্রহের	-10.4109
▁সমর্থক	-10.4111
▁দাগ	-10.4112
▁বিধ্বস্ত	-10.4116
▁পরিশ্রম	-10.4117
▁কেক	-10.4117
▁দেওয়ান	-10.4118
িদের	-10.4123
▁মিত্র	-10.4123
▁টাঙ্গাইলের	-10.4126
▁খেলবে	-10.4129
▁বর্ষ	-10.4134
▁বৈঠকের	-10.4139
▁মিশিয়ে	-10.4141
▁কুড়িগ্রাম	-10.4142
▁উল্লেখযোগ্য	-10.4144
▁আমলে	-10.4145
▁সংসদীয়	-10.4145
▁টুর্নামেন্টের	-10.415
▁স্থানান্তর	-10.415
▁আসামির	-10.4151
ণের	-10.4151
▁পরাজিত	-10.4154
▁রোহিত	-10.4154
▁দর্শন	-10.4156
▁স্যা	-10.4157
▁মাঠের	-10.4165
▁উৎসবে	-10.4165
▁প্রাণঘাতী	-10.4166
▁ছিলাম	-10.4167
▁বনানী	-10.4168
▁গঠনের	-10.4173
▁বেড়া	-10.4178
▁আসামিদের	-10.418
▁খাত	-10.4181
se	-10.4182
▁জমে	-10.4184
▁আয়োজনের	-10.4185
▁হানা	-10.4189
▁August	-10.4191
▁সমাপনী	-10.4191
▁অতিক্রম	-10.4193
▁আইফোন	-10.4193
▁পড়	-10.4193
জিয়া	-10.4196
▁মনিরুল	-10.4199
▁অ্যাপল	-10.42
্বা	-10.4202
ma	-10.4203
▁দফতর	-10.4204
▁comment	-10.4204
▁রওনা	-10.4204
▁শ্রীপুর	-10.4208
▁খামার	-10.4209
▁খালেদ	-10.4211
▁হারিয়েছে	-10.4216
▁শোভাযাত্রা	-10.4217
▁পিএসজি	-10.4217
▁নৌকার	-10.4217
▁Live	-10.4221
ছু	-10.4226
▁ওপেন	-10.4226
▁যুগ	-10.4234
tv	-10.4236
▁শাস্তির	-10.4237
▁কোর	-10.4238
ক্ট	-10.4239
▁৭৩	-10.4239
▁পরিবারে	-10.4243
▁বস	-10.4243
▁বস্তা	-10.4249
▁রঙ	-10.425
▁বলিউডে	-10.4257
▁স্পেশাল	-10.4267
▁আকাশে	-10.4267
ভী	-10.4269
ধান	-10.4271
▁দেখাতে	-10.4273
▁রাকিব	-10.4276
▁তৎপরতা	-10.4279
▁কনস্টেবল	-10.428
▁বড়ুয়া	-10.4283
▁ধরার	-10.4285
▁সম্মিলিত	-10.4292
▁ধাওয়া	-10.4297
▁ইউনিটে	-10.4301
▁চীনে	-10.4301
ow	-10.4304
▁কন্ট্রোল	-10.4305
co	-10.4307
▁ক্যারিয়ার	-10.431
▁গ্রেফতারের	-10.431
▁ভাট	-10.4311
▁৮৫	-10.4314
মূ	-10.4315
▁এতদিন	-10.4316
▁গণপরিবহন	-10.4318
াক	-10.4321
বাল	-10.4324
#	-10.4327
▁is	-10.4333
▁ঐতিহ্য	-10.4335
▁অভাবে	-10.4336
▁কর্পোরেশন	-10.434
খু	-10.4342
▁লঙ্ঘন	-10.4343
পন্থী	-10.4343
▁বিজনেস	-10.4343
▁ব্যাংকিং	-10.4352
▁ক্ষমতাসীন	-10.4356
COM	-10.4356
▁শাহরিয়ার	-10.4356
▁সৈকত	-10.4356
▁প্রতিযোগিতার	-10.436
no	-10.4361
▁ক্লাবে	-10.4361
▁বৈশাখ	-10.4365
▁অধিদফতর	-10.4366
▁h	-10.4368
েন্দ্র	-10.4369
▁March	-10.4369
লস	-10.4376
▁ফু	-10.4379
▁শীতের	-10.4381
▁হস্তক্ষেপ	-10.4381
▁পুলিশে	-10.4383
▁গ্রেফতারকৃত	-10.4384
▁V	-10.4385
▁নাটোর	-10.4391
▁পারব	-10.4393
▁বিশ্লেষণ	-10.4394
tion	-10.4399
কাম	-10.4402
▁লোকসভা	-10.4404
▁দেশগুলোর	-10.4406
কারীরা	-10.4407
ুম	-10.4408
পার্	-10.4411
▁কার্যকরী	-10.4412
▁India	-10.4414
২০১৮	-10.4416
▁যোগ্য	-10.4421
▁চলচ্চিত্রে	-10.4424
যাত্রা	-10.4428
▁মেঘনা	-10.4429
▁দেশজুড়ে	-10.444
▁হালিম	-10.4441
▁চেয়েছেন	-10.4444
▁ফজলে	-10.4446
▁১৫০	-10.4447
▁ঠিকানা	-10.4448
▁নাইট	-10.4448
▁বুলবুল	-10.4451
▁মেট্রো	-10.4451
মুখ	-10.4451
▁নরসিংদী	-10.4455
▁পালনের	-10.4457
▁ষষ্ঠ	-10.4459
৬৫	-10.4461
▁ইউরোপীয়	-10.4461
▁তাহের	-10.4463
▁পিতার	-10.4464
▁নাটকটি	-10.4468
রাজ্য	-10.4469
han	-10.447
▁এমএ	-10.447
▁article	-10.4471
▁পরীমনি	-10.4471
রোধ	-10.4472
▁২৫০	-10.4478
▁সৈয়দপুর	-10.4484
▁রব	-10.4484
▁দেশটি	-10.4489
জল	-10.4491
▁কারখানায়	-10.4495
পক্ষের	-10.4497
▁স্মিথ	-10.4497
পল	-10.4501
▁ব্রাজিলের	-10.4507
▁দেখলে	-10.451
▁ব্যবসায়ীকে	-10.4512
▁হাউস	-10.4517
▁কার্	-10.4524
▁এখনই	-10.4524
▁অধিবেশনে	-10.4531
টিং	-10.4533
▁বেশী	-10.4534
▁ভয়ে	-10.4535
উল্লাহ	-10.4537
▁পরিমাণে	-10.4538
▁রাজস্থান	-10.4538
নিয়ে	-10.4542
▁বিশ্বনাথ	-10.4544
র্শ	-10.4545
দেশে	-10.4547
▁গড়া	-10.4548
▁বর্ষা	-10.4567
▁লাগা	-10.4569
▁৭৮	-10.457
▁পরিবহনের	-10.4571
▁হরি	-10.4573
▁ফোনের	-10.4574
▁অ্যান্টি	-10.4575
রায়	-10.4581
কর্মচারী	-10.4584
▁ওঠার	-10.4584
»	-10.4586
▁৬১	-10.4588
▁শিক্ষার	-10.4588
▁স্কোর	-10.459
▁সায়	-10.459
মেক	-10.459
▁পাননি	-10.4592
▁পোস্টার	-10.4592
ইং	-10.4593
▁দপ্তরের	-10.4594
▁যশোরের	-10.4595
▁কার্যক্রমের	-10.46
▁আড়	-10.4609
▁কক্ষ	-10.4611
▁২য়	-10.4619
▁৪০০	-10.4623
▁ছোট্ট	-10.4624
▁গাজীপুরের	-10.4624
ল্ট	-10.4628
জাতীয়	-10.4628
নির্	-10.463
ওয়াল	-10.4631
▁ভিউ	-10.4634
▁সংশোধন	-10.4637
▁লকডাউনে	-10.4638
িফ	-10.4639
▁ভ্রাম্যমান	-10.4641
গ্রহ	-10.4642
▁তালিকাভুক্ত	-10.4642
পাড়ায়	-10.4644
র্ভ	-10.4649
▁অনিয়ম	-10.4652
▁চিফ	-10.4653
▁ভঙ্গ	-10.4653
▁ফিলিস্তিনি	-10.4658
▁রুম	-10.466
▁প্রতিবছর	-10.4661
ate	-10.4662
▁গণধর্ষণ	-10.4667
▁জার্নাল	-10.468
ر	-10.468
▁অ্যাওয়ার্ড	-10.4681
▁মাহমুদউল্লাহ	-10.4682
▁পেরিয়ে	-10.4685
▁সেখানকার	-10.4687
▁৬৭	-10.4687
▁সমন্বয়ে	-10.4689
▁সর্বনিম্ন	-10.4693
হত	-10.4693
▁প্রভাবশালী	-10.4694
▁মুদ্রা	-10.4698
স্ত্রী	-10.4698
▁মাই	-10.4698
▁সহকারি	-10.47
▁ভিত্তিক	-10.4702
সাই	-10.4705
▁নেগেটিভ	-10.4707
▁কামরুজ্জামান	-10.4707
▁[.]	-10.4707
▁গণতান্ত্রিক	-10.4707
▁সীমা	-10.4708
ডিপি	-10.4708
িব	-10.4709
▁জলিল	-10.4709
ফার	-10.4716
▁ছুটির	-10.4717
▁চলাকালে	-10.4722
▁চিৎকার	-10.4728
▁ব্যবসায়	-10.4731
▁মঈন	-10.4733
▁সঞ্জয়	-10.4733
▁অনুষদ	-10.4733
▁শাকিল	-10.4742
▁বাণী	-10.4746
শ্র	-10.4748
চল	-10.475
জয়	-10.475
ণ্য	-10.4751
▁ময়মনসিংহের	-10.4754
ীত	-10.4757
ভাগ	-10.4758
▁জ্যেষ্ঠ	-10.476
▁ধর্মঘট	-10.476
▁দেরি	-10.4762
▁তাড়া	-10.4762
▁৬২	-10.4766
▁কাঠ	-10.4768
▁সুস্থতা	-10.4773
≣	-10.4773
▁প্রাণহানি	-10.4774
সিস	-10.4776
▁নয়ন	-10.478
▁ডু	-10.4781
▁কিংস	-10.4783
লেই	-10.4786
▁সংবাদপত্র	-10.4788
▁মাদ্রিদ	-10.4789
▁খুনের	-10.479
▁বাঘ	-10.4791
▁৭৪	-10.4795
▁পূ	-10.4796
▁পায়নি	-10.4799
▁ধানমন্ডি	-10.48
▁১২টা	-10.48
▁সাহায্যে	-10.48
▁অষ্টম	-10.4802
▁প্রাঙ্গণে	-10.4806
চ্ছে	-10.4809
▁বাগ	-10.481
▁জার্সি	-10.481
▁ঈশ্বরদী	-10.4813
▁নাগরিকত্ব	-10.4818
▁ফেরা	-10.4819
▁বাঁশ	-10.4827
▁online	-10.484
▁সৎ	-10.4841
▁ফেরেন	-10.4851
▁হোয়াইট	-10.4853
▁নু	-10.4857
▁সূর্য	-10.4857
▁খোলার	-10.4865
▁ইতিবাচক	-10.4866
▁প্রাদুর্ভাব	-10.4866
▁ছিটকে	-10.4866
এসপি	-10.4867
▁গৃহবধূর	-10.4871
▁পুকুরে	-10.4872
নামা	-10.4875
▁মার্ক	-10.4878
▁প্রতিনিয়ত	-10.488
▁আব্বাস	-10.488
▁৬টি	-10.4882
▁প্রত্যক্ষদর্শী	-10.4888
▁ইউরো	-10.4892
▁মোজাম্মেল	-10.4893
▁সোপর্দ	-10.4893
▁লবণ	-10.4893
পুরুষ	-10.4894
▁ইন্ডিজ	-10.4898
্যে	-10.4899
▁আগুনের	-10.49
ot	-10.4909
▁যুদ্ধে	-10.4913
▁জবানবন্দি	-10.492
সিটি	-10.4921
▁ঘো	-10.493
খানা	-10.494
ভাবেই	-10.4941
▁পোস্টে	-10.4942
▁সন্দেহে	-10.4947
▁গোসল	-10.4948
ab	-10.4953
▁পিরোজপুর	-10.4954
▁এশিয়ান	-10.4955
▁সত্ত্বেও	-10.4961
▁হাইকোর্টে	-10.4961
▁বোধ	-10.4964
▁প্রকৌশল	-10.4969
▁পাকিস্তানে	-10.497
▁আলোর	-10.4972
▁ফয়সাল	-10.4974
▁?	-10.4975
▁দিবসের	-10.4978
▁করানো	-10.4987
▁নথি	-10.499
▁চিঠিতে	-10.4991
স্থা	-10.4998
▁ইঞ্জিনিয়ার	-10.4999
ter	-10.5
▁অবলম্বন	-10.5002
সূত্র	-10.5003
িটি	-10.5004
▁জানাচ্ছি	-10.5004
▁ছেলেকে	-10.5007
▁ট্রা	-10.5012
▁অংশে	-10.5015
▁দেহে	-10.5015
▁মহিউদ্দিন	-10.5016
▁বয়স্ক	-10.5016
▁হুঁশিয়ারি	-10.5018
▁আন্তরিক	-10.5018
▁রহমানকে	-10.502
▁TV	-10.5022
ণী	-10.5026
▁টান	-10.503
▁অফার	-10.5031
▁৬টা	-10.5035
ধারা	-10.5036
গ্রা	-10.5037
▁আহ	-10.5037
▁Time	-10.5038
▁কেনা	-10.5038
▁Somoy	-10.5043
▁ওয়ালটন	-10.5043
▁নিয়েছিলেন	-10.5044
▁স্প	-10.5047
▁সিঙ্গাপুর	-10.5051
▁বাসার	-10.5053
▁লুট	-10.5055
▁ঐতিহ্যবাহী	-10.5057
▁নোয়াখালীর	-10.5058
▁খেলেছেন	-10.5058
▁৭৬	-10.5059
▁সেবন	-10.506
নীতি	-10.5064
▁বাবর	-10.5067
▁গোষ্ঠী	-10.5068
▁পুষ্টি	-10.507
▁টুয়েন্টিফোর	-10.507
▁বসানো	-10.5079
জ্ঞা	-10.5079
▁ইলিয়াস	-10.5084
▁শিরোনামে	-10.5084
▁ভোক্তা	-10.5086
IST	-10.5086
▁বাড়ী	-10.5089
▁লেগেছে	-10.5091
দিক	-10.5097
▁মতলব	-10.5098
▁নাম্বার	-10.5099
▁মনিরুজ্জামান	-10.51
ছবি	-10.5102
▁বাংলায়	-10.5106
▁রুল	-10.5106
▁রূপান্তর	-10.5108
▁৬৯	-10.5108
তৃ	-10.5111
▁আরাফাত	-10.5112
▁গুন	-10.5112
▁দিনাজপুরের	-10.5118
▁নওগাঁর	-10.5124
▁হয়েছি	-10.5127
▁ইচ্ছে	-10.513
▁দীপু	-10.513
ধারী	-10.5132
▁বাগান	-10.5133
▁দিবসটি	-10.5135
▁ফ্ল্যাট	-10.5139
▁খে	-10.514
▁ঘুষ	-10.5141
▁মহাসড়ক	-10.5145
▁বৌদ্ধ	-10.5148
▁দেখেছেন	-10.5149
▁ভাষণ	-10.5151
▁সাউথ	-10.5153
▁হোয়াটসঅ্যাপ	-10.5153
▁উচ্ছেদ	-10.5153
▁সংকটে	-10.5155
ারী	-10.5155
▁বিরল	-10.5164
▁রাখ	-10.5165
▁হরতাল	-10.5166
করোনা	-10.5169
▁সূত্রের	-10.517
▁উদ	-10.5171
▁হবার	-10.5172
▁ফেসবুকের	-10.5175
▁ফোরাম	-10.5176
▁যন্ত্র	-10.5176
▁হ্রাস	-10.518
▁সাজে	-10.5185
▁দুবাই	-10.5186
হাব	-10.5186
▁জানে	-10.519
▁আকর্ষণ	-10.5192
▁গাড়িটি	-10.5194
কিউ	-10.5195
▁মাইক্রোবাস	-10.5195
▁সৌম্য	-10.5198
▁হতাশা	-10.5204
বাসীর	-10.5205
ب	-10.5208
▁ঊর্ধ্বতন	-10.5208
▁১৪২৭	-10.5212
▁স্ট্র	-10.5212
▁বিধায়ক	-10.5212
▁মোকাবিলা	-10.5212
▁কবরস্থানে	-10.5213
▁উপকরণ	-10.5215
▁সাভার	-10.5216
▁দেওয়ায়	-10.522
▁করতেই	-10.522
▁জয়া	-10.5221
▁অপসারণ	-10.5222
▁তদন্তকারী	-10.5223
▁প্রবাস	-10.5225
▁জনগণকে	-10.5225
▁প্রতিপক্ষের	-10.5225
▁জয়নাল	-10.5228
▁ছিনতাই	-10.5231
▁বিসিএস	-10.5231
তিন	-10.5233
▁সত্যিই	-10.5235
প্রধান	-10.5235
▁উত্তরে	-10.5235
▁এডভোকেট	-10.5236
▁পশ্চিমবঙ্গ	-10.5236
▁উল্টো	-10.5236
▁ফেলতে	-10.5238
▁আইসোলেশনে	-10.5239
কর্মীদের	-10.5239
▁উপযুক্ত	-10.5241
▁চট্টোপাধ্যায়	-10.525
▁শাহাদাত	-10.525
op	-10.5258
বারের	-10.5264
▁সমবায়	-10.5265
▁ভাস্কর্য	-10.5265
িয়াম	-10.5267
▁শরিফুল	-10.5268
▁দুনিয়া	-10.5269
লেট	-10.527
ভু	-10.5271
▁সারি	-10.5276
কাজ	-10.5277
▁স্নাতক	-10.5278
লিশ	-10.5279
▁মেধা	-10.528
▁গাই	-10.5283
▁কৃতজ্ঞতা	-10.5283
▁কাশি	-10.5283
ত্তি	-10.5284
▁পুরুষের	-10.5291
▁be	-10.5291
▁উন্মোচন	-10.5292
▁চামচ	-10.5292
▁আবেদীন	-10.5292
▁NEWS	-10.5301
▁শরিফ	-10.5302
▁আপলোড	-10.5306
▁মল্লিক	-10.5306
م	-10.5308
▁আলাপ	-10.531
▁ত্বক	-10.5312
ফ্	-10.5315
▁ইউরোপের	-10.5316
▁ফেলেছে	-10.5317
▁কুলাউড়া	-10.532
▁মুফতি	-10.532
▁জগন্নাথপুর	-10.5321
▁পেশায়	-10.5322
▁অর্ডার	-10.5325
পক্ষ	-10.533
▁নিয়োজিত	-10.5334
▁বেসামরিক	-10.5334
▁মিজান	-10.5334
▁প্রিন্স	-10.5335
▁বরিশালে	-10.5337
▁সুদ	-10.5341
▁অপারেটর	-10.5348
▁পুড়িয়ে	-10.5349
▁আগষ্ট	-10.535
▁ক্রেতা	-10.5351
▁বদলি	-10.5357
▁ফোনটি	-10.536
▁দৃঢ়	-10.5362
▁ছাই	-10.5362
ক্ষু	-10.5366
টিয়া	-10.5369
▁থ	-10.5372
▁স্বামীকে	-10.5372
▁পছন্দের	-10.5374
▁হোসেনকে	-10.5375
▁তোমার	-10.5376
▁পড়ুয়া	-10.5377
থে	-10.5379
▁গৃহবধূ	-10.538
▁Barta	-10.5383
▁হর	-10.5383
▁পারছে	-10.5388
▁খুলনার	-10.5389
▁রকেট	-10.5391
▁বইটি	-10.5392
▁করত	-10.5402
▁ছাত্রদল	-10.5406
▁বিএসএফ	-10.5408
▁রযা	-10.5411
▁ওপরে	-10.5412
বাবা	-10.5414
is	-10.5414
▁জানাই	-10.5415
▁দোকানের	-10.542
▁আরবে	-10.5422
▁J	-10.5427
কর্মীরা	-10.543
▁প্রমাণিত	-10.5431
▁e	-10.5431
▁ভূমিকায়	-10.5432
▁কাগজপত্র	-10.5434
▁বহাল	-10.5434
▁স্বজন	-10.5436
▁মহড়া	-10.5437
▁আপন	-10.5437
খো	-10.5439
▁তারই	-10.544
▁প্রার্থীরা	-10.5441
▁বসা	-10.5444
▁সাক্ষাত	-10.5447
▁সিদ্ধান্তের	-10.5452
চট্টগ্রাম	-10.5452
শের	-10.5452
▁সংস্থাটি	-10.5454
বহ	-10.5455
▁ব্যক্তিত্ব	-10.5455
তন্ত্র	-10.546
▁চিকিৎসকদের	-10.5461
▁প্রবীণ	-10.5461
▁পঞ্চায়েত	-10.5461
▁ঘাতক	-10.5462
▁ইতিহাসের	-10.5462
▁চিকিৎসায়	-10.5463
সান	-10.5469
য়েট	-10.5469
▁নামাজের	-10.5472
▁পার্শ্ববর্ত	-10.5473
সচিব	-10.5476
ৎস	-10.5477
ক্রা	-10.5479
▁পৌঁছেছে	-10.5483
▁নানান	-10.5483
▁রাজনীতিতে	-10.549
▁মাঝারি	-10.549
▁প্রজ্ঞাপন	-10.5493
্যান্স	-10.5493
▁আক্রান্তদের	-10.5496
▁বার্সা	-10.5498
▁আর্	-10.55
▁নাটকে	-10.5504
প্রা	-10.5504
▁কোয়ারেন্টাইনে	-10.5505
▁রফতানি	-10.5505
▁পেঁয়াজের	-10.5506
▁বরণ	-10.5508
প্রিয়	-10.5515
▁ছয়জন	-10.5518
বায়	-10.5518
▁হামলাকারী	-10.5518
▁পিএনএস	-10.5519
▁নূরুল	-10.5519
▁লিংক	-10.552
▁ফ্যাশন	-10.552
কথা	-10.5522
▁ইমন	-10.5523
▁বাদশা	-10.5524
▁দায়রা	-10.5525
তারা	-10.5525
▁চাকা	-10.5525
▁মাকে	-10.5526
▁চাকরির	-10.5528
▁কাশেম	-10.5533
▁রোডের	-10.5533
▁শ্রমিকের	-10.5536
▁আসামিকে	-10.5539
▁স্বপ্নের	-10.554
বিডি	-10.5541
▁গতিতে	-10.5544
▁দক্ষ	-10.5546
▁স্পেন	-10.555
▁প্রজন্মের	-10.555
▁ভূমিকম্প	-10.5554
▁মুর	-10.5554
▁সম্মেলনের	-10.5555
হিদ	-10.5556
গুন	-10.5558
▁৬৩	-10.5558
▁সাজানো	-10.5559
▁সৌজন্য	-10.5562
▁টঙ্গী	-10.5562
▁করেও	-10.5563
▁ফজলুল	-10.5563
▁কর্মকাণ্ড	-10.5569
▁স্টে	-10.557
▁শুনতে	-10.5573
দর	-10.5575
▁চলাকালীন	-10.5577
▁১১টা	-10.5579
ঘাত	-10.558
▁ছয়টি	-10.5582
▁থাকি	-10.5583
▁শিক্ষকের	-10.5588
▁min	-10.559
▁আবিষ্কার	-10.559
▁সূচনা	-10.5591
▁আহমেদের	-10.5592
▁আলোকে	-10.5593
হাম	-10.5593
▁U	-10.5594
▁৯৫	-10.5598
▁অস্থায়ী	-10.56
▁বগুড়ায়	-10.5602
▁কাটার	-10.5604
▁ল্যাব	-10.5605
▁ঈ	-10.5607
▁বিজ্ঞানীরা	-10.5608
▁বায়ু	-10.5609
▁বার্ন	-10.5613
▁পরোয়ানা	-10.5619
▁d	-10.5621
▁মুখ্য	-10.5622
স্থান	-10.5624
▁Leave	-10.5626
গর	-10.5633
▁কালে	-10.5636
▁অধিকারী	-10.5637
▁নজরে	-10.5638
▁আজহার	-10.5639
ক্সি	-10.5643
▁পেট্রোল	-10.5648
▁খ্যাত	-10.5649
ত্তা	-10.565
▁ভর্তির	-10.5654
▁বলেছি	-10.5654
পাতা	-10.5657
▁আসাদ	-10.5658
▁গানে	-10.5658
▁দিল্লিতে	-10.5663
▁৭৭	-10.5665
▁কন্ঠ	-10.5666
▁মোহন	-10.5668
কস	-10.567
▁হত্যাকাণ্ডের	-10.5674
টিভ	-10.5675
▁IST	-10.5676
▁দুর্ভোগ	-10.5678
▁জিজ্ঞাসাবাদের	-10.5678
▁রহমত	-10.5678
▁বালিকা	-10.5679
and	-10.5681
তর	-10.5685
▁মণ্ডল	-10.5685
▁ঔষধ	-10.5692
▁রাখবে	-10.5693
▁টাইগারদের	-10.5697
▁সকলেই	-10.5698
ফাই	-10.5701
াধীন	-10.5701
▁দেশি	-10.5703
▁ভাঙন	-10.5707
েক্ট	-10.5707
গ্ন	-10.5717
▁চিহ্ন	-10.5718
▁করতো	-10.572
▁জম্মু	-10.5721
▁গ্লোবাল	-10.5722
▁পরাজয়	-10.5722
▁চাপে	-10.5722
স্ত্র	-10.5725
▁স্টোর	-10.5728
▁স্বজনরা	-10.5729
▁রাই	-10.5731
▁ফ্যা	-10.5736
▁প্যারিস	-10.5736
াশ	-10.5736
▁দেয়নি	-10.5737
▁পরিচালনার	-10.5739
▁হাসানের	-10.574
▁যুবরাজ	-10.574
▁শিবির	-10.5747
▁সাম্প্রদায়িক	-10.5751
▁ড্রোন	-10.5751
▁পূর্ণাঙ্গ	-10.5752
▁বাক	-10.5754
খে	-10.5755
▁প্রান্তিক	-10.5755
▁যাচ্ছিলেন	-10.5757
▁অনুভূতি	-10.5759
▁পরেও	-10.5759
▁মিডিয়ার	-10.5759
▁তুলেছেন	-10.5763
▁প্রথমবার	-10.5765
▁সেশন	-10.5765
▁অমান্য	-10.5767
▁আদা	-10.5767
▁নাজিম	-10.5767
▁কুমিল্লায়	-10.5768
▁জহিরুল	-10.5768
▁তাপস	-10.5768
▁এজাহার	-10.577
▁হলেই	-10.5775
▁স্মার্ট	-10.578
▁অবতরণ	-10.578
▁প্লাস্টিক	-10.578
ig	-10.5782
▁নারীরা	-10.5782
▁প্রশাসকের	-10.5783
▁কেড়ে	-10.5789
▁ধাপ	-10.579
▁৮৮	-10.5791
এসসি	-10.5793
▁ডায়াবেটিস	-10.5795
▁লিওনেল	-10.5796
বাহিনী	-10.58
▁এরা	-10.5801
ম্পা	-10.5803
▁বুথ	-10.5808
▁ইউরোপ	-10.5808
▁মূ	-10.5809
▁ইতালি	-10.5809
▁বেন	-10.581
▁আটককৃত	-10.5811
▁প্রতিষ্ঠানটির	-10.5811
▁সিআইডি	-10.5811
ব্র	-10.5812
>	-10.5813
টেল	-10.5817
▁স্টেশনে	-10.5823
▁আসেনি	-10.5824
▁এনজিও	-10.5824
▁জুনিয়র	-10.5824
মাত্র	-10.5832
বড়	-10.5835
মতো	-10.5839
▁ম্যানেজমেন্ট	-10.5839
▁নিবন্ধ	-10.5846
▁বাঁচা	-10.5846
▁মানের	-10.5848
▁আয়োজক	-10.5849
▁তারপরও	-10.585
▁দিনটি	-10.585
▁মালা	-10.5851
ok	-10.5852
▁প্রকোপ	-10.5854
বস	-10.5854
দূর	-10.5854
▁অ্যাসোসিয়েশন	-10.5857
▁স্টেট	-10.5868
▁অ্যাম্বুলেন্স	-10.5869
▁বাধ্যতামূলক	-10.5869
▁বচ্চন	-10.5869
newsbd	-10.5872
▁আটকা	-10.5872
▁আবদু	-10.5874
▁৯৮	-10.5876
▁বর্ণ	-10.5876
▁বিবৃতি	-10.5878
▁শিশুটিকে	-10.5878
▁রাজনীতির	-10.5879
হাজার	-10.5881
▁শুনানির	-10.5881
সিলেট	-10.5881
▁প্রভাষক	-10.5884
▁ল্যাপটপ	-10.5884
▁সার্টিফিকেট	-10.5884
▁তৎকালীন	-10.5884
po	-10.5887
▁শিক্ষার্থীকে	-10.5887
ব্রি	-10.5888
▁স্বর্ণের	-10.5892
▁ঐক্যবদ্ধ	-10.5894
▁সহজে	-10.5895
▁সেক্রেটারি	-10.5898
্যান্ট	-10.5899
▁পৃথিবীতে	-10.5903
▁ম্যাক	-10.5903
▁প্রতিদিনের	-10.5906
▁মোদির	-10.5911
▁অপরিবর্তিত	-10.5913
পিপি	-10.5913
▁কার্তিক	-10.5913
▁কালা	-10.5915
শিপ	-10.592
▁পাঠায়	-10.5924
▁উঠবে	-10.5925
ানু	-10.5929
▁প্রকাশিতঃ	-10.5935
▁বাতিলের	-10.5937
▁বেড়াতে	-10.594
▁অর্থবছরের	-10.5942
▁নেমেছে	-10.5943
▁লজ্জা	-10.5944
▁মন্দিরে	-10.5954
▁ইঞ্চি	-10.5958
কান্ত	-10.5959
▁মেধাবী	-10.5959
▁প্রতিদ্বন্দ্বী	-10.596
▁শামসুল	-10.596
াচ্ছে	-10.5963
।[	-10.5964
▁কক্সবাজারে	-10.5966
▁কর্মসূচিতে	-10.5966
পাড়	-10.5967
▁আত্মহত্যার	-10.5968
শিল্পী	-10.5972
▁পিকআপ	-10.5973
▁গন	-10.5977
▁২০১০	-10.5979
▁জনপ্রশাসন	-10.5985
▁স্যার	-10.5985
▁মুসলমানদের	-10.5986
▁সপ্তম	-10.5986
▁You	-10.5988
▁তোলে	-10.5988
▁ডেভিড	-10.5988
▁তাসকিন	-10.5988
▁মেরামত	-10.5989
▁ক্যাম্পেইন	-10.599
নুর	-10.599
▁কালি	-10.599
▁নিউইয়র্ক	-10.5991
▁ব্যান্ড	-10.5994
▁৯টায়	-10.5996
উই	-10.5996
পশ্চিম	-10.5998
▁অভিনয়ের	-10.5998
▁মূর্তি	-10.6003
▁আসুন	-10.6005
▁সেমিফাইনালে	-10.6016
▁ট্যাবলেট	-10.6018
▁দুর্বল	-10.602
man	-10.6021
▁বাস্তবায়নের	-10.6024
▁বাসভবনে	-10.6028
tor	-10.603
▁ডলারের	-10.6033
▁রিয়া	-10.6037
দ্	-10.6039
▁একেবারেই	-10.6039
▁ফ্যান	-10.6044
▁দ্রব্য	-10.6049
▁চেয়ার	-10.6052
▁শুন	-10.6056
▁মনের	-10.6063
▁বিরোধিতা	-10.6064
▁অনশন	-10.6067
▁হাতের	-10.6076
▁ঢাবি	-10.6076
▁সাজ্জাদ	-10.6079
িউ	-10.608
ফোর	-10.6081
▁পারছি	-10.6083
▁আকতার	-10.6083
▁বৃত্তি	-10.6084
যোগে	-10.6085
▁হয়রানি	-10.6085
ka	-10.6087
ত্ম	-10.6088
▁নিয়েছি	-10.6091
▁স্প্যান	-10.6092
▁মোবাইলে	-10.6093
▁প্রজেক্ট	-10.6094
▁কাজটি	-10.6099
লান	-10.6099
▁ডাকাতি	-10.61
▁মৌসুমী	-10.6101
▁বদল	-10.6101
▁২০০৯	-10.6103
▁থাকছেন	-10.6103
▁বিদ্রোহী	-10.6104
▁গাজা	-10.6106
▁এএসআই	-10.6106
সঙ্গ	-10.6107
▁নবজাতক	-10.6109
▁রীতিমতো	-10.6111
▁জালে	-10.6111
▁জটিলতা	-10.6114
▁কারাগার	-10.6115
বাড়িয়া	-10.6116
▁আজিজুল	-10.6117
▁দাবীতে	-10.6118
▁নকল	-10.6121
▁বর্ণনা	-10.6121
▁কুরআন	-10.6124
▁পারভীন	-10.6124
▁g	-10.6125
▁শতভাগ	-10.6126
▁কান্তি	-10.6126
ন্ডে	-10.6127
▁প্রতারণা	-10.613
▁ফেলার	-10.6131
▁সবশেষ	-10.6131
কান্দা	-10.6135
bdnews	-10.6138
▁আশ	-10.6138
▁বাশার	-10.6138
▁সাদেক	-10.6142
▁সহসভাপতি	-10.6144
স্থল	-10.6149
▁আতঙ্কে	-10.6151
▁দিলীপ	-10.6155
▁Lead	-10.6155
▁অর্থায়নে	-10.6155
▁মারুফ	-10.6155
ষে	-10.6156
▁এড়িয়ে	-10.6159
▁তাৎক্ষণিক	-10.6164
▁যুক্তরাজ্যের	-10.6165
▁কফি	-10.6165
▁ক্ষেত	-10.6173
▁টো	-10.6173
শিক্ষা	-10.6177
▁শ্বাসকষ্ট	-10.6185
▁তাণ্ডব	-10.6186
▁পূর্ববর্তী	-10.6187
▁ইসলামকে	-10.6188
▁বাদল	-10.619
▁কমপ্লেক্স	-10.6191
▁ক্ষয়ক্ষতি	-10.6191
▁সংবিধান	-10.6193
লক	-10.6193
▁বেকার	-10.62
▁কেননা	-10.6203
▁১২টায়	-10.6205
▁হিরো	-10.6208
ঝু	-10.6209
▁উল্টে	-10.6216
▁সেলসিয়াস	-10.6216
▁প্রবণতা	-10.6216
▁On	-10.6218
▁রাখবেন	-10.6219
▁বেলাল	-10.622
ঞ্জি	-10.6225
▁স্বার্থ	-10.6227
চালক	-10.6228
ষ্টি	-10.6228
▁খেলোয়াড়দের	-10.6231
▁রিকশা	-10.6231
▁অস্ত্রোপচার	-10.6232
▁শওকত	-10.6232
▁কোপা	-10.6232
▁মহারাষ্ট্র	-10.6232
▁চল	-10.6233
▁প্রবাসীদের	-10.6234
▁সুনামগঞ্জের	-10.6236
▁ধর্মের	-10.624
pe	-10.6245
▁শাসক	-10.6247
▁থাকুন	-10.6247
স্তি	-10.6249
কন্যা	-10.6251
▁পায়ের	-10.6251
▁মতিন	-10.6252
সিন	-10.6256
▁ছবিটির	-10.6264
▁টাওয়ার	-10.6265
barta	-10.6266
৯০	-10.6266
▁টুর্নামেন্টে	-10.6271
খবর	-10.6276
োপ	-10.6277
▁বন্দুক	-10.6277
▁সঙ্কট	-10.6278
▁ওয়াই	-10.6281
▁ইন্ডিয়ান	-10.6281
▁ঘাটে	-10.6282
ن	-10.6283
▁ধারালো	-10.6286
্ণ	-10.629
বর্ষ	-10.6292
▁নিক্ষেপ	-10.6296
▁গ্রিন	-10.6297
▁পুর	-10.6299
▁ভিসি	-10.63
▁টেলিযোগাযোগ	-10.6309
▁ত্রুটি	-10.6309
▁এসেছিলেন	-10.631
▁ছড়া	-10.6313
J	-10.6315
▁শাড়ি	-10.6316
▁কমপ্লেক্সের	-10.6318
রামপুর	-10.6323
▁বন্ধুদের	-10.6323
টস	-10.6324
▁ভট্টাচার্য	-10.6324
▁মোনাজাত	-10.6324
▁টেকনোলজি	-10.6326
▁আক	-10.6336
▁অগ্নিকাণ্ডের	-10.6342
▁মাসিক	-10.6342
▁৯৯	-10.6344
▁১৯৭১	-10.6344
▁কিম	-10.6346
▁পাঠাতে	-10.6347
▁তিনদিন	-10.6348
▁ঘাটতি	-10.6348
ik	-10.635
▁রিয়াজ	-10.6351
▁পর্বের	-10.6352
▁বিস্ফোরণে	-10.6354
▁Limited	-10.6355
▁ফরাসি	-10.6356
▁পথচারী	-10.6356
টাও	-10.6356
▁ইরাক	-10.6356
▁বসু	-10.6357
PN	-10.6358
▁নাটোরের	-10.6361
ment	-10.6363
▁বাড়া	-10.6364
▁ভালোভাবে	-10.6369
▁নিয়ন্ত্রক	-10.6371
▁পুরাতন	-10.6371
▁আফ	-10.6372
▁অন্ধকার	-10.6373
▁কেয়ার	-10.6375
জ্জা	-10.6381
▁সাহস	-10.6381
▁বসিয়ে	-10.6382
▁যেকোন	-10.6382
▁একাধিকবার	-10.6382
▁পড়ল	-10.6383
▁এক্সচেঞ্জ	-10.6386
▁সমবেদনা	-10.6387
ন্থ	-10.6387
এনএ	-10.6388
▁ইউনি	-10.6389
▁ট্রেনে	-10.6397
▁নির্দেশনায়	-10.6397
▁অনুষ্ঠানটি	-10.64
▁মিলেছে	-10.6401
▁পিস্তল	-10.6402
bidesh	-10.6402
▁দালাল	-10.6404
▁সোনালী	-10.6405
সেল	-10.6406
▁জনসংযোগ	-10.6407
ভোগ	-10.6412
▁তবুও	-10.6417
=	-10.6418
▁তানভীর	-10.6418
নিজ	-10.6427
লন	-10.6428
চ্ছেন	-10.6428
উট	-10.6429
▁রোধ	-10.6433
▁মায়া	-10.6434
▁ভাংচুর	-10.6434
▁আশুলিয়া	-10.6434
▁re	-10.6437
রেজ	-10.6437
চ্ছা	-10.6439
▁ভাঙ্গা	-10.6439
▁পাত্র	-10.644
▁আইসিটি	-10.644
▁উচ্চতা	-10.6446
্না	-10.6447
▁প্রত্যাহারের	-10.6448
▁গবেষকরা	-10.6448
▁ঘু	-10.6448
▁কোচিং	-10.6448
▁বিশ্রাম	-10.6449
▁নিরপেক্ষ	-10.6449
ীম	-10.6457
▁টাইগাররা	-10.6459
▁গরুর	-10.646
▁চারা	-10.6463
▁অনূর্ধ্ব	-10.6465
▁যথাক্রমে	-10.6465
▁স্বা	-10.6467
▁জিজ্ঞাসাবাদে	-10.6473
▁উৎ	-10.648
▁আবেগ	-10.6482
▁প্রায়ই	-10.6482
▁পোর্টাল	-10.6484
▁আঘাতে	-10.6485
ফান	-10.6486
▁কাঁদ	-10.6487
▁বাতাস	-10.6487
ফর	-10.6491
Oneindia	-10.6497
▁উত্তীর্ণ	-10.6497
এসএস	-10.6498
▁জনতার	-10.6498
▁উত্তরবঙ্গ	-10.6499
▁কোম্পানী	-10.6502
িনী	-10.6504
▁চুলের	-10.6504
বাজারে	-10.6504
▁বয়সের	-10.6505
স্ট্র	-10.6508
ভাব	-10.651
▁কাণ্ড	-10.6512
▁পেটে	-10.6517
▁রূপগঞ্জ	-10.6517
▁কোম্পানিটির	-10.6519
শেষ	-10.6526
▁গ্রন্থ	-10.6527
▁দুটো	-10.6528
▁চিত্রনায়িকা	-10.6528
▁বৈদ্যুতিক	-10.6528
▁আখতার	-10.653
▁বেশকিছু	-10.6531
▁দেশব্যাপী	-10.6531
▁জুয়া	-10.6533
ত্রি	-10.6533
▁বাড়ার	-10.6535
▁নগরের	-10.6535
▁Pro	-10.6535
▁সন্তানদের	-10.6538
ড্র	-10.654
▁মাছের	-10.6541
▁আসরের	-10.6542
W	-10.6543
▁উপেক্ষা	-10.6544
▁গণমাধ্যমের	-10.6545
▁প্রদক্ষিণ	-10.6546
ব্রা	-10.6551
▁মূল্যে	-10.6553
▁খাঁ	-10.6557
▁জিম্বাবুয়ে	-10.6558
▁অমিতাভ	-10.656
▁স্পর্শ	-10.6561
ব্যা	-10.6562
খি	-10.6572
পিএস	-10.6574
▁আপত্তি	-10.6576
▁বর্ণাঢ্য	-10.6576
▁অর্পণ	-10.6576
▁আকরাম	-10.6577
▁ক্যাচ	-10.6581
▁৩টার	-10.6582
▁ছাড়িয়েছে	-10.6588
▁ফুটেজ	-10.6589
▁প্রজন্ম	-10.659
▁জল্পনা	-10.6592
▁ইয়েমেন	-10.6592
▁BanglaNews	-10.6595
▁জার্মান	-10.6597
▁ডিএমপি	-10.66
▁ব্যাংকে	-10.6606
▁তফসিল	-10.6608
▁কঙ্গনা	-10.6608
▁জায়েদ	-10.6608
▁অভিযানের	-10.6609
▁রযালী	-10.6609
▁কথাও	-10.6611
▁দেয়ায়	-10.6611
দহ	-10.6612
▁লন্ডনে	-10.6612
▁পীর	-10.6613
▁ইন্ডিজের	-10.6619
▁সন্ধ্যার	-10.662
▁আগাম	-10.6622
▁এএফপি	-10.6624
▁স্টাইল	-10.6627
▁শের	-10.6627
▁ঠাকুরগাঁওয়ে	-10.6629
হাই	-10.6629
▁যুদ্ধের	-10.663
▁সমালোচনার	-10.6632
▁শান্তিপূর্ণ	-10.6634
▁শোকের	-10.6634
বিস্তারিত	-10.664
উপজেলা	-10.664
▁সাং	-10.6641
▁সুন্দরী	-10.6642
▁ইঞ্জিনিয়ারিং	-10.6643
▁বন্যায়	-10.6643
▁অলি	-10.6644
▁ব্যবস্থাপক	-10.6644
▁মিলবে	-10.6647
▁যাত্রীরা	-10.6647
ূল	-10.6653
▁বিজিবির	-10.6656
▁বসুন্ধরা	-10.6656
▁বিপাকে	-10.6656
▁মুগ্ধ	-10.6657
▁মশা	-10.6659
▁ধুয়ে	-10.6659
▁যশোরে	-10.666
মিত	-10.666
জুর	-10.6662
▁লিটার	-10.6663
▁কাউন্সিলের	-10.6668
▁চেন্নাই	-10.667
▁ধার	-10.6671
▁স্যাটেলাইট	-10.6672
▁বইমেলা	-10.6673
▁দাঁত	-10.6673
সিয়া	-10.6676
কোট	-10.6678
▁শ্রীলংকা	-10.6688
▁উনি	-10.6689
▁থানাধীন	-10.6689
▁অবসান	-10.6691
▁গিয়েছেন	-10.6692
net	-10.6693
োস	-10.6698
▁প্রজাতির	-10.6701
বন্দ	-10.6701
মারী	-10.6701
▁করো	-10.6708
▁শক্ত	-10.6709
▁k	-10.6711
▁ডাকা	-10.6713
ঙ্গু	-10.6715
মালা	-10.672
▁শ্রাবন্তী	-10.6721
▁খালেক	-10.6721
▁থাইল্যান্ড	-10.6721
▁সারাদেশের	-10.6723
▁প্রবেশের	-10.6724
▁Mo	-10.6733
▁পরিচিতি	-10.6734
▁যেটা	-10.6745
▁দাঁড়াল	-10.6751
▁পদের	-10.6757
▁চাপায়	-10.6758
▁কপি	-10.6758
▁ধরন	-10.6762
▁Comment	-10.6764
▁অসম	-10.6766
▁লাখের	-10.6767
▁লাইট	-10.6767
▁কারখানার	-10.6769
▁Premi	-10.6769
▁আধিকারিক	-10.6769
▁ফতুল্লা	-10.6769
▁স্যামসাং	-10.6769
vi	-10.6769
▁সহায়ক	-10.6769
▁দ্বি	-10.677
▁হতাশ	-10.6774
▁হাওর	-10.6775
Deshe	-10.6775
▁নামিয়ে	-10.6779
ব্দ	-10.6779
▁ছাড়ার	-10.6781
▁বালি	-10.6786
▁প্রবৃদ্ধি	-10.6787
কাত	-10.6787
▁শিশুটি	-10.6788
আইসি	-10.6792
▁মৃত্যুবার্ষিকী	-10.6794
▁মামা	-10.6796
▁যুক্তি	-10.6797
▁নিক	-10.6802
▁যুবদলের	-10.6804
িক্স	-10.6805
▁গজ	-10.6814
▁ফুলবাড়ী	-10.6816
▁প্রদেশে	-10.682
▁বিপরীত	-10.6825
আল	-10.6828
▁জিততে	-10.6835
▁স্বজনদের	-10.6836
সন্তান	-10.6836
▁ডিস	-10.6841
▁অভিবাসী	-10.6841
▁বরগুনা	-10.6842
মতি	-10.6844
▁মাহমুদুল	-10.6846
▁মুম্বই	-10.6849
রুপ	-10.6849
▁Syndicate	-10.6851
▁কাপ্তাই	-10.6851
▁ফাতেমা	-10.6851
▁নাশকতা	-10.6851
▁ওইদিন	-10.6851
কোভিড	-10.6852
▁জন্মগ্রহণ	-10.6852
▁মনো	-10.6855
▁উঠ	-10.6855
▁দূষণ	-10.686
▁৩টায়	-10.686
দলীয়	-10.686
▁আইসিসির	-10.6864
▁হট	-10.6865
▁লোকজনের	-10.6867
▁ভবিষ্যৎ	-10.6867
▁বাঁচতে	-10.6867
▁বিদেশী	-10.6872
▁পাড়ার	-10.6876
▁হতাহতের	-10.6879
▁রাফি	-10.688
▁বাসটি	-10.688
ক্রান্ত	-10.6881
কায়	-10.6881
▁রুপ	-10.6882
▁বোনের	-10.6883
▁Next	-10.6883
▁প্রণয়ন	-10.6884
▁পূর্বাভাস	-10.6884
▁সামাদ	-10.6886
▁একসময়	-10.6889
▁২০০৮	-10.689
তিনি	-10.6891
চন্দ্র	-10.6893
বিসি	-10.6895
▁অ্যাটর্নি	-10.69
up	-10.6902
▁জাম	-10.6903
মিল	-10.6904
▁প্রান্তে	-10.6907
▁গম	-10.6907
মির	-10.6909
▁মাঝ	-10.691
ড়ানো	-10.6911
ন্দি	-10.6913
▁মল	-10.6915
▁গেইল	-10.6918
য়েড	-10.6918
▁পুজো	-10.6918
এমপি	-10.6921
▁বৃষ্টিতে	-10.6923
▁পল	-10.6926
▁শ্বশুর	-10.6929
▁এসেছিল	-10.6929
▁সেটাই	-10.693
▁লাইনে	-10.6931
▁শিকদার	-10.6933
▁ইরফান	-10.6933
▁নকশা	-10.6933
▁ক্ষতিগ্রস্থ	-10.6933
▁প্রকাশনা	-10.6933
▁কমিটিতে	-10.6934
▁শাওন	-10.6934
▁মিলাদ	-10.6935
▁ক্রিকেটাররা	-10.6935
কির	-10.6938
▁দিলেও	-10.6946
▁দুস্থ	-10.6947
▁স্টেশনের	-10.695
▁স্মারক	-10.695
▁দাঁড়াতে	-10.695
▁ডিআইজি	-10.6952
ওয়ান	-10.6953
▁জনসংখ্যা	-10.6955
জ্ঞ	-10.6959
▁ভিপি	-10.696
▁খেলেন	-10.6963
দীপ	-10.6966
শ্চ	-10.6969
▁ডিসেম্বরে	-10.697
ia	-10.6972
▁৮১	-10.6972
▁এলাকাবাসীর	-10.6975
▁তেলের	-10.6977
াংশ	-10.698
কলা	-10.6982
ৃত	-10.6988
▁কমলগঞ্জ	-10.6993
কেন্দ্রে	-10.6995
▁ফ্র	-10.6996
ve	-10.6998
▁গেমস	-10.6999
▁লিভারপুল	-10.6999
▁মেসেজ	-10.7
▁প্যাকেজ	-10.7
▁নর	-10.7002
▁মৃত্যুকালে	-10.7002
▁তথ্যপ্রযুক্তি	-10.7003
রুম	-10.7004
বেদ	-10.7006
মনি	-10.7011
▁বারের	-10.7011
▁কারাদন্ড	-10.7016
মেয়ে	-10.7017
ব্ল	-10.702
▁বিট	-10.7021
▁মৃ	-10.7023
যু	-10.7023
▁ওয়াহিদ	-10.7028
▁হিট	-10.7029
▁কম্বল	-10.7033
▁ক্ষতিপূরণ	-10.7033
▁CBN	-10.7033
▁দুজনকে	-10.7041
▁প্রেমিকা	-10.7044
িমা	-10.7049
▁অমর	-10.7049
▁সাপ্তাহিক	-10.7049
▁টাই	-10.705
▁ক্ষতির	-10.7052
▁আকর্ষণীয়	-10.7052
▁জটিল	-10.7052
য়েন	-10.7052
▁ইউক্রেন	-10.7054
ভাল	-10.7055
▁অন্যায়	-10.7059
▁বুয়েট	-10.706
▁রাষ্ট্রপতির	-10.7065
▁পেজে	-10.7066
▁মেইল	-10.7067
নীর	-10.7076
▁ক্রিস	-10.7079
▁সিরিয়ার	-10.7082
সিসি	-10.7082
▁দেখছেন	-10.7084
▁প্যাকেট	-10.7084
▁Ma	-10.7086
▁ধু	-10.7087
▁শাক	-10.7092
▁ক্যাটরিনা	-10.7095
▁আমেরিকান	-10.7095
▁ছিনতাইকারী	-10.7095
িয়ায়	-10.7095
ম্ভ	-10.7099
▁মাইক্রো	-10.7099
▁আইয়ুব	-10.71
▁দগ্ধ	-10.71
▁স্প্যানিশ	-10.71
▁আলোকিত	-10.7102
▁রেখেই	-10.7109
হেল	-10.7109
▁মোকাবেলা	-10.711
েবল	-10.7112
▁খুলনায়	-10.7113
মারি	-10.7115
▁নেতাকে	-10.7116
▁প্রতিপাদ্য	-10.7116
▁অনুভব	-10.7116
▁Report	-10.7117
▁তলিয়ে	-10.7117
▁বিস্ফোরণের	-10.7117
▁শাহবাগ	-10.712
▁পৌঁছ	-10.7125
▁৮টায়	-10.7127
▁আবহাওয়ার	-10.7128
র্মি	-10.7131
▁সমাপ্ত	-10.7132
▁সোহরাওয়ার্দী	-10.7133
▁মূল্যায়ন	-10.7136
▁সূত্রপাত	-10.7137
▁এসেছি	-10.714
ালি	-10.714
▁নদ	-10.7144
▁কৃষকরা	-10.7145
▁ভ্যা	-10.7148
▁নাটকের	-10.7149
▁লাগছে	-10.715
▁শিথিল	-10.715
প্যা	-10.7155
▁দাঁড়	-10.7157
ছো	-10.7157
ন্দু	-10.7164
▁স্বদেশ	-10.7165
▁আশেপাশে	-10.7167
▁সিলিন্ডার	-10.7167
▁ঝামেলা	-10.7167
▁মনসুর	-10.7169
▁কবলে	-10.7169
▁আড্ডা	-10.7169
▁পাঠা	-10.717
কণ্ঠ	-10.7171
্টি	-10.7174
▁ফোরামের	-10.7174
▁বেগমের	-10.7176
▁ছক্কা	-10.7178
▁ফ্লাইটে	-10.7182
ঙ্গি	-10.7183
▁ফেইসবুক	-10.7184
▁এজেন্সি	-10.7184
সাগর	-10.7193
om	-10.7195
▁সম্মতি	-10.7197
de	-10.7197
▁বিরত	-10.7198
ন্ত্র	-10.7199
▁ফাঁকা	-10.7201
▁মজিদ	-10.7204
▁ব্যাক	-10.7204
▁ধসে	-10.7206
▁মেয়েরা	-10.721
▁বক্তৃতা	-10.7211
▁ট্রেড	-10.7212
্ড	-10.7213
হী	-10.7215
প্রতিদ্বন্দ্বিতা	-10.7218
▁পদার্থ	-10.7219
ন্ধা	-10.722
ist	-10.7224
ছিলো	-10.7224
▁ক্যারিয়ারের	-10.7227
▁চেতনা	-10.7229
▁উঠেছেন	-10.723
▁গানটির	-10.7234
▁সহযোগিতার	-10.7234
▁আত্মসমর্পণ	-10.7235
▁মুমিনুল	-10.7236
im	-10.7237
▁আইপিএলে	-10.7243
▁দখলে	-10.7244
▁bd	-10.7245
▁ব্যবধান	-10.7247
▁রুট	-10.7248
▁খায়রুল	-10.7251
▁মোতাবেক	-10.7252
▁রেস্টুরেন্ট	-10.7252
▁বরিশালের	-10.7253
▁তলায়	-10.7255
▁ধনী	-10.7256
▁৯৭	-10.7256
▁সেক্ষেত্রে	-10.7257
▁নেশা	-10.7258
▁মন্ত্রণালয়ে	-10.7259
▁ছাড়তে	-10.7264
বেল	-10.7267
▁ইতালির	-10.7267
▁সর	-10.7267
▁পুন	-10.7269
▁৮৯	-10.7269
▁গ্রামীণ	-10.7269
▁কুদ্দুস	-10.7269
▁সাহেদ	-10.727
ম্বা	-10.7271
▁শ্যাম	-10.7271
▁অন্যান্যের	-10.7271
▁আগমন	-10.7272
হাত	-10.7272
ag	-10.7274
▁বন্যার	-10.7277
্যান্ড	-10.7277
▁আজও	-10.7279
▁সংঘাত	-10.7279
▁কম্প	-10.7281
▁কমান্ড	-10.7282
ity	-10.7283
▁চেয়ারম্যানের	-10.7284
▁অস্বাভাবিক	-10.7286
▁বৈদেশিক	-10.7286
▁আদিবাসী	-10.7286
*	-10.7291
▁কোড	-10.7295
▁৮৭	-10.7296
▁হিম	-10.7296
কোর	-10.73
▁ফিফা	-10.7302
▁দিচ্ছি	-10.7307
▁Sa	-10.7309
▁are	-10.7309
▁বর্ষণ	-10.7309
▁সৃষ্ট	-10.7312
▁ভোটারদের	-10.7313
ন্টা	-10.7313
▁জাগো	-10.7315
▁কোয়ার্টার	-10.732
▁জাতীয়তাবাদী	-10.732
▁চোপড়া	-10.732
তল	-10.7323
▁ভারতকে	-10.7325
ry	-10.7332
জিন	-10.7332
কিন	-10.7337
▁সাগরে	-10.7337
▁৮২	-10.7338
go	-10.7339
▁সার্চ	-10.734
▁ক্ষতিকর	-10.7342
▁৯টি	-10.7348
▁বাড়ে	-10.7349
▁মর্মান্তিক	-10.7355
▁রিজার্ভ	-10.7355
▁রেজিস্ট্রার	-10.7355
▁হলিউড	-10.7355
বুর	-10.736
▁জানালে	-10.7361
ne	-10.7369
▁কখন	-10.7371
▁আত	-10.7371
▁অভিনব	-10.7372
▁তুহিন	-10.7372
▁সন	-10.7377
▁হতেই	-10.7381
▁গড়ার	-10.7383
ওয়ালা	-10.7384
▁গর্ভ	-10.739
▁ক্যাডার	-10.7391
▁ব্যবহারকারীদের	-10.7395
ang	-10.7395
▁স্বাগতিক	-10.7398
▁রিপোর্টে	-10.7399
ST	-10.7401
▁ধৃত	-10.7407
▁মিন্টু	-10.7408
ভেদ	-10.7409
▁উত্তম	-10.7413
য়েজ	-10.7414
▁লাশটি	-10.7414
▁আমান	-10.7416
▁মামুনুল	-10.7416
▁১২০	-10.742
থু	-10.742
▁ব্ল্যাক	-10.7423
▁ইয়াসমিন	-10.7424
▁অর্জুন	-10.7425
▁চ্যানেলে	-10.7428
▁কাটতে	-10.743
▁সাধন	-10.7431
▁আইপিএলের	-10.7432
▁সক্ষমতা	-10.7436
র্চ	-10.7439
▁১২টি	-10.7439
▁প্রীতি	-10.7442
▁পুরান	-10.7444
▁শ্র	-10.7444
▁শ্রেণী	-10.7446
▁নামবে	-10.745
▁ইনস্টাগ্রামে	-10.7451
কেট	-10.7451
খানেক	-10.7455
ক্টর	-10.7455
▁ইন্না	-10.7456
▁রক্তাক্ত	-10.7459
▁দাঁড়ায়	-10.746
▁পুতিন	-10.7461
▁ছাতক	-10.7463
▁জিবি	-10.7464
▁তোলেন	-10.7465
▁পুঁজিবাজারে	-10.747
▁জিপিএ	-10.7471
হিত	-10.7474
▁সৃষ্টির	-10.7474
▁জড়িতদের	-10.7476
▁ঠান্ডা	-10.7476
▁৮৪	-10.7478
▁৭৯	-10.748
▁নীলফামারী	-10.748
▁দিলো	-10.7482
▁৫টা	-10.7483
পুকুর	-10.7484
▁বিমানে	-10.7485
ইয়ে	-10.7485
▁কোর্টে	-10.7488
▁আইনমন্ত্রী	-10.749
▁উইকিপিডিয়া	-10.7493
▁সনাক্ত	-10.7493
▁আলাউদ্দিন	-10.7494
▁গিয়াস	-10.7494
▁কৌশলে	-10.7495
উজ	-10.7496
▁কোয়া	-10.7497
▁গ্রা	-10.7499
ঙ্গল	-10.7501
ারে	-10.7503
▁যৌথভাবে	-10.7508
▁বঙ্গোপসাগরে	-10.7509
েশ্বর	-10.7513
▁হাম	-10.7514
▁বসন্ত	-10.7514
▁৮টি	-10.7517
আপডেট	-10.7518
রচর	-10.7519
▁সঙ্গেই	-10.7524
▁মুল	-10.7524
▁আত্মার	-10.7524
▁সন্ত্রাসীরা	-10.7527
▁চলাচলের	-10.7527
▁থ্রি	-10.7528
^	-10.7528
▁একাদশে	-10.7529
▁তীরে	-10.753
▁সেলফি	-10.753
▁বিএম	-10.7533
▁এমনটা	-10.7535
▁খারিজ	-10.7536
▁জন্মদিনে	-10.7539
▁করলেই	-10.7543
হাটি	-10.7545
▁হান্নান	-10.7546
▁তুমুল	-10.7547
▁চলুন	-10.7547
▁আল্লাম	-10.7553
▁চার্জশিট	-10.7564
▁No	-10.7565
মেন	-10.7567
▁তাজ	-10.7567
▁পাহাড়ি	-10.757
বিএনপি	-10.7571
▁ব্রেকিং	-10.7571
বিভাগ	-10.7574
▁৮৬	-10.758
▁নির্মান	-10.758
দলের	-10.758
▁চমৎকার	-10.7581
▁মেক্সিকো	-10.7581
▁মন্ত্রীর	-10.7583
স্থানে	-10.7585
ver	-10.7587
▁একাডেমির	-10.7587
ধার	-10.759
▁ফেডারেশন	-10.7592
▁ভালোবাসার	-10.7598
▁বৃহত্তম	-10.7599
▁যুগান্তর	-10.7599
▁খেয়াল	-10.76
▁বক্তা	-10.76
▁পারিনি	-10.7604
▁মৌসুম	-10.7604
▁পিয়া	-10.7605
▁পর্যটকদের	-10.7606
▁ব্রিফিংয়ে	-10.7607
ক্ষী	-10.761
▁আসামিরা	-10.761
▁অগ্নি	-10.7612
▁বঙ্গ	-10.7614
▁বাস্তব	-10.7615
▁চাঞ্চল্য	-10.7615
▁চেকপোস্ট	-10.7616
▁পরিসরে	-10.7617
▁শিল্পকলা	-10.7618
ঙা	-10.7625
▁কুল	-10.7626
▁মিম	-10.7627
কাটা	-10.7628
▁নেপালের	-10.763
▁জরিপ	-10.763
েটর	-10.7635
▁শত্রু	-10.7638
▁প্রতিষ্ঠানগুলো	-10.7645
▁ঢেউ	-10.7649
▁আখাউড়া	-10.7652
▁গরীব	-10.7652
▁ঢুকতে	-10.7652
▁গণহত্যা	-10.7652
▁সাবধান	-10.7653
▁ফেলেন	-10.7654
▁সেমিনার	-10.7654
bangla	-10.7659
▁স্মরণে	-10.7662
▁ফিরছেন	-10.7669
▁আউয়াল	-10.767
▁অগ্রাধিকার	-10.767
বাবু	-10.7675
▁ইন্টার	-10.7676
▁অনি	-10.7678
ইউএনও	-10.7678
▁সংগঠনটির	-10.7681
▁এটিএম	-10.7682
▁রোম	-10.7685
সিএসই	-10.7687
▁বিস্ফোরক	-10.7687
▁ভৈরব	-10.7687
▁মস্তিষ্ক	-10.7687
▁বখাটে	-10.7687
▁মনোযোগ	-10.7688
৮টি	-10.7689
▁চাচা	-10.7692
▁শফিউল	-10.7693
▁তিনজনের	-10.7693
▁মিঠুন	-10.7697
▁বাসিন্দারা	-10.7701
বেশ	-10.7704
▁অভিজ্ঞ	-10.7704
▁মালয়েশিয়ায়	-10.7705
▁আন্তঃ	-10.7706
▁কল্যাণে	-10.7708
▁চাইতে	-10.7709
▁এসপি	-10.7714
দাহ	-10.7715
▁চাঁদা	-10.7721
▁Update	-10.7722
▁নিলামে	-10.7722
▁পরকীয়া	-10.7723
▁চ্যাম্পিয়নশিপ	-10.7724
▁ব্যবহারকারী	-10.7724
গ্ল	-10.7727
▁সুপারস্টার	-10.773
▁বাসভবন	-10.7731
ধ্য	-10.7732
▁দুর্গাপুর	-10.7734
▁মিছিলে	-10.7735
▁ফুড	-10.7737
▁আঙুল	-10.7741
▁ক্ষুব্ধ	-10.7741
▁কার্যদিবস	-10.7741
▁নবনির্বাচিত	-10.7741
▁ঠিকাদার	-10.7741
▁চালকের	-10.7743
▁সায়েন্স	-10.7743
▁ঝুঁকিপূর্ণ	-10.7743
▁অর্জনের	-10.7743
▁জড়ো	-10.7745
▁ডাকসু	-10.7746
▁ভক্তরা	-10.7746
▁এভাবেই	-10.7746
▁ট্রাইব্যুনাল	-10.7754
▁মুছে	-10.7756
▁সহকর্মী	-10.7756
▁ম্যানচেস্টার	-10.7759
▁স্বেচ্ছাসেবী	-10.7759
নিরীক্ষা	-10.7759
▁জব্বার	-10.7759
▁ইমরুল	-10.776
▁অর্ধ	-10.7762
্রা	-10.7764
ফোর্ড	-10.7767
▁সম্পৃক্ত	-10.7768
▁ফান্ড	-10.777
▁শুক	-10.7771
ড়ী	-10.7777
▁Last	-10.7777
▁আধিপত্য	-10.7777
▁সর্বস্তরে	-10.7777
কুমার	-10.7779
▁প্লা	-10.7781
▁কর্মকর্তাকে	-10.7782
লোক	-10.7783
res	-10.7786
▁ইনজুরি	-10.7791
▁তাক	-10.7794
▁কার্যনির্বাহী	-10.7795
▁পরিত্যক্ত	-10.7795
▁সুতরাং	-10.7795
▁মালদ্বীপ	-10.7795
▁এক্সচেঞ্জে	-10.7796
ট্ট	-10.7798
করণের	-10.7799
কর্ম	-10.7802
কুর	-10.7803
▁সাতজন	-10.7806
▁প্রান্ত	-10.7806
▁এসি	-10.7809
▁প্রতিদিনই	-10.781
▁শিক্ষিকা	-10.781
▁প্রত্যয়	-10.7813
▁জ্যাক	-10.7813
সিআই	-10.7814
▁ময়লা	-10.7814
▁সজীব	-10.7814
▁হাতি	-10.7821
▁খালাস	-10.7822
৫টি	-10.7826
্সের	-10.7829
▁বিগ	-10.7829
▁মাইক্রোসফট	-10.7831
▁ট্রে	-10.7831
▁লক্ষ্যমাত্রা	-10.7832
▁চাঁপাইনবাবগঞ্জে	-10.7834
▁হয়েছিলো	-10.7835
▁নও	-10.7837
ঙ্গী	-10.7839
▁হাড়	-10.7841
▁কিশোরীকে	-10.7844
▁সামি	-10.7845
▁চেপে	-10.7852
▁৭টার	-10.7852
গুণ	-10.7854
َّ	-10.7855
▁টিপু	-10.786
ers	-10.7861
কমার্স	-10.7863
িপ	-10.7864
▁ভো	-10.7864
▁ওঠেন	-10.7864
▁বউ	-10.7864
খ্যাত	-10.7865
▁স্টেডিয়াম	-10.7867
▁গভর্নর	-10.7867
▁লুক	-10.7869
▁মোটা	-10.7871
▁প্রধানমন্ত্রীকে	-10.7875
্যাট	-10.7877
▁শ্যামল	-10.7878
pur	-10.7878
▁তিনজনকে	-10.7881
তাম	-10.7884
▁ঝগড়া	-10.7886
▁রোবট	-10.7886
▁অক্ষয়	-10.789
▁জুতা	-10.7892
▁ব্যবস্থাপনায়	-10.7893
▁থাকতেন	-10.7893
▁নিষেধ	-10.7896
▁ব্রি	-10.7897
▁পরিমান	-10.7899
স্টো	-10.7901
▁ফার	-10.7901
শৃঙ্খলা	-10.7901
দশ	-10.7902
▁পুনর্	-10.7903
▁ঘুরতে	-10.7904
▁সমর্থকরা	-10.7904
▁গ্রে	-10.7909
৭১	-10.7909
▁১ম	-10.791
▁জিম্বাবুয়ের	-10.7914
প্রেম	-10.792
▁মুসলমান	-10.792
▁মালয়েশিয়ার	-10.7922
ক্রিয়া	-10.7922
▁টেকনাফে	-10.7925
▁সুখবর	-10.7927
▁রাখাইন	-10.7929
▁ব্যাপী	-10.793
▁দুদিন	-10.793
▁অপরাধী	-10.7931
▁জিতেছে	-10.7932
▁সূচি	-10.7935
▁সাতটি	-10.7938
▁অঙ্গীকার	-10.794
▁সালাউদ্দিন	-10.794
▁অগাস্ট	-10.794
▁বাবলু	-10.794
▁অভ্যাস	-10.7941
▁রাজিউন	-10.7941
ায়িত	-10.7945
▁পাড়ে	-10.7947
ক্রো	-10.7957
▁মিনারে	-10.7957
▁বৃহত্তর	-10.7958
▁শতক	-10.796
▁মেট্রিক	-10.7963
▁চড়া	-10.7965
▁সমাজে	-10.7967
▁রোল	-10.7971
all	-10.7974
▁দ্বিগুণ	-10.7977
চ্চ	-10.7977
▁ঘটছে	-10.7978
▁ভোলার	-10.7978
▁প্রদেশ	-10.7982
চালিত	-10.7988
▁আলা	-10.7989
য়ারা	-10.799
▁আয়ারল্যান্ড	-10.7995
▁ইজতেমা	-10.7995
ঞ্জা	-10.7999
▁একেএম	-10.8001
বঙ্গবন্ধু	-10.8006
ধে	-10.8008
▁মহিলার	-10.8011
▁অবকাঠামো	-10.8013
▁ডেভেলপমেন্ট	-10.8013
▁তত্ত্বাবধানে	-10.8013
▁বৈশিষ্ট্য	-10.8013
▁উপন্যাস	-10.8013
▁প্রতারক	-10.8013
▁চেহারা	-10.8014
▁কয়	-10.8014
▁চুক্তিতে	-10.8014
▁মেলে	-10.8019
▁বাড়ায়	-10.8023
▁রায়ে	-10.8024
Bangla	-10.8025
▁জঙ্গিবাদ	-10.8028
▁ভিকটিম	-10.8032
▁রংপুরের	-10.8034
▁অজি	-10.8034
ষ্ক	-10.8037
▁ক্লিনিক	-10.8038
▁ভাত	-10.8039
▁ইন্ডাস্ট্রি	-10.8041
ni	-10.8043
▁শুটিংয়ে	-10.8044
▁মহিলাদের	-10.8045
কলেজ	-10.8046
▁জীব	-10.8047
স্টিক	-10.8048
▁লক্ষে	-10.8049
▁মুহম্মদ	-10.805
▁শীঘ্রই	-10.805
▁রক্ষার	-10.8052
▁l	-10.8053
▁সেন্টারের	-10.8053
▁নই	-10.8055
▁t	-10.806
▁দশক	-10.806
▁আমিরাতের	-10.8066
▁মৌলিক	-10.8069
▁সালেহ	-10.807
▁বস্তু	-10.8071
৩টি	-10.8073
মণি	-10.8081
কিশোর	-10.8081
▁খাঁন	-10.8083
াঞ্চল	-10.8087
▁অন্ত	-10.8087
ci	-10.8089
▁দেশগুলো	-10.8091
▁দ্বিতীয়বার	-10.8093
▁দিবে	-10.8094
▁ভ্যাট	-10.8095
▁বিজ্ঞানী	-10.8098
▁অ্যান্ড্রয়েড	-10.8106
▁ভীষণ	-10.8106
▁সিইও	-10.8107
mail	-10.8107
ঁত	-10.8108
▁সম্ভবত	-10.8108
▁হাফিজুর	-10.8111
াইন	-10.8113
▁কানাডা	-10.8114
▁আফগানিস্তানে	-10.8119
▁আনোয়ারুল	-10.8122
▁জার্মানি	-10.8123
▁নেতিবাচক	-10.8124
▁ফরোয়ার্ড	-10.8124
▁প্লাস	-10.8126
▁খানকে	-10.8134
ঁট	-10.8139
▁মিমি	-10.8139
▁কিট	-10.814
▁পরিদর্শনে	-10.8141
▁৯২	-10.8142
▁উদাহরণ	-10.8143
▁ব্যক্তিবর্গ	-10.8143
um	-10.8144
▁অবসরপ্রাপ্ত	-10.8144
▁রাজিব	-10.8146
৭৫	-10.8147
V	-10.815
▁আমিরাত	-10.8153
সিএ	-10.8155
▁ইসরাইলের	-10.8158
▁পারবো	-10.8158
র্ধ	-10.816
স্তু	-10.816
▁রবীন্দ্র	-10.8161
▁কূটনৈতিক	-10.8162
▁কর্মকান্ড	-10.8162
▁আতাউর	-10.8162
▁তাৎক্ষণিকভাবে	-10.8169
pl	-10.817
▁মাহবুবুর	-10.817
ন্দর	-10.817
▁দেখবেন	-10.8172
▁চেয়েছিলেন	-10.8175
▁বর্জ্য	-10.818
▁উত্তাল	-10.8181
▁গৃহীত	-10.8181
▁রাজনীতিবিদ	-10.8183
▁উপায়ে	-10.8183
জেলা	-10.8183
▁উত্তরাঞ্চল	-10.8184
▁মাঝি	-10.8184
▁বৈশাখী	-10.8186
▁হাসিনাকে	-10.8191
▁মুজিববর্ষ	-10.82
▁তুলেছে	-10.8201
▁লুকিয়ে	-10.8202
▁চেয়েও	-10.8203
▁পরিচয়পত্র	-10.8203
▁ব্যবসার	-10.8206
▁মাইল	-10.8208
▁৯১	-10.8209
▁দৌড়ে	-10.8213
এক্স	-10.8215
▁বইয়ের	-10.8217
▁অত্যাচার	-10.8218
▁গৌতম	-10.8218
▁সাপেক্ষে	-10.8218
▁কমানোর	-10.8218
▁সেন্সর	-10.8218
▁এরইমধ্যে	-10.8218
▁নবীগঞ্জ	-10.8221
▁যোগাযোগমাধ্যমে	-10.8226
ব্রত	-10.8229
চক	-10.8232
▁মজার	-10.8236
ডব্লিউ	-10.8237
▁সাংবাদিকতা	-10.8238
▁আনিসুল	-10.8239
[	-10.8241
▁সিন	-10.8244
▁নাগ	-10.8248
▁পিলার	-10.8248
▁পৌঁছায়	-10.825
উড	-10.8253
›	-10.8255
▁পজেটিভ	-10.8255
▁সতীর্থ	-10.8255
▁ডিভিশন	-10.8257
▁দেখেছি	-10.8257
▁দেননি	-10.8257
ডিএ	-10.8258
▁সাদ	-10.8258
▁রাখি	-10.8258
▁এবছর	-10.8263
▁ডো	-10.8267
▁এরশাদের	-10.8267
▁ছু	-10.8269
িংয়ে	-10.8269
বতী	-10.8274
▁ভাষণে	-10.8277
▁উপকূলে	-10.8282
▁ক্ষমতার	-10.8282
▁পেরেছি	-10.8284
্রো	-10.8286
▁একান্ত	-10.8286
▁প্রাচীন	-10.8287
▁কোহলির	-10.8288
▁ভোগান্তি	-10.8291
▁সালমানের	-10.8291
▁প্রচণ্ড	-10.8293
▁গড়তে	-10.8294
▁আশিক	-10.8294
▁সোহান	-10.8296
▁রঞ্জন	-10.8297
ত্রা	-10.8299
▁সাফল্যের	-10.83
▁দীপ	-10.8301
টিসি	-10.8304
ক্য	-10.8305
▁হলের	-10.8305
▁দেয়াল	-10.8309
▁পাবনার	-10.831
▁যোদ্ধা	-10.8312
▁গুদাম	-10.8312
▁অন্যান্যদের	-10.8314
▁শরীয়তপুর	-10.8316
▁সন্ত্রাসীদের	-10.8316
▁Bangladeshi	-10.8318
▁জানার	-10.8319
▁পোর্ট	-10.8322
▁প্রতারণার	-10.8325
▁বাইরের	-10.8326
▁সম্মানিত	-10.8327
বিন	-10.8328
াগার	-10.8329
▁তুষার	-10.833
▁আজিম	-10.8331
▁অবহেলা	-10.8331
▁ফিটনেস	-10.8331
▁৯৬	-10.8332
ডিএসই	-10.8332
▁মিনার	-10.8337
▁রাগ	-10.8339
দিনে	-10.8342
▁রামু	-10.8345
▁অ্যালবাম	-10.835
▁পেয়েছিলেন	-10.8357
▁জ্বালা	-10.836
▁হারের	-10.8362
▁একযোগে	-10.8365
▁কথিত	-10.8369
▁ইসরায়েল	-10.8369
▁প্রকৃতি	-10.837
▁ছাগল	-10.837
▁প্রতিষ্ঠার	-10.8372
▁জাগ	-10.8373
হিদুল	-10.8374
▁বহুল	-10.8376
২টি	-10.8377
▁রোডে	-10.838
ছাত্রী	-10.838
▁শফি	-10.838
▁একাংশ	-10.838
▁চাঁদাবাজি	-10.8381
পক	-10.8381
▁কয়লা	-10.8383
▁দূতাবাসের	-10.8386
▁শ্রীমঙ্গল	-10.8388
▁রেজিস্ট্রেশন	-10.8388
▁সিন্ডিকেট	-10.8388
▁মহসিন	-10.8389
▁অডিট	-10.839
▁নাছির	-10.8392
শূন্য	-10.8403
▁জহির	-10.8404
াবে	-10.8405
▁আবহ	-10.8406
ভিন	-10.8407
▁সম্প্রীতি	-10.8407
▁বিবি	-10.8408
▁ইসরাইল	-10.8408
▁উপকূলীয়	-10.8409
প্ল	-10.8415
সীমা	-10.8415
▁সাজ	-10.8416
জাতি	-10.8416
▁সিল	-10.8418
▁ফাঁসি	-10.8419
মঙ্গলবার	-10.8423
▁হায়দরাবাদ	-10.8426
▁ব্যাঙ্ক	-10.8431
▁প্রতিমা	-10.8431
▁কানাডার	-10.8432
▁করণ	-10.8434
গম	-10.844
▁উদযাপিত	-10.8446
▁দ্বন্দ্ব	-10.8446
▁ব্রাহ্মণবাড়িয়ার	-10.8447
▁যাবৎ	-10.8447
▁হারায়	-10.8447
▁গায়ক	-10.8447
▁প্রাইভেটকার	-10.8449
▁স্পেস	-10.8452
▁দফতরের	-10.8452
জাল	-10.8456
▁মাহফিলে	-10.8459
▁মজুদ	-10.8465
▁মোহাম্মদপুর	-10.8467
▁দশকের	-10.8467
▁কাটাতে	-10.8467
সাম	-10.8467
▁ডিএসইতে	-10.8468
ঙ্গার	-10.8469
▁মাটির	-10.847
▁জনসন	-10.8477
টাকে	-10.848
▁পরপর	-10.8482
▁ভার	-10.8483
▁ভ্যাকসিনের	-10.8483
▁স্থলবন্দর	-10.8484
▁সাতক্ষীরার	-10.8485
কন্ঠ	-10.8485
▁রেশ	-10.8486
▁বাজেটে	-10.8486
▁ভাবতে	-10.8488
জুল	-10.849
▁উগ্র	-10.8493
▁শহীদুল	-10.8496
বোর্ড	-10.8497
▁সালমা	-10.8498
উদ্দীন	-10.85
সোমবার	-10.85
▁সমর্থিত	-10.8503
▁৪টার	-10.8505
▁ঘোড়া	-10.8506
ah	-10.8511
▁de	-10.8514
৪টি	-10.8515
▁সীমানা	-10.8517
▁নাহার	-10.8518
্টন	-10.8518
প্রেস	-10.8519
▁টিভির	-10.8519
িলা	-10.8521
▁গ্যাসের	-10.8521
▁ব্যাটালিয়ন	-10.8528
▁তরফ	-10.8528
▁জোহর	-10.8531
▁মাধবপুর	-10.8532
▁আদেশে	-10.8536
ধূ	-10.8537
َا	-10.8538
▁সোসাইটি	-10.8542
▁নিঃশ্বাস	-10.8542
▁একসাথে	-10.8542
▁সাক্ষ্য	-10.8543
▁হননি	-10.8544
▁ছাড়পত্র	-10.8544
▁শীল	-10.8546
▁খালিদ	-10.8549
▁গ্রুপে	-10.8553
▁উপকার	-10.8556
▁গণনা	-10.8557
▁৮৩	-10.8559
▁আইনানুগ	-10.8562
▁বিদ্যমান	-10.8562
▁ইয়র্ক	-10.8562
▁দমকল	-10.8562
▁তলব	-10.8564
▁উঠা	-10.8564
ড়িয়ে	-10.8565
▁মাসেই	-10.8565
পণ্য	-10.8571
▁অর্	-10.8577
মানুষ	-10.8578
▁ফলন	-10.8579
▁Sports	-10.8581
▁একাত্তর	-10.8581
▁লেবানন	-10.8581
ধন	-10.8582
▁পাইপ	-10.8583
▁ফেলেছেন	-10.8584
▁হতাহত	-10.8586
▁চাইছে	-10.8588
৯৯	-10.8588
বিএস	-10.859
▁লন্ডনের	-10.8594
▁তাজুল	-10.8596
জিৎ	-10.8596
▁জানানোর	-10.8596
▁চন্দন	-10.8597
▁আগত	-10.8597
▁ব্যক্তিরা	-10.8598
বুধবার	-10.8598
▁রুমা	-10.8599
▁কাসেম	-10.8601
▁হিন্দি	-10.8601
▁গৌরব	-10.8605
▁ক্যামেরার	-10.8606
মস	-10.8613
টিভি	-10.8615
▁ইসরায়েলের	-10.8617
▁দৌলতপুর	-10.8629
▁অভিনেত্রীর	-10.8632
▁মুক্তা	-10.8636
▁বাবাকে	-10.8636
▁মোস্তাফিজ	-10.8637
▁মাদকের	-10.8638
▁সিটির	-10.8638
▁ফাই	-10.8639
ভাস	-10.8639
▁৯৪	-10.864
▁হাজতে	-10.864
▁ব্রিটেনের	-10.8643
▁Jan	-10.8649
পাক	-10.865
▁৪টায়	-10.8653
▁স্টল	-10.8654
ঁড়	-10.8656
▁খোরশেদ	-10.8659
▁ফেন্সিডিল	-10.8659
▁ডিসপ্লে	-10.8659
▁পর্যায়ক্রমে	-10.866
▁মুরগি	-10.866
▁জেমস	-10.8661
▁মৃধা	-10.8664
ার্থ	-10.8665
▁আটজন	-10.8667
▁ইনস্টাগ্রাম	-10.8668
▁মানতে	-10.8669
▁অর্থনীতির	-10.8673
ক্রি	-10.8676
সম্পন্ন	-10.8677
▁বিসিবির	-10.8678
▁প্রচলিত	-10.8679
ob	-10.868
এসডি	-10.868
▁আয়কর	-10.8685
▁মাথার	-10.8686
▁বয়	-10.8688
▁সকলে	-10.8688
▁ডুব	-10.869
▁দরে	-10.869
port	-10.8692
▁গবেষণার	-10.8692
▁মিরপুরে	-10.8692
২০১৭	-10.8694
▁লেনদেনের	-10.8697
▁জ্যোতি	-10.8699
▁সেন্ট্রাল	-10.8699
▁নির্মম	-10.8699
▁কুয়াশা	-10.8699
▁মাতৃভাষা	-10.8699
▁Today	-10.8699
▁দাপট	-10.87
▁কচুয়া	-10.87
▁সিবিআই	-10.8701
▁ডাবল	-10.8702
প্রশাসন	-10.8702
▁সময়ই	-10.8703
▁ছুরি	-10.8704
▁মৌলভীবাজারের	-10.8706
▁দুর্গা	-10.8707
▁অনুমান	-10.8708
▁জগতে	-10.8717
▁কখনোই	-10.8717
▁অস্তিত্ব	-10.8718
▁লিয়াকত	-10.8718
▁ভার্সন	-10.8719
▁মেয়েটি	-10.8722
▁গুরু	-10.8723
tra	-10.8725
▁ফেডারেশনের	-10.8726
▁আর্জেন্টিনার	-10.8727
▁ক্যাপ্টেন	-10.8727
ভেন	-10.8728
▁ব্যানারে	-10.8732
▁বার্সেলোনার	-10.8734
▁জাহিদুল	-10.8734
▁মধ্যরাতে	-10.8735
শনিবার	-10.8737
▁প্রণোদনা	-10.8738
▁প্রবাহ	-10.874
▁অর্থবছরে	-10.874
▁চ্যাম্পিয়ন্স	-10.8742
▁কাস্টমস	-10.8743
▁পাব	-10.8743
খণ্ড	-10.8744
▁২০০৭	-10.8747
▁শিমুল	-10.8748
▁সহায়তার	-10.8749
▁অভিবাসন	-10.8751
▁অ্যাসোসিয়েশনের	-10.8754
ডেন	-10.8754
▁ফুসফুস	-10.8758
▁প্রকল্পে	-10.8758
▁অফিসিয়াল	-10.8761
▁ড্রাইভার	-10.8761
প্রধানমন্ত্রী	-10.8762
▁দৌড়	-10.8764
স্য	-10.8766
▁ময়দানে	-10.8768
ব্রে	-10.877
ব্ব	-10.8771
▁লেন	-10.8773
সভা	-10.8774
▁মেঘ	-10.8775
▁সিরিয়া	-10.8776
‎	-10.8778
▁মোশারফ	-10.8778
▁শোভন	-10.8778
রাহ	-10.8778
▁ট্রায়াল	-10.8779
▁হাফ	-10.8779
▁জাদুঘর	-10.8779
▁পুলিশি	-10.8781
▁শ্রীনগর	-10.8782
▁বন্ধুত্ব	-10.8784
▁সংশ্লিষ্টদের	-10.8785
▁টিকে	-10.8786
▁অপরাধের	-10.8786
▁গ্রেড	-10.8789
▁তারাই	-10.8791
▁আগামীতে	-10.8793
▁গ্রহ	-10.8794
শাল	-10.8795
▁ভরসা	-10.8796
▁নিচের	-10.8796
▁প্রত্যাখ্যান	-10.8798
▁ফেনসিডিল	-10.8798
▁আসলাম	-10.8801
▁কিশোরীর	-10.8802
▁দোষ	-10.8802
▁স্বাস্থ্যসেবা	-10.8802
▁প্রতিকৃতিতে	-10.8803
▁তারপরে	-10.8803
▁ফারিয়া	-10.8804
টাইম	-10.8804
▁আশাবাদী	-10.8812
▁ইসলামি	-10.8812
▁গৌরীপুর	-10.8818
▁সালাহ	-10.8818
▁ইতি	-10.8818
▁পৌঁছানো	-10.8819
▁রোমান	-10.882
▁সাদিক	-10.882
▁গাড়ী	-10.8822
▁৯৩	-10.8825
▁ফিরলেন	-10.8831
্যান	-10.8832
▁প্যারা	-10.8832
▁৭টি	-10.8834
▁সিগারেট	-10.8837
▁মরিচ	-10.8838
▁একদম	-10.8839
▁করণীয়	-10.884
▁হালদার	-10.884
▁মুন্না	-10.8842
▁সুরে	-10.8843
▁বিসিসিআই	-10.8843
▁রাবি	-10.8852
Shomoy	-10.8857
▁ওয়ার্নার	-10.8857
▁ম্যাগাজিন	-10.8857
kh	-10.8858
শাহ	-10.8862
▁মৌসুমের	-10.8862
▁ডাই	-10.8865
▁সন্তানকে	-10.8869
▁ডিন	-10.8869
▁বিমানটি	-10.887
▁কমলা	-10.887
সহকারী	-10.8872
▁সরব	-10.8874
▁জার্মানির	-10.8877
▁রযাপিড	-10.8878
▁হাদিস	-10.8878
▁ব্র্যাক	-10.8878
▁more	-10.8878
▁কমল	-10.8882
▁শ্রেণিতে	-10.8882
▁বিষয়গুলো	-10.8883
▁পড়ায়	-10.8889
▁আদায়ের	-10.8891
▁প্রতীকে	-10.8892
▁খি	-10.8894
ঞ	-10.8895
▁গ্রাহকের	-10.8896
▁উইন্ডোজ	-10.8898
▁কাউন্টার	-10.8898
১টি	-10.8898
▁সিরাজগঞ্জের	-10.8899
har	-10.8904
▁সুত্রে	-10.8908
▁অংশগ্রহণকারী	-10.891
▁আসায়	-10.8912
দায়	-10.8912
▁স্কোয়াড	-10.8912
▁প্রেমে	-10.8915
▁পিচ	-10.8915
স্টি	-10.8916
য়াত	-10.8917
▁গ্রেনেড	-10.8918
▁হাটহাজারী	-10.8918
▁বাজে	-10.8918
ুস	-10.8918
▁টিকটক	-10.8918
▁জিএম	-10.892
▁গোপনে	-10.892
▁ছাদ	-10.8921
▁পলি	-10.8922
▁অবস্থানরত	-10.8925
▁হারিয়েছেন	-10.8928
▁আড়াইটা	-10.893
▁মজা	-10.8931
▁মিশ্র	-10.8935
▁মির্জাপুর	-10.894
▁স্ক্রিন	-10.8942
▁সেবায়	-10.8942
ন্টু	-10.8946
ফোন	-10.8947
ব্যাক	-10.8947
▁নামতে	-10.8948
▁কোম্পানীগঞ্জ	-10.8951
▁ট্যা	-10.8952
▁মদন	-10.8953
স্যা	-10.8954
▁বন্ধে	-10.8955
ub	-10.8957
▁Dainik	-10.8958
▁প্রশান্ত	-10.8958
▁শীষ	-10.8958
▁লামা	-10.8959
▁দোকানপাট	-10.8959
▁ডাকাতির	-10.896
▁বান্দরবানে	-10.8965
▁লোকের	-10.8966
▁৫টার	-10.8969
বাব	-10.8969
▁daily	-10.8978
▁উঁচু	-10.8978
▁চিত্রনায়ক	-10.8979
▁শহীদদের	-10.8981
▁শর্ট	-10.8983
চক্র	-10.8985
▁আইসিইউতে	-10.8992
ca	-10.8997
▁প্রেসিডিয়াম	-10.8999
▁কলারোয়া	-10.8999
▁ভয়ঙ্কর	-10.8999
▁মানেই	-10.9
▁আর্ট	-10.9
▁পাড়	-10.9002
ল্লি	-10.9004
৭টি	-10.9005
খোলা	-10.9006
▁কনফারেন্সের	-10.9007
ফো	-10.9011
▁পাচারের	-10.9012
▁গার্মেন্টস	-10.9012
▁বিরোধের	-10.9013
hu	-10.9014
▁ঝিনাইদহে	-10.9014
▁বলব	-10.9016
▁তরুণীর	-10.9016
▁নিষ্পত্তি	-10.9019
▁মুনাফা	-10.9019
▁ড্যা	-10.9019
▁ট্যাংক	-10.902
▁টিকাদান	-10.902
▁উইকেটের	-10.9025
▁আসছিলেন	-10.9026
od	-10.9026
ফিন	-10.9027
তাই	-10.9029
ja	-10.9029
▁কামার	-10.9031
▁উঠল	-10.9031
ত্রী	-10.9032
মূল	-10.9033
▁নড়াইলে	-10.9034
▁শিশুরা	-10.9036
▁জর্জ	-10.9038
নন্দ	-10.9039
▁অডিও	-10.9039
▁ওয়াজেদ	-10.904
▁মোবারক	-10.904
▁লেখাপড়া	-10.9041
▁লিবিয়া	-10.9041
▁পারা	-10.9042
▁ফাঁসির	-10.9044
▁বসত	-10.9045
▁কাক	-10.9045
▁আইটি	-10.9046
▁মিয়ানমারে	-10.9047
▁সিনেমাটির	-10.9052
▁অব্যাহতি	-10.9054
▁ইতোমধ্যেই	-10.9056
তবে	-10.9058
▁পেজ	-10.9058
▁আফ্রিদি	-10.906
▁ইমিগ্রেশন	-10.906
▁এনডিটিভি	-10.906
▁হেলপার	-10.906
▁তিস্তা	-10.9061
▁পড়েছিল	-10.9063
▁প্রক্টর	-10.9063
বিধি	-10.9065
▁ডিজি	-10.9065
▁বাঘা	-10.9065
▁সঙ্গ	-10.9072
▁মুম্বাইয়ের	-10.9073
▁জান্নাত	-10.9077
▁যাব	-10.9079
ন্দে	-10.908
▁মশিউর	-10.908
▁অঙ্ক	-10.908
▁গরিব	-10.908
▁মহেশখালী	-10.9081
স্টা	-10.9089
▁পৌরসভায়	-10.9091
পোল	-10.9096
age	-10.9097
▁ওয়ানডেতে	-10.9099
তান্ত্রিক	-10.91
▁চিত্রনাট্য	-10.9101
▁হেঁটে	-10.9101
ডেন্ট	-10.9102
▁দেখছে	-10.9103
▁যুবতী	-10.9104
▁উপকারী	-10.9105
এফএ	-10.9106
▁কারবারি	-10.911
▁গোড়া	-10.9113
▁দোষী	-10.9115
▁কেউই	-10.9121
▁রিটার্নিং	-10.9123
▁নির্বাচনকে	-10.9123
▁জাতের	-10.9124
▁রংপুরে	-10.9125
বন্ধন	-10.9126
▁জননেত্রী	-10.9128
▁বৈষম্য	-10.9129
▁জিডি	-10.9137
our	-10.9139
▁Post	-10.9141
▁সম্মুখীন	-10.9142
▁ভূইয়া	-10.9143
▁ব্যয়ে	-10.9144
মুক্তি	-10.9146
▁ফেনীর	-10.9148
▁আর্থ	-10.9149
হাল	-10.9149
▁হবিগঞ্জের	-10.915
▁অং	-10.9151
পুত্র	-10.9152
▁মারিয়া	-10.9153
য়াজ	-10.9157
▁ভালুকা	-10.9163
▁বর্ডার	-10.9163
▁রাব্বি	-10.9163
▁ফ্রন্ট	-10.9164
রুদ্ধ	-10.9167
▁চালা	-10.9168
▁অনন্ত	-10.9169
▁আনুষ্ঠানিকতা	-10.9171
যাত্রী	-10.9175
▁আসবেন	-10.9177
▁ন্যা	-10.9179
▁অক্ষ	-10.918
▁নিরাপদে	-10.918
পাস	-10.9181
▁ভয়েস	-10.9181
▁আলিম	-10.9182
▁স্থাপনের	-10.9183
সম্পাদক	-10.9185
৬৯	-10.9189
গ্রহণ	-10.9189
▁ঘটনাকে	-10.9189
▁মারমা	-10.9192
▁সিনেট	-10.9196
ঁড়া	-10.9197
▁সাপোর্ট	-10.9201
স্তান	-10.9203
▁সার্কিট	-10.9204
▁সাত্তার	-10.9204
▁খুঁটি	-10.9204
▁আয়েশা	-10.9204
▁কাপের	-10.9204
▁নববর্ষ	-10.9205
▁আসাম	-10.9206
▁ভাঙা	-10.9209
▁প্রস্তাবিত	-10.9212
▁স্পিন	-10.9215
▁সম্পদের	-10.9216
িয়েছে	-10.9216
▁সানা	-10.9218
▁যেত	-10.9218
▁ইলেকট্রনিক	-10.9222
▁ভাষার	-10.9224
▁অন্তঃসত্ত্বা	-10.9225
▁আংশিক	-10.9225
▁সঞ্চয়	-10.9225
▁ভুগছিলেন	-10.9225
▁বান্ধবী	-10.9226
▁বিটিআরসি	-10.9226
ক্ষা	-10.9226
▁জামিনের	-10.9227
পুল	-10.9229
ঈ	-10.9231
▁সচল	-10.9231
▁জিয়াউল	-10.9231
লেস	-10.9231
নিউজ২৪	-10.9232
▁নামার	-10.9234
▁স্পট	-10.9235
▁খাতা	-10.9236
খালি	-10.9237
▁ঢাল	-10.9238
▁চালুর	-10.9242
▁ফোর	-10.9244
ক্ষেপ	-10.9246
ঙ্গে	-10.9246
▁রক্ষাকারী	-10.9246
▁ঘন্টার	-10.9248
▁গ্রেপ্তারের	-10.9251
▁ছুটিতে	-10.9259
▁জাজিরা	-10.926
est	-10.9261
▁বারী	-10.9261
▁খোদ	-10.9262
সেট	-10.9266
▁ঈদগাহ	-10.9266
▁ভরে	-10.9267
রক্ষা	-10.9268
▁চেষ্টার	-10.9271
▁বিরক্ত	-10.9272
▁মুসলিমদের	-10.9274
▁গৃহবধূকে	-10.9274
▁মেলেনি	-10.9275
▁কমতে	-10.9279
▁ফার্ম	-10.9279
▁জিও	-10.9283
▁বাড়ল	-10.9283
▁Ra	-10.9283
গতি	-10.9283
▁জেতা	-10.9286
োন	-10.9287
▁ঢেলে	-10.9287
▁মেদিনীপুর	-10.9287
▁লাগার	-10.9287
▁জামায়াতের	-10.9288
▁পারাপার	-10.9288
প্রকাশ	-10.9291
▁লক্ষ্মীপুরে	-10.9292
বন্দী	-10.9293
▁মাজার	-10.9293
▁জুম	-10.9298
▁বাড়ীতে	-10.9301
বন্দি	-10.9301
▁ফ্রিজ	-10.9303
▁লেক	-10.9304
যুগ	-10.9306
▁সেন্ট	-10.9307
▁রাসায়নিক	-10.9308
▁ভুটান	-10.9308
▁টেবিল	-10.9309
▁ছুড়ে	-10.9309
▁রেলপথ	-10.9309
রেন	-10.9313
▁North	-10.9317
▁খানম	-10.9319
▁বসেছে	-10.932
▁দ্যা	-10.9321
▁চালিত	-10.9322
▁সংখ্যালঘু	-10.9329
▁From	-10.9329
▁মঠবাড়িয়া	-10.9329
▁খসড়া	-10.9329
▁রোকেয়া	-10.9329
▁অবাধ	-10.9332
▁সেটে	-10.9333
ঠি	-10.9336
শিশু	-10.9338
▁হিলি	-10.9338
▁বজ্রপাতে	-10.934
▁হজম	-10.934
৬টি	-10.9344
রোগ	-10.9346
▁পদত্যাগের	-10.9349
▁নির্বাচক	-10.935
▁টার্মিনাল	-10.935
▁লাঠি	-10.9352
▁সমগ্র	-10.9353
▁হাতিয়ে	-10.9354
মৃত্যু	-10.9356
সিপি	-10.9359
▁মুহূর্ত	-10.9359
▁কলাপাড়া	-10.9359
▁ঋণের	-10.9361
▁গুল	-10.937
▁ধর্ষন	-10.9371
▁সর্বাধিক	-10.9371
▁খুলতে	-10.9371
▁ট্রেনিং	-10.9372
▁দিয়া	-10.9378
▁সিংড়া	-10.938
▁শাহা	-10.9381
▁মূল্যের	-10.939
▁সেভাবে	-10.9391
▁সমন্বিত	-10.9393
▁হেক্টর	-10.9393
▁শপিং	-10.9395
▁সহ্য	-10.9395
▁কমেন্ট	-10.9396
▁জিহাদ	-10.9396
▁টিপস	-10.9398
গোষ্ঠী	-10.9402
▁চেষ্টায়	-10.9406
▁টিমের	-10.9407
▁পর্দা	-10.9409
করা	-10.9412
▁—	-10.9412
▁কৃত্রিম	-10.9413
▁তোফায়েল	-10.9413
▁প্রলোভন	-10.9413
▁আম্পায়ার	-10.9413
▁বিল্ডিং	-10.9414
▁কোম্পানিটি	-10.9415
▁ফিট	-10.9416
স্কার	-10.9416
▁সঠিকভাবে	-10.9416
▁পেশাদার	-10.9419
▁শুনেছি	-10.9419
▁অস্ত্রের	-10.942
▁বিদায়ী	-10.9424
▁সাতক্ষীরায়	-10.9426
▁মুখের	-10.943
▁হেফাজত	-10.9431
▁গৃহবধু	-10.9434
▁সারাদিন	-10.9435
▁বেঙ্গল	-10.9437
▁১১টি	-10.9439
▁সিঙ্গাপুরে	-10.9442
▁রক্তের	-10.9445
▁মিনি	-10.9445
▁বিক্রম	-10.9445
▁অক্সফোর্ড	-10.9456
▁আত্মঘাতী	-10.9456
▁স্কয়ার	-10.9456
▁আমজাদ	-10.9456
পাই	-10.9456
▁নীচে	-10.9457
পাকিস্তান	-10.946
▁কাশ্মীরের	-10.9461
▁মিলি	-10.9462
▁কর্মশালায়	-10.9463
▁মিলল	-10.9467
পড়া	-10.9468
▁রইল	-10.9471
▁গুপ্ত	-10.9471
▁শাখায়	-10.9474
▁নবীন	-10.9477
▁ওবামা	-10.948
▁ফুটবলের	-10.9483
সাল	-10.9488
▁পাপন	-10.9495
▁জগন্নাথ	-10.9497
▁বসতে	-10.9497
্যাক	-10.9498
▁কুয়াকাটা	-10.9498
▁ক্রেতাদের	-10.95
▁ইসরায়েলি	-10.9501
▁অজানা	-10.9502
অধিনায়ক	-10.9503
▁আনন্দের	-10.9506
▁৪টা	-10.9506
▁রকমের	-10.9507
ধো	-10.951
িয়েছেন	-10.951
▁ছাদে	-10.9512
▁বিশেষজ্ঞদের	-10.9515
▁পার্কে	-10.9516
র্ধ্ব	-10.9517
▁বিস্তৃত	-10.952
▁সংগঠক	-10.952
▁অন্যরা	-10.952
▁আইজিপি	-10.9522
▁আঃ	-10.9522
▁মনিটরিং	-10.9527
▁নবাবগঞ্জ	-10.9529
বর্তী	-10.9531
বিশেষ	-10.9533
▁পশুর	-10.9535
অভি	-10.9539
▁স্তরের	-10.954
▁পূর্বাভাসে	-10.954
▁মতিউর	-10.9541
মার্ক	-10.9542
▁ট্যাগ	-10.9546
▁ঘটা	-10.9547
▁কিং	-10.9547
▁আমেরিকায়	-10.9549
▁করেছিলাম	-10.956
▁সিদ্ধান্তে	-10.9561
▁সন্দেহভাজন	-10.9562
▁রওশন	-10.9562
▁৬০০	-10.9565
শুক্রবার	-10.9568
বিষয়ে	-10.9568
োলজি	-10.9575
▁বর্জন	-10.9577
▁ট্রেনটি	-10.9583
▁জন্মশতবার্ষিকী	-10.9584
মানব	-10.9586
▁দক্ষিণাঞ্চল	-10.9588
▁জীবিত	-10.9589
▁উন	-10.9591
▁ছন্দ	-10.9596
▁ওভারের	-10.9597
▁বোঝাই	-10.9599
্যো	-10.96
▁এসোসিয়েশন	-10.9604
▁mobile	-10.9606
▁উড়োজাহাজ	-10.9606
সোনা	-10.9609
▁ভিতর	-10.9609
▁আটটি	-10.961
ঘা	-10.9619
▁দয়া	-10.9622
াউন্ড	-10.9623
▁তৌহিদ	-10.9623
▁ব্যবহারে	-10.9624
▁বন্ধন	-10.9624
▁মেয়াদে	-10.9625
▁কাহিনী	-10.9627
▁তুর্কি	-10.9627
▁ডিগ্রী	-10.9627
▁হারানো	-10.963
▁আঁচ	-10.9634
▁৭টায়	-10.9634
মোহন	-10.9634
ঞ্জু	-10.9635
?'	-10.9637
▁চত্বর	-10.9638
▁ইসলামপুর	-10.9638
▁নিষেধাজ্ঞার	-10.964
ap	-10.9642
▁মিথিলা	-10.9643
সদর	-10.9646
▁চড়	-10.9649
▁বক্তব্যের	-10.9649
▁ডিফেন্স	-10.9649
▁পর্তুগাল	-10.9649
▁পারফর্ম	-10.9649
▁ক্যাসিনো	-10.9649
▁ক্যান	-10.9649
▁সীমান্তবর্তী	-10.965
▁হৃদরোগে	-10.965
▁বুঝিয়ে	-10.9651
▁ফরিদগঞ্জ	-10.9657
▁বহনকারী	-10.9657
▁উদ্দ	-10.966
ব্যবস্থা	-10.9661
ক্তি	-10.9661
▁আমল	-10.9669
▁জিম	-10.9669
▁টিকেট	-10.967
▁বর্ধিত	-10.967
▁প্রত্যাবর্তন	-10.967
▁শার্শা	-10.9671
ঘু	-10.9671
▁চাঞ্চল্যকর	-10.9672
▁জওয়ান	-10.9672
▁আসি	-10.9672
▁যোগাযোগের	-10.9674
▁পেপার	-10.9676
▁মাহফুজ	-10.9683
▁রাষ্ট্রের	-10.9683
৭৭	-10.9684
▁হয়রানির	-10.9686
▁আশায়	-10.9688
▁খাদে	-10.9691
▁Uttar	-10.9692
▁অদ্ভুত	-10.9692
▁ধোঁয়া	-10.9692
▁হালনাগাদ	-10.9692
▁খনন	-10.9693
বৃহস্পতিবার	-10.9699
▁রেফারি	-10.9699
▁হুমকির	-10.97
▁পুঁজিবাজার	-10.9701
▁ঘুমিয়ে	-10.9704
▁বলছি	-10.9708
▁রণ	-10.9709
▁জোয়ার	-10.9711
▁প্রবাসীর	-10.9712
▁তুলনা	-10.9713
▁থিয়েটার	-10.9714
▁বাহাদুর	-10.9714
▁রিভিউ	-10.9715
▁r	-10.9717
▁রেটিং	-10.9717
▁ট্রাকটি	-10.9718
▁ফরিদপুরে	-10.9719
▁সুনাম	-10.9721
▁ছুরিকাঘাতে	-10.9723
▁মিঠু	-10.9724
ঁড়ি	-10.9727
শাদ	-10.9727
দাস	-10.9727
বৃত্ত	-10.973
▁উঠলে	-10.9733
ফাত	-10.9735
▁বর্ধমান	-10.9736
▁টেনিস	-10.9736
▁ক্যানসার	-10.9737
▁টেলি	-10.9737
▁সফলতা	-10.974
▁মুভি	-10.9742
ব্বা	-10.9752
▁১টার	-10.9756
▁লঙ্কান	-10.9758
▁গণশিক্ষা	-10.9759
▁মন্ত্রিসভার	-10.976
▁বোলিংয়ে	-10.976
হারা	-10.9762
▁সনাতন	-10.9763
কিয়া	-10.9763
মহল	-10.9764
▁অবগত	-10.9765
▁গন্ধ	-10.9767
▁এয়ারলাইন্সের	-10.9768
▁সিকিউরিটি	-10.9769
▁কৈ	-10.9773
▁পুরোনো	-10.9773
সেস	-10.9774
▁মাইক	-10.9774
র্মা	-10.9779
▁মোংলা	-10.978
▁রক্তচাপ	-10.978
ওয়ার্ড	-10.9784
▁১৪২৬	-10.9787
▁জব	-10.9796
▁ইভিএম	-10.9799
▁সাংবাদিকরা	-10.9799
▁প্রেসিডেন্টের	-10.9801
▁বিপর্যস্ত	-10.9802
▁মোয়াজ্জেম	-10.9802
▁যৌতুক	-10.9802
▁তাগিদ	-10.9802
▁কল্পনা	-10.9802
▁নিপীড়ন	-10.9803
▁মেতে	-10.9803
▁পার্থ	-10.9813
পাট	-10.9815
▁যাবার	-10.9821
▁কেরানীগঞ্জ	-10.9824
▁ছোঁয়া	-10.9824
▁আবাহনী	-10.9824
▁টেকসই	-10.9824
▁গণতন্ত্রের	-10.9825
▁নেব	-10.9826
▁দাঁড়ানোর	-10.9827
▁২০টি	-10.9828
▁বোরো	-10.9829
▁দৃশ্যমান	-10.9831
দুদক	-10.9831
ষ্ম	-10.9832
▁ভোরের	-10.9836
▁বায়তুল	-10.9836
ভেল	-10.9839
ানি	-10.9844
▁শফিক	-10.9846
▁ডেলিভারি	-10.9846
▁ভালবাসা	-10.9846
ায়ণ	-10.9846
▁ওয়ার	-10.9847
▁কুষ্টিয়ায়	-10.9847
▁ক্যারিয়ারে	-10.9848
▁রসুন	-10.9849
৮৮	-10.9852
▁সদরে	-10.9854
▁বিমানবন্দরের	-10.9856
▁হ্যাক	-10.9857
এটা	-10.9857
▁দলগুলো	-10.9859
োদ	-10.986
ন্ম	-10.9865
ন্সি	-10.9866
য়াং	-10.9868
▁with	-10.9868
▁মারপিট	-10.9868
▁মিশর	-10.987
▁প্রতিষ্ঠানকে	-10.9871
▁গাছে	-10.9874
▁টুইটে	-10.9875
▁গণভবনে	-10.9878
চ্ছিলেন	-10.9883
▁বাতাসে	-10.9885
▁ফ্রে	-10.9885
▁ব্যবসায়ীর	-10.9886
▁জাত	-10.9887
▁পেনাল্টি	-10.989
▁রাঙ্গামাটি	-10.989
▁Samb	-10.989
▁মমতাজ	-10.989
▁শোয়েব	-10.9891
▁ফাহাদ	-10.9891
▁ব্যাটে	-10.9892
▁নৃত্য	-10.9894
▁গোলাগুলি	-10.9895
▁জোনের	-10.9895
▁বাকী	-10.9896
ee	-10.9898
day	-10.9898
৮৬	-10.9899
▁ক্রি	-10.9899
▁কোয়ারেন্টিনে	-10.99
▁ডেটা	-10.9902
▁আমীর	-10.9903
▁২টার	-10.9905
▁মিলিত	-10.9909
▁পেলেও	-10.991
▁বানানো	-10.991
▁স্মারকলিপি	-10.9912
▁জীবনযাপন	-10.9914
▁&	-10.992
▁বডি	-10.9921
▁পপি	-10.9923
▁দর্শকের	-10.9924
পোর্ট	-10.9929
▁চাঁদপুরের	-10.9931
▁প্রাণিসম্পদ	-10.9934
▁অবমাননা	-10.9935
▁ওজনের	-10.9935
▁শিশুসহ	-10.9935
▁পৌঁছালে	-10.9936
▁লালন	-10.994
বিয়া	-10.9943
▁বহর	-10.9948
▁বন্দুকযুদ্ধে	-10.995
▁বন্ধুর	-10.995
▁কার্যক্রমে	-10.9953
▁দিনাজপুরে	-10.9955
ard	-10.9959
লতা	-10.996
▁পলক	-10.996
▁পায়রা	-10.9966
পাশে	-10.9968
▁ঐক্যফ্রন্টের	-10.9969
িচ	-10.9971
▁কারন	-10.9972
▁থি	-10.9974
▁ইনিংসের	-10.9977
▁তাড়াতাড়ি	-10.9979
▁মুখোপাধ্যায়	-10.9979
▁টেলিফোন	-10.9979
▁সবগুলো	-10.9981
banga	-10.9982
▁শিক্ষকরা	-10.9984
▁ভাইকে	-10.9985
▁দায়িত্বশীল	-10.9987
▁সাবান	-10.9993
▁শীতে	-10.9993
▁বিশ্বাসের	-10.9994
▁পেছন	-10.9998
▁শ্বাস	-11.0001
▁কলম	-11.0002
▁হতদরিদ্র	-11.0002
সাধ্য	-11.0003
▁গাজীপুরে	-11.0003
▁হাইকমিশনার	-11.0007
▁লিওন	-11.0009
▁বাহ	-11.001
▁তরুণীকে	-11.001
লিট	-11.001
আউট	-11.0014
▁রম	-11.0016
▁হত্যাকাণ্ড	-11.0017
▁একদিকে	-11.0018
প্রি	-11.0018
▁টেকটিউনস	-11.0024
▁হুমায়ূন	-11.0024
▁ভেন্যু	-11.0024
ুদ	-11.0024
▁নিজেও	-11.0025
▁পুরুষদের	-11.0029
▁বরফ	-11.0031
।''	-11.0039
▁ইউক্রেনের	-11.0041
▁বললে	-11.0044
▁তেমনই	-11.0046
▁admin	-11.0047
▁বিলুপ্ত	-11.0047
▁গ্রামীণফোন	-11.0047
▁ময়নাতদন্ত	-11.0052
▁সেনাদের	-11.0052
পেক্ষ	-11.0054
▁সময়টা	-11.0056
▁ফুলের	-11.0061
▁উপকূল	-11.0065
mar	-11.0065
▁গ্রাহকরা	-11.0068
▁নৌবাহিনীর	-11.0069
▁শীতবস্ত্র	-11.0069
▁চেলসি	-11.0069
▁নাসরিন	-11.0069
▁বকেয়া	-11.007
▁পূর্ণিমা	-11.007
▁সমাজসেবা	-11.007
▁পাড়ায়	-11.0072
▁১৫টি	-11.0077
▁তাপ	-11.0077
▁বিপিএল	-11.0078
রোজ	-11.0079
▁মোদীর	-11.0084
▁বালা	-11.0087
▁বিদ্যুত	-11.0088
▁অ্যাকাউন্টে	-11.0091
▁পরীমণি	-11.0092
▁হত্যাকান্ড	-11.0092
▁ব্রীজ	-11.0092
▁নিম্নচাপ	-11.0092
▁বংশ	-11.0093
▁একাডেমিক	-11.0094
▁কেবিন	-11.0094
▁তাকিয়ে	-11.0099
▁লক	-11.01
হাজ	-11.0101
▁যুগে	-11.0102
▁নামা	-11.0106
ন্যা	-11.0108
▁আলেম	-11.0109
▁আপডেটঃ	-11.0109
▁দিনেই	-11.0111
ant	-11.0113
▁ঠাণ্ডা	-11.0114
▁রিসার্চ	-11.0114
▁সার্জারি	-11.0114
▁সুইডেন	-11.0114
▁অসম্ভব	-11.0116
▁তৈরিতে	-11.0116
▁গ্র্যান্ড	-11.0117
▁কোলে	-11.0118
▁পারায়	-11.0119
বক্স	-11.012
▁পুনঃ	-11.012
▁কয়েকবার	-11.0123
▁মহলে	-11.0127
▁যশ	-11.0131
▁গোপাল	-11.0132
গেট	-11.0133
▁নাসিমা	-11.0136
▁শেরপুরে	-11.0137
▁কাঠামো	-11.0137
▁সীতাকুণ্ড	-11.0137
▁গ্লাস	-11.0137
▁সাজাপ্রাপ্ত	-11.0139
▁দেড়টা	-11.014
্তু	-11.014
▁দেখছি	-11.014
▁মুসা	-11.0142
▁বিচ্ছেদ	-11.0143
▁কার্যত	-11.0143
▁বাহার	-11.0144
▁পিছ	-11.0148
ম্মা	-11.015
▁সমাধানে	-11.0152
▁কানে	-11.0153
▁মহানগরীর	-11.0153
চাল	-11.0156
▁ইল	-11.0156
▁ডায়েরি	-11.0159
ট্টা	-11.0159
▁লুটপাট	-11.016
তান	-11.0162
▁দেবনাথ	-11.0163
▁টাঙ্গাইলে	-11.0167
জুন	-11.0168
▁সংঘ	-11.017
Y	-11.017
আদালত	-11.017
াধ	-11.0172
▁নির্মল	-11.0175
▁নিরব	-11.0176
▁প্রাইম	-11.0176
▁মাইন	-11.0177
▁মোল্লার	-11.0181
▁উন্নীত	-11.0183
▁কনটেন্ট	-11.0183
▁পরিচর্যা	-11.0183
▁বাসস্ট্যান্ড	-11.0183
▁টুকরো	-11.0183
▁কাঞ্চন	-11.0183
দৌ	-11.0183
▁লক্ষাধিক	-11.0183
▁যন্ত্রণা	-11.0184
▁কালী	-11.0192
one	-11.0193
রাষ্ট্র	-11.0195
ীকরণ	-11.0195
▁নল	-11.0201
▁প্রসার	-11.0202
▁রোদ	-11.0202
▁এনেছে	-11.0202
▁ঝিনাইদহের	-11.0203
সেবা	-11.0204
▁দৃষ্টান্ত	-11.0205
▁কর্মচারীদের	-11.0205
িনি	-11.0205
œ	-11.0206
▁তেজগাঁও	-11.0206
▁উপযোগী	-11.0206
▁গ্যালারি	-11.0206
▁ক্রমশ	-11.0206
চিত	-11.0208
▁নাথ	-11.0208
der	-11.0212
▁পার্লামেন্ট	-11.0215
▁মেয়েটির	-11.0218
৬২	-11.0218
মিয়া	-11.0221
▁আরমান	-11.0222
▁জিরো	-11.0226
▁মন্ত্রিসভা	-11.0226
▁হুয়াওয়ে	-11.0229
▁মোর্শেদ	-11.0229
▁নির্মূল	-11.0229
▁অভিযোগপত্র	-11.0234
ঘটনায়	-11.0237
▁সেক্টর	-11.0237
বাজি	-11.0239
▁যুক্তরাজ্যে	-11.024
বৃষ্টি	-11.024
▁কনফারেন্স	-11.0247
▁প্রাপ্তি	-11.0247
▁সন্ত্রাসবাদ	-11.0249
্ফ	-11.0251
▁দম্পতির	-11.0252
ানন্দ	-11.0258
▁করলাম	-11.0261
▁ব্যতিক্রম	-11.0263
য়াম	-11.0263
স্ট্রি	-11.0264
▁জনবল	-11.0268
▁কোষাধ্যক্ষ	-11.0275
▁শর্তে	-11.0275
চনা	-11.0275
▁টেলিভিশনের	-11.0276
ll	-11.0281
গাছা	-11.0282
▁উড়ে	-11.0283
▁সংশ্লিষ্টরা	-11.0285
▁দেখায়	-11.0286
▁ম্যাচেই	-11.0287
▁বিবিসির	-11.0295
▁জুভেন্টাস	-11.0298
▁জায়ান্ট	-11.0298
▁সৈনিক	-11.0298
▁সুনীল	-11.0298
▁অনুসারী	-11.0298
▁স্যানিটাইজার	-11.0299
▁ফজলুর	-11.03
▁লোভ	-11.03
▁বস্তি	-11.0301
▁গাঁজাসহ	-11.0302
▁ঝড়ো	-11.0303
▁নর্থ	-11.0303
▁দাসের	-11.0309
থেকে	-11.0309
+	-11.031
▁অন্তর	-11.031
এটি	-11.0312
▁v	-11.0313
▁ঘটতে	-11.0314
▁প্রসঙ্গ	-11.0317
সংবাদ	-11.0317
▁পদোন্নতি	-11.0321
▁শ্রাবণ	-11.0321
▁সিদ্ধিরগঞ্জ	-11.0321
▁অধ্যায়	-11.0321
▁নির্মাণাধীন	-11.0323
▁বাঙালির	-11.0324
▁সবই	-11.0325
▁খাস	-11.0327
▁৮০০	-11.033
▁বিজ	-11.033
▁ফেলুন	-11.033
সরকার	-11.0331
বাণিজ্য	-11.0333
অপরাহ্ন	-11.0333
সামাজিক	-11.0333
▁মার্কা	-11.0335
ল্ডার	-11.0337
▁আইসোলেশন	-11.0338
▁বিজয়ের	-11.0342
▁হরিণ	-11.0342
লিয়ান	-11.0343
▁কটাক্ষ	-11.0344
▁নৃশংস	-11.0344
▁হিজরি	-11.0344
▁আনিসুর	-11.0346
▁বদর	-11.0347
▁বস্ত্র	-11.0347
▁কাশ্মীরে	-11.0348
▁কাদেরের	-11.035
▁ওয়ার্ক	-11.0353
কক্ষ	-11.0354
ه	-11.0355
িক্যাল	-11.0356
▁মন্দিরের	-11.0357
▁অধি	-11.0359
▁সোনারগাঁ	-11.0363
▁প্রেমিকের	-11.0364
▁অনিয়মের	-11.0366
▁তদারকি	-11.0367
▁সভাকক্ষে	-11.0367
▁সংশোধিত	-11.0368
▁আজহা	-11.0368
▁লাফিয়ে	-11.037
▁দিনই	-11.0373
▁যাকে	-11.0376
▁বাণিজ্যমন্ত্রী	-11.0376
▁সিয়াম	-11.0377
ত্যু	-11.0377
▁ইন্সপেক্টর	-11.038
▁রিপোর্টার্স	-11.0382
▁বেড	-11.0389
▁ব্লা	-11.039
জাহান	-11.039
▁বিপদে	-11.0391
▁আত্মসাত	-11.0391
▁তর	-11.0395
৮৯	-11.0398
প্রত্যক্ষদর্শীরা	-11.04
▁নোমান	-11.0403
▁পাচ্ছি	-11.0404
▁রেঞ্জ	-11.0408
আইপি	-11.041
▁কর্মীর	-11.0412
▁দুশ্চিন্তা	-11.0414
▁পাল্টে	-11.0414
▁অর্ধশত	-11.0415
▁নগ্ন	-11.0416
মাধ্যম	-11.0418
▁লেবু	-11.0419
▁বোর্ডে	-11.0421
▁গোবিন্দ	-11.0424
▁স্ক্যান	-11.0429
▁ফিল্ড	-11.0431
▁আঘাতের	-11.0432
ইন্না	-11.0434
▁পাঠিয়েছেন	-11.0434
▁গঙ্গা	-11.0436
▁অংক	-11.0436
▁অনুমোদিত	-11.0437
▁রেস্তোরাঁ	-11.0437
▁লোহাগাড়া	-11.0437
▁আফজাল	-11.0438
▁মুজাহিদ	-11.0438
▁জীবিকা	-11.044
মেল	-11.0442
আমিন	-11.0444
▁ডাটা	-11.0449
bo	-11.0451
উত্তর	-11.0451
▁চালের	-11.0452
▁আরেকজন	-11.0459
▁ছাত্রদের	-11.0461
ঋ	-11.0461
▁পাটোয়ারী	-11.0461
▁মাঝামাঝি	-11.0461
▁গুজরাট	-11.0461
▁তিতাস	-11.0461
▁সমাধি	-11.0461
▁লিঙ্গ	-11.0468
ন্তা	-11.0475
▁জুমার	-11.0475
▁ধারনা	-11.0476
▁আজকাল	-11.0482
du	-11.0484
▁মতিঝিল	-11.0484
▁মাইলফলক	-11.0484
মারা	-11.0486
▁রাজ্যপাল	-11.0488
▁এনিয়ে	-11.0488
▁মর্যাদায়	-11.049
বক	-11.0493
ফিল	-11.0495
▁চাইছেন	-11.0495
▁কাঁধে	-11.0498
▁মালিকদের	-11.0506
বিসিবি	-11.0508
▁গর্ভবতী	-11.0508
▁রাইডার্স	-11.0508
▁দৃষ্টান্তমূলক	-11.0509
ভ্র	-11.0509
▁টেবিলের	-11.0511
৬৬	-11.0514
▁যাত্রীর	-11.0514
▁কর্মীকে	-11.0516
▁পঞ্চ	-11.0517
▁কর্তৃপক্ষকে	-11.0518
▁মডেলের	-11.052
শিক্ষার্থী	-11.0522
▁লাই	-11.0524
ill	-11.0525
▁অগ্নিকান্ডে	-11.0531
চাপ	-11.0531
▁শিবিরে	-11.0531
أ	-11.0532
▁উদ্বিগ্ন	-11.0532
▁রিসোর্ট	-11.0532
▁নিবিড়	-11.0532
▁মিন্নি	-11.0532
ুত	-11.0533
▁কোষ	-11.0538
▁চমকে	-11.0538
▁কমবে	-11.0542
▁ঘুমের	-11.0543
▁পাপ	-11.0544
▁মোহ	-11.0549
▁নিয়ন্ত্রিত	-11.0551
▁দশকে	-11.0552
▁দাদা	-11.0552
▁মুস্তাফিজ	-11.0553
▁স্থিতিশীল	-11.0553
▁উচিৎ	-11.0555
৬৭	-11.0558
্রে	-11.056
পেশার	-11.056
▁আরিয়ান	-11.0563
▁প্রশ্নে	-11.0565
তিয়া	-11.0567
থ্র	-11.0568
কল্যাণ	-11.0569
▁রানার	-11.0569
▁পরিষদে	-11.0576
▁শ্লোগান	-11.0579
▁অপপ্রচার	-11.0579
▁দলিল	-11.058
▁নিলাম	-11.058
▁শ্যামনগর	-11.0581
▁চ্যা	-11.0585
▁পোষ্ট	-11.0592
▁কোনোভাবেই	-11.0593
॥	-11.0594
বেসরকারি	-11.0595
▁সরেজমিনে	-11.0596
প্লা	-11.0596
▁ক্রু	-11.0598
▁বন্ড	-11.06
▁অস্বস্তি	-11.0603
▁নয়াদিল্লি	-11.0603
▁এরদোগান	-11.0603
▁লভ্যাংশ	-11.0603
о	-11.0603
▁মধ্যকা	-11.0603
▁ফারজানা	-11.0603
▁ফাহিম	-11.0603
▁ইউনিভার্সিটির	-11.0604
ong	-11.0605
▁করোনাকালে	-11.0607
▁মালিকের	-11.0607
নেস	-11.0608
▁প্রচারে	-11.0609
ভাগে	-11.061
▁উৎসাহিত	-11.061
▁জেরা	-11.0611
▁রক্তে	-11.0611
▁Sun	-11.0611
▁আজীবন	-11.0614
▁বিনিয়োগকারীদের	-11.0616
▁স্কুলছাত্রী	-11.0617
খী	-11.0617
▁অস্ত্রসহ	-11.0617
▁দপ্তরে	-11.062
▁স্রোত	-11.0622
▁মান্দা	-11.0622
কাঁ	-11.0623
▁আকস্মিক	-11.0627
▁টোয়েন্টিফোর	-11.0627
▁যুগ্ন	-11.0627
▁অগ্নিকাণ্ডে	-11.0629
▁প্রত্যাশী	-11.0633
পট	-11.0633
▁বাজ	-11.0634
▁কোচের	-11.0637
চ্য	-11.0637
▁ডিলার	-11.0642
▁পিএসসি	-11.0643
▁সমন্বয়ক	-11.0643
ছড়া	-11.0644
ব্যাপী	-11.0645
▁নিচ্ছি	-11.0645
·	-11.0651
▁যাঁরা	-11.0651
▁গোলরক্ষক	-11.0652
▁জঙ্গী	-11.0652
নায়ক	-11.0653
যো	-11.0653
▁অপরের	-11.0653
▁লিপ্ত	-11.0654
▁বাংলাদেশিদের	-11.066
▁জিতেছেন	-11.0663
রেখা	-11.0663
▁অপশন	-11.0665
▁ডেক্স	-11.0666
সংক্রান্ত	-11.0667
▁পোশাকে	-11.0667
▁ক্লিনিকে	-11.0669
▁মধ্যরাত	-11.067
▁আমিরাতে	-11.0672
▁আর্জেন্টাইন	-11.0675
▁কিবরিয়া	-11.0675
▁ক্ষুধা	-11.0675
▁তোলপাড়	-11.0675
▁নগরীতে	-11.0676
▁কাঁপ	-11.0677
▁নৌকায়	-11.0679
▁পৌছে	-11.068
▁স্ট্রোক	-11.068
▁ছাপ	-11.0682
▁তীর	-11.0684
▁পট	-11.0689
▁ওষুধের	-11.0689
Live	-11.0691
▁রোনালদোর	-11.0698
▁সেমিনারে	-11.0698
এমন	-11.0698
বোন	-11.0699
▁একাডেমী	-11.0699
▁জাফরুল্লাহ	-11.0701
▁মস্কো	-11.0701
▁ইতালিতে	-11.0702
▁রন	-11.0702
▁খেলবেন	-11.0704
▁কাবুল	-11.0704
▁ব্লাড	-11.0708
▁সোম	-11.0711
▁অপূর্ব	-11.0711
`	-11.0714
অপরাহ্ণ	-11.0715
▁newspaper	-11.0716
▁মুন্সি	-11.0717
জুডিশিয়াল	-11.0723
▁কণ্ঠস্বর	-11.0723
▁এখানেই	-11.0723
▁Mu	-11.0724
স্কা	-11.0725
▁ক্লাবটি	-11.0727
ঘাটা	-11.0731
ালী	-11.0737
▁ধরিয়ে	-11.0738
্প	-11.0738
গ্রাফি	-11.074
▁উঠেছিল	-11.0741
▁ফাঁদে	-11.0742
ফুট	-11.0747
▁পারমাণবিক	-11.0747
▁অংশগ্রহন	-11.0747
▁পার্থক্য	-11.0747
▁দূর্ঘটনা	-11.0748
▁দুইজনকে	-11.0749
▁ফ্রান্সে	-11.0749
▁ব্যবহারকারীরা	-11.0749
▁৬টায়	-11.0752
▁Sangbad	-11.0756
▁সেনারা	-11.0762
▁জাপা	-11.0762
▁২০০০	-11.0764
▁আদি	-11.0765
দ্বার	-11.0766
▁স্থাপিত	-11.0771
▁বিল্লাল	-11.0771
▁ফয়েজ	-11.0772
▁এটিই	-11.078
▁গুগলের	-11.0782
▁বাগানে	-11.0782
▁বাসিন্দাদের	-11.0783
পাঠ	-11.0785
▁মহামারীর	-11.0785
▁সিরিয়াল	-11.0786
▁অনুশীলনে	-11.0791
▁সুনামগঞ্জে	-11.0795
▁অনুপ্রেরণা	-11.0795
▁ফার্স্ট	-11.0795
▁ভাসমান	-11.0796
▁ইবনে	-11.0796
ِي	-11.0796
▁প্রবন্ধ	-11.0798
▁সর্বত্র	-11.0799
মেদ	-11.08
▁সংঘট	-11.08
▁হত্যায়	-11.0802
▁মক্কা	-11.0802
▁ঢল	-11.0804
aj	-11.0804
▁চিপ	-11.0804
▁হ্যাঁ	-11.0805
▁রড	-11.0807
পিং	-11.0809
▁New	-11.0814
▁বুদ্ধিজীবী	-11.082
▁নওয়াজ	-11.082
▁জহুরুল	-11.0823
▁পানীয়	-11.0823
▁যাদব	-11.0823
▁তপন	-11.0824
▁উহান	-11.0826
▁পিবিআই	-11.0827
▁দাঁড়ালো	-11.0827
▁উপপরিদর্শক	-11.0828
▁ফিলিস্তিন	-11.0828
থী	-11.0829
▁দিবেন	-11.083
▁মালি	-11.083
ীক	-11.0836
▁মুক্তিযোদ্ধাদের	-11.0836
মুখে	-11.0837
▁৬টার	-11.0838
হীনতা	-11.084
▁পশ্চিমবঙ্গে	-11.0841
▁উত্থান	-11.0844
▁মৌখিক	-11.0844
▁নবাগত	-11.0844
▁বৃক্ষ	-11.0845
▁রহস্যজনক	-11.0845
▁জাবেদ	-11.0847
▁ইভেন্ট	-11.0848
▁ফলাফলে	-11.0848
▁লেগ	-11.0848
▁টুডে	-11.085
▁ইন্দোনেশিয়া	-11.0851
▁পকেট	-11.0851
টোয়েন্টিতে	-11.0858
▁সম্প্রদায়	-11.086
▁নোয়া	-11.0867
▁হিল	-11.0869
▁জীবাণু	-11.0869
▁নিখিল	-11.0869
▁প্লাবিত	-11.0869
▁শেরেবাংলা	-11.0869
▁সংস্কারের	-11.087
▁বিশ্বব্যাংক	-11.087
▁আকন্দ	-11.087
▁ট্রেলার	-11.087
▁ভরা	-11.087
▁নজির	-11.0872
চন	-11.0873
▁কিস্তি	-11.0877
গ্যা	-11.0883
▁বায়ো	-11.0883
▁মেগা	-11.0885
▁ছেলেদের	-11.0886
▁পীরগঞ্জ	-11.0889
▁সৈন্য	-11.0893
▁বড়লেখা	-11.0893
▁শ্বাসরোধ	-11.0893
bi	-11.0894
▁সুরক্ষিত	-11.0894
▁পৃষ্ঠা	-11.0895
▁জানুয়ারিতে	-11.0895
দ্রা	-11.0896
▁ইউএন	-11.0897
▁সুব্রত	-11.0897
▁ইউপির	-11.0898
▁পুলিশিং	-11.0898
▁হাজারো	-11.09
▁দক্ষিন	-11.0903
▁দায়িত্বরত	-11.0903
বাড়িতে	-11.0903
▁Paper	-11.0908
মলা	-11.0913
ক্ষমতা	-11.0914
▁পেয়েছিল	-11.0915
▁আনন্দিত	-11.0916
▁সময়সীমা	-11.0916
বিদ্বেষ	-11.0918
▁বিদ্যুৎস্পৃষ্ট	-11.0918
▁BANGLA	-11.0918
▁কোচবিহার	-11.0918
▁অশ্বিন	-11.0918
▁প্ল্যান	-11.0919
▁ধোয়া	-11.0921
▁অসুবিধা	-11.0922
▁এসএমএস	-11.0923
▁গর্ত	-11.0923
▁আনন্দবাজার	-11.0926
▁প্রতিযোগী	-11.0927
▁কামনায়	-11.0927
▁খলিল	-11.0928
বৃত্তি	-11.0936
▁তাহিরপুর	-11.0942
▁বীমা	-11.0943
▁সুনির্দিষ্ট	-11.0943
▁ফাইজার	-11.0944
▁সংস্থাটির	-11.0944
▁তোপ	-11.0949
আলা	-11.0949
▁জিতলে	-11.0954
▁তালাক	-11.0954
▁অভিমান	-11.0958
পস	-11.0959
গুলিকে	-11.0964
ea	-11.0964
▁সিলভা	-11.0965
▁চায়ের	-11.0965
▁রায়পুর	-11.0966
▁দিনমজুর	-11.0967
▁খাদ্যসামগ্রী	-11.0968
াইয়ের	-11.097
ালে	-11.0977
▁na	-11.0977
▁পাকিস্তানকে	-11.0978
▁নিখোঁজের	-11.0978
▁রুহ	-11.0979
ত্যা	-11.0985
▁তাস	-11.099
▁ম্যানেজিং	-11.0992
ধরনের	-11.0992
▁গল	-11.0992
▁বাউ	-11.0994
র্ঘ	-11.0994
র্নি	-11.0995
▁আনন্দে	-11.0995
ge	-11.0995
▁শিক্ষককে	-11.0996
▁রবিন	-11.0997
▁চালককে	-11.0999
েক্স	-11.1001
হাদ	-11.1002
▁প্রতিভা	-11.1004
▁খাচ্ছে	-11.1006
▁অয়েল	-11.1007
▁দীর্ঘদিনের	-11.1007
▁মাদ্রাসায়	-11.1007
দ্বীপ	-11.101
৮৫	-11.1012
▁বাস্তবতা	-11.1015
▁সেলাই	-11.1016
▁অপারেটিং	-11.1017
▁উৎপাদিত	-11.1017
▁কেশবপুর	-11.1017
▁ব্যায়াম	-11.1018
▁রোজিনা	-11.1018
▁গাইবান্ধার	-11.1018
ga	-11.1019
▁কুড়িগ্রামের	-11.102
▁ডাকে	-11.102
সুম	-11.1021
▁ভাটা	-11.1024
▁সজল	-11.1024
▁নিরসনে	-11.103
▁লক্ষ্মী	-11.1031
▁সাইটে	-11.1032
▁অ্যাপটি	-11.1034
▁ঘাঁটি	-11.104
ঢ়	-11.1041
▁অত্যাধুনিক	-11.1041
▁হুসেইন	-11.1041
▁পাওনা	-11.1042
▁ট্রান্স	-11.1042
বিআই	-11.1044
শ্রম	-11.1045
পালন	-11.1045
চীন	-11.1051
▁চ্যাম্পিয়নস	-11.1051
উপ	-11.1053
▁বিভ্রান্তি	-11.1053
▁অপমান	-11.1055
▁ইউটিউবে	-11.1055
▁একাই	-11.1056
▁গণভবন	-11.1056
▁নগরী	-11.1058
▁দাখিলের	-11.1059
▁নারায়ণগঞ্জে	-11.1062
▁মধ্যপ্রাচ্য	-11.1062
▁রয়ে	-11.1062
পরে	-11.1066
▁জোরপূর্বক	-11.1067
▁পরিস্কার	-11.1068
▁মনজুর	-11.1069
▁ঝুঁকিতে	-11.1069
▁দুবাইয়ে	-11.1069
৮৭	-11.1072
▁দিবা	-11.1074
ي	-11.1075
▁ফিলিস্তিনের	-11.1075
▁পর্যায়	-11.1076
▁আটটা	-11.1076
▁আতঙ্কিত	-11.1077
▁লাইক	-11.1078
▁আতা	-11.1079
▁মুঠোফোনে	-11.1082
▁গোবিন্দগঞ্জ	-11.1082
▁এটিকে	-11.1082
৭৯	-11.1083
কাঠি	-11.1085
▁বেগ	-11.1088
ডেস্ক	-11.1088
▁আষাঢ়	-11.1091
▁প্লাটফর্ম	-11.1091
▁সিএনএন	-11.1091
▁আতিকুল	-11.1095
লিক	-11.1096
▁হারাতে	-11.1099
▁বোলারদের	-11.1099
▁পিঠা	-11.11
▁প্রকৃতির	-11.1101
গড়া	-11.1101
▁একইভাবে	-11.1102
▁অগ্র	-11.1107
মিক	-11.1109
এখন	-11.1113
▁বুদ্ধ	-11.1114
▁অ্যাপ্লিকেশন	-11.1116
▁চেয়ারপার্সন	-11.1116
▁ফ্র্যাঞ্চাইজি	-11.1116
▁ন্যায্য	-11.1117
▁নন্দীগ্রাম	-11.1117
▁লুৎফর	-11.1117
▁পরীক্ষামূলক	-11.1119
▁গৃহহীন	-11.1119
▁উদ্ভাবন	-11.112
▁১৪৪	-11.1123
▁ব্লকের	-11.1124
পাশা	-11.1125
▁অভিভাবকদের	-11.1125
▁সেক্স	-11.1125
▁বরাবরই	-11.1125
▁দুপুরের	-11.1128
▁অ্যাটাক	-11.1131
প্রথম	-11.1136
▁শামস	-11.1141
ক্ষেত্রে	-11.1141
▁কোতোয়ালি	-11.1142
▁কমার্স	-11.1142
▁মামুনু	-11.1144
▁সাহসী	-11.1149
▁১৩টি	-11.1149
লিস	-11.115
▁মার্কেটে	-11.1152
৬৮	-11.1153
ওয়াই	-11.1159
▁pro	-11.1161
দপ্তর	-11.1162
▁সুবাদে	-11.1167
▁গোলাপ	-11.1169
▁মুখ্যমন্ত্রীর	-11.1172
▁গ্রহণযোগ্য	-11.1174
▁কান্না	-11.1174
▁তারকাদের	-11.1177
▁খাওয়ানো	-11.1177
▁নির্মাণে	-11.1177
▁সুমি	-11.1187
▁সংশোধনী	-11.1189
বার্ষিক	-11.1189
▁গাংনী	-11.1192
▁তোমাদের	-11.1192
▁সংগীতশিল্পী	-11.1193
▁কৃতি	-11.1194
▁মিয়াকে	-11.1195
▁বরগুনার	-11.1195
▁জন্মবার্ষিকী	-11.1196
▁জেগে	-11.12
▁অত	-11.12
▁চট	-11.12
▁বসেই	-11.12
পণ	-11.1201
▁প্রক্রিয়ায়	-11.1205
▁ভাবা	-11.1206
▁দেখ	-11.1206
▁বিকৃত	-11.1208
কর্তা	-11.1213
▁খবরটি	-11.1216
▁রীতি	-11.1217
▁মজিবুর	-11.1217
▁সজিব	-11.1218
▁সেমি	-11.1218
ভাষ	-11.1219
▁পেইজ	-11.122
▁কর্তা	-11.122
▁আইনজীবীরা	-11.122
▁টোল	-11.1222
▁প্রচারিত	-11.1226
কিছু	-11.123
▁ব্যাচের	-11.1234
▁কোম্পানিগুলো	-11.1234
▁ইয়ার	-11.1237
গাঁ	-11.1238
ুদ্দীন	-11.1238
▁সমূহ	-11.124
▁কমানো	-11.1241
▁মোসাদ্দেক	-11.1243
▁জাকারিয়া	-11.1243
পড়	-11.1244
▁গার্ল	-11.1246
কার্ড	-11.1248
▁মার্কেটের	-11.1252
now	-11.1257
ওয়েল	-11.1257
প্রীত	-11.126
▁সাক্ষাৎকার	-11.1263
াদেশ	-11.1264
▁প্রে	-11.1265
▁অপহৃত	-11.1268
▁ওমিক্রন	-11.1268
▁ফাঁকি	-11.1268
▁আবাসন	-11.1268
ার্ড	-11.1269
▁জিনিসপত্র	-11.127
শনাল	-11.1272
▁মারধরের	-11.1274
▁ভাইরাসটি	-11.1275
▁অনেকদিন	-11.1277
os	-11.1277
▁ভারি	-11.1278
▁মোহা	-11.1279
▁মিশ্রণ	-11.1279
ক্তা	-11.128
▁ডাউন	-11.1281
▁দিগন্ত	-11.1284
▁পূজার	-11.1292
▁ধাপের	-11.1293
س	-11.1294
▁যো	-11.1294
▁গেজেট	-11.1294
▁আস্তে	-11.1294
▁কৃতিত্ব	-11.1295
ঠো	-11.1296
▁ছাড়েন	-11.1301
▁তাইজুল	-11.1301
▁চলাচলে	-11.1303
▁বিয়েতে	-11.1303
▁হয়ত	-11.131
▁শাল	-11.1314
নির্ভর	-11.1316
SYLHET	-11.1319
▁হিউম্যান	-11.1319
▁গণসংযোগ	-11.132
কাপ	-11.132
▁সীমাবদ্ধ	-11.132
▁যুবদল	-11.132
▁ক্ষত	-11.1325
▁প্রবাহিত	-11.1325
▁যোগে	-11.1326
্বি	-11.1327
▁অজয়	-11.133
▁শাহেদ	-11.1331
▁খাট	-11.1333
▁বিপিএলের	-11.1339
▁পিছু	-11.134
▁জানাচ্ছে	-11.1341
▁মাশরাফির	-11.1341
▁৫টায়	-11.1345
▁ছুঁয়ে	-11.1345
▁লাইফস্টাইল	-11.1345
▁আহম্মদ	-11.1345
▁শাপলা	-11.1345
▁মাইকেল	-11.1347
নির্বাচন	-11.1349
▁বিতর্কের	-11.1357
und	-11.1357
▁বাদি	-11.1359
▁অভিনেতার	-11.136
▁কিশোরগঞ্জের	-11.1361
▁আমন	-11.1364
▁গ্রেপ্তারকৃত	-11.1368
▁বাগেরহাটে	-11.1369
▁ঝা	-11.1372
▁অজ্ঞাতনামা	-11.1372
▁যথা	-11.1372
▁শীর্ষস্থানীয়	-11.1373
▁চেয়েছে	-11.1373
▁গল্পে	-11.1374
▁স্থল	-11.1375
বহির্ভূত	-11.1375
▁আমা	-11.1377
▁বটে	-11.1377
sa	-11.1378
▁আনুশকা	-11.1382
▁টক	-11.1384
▁বর্	-11.1385
▁মোটরসাইকেলে	-11.1386
▁সংসারে	-11.1387
▁An	-11.1387
স্বজন	-11.1387
▁গৌর	-11.1391
▁ছড়িয়েছে	-11.1395
▁তত্ত্বাবধায়ক	-11.1396
▁দাম্পত্য	-11.1396
▁সারোয়ার	-11.1396
▁কেনাকাটা	-11.1397
▁এনায়েত	-11.1397
▁সেলিনা	-11.1398
▁কর্মসূচীর	-11.1407
ষণ	-11.1408
▁একদিনের	-11.1408
▁পাচারকারী	-11.1414
▁কৃষিবিদ	-11.1414
▁পুনর্বাসন	-11.1422
▁ফরম্যাটে	-11.1422
▁ঝড়ের	-11.1423
▁সততা	-11.1423
▁সাইদুর	-11.1426
em	-11.1427
ভূত	-11.1434
▁ব্যাটালিয়নের	-11.1441
▁নিউইয়র্কে	-11.1443
▁বিক্ষোভে	-11.1443
লিয়ে	-11.1447
▁স্পেনের	-11.1448
▁জ্যৈষ্ঠ	-11.1448
▁মুস্তফা	-11.1448
د	-11.1448
▁রবীন্দ্রনাথ	-11.1449
▁রাউন্ডে	-11.145
▁রূপে	-11.145
ion	-11.145
▁ঘটিয়েছে	-11.1451
▁বাসস	-11.1451
▁বিবরণ	-11.1456
▁রেট	-11.1456
▁খোঁজে	-11.1456
▁শক্তির	-11.1459
▁মেরি	-11.1464
ভোট	-11.1465
চিন	-11.1467
▁বুদ্ধি	-11.1469
▁অশ্লীল	-11.1474
▁ইফতেখার	-11.1474
▁পহেলা	-11.1474
▁মুহুর্তে	-11.1474
▁ব্রু	-11.1475
▁প্রখ্যাত	-11.1478
▁মাত	-11.148
▁আজিজুর	-11.1483
▁হার্ড	-11.1483
▁হেফাজতের	-11.1484
▁ঘটিয়ে	-11.1485
▁বাদাম	-11.1491
হল	-11.1492
▁খায়ের	-11.1493
ধারণ	-11.1494
▁পাহাড়ের	-11.1496
সংলগ্ন	-11.1498
▁জ্বল	-11.1498
▁নিম	-11.1499
view	-11.15
▁সোবহান	-11.15
▁আখতারুজ্জামান	-11.1502
▁লেখার	-11.1503
▁মেহের	-11.1505
▁কমছে	-11.1507
▁২০০১	-11.1509
কালের	-11.1514
▁১টা	-11.1517
▁শত্রুতা	-11.1521
▁ইনস্টিটিউটের	-11.1522
▁Mar	-11.1523
▁সংগঠনটি	-11.1525
▁উপার্জন	-11.1526
▁হাওড়া	-11.1526
▁পর্ষদ	-11.1526
▁নন্দী	-11.1527
▁নামাজে	-11.1527
▁চক	-11.1529
▁খুনি	-11.153
ঝা	-11.153
▁এবিএম	-11.1533
▁মাতৃ	-11.1536
▁দর্শকরা	-11.1538
▁গোয়াল	-11.154
▁মোটরসাইকেলের	-11.154
▁আমিরুল	-11.154
per	-11.1542
▁লালপুর	-11.1545
fi	-11.1545
▁ইন্ডিয়ার	-11.1547
▁পৌঁছাতে	-11.155
mp	-11.1551
▁আইসি	-11.1552
▁নাইজেরিয়া	-11.1552
▁কলম্বিয়া	-11.1553
▁সুবর্ণ	-11.1555
▁আটককৃতরা	-11.1557
▁পেলো	-11.1559
▁ভাঙ্গন	-11.1562
▁মুন্সিগঞ্জের	-11.1564
বন্ধ	-11.1565
নদী	-11.1565
▁ক্যাশ	-11.1571
▁মানি	-11.1573
▁জলে	-11.1575
▁ক্যাপ	-11.1576
X	-11.1577
▁আশাবাদ	-11.1579
ধর্মী	-11.1579
▁পল্টন	-11.1579
▁ব্রিগেডিয়ার	-11.1579
▁সাজিয়ে	-11.1579
▁আপত্তিকর	-11.158
▁লিগা	-11.1581
জয়ী	-11.1582
▁নৈতিক	-11.1584
▁নিধন	-11.1584
▁ইরাকের	-11.1584
▁চারজনকে	-11.1584
▁সোনারগাঁও	-11.1585
▁সূচকের	-11.1586
▁প্রশ্নপত্র	-11.1587
▁পাশেই	-11.159
▁বনাম	-11.159
▁হারা	-11.1599
▁ধোনির	-11.1601
সমূহের	-11.1602
ঘটনা	-11.1603
কমিশনার	-11.1603
▁জ্ঞাপন	-11.1605
▁জামা	-11.1605
▁বাঁশখালী	-11.1606
▁ইসরাইলি	-11.1608
▁কারিনা	-11.1608
▁মাজেদ	-11.161
দ্দা	-11.1611
▁শাশুড়ি	-11.1621
▁ভোলায়	-11.1624
▁পদ্ম	-11.1628
▁Protidin	-11.1631
▁প্রত্যাবাসন	-11.1631
▁মাহাবুব	-11.1631
▁রাউজান	-11.1631
▁জোরালো	-11.1631
▁গণ্যমান্য	-11.1631
▁ঢাক	-11.1632
▁তরুণদের	-11.1633
▁বাড়িঘর	-11.1635
▁রেখা	-11.1637
▁বক্তৃতায়	-11.1641
▁অসুস্থতার	-11.1642
▁দায়িত্বপ্রাপ্ত	-11.1643
▁আছ	-11.1643
▁হারানোর	-11.165
▁সেদিকে	-11.1653
▁আড়ালে	-11.1653
▁পর্ন	-11.1656
▁ইরানি	-11.1656
ঘরে	-11.1657
▁ব্লু	-11.1658
▁সর্বাত্মক	-11.1659
▁শিক্ষিত	-11.166
▁ফুটপাত	-11.166
▁জেএসসি	-11.166
▁জামাই	-11.1661
▁→	-11.1661
▁ফটক	-11.1663
বুক	-11.1666
▁`	-11.1667
▁আমীন	-11.1667
▁প্রেক্ষাপটে	-11.1668
▁জানিয়েছিল	-11.167
▁লোকমান	-11.1671
▁২টা	-11.1671
▁সমাধানের	-11.1675
▁পাসের	-11.1677
হানি	-11.1677
▁হৃদয়ে	-11.1678
▁নেইমারের	-11.1679
এমএস	-11.168
▁অগ্রহায়ণ	-11.1684
▁ইলাইহি	-11.1684
▁ভ্যারিয়েন্ট	-11.1684
▁কায়সার	-11.1684
▁বেপারী	-11.1684
ইউপি	-11.1685
▁Page	-11.1686
▁বসতঘর	-11.1691
▁বসবে	-11.1694
▁গোপালগঞ্জের	-11.1695
▁চান্দ	-11.1695
▁করিনি	-11.1698
▁ঘাম	-11.17
▁এমসি	-11.1705
▁যুগের	-11.1705
▁জলের	-11.1705
▁রমনা	-11.1709
▁ভাবেই	-11.171
▁গুড়	-11.171
▁এক্সিকিউটিভ	-11.1711
▁রুখতে	-11.1711
▁প্রোটিন	-11.1711
নতুন	-11.1712
▁মহাসাগর	-11.1713
▁ভবিষ্যত	-11.1713
▁চুক্তিবদ্ধ	-11.1714
▁সমীক্ষা	-11.1714
▁লং	-11.1715
▁চাইলেন	-11.1715
সিম	-11.1716
▁এখান	-11.1717
৭৬	-11.1717
▁ব্রেক	-11.1719
▁প্রেসক্লাবে	-11.1719
ai	-11.1721
▁কূটনীতিক	-11.1725
▁সফরকারী	-11.1725
▁আক্রমণে	-11.1727
ect	-11.1728
▁দেই	-11.1732
▁বদলা	-11.1734
▁লাগাতে	-11.1736
ib	-11.1737
▁টলিউড	-11.1738
▁লাস্টনিউজবিডি	-11.1738
▁সামর্থ্য	-11.1738
▁টয়লেট	-11.1738
▁অঙ্গনে	-11.1738
▁এলেন	-11.1739
▁বসেন	-11.1739
▁কায়েস	-11.1739
শাসিত	-11.1741
▁বিশ্বসেরা	-11.1741
▁মাহফুজুর	-11.1741
▁অনুপ্রবেশ	-11.1743
প্প	-11.1744
▁বিশেষভাবে	-11.1751
▁স্বেচ্ছায়	-11.1753
▁শুরুটা	-11.1755
▁তরিকুল	-11.1758
▁সমর্থনে	-11.1761
সম্মান	-11.1766
▁জামিনে	-11.1767
▁হিংসা	-11.1768
▁গর্বিত	-11.1768
ন্ট্রি	-11.1771
▁ব্যবসায়িক	-11.1773
▁গাওয়া	-11.1775
▁অন্ধ	-11.1776
নবী	-11.1777
▁লাভের	-11.1778
▁ববি	-11.1779
▁পাম্প	-11.1782
▁মশার	-11.1786
ct	-11.1788
▁গণিত	-11.1789
▁পুষ্পস্তবক	-11.1791
▁লটারি	-11.1791
▁খেজুর	-11.1792
if	-11.1793
শেখ	-11.1799
▁সরবরাহকারী	-11.18
▁বকুল	-11.1801
▁গুলশানে	-11.1802
▁ব্যানার	-11.1809
▁তেহরান	-11.1818
▁দাউদ	-11.1819
▁লেভেল	-11.182
আইডি	-11.182
▁৩টা	-11.1821
▁চলন্ত	-11.1822
▁ভার্	-11.1822
▁চারপাশে	-11.1823
▁মূল্যবান	-11.1824
▁ঘড়ি	-11.1828
সাস	-11.1833
▁ছুট	-11.1833
সিএল	-11.1836
▁উপস্থাপনা	-11.1843
▁পত্রিকায়	-11.1844
প্রার্থী	-11.1846
▁বশির	-11.1846
▁শুষ্ক	-11.1846
▁স্প্রে	-11.1846
▁কণ্ঠশিল্পী	-11.1847
▁হাজিরা	-11.1848
ভান	-11.185
▁তিনবার	-11.185
▁ইসলামাবাদ	-11.1854
গ্রস্ত	-11.1855
▁Banglar	-11.1859
▁ব্রিজের	-11.1862
ংয়ের	-11.1863
ng	-11.1864
▁মানবতার	-11.1865
▁দ্র	-11.1866
শ্য	-11.1866
শিক্ষক	-11.187
▁প্রাঙ্গনে	-11.1872
▁সাজঘরে	-11.1872
▁পারিশ্রমিক	-11.1873
▁বসবাসরত	-11.1874
▁ইস্ট	-11.1875
▁উচ্চশিক্ষা	-11.1876
▁আবৃত্তি	-11.1878
▁খসরু	-11.188
আস	-11.1883
▁কাজেই	-11.1884
▁কাঁচ	-11.1885
▁ঘরবাড়ি	-11.1888
▁সমৃদ্ধি	-11.1892
▁সংঘের	-11.1894
ল্যা	-11.1898
▁ঢোকা	-11.1899
▁কবলিত	-11.1899
▁COVID	-11.1899
▁অ্যাঞ্জেল	-11.1899
▁ইটভাটা	-11.1899
▁শিরীন	-11.1899
▁মুখার্জি	-11.19
▁হাঁট	-11.1902
অনু	-11.191
▁রাশি	-11.1915
▁ছুরিকাঘাত	-11.1916
▁রুপা	-11.1919
স্থলে	-11.1919
াধিকার	-11.1924
▁আনু	-11.1925
▁ক্যাটাগরিতে	-11.1925
▁জামিল	-11.1925
¤	-11.1926
▁মেগাপিক্সেল	-11.1926
▁মেহেদি	-11.1926
▁ইউনুস	-11.1926
▁সর্দি	-11.1929
▁টাউন	-11.193
og	-11.193
▁ব্যর্থতা	-11.1931
স্বাস্থ্য	-11.1936
▁লায়ন	-11.1936
▁সোজা	-11.1937
▁ال	-11.1938
▁তৎপর	-11.1942
▁শিবিরের	-11.1949
▁রাখছেন	-11.195
▁টিটু	-11.1951
দক্ষিণ	-11.1952
▁হৃদরোগ	-11.1952
▁ক্ষেত্রেও	-11.1952
ts	-11.1953
▁তিনটা	-11.1953
▁মোহাম্মাদ	-11.1954
▁বুলেট	-11.1954
▁দণ্ড	-11.1955
▁পাউন্ড	-11.1956
▁কোমর	-11.1956
প্লে	-11.1963
ংগা	-11.1964
▁পারলেও	-11.1966
চো	-11.1969
▁আনোয়ারা	-11.1969
▁শিল্পীদের	-11.1975
az	-11.1978
▁ইজিবাইক	-11.1981
▁বাজেটের	-11.1983
▁বঙ্গোপসাগর	-11.1984
▁আহাদ	-11.1991
য়েন্স	-11.1991
ice	-11.1992
▁গ্রেফতারি	-11.1993
kha	-11.1994
বঙ্গ	-11.1994
▁সরানো	-11.1996
▁গর্ব	-11.2005
▁দুইদিন	-11.2007
▁জনপদ	-11.2008
▁উৎপাদনের	-11.2008
▁ধূমপান	-11.2008
▁শ্রেনী	-11.2008
▁ফিলিপাইন	-11.2008
▁দর্শনার্থী	-11.2009
▁আস্তানা	-11.2009
▁এমনটি	-11.2009
রেট	-11.2024
বার্গ	-11.2026
▁আনেন	-11.2026
▁অভ	-11.2031
▁নিয়েছিল	-11.2033
▁বাস্তবে	-11.2034
▁পৃষ্ঠপোষক	-11.2036
▁সিডনি	-11.2036
▁হুইপ	-11.2036
▁বিড়াল	-11.2036
▁কাদির	-11.2036
▁ফুটে	-11.2037
সমাজ	-11.2042
▁প্লাজা	-11.2043
▁সেজে	-11.2044
উদ	-11.2046
ت	-11.2046
▁এমডি	-11.2048
▁অধীন	-11.2054
▁রাখলে	-11.2058
র্তি	-11.2059
বলে	-11.2061
▁লাউ	-11.2061
মেলা	-11.2061
▁শিবপুর	-11.2061
▁পেরেছে	-11.2062
▁চৌদ্দগ্রাম	-11.2063
▁উপকারিতা	-11.2064
▁আলামত	-11.2065
▁কসবা	-11.2065
বাছাই	-11.2066
হ্ন	-11.2069
wa	-11.2072
▁লিডার	-11.2075
▁ভূমিকম্পে	-11.2078
াবলী	-11.208
▁বিজয়ীদের	-11.208
▁গিল	-11.2081
▁নীলফামারীর	-11.2083
▁দখলের	-11.209
▁টোকিও	-11.2091
▁মহম্মদ	-11.2091
▁জিল্লুর	-11.2091
▁সোসাইটির	-11.2092
▁পিসিআর	-11.2096
▁পরগনা	-11.2096
▁মুহূর্তের	-11.2098
▁বিলম্ব	-11.21
রযাব	-11.2101
▁দুনিয়ায়	-11.211
▁চলচ্চিত্রটি	-11.211
ুনি	-11.2111
সেরা	-11.2114
৭৮	-11.2114
▁নী	-11.2115
পিএম	-11.2116
▁আর্মি	-11.2116
▁আচমকা	-11.2119
▁জেএমবি	-11.2119
▁উত্তপ্ত	-11.2119
▁বাহিরে	-11.2119
▁বর্বর	-11.2119
আন্তর্জাতিক	-11.2121
▁বিল্লাহ	-11.2123
da	-11.2126
▁আভাস	-11.2127
▁প্রসব	-11.2128
▁খনি	-11.2128
▁বাবদ	-11.2129
সভায়	-11.2131
▁মিট	-11.2134
▁প্রসাদ	-11.2138
tri	-11.2139
▁প্রকাশক	-11.214
▁হাতির	-11.2141
▁তাজা	-11.2142
▁তালেবানের	-11.2142
▁Print	-11.2146
▁সংস্পর্শে	-11.2146
▁মালিকানাধীন	-11.2147
▁ডিউটি	-11.2147
▁আড়াইহাজার	-11.2147
▁সমতা	-11.2148
▁ব্যাহত	-11.2148
▁জঙ্গিদের	-11.2149
▁আলাপকালে	-11.2149
▁পাহারা	-11.2151
▁সমমানের	-11.2152
ুরিয়া	-11.2152
▁ভেজাল	-11.2154
▁প্রশাসনকে	-11.2161
▁নাগরিকের	-11.217
▁নেয়নি	-11.2171
▁কন্	-11.2172
▁জিজ্ঞাসা	-11.2173
▁নাটোরে	-11.2174
▁লেফটেন্যান্ট	-11.2174
▁স্বয়ং	-11.2174
▁প্রত্যেককে	-11.2174
▁মনোভাব	-11.2175
▁পূর্তি	-11.2175
▁বৃহৎ	-11.2175
▁অভিহিত	-11.2175
▁এখানকার	-11.2177
▁অ্যাসিড	-11.2177
▁বৃদ্ধের	-11.2178
সেনা	-11.2179
▁হেরেছে	-11.218
অর্থ	-11.2184
mi	-11.2186
▁শিমুলিয়া	-11.219
▁বিনিয়োগের	-11.219
▁মৃদু	-11.2195
যুব	-11.2198
oll	-11.22
▁প্রত্যক্ষ	-11.2202
▁আর্কাইভ	-11.2202
▁শতাব্দী	-11.2202
▁বেইজিং	-11.2202
মধ্যে	-11.2202
▁ওমরাহ	-11.2202
▁কীর্তি	-11.2204
▁For	-11.2206
▁মেরিন	-11.2207
মন্ত্রীর	-11.2208
▁বর্গ	-11.2209
▁তারকারা	-11.2209
▁মাদার	-11.2213
▁আতিক	-11.2215
▁Coxsbazar	-11.2218
▁মিলছে	-11.2218
ফিজ	-11.2221
mo	-11.2224
▁বিপ	-11.2225
▁প্রথমার্ধে	-11.2227
▁কৃষিমন্ত্রী	-11.2227
▁নামছে	-11.2228
▁টেকনিক্যাল	-11.223
▁ত্রিদেশীয়	-11.223
▁মধ্যদিয়ে	-11.223
▁Hour	-11.2231
▁ঢামেক	-11.2233
ওয়্যার	-11.2235
▁লাইনের	-11.2236
য়েব	-11.2236
▁অস্কার	-11.2237
▁ভুগছেন	-11.2239
৬৩	-11.2239
▁হামাস	-11.2239
মেট	-11.224
৭৪	-11.2241
বিচার	-11.2243
▁শচীন	-11.2244
কমিটি	-11.2244
▁ঘটেনি	-11.225
▁টিউন	-11.2251
ru	-11.2254
▁প্রত্যেকটি	-11.2255
ডেম	-11.2256
▁কাবা	-11.2257
▁ইমতিয়াজ	-11.2258
▁দ্বিতীয়ার্ধে	-11.2258
▁যন্ত্রপাতি	-11.2258
লাইট	-11.2259
মাহ	-11.2259
▁ইমেজ	-11.2261
একটি	-11.2261
▁মুহিত	-11.2262
▁ময়মনসিংহে	-11.2263
▁বেহাল	-11.2263
▁চড়ে	-11.2264
▁so	-11.2266
যজ্ঞ	-11.2267
▁জামালপুরের	-11.2269
▁চারজনের	-11.2276
লক্ষ	-11.2279
▁চায়না	-11.228
▁ভাঙার	-11.2281
▁>>	-11.2281
▁পাঠদান	-11.2285
▁সন্তোষ	-11.2286
▁হবিগঞ্জে	-11.2286
▁উদ্বুদ্ধ	-11.2286
▁মিডফিল্ডার	-11.2286
▁মোকাররম	-11.2287
pa	-11.2287
েশ্বরী	-11.2288
▁ফেটে	-11.2292
▁ত্রিশাল	-11.2292
▁বিরামপুর	-11.2294
▁ডাক্তারের	-11.2297
খার	-11.2297
স্কি	-11.23
▁মুসল্লি	-11.2305
▁ফ্লা	-11.2306
▁পিসি	-11.2306
▁৭টা	-11.2308
▁বাঁচানো	-11.2313
▁Jul	-11.2314
▁Voice	-11.2315
▁দৈর্ঘ্য	-11.2315
▁ইদ্রিস	-11.2315
▁খেতাব	-11.2315
▁দাবানল	-11.2315
▁লোকালয়	-11.2316
ঙ্গো	-11.2317
সম্পদ	-11.2319
▁সূ	-11.2323
▁প্রাক	-11.2325
▁রাজাপুর	-11.2327
US	-11.2328
ER	-11.2335
▁পরিচয়ে	-11.234
▁ডিফেন্ডার	-11.2343
▁ঋতু	-11.2343
▁সংহতি	-11.2343
а	-11.2343
▁কোস্টগার্ড	-11.2343
▁অবমুক্ত	-11.2343
▁চান্দিনা	-11.2344
▁মদিনা	-11.2347
▁রাজপথে	-11.2347
৬৪	-11.2347
▁যাপন	-11.2347
▁স্বচ্ছ	-11.235
পর্ব	-11.2351
▁১৬টি	-11.2352
▁শামিম	-11.2353
▁অন্যরকম	-11.2353
▁মোল্যা	-11.2354
▁ব্যাচ	-11.2355
▁ধারে	-11.2355
▁সাভারে	-11.2356
▁ফারহানা	-11.236
▁কালু	-11.2361
▁কনে	-11.2361
▁ব্যাপকভাবে	-11.2363
▁রিং	-11.2367
▁গঠনে	-11.2368
▁লড়াইয়ের	-11.2371
Q	-11.2371
▁বিয়ানীবাজার	-11.2371
▁হ্যাটট্রিক	-11.2371
▁প্রসেসর	-11.2372
▁রোপন	-11.2374
▁স্বাস্থ্যকর্মী	-11.2374
▁অবরুদ্ধ	-11.2375
পরিচয়	-11.2376
▁ছোটবেলা	-11.2377
▁এতিম	-11.2379
▁দেখানোর	-11.238
▁সাভারের	-11.2385
▁ভিশন	-11.2387
▁এদেশের	-11.2396
▁বন্দী	-11.2397
▁কাতারে	-11.2397
▁মুক্তিযুদ্ধে	-11.2397
▁অনুপস্থিত	-11.2399
মানি	-11.24
▁মর্তুজা	-11.24
▁মোস্তাক	-11.2401
▁ওয়াসিম	-11.2402
▁গনি	-11.2405
▁ট্রাইব্যুনালের	-11.2408
▁ঠিকই	-11.2413
▁বার্সার	-11.2413
live	-11.2417
আরসি	-11.242
▁আয়ু	-11.2423
▁ট্রিবিউন	-11.2429
▁কালিয়াকৈর	-11.2429
▁মওদুদ	-11.2429
▁সংযোজন	-11.2429
▁বিউটি	-11.2429
▁পরস্পর	-11.2429
▁সিসিটিভি	-11.2429
▁বেঞ্চে	-11.2431
▁হজরত	-11.2431
হিন	-11.2435
▁me	-11.2436
▁স্কোয়াডে	-11.2436
▁প্রতিহত	-11.2441
▁গুম	-11.2441
▁ফাস্ট	-11.2444
দ্ধা	-11.2446
ডিএফ	-11.2448
▁সেসময়	-11.2448
▁পটুয়াখালীর	-11.245
▁করানোর	-11.2451
ive	-11.2451
▁দূ	-11.2453
▁বেলজিয়াম	-11.2457
রত্ন	-11.2459
▁লেবুর	-11.2459
▁দক্ষিণবঙ্গ	-11.2461
▁জেলেদের	-11.2462
▁ট্র্যা	-11.2463
▁টানে	-11.2468
▁ঐক্যফ্রন্ট	-11.247
খাতে	-11.2471
▁সেলে	-11.2472
▁লোকেরা	-11.2472
▁সাধ	-11.2473
▁Go	-11.2478
শুভ	-11.2478
▁বেড়াচ্ছে	-11.2479
▁সুত্র	-11.2484
▁হাটে	-11.2484
▁লুৎফ	-11.2485
▁বেপরোয়া	-11.2486
▁লিফলেট	-11.2486
▁রউফ	-11.2486
▁দখলদার	-11.2486
জীবি	-11.2487
▁চাঁদপুরে	-11.2489
▁বাংলানিউজকে	-11.2489
ন্তি	-11.249
▁বক	-11.2492
আন	-11.2496
▁পৌঁছান	-11.2496
স্থিত	-11.2498
▁বেগে	-11.2499
▁মাস্টার্স	-11.2503
▁নিয়ন্ত্রন	-11.2508
▁প্রজ্ঞাপনে	-11.251
▁নেহা	-11.2512
ুয়েট	-11.2512
▁ন্যূনতম	-11.2515
▁ম্যারাডোনা	-11.2515
▁দূর্গা	-11.2515
▁পূর্বকোণ	-11.2515
▁লাদাখ	-11.2515
▁বাইপাস	-11.2515
▁মার্কেটিং	-11.2517
শালা	-11.2518
▁সন্তুষ্ট	-11.2519
▁বিজেপিতে	-11.2522
▁বগি	-11.2523
mb	-11.2524
ুন্নাহার	-11.2531
▁লোকজনকে	-11.2533
▁সিট	-11.2535
▁বিবাহিত	-11.2542
▁সৈকতে	-11.2543
▁উচ্চারণ	-11.2544
▁চিন্তিত	-11.2544
▁অগ্নিসংযোগ	-11.2544
AR	-11.2544
বৈ	-11.2545
▁وَ	-11.2546
▁কুইন	-11.2549
▁জার্সিতে	-11.255
সমাবেশ	-11.255
▁চারদিন	-11.2553
শহর	-11.2554
করি	-11.2556
▁টেলিভিশনে	-11.2559
য়ারি	-11.2559
▁পাল্লা	-11.2561
জিএস	-11.2561
▁ড্রাইভ	-11.2563
▁শুনানিতে	-11.2565
▁চালকদের	-11.2569
▁Wednesday	-11.2573
▁ইঁদুর	-11.2573
▁কাঁঠাল	-11.2573
▁দুষ্কৃতী	-11.2573
▁পুরষ্কার	-11.2573
▁প্রণব	-11.2573
▁প্রজনন	-11.2573
▁গণস্বাস্থ্য	-11.2574
▁১৬০	-11.2576
▁সিরিয়ায়	-11.2578
▁বাদে	-11.2578
▁পেস	-11.2578
▁ভরি	-11.2582
▁সেবক	-11.2584
▁নির্যাতিত	-11.2584
▁হাউসে	-11.2586
▁রাখছে	-11.2587
▁কৌ	-11.259
▁বিতরণী	-11.2592
বদ	-11.2598
▁পোড়া	-11.2598
▁কোয়ারেন্টাইন	-11.26
▁প্রভাত	-11.2601
▁ঠোঁট	-11.2602
▁মাগফেরাত	-11.2602
▁সোহরাব	-11.2602
▁এমপিওভুক্ত	-11.2602
▁বঙ্গমাতা	-11.2602
▁৫০টি	-11.2603
▁সভানেত্রী	-11.2603
▁দারিদ্র্য	-11.2604
▁একাউন্ট	-11.2604
▁কারেন্ট	-11.2604
▁নবায়ন	-11.2605
▁সাইদুল	-11.2607
▁রেস	-11.2607
▁জাসদ	-11.261
বন্ধু	-11.2614
▁রেজি	-11.2616
▁দৌলতদিয়া	-11.2618
ভাঙ্গা	-11.2621
লোয়ার	-11.2622
▁বিচ্ছেদের	-11.2623
▁লাইভে	-11.2624
ight	-11.2631
▁Entertainment	-11.2631
▁বিক্ষুব্ধ	-11.2631
▁করুণ	-11.2631
▁বাহিনীকে	-11.2631
▁ওয়েবডেস্ক	-11.2632
▁জনগোষ্ঠীর	-11.2633
হত্যা	-11.2644
মার্চ	-11.2645
▁এয়ারলাইন্স	-11.2646
প্তা	-11.2649
▁ফর্ম	-11.2651
▁নামকরণ	-11.2652
ুলিয়া	-11.2652
▁পুল	-11.2654
▁আন্ত	-11.2654
▁১৪টি	-11.2658
প্রেমী	-11.2659
▁এক্সক্লুসিভ	-11.266
▁লঘুচাপ	-11.266
▁সাদ্দাম	-11.266
▁অগ্রসর	-11.266
প্রাণ	-11.266
▁ইবাদত	-11.266
▁গাইবান্ধায়	-11.2661
▁তোমরা	-11.2661
▁হাতেনাতে	-11.2661
▁গরমে	-11.2662
▁রোগীকে	-11.2662
▁পূরণে	-11.2662
সুবিধা	-11.2662
▁সাইফুর	-11.2666
▁দিশা	-11.2667
ব্যাপারে	-11.2667
▁গোলটি	-11.2668
▁মালদা	-11.2668
ac	-11.267
▁শুয়ে	-11.2676
▁বাড়ীর	-11.268
▁মহেশপুর	-11.268
▁জগতের	-11.2681
চ্ছিল	-11.2682
ার্থী	-11.2684
▁অনেকেরই	-11.2686
আলম	-11.2686
▁মুন্সিগঞ্জ	-11.2687
▁কাস্টম	-11.2688
▁সরিষা	-11.2689
▁ক্ষিপ্ত	-11.2689
▁দেহের	-11.269
▁বাঁহাতি	-11.269
▁অলআউট	-11.269
বিএসইসি	-11.269
▁কদম	-11.2691
▁ফিরেছে	-11.2691
▁নৌবাহিনী	-11.2691
Four	-11.2693
▁১৪০	-11.2694
▁ব্রাহ্মণবাড়িয়ায়	-11.2696
▁বিঘা	-11.2696
দৈনিক	-11.2697
▁বিপিএলে	-11.2706
বর্ণ	-11.2707
▁আলহাজ	-11.2709
▁ব্যাংকগুলো	-11.2716
▁সিএস	-11.2717
▁রেখেছিলেন	-11.2718
▁অনিশ্চয়তা	-11.2719
▁ক্রমাগত	-11.2719
▁নাইক্ষ্যংছড়ি	-11.2719
▁পার্বতীপুর	-11.2719
▁প্রজাতন্ত্র	-11.2719
▁মুর্তজা	-11.2719
▁লাহোর	-11.2719
▁মূলক	-11.2726
কাশ্মীর	-11.2726
▁বসছে	-11.2733
▁২০০৬	-11.2733
▁মহকুমা	-11.2733
▁আত্মবিশ্বাস	-11.2737
গুরু	-11.2737
▁যোগাযোগমাধ্যম	-11.2738
▁স্টা	-11.2739
▁মাদ্রিদের	-11.2742
▁খুচরা	-11.2748
▁ভাষ্য	-11.2748
▁গোলা	-11.2751
▁মুস্তাফিজুর	-11.2752
▁অস্ট্রেলিয়ায়	-11.2753
বর্ধন	-11.2758
desh	-11.2758
▁ব্যস্ততা	-11.2762
▁৩০টি	-11.2763
▁২০০৪	-11.2763
▁পুরসভা	-11.2763
৯৮	-11.2764
জয়ন্তী	-11.2764
▁১৩০	-11.2765
▁মুন্সী	-11.2765
▁এএসপি	-11.2765
▁পার্লামেন্টে	-11.2766
▁আযহা	-11.2768
▁রায়গঞ্জ	-11.277
▁দফতরে	-11.2773
আইএস	-11.2776
▁ক্যালিফোর্নিয়া	-11.2778
▁সর্বদা	-11.2779
▁দুঃখজনক	-11.2779
▁নরসিংদীর	-11.278
শালী	-11.2781
▁আতিকুর	-11.2781
সংস্থা	-11.2781
▁এতটাই	-11.2784
▁Co	-11.2786
জাজিরা	-11.2787
চাঁদ	-11.2787
▁আহতরা	-11.2799
▁পড়লেন	-11.28
ther	-11.28
▁কাটাকাটি	-11.2801
▁সম্প	-11.2804
▁প্রচেষ্টায়	-11.2805
ডব্লিউএইচও	-11.2808
▁কর্পোরেট	-11.2808
▁তৌফিক	-11.2808
▁বিপজ্জনক	-11.2808
▁শারদীয়	-11.2808
▁সর্ববৃহৎ	-11.2808
▁ইলেকট্রিক	-11.2808
▁প্রথা	-11.2808
▁আওয়াজ	-11.2808
▁নাকচ	-11.2808
▁মিটিং	-11.2809
▁প্রতিনিধিত্ব	-11.2812
▁ঝড়ে	-11.2813
▁Al	-11.2815
▁স্ট্যান্ড	-11.2815
জামায়াত	-11.2816
ডিএমপি	-11.282
ty	-11.2821
▁নির্দেশিকা	-11.2823
মাতা	-11.2837
▁জাহেদ	-11.2838
▁স্টোরেজ	-11.2839
প্রযুক্তি	-11.2839
▁লুইস	-11.2841
▁নবীনগর	-11.2842
▁di	-11.2842
▁নোয়াখালীতে	-11.2847
▁খ্যাতি	-11.2847
▁বাচ্চাদের	-11.2852
চিং	-11.2853
▁গ্যাং	-11.2854
▁খুঁজতে	-11.2856
▁সঙ্গীয়	-11.2856
▁৭০০	-11.2861
▁মুন্সীগঞ্জের	-11.2861
▁কাঠের	-11.2863
র্তা	-11.2863
▁Twenty	-11.2867
▁রেমিট্যান্স	-11.2867
▁লিল্লাহি	-11.2867
▁সৃজিত	-11.2867
▁উপমন্ত্রী	-11.2872
রাজনীতি	-11.2872
AN	-11.2874
▁লিভার	-11.2875
▁মরিয়া	-11.2878
▁পটিয়া	-11.2879
এমসি	-11.288
কর্মচারীদের	-11.2881
▁আবাদ	-11.2881
▁অভ্যন্তরে	-11.2881
▁সমুদ্রে	-11.2881
র্তন	-11.2882
▁সামাল	-11.2882
▁কর্মকাণ্ডে	-11.2883
▁রেঞ্জের	-11.2885
▁পূর্বাঞ্চল	-11.2888
▁বকর	-11.289
▁পাইনি	-11.2894
▁ঢেকে	-11.2897
▁যুদ্ধবিমান	-11.2897
▁মিলিমিটার	-11.2897
▁গৃহকর্মী	-11.2898
▁শুভেন্দু	-11.2898
▁ওয়ারেন্ট	-11.2899
▁হাজি	-11.2899
▁হলি	-11.29
▁অনুবাদ	-11.2902
▁আমানত	-11.2903
▁নওগাঁয়	-11.2903
▁দূত	-11.2903
▁মোটেও	-11.2903
▁নাতি	-11.2904
বাগান	-11.2912
▁ছাড়ে	-11.2913
▁আবিদ	-11.292
▁টেবিলে	-11.2924
▁গণপিটুনি	-11.2927
▁আশ্বিন	-11.2927
▁আইটেম	-11.2927
▁থামিয়ে	-11.2927
▁প্রতিনিধিরা	-11.2928
▁ফিফটি	-11.2928
▁শতবর্ষ	-11.2929
▁পুজোর	-11.293
▁তরুন	-11.293
▁তামাক	-11.293
জিং	-11.293
ধ্বনি	-11.2935
▁সুফল	-11.2937
▁প্রয়োজনীয়তা	-11.2941
▁ক্রেতারা	-11.2949
▁জাজ	-11.2953
▁ক্ষ	-11.2956
▁ইনকিলাব	-11.2957
▁তরমুজ	-11.2957
▁বাউন্ডারি	-11.2957
▁রাব্বানী	-11.2957
▁খুললেন	-11.2957
▁মকবুল	-11.2957
▁সৃজনশীল	-11.2957
▁ধুনট	-11.2958
▁ক্রমেই	-11.2958
▁দুইজনের	-11.2959
▁পরিধান	-11.296
▁অত্র	-11.2961
য়েস	-11.2963
স্ম	-11.2965
▁অনেকগুলো	-11.2965
▁প্রাতিষ্ঠানিক	-11.2966
সামগ্রী	-11.2966
বন্দুকযুদ্ধে	-11.2967
▁গোয়া	-11.297
ছাত্র	-11.297
▁ওয়াটার	-11.2971
াকার	-11.2973
▁চুপ	-11.2974
▁শুদ্ধ	-11.2979
▁উত্তরপ্রদেশ	-11.2979
ষ্টার	-11.298
এনআই	-11.2985
▁সম্মত	-11.2985
▁Download	-11.2988
▁অনুকূল	-11.2988
▁ককটেল	-11.2988
▁নান্দাইল	-11.2988
▁মোরশেদ	-11.2988
▁জনসাধারণের	-11.2988
▁ঊ	-11.2989
▁পশ্চিমা	-11.2991
বিদেশের	-11.2992
▁কাচ	-11.2993
▁হাঁটু	-11.2996
ল্লাহ	-11.3
▁জেতার	-11.3003
কারখানা	-11.3004
▁হারান	-11.3005
shi	-11.3011
ট্রো	-11.3017
▁মানসিকতা	-11.3017
▁Tuesday	-11.3018
▁বেঙ্গালুরু	-11.3018
▁রেলস্টেশন	-11.3018
▁সিরাজদিখান	-11.3018
▁টিসিবি	-11.3019
▁উপনির্বাচনে	-11.3019
▁নেছা	-11.3021
▁রঙিন	-11.3025
▁সংবাদমাধ্যমের	-11.3027
▁আইকন	-11.3028
▁বেলায়	-11.303
▁ঘেরাও	-11.3031
▁পর্দার	-11.3034
▁কাপে	-11.3034
সার্স	-11.3034
▁টম	-11.3041
▁পরিণতি	-11.3042
▁মান্না	-11.3045
▁দূর্ঘটনায়	-11.3047
▁প্রভৃতি	-11.3048
▁শৈত্যপ্রবাহ	-11.3048
и	-11.3048
▁বায়ার্ন	-11.3048
kantho	-11.3048
▁মেডিসিন	-11.3048
▁Off	-11.3049
▁সংঘবদ্ধ	-11.3049
ডিএসসিসি	-11.3049
▁ল্যান্ড	-11.305
▁চক্ষু	-11.305
▁নাইম	-11.3053
▁প্রহর	-11.3054
▁জানাচ্ছেন	-11.3057
▁ইউরোপে	-11.306
▁ঝুলিয়ে	-11.3063
▁ব্রিটেন	-11.3064
▁প্রকল্পটি	-11.3068
যাপন	-11.3068
▁সিডি	-11.3075
▁চরফ্যাশন	-11.3079
▁পরিবহণ	-11.3079
е	-11.3079
▁আরেফিন	-11.3079
▁রবার্ট	-11.3079
▁ডেট	-11.3079
▁অপকর্ম	-11.308
▁জুলাইয়ে	-11.308
▁বাক্স	-11.3081
▁ওড়না	-11.3082
IN	-11.3083
▁ফেস	-11.3083
▁গুহ	-11.3084
▁অসুস্থতা	-11.3086
▁প্রচারণায়	-11.309
▁ক্লাসে	-11.3093
▁আয়াত	-11.3101
৮২	-11.3105
▁মাইকিং	-11.3107
▁গোপালপুর	-11.3108
▁ধৈর্য	-11.3109
▁বৈজ্ঞানিক	-11.3109
▁মন্ত্রনালয়	-11.3109
▁শিলিগুড়ি	-11.3109
ব্বি	-11.311
▁ক্যাটাগরি	-11.3111
▁রিজেন্ট	-11.3111
▁অনৈতিক	-11.3112
▁লাগলে	-11.3112
▁হায়াত	-11.3112
▁কাফ	-11.3112
▁৫ম	-11.3114
▁জান্নাতুল	-11.3115
▁খায়	-11.3115
▁শ্বশুরবাড়ি	-11.3117
▁পরিচ্ছন্ন	-11.3119
▁ড্রেন	-11.3121
বিলা	-11.3123
لَ	-11.3129
▁দেও	-11.313
oc	-11.3135
▁মিনা	-11.3137
▁তাতেই	-11.3139
▁অবিশ্বাস্য	-11.314
▁বৃক্ষরোপণ	-11.314
▁অসুখ	-11.314
▁সেইসঙ্গে	-11.314
▁se	-11.314
▁হাঁস	-11.3142
▁রসায়ন	-11.3142
▁সহিংসতার	-11.3149
▁যোগদানের	-11.3149
▁লগ	-11.3149
ভারতীয়	-11.315
▁অন্তর্	-11.3151
▁মানুষজন	-11.3151
▁শবে	-11.3155
▁He	-11.3155
▁বলবেন	-11.3159
▁সূর্যের	-11.3162
▁বিতর্কে	-11.3164
ছেলে	-11.3165
▁উত্তোলনের	-11.3167
▁হসপিটাল	-11.3171
▁জানাগেছে	-11.3171
▁অশোক	-11.3171
▁হাবীব	-11.3171
▁মালিকানা	-11.3172
▁রেসিপি	-11.3173
▁সাবিনা	-11.3173
▁নিচ	-11.3175
বাসস	-11.3181
▁নীরব	-11.3181
▁সফি	-11.3185
min	-11.3188
▁স্ট্যা	-11.3188
মিটার	-11.3189
▁তামিল	-11.3189
▁পাহাড়ে	-11.3196
শিল্প	-11.3201
▁ইন্স্যুরেন্স	-11.3202
▁মাদকাসক্ত	-11.3202
▁ক্যাপশনে	-11.3202
▁আওতাধীন	-11.3202
▁বিভক্ত	-11.3202
▁আকৃতি	-11.3203
▁জুনায়েদ	-11.3203
▁রোকন	-11.3205
▁অর্থনীতিতে	-11.3205
▁করুক	-11.3206
▁মারে	-11.3209
▁চিৎকারে	-11.3212
▁সিমেন্ট	-11.3213
▁রুজু	-11.3215
▁পাবনায়	-11.322
হ্যা	-11.3222
▁ব্যর্থতার	-11.3222
▁উদয়	-11.3223
▁ডন	-11.3223
▁Jun	-11.3223
▁কর্মস্থলে	-11.3224
▁যতটা	-11.3229
ঙ্গন	-11.323
▁নারায়ণ	-11.3232
▁বিষয়টা	-11.3232
▁গোয়াইনঘাট	-11.3233
▁হাইস্কুল	-11.3233
▁মজুত	-11.3233
▁সেক্টরে	-11.3235
omoy	-11.3235
▁জং	-11.3238
▁খেলেছে	-11.3238
▁মারামারি	-11.324
▁ফেব্রুয়ারিতে	-11.324
▁বিসিএসের	-11.3244
▁মিলান	-11.3247
▁অন্যত্র	-11.325
বৃদ্ধি	-11.3252
▁প্যাক	-11.3254
▁বৈধতা	-11.3258
ata	-11.3259
পিএল	-11.3259
দাওয়া	-11.326
▁খোকা	-11.3262
▁অটোরিক্সা	-11.3264
▁আগ্রাসন	-11.3264
▁কানাইঘাট	-11.3264
▁ফাইন্যান্স	-11.3264
▁ভূষিত	-11.3264
▁শ্লীলতাহানি	-11.3264
▁রেজওয়ান	-11.3264
▁ভয়ংকর	-11.3264
▁১১০	-11.3264
▁বন্দুকধারী	-11.3264
▁ব্রাজিলিয়ান	-11.3265
মীন	-11.3266
▁সমাপ্তি	-11.3267
এনসি	-11.3267
▁মরদেহটি	-11.3269
ya	-11.3275
তথ্য	-11.3277
▁পরীক্ষার্থীদের	-11.3277
▁চো	-11.3287
নুষ্ঠান	-11.329
▁প্যান্ট	-11.329
▁সেটাও	-11.3291
▁প্রত্যন্ত	-11.3295
▁সুইজারল্যান্ড	-11.3295
▁ঐশ্বরিয়া	-11.3295
▁সাঁতার	-11.3295
▁অ্যাপস	-11.3296
▁কিছুতেই	-11.3296
▁তুলনামূলক	-11.3296
ine	-11.3299
▁আসামীদের	-11.3303
▁ফেলবে	-11.3304
▁থাবা	-11.3305
স্বপ্ন	-11.3308
▁দেশবাসীর	-11.331
▁আঁকা	-11.3312
▁অস্ট্রেলিয়ান	-11.3317
▁কনফারেন্সে	-11.332
▁প্রতিবেদকঃ	-11.3321
কাশ	-11.3323
▁প্রভাবিত	-11.3323
গাল	-11.3324
▁ব্যবহারকারীর	-11.3325
▁ক্রেডিট	-11.3326
▁অজ্ঞান	-11.3326
▁থাক	-11.3326
▁দিনভর	-11.3328
▁বাদশাহ	-11.3329
খন্ড	-11.334
▁মিড	-11.334
ue	-11.3342
▁Di	-11.3342
্থা	-11.3342
▁বন্ধুরা	-11.3345
▁দীপক	-11.3346
ন্ডো	-11.3348
▁সফলতার	-11.3353
▁ফজল	-11.3357
পান	-11.3357
▁দর্পণ	-11.3357
▁খলিফা	-11.3357
▁মইনুল	-11.3357
▁বেসরকারী	-11.3357
▁গুটিয়ে	-11.3357
▁এমনিতেই	-11.3358
▁আতংক	-11.3359
▁মার্টিন	-11.336
▁সাথী	-11.336
▁জড়	-11.3363
▁বসার	-11.3364
▁গেয়ে	-11.3365
▁দাড়	-11.3366
নিষেধ	-11.3371
লিয়ন	-11.3374
▁কুড়িগ্রামে	-11.338
▁কাপুরের	-11.3384
কুলা	-11.3388
▁you	-11.3388
▁কভিড	-11.3389
▁মাল্টিমিডিয়া	-11.3389
▁মহানবী	-11.3389
▁থাকুক	-11.3389
▁ট্রাক্টর	-11.3389
▁পোষা	-11.3391
▁ক্রস	-11.3393
▁রক্ষণ	-11.3394
ন্দী	-11.34
▁খনিজ	-11.3401
▁পাগল	-11.3403
গরি	-11.3404
▁সিআর	-11.3412
▁ট্যাক্স	-11.3412
▁খাগড়াছড়িতে	-11.3413
▁পাতায়	-11.3414
ধী	-11.3415
নির্বাচনে	-11.3418
ع	-11.342
▁ক্যারিবীয়	-11.342
▁তামিলনাড়ু	-11.342
▁ভাবমূর্তি	-11.342
▁জুনাইদ	-11.342
▁বিধবা	-11.342
▁সেভ	-11.3422
▁বেতার	-11.3425
▁শিরিন	-11.343
▁রাশিদ	-11.3431
Coxsbazar	-11.3435
বর্তি	-11.3436
▁Sha	-11.3438
▁সিইসি	-11.3438
▁কল্যান	-11.3441
ki	-11.3443
▁নবাব	-11.3444
▁মোমিন	-11.3447
▁১৮০	-11.3447
▁bangladesh	-11.345
িয়াস	-11.3452
▁অনির্দিষ্টকালের	-11.3452
▁সৌমিত্র	-11.3452
▁কায়দায়	-11.3452
▁মাকসুদ	-11.3452
▁সমুদ্রবন্দর	-11.3452
▁বাঁচিয়ে	-11.3452
▁মেজাজ	-11.3454
▁অশান্তি	-11.3455
▁মাষ্টার	-11.3458
▁ইডেন	-11.3459
▁স্ট্রাইকার	-11.3459
▁খুঁজছে	-11.3465
▁বসানোর	-11.347
▁আবদ্ধ	-11.3471
▁নেদারল্যান্ডস	-11.3472
▁মানসিকভাবে	-11.3477
▁অসীম	-11.3478
▁ঘি	-11.348
▁আশংকা	-11.3483
▁দুর্গাপূজা	-11.3484
▁টেক্সটাইল	-11.3484
টিআই	-11.3484
▁ক্ষেত্র	-11.3486
▁সেনাপ্রধান	-11.3487
▁নিউজ২৪	-11.349
▁সমা	-11.3492
▁পরিচ্ছন্নতা	-11.3495
▁ধারাবাহিকতা	-11.3496
দুই	-11.3496
জীবী	-11.3498
▁জনস্বাস্থ্য	-11.3501
পিআই	-11.3501
▁যাবো	-11.3501
রক্ষক	-11.3505
ধর্ম	-11.3514
▁ইন্সটিটিউট	-11.3516
▁চোরাচালান	-11.3516
▁রিক্সা	-11.3516
▁মধ্যবিত্ত	-11.3517
▁এসোসিয়েশনের	-11.3517
bani	-11.3518
▁জয়লাভ	-11.3518
ud	-11.352
▁দই	-11.352
▁কেরালা	-11.352
▁দম	-11.352
▁মহেন্দ্র	-11.3523
▁চললে	-11.3525
▁লোকদের	-11.353
ইসলাম	-11.3531
▁সংবিধানের	-11.3532
সুন্দর	-11.3533
Northbengal	-11.3534
▁ছড়ায়	-11.3534
▁শেরে	-11.3535
▁কর্ণ	-11.3537
tu	-11.3539
▁হিসেব	-11.3541
▁ইইউ	-11.3545
▁ফাইভ	-11.3546
▁শতকরা	-11.3547
▁সম্মুখ	-11.3547
▁ইভ্যালি	-11.3548
▁প্রাধান্য	-11.3548
▁ব্যানার্জি	-11.3548
▁দুঃস্থ	-11.3548
▁হলরুমে	-11.3548
▁ক্রিস্ট	-11.3548
▁ঘাটাইল	-11.3549
▁লালমোহন	-11.3549
সংঘ	-11.3553
▁মতি	-11.3553
▁আগামি	-11.3559
▁নিশ্চয়ই	-11.3563
ali	-11.3567
▁কাতারের	-11.3576
▁আলোক	-11.3576
▁ফিলিপ	-11.3578
▁প্রতিশোধ	-11.358
▁মধ্যপ্রদেশ	-11.358
▁বিপণন	-11.358
▁মজুরি	-11.358
▁ভিজিট	-11.358
▁রিপাবলিকান	-11.358
lu	-11.358
▁প্রক্রিয়াধীন	-11.358
▁খোসা	-11.3581
▁দশটা	-11.3581
▁মেটাতে	-11.3581
▁More	-11.3581
▁মর্মে	-11.3581
▁ক্রিম	-11.3583
ীভূত	-11.3583
▁পেমেন্ট	-11.3585
▁মধ্যপ্রাচ্যের	-11.3585
▁কপিল	-11.3587
▁স্টিভ	-11.3587
ন্নু	-11.3588
▁Khabor	-11.3592
▁বিজ্ঞ	-11.3597
OR	-11.36
▁নয়াপল্টনে	-11.3606
mon	-11.3608
▁শীতার্ত	-11.3612
▁শৈলকুপা	-11.3612
▁টুঙ্গিপাড়া	-11.3612
▁সভ্য	-11.3612
▁বাল্য	-11.3612
▁De	-11.3615
▁Bo	-11.3617
▁ভার্চুয়ালি	-11.3622
▁কুড়ি	-11.3625
মণ্ডল	-11.3633
▁শ্যুটিং	-11.3634
▁প্রেমিকার	-11.3636
▁লুকা	-11.3637
শান্ত	-11.3638
▁উনার	-11.3639
ায়েত	-11.364
←	-11.3644
▁বাফুফে	-11.3644
▁সাখাওয়াত	-11.3644
▁পেকুয়া	-11.3644
▁রিলিজ	-11.3644
বরণ	-11.3646
▁ফিরলে	-11.3649
▁সন্ধানে	-11.365
▁অ্যাম	-11.365
▁সাইদ	-11.3652
ঝাড়	-11.3652
▁রানি	-11.3653
▁ফিরবেন	-11.3655
▁উদ্যানে	-11.3656
▁গার্ডেন	-11.366
▁হাজীগঞ্জ	-11.3665
ফ্রে	-11.3665
▁প্রতিনিধিদের	-11.3668
▁হাঁটা	-11.367
▁দ্রুততম	-11.3671
▁সাদিয়া	-11.3673
ুয়েল	-11.3675
▁পুঁজি	-11.3675
▁First	-11.3676
▁ঢালিউড	-11.3676
▁বিষয়বস্তু	-11.3676
▁জিম্মি	-11.3676
সম্মত	-11.3682
গুচ্ছ	-11.3686
▁ঢাকাগামী	-11.3689
▁প্রিয়া	-11.3691
si	-11.3692
স্বরূপ	-11.3695
▁পার্টিতে	-11.3696
▁হারুনু	-11.3699
▁মাহবুবুল	-11.3699
▁ফসলের	-11.37
▁All	-11.3701
▁একেক	-11.3701
প্পা	-11.3701
▁৪র্থ	-11.3703
▁আশি	-11.3704
▁স্বীকারোক্তি	-11.3705
▁সাজু	-11.3706
জুলাই	-11.3707
▁ফাল্গুন	-11.3709
▁অসাধু	-11.3709
▁প্রোফাইল	-11.3709
hat	-11.3712
▁মুরাদনগর	-11.3712
▁লোকসান	-11.3713
iz	-11.3713
▁সময়সূচি	-11.3718
▁উপপরিচালক	-11.3719
▁তৎ	-11.3719
কাণ্ডে	-11.3722
▁ফার্মা	-11.3723
সবুজ	-11.3726
▁সংবাদমাধ্যমে	-11.3728
▁ধাওয়ান	-11.3729
▁টসে	-11.373
▁জেড	-11.3732
▁স্তরে	-11.3733
▁অতীতে	-11.3733
▁গোষ্ঠীর	-11.3739
▁বাক্য	-11.374
এইচএম	-11.3741
▁পর্ষদের	-11.3741
▁বহিরাগত	-11.3741
▁সানরাইজার্স	-11.3741
▁বক্কর	-11.3741
▁কাঁটা	-11.3742
▁তোমাকে	-11.3742
▁ঘটলে	-11.3743
▁পিপিএম	-11.3744
▁মটর	-11.3745
▁ইংল্যান্ডে	-11.3746
▁প্রবাসীরা	-11.3746
তক	-11.3749
▁জরিপে	-11.3749
▁বিনিয়োগকারী	-11.3753
কুড়া	-11.3753
▁আকি	-11.3756
▁মণ	-11.3757
ল্ক	-11.3758
ব্যাপি	-11.3759
Barta	-11.3759
▁প্রশংসায়	-11.3759
▁ধুম	-11.3762
ff	-11.3764
TV	-11.3767
▁কাটছে	-11.3767
সাইড	-11.3771
ষ্প	-11.3772
▁দুর্বৃত্ত	-11.3774
▁ড্রাগ	-11.3775
▁সরাইল	-11.3775
▁জঙ্গলে	-11.3776
▁ভাড়াটিয়া	-11.3777
▁মেসিকে	-11.3778
যদি	-11.3779
▁লোগো	-11.3779
▁মিছিলটি	-11.3779
▁অবধি	-11.3783
ছাত্রীদের	-11.3787
▁কাউ	-11.3787
ম্বু	-11.3787
▁Se	-11.3788
▁পিরোজপুরের	-11.3792
▁২০০৫	-11.3792
কিন্তু	-11.3792
▁মমিন	-11.3792
সকল	-11.3794
▁উপচে	-11.3806
▁ডিপার্টমেন্ট	-11.3807
▁সুমাইয়া	-11.3807
▁সহপাঠী	-11.3807
▁পার্স	-11.381
par	-11.3813
▁মন্টু	-11.3813
▁কনক	-11.3814
▁স্কেল	-11.3817
▁ডোমার	-11.3819
▁সাপের	-11.382
▁কারিগর	-11.3821
▁সিরাজগঞ্জে	-11.3823
▁মোড়ল	-11.3824
▁অভিযুক্তদের	-11.3825
Leave	-11.3825
▁দন্ড	-11.3825
ভর্তি	-11.3828
▁তুলছে	-11.3833
ডিএস	-11.3835
▁দেল	-11.3837
তাহ	-11.3838
▁উইলিয়াম	-11.3839
▁বকশীগঞ্জ	-11.384
▁কারফিউ	-11.384
▁জিজ্ঞেস	-11.384
▁আবুধাবি	-11.384
▁ভাতিজা	-11.384
▁সুবর্ণজয়ন্তী	-11.384
▁বজলু	-11.384
▁আবেদনকারী	-11.3842
▁রুখে	-11.3842
▁মৌলভীবাজারে	-11.3842
▁ব্রাজিলে	-11.3844
▁দমকা	-11.3844
▁বাগানের	-11.385
▁একমত	-11.3852
▁ঈশ্বর	-11.3856
এমএ	-11.3859
▁ছড়ানো	-11.386
▁আফরোজ	-11.3864
ani	-11.3867
▁লিপি	-11.3871
▁সহযোগীতা	-11.3871
▁ফলো	-11.3871
▁পুনরুদ্ধার	-11.3873
▁ভাসানচর	-11.3873
▁টমেটো	-11.3873
▁জকিগঞ্জ	-11.3873
▁শাহিদ	-11.3873
▁গজারিয়া	-11.3873
▁শংকর	-11.3873
▁খ্রিস্টান	-11.3873
▁রেললাইন	-11.3876
▁ছাত্রীদের	-11.3876
▁মনু	-11.3878
▁লাখো	-11.3879
▁প্রতিক্রিয়ায়	-11.3881
পন্থি	-11.3884
▁প্লেয়ার	-11.3884
নারী	-11.3885
▁শখ	-11.3887
রোববার	-11.3892
▁বিবাদ	-11.3893
তিক	-11.3897
▁হব	-11.3898
▁ফ্লোরিডা	-11.3906
▁মাগফিরাত	-11.3906
ঁচা	-11.3906
▁সখীপুর	-11.3906
عَ	-11.3907
▁রোপণ	-11.3907
▁স্ট্রিট	-11.3908
▁গেইট	-11.3908
▁আনিস	-11.3909
▁জনসভায়	-11.3912
▁জননী	-11.3913
▁মোড়ক	-11.3913
▁উত্তরপ্রদেশের	-11.3915
▁সোনারগাঁয়ে	-11.3915
▁দুজনেই	-11.3918
▁তবু	-11.3918
▁কুমির	-11.3921
ময়মনসিংহ	-11.3925
▁বয়ান	-11.3926
ব্যক্তি	-11.3926
q	-11.3928
▁শামছু	-11.3931
▁জানাবেন	-11.3932
▁!!	-11.3932
▁জনসচেতনতা	-11.3937
আগামী	-11.3937
rd	-11.3937
▁জুবায়ের	-11.3939
▁২নং	-11.394
▁জীবনযাত্রা	-11.3945
▁বিএসএফের	-11.3946
▁১৯৭৫	-11.3948
ডিয়া	-11.3949
▁কর্মকার	-11.3949
▁জুট	-11.3949
▁আইডিয়া	-11.3958
বিজিবি	-11.3959
▁মেয়েটিকে	-11.397
▁ভাগাভাগি	-11.3972
▁রযাঙ্কিংয়ে	-11.3972
▁বিষাক্ত	-11.3972
৯৫	-11.3972
▁অংশীদার	-11.3973
▁মণ্ডপ	-11.3973
▁বর্ষসেরা	-11.3973
▁ভোররাতে	-11.3973
ঙ্ঘ	-11.3974
থান	-11.3975
▁বরাতে	-11.3976
▁রোহিঙ্গারা	-11.3976
▁পালানোর	-11.3977
ting	-11.3983
▁মহামারিতে	-11.3984
▁ব্রড	-11.3988
▁জঙ্গিরা	-11.3989
ডটকম	-11.3992
▁প্রতিনিধিদল	-11.3993
▁নির্বাহ	-11.3993
▁উদ্ধারকৃত	-11.3995
ম্বার	-11.3998
▁আত্মসাৎ	-11.4006
▁গোদাগাড়ী	-11.4006
▁শাহজাদপুর	-11.4006
ق	-11.4006
▁বণিক	-11.4006
▁আত্মপ্রকাশ	-11.4007
▁দুইবার	-11.4007
▁অকাল	-11.4007
▁গতিশীল	-11.4008
▁রাস্তাঘাট	-11.401
▁রাকিবুল	-11.4016
িজম	-11.4019
তালিকা	-11.402
▁ব্যতিক্রমী	-11.4023
▁টাইপ	-11.4027
▁ভবনটি	-11.4032
গ্ধ	-11.4037
পূর্ন	-11.4039
পূর্বক	-11.4039
▁Ajker	-11.4039
শৃংখলা	-11.4039
▁পর্যবেক্ষক	-11.4039
▁বংশোদ্ভূত	-11.4039
▁আলাইহি	-11.4039
▁উজ্জল	-11.4039
▁আদনান	-11.404
▁হ্যাকার	-11.404
▁জনগনের	-11.4041
▁পাইকারি	-11.4042
▁রেহাই	-11.4042
▁ভাবছেন	-11.4042
▁আপেল	-11.4046
▁ওয়াজ	-11.4046
ish	-11.4047
▁ভদ্র	-11.4047
▁গাইড	-11.4049
▁অস্থায়ীভাবে	-11.4051
▁সারাক্ষণ	-11.4051
▁ঝি	-11.4057
▁বেগুন	-11.4058
ভ্যান	-11.4058
▁মন্ত্র	-11.4058
▁স্বরূপ	-11.4059
চেয়ারম্যান	-11.406
খুলনা	-11.406
▁সচেতনতামূলক	-11.406
স্থানীয়	-11.4064
দর্শী	-11.4065
▁থে	-11.4065
▁খাজা	-11.4069
▁ত্বকে	-11.4073
▁কর্ণফুলী	-11.4073
▁গণফোরাম	-11.4073
▁জলাবদ্ধতা	-11.4073
▁দীর্ঘমেয়াদ	-11.4073
▁মোটামুটি	-11.4073
▁ডেমোক্রেট	-11.4073
াত্মক	-11.4073
▁বুবলী	-11.4074
▁উৎসর্গ	-11.4074
▁আদম	-11.4075
▁লোহার	-11.4078
▁সত্যিকার	-11.408
▁রহ	-11.4082
▁জাহাঙ্গীরনগর	-11.4082
▁কোস্ট	-11.4082
▁ঘটানো	-11.4084
▁দেশগুলোতে	-11.4085
▁যোগী	-11.4086
▁পড়েছিলেন	-11.4087
▁Na	-11.4091
▁১৬৪	-11.4094
▁ক্ষয়ক্ষতির	-11.4094
tro	-11.4095
▁জানালা	-11.4095
▁রযাম	-11.4095
▁বাউল	-11.4101
▁জানাজানি	-11.4104
▁Large	-11.4107
▁কনসার্ট	-11.4107
▁প্রশংসিত	-11.4107
▁Monday	-11.4107
▁নামঞ্জুর	-11.4107
▁ন্যাটো	-11.4108
খাল	-11.4108
▁ডিজেল	-11.4109
▁বোনাস	-11.4112
▁ছাত্রনেতা	-11.4115
▁স্থলে	-11.4115
▁কানাডায়	-11.4116
▁ফান্ডের	-11.4117
▁শরিক	-11.4117
কৌশল	-11.4125
▁যথাযথভাবে	-11.4127
▁আনছে	-11.413
জানা	-11.4133
ভারপ্রাপ্ত	-11.4133
সলিম	-11.4134
▁প্রান	-11.4137
▁রয়েল	-11.4138
▁সঞ্চালনা	-11.4138
▁ইরানে	-11.414
▁থাকত	-11.414
▁মরিয়ম	-11.4141
▁চলাফেরা	-11.4141
▁ছোড়া	-11.4141
▁পাসওয়ার্ড	-11.4142
▁বুড়ি	-11.4142
va	-11.4142
▁পুতুল	-11.4145
সেন্ট	-11.4146
▁খণ্ড	-11.4147
▁অনিক	-11.4149
و	-11.4151
ঈদ	-11.4151
▁শ্রীলঙ্কায়	-11.4152
▁রুমি	-11.4155
চ্যুত	-11.4157
▁পলিসি	-11.4157
হোম	-11.4165
▁মর্	-11.4169
▁দামি	-11.417
▁ধর্ষিতা	-11.417
এসএফ	-11.4171
▁দিদি	-11.4172
▁Desh	-11.4174
▁ভিয়েতনাম	-11.4175
▁সামগ্রিক	-11.4175
▁কেমিক্যাল	-11.4175
▁বেআইনি	-11.4175
▁নির্ণয়	-11.4175
▁আজান	-11.4177
▁শুকনো	-11.4178
কার্য	-11.4179
▁অনার্স	-11.4183
iv	-11.4185
▁মুসল্লিদের	-11.4193
শ্রমিক	-11.4202
মহ	-11.4205
▁ঝলক	-11.4206
ট্রিক	-11.4209
▁সদস্যবৃন্দ	-11.4209
▁বরকত	-11.421
বিদ্যা	-11.4216
▁নিশ্চয়তা	-11.4218
▁মিতু	-11.4219
▁উঠান	-11.4221
▁অঙ্কের	-11.4221
▁উইল	-11.4224
ke	-11.4224
সাহিত্য	-11.4231
▁রেলমন্ত্রী	-11.4234
▁দেখিয়েছেন	-11.4239
▁গুণী	-11.4242
ল্লাল্লাহু	-11.4243
▁কালিহাতী	-11.4243
▁দৈনন্দিন	-11.4243
▁ফেডারেল	-11.4243
▁সুস্বাদু	-11.4243
▁স্বয়ংক্রিয়	-11.4243
▁দ্বীন	-11.4243
▁আলতাফ	-11.4243
▁ত্রান	-11.4244
▁নাজমা	-11.4246
▁কথাবার্তা	-11.4254
▁ডিএমপির	-11.4255
▁ঘাস	-11.4255
▁ধাম	-11.4255
ট্যা	-11.426
▁মহিষ	-11.4262
▁কালিগঞ্জ	-11.4268
সিভ	-11.4268
▁Saturday	-11.4278
▁ইত্তেফাক	-11.4278
▁সোনাগাজী	-11.4278
▁ছড়াচ্ছে	-11.4278
▁ফিরছিলেন	-11.4278
▁মজনু	-11.4278
▁পিঠে	-11.4285
▁মনোয়ার	-11.4285
▁বিশৃঙ্খলা	-11.4286
▁গোয়ালন্দ	-11.4286
▁লিখতে	-11.429
ময়ী	-11.4295
▁কোল	-11.43
▁আসক্ত	-11.4304
টিক্যাল	-11.4307
প্রেমীদের	-11.4308
▁র্যা	-11.4309
▁শিক্ষাবর্ষের	-11.4309
▁কুতুব	-11.4312
out	-11.4312
▁সামিট	-11.4312
▁নেত্রকোণা	-11.4312
▁মুহাম্মাদ	-11.4312
▁মোহামেডান	-11.4312
টুয়েন্টি	-11.4312
▁প্রদত্ত	-11.4312
▁সংশয়	-11.4312
▁মহাজোট	-11.4313
▁রাণীনগর	-11.4313
▁গুঁড়া	-11.4313
▁স্টিল	-11.4314
▁মনোহর	-11.4314
▁নান্নু	-11.4315
দিঘী	-11.4315
▁বানাতে	-11.4316
▁সুভাষ	-11.4316
▁চেনা	-11.4319
ন্দ্রনাথ	-11.4321
▁কোলা	-11.4327
সূচক	-11.4335
প্রো	-11.434
▁ইন্ডাস্ট্রিজ	-11.4341
▁To	-11.4341
▁লস	-11.4342
▁Cha	-11.4343
▁অপো	-11.4344
▁ভিক্টোরিয়া	-11.4346
▁সমালোচক	-11.4347
▁প্রযোজ্য	-11.4347
▁লাইব্রেরি	-11.4347
▁Media	-11.4347
▁শিশির	-11.4347
▁বিবেক	-11.4347
▁জালালাবাদ	-11.4348
▁শামসুজ্জামান	-11.4348
▁ইয়াসিন	-11.4348
▁হারাল	-11.4351
াইজড	-11.4353
▁আমেজ	-11.4355
উড়	-11.4356
▁এলজি	-11.4356
▁আবির	-11.4359
েটেড	-11.4361
▁তত্ত্ব	-11.4363
▁আসছি	-11.4368
▁সাহিত্যিক	-11.4369
বিশিষ্ট	-11.437
▁বাটন	-11.4374
▁মুদি	-11.4374
▁আছড়	-11.4374
ন্ড্র	-11.4375
▁ইভেন্টে	-11.4377
▁প্রদর্শ	-11.4377
র্জা	-11.4379
▁চেয়েছিল	-11.438
▁Thursday	-11.4381
▁অভ্যুত্থান	-11.4381
▁খোঁজাখুঁজি	-11.4381
▁তৈয়ব	-11.4381
▁মোতালেব	-11.4381
▁ব্যালট	-11.4382
াইজ	-11.4385
▁রথ	-11.4387
জেল	-11.4388
য়ার্স	-11.439
৯৭	-11.439
দৃশ্য	-11.4391
▁ঝাঁ	-11.4392
লাহ	-11.4396
▁পাঁচদিন	-11.4397
▁ma	-11.44
▁ছড়ানোর	-11.4401
▁ঢলে	-11.4405
▁৯৯৯	-11.4407
▁ফর্মে	-11.4408
হ্যাম	-11.4412
▁ফেনীতে	-11.4414
▁জহুর	-11.4414
▁জুটিতে	-11.4415
▁Janakantha	-11.4416
▁আমন্ত্রিত	-11.4416
▁সেন্টিমিটার	-11.4416
▁উইলিয়ামসন	-11.4417
▁শ্রীমঙ্গলে	-11.4417
▁শুভশ্রী	-11.442
▁মানচিত্র	-11.442
▁প্রতিকার	-11.4425
▁নিকটতম	-11.4431
▁রসুল	-11.4434
বিদ্যালয়	-11.4436
পরিবার	-11.4437
ক্ষন	-11.4438
▁এমনকী	-11.4439
▁কর্	-11.4443
▁ইজ	-11.4443
▁আইসিইউ	-11.4445
▁নবান্ন	-11.4451
▁Be	-11.4452
▁বিবিধ	-11.4456
▁ভাবি	-11.4458
▁রাজাকার	-11.4466
ইপিএস	-11.4471
dd	-11.4473
▁২টায়	-11.4474
▁মাওয়া	-11.4477
▁অনিল	-11.4481
▁পাগলা	-11.4483
হেন	-11.4483
▁কমলাপুর	-11.4484
▁জালিয়াতির	-11.4484
▁হাতিয়ার	-11.4485
▁সীতা	-11.4486
▁অস্থিতিশীল	-11.4486
▁উত্তেজিত	-11.4486
▁দ্বাদশ	-11.4486
▁প্রশিক্ষন	-11.4486
▁ল্যাবরেটরি	-11.4486
▁সার্বক্ষণিক	-11.4486
▁হিজরী	-11.4486
▁স্ট্যান্ডার্ড	-11.4486
▁যথাযোগ্য	-11.4487
▁মানহানি	-11.4488
▁পেরেছেন	-11.449
▁নায়েক	-11.4491
▁পরিপূর্ণ	-11.4492
▁ঢেউয়ে	-11.4492
▁মহাখালী	-11.4494
▁শাহিনুর	-11.4494
▁বাকিদের	-11.4494
▁বানানোর	-11.4497
▁ইমেইল	-11.4498
▁জানাযা	-11.4503
▁নৃ	-11.4514
অনেক	-11.4514
▁ট্র্যাক	-11.4516
▁So	-11.4519
▁রাশিয়ায়	-11.4521
▁জ্বালিয়ে	-11.4521
▁টিউটোরিয়াল	-11.4521
▁ডিভোর্স	-11.4521
▁পারস্পরিক	-11.4521
▁সোচ্চার	-11.4521
▁মহোদয়	-11.4521
▁ভিক্ষুক	-11.4521
▁খানিকটা	-11.4522
▁মানবতাবিরোধী	-11.4522
▁বিনাশ্রম	-11.4522
কোয়া	-11.4522
▁খুলছে	-11.4523
▁আহমাদ	-11.4525
স্বীকারোক্তিমূলক	-11.4526
▁পরিক্ষা	-11.4526
▁জাবি	-11.4526
▁ফেয়ার	-11.4529
▁আইনজীবীদের	-11.4534
▁বেস	-11.4535
▁রাশেদুল	-11.4536
▁বাড়িয়েছে	-11.4536
▁রাইটস	-11.4536
▁আফ্রিকায়	-11.4538
▁পেলেই	-11.4546
▁ছেড়েছেন	-11.4548
ara	-11.4549
▁দুর্বলতা	-11.4552
▁নট	-11.4554
▁বাতি	-11.4555
▁১০০০	-11.4556
▁কাইয়ুম	-11.4557
▁কার্যকলাপ	-11.4557
▁গৌরনদী	-11.4557
▁তুঙ্গে	-11.4558
▁সর্বকালের	-11.4558
▁উদ্ভিদ	-11.456
▁এনবিআর	-11.456
▁পেশাগত	-11.456
▁দুজনই	-11.4561
▁খড়	-11.4564
▁শিখা	-11.4565
▁চাচ্ছে	-11.4565
▁বোল্ড	-11.4567
▁তাহা	-11.4568
▁দড়ি	-11.457
▁সী	-11.4576
▁ছবিগুলো	-11.4582
▁বিপ্লবী	-11.4584
▁হকি	-11.459
জ্জ্বল	-11.459
▁অজুহাত	-11.4592
▁উইন্ডিজ	-11.4592
▁ওয়ার্কার্স	-11.4593
▁Shomoy	-11.4593
মুদ	-11.4595
▁একনেক	-11.4595
Express	-11.4596
▁আমতলী	-11.4596
▁ভান্ডার	-11.4596
▁তরল	-11.4597
▁রক্তদান	-11.4598
▁কওমি	-11.4598
▁জনসভা	-11.4599
▁ডক্টর	-11.4601
▁১০১	-11.4601
▁ক্যাম	-11.4602
▁হুইল	-11.4604
▁আখ্যা	-11.4606
গুড়ি	-11.4607
▁আধ	-11.4607
▁রাবার	-11.4607
▁রাজপুত	-11.4609
▁ভারসাম্য	-11.4611
▁পোকা	-11.4612
▁বিশ্বাসী	-11.4617
▁সফলভাবে	-11.4619
▁পড়ছেন	-11.462
▁তিশা	-11.4627
▁স্কটল্যান্ড	-11.4628
▁অরফানেজ	-11.4628
▁সবমিলিয়ে	-11.4628
▁এরআগে	-11.4628
▁জনৈক	-11.4628
▁অরুণ	-11.4628
▁চঞ্চল	-11.4629
▁এমদাদুল	-11.4629
▁রাণী	-11.463
▁আলোচক	-11.463
▁অতীত	-11.463
▁জগ	-11.4633
▁বাজারজাত	-11.4635
▁উজান	-11.4638
▁লিঙ্ক	-11.4638
▁বোনকে	-11.4639
▁মাগুরায়	-11.464
টাকা	-11.4645
▁View	-11.4645
▁মারতে	-11.4647
▁ড্রাম	-11.4647
▁প্রতিবেশীরা	-11.465
▁ছিনতাইয়ে	-11.4651
প্রায়	-11.4653
▁৬ষ্ঠ	-11.4658
▁ফেব্র	-11.4659
▁বুলেটিনে	-11.4663
▁বরিস	-11.4663
▁গীতিকার	-11.4664
ح	-11.4664
▁কন্ডিশন	-11.4664
▁জেসমিন	-11.4664
▁হরমোন	-11.4664
▁ফাঁকে	-11.4664
▁অপব্যবহার	-11.4664
▁জঙ্গল	-11.4664
▁প্রয়াস	-11.4664
▁গোল্ডেন	-11.4664
▁পঞ্চাশ	-11.4664
▁ইউরোপিয়ান	-11.4665
▁ভুইয়া	-11.4666
নিউজবিডি	-11.4666
▁not	-11.4668
এবার	-11.4671
▁অঞ্জন	-11.4671
▁যেনো	-11.4672
▁দোহার	-11.4677
▁ছক্কায়	-11.4677
▁ব্রিফিং	-11.4682
▁মন্ত্রক	-11.4684
▁ফুটিয়ে	-11.4686
▁কৃতজ্ঞ	-11.4687
▁বলছিলেন	-11.4687
২০২২	-11.4689
গঠিত	-11.469
সম্পর্ক	-11.4691
পৃষ্ঠ	-11.4697
▁আর্সেনাল	-11.4699
▁চুনারুঘাট	-11.4699
▁বুড়িচং	-11.4699
▁সরোয়ার	-11.4699
▁শপিংমল	-11.47
▁বৃ	-11.47
▁পৌছা	-11.47
▁পুজা	-11.4701
▁সমাজকল্যাণ	-11.4701
▁ভিন	-11.4702
▁মোজা	-11.4702
▁জাপানি	-11.4706
▁ডিএনসিসি	-11.4707
▁নুরুজ্জামান	-11.471
▁গতবছর	-11.4712
্ত	-11.4716
▁কোয়ারেন্টিন	-11.4719
▁আশঙ্কায়	-11.4722
ফিল্ড	-11.4725
▁পড়েনি	-11.4726
▁দাবা	-11.4729
▁নৈ	-11.4731
▁Tag	-11.4732
স্ট্রো	-11.4733
▁উৎক্ষেপণ	-11.4735
▁কেলেঙ্কারি	-11.4735
▁মফস্বল	-11.4735
▁শরণখোলা	-11.4735
▁সিলেবাস	-11.4735
▁একত্রিত	-11.4735
▁বাল্যবিয়ে	-11.4735
▁App	-11.4736
▁নেভা	-11.4736
▁শাওমি	-11.4736
▁অর্জিত	-11.4736
▁পৌঁছেছেন	-11.4737
▁চাবি	-11.4738
▁তৃতীয়বার	-11.4741
▁@	-11.4743
▁১২৫	-11.4744
▁নার্সিং	-11.4745
▁বারাক	-11.4746
sc	-11.4747
▁ঝরে	-11.4748
ডিজি	-11.4749
জিদ	-11.475
▁অ্যানি	-11.4756
বাণী	-11.4757
AL	-11.4757
▁রান্নাঘর	-11.4759
rimenewsbd	-11.4761
টেড	-11.4763
সাংগঠনিক	-11.4763
ড়িয়া	-11.4763
চী	-11.4767
▁১৪৪২	-11.4768
▁বৃদ্ধিতে	-11.4771
▁উত্থাপন	-11.4771
▁মাজহারুল	-11.4771
▁লাকসাম	-11.4771
▁হুসাইন	-11.4772
▁আনিছুর	-11.4773
▁Most	-11.4773
▁টেলিকম	-11.4774
▁সেমিফাইনাল	-11.4776
pr	-11.4781
ide	-11.4781
▁শিবচর	-11.4781
▁সাতদিন	-11.4786
▁আমলা	-11.4788
▁সাময়িকভাবে	-11.479
▁আন্ডার	-11.4795
▁সংগঠনগুলো	-11.4802
ance	-11.4808
▁Desk	-11.4808
▁যৌক্তিক	-11.4808
▁হিমশিম	-11.4808
▁বিজিএমইএ	-11.4808
▁অ্যামাজন	-11.4808
মিশন	-11.4809
▁সুন্দরগঞ্জ	-11.4812
▁সোনিয়া	-11.4812
▁শিপন	-11.4813
▁করোনাকালীন	-11.4814
▁পথসভা	-11.4823
মুলক	-11.4824
ত্ন	-11.4826
স্কো	-11.4826
▁বিক্ষোভকারীদের	-11.4827
▁দ্বার	-11.4829
▁বোট	-11.483
গৃহ	-11.4836
মোবাইল	-11.4836
▁হত্যাকারীদের	-11.4836
▁শোধ	-11.4837
▁পৌঁছলে	-11.4838
jo	-11.484
▁চিলি	-11.4842
▁কর্তব্য	-11.4843
▁প্যান	-11.4844
▁গাবতলী	-11.4844
▁জেলহাজতে	-11.4844
▁রাঙ্গুনিয়া	-11.4844
▁উধাও	-11.4844
▁কার্টুন	-11.4844
▁পেঁপে	-11.4844
▁প্রোটিয়া	-11.4845
▁কখনই	-11.4846
োত্তর	-11.4846
▁Amar	-11.4846
▁বেদনা	-11.4851
▁বিব্রত	-11.4852
ভিশন	-11.4853
▁সাপোর্টে	-11.4853
▁শুকিয়ে	-11.4854
▁ম্যাপ	-11.4854
▁গ্রেফতারকৃতরা	-11.4857
▁ঝাঁপ	-11.4858
পালং	-11.4866
▁সিরিজটি	-11.4866
▁আগ্নেয়াস্ত্র	-11.4881
▁চট্রগ্রাম	-11.4881
▁দুর্গন্ধ	-11.4881
▁প্রতিষেধক	-11.4881
▁রক্তক্ষরণ	-11.4881
▁সাব্যস্ত	-11.4881
▁পুঠিয়া	-11.4881
▁স্কুলছাত্রীকে	-11.4881
▁গোল্ডকাপ	-11.4881
শিবির	-11.4882
▁ক্রিসেন্ট	-11.4882
রঞ্জন	-11.4882
▁রেজাল্ট	-11.4882
▁ঘটবে	-11.4883
▁অ্যাক	-11.4883
▁তাড়াশ	-11.4884
▁বীরগঞ্জ	-11.4888
▁ইউজার	-11.4889
▁কর্নার	-11.489
▁মৈত্রী	-11.4893
▁জিতল	-11.4894
▁তীব্রতা	-11.4895
▁সরকারিভাবে	-11.4896
▁ইয়ে	-11.4905
ঘণ্টা	-11.491
▁পুর্ব	-11.4913
▁কার্যকারিতা	-11.4917
▁জনসমাগম	-11.4917
▁স্টুডেন্ট	-11.4917
▁বাপ্পি	-11.4917
▁অনুরাগ	-11.4918
বলা	-11.4921
▁খেলোয়াড়রা	-11.4921
▁যাননি	-11.4921
বাসি	-11.4922
▁দিরাই	-11.4925
▁ফাইবার	-11.4926
▁চকবাজার	-11.4926
▁নিলেও	-11.4927
▁ভোজ	-11.4931
▁রযাংকিংয়ে	-11.4934
▁২১শে	-11.4935
োচিত	-11.4936
▁কুক	-11.4938
▁খলিলু	-11.4938
থাম	-11.4944
▁হাইকমিশন	-11.4946
ঘোষিত	-11.4947
▁রেশন	-11.4949
পূ	-11.4954
▁দামুড়হুদা	-11.4954
▁শৈশব	-11.4954
▁চাকুরী	-11.4954
▁এহসান	-11.4954
▁অর্ধশতাধিক	-11.4954
▁স্নাতকোত্তর	-11.4954
▁দেবহাটা	-11.4955
▁মাল্টি	-11.4955
▁এনআরসি	-11.4955
▁নরম	-11.4957
ণ্ডা	-11.4958
দিবস	-11.4959
▁শফিকুর	-11.4959
▁জানায়নি	-11.4963
▁স্কুলছাত্র	-11.4963
ল্প	-11.4963
▁তর্ক	-11.4964
▁কুমারখালী	-11.497
▁বিক্ষোভকারীরা	-11.4972
▁থাই	-11.4973
লাখ	-11.4974
ies	-11.4982
ডাউন	-11.4986
▁তিল	-11.499
▁নিত্যপ্রয়োজনীয়	-11.4991
▁লোহাগড়া	-11.4991
▁সংখ্যাগরিষ্ঠ	-11.4991
▁সম্বলিত	-11.4991
▁কর্মবিরতি	-11.4991
▁প্রচন্ড	-11.4991
▁post	-11.4991
▁প্রস্তুতকারক	-11.4991
▁গোডাউন	-11.4992
▁কাইফ	-11.4994
▁পিন্টু	-11.4994
▁প্রশিক্ষক	-11.4995
▁দাওয়াত	-11.4997
▁লাফ	-11.4999
▁অতীতের	-11.5
▁আফ্রিকান	-11.5
▁এডিট	-11.5
▁সুচি	-11.5001
ভাতা	-11.5003
sion	-11.5003
▁লিখেন	-11.5006
▁+	-11.5009
সংখ্যক	-11.501
br	-11.5016
▁লতা	-11.5017
▁con	-11.5017
▁গড়েন	-11.5023
দুয়ার	-11.5026
▁পার্টনার	-11.5028
▁Friday	-11.5028
▁অনিশ্চিত	-11.5028
▁বিআরটিসি	-11.5028
▁ম্যাজিষ্ট্রেট	-11.5028
▁লৌহজং	-11.5028
▁সাতকানিয়া	-11.5028
▁মাঝখানে	-11.5028
▁দাউদকান্দি	-11.5028
▁বাউফল	-11.5029
▁তুচ্ছ	-11.503
▁টুল	-11.503
▁পাঠাগার	-11.503
▁চাচাতো	-11.503
▁কোমল	-11.503
▁মাসব্যাপী	-11.5032
▁পিটার	-11.5032
▁জলঢাকা	-11.5033
▁মাঘ	-11.5034
▁থাকতো	-11.5035
▁স্বীকৃত	-11.5035
▁নভেল	-11.5037
পক্ষে	-11.5043
▁Y	-11.505
▁শীতল	-11.5051
▁অধিনায়কত্ব	-11.5051
▁মালিকরা	-11.5051
▁ইন্দোনেশিয়ার	-11.5055
নার্স	-11.5062
▁Bi	-11.5062
▁প্রত্যা	-11.5064
▁ডিপ্লোমা	-11.5065
▁বেক্সিমকো	-11.5065
▁ডেমোক্র্যাট	-11.5065
▁কাহিনি	-11.5065
▁আইপিও	-11.5066
▁নৌযান	-11.5067
▁পাটকল	-11.5067
▁স্বাভাবিকভাবেই	-11.5069
▁খাবেন	-11.5071
▁ইবি	-11.5071
▁সিজন	-11.5072
▁হোতা	-11.5073
গাড়ি	-11.5078
▁ফুলেল	-11.5078
▁চ্যাট	-11.5079
end	-11.5079
▁১০৫	-11.509
▁রামেক	-11.5096
▁mo	-11.5097
▁বাজি	-11.5097
▁আশপাশে	-11.5098
▁ব্রিগেড	-11.5101
▁পাঁচটা	-11.5102
▁প্রসিকিউটর	-11.5102
▁বাঙালী	-11.5102
▁ভৌমিক	-11.5102
bazar	-11.5102
▁গ্রাউন্ড	-11.5103
▁ফলোয়ার	-11.5107
▁তরঙ্গ	-11.5108
দর্শন	-11.5111
▁দরবারে	-11.512
▁Nov	-11.5124
▁দেখেছে	-11.5127
▁লোকাল	-11.5129
▁দেখাচ্ছে	-11.5133
▁ডিপো	-11.5134
▁সৌভাগ্য	-11.514
▁দাঁড়ানো	-11.514
▁অন্তর্গত	-11.5141
▁সারাবিশ্বে	-11.5142
▁ইয়াসির	-11.5143
আরএম	-11.5144
▁মূল্যবোধ	-11.5144
▁করদাতা	-11.5144
টেস্ট	-11.5146
দানকারী	-11.5149
▁বাঁধন	-11.5152
▁আলমডাঙ্গা	-11.5152
▁স্বাস্থ্যকর	-11.5157
▁ফেলছে	-11.5164
কাট	-11.5171
কক্সবাজার	-11.5172
▁দেশবাসীকে	-11.5174
▁খোন্দকার	-11.5177
▁চাটমোহর	-11.5177
▁পিপলস	-11.5177
▁ডেল্টা	-11.5177
▁উর্ধ্বত	-11.5178
▁সামলাতে	-11.5178
▁বয়কট	-11.5178
▁তথ্যমতে	-11.5179
▁রাজারহাট	-11.5179
▁প্লেন	-11.518
▁সেতুটি	-11.5181
▁দাড়িয়ে	-11.5182
▁কৃষকলীগ	-11.5187
▁আসমা	-11.5187
ass	-11.5192
▁সুখী	-11.5194
▁বিশ্লেষক	-11.5196
▁আচার	-11.5198
দ্রি	-11.5204
চড়ে	-11.5208
দিনাজপুর২৪	-11.5208
৯৬	-11.5211
াচ্ছি	-11.5211
▁মধ্যম	-11.5211
▁গ্যালাক্সি	-11.5215
▁সাপাহার	-11.5215
▁মেট্রোরেল	-11.5215
▁গণপূর্ত	-11.5216
▁দাঁড়াবে	-11.5216
▁আফিফ	-11.5216
▁today	-11.5216
▁পদপ্রার্থী	-11.5217
জাদা	-11.522
▁গলি	-11.5221
▁স্মরণীয়	-11.5222
▁দাড়ি	-11.5223
▁বিন্দু	-11.5225
▁সায়েদ	-11.5234
▁ডাব	-11.5243
▁অমি	-11.5246
ঞ্চা	-11.5246
মন্ত্রণালয়	-11.5248
▁সাইড	-11.525
▁Me	-11.5253
<	-11.5253
▁কোতোয়ালী	-11.5253
▁ধর্মাবলম্বীদের	-11.5253
▁খাদিজা	-11.5253
▁দিল্লী	-11.5253
▁ব্যাটার	-11.5254
▁তানিয়া	-11.5254
▁রাতভর	-11.5254
▁শেল	-11.5257
▁মহাপরিদর্শক	-11.5257
শাসন	-11.5258
▁ঘটায়	-11.526
জেন্ট	-11.5263
▁টিভিতে	-11.5265
▁তাইওয়ান	-11.5266
▁অনুভূত	-11.5271
▁ভাবছে	-11.5274
গিরি	-11.5274
▁২০০৩	-11.5275
▁মসজিদটি	-11.5278
▁ঘটল	-11.5279
▁বন্য	-11.5285
▁কালবৈশাখী	-11.5291
▁ঠেলে	-11.5291
▁উদঘাটন	-11.5291
▁বাপ্পী	-11.5291
▁আফতাব	-11.5291
▁বাইসাইকেল	-11.5291
▁ক্লোজ	-11.5292
দায়ক	-11.5293
▁ক্যামেরায়	-11.5295
▁রাস	-11.5296
▁চবি	-11.5301
▁রাহাত	-11.5304
▁গোলাপগঞ্জ	-11.5307
▁পরামর্শক	-11.5307
▁উষ্ণ	-11.5308
▁বিছানায়	-11.5309
▁মোছা	-11.531
▁স্টোরি	-11.5314
অপারেশন	-11.5325
▁হংকং	-11.5326
▁ফেরাতে	-11.5329
▁সুজা	-11.5329
▁ইনফরমেশন	-11.5329
▁বাঁকুড়া	-11.533
▁কারাবন্দি	-11.5331
▁পারতেন	-11.5331
▁আবহাওয়াবিদ	-11.5333
▁চুয়াডাঙ্গায়	-11.5333
▁শিলা	-11.5333
▁টিজার	-11.5334
পানি	-11.5335
▁সমন্বয়কারী	-11.5336
▁উপকৃত	-11.5338
▁শিল্পা	-11.5339
line	-11.5342
▁আপা	-11.5353
▁মিতা	-11.5358
▁ব্যাটসম্যানদের	-11.5359
▁Ar	-11.5363
মুসলিম	-11.5365
নাশক	-11.5366
মিডিয়া	-11.5367
▁ডিমলা	-11.5367
▁বড়াইগ্রাম	-11.5368
▁কমিউনিস্ট	-11.5368
▁কেঁপে	-11.5368
▁উল্লাপাড়া	-11.5368
▁জালিয়াতি	-11.537
▁সমকাল	-11.5377
▁বাকিরা	-11.538
▁সালিশ	-11.5382
av	-11.5385
▁মেইন	-11.5387
তামিম	-11.5387
▁শিখে	-11.5392
খলা	-11.5398
▁পেরু	-11.5401
▁খাদ্যমন্ত্রী	-11.5406
▁অস্থিরতা	-11.5406
▁আহাম্মদ	-11.5406
▁উচ্ছ্বসিত	-11.5406
▁শায়েস্তাগঞ্জ	-11.5406
▁গলাচিপা	-11.5406
▁ইয়াছিন	-11.5406
▁সর্দার	-11.5406
▁পড়ালেখা	-11.5406
▁দারুন	-11.5406
▁নৌপরিবহন	-11.5406
▁নারকেল	-11.5406
▁বাগদাদ	-11.5407
▁মৎস্যজীবী	-11.5407
▁কামরান	-11.5408
▁লিস্ট	-11.5409
▁১৯৯৬	-11.5411
▁নাসিরনগর	-11.5414
▁নিয়ন্ত্রনে	-11.5415
▁কয়েকশ	-11.5416
▁উদ্যোক্তাদের	-11.5418
▁মুনির	-11.5418
▁তেঁতুলিয়া	-11.542
▁চাকরিতে	-11.5422
▁খেলছেন	-11.543
▁ফেরান	-11.5433
▁স্তন	-11.5433
ত্যাগ	-11.5434
হাতি	-11.5434
বয়স	-11.5439
ঢামেক	-11.5441
সার্বিক	-11.5441
▁শিখতে	-11.5444
▁অতঃপর	-11.5445
▁ক্যাপিটাল	-11.5445
▁গোমস্তাপুর	-11.5445
▁মেসেঞ্জার	-11.5445
▁সাবমেরিন	-11.5445
▁আন্দ্রে	-11.5445
▁স্থির	-11.5445
▁প্রোডাক্ট	-11.5445
▁দ্বিধা	-11.5446
▁লিগ্যাল	-11.5447
▁সায়েম	-11.5448
▁একটানা	-11.5449
fa	-11.5449
be	-11.5451
▁ভ্রা	-11.5456
ite	-11.5457
▁সাহ	-11.5457
▁কঠোরভাবে	-11.5461
্টু	-11.5462
ট্রাক	-11.5469
▁স্তর	-11.5472
▁ক্ষতিগ্রস্তদের	-11.5475
▁লেবার	-11.5476
▁ইন্স	-11.5477
▁এইসব	-11.5478
▁বেগমগঞ্জ	-11.5479
▁থিম	-11.5479
▁pa	-11.5483
Dinajpur	-11.5483
▁Author	-11.5483
▁Popular	-11.5483
▁ইউনিসেফ	-11.5483
▁ইনশাআল্লাহ	-11.5483
▁ব্রাউজার	-11.5483
▁আশ্চর্য	-11.5483
▁পলিথিন	-11.5483
▁গায়িকা	-11.5483
▁তারুণ্য	-11.5483
▁কাপাসিয়া	-11.5483
▁খেটে	-11.5488
▁যাত্রাবাড়ী	-11.5489
▁পার্শ্ব	-11.5489
মাত্রা	-11.5492
▁মিশে	-11.5493
▁স্যাম	-11.5493
▁সেচ	-11.5494
▁সুশীল	-11.5499
▁কামড়	-11.5502
খেলা	-11.551
ন্বিত	-11.5513
ك	-11.5517
▁ক্লিন	-11.552
▁ব্লে	-11.5521
▁Campus	-11.5522
▁যান্ত্রিক	-11.5522
▁নাবালিকা	-11.5522
▁বাহরাইন	-11.5522
▁টুটুল	-11.5522
▁Sunday	-11.5523
▁পেনশন	-11.5524
▁খোঁজখবর	-11.5524
▁উইকেটরক্ষক	-11.5525
▁এসএ	-11.5525
▁কপালে	-11.5525
▁কার্গো	-11.5526
▁চোরাই	-11.5526
▁বহুমুখী	-11.5528
▁সবকটি	-11.5528
▁কুশল	-11.5529
নিউ	-11.553
▁বর্ণিত	-11.5535
পৃষ্ট	-11.5539
▁ধরেছেন	-11.5542
▁লেডি	-11.5548
▁শব্দটি	-11.5551
▁আনবে	-11.5552
▁ইসলামিয়া	-11.5556
গার্ড	-11.5557
▁Su	-11.5557
Home	-11.5559
▁সিরি	-11.5561
ইন্নালিল্লাহি	-11.5561
▁পাউডার	-11.5561
▁জাদেজা	-11.5561
▁ডেন্টাল	-11.5561
▁মন্ডপ	-11.5562
▁হিলারি	-11.5562
▁জমিয়ে	-11.5563
▁ধর্মপ্রাণ	-11.5563
▁বৈদ্য	-11.5563
▁ইয়ো	-11.5564
able	-11.5564
▁কতটুকু	-11.5564
▁পুলিস	-11.5565
▁বলবে	-11.5567
▁লিচু	-11.5567
▁আইইডিসিআর	-11.5569
▁জবি	-11.5569
▁নিবন্ধিত	-11.5571
সফট	-11.5574
▁আরিফুর	-11.5577
ক্ষেত্র	-11.5581
▁প্রতিবার	-11.5583
▁বাধ	-11.5587
▁সারাবাংলা	-11.5591
▁নিজেরাই	-11.5592
▁গণি	-11.5592
▁খোয়া	-11.5598
রাজশাহী	-11.5598
সাধারন	-11.5599
▁ক্রোয়েশিয়া	-11.5601
▁বাথরুম	-11.5601
▁বাল্যবিবাহ	-11.5601
▁বিবেচিত	-11.5601
▁Crime	-11.5601
▁বীরভূম	-11.5601
▁ঠিকঠাক	-11.5601
▁দ্বিপাক্ষিক	-11.5601
▁মুকুট	-11.5601
▁কর্ণধার	-11.5601
▁ভূত	-11.5604
্তো	-11.5606
▁রাষ্ট্রপক্ষের	-11.5606
▁ডিএনএ	-11.5606
▁বৃহ	-11.5607
▁ধস	-11.5612
লাভ	-11.5615
▁বৌ	-11.5615
▁মেঘলা	-11.5617
▁সাতটা	-11.5617
▁সংস্থাগুলো	-11.5618
bengal	-11.562
▁কামড়ে	-11.5621
▁বিভ্রান্ত	-11.5622
▁দিনগত	-11.5624
▁নানাভাবে	-11.5629
▁পপ	-11.5634
pm	-11.5637
টাঙ্গাইল	-11.5638
▁অপরাধীদের	-11.564
কাঙ্ক্ষিত	-11.564
▁উস্কানি	-11.564
▁তোফাজ্জল	-11.564
▁এরদোয়ান	-11.564
▁সলমন	-11.564
▁নিরাময়	-11.564
খ্রি	-11.5641
ন্ডু	-11.5643
▁গড়লেন	-11.5648
▁যতদিন	-11.5653
▁স্বেচ্ছা	-11.5656
▁মঞ্জুরুল	-11.5663
▁সুস্থ্য	-11.5663
▁Ro	-11.5676
মুজিব	-11.5679
এসএল	-11.5679
▁বোরহান	-11.5679
মহাব্যবস্থাপক	-11.5679
▁জলপাইগুড়ি	-11.5679
▁বাজেয়াপ্ত	-11.5679
▁সিদ্ধার্থ	-11.5679
▁ব্যাকটেরিয়া	-11.5679
▁কর্মক্ষেত্রে	-11.5681
▁রচিত	-11.5681
▁ইলেক্ট্রনিক	-11.5682
ল্লু	-11.5683
▁রামপাল	-11.5683
▁তুলা	-11.5683
▁যুগল	-11.5685
▁প্রযোজনায়	-11.5685
▁ওখানে	-11.5696
মঞ্চ	-11.5703
ঝি	-11.5714
▁উদ্ভ	-11.5716
▁সমতায়	-11.5718
▁Prothom	-11.5719
▁ইব্রাহীম	-11.5719
▁মজবুত	-11.5719
▁মাউন্ট	-11.5719
▁ফিনল্যান্ড	-11.5719
▁বারান্দা	-11.5719
▁গির্জা	-11.572
▁শফী	-11.572
▁দ্বারস্থ	-11.5722
▁X	-11.5722
▁আচার্য	-11.5722
▁সারওয়ার	-11.5723
▁জাহাজটি	-11.5723
েন্দু	-11.5726
▁ট্যাঙ্ক	-11.5726
▁বিরোধীদের	-11.5727
▁জনজীবন	-11.5727
▁শিল্পীরা	-11.5728
▁My	-11.5729
ভাণ্ডার	-11.5729
▁মহেশ	-11.5731
▁রাজনীতিক	-11.5736
▁মাইজ	-11.5744
▁প্রতিষ্ঠায়	-11.5744
ত্ত্ব	-11.5744
▁কালিয়া	-11.5745
▁অসহায়দের	-11.5746
▁উল্লেখিত	-11.575
▁অপহরণকারী	-11.575
▁হারাম	-11.5752
▁মধুপুর	-11.5753
▁উবার	-11.5755
সন্ত্রাস	-11.5759
▁কাশ্মির	-11.5759
▁গাঙ্গুলি	-11.5759
উদ্দীপনা	-11.5759
▁মুখোশ	-11.5759
app	-11.576
▁পিপিই	-11.576
▁দুরন্ত	-11.576
▁সন্দেহজনক	-11.5761
▁আফসার	-11.5762
▁বেলুন	-11.5763
▁শাজাহান	-11.5764
বিএম	-11.5765
▁মেনন	-11.5766
▁Ba	-11.5773
বলী	-11.5779
wi	-11.578
▁ওয়াক	-11.5783
প্রতিনিধি	-11.5783
▁গেছি	-11.5785
▁হত্যাকাণ্ডে	-11.5786
▁বিচ	-11.5789
▁অগ্নিকাণ্ড	-11.5789
▁শার্ট	-11.579
তোষ	-11.5792
▁Kagoj	-11.5799
▁অপ্রীতিকর	-11.5799
▁গুরুত্বারোপ	-11.5799
▁স্টুডিও	-11.5799
▁নির্বিশেষে	-11.5799
▁বিলাসবহুল	-11.5799
▁অপমৃত্যু	-11.58
▁ফেরিঘাট	-11.5802
▁কদর	-11.5809
▁রয়্যাল	-11.5814
▁জানুন	-11.5816
▁রশি	-11.5819
▁রামগঞ্জ	-11.5828
▁ইশা	-11.5829
▁জেলেরা	-11.5834
সিডি	-11.5835
▁ইনজেকশন	-11.5839
▁দেবাশীষ	-11.5839
▁দ্বিপক্ষীয়	-11.5839
▁প্রতিবন্ধকতা	-11.5839
▁মজিবর	-11.5839
▁Oct	-11.584
হরি	-11.5841
▁শিক্ষাবর্ষে	-11.5843
▁ভোটাধিকার	-11.5843
▁ডায়েট	-11.5843
▁সাশ্রয়ী	-11.5844
▁বালক	-11.5846
▁বিটিভি	-11.5848
▁ভাইরাসটিতে	-11.5849
▁হরিপুর	-11.585
▁ব্রিটেনে	-11.5852
▁ডেঙ্গুতে	-11.5853
▁সম্পৃক্ততা	-11.5859
ঘোনা	-11.5859
এমডি	-11.5861
▁আওতা	-11.5863
ey	-11.5865
▁দেবার	-11.5873
▁হোন	-11.5875
▁স্বচ্ছতা	-11.5876
▁দীঘি	-11.5877
▁প্রমান	-11.5878
▁রক্ষণাবেক্ষণ	-11.5879
▁সেনানিবাস	-11.5879
▁অন্যথায়	-11.588
বগুড়া	-11.588
▁উসমান	-11.588
▁NTV	-11.588
▁লড়বে	-11.588
▁খাইয়ে	-11.5881
▁ভিত্তিহীন	-11.5883
▁চক্রান্ত	-11.5883
▁হীরা	-11.5885
▁বিশ্বজিৎ	-11.5886
▁৩৫০	-11.5888
▁জৈন	-11.5891
▁এসিড	-11.5896
▁আবেদনপত্র	-11.59
ary	-11.5901
▁চেইন	-11.5902
▁বিএসএমএমইউ	-11.5906
▁ছাপা	-11.5907
▁নরসিংদীতে	-11.5908
▁খালা	-11.5913
مَ	-11.5914
এজিএম	-11.5914
▁বসতবাড়ি	-11.5915
▁দাঙ্গা	-11.5917
▁ছুঁড়ে	-11.592
▁আশাশুনি	-11.592
▁প্রতিবেশি	-11.592
▁অগ্রণী	-11.592
▁সৈয়দা	-11.5921
▁জমায়েত	-11.5921
▁হ্যারি	-11.5922
▁Our	-11.5922
পরিকল্পনামন্ত্রী	-11.5923
স্তো	-11.5923
▁as	-11.5925
▁ডেভ	-11.5932
▁সিদ্দিকুর	-11.5932
্দা	-11.5935
▁ট্রেডিং	-11.5935
ten	-11.5936
চাষ	-11.5945
▁বজ্র	-11.5947
gra	-11.5955
▁উইং	-11.5956
যোদ্ধা	-11.596
▁ইহুদি	-11.596
▁বিধ্বংসী	-11.5961
▁সুরতহাল	-11.5961
▁সয়াবিন	-11.5961
▁রিসেপ	-11.5961
▁সপরিবারে	-11.5961
▁পশ্চিমাঞ্চল	-11.5962
▁আটককৃতদের	-11.5962
▁নাগরপুর	-11.5962
▁রাইস	-11.5962
▁কমায়	-11.5963
▁চ্যারিট	-11.5964
▁ইলেকট্রনিক্স	-11.5965
▁চাষাবাদ	-11.5965
▁রাস্তাটি	-11.597
বুনিয়া	-11.5971
▁গন্তব্যে	-11.5971
▁ডোবা	-11.5971
▁হেরোইন	-11.5973
বশত	-11.5974
ব্ধ	-11.5976
খানি	-11.5986
▁নগরবাসী	-11.5992
ف	-11.5998
দিনাজপুর	-11.6001
▁অচেতন	-11.6001
▁অনুপ্রাণিত	-11.6001
▁কীটনাশক	-11.6001
▁ব্যতীত	-11.6001
▁স্কাউট	-11.6001
▁হোয়াইটওয়াশ	-11.6001
▁হত্যাচেষ্টা	-11.6001
▁উকিল	-11.6001
পশ্চিমাঞ্চল	-11.6003
▁সুরক্ষায়	-11.6006
▁বদরুল	-11.6008
▁আন্দোলনরত	-11.6009
▁জিডিপি	-11.6014
শ্ম	-11.6014
▁পেপ	-11.6019
▁সিকিউরিটিজ	-11.6022
▁পারলেন	-11.6025
▁বিআরটিএ	-11.6027
▁জানাযায়	-11.6029
▁ক্ব	-11.6036
ধেয়ে	-11.6042
▁উচ্ছ্বাস	-11.6042
▁নিষ্ক্রিয়	-11.6042
▁বিশুদ্ধ	-11.6042
▁রাবেয়া	-11.6042
▁হরিয়ানা	-11.6043
াইজেশন	-11.6046
▁ঠিকমতো	-11.6048
▁আমিনুর	-11.6049
কূপ	-11.605
▁ইনজুরিতে	-11.605
▁লাভবান	-11.6051
ক্ষ্য	-11.6053
will	-11.6054
▁ঘট	-11.6056
▁চারদিকে	-11.6058
▁রাষ্ট্রপক্ষে	-11.6063
▁নেননি	-11.6067
▁জনগোষ্ঠী	-11.6068
ভিয়া	-11.6069
▁মিলার	-11.6071
▁বমি	-11.6072
▁জীবননগর	-11.6072
▁দণ্ডপ্রাপ্ত	-11.6083
▁ট্যুইট	-11.6084
বিআইডব্লিউটিএ	-11.6084
▁আজারবাইজান	-11.6084
▁কনভেনশন	-11.6084
▁চ্যান্সেলর	-11.6084
▁নাঙ্গলকোট	-11.6084
▁জৈব	-11.6084
▁গফুর	-11.6084
রক্ষার্থে	-11.6087
▁নিদর্শন	-11.6088
▁রাসুল	-11.6088
ফেল	-11.6089
▁দেখিয়েছে	-11.6091
▁শ্রোতা	-11.6097
▁হবো	-11.6105
▁সমীর	-11.6105
▁সাইজ	-11.6115
প্তি	-11.6119
কাশি	-11.612
▁নাজির	-11.612
▁বরেণ্য	-11.6125
▁পেছানো	-11.6125
োৎসব	-11.6125
▁হ্রদ	-11.6125
▁শ্যা	-11.6126
▁অবসাদ	-11.6127
উপাচার্য	-11.6127
বিদ্যুৎ	-11.6127
বিদেশি	-11.6127
▁সিলেটভিউ	-11.6127
▁বিমানবাহিনী	-11.6129
ক্লো	-11.613
▁চুমু	-11.6132
▁আনাম	-11.615
▁উদ্যান	-11.6151
▁ঠিকানায়	-11.6159
▁বিজ্ঞানীদের	-11.6165
▁বিস্ময়	-11.6165
▁রোমান্টিক	-11.6166
অ্যাস্ট্রাজেনেকা	-11.6166
▁এলোপাতাড়ি	-11.6166
▁ঠাঁই	-11.6166
▁ভয়ভীতি	-11.6166
▁সুপারভাইজার	-11.6166
▁মোস্তাফা	-11.6166
▁কাশিমপুর	-11.6166
▁রজনী	-11.6166
▁লড়ছে	-11.6168
▁অবকাশ	-11.617
▁হারালেন	-11.617
▁হত্যাকারী	-11.6174
রবিবার	-11.6175
▁পেন	-11.6181
ms	-11.6181
▁গোলাপি	-11.6191
Ch	-11.6192
▁রয়্যালস	-11.6192
▁ডাচ	-11.6193
▁বলবো	-11.6198
▁দেখবে	-11.6201
▁প্রার্থিতা	-11.6208
ডাব্লিউ	-11.6208
▁তাহসান	-11.6208
▁লস্কর	-11.6208
▁উম্মে	-11.6208
▁শোবিজ	-11.6208
▁সার্জেন্ট	-11.6208
▁অগ্রযাত্রা	-11.6209
▁মন্ত্রিসভায়	-11.6209
▁মাসুদু	-11.6209
▁রঙ্গ	-11.6212
▁সতর্কবার্তা	-11.6212
▁বুস্টার	-11.6213
▁ফারুকী	-11.6214
বিন্যাস	-11.6214
▁কেএম	-11.6218
▁আক্ষেপ	-11.6219
▁যৌনতা	-11.6219
▁মহারাজ	-11.6225
▁ঠেক	-11.6225
কানুন	-11.6225
▁Z	-11.6232
▁দেবো	-11.6233
▁লরি	-11.6236
▁পারত	-11.6237
▁১২৮	-11.624
▁সাধু	-11.6247
▁Life	-11.625
▁কটূক্তি	-11.625
▁নারায়নগঞ্জ	-11.625
▁স্মৃতিসৌধ	-11.625
▁বরুণ	-11.625
▁ভাঁজ	-11.625
▁blog	-11.625
▁বইছে	-11.6253
▁সাহাব	-11.6254
▁রুটিন	-11.6254
▁কর্তন	-11.6255
গুলা	-11.6255
▁ব্রণ	-11.6255
ভুত	-11.6256
▁বাড্ডা	-11.6259
▁পৌঁছা	-11.626
▁সমমান	-11.6261
▁শিক্ষাগত	-11.6264
▁বয়সি	-11.6264
▁স্পা	-11.6266
▁কোপ	-11.6271
▁চাউল	-11.6273
▁নুরু	-11.6277
▁খাম	-11.6277
cc	-11.6279
ডিআই	-11.6283
▁সামিল	-11.6284
▁হামজা	-11.6284
▁রিটার্ন	-11.6288
▁অনুষ্ঠ	-11.6291
▁ক্ষয়	-11.6291
▁নেটিজেনদের	-11.6292
▁পল্লবী	-11.6292
▁পাইকগাছা	-11.6292
▁অনুষ্টিত	-11.6292
▁উৎপত্তি	-11.6292
▁this	-11.6292
▁স্থপতি	-11.6292
▁অধীর	-11.6292
▁সমাগম	-11.6292
▁বাস্তবায়িত	-11.6292
▁এয়ারপোর্ট	-11.6293
▁হজযাত্রী	-11.6293
▁অনাদায়	-11.6293
▁হেল্প	-11.6293
▁দেখলাম	-11.6293
▁জ্বলে	-11.6294
▁রাঙামাটিতে	-11.6296
ব্যবস্থাপনা	-11.6296
গৌ	-11.6296
▁পরিকল্পিতভাবে	-11.6299
মধ্য	-11.6302
▁মিশা	-11.6302
▁রোশন	-11.6305
▁কারবার	-11.6308
▁ওয়াচ	-11.631
▁দশা	-11.6314
▁বাহুবল	-11.6315
ner	-11.6315
ক্ষেত	-11.6316
পূজা	-11.6319
▁শ্যামলী	-11.6321
▁বললেই	-11.6322
▁গণ্য	-11.6328
▁মৌসুমি	-11.6328
▁আয়া	-11.6334
▁অমানবিক	-11.6334
▁আশ্বস্ত	-11.6334
▁এন্টারপ্রাইজ	-11.6334
▁কারচুপি	-11.6334
▁ক্যারিবিয়ান	-11.6334
▁পুরস্কৃত	-11.6334
▁ইয়াকুব	-11.6334
▁আদমদীঘি	-11.6334
▁থমকে	-11.6334
▁কলোনি	-11.6334
▁আলোকচিত্র	-11.6335
▁ফজর	-11.6335
ুন্নবী	-11.6335
▁হাঁটতে	-11.6336
▁ভিক্ষা	-11.6336
▁টিউব	-11.6337
নির্বাচিত	-11.6337
▁হংকংয়ে	-11.6338
সম্পাদনা	-11.6338
bangladesh	-11.6338
আইন	-11.634
▁বিলীন	-11.6341
▁শিগগির	-11.6341
▁ট্রাস্টি	-11.6342
গ্রন্থ	-11.635
▁উদ্ব	-11.6359
▁Dec	-11.6362
▁হাতিয়া	-11.6362
▁নীলা	-11.6364
বিত্ত	-11.6365
▁বিবরণী	-11.637
▁Lo	-11.6373
ভূক্ত	-11.6375
web	-11.6376
▁রিচার্ড	-11.6376
▁অতর্কিত	-11.6376
▁শবনম	-11.6376
▁শোকাহত	-11.6376
▁শাহনাজ	-11.6377
▁স্পিড	-11.6377
▁চৈত্র	-11.6377
▁ট্রাভেল	-11.6377
▁কাটাচ্ছেন	-11.6379
▁Tags	-11.6382
ভূষণ	-11.6387
▁৬নং	-11.6392
অফ	-11.6396
▁পিসিবি	-11.6403
▁ডিজাইনার	-11.6408
▁পড়বেন	-11.641
▁ট্রেন্ড	-11.6412
▁কথোপকথন	-11.6419
▁গ্রীষ্মকাল	-11.6419
▁চৌরাস্তা	-11.6419
▁সওদাগর	-11.6419
▁হেলমেট	-11.6419
▁lead	-11.6419
▁মডার্ন	-11.6419
▁মহল্লার	-11.6419
▁বড়সড়	-11.6419
▁সাক্ষ্যগ্রহণ	-11.6419
[...]
