<unk>	0
<s>	0
</s>	0
<pad>	0
<|user|>	0
<|assistant|>	0
<|end|>	0
<|system|>	0
<|pad|>	0
<|sep|>	0
<|cls|>	0
<|mask|>	0
<0x00>	0
<0x01>	0
<0x02>	0
<0x03>	0
<0x04>	0
<0x05>	0
<0x06>	0
<0x07>	0
<0x08>	0
<0x09>	0
<0x0A>	0
<0x0B>	0
<0x0C>	0
<0x0D>	0
<0x0E>	0
<0x0F>	0
<0x10>	0
<0x11>	0
<0x12>	0
<0x13>	0
<0x14>	0
<0x15>	0
<0x16>	0
<0x17>	0
<0x18>	0
<0x19>	0
<0x1A>	0
<0x1B>	0
<0x1C>	0
<0x1D>	0
<0x1E>	0
<0x1F>	0
<0x20>	0
<0x21>	0
<0x22>	0
<0x23>	0
<0x24>	0
<0x25>	0
<0x26>	0
<0x27>	0
<0x28>	0
<0x29>	0
<0x2A>	0
<0x2B>	0
<0x2C>	0
<0x2D>	0
<0x2E>	0
<0x2F>	0
<0x30>	0
<0x31>	0
<0x32>	0
<0x33>	0
<0x34>	0
<0x35>	0
<0x36>	0
<0x37>	0
<0x38>	0
<0x39>	0
<0x3A>	0
<0x3B>	0
<0x3C>	0
<0x3D>	0
<0x3E>	0
<0x3F>	0
<0x40>	0
<0x41>	0
<0x42>	0
<0x43>	0
<0x44>	0
<0x45>	0
<0x46>	0
<0x47>	0
<0x48>	0
<0x49>	0
<0x4A>	0
<0x4B>	0
<0x4C>	0
<0x4D>	0
<0x4E>	0
<0x4F>	0
<0x50>	0
<0x51>	0
<0x52>	0
<0x53>	0
<0x54>	0
<0x55>	0
<0x56>	0
<0x57>	0
<0x58>	0
<0x59>	0
<0x5A>	0
<0x5B>	0
<0x5C>	0
<0x5D>	0
<0x5E>	0
<0x5F>	0
<0x60>	0
<0x61>	0
<0x62>	0
<0x63>	0
<0x64>	0
<0x65>	0
<0x66>	0
<0x67>	0
<0x68>	0
<0x69>	0
<0x6A>	0
<0x6B>	0
<0x6C>	0
<0x6D>	0
<0x6E>	0
<0x6F>	0
<0x70>	0
<0x71>	0
<0x72>	0
<0x73>	0
<0x74>	0
<0x75>	0
<0x76>	0
<0x77>	0
<0x78>	0
<0x79>	0
<0x7A>	0
<0x7B>	0
<0x7C>	0
<0x7D>	0
<0x7E>	0
<0x7F>	0
<0x80>	0
<0x81>	0
<0x82>	0
<0x83>	0
<0x84>	0
<0x85>	0
<0x86>	0
<0x87>	0
<0x88>	0
<0x89>	0
<0x8A>	0
<0x8B>	0
<0x8C>	0
<0x8D>	0
<0x8E>	0
<0x8F>	0
<0x90>	0
<0x91>	0
<0x92>	0
<0x93>	0
<0x94>	0
<0x95>	0
<0x96>	0
<0x97>	0
<0x98>	0
<0x99>	0
<0x9A>	0
<0x9B>	0
<0x9C>	0
<0x9D>	0
<0x9E>	0
<0x9F>	0
<0xA0>	0
<0xA1>	0
<0xA2>	0
<0xA3>	0
<0xA4>	0
<0xA5>	0
<0xA6>	0
<0xA7>	0
<0xA8>	0
<0xA9>	0
<0xAA>	0
<0xAB>	0
<0xAC>	0
<0xAD>	0
<0xAE>	0
<0xAF>	0
<0xB0>	0
<0xB1>	0
<0xB2>	0
<0xB3>	0
<0xB4>	0
<0xB5>	0
<0xB6>	0
<0xB7>	0
<0xB8>	0
<0xB9>	0
<0xBA>	0
<0xBB>	0
<0xBC>	0
<0xBD>	0
<0xBE>	0
<0xBF>	0
<0xC0>	0
<0xC1>	0
<0xC2>	0
<0xC3>	0
<0xC4>	0
<0xC5>	0
<0xC6>	0
<0xC7>	0
<0xC8>	0
<0xC9>	0
<0xCA>	0
<0xCB>	0
<0xCC>	0
<0xCD>	0
<0xCE>	0
<0xCF>	0
<0xD0>	0
<0xD1>	0
<0xD2>	0
<0xD3>	0
<0xD4>	0
<0xD5>	0
<0xD6>	0
<0xD7>	0
<0xD8>	0
<0xD9>	0
<0xDA>	0
<0xDB>	0
<0xDC>	0
<0xDD>	0
<0xDE>	0
<0xDF>	0
<0xE0>	0
<0xE1>	0
<0xE2>	0
<0xE3>	0
<0xE4>	0
<0xE5>	0
<0xE6>	0
<0xE7>	0
<0xE8>	0
<0xE9>	0
<0xEA>	0
<0xEB>	0
<0xEC>	0
<0xED>	0
<0xEE>	0
<0xEF>	0
<0xF0>	0
<0xF1>	0
<0xF2>	0
<0xF3>	0
<0xF4>	0
<0xF5>	0
<0xF6>	0
<0xF7>	0
<0xF8>	0
<0xF9>	0
<0xFA>	0
<0xFB>	0
<0xFC>	0
<0xFD>	0
<0xFE>	0
<0xFF>	0
।	-3.03499
,	-3.61159
ের	-4.6711
র	-4.70874
▁ও	-4.77829
▁	-4.9566
-	-4.959
:	-5.12704
▁করে	-5.15998
▁থেকে	-5.32613
▁এ	-5.33839
▁(	-5.41273
)	-5.41425
▁করা	-5.45419
ে	-5.461
▁হয়েছে	-5.48762
'	-5.55117
▁হয়	-5.56273
কে	-5.56443
▁এই	-5.57951
.	-5.61633
▁না	-5.68487
▁তিনি	-5.74014
▁।	-5.75717
▁এবং	-5.77632
▁'	-5.82051
ও	-5.92275
▁এক	-5.93013
▁হবে	-5.93051
▁তার	-5.94766
▁নিয়ে	-5.95437
▁বলেন	-5.95559
▁জন্য	-5.98065
ই	-5.98091
2	-6.02628
▁করেন	-6.08558
▁একটি	-6.09286
▁করতে	-6.24454
▁এর	-6.27544
▁সময়	-6.27575
0	-6.33251
▁মধ্যে	-6.35537
▁হয়ে	-6.39077
1	-6.39545
▁পর	-6.40806
▁বলে	-6.41275
▁সঙ্গে	-6.41874
▁:	-6.42743
▁পুলিশ	-6.47825
▁জানান	-6.48722
▁আর	-6.52724
▁তাদের	-6.52946
▁জন	-6.53438
তে	-6.56073
▁হাজার	-6.58053
▁করেছে	-6.58155
▁-	-6.58353
সহ	-6.61687
▁যায়	-6.62142
▁বাংলাদেশ	-6.63352
▁করেছেন	-6.64951
▁তবে	-6.66011
▁দিয়ে	-6.66833
▁গত	-6.68595
▁শুরু	-6.68618
য়	-6.69894
টি	-6.71899
▁কথা	-6.7268
▁উপজেলা	-6.78211
▁হচ্ছে	-6.78751
▁যে	-6.7992
▁দুই	-6.80085
▁ওই	-6.81128
▁তারা	-6.83301
▁বিভিন্ন	-6.84549
▁ইসলাম	-6.84709
▁জেলা	-6.84955
▁নতুন	-6.85609
▁রয়েছে	-6.86305
দের	-6.86845
▁করার	-6.87349
▁আগে	-6.8785
▁ছিলেন	-6.88078
▁আজ	-6.89001
4	-6.90528
ন	-6.91378
রা	-6.93574
▁পর্যন্ত	-6.93842
▁টাকা	-6.94475
▁মো	-6.94895
▁কাজ	-6.96335
▁সম্পাদক	-6.96821
▁হোসেন	-6.98715
▁হিসেবে	-6.99028
▁রহমান	-6.99349
▁গেছে	-6.99943
▁করোনা	-7.00231
▁উপজেলার	-7.00266
▁তাকে	-7.00372
▁প্রথম	-7.00669
▁কিন্তু	-7.00764
▁ঢাকা	-7.00957
▁আরও	-7.01354
▁তা	-7.01465
▁বছর	-7.01964
▁সেই	-7.03123
▁বা	-7.04535
▁–	-7.04686
▁১০	-7.05312
▁২	-7.06087
▁জাতীয়	-7.06095
▁প্রধান	-7.06265
▁ছিল	-7.07629
▁আমরা	-7.08487
▁খবর	-7.10192
▁দিন	-7.10301
▁পারে	-7.12271
▁কোনো	-7.12471
▁দেখা	-7.12675
▁দেশের	-7.13405
▁৩	-7.13739
া	-7.14351
▁১	-7.14493
▁পরে	-7.14855
▁সভাপতি	-7.14948
▁জানা	-7.15106
▁বিরুদ্ধে	-7.15685
▁সাথে	-7.16324
▁শেখ	-7.16591
▁দিকে	-7.16607
▁এখন	-7.16819
▁আমাদের	-7.16923
▁৫	-7.17629
স	-7.18924
ি	-7.19392
▁সব	-7.1957
▁২০২০	-7.19779
▁সাধারণ	-7.20831
▁২০২১	-7.21876
▁শেষ	-7.22724
▁হতে	-7.22848
▁লাখ	-7.22861
▁তথ্য	-7.2348
▁কাছে	-7.24251
▁দেওয়া	-7.2426
▁সরকার	-7.24812
▁প্রকাশ	-7.24829
▁উদ্ধার	-7.2496
▁সে	-7.25294
▁৪	-7.25379
▁সদস্য	-7.26633
▁বেশি	-7.27003
▁মে	-7.27008
▁কর্মকর্তা	-7.27312
▁মাধ্যমে	-7.27494
▁কিছু	-7.27545
▁বুধবার	-7.28229
▁সোমবার	-7.29964
▁মঙ্গলবার	-7.30775
▁অভিযোগ	-7.30833
▁আমি	-7.3094
▁হাসপাতালে	-7.31376
ী	-7.3153
▁বৃহস্পতিবার	-7.31727
▁চেয়ারম্যান	-7.33537
▁মৃত্যু	-7.34162
▁নিহত	-7.35001
▁কারণে	-7.3663
▁২০১৯	-7.36815
▁নেই	-7.37016
!	-7.37067
▁অনেক	-7.3727
▁আটক	-7.37437
▁প্রধানমন্ত্রী	-7.37606
▁আওয়ামী	-7.37681
▁প্রকাশিত	-7.3789
▁এলাকায়	-7.38467
▁শনিবার	-7.39042
▁উপস্থিত	-7.39293
▁৬	-7.3942
▁ছেলে	-7.39877
▁অনুষ্ঠিত	-7.40142
▁প্রায়	-7.4023
▁নয়	-7.40898
▁ডেস্ক	-7.40906
▁আমার	-7.40972
▁২৪	-7.41223
▁দেন	-7.42088
▁সংবাদ	-7.421
▁আছে	-7.42683
▁শুক্রবার	-7.43083
▁বিষয়ে	-7.43084
▁১২	-7.43094
▁তিন	-7.45489
▁বড়	-7.45571
/	-7.45621
▁জানিয়েছেন	-7.45991
▁দেশে	-7.46229
▁হয়েছেন	-7.47142
▁আক্রান্ত	-7.47334
▁এমন	-7.47868
।'	-7.48595
▁১১	-7.49186
▁নাম	-7.49688
▁গ্রামের	-7.50039
▁নিশ্চিত	-7.50282
▁ঘোষণা	-7.50292
▁৭	-7.50781
▁করছে	-7.51191
▁হলে	-7.5134
▁২০	-7.5245
▁ধরে	-7.52709
▁তাই	-7.52722
▁বাংলাদেশের	-7.52797
▁স্বাস্থ্য	-7.52922
▁যাবে	-7.53235
▁থানার	-7.53534
▁বন্ধ	-7.53766
▁সকাল	-7.53796
▁মামলা	-7.53993
▁বছরের	-7.54034
▁এতে	-7.5408
▁ঘটনা	-7.54303
▁আগামী	-7.54581
▁দল	-7.54607
3	-7.54632
▁News	-7.54693
▁দলের	-7.54802
9	-7.55005
▁এবার	-7.55163
▁মানুষ	-7.55321
▁বিশেষ	-7.55848
▁খান	-7.56142
▁বলা	-7.56166
▁দিতে	-7.57308
ক	-7.5749
▁অক্টোবর	-7.57907
▁কোটি	-7.58266
▁আরো	-7.58512
▁দেয়া	-7.58638
▁প্রতি	-7.58701
▁দাবি	-7.58894
▁ঘটনায়	-7.59048
▁স্থানীয়	-7.5906
▁নিউজ	-7.5908
▁১৫	-7.59294
▁৮	-7.59417
▁জুন	-7.59836
▁সেপ্টেম্বর	-7.59896
▁পাওয়া	-7.60221
▁কোন	-7.60287
▁সাবেক	-7.60718
▁মতো	-7.61454
5	-7.6153
▁জুলাই	-7.61965
▁সদর	-7.6221
▁মার্চ	-7.62276
ল	-7.62387
?	-7.63108
▁মানুষের	-7.63417
▁Home	-7.63641
▁একজন	-7.64016
▁৯	-7.65252
▁সহ	-7.65387
▁আহত	-7.65812
7	-7.65843
▁যা	-7.66174
▁ছবি	-7.66909
▁নামে	-7.67772
▁বিষয়টি	-7.6799
▁ইউনিয়নের	-7.68423
▁এপ্রিল	-7.68445
▁আপডেট	-7.68509
▁এসব	-7.68865
com	-7.69049
▁পুলিশের	-7.69593
▁রাতে	-7.70058
▁সালে	-7.70348
▁তাঁর	-7.70946
▁সকালে	-7.71659
8	-7.71764
▁আলী	-7.72011
▁গিয়ে	-7.72274
▁জনের	-7.73305
▁তৈরি	-7.73549
▁হওয়ার	-7.73673
▁পড়ে	-7.73686
▁দেশ	-7.73893
▁আন্তর্জাতিক	-7.74
▁রাত	-7.74357
▁লীগের	-7.74478
▁হক	-7.75141
▁করছেন	-7.75423
▁"	-7.75436
▁নভেম্বর	-7.75858
▁শেষে	-7.75882
▁গ্রেফতার	-7.76101
▁জানুয়ারি	-7.76163
▁ভারতের	-7.76236
▁বলেছেন	-7.76276
▁মা	-7.76316
▁টি	-7.7636
▁এলাকার	-7.77003
▁কি	-7.77196
▁নেতা	-7.772
▁সেখানে	-7.77509
▁মোঃ	-7.77984
ম	-7.78008
▁যাচ্ছে	-7.78366
▁শিক্ষা	-7.78655
▁অংশ	-7.78741
▁বাড়ি	-7.7902
▁ব্যবস্থা	-7.79032
▁নারী	-7.79035
▁১৪	-7.79275
▁সরকারি	-7.79293
▁মনে	-7.79301
▁সংখ্যা	-7.79515
▁দিয়েছেন	-7.79948
▁আল	-7.80187
▁সামনে	-7.80514
▁বেশ	-7.80531
6	-7.80703
▁ডিসেম্বর	-7.8074
▁২০১৮	-7.80748
▁নির্বাচন	-7.80834
▁একই	-7.81086
▁দিয়েছে	-7.81255
▁পরীক্ষা	-7.81837
▁মোহাম্মদ	-7.82193
▁সিদ্ধান্ত	-7.83095
▁১৯	-7.83166
টা	-7.83197
▁দু	-7.83449
▁সালের	-7.83565
▁হলো	-7.84017
▁থাকে	-7.84384
▁মারা	-7.84438
▁অনুষ্ঠানে	-7.84767
▁এটি	-7.84931
▁দ্বিতীয়	-7.85014
▁জানিয়েছে	-7.85147
▁কলেজ	-7.85427
▁হাসান	-7.85446
▁আলম	-7.85572
▁নিজের	-7.86295
s	-7.86363
না	-7.86378
▁কে	-7.87032
▁বাংলা	-7.87195
▁ওপর	-7.87484
▁আগস্ট	-7.87669
▁এম	-7.8772
▁ভালো	-7.87825
▁পেয়ে	-7.87949
▁ড	-7.88191
▁উদ্দিন	-7.88716
▁দেয়	-7.88837
▁পরিবারের	-7.89044
▁এরপর	-7.89096
▁থাকা	-7.89151
▁হন	-7.89159
▁ভর্তি	-7.89165
▁আ	-7.89365
▁যান	-7.89403
▁চৌধুরী	-7.89769
▁১৩	-7.89861
▁মোট	-7.89914
▁চেষ্টা	-7.89954
▁সরকারের	-7.90143
▁হাতে	-7.9016
▁তুলে	-7.90485
▁১৮	-7.90516
▁৩০	-7.90858
▁প্রতিনিধি	-7.91551
▁গতকাল	-7.91655
▁ফলে	-7.91663
▁করবে	-7.9192
১	-7.92363
▁১৬	-7.9256
পুর	-7.92651
▁অভিযান	-7.92784
▁ব্যবহার	-7.92845
▁১৭	-7.9313
▁কম	-7.93652
▁থানায়	-7.94199
▁সাড়ে	-7.94456
▁পরিচালক	-7.9488
▁অবস্থায়	-7.94935
▁চলছে	-7.96169
▁ঘটে	-7.96465
▁পাশাপাশি	-7.97361
▁এছাড়া	-7.97438
▁কারণ	-7.97562
▁আলোচনা	-7.97569
▁নিতে	-7.97613
▁নির্বাহী	-7.97655
▁আহমেদ	-7.97669
▁২১	-7.9807
▁করবেন	-7.9828
▁বক্তব্য	-7.98282
▁বিএনপি	-7.98397
▁চার	-7.99152
▁ধরনের	-7.99177
▁থাকবে	-7.99201
▁কেউ	-7.99618
▁রোববার	-7.99665
▁জেলার	-8.00135
▁বিভাগের	-8.00505
এ	-8.00754
▁দুপুরে	-8.01409
▁হত্যা	-8.01876
▁২৫	-8.02091
▁এসময়	-8.02225
▁হয়েছিল	-8.02411
▁রবিবার	-8.02561
▁অফিসার	-8.02699
▁আদালত	-8.03276
▁২২	-8.03365
▁ফেব্রুয়ারি	-8.0398
▁এদিকে	-8.04362
▁দক্ষিণ	-8.04731
▁হয়নি	-8.04987
▁ক্রিকেট	-8.05203
▁মাঝে	-8.05424
▁কমিটির	-8.05634
▁ভারত	-8.05677
▁শতাংশ	-8.05701
গুলো	-8.05862
▁যদি	-8.06959
▁বিএনপির	-8.07067
▁জানায়	-8.07575
▁বিতরণ	-8.07698
▁শিশু	-8.08178
▁আব্দুল	-8.08225
ত	-8.08332
▁স্ত্রী	-8.08382
▁জানানো	-8.08397
▁ইউনিয়ন	-8.08488
▁অপরাহ্ণ	-8.08602
▁ভারতীয়	-8.08739
▁সিলেট	-8.09368
▁উত্তর	-8.09431
▁ডা	-8.09653
▁থেকেই	-8.09741
▁অন্য	-8.09827
▁কেন্দ্রীয়	-8.09861
▁রান	-8.10022
▁শিক্ষক	-8.10341
▁অনলাইন	-8.10798
▁দিনের	-8.10815
▁বাড়িতে	-8.11167
১৯	-8.11176
▁নেওয়া	-8.11552
▁হওয়া	-8.11653
তা	-8.11753
▁সকল	-8.12077
▁চট্টগ্রাম	-8.12605
এর	-8.12791
▁ছাড়া	-8.13485
▁জয়	-8.13683
▁এসে	-8.13769
▁রেখে	-8.13902
▁সভায়	-8.14951
▁দৈনিক	-8.15225
▁২৩	-8.15598
▁ঘটনার	-8.1574
ঃ	-8.15826
ব	-8.15874
▁ভিডিও	-8.16446
▁খুব	-8.1647
▁আইন	-8.16473
▁দুটি	-8.16525
▁পালন	-8.16602
▁মাঠে	-8.17092
▁সড়ক	-8.17171
▁উপলক্ষে	-8.17383
▁একটা	-8.17401
▁চলে	-8.17446
▁ম্যাচ	-8.1756
▁সুযোগ	-8.17587
ার	-8.17811
▁মার্কিন	-8.18034
▁সময়ে	-8.18036
ুল	-8.18453
▁বার	-8.1853
▁অনুযায়ী	-8.18737
▁ম্যাচে	-8.18756
▁দায়িত্ব	-8.18927
▁অতিথি	-8.19087
▁বিশ্ববিদ্যালয়ের	-8.19261
▁মেডিকেল	-8.19409
▁করোনায়	-8.19522
▁লাশ	-8.19834
▁মামলার	-8.20056
▁মৃত	-8.20486
শ	-8.20492
▁রাখা	-8.20556
▁হল	-8.21028
▁সামাজিক	-8.21634
▁থানা	-8.21636
▁/	-8.21679
▁মাস	-8.2204
▁যেতে	-8.22357
২	-8.22407
▁প্রেসিডেন্ট	-8.22548
▁গ্রহণ	-8.2261
▁আবার	-8.22928
▁বঙ্গবন্ধু	-8.22935
▁মিয়া	-8.23022
▁নির্বাচনে	-8.23142
▁রাজধানীর	-8.23217
▁অতিরিক্ত	-8.23476
▁ভোট	-8.2354
▁আবেদন	-8.23604
▁পাশে	-8.23662
▁সংসদ	-8.23764
▁তদন্ত	-8.23856
▁মামলায়	-8.23901
▁যাওয়ার	-8.23933
▁বি	-8.23942
▁পাঁচ	-8.24038
বি	-8.24039
▁মাদক	-8.241
▁পরিষদের	-8.24623
▁সবচেয়ে	-8.24698
▁সুপার	-8.2474
▁সভা	-8.24806
"	-8.25191
▁পক্ষ	-8.25395
▁উপ	-8.25877
ভাবে	-8.26237
জ	-8.2632
▁উপর	-8.26435
▁বর্তমানে	-8.26492
▁সম্প্রতি	-8.26493
▁এগিয়ে	-8.26556
▁অন্যান্য	-8.26604
▁পারেন	-8.26715
▁বিশ্ব	-8.26828
▁পাঠানো	-8.26925
▁শনাক্ত	-8.26939
▁এটা	-8.2695
▁শুধু	-8.27196
▁প্রাথমিক	-8.27495
▁লীগ	-8.27725
▁নানা	-8.27763
▁হলেন	-8.28096
▁প্রদান	-8.28127
▁আদালতে	-8.28173
▁হাসিনা	-8.28931
▁তখন	-8.28936
▁আপনার	-8.29425
▁গ্রেপ্তার	-8.29575
▁২৬	-8.30371
▁বের	-8.30483
▁উন্নয়ন	-8.30536
▁রায়	-8.30588
▁বিয়ে	-8.30855
নি	-8.31075
▁নির্দেশ	-8.31237
▁আয়োজন	-8.31313
▁দেওয়ার	-8.3145
▁হামলা	-8.31627
▁মেয়র	-8.31644
▁দেখে	-8.31733
▁আসে	-8.31889
▁বেগম	-8.31931
▁করলে	-8.32165
▁কোনও	-8.3234
▁চিকিৎসা	-8.32569
]	-8.32727
▁চালিয়ে	-8.32827
▁উদ্বোধন	-8.32868
▁ই	-8.33136
▁ব্যাপারে	-8.33209
▁দেখতে	-8.33633
▁অ	-8.33736
▁যাওয়া	-8.33741
▁অর্থ	-8.33768
▁পরিবার	-8.34021
▁সহকারী	-8.34286
▁সচিব	-8.34532
▁থাকতে	-8.34633
▁অধ্যাপক	-8.34829
▁অব	-8.34889
▁সূত্রে	-8.35013
▁হলেও	-8.3506
▁বিপক্ষে	-8.3508
▁প্রার্থী	-8.35274
▁করি	-8.35329
▁কুমার	-8.35365
▁যারা	-8.35433
▁দ্রুত	-8.35552
▁পানি	-8.36013
▁নিজ	-8.36251
▁নেয়া	-8.36289
▁অবস্থান	-8.36444
▁দাম	-8.36656
ো	-8.36673
▁২৮	-8.36702
▁করোনার	-8.36981
▁২৭	-8.37004
▁বাবা	-8.37225
▁সমস্যা	-8.37301
▁তো	-8.3789
▁রাখেন	-8.38175
▁পরিচালনা	-8.38543
▁রয়েছেন	-8.39179
▁নম্বর	-8.39226
▁সাংবাদিক	-8.39438
▁গেছেন	-8.3983
▁বাংলাদেশে	-8.39835
▁ক্ষেত্রে	-8.40012
▁কী	-8.40216
▁বাজার	-8.40291
▁যোগাযোগ	-8.40419
▁কার্যক্রম	-8.40522
▁শহরের	-8.4053
▁মন্তব্য	-8.40838
▁কয়েক	-8.41095
▁রাখতে	-8.4114
▁২০১৭	-8.41371
২০	-8.41528
▁মন্ত্রী	-8.41645
▁মাত্র	-8.41713
টির	-8.4176
▁আছেন	-8.41909
▁এলাকা	-8.42355
▁মোবাইল	-8.42466
▁দায়ের	-8.42505
▁স্কুল	-8.42538
▁ছোট	-8.42584
▁মুক্তি	-8.42779
▁নিজস্ব	-8.42853
▁সর্বোচ্চ	-8.42863
▁সংস্থা	-8.42962
▁যখন	-8.43092
▁যার	-8.43286
▁পিএম	-8.43299
▁»	-8.43581
▁সম্পর্কে	-8.43603
▁ছাত্র	-8.43664
▁বিশ্বের	-8.43668
▁নামের	-8.43712
▁পরিস্থিতি	-8.442
▁চেয়ে	-8.44388
▁ভারপ্রাপ্ত	-8.44467
▁করুন	-8.44579
▁যোগ	-8.44703
▁অভিনয়	-8.45113
▁গ্রামে	-8.45214
▁পরিষদ	-8.45233
▁এসেছে	-8.45267
▁হাত	-8.453
▁যেন	-8.45305
িং	-8.45444
▁টাকার	-8.45595
▁আসা	-8.4576
▁দিবস	-8.45828
▁কমিটি	-8.46373
▁খালেদা	-8.46398
▁স	-8.46712
▁প্রমুখ	-8.46919
▁বাজারে	-8.46923
▁সিটি	-8.46924
▁৫০	-8.47217
৩	-8.47463
▁অভিযোগে	-8.47579
▁প্রতিষ্ঠান	-8.47952
▁কেন্দ্র	-8.47967
▁নিরাপত্তা	-8.47979
▁ভাই	-8.48229
▁সম্ভব	-8.4831
▁জানতে	-8.48535
▁থাকার	-8.48646
▁সভাপতিত্বে	-8.48752
▁আবু	-8.48862
▁জীবন	-8.49056
▁বিভাগ	-8.49059
▁সেবা	-8.49262
▁দেশটির	-8.49307
▁স্থানে	-8.49376
▁আগুন	-8.49457
▁বিক্রি	-8.49568
▁ঠিক	-8.49738
▁জানিয়ে	-8.49745
▁টিকা	-8.49793
▁মেয়ে	-8.49868
▁বাস	-8.49935
▁বেড়ে	-8.50028
▁ওসি	-8.5018
▁তাহলে	-8.50465
দ	-8.50516
▁পথে	-8.50549
িত	-8.50565
▁এস	-8.50586
▁উচ্চ	-8.50654
;	-8.51008
▁পারবেন	-8.51233
(	-8.51308
▁আহমদ	-8.51632
▁কাদের	-8.51827
▁মৃত্যুর	-8.51961
প	-8.52064
▁সৌদি	-8.52139
▁দিনে	-8.52484
মা	-8.52512
▁খেলা	-8.52667
▁২০২২	-8.52861
▁ব্যাংক	-8.53214
▁ফিরে	-8.53998
▁আসছে	-8.54035
▁২৯	-8.54079
▁ঘণ্টায়	-8.54251
▁আশা	-8.54349
▁বিকেলে	-8.54556
),	-8.54673
▁বিশ্ববিদ্যালয়	-8.54763
▁সুস্থ	-8.54895
▁রিপোর্ট	-8.54908
▁বর্তমান	-8.55312
▁উইকেট	-8.55378
▁এখনও	-8.5554
▁মিনিটে	-8.55602
▁মাসের	-8.55721
▁ঢাকার	-8.55748
▁Bangla	-8.56059
▁উল্লেখ	-8.56081
▁গেলে	-8.56083
▁নিজেদের	-8.56248
▁নেন	-8.56251
▁তৃতীয়	-8.56289
▁অপরাহ্ন	-8.56495
▁হার	-8.56583
▁সারা	-8.56656
▁আপনি	-8.56752
▁[	-8.56815
▁শিক্ষার্থীদের	-8.56902
▁রাজশাহী	-8.5702
▁পৌর	-8.57104
▁দুপুর	-8.5739
কা	-8.57394
লা	-8.57619
▁আহ্বান	-8.577
▁জনপ্রিয়	-8.5772
ট	-8.57808
▁ঘরে	-8.57839
▁মুখে	-8.579
▁টেস্ট	-8.57911
▁জারি	-8.58008
▁সবাই	-8.58086
▁হওয়ায়	-8.58142
▁হাসপাতালের	-8.58148
▁স্বামী	-8.58271
▁শেয়ার	-8.58374
▁বাইরে	-8.58379
▁মহিলা	-8.58437
▁সাংবাদিকদের	-8.58444
▁আবুল	-8.59034
▁আগের	-8.59191
▁করছি	-8.59201
▁অভিনেত্রী	-8.59208
▁চাই	-8.59525
▁রাজনৈতিক	-8.59804
▁ফোন	-8.59851
▁ব্যক্তি	-8.60138
▁কেন	-8.60142
৩০	-8.6035
▁অধিনায়ক	-8.60543
▁মডেল	-8.60604
▁চলতি	-8.60657
▁পড়েছে	-8.61013
▁নিয়েছে	-8.61204
িক	-8.61561
▁উদ্যোগে	-8.61723
▁উপজেলায়	-8.61818
▁সৃষ্টি	-8.61859
▁পক্ষে	-8.61959
▁আগেই	-8.62389
▁মাসে	-8.62525
সি	-8.62631
▁ইউপি	-8.62732
▁প্রতিবেদক	-8.62782
▁চিকিৎসক	-8.62792
▁বিয়ের	-8.62923
▁প্রধানমন্ত্রীর	-8.62972
▁শিকার	-8.63165
▁রেকর্ড	-8.63342
▁গেল	-8.63593
▁ব্যবসায়ী	-8.63623
৫	-8.63707
▁শাহ	-8.63859
▁বিষয়	-8.6389
▁হাসপাতাল	-8.63914
▁বিষয়ক	-8.64014
▁অবস্থা	-8.64074
জন	-8.64084
▁চালু	-8.64334
▁পরিকল্পনা	-8.64425
▁কাজে	-8.64434
▁বার্তা	-8.64448
▁সূত্র	-8.64688
▁বিমান	-8.65022
▁রহমানের	-8.65166
ু	-8.65255
▁পা	-8.65304
▁সেরা	-8.65429
▁ছড়িয়ে	-8.65659
▁পড়া	-8.65672
▁মন্ত্রণালয়ের	-8.65796
▁গুরুত্বপূর্ণ	-8.66215
▁বিক্ষোভ	-8.66316
▁জেনারেল	-8.66324
▁কৃষি	-8.66455
▁করলেন	-8.66555
▁মেনে	-8.66682
▁পদে	-8.66792
▁সংক্রমণ	-8.66882
১০	-8.67212
▁অন্যতম	-8.67385
▁বাড়ির	-8.67407
ড	-8.67417
জি	-8.67447
▁শিক্ষার্থী	-8.67465
▁যায়নি	-8.67626
▁নেতৃত্বে	-8.67692
সা	-8.67745
৪	-8.67866
▁বেলা	-8.67874
▁হারিয়ে	-8.68079
▁সবার	-8.681
▁এখনো	-8.68227
▁কাছ	-8.68365
▁ধরা	-8.68405
▁সম্মেলনে	-8.68416
ফ	-8.68418
▁প্রশাসন	-8.68525
▁৩১	-8.68611
▁প্রস্তুতি	-8.6874
▁সিনিয়র	-8.68797
▁বিশ্বাস	-8.68856
▁পান	-8.68982
▁সংগ্রহ	-8.68984
▁প্রয়োজন	-8.69032
▁রযাব	-8.69197
▁যুগ্ম	-8.69249
▁দেয়ার	-8.69307
▁পরীক্ষার	-8.69309
▁সি	-8.69434
▁সহায়তা	-8.6961
▁প্রযুক্তি	-8.69635
▁মরদেহ	-8.69854
▁করেছিলেন	-8.69859
▁জনকে	-8.69957
ং	-8.70374
লি	-8.7051
▁নির্বাচিত	-8.70567
▁কয়েকটি	-8.70724
▁ম	-8.70934
▁থাকায়	-8.71004
▁গড়ে	-8.71024
▁খাবার	-8.71181
▁২০১৬	-8.71216
▁আবদুল	-8.71622
▁মধ্য	-8.71673
▁উল্লেখ্য	-8.72288
▁পর্যায়ে	-8.72333
▁গাড়ি	-8.72351
▁সম্পর্ক	-8.72782
▁ডি	-8.72804
▁নি	-8.72906
▁ফল	-8.73105
২৫	-8.73278
▁খাদ্য	-8.73384
▁ঢাকায়	-8.73394
▁উঠে	-8.7346
▁পূর্ব	-8.73493
▁পরিবর্তন	-8.73499
▁আসামি	-8.73512
▁গুলি	-8.73529
▁পুরস্কার	-8.73598
▁মাহমুদ	-8.73681
▁পয়েন্ট	-8.73762
▁কমিশনার	-8.74132
▁প্রশ্ন	-8.74141
▁হত্যার	-8.74183
২৪	-8.74267
▁ফেসবুক	-8.74403
▁নির্দেশনা	-8.74537
▁এখানে	-8.74539
▁হামলার	-8.74634
▁কলেজের	-8.74719
▁ভারতে	-8.74818
▁কর্তৃপক্ষ	-8.74938
ুর	-8.75469
▁কামাল	-8.75474
▁ছাত্রলীগের	-8.75609
পাড়া	-8.75637
▁ছেড়ে	-8.75722
▁প্রতিদিন	-8.75763
▁সর্বশেষ	-8.75934
▁জেলায়	-8.7604
▁করেছি	-8.76118
▁গান	-8.76123
▁নিয়োগ	-8.7631
১২	-8.76367
লে	-8.76528
▁অফিস	-8.76598
▁চান	-8.76626
▁মত	-8.76643
১১	-8.76853
▁ঘটেছে	-8.76857
▁অ্যান্ড	-8.76868
▁প্রশাসক	-8.76879
▁মহানগর	-8.77057
▁সাত	-8.77089
▁সু	-8.77096
▁মন্ত্রণালয়	-8.77154
▁সদস্যরা	-8.77365
কম	-8.77437
▁ভিত্তিতে	-8.7744
▁দীর্ঘ	-8.77558
▁নেমে	-8.77581
▁সাকিব	-8.77987
২২	-8.7813
▁এমপি	-8.78413
১৮	-8.78608
▁মূল	-8.78759
▁সম্পন্ন	-8.78805
▁শহীদ	-8.7887
▁দাবিতে	-8.79049
▁বলেও	-8.79161
▁ছবির	-8.79344
▁শ্রমিক	-8.79375
ছে	-8.79523
▁আক্তার	-8.7972
▁সেটা	-8.79839
▁গ্রাম	-8.80272
▁ছয়	-8.80357
▁সময়ের	-8.80389
▁সন্ধ্যায়	-8.80405
▁পাকিস্তান	-8.80432
▁আয়োজিত	-8.80443
▁নিয়ন্ত্রণ	-8.80549
▁ভাবে	-8.80792
▁নমুনা	-8.80865
▁রাখার	-8.81182
▁দলীয়	-8.81194
▁কর্মসূচি	-8.81419
▁বল	-8.81551
▁পোস্ট	-8.81634
▁করোনাভাইরাস	-8.81886
▁তারকা	-8.81983
▁in	-8.8204
▁যুক্তরাষ্ট্রের	-8.82101
▁নির্মাণ	-8.82374
▁বিচার	-8.8259
▁পেয়েছেন	-8.82686
▁তারিখ	-8.83134
▁মুখ	-8.83205
▁লোকজন	-8.8321
▁বৈঠক	-8.83249
▁ঘটনাস্থলে	-8.83275
▁লক্ষ্য	-8.83518
বা	-8.83628
▁পুরো	-8.83649
▁অনুষ্ঠান	-8.83702
▁সংগঠন	-8.83801
▁ধর্ষণ	-8.84084
▁ফের	-8.84271
▁পেতে	-8.84284
▁গোল	-8.84308
▁আমাকে	-8.84709
▁যেখানে	-8.84987
▁৪০	-8.8505
▁প্রতিবেদন	-8.85259
▁প্রকাশের	-8.85373
▁পাকিস্তানের	-8.85527
▁মিনিট	-8.85535
▁মালিক	-8.85662
▁বাংলাদেশি	-8.85722
▁তিনটি	-8.85778
▁পরবর্তী	-8.85881
▁এদিন	-8.85892
হ	-8.85979
▁কেজি	-8.86073
▁কবির	-8.86075
রি	-8.86327
▁হিসাবে	-8.86342
▁নিয়মিত	-8.86353
▁ফেলে	-8.86368
▁শীর্ষ	-8.86375
ওসি	-8.86397
১৫	-8.86471
▁সন্তান	-8.8694
ঁ	-8.86954
▁বৃদ্ধি	-8.87112
▁পণ্য	-8.87403
▁চিকিৎসাধীন	-8.87413
▁এছাড়াও	-8.87514
▁নিয়েছেন	-8.8761
▁দোয়া	-8.8762
য়ে	-8.8762
▁থাকেন	-8.88153
▁জরুরি	-8.88169
২১	-8.88205
বে	-8.88214
▁গিয়েছে	-8.88225
কার	-8.88255
▁জন্ম	-8.88265
▁দলে	-8.88267
গ	-8.88322
।"	-8.88331
▁যদিও	-8.88345
▁নেয়	-8.88462
▁আনা	-8.88525
▁পেয়েছে	-8.88575
▁নেওয়ার	-8.88806
▁কোভিড	-8.88927
▁আই	-8.89172
▁সংগঠনের	-8.89185
▁যাতে	-8.8925
▁করায়	-8.89378
▁ফুটবল	-8.89384
▁অনেকেই	-8.89434
▁অব্যাহত	-8.89458
১৪	-8.89575
▁অধিকার	-8.89615
▁জমা	-8.89674
▁বিনোদন	-8.89713
▁দশমিক	-8.89734
▁বৈঠকে	-8.89734
িয়া	-8.8976
▁আদালতের	-8.89771
▁সমিতির	-8.89809
▁বেড়েছে	-8.8987
৬	-8.89904
▁ধারণা	-8.89908
১৭	-8.8995
▁সংশ্লিষ্ট	-8.90074
▁সম্মেলন	-8.90117
▁রোগী	-8.90303
▁উঠেছে	-8.90533
▁::	-8.90608
▁মুক্তিযোদ্ধা	-8.91144
▁গুরুতর	-8.91185
▁অভিনেতা	-8.91325
▁পায়	-8.91448
▁দিলেন	-8.91646
▁ব্যাপক	-8.91746
▁প্রতিটি	-8.91769
▁পালিয়ে	-8.91782
▁ঘণ্টা	-8.91985
▁অন্তত	-8.92015
▁খুলনা	-8.92039
▁কার্যালয়ে	-8.92113
▁আইনজীবী	-8.92241
▁বোর্ড	-8.92278
▁জাতির	-8.92305
▁প্রেস	-8.92613
▁বাকি	-8.92798
▁পরিচয়	-8.93071
▁বলতে	-8.93206
▁জড়িত	-8.93208
▁ঈদ	-8.93254
▁একাধিক	-8.9341
▁পরিমাণ	-8.93484
▁অস্ত্র	-8.93485
বার	-8.93494
▁চলাচল	-8.93727
য়ের	-8.93759
▁পরিবহন	-8.93841
▁রিপোর্টার	-8.93904
২৮	-8.93911
▁জরিমানা	-8.93952
▁পাওয়ার	-8.93965
▁তাঁকে	-8.93982
▁জায়গায়	-8.94277
▁ক	-8.94434
▁স্টাফ	-8.94629
▁বাহিনীর	-8.94654
▁বাসায়	-8.94705
▁প্রতিমন্ত্রী	-8.94992
▁ইসলামের	-8.95007
▁যুবক	-8.95008
▁বিকেল	-8.95009
▁ব্যাংকের	-8.95077
▁PM	-8.95119
▁পরামর্শ	-8.95305
▁স্বাভাবিক	-8.95382
ণ	-8.95435
৭	-8.95483
▁ঘর	-8.95633
১৬	-8.95713
▁ছবিতে	-8.95769
▁যাত্রী	-8.95884
▁ধর্ষণের	-8.95899
▁বরিশাল	-8.95953
▁হাসিনার	-8.96158
▁দীর্ঘদিন	-8.963
▁যুক্ত	-8.96398
▁মাছ	-8.96564
▁চায়	-8.96578
▁ভাইরাস	-8.96902
▁অবৈধ	-8.96955
▁ভেঙে	-8.97017
▁বয়সী	-8.97188
▁ভাইস	-8.97191
▁পারবে	-8.97273
▁চা	-8.97304
▁গঠন	-8.97356
▁বিজ্ঞপ্তিতে	-8.97481
▁লক্ষ	-8.9751
▁লেখা	-8.97752
২৩	-8.97771
e	-8.97777
▁রানের	-8.97842
দা	-8.97893
ীয়	-8.97976
▁বাহিনী	-8.97979
▁আসার	-8.98008
▁সিরিজ	-8.98178
▁কক্সবাজার	-8.9826
▁মহাসচিব	-8.9836
▁বিদ্যালয়ের	-8.98386
▁প্রস্তাব	-8.98398
গুলি	-8.98425
▁থাকলে	-8.98545
▁পদক্ষেপ	-8.98581
▁মাস্ক	-8.98691
▁সেনা	-8.98722
ভ	-8.98878
য়া	-8.98929
▁শহর	-8.98959
▁মুখোমুখি	-8.98999
▁তাঁদের	-8.98999
▁বয়স	-8.99059
▁সাংগঠনিক	-8.99062
▁বসে	-8.99143
▁সুবিধা	-8.99236
▁প্রশাসনের	-8.99397
▁০৯	-8.99399
▁লকডাউন	-8.99422
▁মানববন্ধন	-8.99489
▁উদ্যোগ	-8.99522
▁লক্ষ্যে	-8.99553
▁সংক্রান্ত	-8.99869
▁আসনের	-8.99885
▁সহযোগিতা	-8.99992
▁কণ্ঠ	-9.00017
মি	-9.00223
০০	-9.00304
▁কমিশন	-9.00391
▁অন্যদিকে	-9.00405
▁pm	-9.00549
▁রোহিঙ্গা	-9.00599
▁বছরে	-9.00615
▁তালিকা	-9.00686
▁নির্বাচনের	-9.00822
▁খেলতে	-9.00928
▁প্রথমে	-9.00996
▁বিরোধী	-9.0102
▁কিংবা	-9.01081
▁মধ্যেই	-9.01192
▁অনুমোদন	-9.0127
▁আদেশ	-9.01448
▁আওতায়	-9.01514
▁ইনচার্জ	-9.01672
▁চন্দ্র	-9.01711
▁চলচ্চিত্র	-9.01711
▁বিদ্যুৎ	-9.01796
▁আসতে	-9.01821
▁তাতে	-9.01865
▁সিনেমা	-9.01871
▁বেসরকারি	-9.01909
▁ভুল	-9.02086
▁রানে	-9.02226
৩৫	-9.02361
▁ম্যাচের	-9.02399
▁যেমন	-9.02589
▁উচিত	-9.02602
▁প্রবেশ	-9.02629
▁জিয়া	-9.02636
২৬	-9.02654
▁প্রতিবেদনে	-9.02809
▁স্থানীয়রা	-9.02858
▁বই	-9.02903
▁চালক	-9.02911
▁যাচ্ছেন	-9.02916
▁পৌরসভার	-9.03014
▁পৌঁছে	-9.03113
▁আরব	-9.03311
▁হঠাৎ	-9.03313
▁রাজধানী	-9.03345
▁থাকলেও	-9.03417
▁গোপন	-9.03465
▁কাজের	-9.03467
▁জায়গা	-9.03493
৮	-9.03553
▁জিয়ার	-9.0389
▁মাথায়	-9.03953
▁কাজী	-9.03981
▁আবারও	-9.04004
▁ফায়ার	-9.04004
▁প্রাণ	-9.04106
▁ভূমিকা	-9.04114
▁বাসিন্দা	-9.04243
মন্ত্রী	-9.04408
লো	-9.04625
▁ওবায়দুল	-9.04703
▁সৈয়দ	-9.04717
৪০	-9.04844
▁কোচ	-9.04996
▁কঠোর	-9.05017
▁নিন	-9.05211
▁সন্ধ্যা	-9.05229
▁লাল	-9.05239
▁দিক	-9.05245
er	-9.05396
▁টিম	-9.0546
▁চুক্তি	-9.05503
▁জি	-9.05603
▁পবিত্র	-9.05651
▁বিচারপতি	-9.05731
১৩	-9.05744
▁॥	-9.05783
▁পূর্বাহ্ণ	-9.05847
▁বিস্তারিত	-9.05944
▁ধর্ম	-9.06309
▁চাল	-9.06484
▁হোম	-9.06493
▁অপরাধ	-9.06577
▁গভীর	-9.06591
▁বিজেপি	-9.066
▁প্র	-9.06653
▁বাতিল	-9.06663
▁আয়োজনে	-9.06691
তার	-9.06708
▁রাজ্য	-9.06776
▁প্রচার	-9.0697
▁বাদ	-9.07045
▁প্রকল্প	-9.07054
▁প্রতিবাদ	-9.07093
▁দোকান	-9.072
▁দেবে	-9.07208
▁স্থান	-9.07253
▁অনুরোধ	-9.07273
্য	-9.07603
▁উপহার	-9.07673
▁আন্দোলন	-9.07738
▁সাহায্য	-9.07799
▁চীনের	-9.0783
▁মুজিবুর	-9.07916
▁ট্রাম্প	-9.07963
▁মিছিল	-9.08012
▁পরিবেশ	-9.08085
▁Daily	-9.08256
▁প্রয়োজনীয়	-9.08388
▁বিভাগে	-9.08463
▁গোলাম	-9.08486
▁আসেন	-9.08812
▁পিতা	-9.08876
▁অভিযানে	-9.08926
▁নজরুল	-9.09035
▁প্রচ্ছদ	-9.09127
▁করোনাভাইরাসের	-9.09161
২৭	-9.09329
▁ঈদের	-9.09451
▁শরীরে	-9.09468
▁কর্মী	-9.09487
▁চাইলে	-9.09552
▁অনেকে	-9.09629
▁বৃষ্টি	-9.09646
▁নিয়ন্ত্রণে	-9.09728
▁পাবেন	-9.09841
▁কেটে	-9.09886
▁রংপুর	-9.09891
▁দুর্ঘটনা	-9.09929
▁বহু	-9.09929
▁সবাইকে	-9.09983
▁বিজ্ঞান	-9.10063
পি	-9.10085
▁সদস্যদের	-9.10113
▁ডলার	-9.10117
▁সা	-9.10128
▁সংস্থার	-9.10166
কারী	-9.10187
▁ভাল	-9.10275
▁তালিকায়	-9.10318
▁এরই	-9.1034
▁বিশ্বকাপ	-9.10403
▁কারাগারে	-9.10533
▁Bangladesh	-9.10559
▁অনুমতি	-9.10651
▁খুবই	-9.10755
▁বাড়ছে	-9.1076
▁পরীক্ষায়	-9.10806
▁The	-9.1087
▁নুরুল	-9.10895
▁লোক	-9.10918
▁ব্যবসা	-9.11029
▁একটু	-9.11045
▁পরিদর্শন	-9.11222
▁শোক	-9.11236
news	-9.11313
▁দাস	-9.11319
▁শারীরিক	-9.1135
▁টানা	-9.11484
▁মুসলিম	-9.11567
▁আর্থিক	-9.11686
▁জামিন	-9.11754
▁কমে	-9.11828
▁.	-9.11952
▁পথ	-9.12088
▁ডেইলি	-9.1209
▁নিষেধাজ্ঞা	-9.12095
▁০৮	-9.12218
▁আজকের	-9.12233
আ	-9.12419
তম	-9.12508
▁রাজনীতি	-9.12699
▁সোশ্যাল	-9.12707
▁আব্দুর	-9.12726
▁কিছুটা	-9.12775
▁ছাত্রলীগ	-9.12794
▁জমি	-9.12808
েই	-9.12821
▁শিক্ষার্থীরা	-9.12962
▁হুমকি	-9.13016
০	-9.13022
▁খেলার	-9.13131
ির	-9.13203
▁বলছে	-9.13357
▁কেন্দ্রে	-9.13377
▁মূল্য	-9.13404
▁অর্জন	-9.13556
▁মানুষকে	-9.1364
▁কাউন্সিলর	-9.13744
▁চলবে	-9.13819
▁গবেষণা	-9.13864
▁হামলায়	-9.13975
াল	-9.14057
▁মির্জা	-9.14202
গুলোর	-9.14233
▁আসলে	-9.14239
▁ডিজিটাল	-9.14257
▁মাধ্যমিক	-9.14586
▁পার্টির	-9.14722
▁পূর্বাহ্ন	-9.14792
▁চলমান	-9.14971
▁প্রবাসী	-9.15037
▁ভাগ	-9.15123
অ	-9.15127
▁বলছেন	-9.15161
▁কোম্পানি	-9.15278
▁ক্লাব	-9.15288
▁জনগণের	-9.15457
▁নিহতের	-9.15459
▁শুভেচ্ছা	-9.15538
তি	-9.1554
▁ছাড়াও	-9.1556
▁ভাইরাল	-9.15595
▁০১	-9.15616
▁নিজেকে	-9.15642
▁সামরিক	-9.1568
▁কালের	-9.15683
▁কুমিল্লা	-9.157
▁করিম	-9.15789
▁সম্ভাবনা	-9.15884
▁শহরে	-9.15994
▁মন	-9.16077
▁গল্প	-9.16359
▁আলীর	-9.1644
▁চূড়ান্ত	-9.16461
▁ফারুক	-9.16529
▁on	-9.16534
২৯	-9.16676
▁স্বপ্ন	-9.16702
▁দিচ্ছে	-9.16728
▁সমাজ	-9.16789
▁শুভ	-9.17054
▁সামগ্রী	-9.17188
▁ব্যাট	-9.17197
▁নাগরিক	-9.1722
▁খোলা	-9.17439
চ	-9.17462
▁আক্রান্তের	-9.17463
▁উৎসব	-9.17553
▁হোসেনের	-9.17611
৫০	-9.17688
টিতে	-9.17716
টোয়েন্টি	-9.17815
▁বিকাল	-9.17818
▁মাওলানা	-9.17972
▁শাখার	-9.17976
▁৬০	-9.18012
▁দিলে	-9.18041
▁পার	-9.18095
▁শ্রদ্ধা	-9.18124
▁তারপর	-9.18207
▁কিলোমিটার	-9.18282
▁ধান	-9.18321
▁১০০	-9.18342
▁কয়েকজন	-9.18384
ন্ত	-9.18429
▁রক্ষা	-9.18441
▁S	-9.18474
▁করেছিল	-9.18738
▁ইকবাল	-9.18827
▁করোনাভাইরাসে	-9.18832
▁শিল্প	-9.18842
▁তেল	-9.19025
▁যুক্তরাষ্ট্র	-9.19034
▁ক্রীড়া	-9.19047
জা	-9.19062
▁তাঁরা	-9.19131
▁সংঘর্ষে	-9.19282
▁সার্ভিস	-9.19373
কৃত	-9.19432
▁লেনদেন	-9.19615
▁চীন	-9.19631
▁স্বীকার	-9.19643
▁বঙ্গবন্ধুর	-9.19685
কি	-9.19686
▁পি	-9.19697
▁স্থগিত	-9.19822
▁এবারের	-9.19858
▁চলেছে	-9.19864
▁রোগ	-9.2012
▁অভিযুক্ত	-9.20166
▁যুব	-9.20251
▁দূর	-9.20262
▁ক্ষমতা	-9.20294
▁আট	-9.20415
▁আলো	-9.20444
▁আমিন	-9.2051
▁কলকাতা	-9.2059
▁of	-9.20721
ছেন	-9.20749
▁Bengali	-9.20805
▁প্রসঙ্গে	-9.20811
ডি	-9.20826
▁লাভ	-9.20844
▁অপর	-9.20857
▁সেটি	-9.20864
▁ঘটনাটি	-9.20895
▁প্রতিষ্ঠানের	-9.20953
▁চিকিৎসার	-9.20956
▁অসুস্থ	-9.20988
▁খানের	-9.21028
▁ট্রাক	-9.21068
▁আয়	-9.2114
▁পাবে	-9.21156
▁প্রশিক্ষণ	-9.21161
▁নং	-9.21208
সভাপতি	-9.21412
▁প্রতিবাদে	-9.2153
▁২০১৫	-9.2169
▁কার্যকর	-9.21763
৪৫	-9.21791
নে	-9.21805
▁ব্যক্তির	-9.21945
▁নেয়ার	-9.22028
▁ঘরের	-9.22062
০১	-9.22202
▁ব্যক্তিগত	-9.22371
▁দুর্ঘটনায়	-9.22467
উ	-9.22489
▁তৃণমূল	-9.22558
▁প্রভাব	-9.22604
▁বোর্ডের	-9.22774
▁লিখেছেন	-9.22785
▁পুরুষ	-9.22961
▁গোলে	-9.22991
▁ম্যাজিস্ট্রেট	-9.2302
▁কিনা	-9.23158
▁ত্রাণ	-9.23224
▁আলমগীর	-9.2324
▁দ্য	-9.23292
পা	-9.23297
▁ভ্যাকসিন	-9.23419
▁at	-9.23501
▁আসবে	-9.23502
▁পালিত	-9.23527
▁মনোনয়ন	-9.23549
৯	-9.23707
▁ফখরুল	-9.23727
▁ক্ষতি	-9.23775
▁অবশ্য	-9.23799
▁অসহায়	-9.23807
y	-9.23817
▁সেলিম	-9.2388
▁সাল	-9.24181
▁হাজির	-9.24194
▁জব্দ	-9.24214
▁বীর	-9.24261
▁নিখোঁজ	-9.24288
▁আনন্দ	-9.24315
▁কল্যাণ	-9.24547
▁সপ্তাহ	-9.24565
▁পুত্র	-9.24588
▁নির্যাতন	-9.24766
▁বিদ্যালয়	-9.24867
▁বিবৃতিতে	-9.24881
▁তাদেরকে	-9.2491
▁সপ্তাহে	-9.24918
▁নদী	-9.24962
▁পারেনি	-9.25034
▁বিজয়	-9.25117
▁খুলে	-9.25202
▁বক্তব্যে	-9.25274
▁উন্নত	-9.25324
দিন	-9.25381
▁বাধা	-9.25386
▁মিয়ার	-9.25456
▁প্রশ্নের	-9.25551
▁অথবা	-9.25765
▁প্রকল্পের	-9.25857
▁ইয়াবা	-9.26032
▁৩৫	-9.26047
▁জবাবে	-9.26055
▁পশ্চিম	-9.2608
▁রাষ্ট্রপতি	-9.26088
▁০৭	-9.26196
▁আত্মহত্যা	-9.26216
▁মিডিয়া	-9.26222
▁দেব	-9.26266
গুলোতে	-9.26289
▁বাদী	-9.26356
▁নদীর	-9.26392
▁কর্মকর্তারা	-9.26473
নো	-9.26492
ভি	-9.26594
▁ইন	-9.26596
▁চালায়	-9.26718
▁সফল	-9.268
▁এত	-9.26821
▁রাস্তায়	-9.26846
▁এমনকি	-9.26849
▁নিষিদ্ধ	-9.26952
▁ক্রিকেটার	-9.27142
▁ডট	-9.27175
▁মুক্ত	-9.27346
▁জয়ের	-9.27399
▁Latest	-9.27452
▁আঘাত	-9.27536
–	-9.27649
▁কৃষক	-9.27697
▁উদযাপন	-9.27716
▁নিরাপদ	-9.2778
▁আইনে	-9.27829
▁তরুণ	-9.2797
▁দুর্নীতি	-9.28057
▁জাহাঙ্গীর	-9.28096
৩২	-9.28244
▁০৬	-9.28296
▁নগরীর	-9.28299
▁ডাক	-9.28323
▁নারীর	-9.28511
▁ওয়ার্ড	-9.28515
▁ইমরান	-9.28695
▁অতিথির	-9.28759
▁ভয়াবহ	-9.28811
▁যেসব	-9.2882
▁সিরিজের	-9.28824
▁সরাসরি	-9.28836
▁জীবনের	-9.29004
▁অবশেষে	-9.2902
▁গোয়েন্দা	-9.29034
▁ছিলো	-9.29105
ড়	-9.29135
▁প্রমাণ	-9.29244
▁পদ	-9.29436
▁০৫	-9.29437
▁আনোয়ার	-9.29443
▁পড়েন	-9.29608
▁মসজিদ	-9.2964
খ	-9.2965
▁a	-9.29742
▁রোগীর	-9.29771
▁উদ্দেশ্যে	-9.29842
▁কামনা	-9.29852
▁নাকি	-9.29916
০৯	-9.29947
▁হোক	-9.29994
S	-9.30039
▁সতর্ক	-9.3004
▁মাঠ	-9.30125
▁অধিদপ্তরের	-9.30243
▁বিশিষ্ট	-9.30337
▁রাস্তা	-9.3038
▁মামুন	-9.30755
০৫	-9.30793
▁০২	-9.30841
▁তীব্র	-9.30915
▁স্বাধীনতা	-9.30945
▁ঘুরে	-9.31109
▁বিভাগীয়	-9.31203
▁বন্ধু	-9.31218
▁আম	-9.31233
▁ওষুধ	-9.3129
▁ওয়ানডে	-9.31392
▁টাইমস	-9.31404
▁০৪	-9.31434
▁ভাড়া	-9.31515
▁সোহেল	-9.31738
▁নূর	-9.31748
▁দাঁড়িয়েছে	-9.31778
▁ফেসবুকে	-9.31813
▁চাপ	-9.31904
▁জেনে	-9.3202
▁এদের	-9.32168
▁মায়ের	-9.32379
▁টিভি	-9.32439
▁চালানো	-9.32461
▁ফুল	-9.32472
▁সীমান্ত	-9.32543
▁গ্রুপ	-9.32672
▁শুটিং	-9.3278
▁শত	-9.32811
▁এসআই	-9.32866
▁সঠিক	-9.32871
▁০৩	-9.3301
▁শুনানি	-9.33158
▁রশিদ	-9.3322
▁>	-9.33245
▁খেলে	-9.33384
▁প্রস্তুত	-9.33384
▁নিচে	-9.3348
▁অর্থাৎ	-9.33587
▁সিলেটের	-9.33643
০২	-9.33822
ড়া	-9.33862
▁শতাধিক	-9.3389
▁নিয়ম	-9.33942
▁জল	-9.33957
▁পোশাক	-9.34099
▁ছুটি	-9.34102
▁জানুয়ারী	-9.34233
▁বিশ্বে	-9.34284
▁সমাবেশ	-9.34363
▁পারি	-9.3438
▁পরিস্থিতিতে	-9.34434
▁দেশটিতে	-9.34456
t	-9.34498
সে	-9.34549
▁বিন	-9.34656
▁হাই	-9.34658
▁আইনের	-9.34692
▁আওয়ামীলীগের	-9.347
▁একমাত্র	-9.34763
▁রি	-9.34774
▁অবশ্যই	-9.34792
▁ফি	-9.34887
▁অনুষ্ঠানের	-9.34935
০৬	-9.34966
▁বাংলার	-9.35006
▁এএম	-9.35009
▁শক্তিশালী	-9.35089
▁অধ্যক্ষ	-9.35174
▁ফেরার	-9.35191
▁পড়তে	-9.35199
তেই	-9.35202
▁কঠিন	-9.35332
▁পারেননি	-9.35401
▁যশোর	-9.35591
▁শিশুর	-9.35593
▁BD	-9.35729
▁রাসেল	-9.35813
▁আলাদা	-9.35844
▁চতুর্থ	-9.35908
▁বললেন	-9.35956
▁স্থায়ী	-9.35963
▁উ	-9.36043
▁the	-9.36243
৫৫	-9.36428
▁ব্যবস্থাপনা	-9.36436
নং	-9.36535
▁নির্ধারিত	-9.36596
ing	-9.36658
▁স্বাস্থ্যবিধি	-9.36679
▁প্রক্রিয়া	-9.36704
▁সেখান	-9.36707
এম	-9.36741
আমি	-9.36814
হা	-9.36821
▁উৎপাদন	-9.36901
▁খুন	-9.37006
▁বিল	-9.37019
▁পরিচিত	-9.37025
▁ছবিটি	-9.37059
▁হয়তো	-9.37059
▁যুবলীগের	-9.37226
▁ট্রেন	-9.37481
▁কা	-9.37665
▁ভাইরাসের	-9.37715
▁লড়াই	-9.37771
▁শিশুদের	-9.378
▁রাজ্যের	-9.37841
▁সরবরাহ	-9.37845
▁সিনেমার	-9.37862
▁ইসলামী	-9.37899
▁বিপুল	-9.37905
▁মতে	-9.38062
▁ডটকম	-9.38066
▁আবহাওয়া	-9.38067
▁সাংস্কৃতিক	-9.3807
▁সফর	-9.381
▁সিং	-9.38179
▁থাকবেন	-9.38275
▁আটকে	-9.38325
০৪	-9.38405
th	-9.38554
▁সন্ত্রাসী	-9.38576
▁সহজ	-9.38618
▁দারুণ	-9.38621
▁মূলত	-9.38652
০৩	-9.38675
৩১	-9.38709
য	-9.38847
▁মমতা	-9.38865
▁করল	-9.38964
ছি	-9.3904
০৭	-9.39096
▁রকম	-9.3913
▁ভবন	-9.39136
টার	-9.39164
▁অর্থনৈতিক	-9.39229
▁বেতন	-9.39317
মে	-9.39328
▁প্রসঙ্গত	-9.39447
▁সফরে	-9.39466
▁ছাত্রী	-9.39474
▁সম্পদ	-9.39583
▁কেন্দ্রের	-9.39633
▁মসজিদে	-9.39633
▁প্রকৌশলী	-9.39689
▁অত্যন্ত	-9.39727
▁মুখ্যমন্ত্রী	-9.39748
▁দরকার	-9.39761
▁অ্যাডভোকেট	-9.39763
▁সত্যতা	-9.39791
▁সুন্দর	-9.39856
▁পড়ুন	-9.39881
▁ওয়ার্ডের	-9.40019
▁খারাপ	-9.40067
▁অংশগ্রহণ	-9.40295
স্থ	-9.40353
▁হস্তান্তর	-9.40436
▁রেল	-9.40592
▁মোটরসাইকেল	-9.40613
▁উপদেষ্টা	-9.40693
▁দিল	-9.4076
▁সিভিল	-9.40798
▁চিঠি	-9.4083
▁হিন্দু	-9.40902
▁সমস্ত	-9.40903
▁এনে	-9.4094
▁আপনাদের	-9.40998
শে	-9.41084
প্র	-9.41133
▁A	-9.41162
▁পানিতে	-9.41209
▁কর	-9.41253
▁মিলে	-9.41266
▁ফলাফল	-9.41308
০৮	-9.41324
▁মিজানুর	-9.41341
▁স্বরাষ্ট্র	-9.4138
▁গ্রুপের	-9.41434
▁গোটা	-9.41546
▁নৌকা	-9.4158
▁ক্লাবের	-9.41654
▁কীভাবে	-9.4169
▁নেতৃত্ব	-9.41693
লেন	-9.41869
▁Published	-9.41963
▁শ্রেণির	-9.42186
▁খুঁজে	-9.42434
▁আনতে	-9.42451
▁প্রিয়	-9.42537
▁সড়কের	-9.42591
▁শান্তি	-9.42624
▁আজাদ	-9.42656
নগর	-9.42659
▁খরচ	-9.4268
▁শ	-9.42706
ছ	-9.42776
▁আদায়	-9.42822
▁ঘিরে	-9.42858
▁পাতা	-9.42908
▁একাদশ	-9.42916
নের	-9.43015
▁পরিচালিত	-9.43057
▁নেতৃবৃন্দ	-9.43068
▁চর	-9.43075
▁সড়কে	-9.43081
▁প্রতিরোধ	-9.43108
কো	-9.43113
▁গাছ	-9.43203
▁মোস্তফা	-9.43215
মান	-9.43247
▁ফেরত	-9.43314
▁সংকট	-9.43519
▁চাকরি	-9.43659
▁অবস্থিত	-9.43861
▁ওঠে	-9.43909
▁আশঙ্কা	-9.43987
▁কিছুদিন	-9.44035
▁বলিউড	-9.44069
▁নুর	-9.44158
▁বিচারক	-9.4416
▁প	-9.44183
▁রফিকুল	-9.44219
▁চট্টগ্রামের	-9.4443
▁হা	-9.44449
▁করব	-9.44503
▁করলেও	-9.44588
▁সাতক্ষীরা	-9.44596
▁চুরি	-9.44616
▁ঘটনাস্থল	-9.44637
▁যৌন	-9.44735
▁সুমন	-9.44735
▁বিডি	-9.4476
▁বন্দর	-9.44777
থ	-9.44783
দার	-9.44873
▁বিজিবি	-9.44946
▁দেখিয়ে	-9.44947
▁উক্ত	-9.4496
▁জিতে	-9.44973
▁যুদ্ধ	-9.45135
▁শিল্পী	-9.45139
▁বিকালে	-9.45156
▁স্পোর্টস	-9.45196
▁বাস্তবায়ন	-9.45199
▁মু	-9.45199
▁মৃতের	-9.45216
▁সম্পূর্ণ	-9.45267
▁নারায়ণগঞ্জ	-9.45509
▁যাত্রা	-9.45514
▁অনলাইনে	-9.45769
▁সেতু	-9.45889
▁kalerkantho	-9.45893
▁আগামীকাল	-9.45929
৩৮	-9.4593
▁আসনে	-9.45937
▁প্রতিষ্ঠা	-9.46094
▁আধুনিক	-9.4616
▁বিদেশি	-9.46168
▁মুহাম্মদ	-9.46203
▁বাবার	-9.4622
▁নাজমুল	-9.4632
কালে	-9.46339
▁ময়মনসিংহ	-9.46346
▁গ্যাস	-9.46362
▁ইতোমধ্যে	-9.46381
▁হাইকোর্ট	-9.46383
▁তামিম	-9.46521
▁এন্ড	-9.46629
▁জীবনে	-9.46766
▁করেই	-9.46796
▁চরিত্রে	-9.46864
▁হোটেল	-9.4692
▁লিটন	-9.46972
▁মুক্তির	-9.47006
▁আরেক	-9.47022
▁যাদের	-9.4704
▁ভোর	-9.47045
ed	-9.47068
▁মেডিক্যাল	-9.47135
▁ঋণ	-9.47183
▁সালমান	-9.47247
▁শামীম	-9.47251
▁এলাকাবাসী	-9.4728
▁news	-9.47358
▁মাসুদ	-9.47391
▁৭০	-9.47421
▁সাইফুল	-9.47427
▁সাধারন	-9.47543
গা	-9.47602
▁বাণিজ্য	-9.47894
▁যত	-9.47928
▁জেরে	-9.4795
▁রাশিয়া	-9.4795
▁নির্ধারণ	-9.47995
▁৩২	-9.48096
▁শাখা	-9.48112
▁তুলনায়	-9.48211
▁বঙ্গাব্দ	-9.48234
▁ডিগ্রি	-9.48403
▁চাহিদা	-9.48497
▁মিডিয়ায়	-9.48606
i	-9.48681
▁নির্বাচনী	-9.487
▁বোমা	-9.4879
▁সদস্যের	-9.48857
▁যুবকের	-9.48966
▁কোথাও	-9.48995
▁টা	-9.49148
▁মর্গে	-9.4924
▁ইমাম	-9.49372
▁স্থাপন	-9.49388
▁প্রেরণ	-9.49533
▁দেবেন	-9.49624
▁ওভারে	-9.49628
▁মুহূর্তে	-9.49769
▁টায়	-9.49796
▁কার্ড	-9.50048
▁মহান	-9.50049
▁ধাক্কা	-9.50077
আর	-9.50123
▁কাল	-9.50191
▁কেবল	-9.50304
▁কমিশনের	-9.50348
▁তোলা	-9.50387
পররাষ্ট্রমন্ত্রী	-9.50442
▁সংঘর্ষ	-9.50464
▁মাথা	-9.50667
—	-9.50683
▁ফিরিয়ে	-9.50707
▁দর	-9.50751
▁দেড়	-9.50754
▁গেলেন	-9.50789
▁নেতারা	-9.50848
▁কন্যা	-9.50881
▁গরু	-9.51028
▁সহযোগী	-9.51093
▁সমর্থন	-9.51103
▁সরিয়ে	-9.51241
▁কো	-9.51371
▁ইউনিট	-9.51372
▁মান	-9.51375
▁চিন্তা	-9.51387
▁সক্ষম	-9.51545
▁কোম্পানির	-9.51699
▁ক্ষতিগ্রস্ত	-9.5172
▁লিখিত	-9.51849
▁খাতুন	-9.51864
▁ব্রিটিশ	-9.51941
▁সর্ব	-9.51949
▁কর্মরত	-9.5199
েও	-9.52001
য়ার	-9.52022
▁চারটি	-9.52045
▁বিদায়	-9.52256
n	-9.52382
▁এল	-9.52491
▁বন	-9.52531
▁বাবু	-9.52581
▁কু	-9.52583
▁কাউকে	-9.52608
▁মতবিনিময়	-9.52637
ফা	-9.52681
▁গুরুত্ব	-9.52726
▁বিশ্বকাপের	-9.52748
▁নরেন্দ্র	-9.52813
▁পেছনে	-9.52837
▁বিশাল	-9.5286
▁রানা	-9.52869
উল	-9.52869
▁৮০	-9.52875
রে	-9.52876
▁ঝুঁকি	-9.52896
'-	-9.52904
▁পাস	-9.53188
▁শোনা	-9.53386
▁কমপ্লেক্সে	-9.53397
▁ধর্মীয়	-9.53459
▁অ্যা	-9.5358
▁টেস্টে	-9.53609
▁শুরুর	-9.53659
▁তাপমাত্রা	-9.53667
▁সীমান্তে	-9.53773
▁৪৫	-9.53789
▁Online	-9.53817
▁আলোচিত	-9.53836
▁সারাদেশে	-9.53876
▁ইরানের	-9.53886
▁ধন্যবাদ	-9.53992
▁ইউনিয়নে	-9.54128
▁স্টেডিয়ামে	-9.5414
▁পেরে	-9.54217
▁কালাম	-9.54243
▁নগদ	-9.54288
▁রাজ	-9.54294
▁জোর	-9.54297
রো	-9.5435
▁পরিণত	-9.54468
▁জঙ্গি	-9.54514
▁অবদান	-9.54541
▁সকলের	-9.5459
▁দলকে	-9.54591
▁সন্তানের	-9.54601
▁ব্যবধানে	-9.54752
▁নদীতে	-9.54797
▁ব	-9.54916
▁চেয়ারপারসন	-9.54925
▁খেয়ে	-9.54958
৪২	-9.54963
▁সচেতন	-9.55062
▁দিনাজপুর	-9.55079
▁জানালেন	-9.55097
▁আউট	-9.55166
▁এজন্য	-9.552
▁নিজেই	-9.55207
▁নামাজ	-9.55256
▁জো	-9.55348
▁আমদানি	-9.55379
৩৪	-9.55383
▁সার্বিক	-9.55387
ইন	-9.55392
▁নন	-9.554
▁মেলা	-9.5552
r	-9.55524
▁ভাষা	-9.55639
▁প্রেসক্লাবের	-9.55791
▁২০১৪	-9.55874
▁রহিম	-9.55951
বাংলা	-9.55961
▁;	-9.56014
▁উদ্বোধনী	-9.56035
▁শক্তি	-9.56038
▁প্রেম	-9.5616
▁কবি	-9.56238
▁ফাঁস	-9.56258
সের	-9.56391
▁সংসদের	-9.56406
শি	-9.56409
▁কারা	-9.56453
▁আসন্ন	-9.56458
▁পূজা	-9.56476
▁সংবাদের	-9.56501
▁কমান্ডার	-9.56529
▁স্কুলের	-9.56576
▁উইকেটে	-9.56593
▁জুটি	-9.56604
▁লা	-9.56623
▁কুষ্টিয়া	-9.56656
▁মেসি	-9.56661
▁তুলতে	-9.56666
এস	-9.56684
x	-9.56708
▁সংলগ্ন	-9.56724
▁মিলিয়ে	-9.56823
▁মৃত্যুতে	-9.56844
দি	-9.56939
৪৮	-9.5697
▁কার্যালয়ের	-9.57032
▁শরীরের	-9.57041
▁দখল	-9.57129
▁জে	-9.57197
▁ইতিহাস	-9.57227
▁পরবর্তীতে	-9.5739
▁সপ্তাহের	-9.57438
▁চাঁদপুর	-9.57468
ীর	-9.5759
▁মহাপরিচালক	-9.57627
▁খন্দকার	-9.57662
▁ভবনের	-9.57669
▁রে	-9.57891
▁চিত্র	-9.58088
▁একে	-9.58088
▁বে	-9.58101
৩৯	-9.58115
ৎ	-9.58132
্স	-9.58161
▁একবার	-9.58307
▁সবুজ	-9.58317
▁তিনজন	-9.58451
▁কার্যালয়	-9.58511
▁বিজ্ঞপ্তি	-9.58538
▁টার	-9.58579
▁কংগ্রেস	-9.58632
▁by	-9.5868
▁সার্জন	-9.58712
▁আহবায়ক	-9.58747
▁দাঁড়িয়ে	-9.58752
▁ফাইনালে	-9.58835
▁আহসান	-9.58859
▁প্রথমবারের	-9.58873
▁বজায়	-9.58885
স্ট	-9.5894
▁ভয়	-9.58951
▁দূরে	-9.58953
▁কিশোর	-9.59012
▁চরম	-9.59012
▁পারিবারিক	-9.59088
▁জাকির	-9.59119
▁পার্টি	-9.59155
ভিত্তিক	-9.59156
▁বাসা	-9.59199
৩৭	-9.59201
▁পরিষ্কার	-9.59236
▁কমেছে	-9.59437
▁নায়িকা	-9.59443
▁পড়েছেন	-9.59445
▁মসজিদের	-9.59473
▁মৎস্য	-9.59541
▁সরকারী	-9.59564
▁ধীরে	-9.59596
▁বদলে	-9.59646
▁পরই	-9.5966
▁আহ্বায়ক	-9.59793
▁প্রফেসর	-9.59825
▁আমির	-9.59831
▁উভয়	-9.59839
▁সাহা	-9.59853
▁জেল	-9.59888
▁কখনো	-9.59936
▁আসন	-9.59942
▁ওরফে	-9.59946
▁সংস্করণ	-9.6003
▁ধারা	-9.60074
▁আপিল	-9.60123
▁ভিন্ন	-9.60163
৩৩	-9.60188
৩৬	-9.60231
ছিলেন	-9.6024
▁সমালোচনা	-9.60289
▁যুবলীগ	-9.6037
▁বাধ্য	-9.60374
▁দিয়েছিলেন	-9.60611
▁পৃথক	-9.60629
▁তারেক	-9.60643
▁পজিটিভ	-9.60672
▁ওয়েব	-9.60748
শা	-9.60758
▁ব্যর্থ	-9.60877
▁জানাতে	-9.6093
▁মহা	-9.61047
▁বিশ্ববিদ্যালয়ে	-9.61056
▁দমন	-9.61075
▁নষ্ট	-9.6108
▁পরিদর্শক	-9.61224
▁পুড়ে	-9.61272
▁গানের	-9.61311
▁রাজ্যে	-9.61413
▁তালুকদার	-9.61462
জে	-9.61473
▁বিশ্বকাপে	-9.61526
▁আলোচনায়	-9.61643
▁নেতাদের	-9.61849
▁সেন্টার	-9.61886
▁যেকোনো	-9.61938
▁লিমিটেড	-9.61947
গণ	-9.61968
▁মাধ্যম	-9.61998
▁থাকছে	-9.62019
▁লাগে	-9.62111
▁ভ্রাম্যমাণ	-9.62161
▁জাহিদ	-9.62173
▁পছন্দ	-9.62205
▁রুহুল	-9.62239
▁বাড়িয়ে	-9.62288
বো	-9.62346
ছিল	-9.62384
▁খোঁজ	-9.62397
▁হচ্ছেন	-9.6244
▁অপেক্ষা	-9.62534
▁মেয়ের	-9.62535
▁যৌথ	-9.62566
▁সমাধান	-9.62571
▁নির্মাতা	-9.62608
▁করতেন	-9.62609
▁আসছেন	-9.62614
▁ওয়া	-9.62622
▁মাহবুব	-9.62634
▁একসঙ্গে	-9.62726
▁অফিসে	-9.6273
গত	-9.62763
▁বিজয়ী	-9.62764
▁প্রতিরোধে	-9.62791
▁অধিদপ্তর	-9.62818
৪৩	-9.62827
▁বিকল্প	-9.62891
▁ডে	-9.62907
কু	-9.62915
▁ওয়েস্ট	-9.62951
▁পদ্মা	-9.62995
▁জন্মদিন	-9.63012
▁অস্ট্রেলিয়া	-9.63015
▁খবরে	-9.63033
▁মুজিব	-9.63052
▁যুক্তরাষ্ট্রে	-9.63057
▁কক্ষে	-9.6319
গঞ্জ	-9.63258
▁প্রতিযোগিতা	-9.63323
▁মাশরাফি	-9.63397
▁ধারণ	-9.63439
▁অঞ্চলের	-9.63496
▁কত	-9.63517
৫৯	-9.63658
▁ইনিংস	-9.63755
▁কিভাবে	-9.6379
▁দফায়	-9.63855
▁পেলেন	-9.63904
▁বগুড়া	-9.63929
▁সিরিজে	-9.6398
▁কাটা	-9.64057
▁ঢুকে	-9.64174
▁যেভাবে	-9.64231
u	-9.6426
▁ব্যস্ত	-9.64283
▁চট্টগ্রামে	-9.64445
▁ইন্টারনেট	-9.64504
▁মহামারি	-9.64507
▁অ্যাপ	-9.64515
▁নাসির	-9.64545
▁দ্বারা	-9.64557
▁অফ	-9.64586
▁পেঁয়াজ	-9.6462
▁রাস্তার	-9.64639
▁স্মৃতি	-9.64672
▁খুশি	-9.64731
▁স্টেশন	-9.64738
▁অবরোধ	-9.64838
▁লিগ	-9.64864
▁ভূমি	-9.64903
▁ডোজ	-9.64952
▁আন্দোলনের	-9.6498
▁দেখার	-9.64988
হীন	-9.65017
▁কর্তৃপক্ষের	-9.65031
▁অঞ্চলে	-9.65031
▁শো	-9.65079
▁হবেন	-9.65117
▁রক্ত	-9.65154
▁কিছুই	-9.65192
▁উদ্দেশে	-9.65198
৪৭	-9.652
▁চুল	-9.6538
▁রাশিয়ার	-9.65429
৫৮	-9.65481
▁স্ত্রীর	-9.65496
▁প্রত্যাহার	-9.65609
▁কর্মীদের	-9.6567
▁সংরক্ষণ	-9.65676
▁উপায়	-9.65718
▁চ্যানেল	-9.65746
▁বিমানবন্দরে	-9.65757
▁নির্মিত	-9.65825
▁দিচ্ছেন	-9.65907
▁পতাকা	-9.65912
▁and	-9.66022
আমরা	-9.66043
নার	-9.66075
▁পাচ্ছে	-9.66109
▁রযাবের	-9.66171
▁ঐ	-9.66206
▁ঈদুল	-9.66351
▁কর্মকর্তাদের	-9.66353
▁দাখিল	-9.66369
▁কালো	-9.6642
▁ডাক্তার	-9.66473
▁আপনারা	-9.66473
▁তৈরির	-9.66632
▁বক্তারা	-9.66707
▁দাফন	-9.66735
এই	-9.66742
▁চোখে	-9.6677
▁উন্নয়নের	-9.66827
ষ	-9.66876
▁ভেতরে	-9.6691
▁পরিস্থিতির	-9.66921
ভা	-9.67019
▁দায়ে	-9.6705
▁তদন্তের	-9.67058
▁মিথ্যা	-9.67193
তো	-9.67204
▁পাশের	-9.6726
▁প্রিমিয়ার	-9.6737
▁ম্যানেজার	-9.67376
▁শাস্তি	-9.67418
▁নামক	-9.67453
▁হামিদ	-9.67504
▁আপনাকে	-9.67577
▁কারাদণ্ড	-9.67713
▁বিরাট	-9.67849
▁সার্ভিসের	-9.6786
▁জাল	-9.6789
৫৭	-9.68027
▁Bengal	-9.68151
▁নির্দিষ্ট	-9.68156
▁তেমন	-9.68167
▁অফিসের	-9.68168
▁কর্তৃক	-9.68203
▁ডুবে	-9.68358
মু	-9.68406
▁প্রচুর	-9.6846
▁শুরুতে	-9.6851
▁মানসিক	-9.68586
▁বেরিয়ে	-9.6866
▁ধরেই	-9.68706
▁খেতে	-9.68734
▁পিছিয়ে	-9.68768
৪৪	-9.68779
▁মুখপাত্র	-9.68782
৫২	-9.68806
▁অস্ট্রেলিয়ার	-9.68834
▁Views	-9.68982
▁ইতিমধ্যে	-9.69
▁মানব	-9.69002
▁এসএসসি	-9.69025
▁শপথ	-9.69111
িন	-9.69244
▁বোন	-9.69286
▁রূপ	-9.6931
▁চোখ	-9.69362
৫৩	-9.69378
▁রেজাউল	-9.69446
▁৯০	-9.69509
▁নগর	-9.69523
▁মি	-9.69524
▁পড়ার	-9.69537
▁সংবাদমাধ্যম	-9.69566
▁ট্রাম্পের	-9.69593
▁দুজন	-9.69596
িয়ে	-9.6966
▁লে	-9.69676
▁চ্যাম্পিয়ন	-9.69676
▁দিবাগত	-9.69691
▁আসামী	-9.69695
▁বিপরীতে	-9.69767
▁পয়েন্টে	-9.69799
▁ফোনে	-9.69803
▁ত্যাগ	-9.69842
▁বাজেট	-9.69865
▁খাওয়া	-9.69916
▁সেনাবাহিনীর	-9.6995
▁নিউ	-9.69982
▁জুড়ে	-9.70006
▁সংবাদদাতা	-9.70034
বাংলাদেশ	-9.70054
▁ঘোষ	-9.70067
▁বুঝতে	-9.70113
▁সাংসদ	-9.70173
▁রাখে	-9.70201
▁হয়েছিলেন	-9.70232
▁পেলে	-9.70266
▁মেয়াদ	-9.70292
▁ইউ	-9.70333
▁পূর্ণ	-9.70388
▁ভিড়	-9.70405
৫৪	-9.70429
▁খেলোয়াড়	-9.70484
▁প্রশংসা	-9.70485
▁উপাচার্য	-9.70509
▁দফা	-9.70537
▁ন	-9.70629
▁পৃথিবীর	-9.70693
▁হতো	-9.70759
▁সুলতানা	-9.70781
▁সমাজের	-9.70825
▁স্বামীর	-9.70843
▁আশ্রয়	-9.70852
▁রাজি	-9.70971
▁মোল্লা	-9.71009
▁অবস্থার	-9.71041
▁৩৩	-9.71045
▁কলকাতার	-9.71046
৪১	-9.71128
▁কুপিয়ে	-9.71141
▁C	-9.71202
▁টাকায়	-9.71232
▁কল	-9.71347
▁সুপ্রিম	-9.71379
▁এন	-9.71382
▁to	-9.71388
▁টু	-9.71454
ুন	-9.71467
পে	-9.71493
▁বিজেপির	-9.71601
▁৩৬	-9.7163
▁ভাইরাসে	-9.71659
▁পররাষ্ট্র	-9.7168
▁am	-9.71689
ad	-9.71708
▁আল্লাহ	-9.71717
▁কারণেই	-9.71844
▁সংযুক্ত	-9.71868
ষ্ট	-9.72068
▁ভোরে	-9.72091
▁হ	-9.72123
▁নিবন্ধন	-9.72176
▁যাওয়ায়	-9.7222
৪৬	-9.72263
▁ধরণের	-9.72284
▁বলেছে	-9.72314
▁নাই	-9.72406
▁লেখক	-9.72409
▁গরম	-9.72463
d	-9.72466
▁গাড়ির	-9.72578
▁করবো	-9.72587
▁কয়েকদিন	-9.72604
▁অল্প	-9.72605
▁পুলিশকে	-9.72609
▁আলহাজ্ব	-9.72669
▁নব	-9.72677
▁দপ্তর	-9.72712
▁জনে	-9.72755
৫৬	-9.72756
▁গুগল	-9.72784
৪৯	-9.72824
▁সোনার	-9.72827
ুজ্জামান	-9.72841
▁রুবেল	-9.72904
▁নারীদের	-9.73054
মো	-9.73193
▁পৌরসভা	-9.73215
ায়	-9.73314
▁লেগে	-9.73383
▁পঠিত	-9.7341
al	-9.73419
▁কোর্ট	-9.73495
▁সভাপতিত্ব	-9.73538
▁আনার	-9.73622
▁জামাল	-9.7377
▁মিলন	-9.73891
▁আব্দুল্লাহ	-9.73909
▁বরং	-9.73911
▁নিয়েই	-9.74043
▁প্রাক্তন	-9.74103
▁পূরণ	-9.74194
সার	-9.74381
▁আকাশ	-9.74396
▁সমিতি	-9.74521
▁সুরক্ষা	-9.74613
▁বাবুল	-9.7463
▁সাদা	-9.74723
Com	-9.74724
▁ক্লাস	-9.74905
▁সত্য	-9.74929
▁আমেরিকার	-9.74982
▁প্রকাশ্যে	-9.75008
▁ঝড়	-9.75026
▁অবনতি	-9.75048
▁সার	-9.75108
▁ব্যয়	-9.75111
▁টেলিভিশন	-9.75163
▁বাজারের	-9.75164
▁জনগণ	-9.75178
▁জবাব	-9.75198
▁কর্মসূচির	-9.75219
▁মাদ্রাসা	-9.75223
▁ঘণ্টার	-9.75264
▁সাড়া	-9.75273
▁২০০	-9.75278
ান	-9.75349
▁শ্রমিকদের	-9.7535
ড়ি	-9.75417
▁ডোনাল্ড	-9.75531
বাড়ি	-9.75591
▁হেরে	-9.75597
▁এসেছেন	-9.75667
▁গ	-9.75712
▁কর্তব্যরত	-9.75808
▁প্রতিষ্ঠাতা	-9.75868
▁কখনও	-9.75915
তলা	-9.75969
▁উপসর্গ	-9.7599
▁ময়নাতদন্তের	-9.76024
▁১১টার	-9.76051
▁৩৪	-9.76124
▁ল	-9.76131
▁জড়িয়ে	-9.762
▁কর্মীরা	-9.7629
▁আরেকটি	-9.76357
▁সুর	-9.76397
▁ডেঙ্গু	-9.76529
▁ফ্লাইট	-9.76559
▁টিকিট	-9.76593
দু	-9.76607
কাল	-9.76615
▁গণমাধ্যম	-9.76661
▁ফাইনাল	-9.76715
▁পাল	-9.76719
▁যাবেন	-9.76822
▁ফরিদপুর	-9.76921
▁১১টায়	-9.77066
▁৪৮	-9.77094
▁গিয়েছিল	-9.77171
▁ত	-9.77218
▁আব্দুস	-9.77355
▁ছাড়াই	-9.77446
▁অভিষেক	-9.77482
▁পলাতক	-9.77556
▁মনির	-9.77602
▁বলেছিলেন	-9.77613
▁ইত্যাদি	-9.77615
▁মেহেদী	-9.7785
▁বলেই	-9.77995
▁শ্রী	-9.78055
▁বেঁধে	-9.78129
▁ক্ষমতায়	-9.7814
▁অথচ	-9.78194
▁সেগুলো	-9.78231
▁বিদেশে	-9.78231
▁গাজীপুর	-9.78272
▁ভি	-9.78315
▁সংযোগ	-9.78317
▁চ্যালেঞ্জ	-9.78387
▁ভবনে	-9.78455
▁পরিচালনায়	-9.78476
in	-9.78633
▁ইংল্যান্ড	-9.78647
▁মহাসড়কের	-9.78668
▁জা	-9.78719
▁ইনিংসে	-9.78784
▁বৃষ্টির	-9.78816
▁গলায়	-9.78852
▁সংস্কৃতি	-9.7894
▁শব্দ	-9.78961
▁নিকট	-9.79008
৫১	-9.7908
▁ব্যাটসম্যান	-9.79107
▁মিলনায়তনে	-9.79108
▁মারধর	-9.7912
▁বসবাস	-9.79122
▁দূরত্ব	-9.79179
▁জাহান	-9.79194
▁ওজন	-9.79279
মূলক	-9.79312
▁পরিবারকে	-9.79373
▁অতি	-9.79409
▁স্বাগত	-9.79418
▁বাড়তে	-9.79495
▁শীর্ষে	-9.79578
▁ব্যবহৃত	-9.79623
▁টন	-9.79634
▁সালাম	-9.79678
▁অভিজ্ঞতা	-9.79702
▁সিনেমায়	-9.7975
▁ফুট	-9.79801
▁টেকনাফ	-9.79854
লু	-9.79914
▁গো	-9.80067
▁ফর	-9.80125
▁রাষ্ট্রদূত	-9.80126
▁সংক্রমণের	-9.8013
▁নজর	-9.80204
কেও	-9.8022
▁P	-9.80258
▁সমাবেশে	-9.80258
▁সিলেটে	-9.80319
▁কাপ	-9.80467
▁আহবান	-9.80492
▁আপাতত	-9.80508
আই	-9.80508
▁দেহ	-9.80657
st	-9.80661
▁আহতদের	-9.80726
▁পদত্যাগ	-9.80793
▁বলিউডের	-9.80831
▁মাটিতে	-9.80836
▁লাইন	-9.80866
▁সেনাবাহিনী	-9.80876
▁পঞ্চম	-9.80891
▁স্বাক্ষরিত	-9.80946
▁কলেজে	-9.80957
▁ক্রয়	-9.81026
▁হিসাব	-9.81046
▁আবেদনের	-9.81089
▁স্ব	-9.81233
▁মান্নান	-9.81295
▁রেজা	-9.81331
▁বরাত	-9.81348
▁মিলিয়ন	-9.81368
▁কর্ম	-9.81386
টে	-9.81489
p	-9.81545
▁বিনা	-9.81577
লীগের	-9.81604
▁ডিবি	-9.81604
▁দুধ	-9.81616
▁নৌ	-9.81672
▁কামরুল	-9.81735
▁বন্দ্যোপাধ্যায়	-9.81881
▁বিদেশ	-9.81948
▁রোহিঙ্গাদের	-9.81968
▁৫০০	-9.81991
▁মোদি	-9.82064
▁বিবিসি	-9.82067
▁ব্যাটিং	-9.82115
▁ভোটের	-9.82251
▁ডাঃ	-9.82263
▁চৌধুরীর	-9.82352
▁মিটার	-9.8238
▁উদ্দেশ্য	-9.8238
▁জজ	-9.82394
▁Dhaka	-9.82427
▁বেশিরভাগ	-9.82473
▁প্রতিরক্ষা	-9.82481
▁রোধে	-9.82654
▁চক্রবর্তী	-9.827
▁উপস্থিতি	-9.82704
▁ইফতার	-9.82743
▁মানবিক	-9.82749
▁হোসাইন	-9.82769
▁বন্যা	-9.8281
▁গঠিত	-9.82839
▁জাতিসংঘের	-9.82927
▁চলতে	-9.82929
▁পিস	-9.82945
▁ছাড়	-9.82978
▁রিমান্ড	-9.83051
নিউজ	-9.8311
▁শুনে	-9.83116
▁মেশিন	-9.83183
▁দুর্দান্ত	-9.83216
চার	-9.83276
▁সেঞ্চুরি	-9.83284
▁জাফর	-9.83327
▁হারুন	-9.8336
তেও	-9.83441
▁শাহজালাল	-9.83441
▁মঞ্জুর	-9.83485
▁পর্যটন	-9.83504
▁জানেন	-9.83531
▁গ্রহণের	-9.83728
▁রিয়াল	-9.83728
সু	-9.8375
▁bangla	-9.83763
▁পাঠ	-9.83775
▁উন্নয়নে	-9.838
▁আমেরিকা	-9.838
▁০	-9.83881
▁কারো	-9.83906
▁পর্যায়ের	-9.83921
▁গণ	-9.8395
▁বেঁচে	-9.84041
▁ক্যাম্প	-9.84108
▁প্রেমের	-9.84111
▁বাড়ানো	-9.84131
▁আরিফ	-9.84137
নী	-9.84138
▁ক্রিকেটে	-9.8415
▁উদ্দীন	-9.84183
▁পানির	-9.84195
▁ডেস্কঃ	-9.84215
▁আবারো	-9.84235
▁Breaking	-9.84266
▁নিজে	-9.84307
▁রেখেছে	-9.84327
▁আইনশৃঙ্খলা	-9.84354
▁গেলেও	-9.84429
▁ঐতিহাসিক	-9.84441
্	-9.84549
o	-9.8455
▁সাম্প্রতিক	-9.84596
▁অসংখ্য	-9.84643
▁দর্শক	-9.8465
▁স্বাধীন	-9.84791
▁আবাসিক	-9.84798
▁ফেব্রুয়ারী	-9.84824
▁কম্পিউটার	-9.84841
▁সহযোগিতায়	-9.84855
▁কার	-9.84861
▁গায়ে	-9.84865
লার	-9.84892
▁ঘুম	-9.84916
▁লি	-9.84935
g	-9.85006
▁শিরোপা	-9.85031
▁মানবাধিকার	-9.85043
▁একদিন	-9.85072
▁করেনি	-9.85121
▁পাক	-9.8515
▁পুনরায়	-9.85177
▁রাষ্ট্র	-9.85206
▁Updated	-9.85254
▁ছেলের	-9.85256
▁সমস্যার	-9.85327
▁জন্যই	-9.85327
▁অর্থনীতি	-9.8534
▁এভাবে	-9.8536
▁হাজী	-9.8539
▁সন্ধান	-9.85432
▁৩৮	-9.85492
▁খেলাধুলা	-9.85527
▁গা	-9.85589
▁চেক	-9.85638
▁হেফাজতে	-9.85667
▁শিক্ষামন্ত্রী	-9.85668
▁স্কুলে	-9.85728
বাজার	-9.85779
▁পুরোপুরি	-9.85787
▁দোকানে	-9.8591
▁ফাউন্ডেশন	-9.85928
▁রাম	-9.8601
▁রোগীদের	-9.86061
▁যানবাহন	-9.86132
▁প্রতীক	-9.8617
▁ঘন্টা	-9.86179
▁ভোটার	-9.8623
▁ক্ষমা	-9.86255
▁আঞ্চলিক	-9.86261
▁বিনিয়োগ	-9.86266
▁অভিযোগের	-9.86292
▁নিচ্ছে	-9.86365
▁ধ্বংস	-9.86404
▁আসাদুজ্জামান	-9.86405
এফ	-9.86474
▁সম্মান	-9.86485
▁চিহ্নিত	-9.86489
▁জাতিসংঘ	-9.86516
▁সংসদে	-9.8659
▁সিএনজি	-9.86595
যা	-9.86633
▁নম্বরে	-9.86772
▁লাগবে	-9.86789
▁অধীনে	-9.86795
▁হোটেলে	-9.86876
▁রাজা	-9.86944
▁নির্যাতনের	-9.87004
▁বিনামূল্যে	-9.87098
▁স্ত্রীকে	-9.87141
▁ফ্রি	-9.87174
টিকে	-9.87199
গামী	-9.87221
▁মানিক	-9.87227
▁উঠতে	-9.87237
▁ইংল্যান্ডের	-9.87401
▁পাচ্ছেন	-9.87417
▁রবিউল	-9.87447
▁পক্ষের	-9.87481
▁সাগর	-9.87498
▁দশ	-9.87526
▁পদ্ধতি	-9.87626
▁B	-9.87679
▁কেমন	-9.87695
an	-9.87704
▁৩৭	-9.87739
▁জানি	-9.87753
▁শরীর	-9.87768
▁আসর	-9.87891
▁আগ্রহ	-9.87894
▁ভাষায়	-9.87968
▁বিসিবি	-9.87987
▁নেতাকর্মীরা	-9.87996
▁স্বীকৃতি	-9.87996
▁টুইট	-9.88002
P	-9.88022
▁মৌসুমে	-9.88039
▁কোথায়	-9.88049
▁লাগিয়ে	-9.88114
কালীন	-9.88215
▁অপহরণ	-9.88234
▁স্বাধীনতার	-9.88313
▁নেতার	-9.88314
▁হাওলাদার	-9.88347
▁আছি	-9.88478
▁পেসার	-9.88496
▁প্রিন্ট	-9.88517
▁সাফল্য	-9.88524
▁স্পষ্ট	-9.88537
জার	-9.88566
C	-9.88578
▁ডেকে	-9.88605
a	-9.88645
▁উন্নতি	-9.88725
▁বরাদ্দ	-9.88745
▁ব্যক্তিকে	-9.88796
▁এশিয়া	-9.8882
▁ক্যামেরা	-9.88862
▁আদর্শ	-9.88952
গো	-9.89026
▁জনকন্ঠ	-9.89028
টাই	-9.89036
▁ন্যাশনাল	-9.89056
▁ওয়েবসাইট	-9.8906
হার	-9.89174
▁ফিচার	-9.89293
▁শুধুমাত্র	-9.89306
▁Posted	-9.8932
▁ইন্টারন্যাশনাল	-9.89333
▁করেননি	-9.89396
▁শূন্য	-9.89482
▁যাত্রীদের	-9.89598
▁লকডাউনের	-9.896
মার	-9.89644
▁আওয়ামীলীগ	-9.89715
▁মাটি	-9.8976
▁ধরতে	-9.89797
▁পরও	-9.89808
▁উল্লাহ	-9.8994
▁অধিকাংশ	-9.90012
▁ব্যবহারের	-9.90019
▁খ্রিস্টাব্দ	-9.90091
▁ঘূর্ণিঝড়	-9.90154
বিরোধী	-9.90159
▁জুয়েল	-9.90247
▁বাঙালি	-9.90266
▁নাটক	-9.9032
▁মিয়ানমারের	-9.90389
▁শাকিব	-9.90392
▁কুমিল্লার	-9.90393
▁শিশুকে	-9.90411
▁রাষ্ট্রীয়	-9.90425
▁পাঁচটি	-9.90426
▁কষ্ট	-9.90435
▁ঘটনাস্থলেই	-9.90443
▁সেখানেই	-9.90461
▁বিধি	-9.9047
ম্যান	-9.90476
▁রমজান	-9.90478
▁দৃশ্য	-9.90534
▁মাহফিল	-9.90574
▁চীনা	-9.90576
▁এটাই	-9.90677
▁মাদরাসা	-9.90699
▁বারবার	-9.9073
▁পরেই	-9.90739
▁করছিলেন	-9.90778
▁৫৫	-9.90797
▁কারনে	-9.90825
▁প্রয়োগ	-9.90854
▁বাংলাদেশকে	-9.90887
▁শরীফ	-9.90915
▁ধাক্কায়	-9.90917
▁দাবী	-9.90921
▁বিবেচনায়	-9.90932
▁শীর্ষক	-9.90986
▁নিন্দা	-9.91074
▁পাবলিক	-9.91079
▁তথা	-9.91214
▁হাজারের	-9.91249
▁শাহরুখ	-9.91281
▁মাত্রা	-9.91295
▁নায়ক	-9.91351
▁মনি	-9.91374
▁অঞ্চল	-9.91411
▁#	-9.91424
▁জোট	-9.91427
▁ইং	-9.91429
▁সরে	-9.9143
▁রাতের	-9.91433
▁AM	-9.91475
▁আগেও	-9.91513
▁সূচক	-9.91554
▁ব্যারিস্টার	-9.91622
▁অর্থমন্ত্রী	-9.9177
▁গুলিতে	-9.91771
▁মাস্টার	-9.91832
▁হাকিম	-9.91868
▁আগুনে	-9.91877
▁রোড	-9.91895
▁টুর্নামেন্ট	-9.9191
▁লিগের	-9.9192
▁সুপারিশ	-9.91968
▁একথা	-9.91979
▁মেয়েকে	-9.92043
▁সাব	-9.92047
A	-9.9205
▁সারাদেশ	-9.9214
▁বাসের	-9.92217
▁শফিকুল	-9.9224
▁যুবককে	-9.92407
▁বোলিং	-9.92574
পার	-9.92578
▁বিমানবন্দর	-9.92584
রু	-9.92633
▁জয়ী	-9.92706
▁খ	-9.92861
▁স্মার্টফোন	-9.92866
▁উত্তেজনা	-9.9293
▁মেজর	-9.92933
▁ইউএনও	-9.92947
র্	-9.92953
▁সন্দেহ	-9.92985
▁বৃদ্ধির	-9.92991
▁অজ্ঞাত	-9.9301
▁বার্ষিক	-9.93044
▁ভালোবাসা	-9.93102
▁সুজন	-9.93103
ভূমি	-9.93122
▁বিস্তার	-9.93263
▁কক্সবাজারের	-9.93452
▁নুসরাত	-9.93516
▁জ	-9.93535
▁সক্রিয়	-9.93558
▁চাষ	-9.93602
▁•	-9.93689
মুক্ত	-9.93695
▁প্রতিনিধিঃ	-9.93723
▁মিল	-9.93774
▁বাড়াতে	-9.93789
খালী	-9.93792
▁কমপক্ষে	-9.93845
▁নেবে	-9.93933
▁ফাউন্ডেশনের	-9.93935
▁পেল	-9.93951
▁১০টায়	-9.93965
▁May	-9.93967
গুলির	-9.93976
▁প্রাপ্ত	-9.93992
▁বিবেচনা	-9.93994
ar	-9.94141
▁সমান	-9.94159
কর	-9.94169
▁এইচ	-9.94247
▁ট্রাস্ট	-9.94255
▁সদ্য	-9.94271
c	-9.94272
%	-9.94301
▁আক্রমণ	-9.9432
▁সোয়া	-9.94413
▁ছুটে	-9.94463
▁রায়ের	-9.94481
▁রাজশাহীর	-9.94567
▁গাজী	-9.94621
▁তে	-9.94721
▁সোনা	-9.9479
▁নোটিশ	-9.94848
▁নেতাকর্মীদের	-9.9485
▁গাছের	-9.9502
▁এনামুল	-9.95081
▁একদিনে	-9.95086
▁৪২	-9.95117
▁সেতুমন্ত্রী	-9.95118
রী	-9.95144
▁টাঙ্গাইল	-9.95144
▁পাঠানোর	-9.95165
২০২০	-9.9525
▁পাশ	-9.95292
ইউ	-9.95323
▁সংবর্ধনা	-9.95345
▁মৃতদেহ	-9.9538
▁হাট	-9.954
চা	-9.95452
▁ওমর	-9.955
▁দেশীয়	-9.95537
ুয়া	-9.95554
ওয়া	-9.95601
▁ঝুল	-9.95616
▁২০১৩	-9.95622
▁জমির	-9.95636
▁শনাক্তের	-9.95721
▁ওয়ার্ডে	-9.95729
▁ইতিহাসে	-9.95774
হি	-9.95814
▁গতি	-9.95824
▁মিরপুর	-9.95826
▁রেখেছেন	-9.95854
▁স্টক	-9.9586
▁উপরে	-9.95917
▁৩৯	-9.95919
▁রেলওয়ে	-9.95968
▁স্বেচ্ছাসেবক	-9.95982
▁শ্রীলঙ্কা	-9.95999
▁চিকিৎসকরা	-9.96021
▁সরকারকে	-9.96022
▁ভুয়া	-9.96035
▁রায়হান	-9.96037
▁মন্ডল	-9.96045
▁সকলকে	-9.96057
▁শিরোনাম	-9.96105
▁লিগে	-9.96141
▁মানে	-9.96142
▁ওপেনার	-9.96215
▁স্বাক্ষর	-9.96354
▁প্রতিবন্ধী	-9.96371
▁পাড়া	-9.96416
▁সংগীত	-9.96467
▁D	-9.96522
▁আজিজ	-9.9654
লীগ	-9.9664
▁রা	-9.96688
▁সাজা	-9.96694
▁পুরনো	-9.96706
▁জমিতে	-9.96752
▁দিল্লি	-9.96761
▁মোড়	-9.96801
চি	-9.96802
▁!	-9.96812
▁জের	-9.96848
▁দুইজন	-9.96914
▁মোকাবিলায়	-9.96936
▁ফিরেছেন	-9.96944
▁হযরত	-9.96959
▁খাতে	-9.97105
▁প্রত্যাশা	-9.97108
▁ঘোষণার	-9.97113
▁অভিনন্দন	-9.9713
or	-9.97152
▁ঘোষিত	-9.97178
▁দিনব্যাপী	-9.97181
▁উপস্থাপন	-9.97226
▁অ্যাড	-9.97249
▁হু	-9.97256
▁শ্রীলঙ্কার	-9.97272
▁১০টার	-9.97278
▁বিশেষজ্ঞ	-9.97313
▁লাইফ	-9.97321
▁Read	-9.97468
▁তল্লাশি	-9.97475
▁কমিউনিটি	-9.97517
▁৭৫	-9.97547
▁ভোলা	-9.9757
পত্র	-9.97577
▁প্রয়োজনে	-9.97599
▁ক্রিকেটের	-9.97632
▁মেম্বার	-9.97661
▁এক্সপ্রেস	-9.97748
▁ব্রাজিল	-9.97774
B	-9.97826
▁ব্যক্তিদের	-9.97886
শিক্ষাপ্রতিষ্ঠান	-9.97902
▁বাড়ানোর	-9.97906
▁অনেকটা	-9.97974
▁ব্যুরো	-9.98137
▁গিয়েছিলেন	-9.9815
▁কোহলি	-9.98297
▁দে	-9.98339
▁সামান্য	-9.9834
▁৪১	-9.98372
▁ago	-9.98427
▁কথায়	-9.98483
▁ইরান	-9.98529
▁পু	-9.9863
▁সেতুর	-9.98691
লাম	-9.98705
▁মেট্রোপলিটন	-9.98774
▁ধাপে	-9.98811
▁কারও	-9.98819
▁ইতিমধ্যেই	-9.98852
▁সান	-9.98866
▁মামলাটি	-9.98882
▁ড্র	-9.98902
▁এগুলো	-9.98921
▁রিট	-9.98938
▁আলি	-9.9894
▁আশরাফুল	-9.98964
▁ভ	-9.99064
ত্ব	-9.99127
▁নির্দেশে	-9.99155
▁ঠেকাতে	-9.99211
▁খোকন	-9.99212
▁পারছেন	-9.99258
▁পে	-9.99329
েশন	-9.99448
▁সবকিছু	-9.99488
▁মীর	-9.99498
▁আইনি	-9.99545
▁হকের	-9.99559
▁সুরমা	-9.99666
▁ইয়াবাসহ	-9.99666
▁দরিদ্র	-9.99675
▁২টি	-9.99732
▁পিটিয়ে	-9.99759
▁মালেক	-9.99792
▁ওভার	-9.99805
▁১২টার	-9.99826
▁দান	-9.99883
▁করলো	-9.99891
bd	-9.99908
▁ব্যথা	-9.99909
ূ	-9.99955
▁মেয়েদের	-9.99992
▁নীতি	-10.0002
▁হাবিব	-10.0009
▁শান্ত	-10.0009
▁শা	-10.0011
▁ফ	-10.0014
▁এইচএসসি	-10.0016
▁জখম	-10.0027
▁ছাত্রদলের	-10.0041
▁মন্দির	-10.0046
▁পূর্বে	-10.0046
▁মোস্তাফিজুর	-10.0054
▁শি	-10.0064
▁দেখানো	-10.0069
▁যিনি	-10.0071
▁অপরদিকে	-10.0071
▁ভাইয়ের	-10.0077
▁বিক্রির	-10.0078
▁প্রতিযোগিতায়	-10.008
▁উদ্দিনের	-10.0082
▁কাটিয়ে	-10.0082
▁রাহুল	-10.0088
▁উপাদান	-10.0089
▁মজুমদার	-10.0094
▁বয়সে	-10.0094
▁একুশে	-10.0107
▁গানটি	-10.0113
▁নোয়াখালী	-10.0125
▁ভিটামিন	-10.0125
▁ফিরতে	-10.013
▁ভেতর	-10.0138
▁খাগড়াছড়ি	-10.014
▁বর	-10.014
▁পরের	-10.0143
▁রাজধানীতে	-10.0144
▁হাবিবুর	-10.0153
▁পল্লী	-10.0155
▁ক্রাইম	-10.0156
▁জিজ্ঞাসাবাদ	-10.0159
▁তোলার	-10.0165
▁ভিসা	-10.0168
▁জনক	-10.0168
▁ডেপুটি	-10.0169
▁জেলে	-10.017
ঢাকা	-10.017
▁আইপিএল	-10.0172
▁রবি	-10.0178
▁মেরে	-10.0182
▁আফ্রিকার	-10.0183
▁মাল	-10.0186
▁আকবর	-10.0194
▁অপেক্ষায়	-10.0197
▁আনুষ্ঠানিকভাবে	-10.0199
লী	-10.02
কেই	-10.0201
▁Pratidin	-10.0205
▁মাননীয়	-10.0208
▁৪৯	-10.021
▁ওয়ার্ল্ড	-10.0212
▁শিক্ষকদের	-10.0213
এন	-10.0213
▁মনোনীত	-10.0215
▁সাক্ষাৎকারে	-10.0217
▁পত্রিকা	-10.022
▁দায়ী	-10.0223
েন	-10.0231
▁সাঈদ	-10.0234
▁হালকা	-10.0243
▁মিনিটের	-10.0245
▁ক্ষোভ	-10.0247
▁সুনামগঞ্জ	-10.025
▁এরশাদ	-10.0253
▁রো	-10.0256
বেন	-10.026
▁নয়া	-10.0262
▁শাহীন	-10.0266
▁জনতা	-10.0283
▁সুলতান	-10.0284
▁কিনে	-10.0288
▁মোদী	-10.0294
▁প্রতিশ্রুতি	-10.0297
▁দলটির	-10.03
▁৬৫	-10.0302
▁রাজ্জাক	-10.0303
▁s	-10.0304
▁পার্বত্য	-10.0307
▁ইচ্ছা	-10.0312
▁যথাযথ	-10.0312
▁চাঁদ	-10.0326
▁দি	-10.0327
▁পাবনা	-10.033
▁অলরাউন্ডার	-10.0342
▁স্বর্ণ	-10.0348
▁সবসময়	-10.0349
▁আহম্মেদ	-10.0351
▁অপু	-10.0352
▁দিয়েছিল	-10.0353
▁রোগে	-10.0355
▁গুঞ্জন	-10.036
▁বিদ্যালয়ে	-10.036
▁জনাব	-10.036
▁ইন্ডিয়া	-10.0364
▁আরবের	-10.0366
▁যথেষ্ট	-10.0369
▁নিউজিল্যান্ড	-10.037
▁সাধারণত	-10.0379
▁ফা	-10.0382
▁পৌন	-10.0382
▁পর্ব	-10.0387
▁প্রত্যেক	-10.0391
▁গণমাধ্যমকে	-10.0392
▁সম	-10.0399
▁কর্মকর্তার	-10.0405
▁T	-10.0406
▁ট্রেনের	-10.0411
▁৪৪	-10.0411
▁সংসার	-10.0412
▁ইলিশ	-10.0414
▁বাড়তি	-10.0415
T	-10.0423
▁তম	-10.0428
▁পড়লে	-10.0429
▁বোতল	-10.0434
▁By	-10.0436
▁বন্ধের	-10.0445
▁শহিদুল	-10.0451
৬০	-10.0452
▁মাদ্রাসার	-10.0462
▁যাবত	-10.0463
▁ভার্চুয়াল	-10.0465
▁অনুসারে	-10.047
k	-10.0475
▁দুর্যোগ	-10.0477
▁হানিফ	-10.0482
▁আমিনুল	-10.0483
▁ভ্রমণ	-10.0498
▁January	-10.0499
▁এয়ার	-10.0506
▁মুক্তিযুদ্ধের	-10.0507
▁চি	-10.0507
▁ঝিনাইদহ	-10.0507
▁পাসপোর্ট	-10.0513
দী	-10.0514
▁কারখানা	-10.0516
▁অবস্থানে	-10.052
▁সেন্টারে	-10.0521
▁টাইম	-10.0526
▁দায়িত্বে	-10.0531
▁১০টি	-10.0532
▁ইসলামিক	-10.0537
▁সংস্কার	-10.0538
▁সঞ্চালনায়	-10.0539
▁চত্বরে	-10.0552
▁নির্মাণের	-10.0553
▁তদন্তে	-10.0554
▁সহায়তায়	-10.0555
b	-10.0555
আমার	-10.0563
▁পাল্টা	-10.0564
▁ইউনিটের	-10.0567
▁প্রকার	-10.0567
▁ঈদে	-10.0569
▁পলাশ	-10.0576
▁তালা	-10.0593
▁একদল	-10.0597
কারীদের	-10.0597
▁প্রয়াত	-10.061
▁বিশ্বব্যাপী	-10.0611
▁ট্রাকের	-10.0612
▁প্রার্থীর	-10.0619
▁রাজু	-10.0627
▁বেছে	-10.0631
মন	-10.0632
▁বেঞ্চ	-10.0636
▁গুণ	-10.0638
▁হে	-10.0638
▁কিছুক্ষণ	-10.0642
্যা	-10.0647
▁সেজন্য	-10.0649
ডা	-10.0657
▁মাদকদ্রব্য	-10.0657
▁দুর্ঘটনার	-10.0659
▁ওয়ান	-10.066
▁কড়া	-10.0661
▁সাইকেল	-10.0662
▁নিলেন	-10.0669
▁যেহেতু	-10.0672
▁আশরাফ	-10.0675
▁স্পিকার	-10.0676
▁দরজা	-10.068
সন	-10.0681
▁তারিখে	-10.0682
▁ভেঙ্গে	-10.0686
▁আল্লাহর	-10.0687
▁অ্যাকাউন্ট	-10.0697
▁পরিশোধ	-10.0706
▁যাচাই	-10.0711
▁বরখাস্ত	-10.0716
▁করপোরেশনের	-10.0719
▁কাপড়	-10.0722
▁দায়	-10.0724
▁স্বপন	-10.0724
▁৪৩	-10.0727
▁নেবেন	-10.0728
শন	-10.0731
▁সদরের	-10.0731
▁জ্ঞান	-10.0753
▁লঞ্চ	-10.0754
▁নিরাপত্তার	-10.0757
▁চাওয়া	-10.0771
▁আফ্রিকা	-10.0774
▁বলার	-10.0777
রাজ	-10.0786
▁শিগগিরই	-10.0786
▁ঘন্টায়	-10.0786
▁দলটি	-10.0787
গুলোকে	-10.0794
▁তুরস্কের	-10.0795
▁অমিত	-10.0798
▁নাগাদ	-10.08
▁কিনতে	-10.0802
▁মোতায়েন	-10.0802
▁দেখেন	-10.0807
▁আইসিসি	-10.0809
▁কোর্টের	-10.0809
▁জিয়াউর	-10.081
▁শাহজাহান	-10.0817
▁চাপা	-10.0819
▁বু	-10.0821
▁আশ্বাস	-10.0823
D	-10.0824
▁শে	-10.0831
▁বিতর্ক	-10.0833
le	-10.0836
▁শর্ত	-10.084
টু	-10.0842
▁হৃদয়	-10.0845
▁আগ্রহী	-10.0846
▁৩০০	-10.0849
▁চলেছেন	-10.0849
ন্ড	-10.0859
▁কর্মচারী	-10.0859
▁৭১	-10.086
▁তথ্যমন্ত্রী	-10.0865
▁খাওয়ার	-10.0865
▁ধার্য	-10.0867
▁প্রার্থীদের	-10.0868
▁নিচ্ছেন	-10.0873
▁হাইকোর্টের	-10.0874
▁ব্যবসায়ীরা	-10.0874
▁সম্মাননা	-10.0882
▁প্রাথমিকভাবে	-10.0883
▁প্রাকৃতিক	-10.0883
▁সহজেই	-10.0886
▁আনুষ্ঠানিক	-10.0886
▁তাছাড়া	-10.0888
▁এলে	-10.0896
▁বিকাশ	-10.0898
▁I	-10.0904
বান	-10.0905
▁হারে	-10.0909
▁অধিদফতরের	-10.0927
▁ডিম	-10.0938
▁প্রতিষ্ঠানে	-10.0941
ra	-10.0942
▁৭২	-10.0945
▁গ্রহন	-10.0945
▁পদক	-10.0946
▁চোখের	-10.095
▁বাম	-10.0957
▁আসরে	-10.0958
তু	-10.0962
▁নারীকে	-10.0963
▁মানুষদের	-10.0969
▁ব্যবসায়ীদের	-10.0969
▁পেয়েছি	-10.0972
▁টেস্টের	-10.0973
▁মরহুম	-10.0979
▁বার্তায়	-10.0987
▁গাড়িতে	-10.0991
▁Comments	-10.0995
▁ইউসুফ	-10.1002
▁বেনাপোল	-10.1008
▁টিকার	-10.1014
▁দর্শকদের	-10.1016
▁মিষ্টি	-10.1025
▁আলোচনার	-10.1026
▁বিপ্লব	-10.1037
গ্রাম	-10.1038
▁ফিল্ম	-10.1045
▁কৃষকদের	-10.1046
▁৫২	-10.1046
▁ভবিষ্যতে	-10.1048
▁সম্পর্কিত	-10.1053
▁উল	-10.1056
m	-10.106
▁জসিম	-10.1061
▁বিগত	-10.1069
▁খেলায়	-10.1069
▁দিয়েছি	-10.107
▁ডাকাত	-10.1072
▁প্রচারণা	-10.1079
▁গুজব	-10.1082
▁৪৭	-10.1089
▁রস	-10.1098
▁জানাজা	-10.1099
▁মিস	-10.1103
▁আতঙ্ক	-10.1113
▁৪৬	-10.112
▁অস্বীকার	-10.112
▁নিউজিল্যান্ডের	-10.1121
▁পাইলট	-10.1126
▁হবিগঞ্জ	-10.1129
▁নেত্রী	-10.113
এক	-10.1132
▁নিযুক্ত	-10.1133
২০২১	-10.1137
▁অন	-10.1152
▁ফরম	-10.1153
▁নীল	-10.1153
▁আচরণ	-10.1154
ময়	-10.1154
▁রাতেই	-10.1158
ঘ	-10.1159
▁বিবাহ	-10.1161
যুক্ত	-10.1162
▁পণ্যের	-10.1165
▁কোরআন	-10.117
▁চালান	-10.117
▁একজনের	-10.117
▁প্রতিবেশী	-10.1171
▁গণমাধ্যমে	-10.1177
▁শর্মা	-10.1177
ফি	-10.1182
▁বাঁধ	-10.1186
▁স্থাপনা	-10.1193
▁তরফে	-10.1198
▁সংখ্যক	-10.1201
▁বাঁচাতে	-10.1204
▁সভার	-10.1209
▁সিস্টেম	-10.1214
▁টেক	-10.1214
▁অন্যদের	-10.1218
▁সং	-10.1225
▁সুষ্ঠু	-10.1227
▁৩টি	-10.1234
▁চারজন	-10.1241
▁হুমায়ুন	-10.1241
▁প্রদেশের	-10.1266
▁September	-10.1271
মেন্ট	-10.1275
▁দৃষ্টি	-10.1275
l	-10.1276
▁ডাউনলোড	-10.1278
▁এমনটাই	-10.1281
বল	-10.1283
▁যাত্রীবাহী	-10.1291
▁মারাত্মক	-10.1297
on	-10.13
▁ধারায়	-10.1301
▁সাক্ষাৎ	-10.1307
▁মহাসড়কে	-10.1307
▁দিবসে	-10.1308
▁গণতন্ত্র	-10.1309
▁কাউন্সিল	-10.131
▁নাঈম	-10.1312
পূর্ণ	-10.1312
▁মিয়ানমার	-10.1319
▁গুলিবিদ্ধ	-10.132
করণ	-10.132
▁বিখ্যাত	-10.1321
▁ফরিদ	-10.1323
▁১০টা	-10.1326
▁অনুসরণ	-10.133
▁বান্দরবান	-10.1331
▁রনি	-10.1332
▁দত্ত	-10.1335
প্রতি	-10.1337
▁ভারী	-10.1345
▁ক্যাম্পের	-10.1347
▁পরিবর্তে	-10.1352
▁পড়ছে	-10.1367
খা	-10.1371
▁বিশ্বজুড়ে	-10.1372
▁প্রেক্ষিতে	-10.1372
▁আগ	-10.1373
▁সচিবালয়ে	-10.1374
▁৫১	-10.1374
▁আনসার	-10.1375
▁ন্যায়	-10.138
▁হাসি	-10.1382
▁উত্তোলন	-10.139
গন	-10.1392
▁নোট	-10.1393
▁দুজনের	-10.1395
▁৫৪	-10.1399
▁রপ্তানি	-10.14
▁ভোটগ্রহণ	-10.1401
▁দেশকে	-10.1403
▁কংগ্রেসের	-10.1405
▁আড়াই	-10.1408
▁গড়	-10.141
▁সন্ত্রাস	-10.1415
▁বিচ্ছিন্ন	-10.1417
I	-10.142
▁উপভোগ	-10.1421
h	-10.1424
▁যাচ্ছিল	-10.1424
▁৫৬	-10.143
পূর্ব	-10.143
▁বন্দরে	-10.1431
▁বাগেরহাট	-10.1432
▁অবাক	-10.1433
▁এমনই	-10.1436
▁নাগরিকদের	-10.1438
▁নিম্ন	-10.144
▁প্রতিষ্ঠানটি	-10.1446
▁মৌলভীবাজার	-10.1455
▁প্রকৃত	-10.1462
▁দা	-10.1466
▁চালানোর	-10.1474
▁গলা	-10.1475
▁ফুটবলার	-10.1496
▁মোকাবেলায়	-10.1498
▁স্টার	-10.15
▁সংগৃহীত	-10.1506
▁মিউজিক	-10.1514
▁অক্সিজেন	-10.1515
▁অঙ্গ	-10.1516
▁৫টি	-10.1518
▁জাতি	-10.152
▁ইনস্টিটিউট	-10.1521
▁অবৈধভাবে	-10.1532
▁ধানের	-10.1533
▁পাই	-10.1536
▁ধারাবাহিকতায়	-10.1538
▁পর্বে	-10.154
▁আনুমানিক	-10.1544
▁মোশাররফ	-10.1554
দেশ	-10.1557
▁ভুলে	-10.1566
▁ময়না	-10.1567
▁কাপুর	-10.1574
▁মন্ত্রিপরিষদ	-10.1575
িল	-10.1578
▁পাচার	-10.1583
▁প্রদর্শন	-10.1584
▁প্রতিক্রিয়া	-10.1584
▁ছাত্রীকে	-10.1585
▁খতিয়	-10.1593
▁তখনই	-10.1593
▁রাউন্ড	-10.1594
▁উপলক্ষ্যে	-10.1596
ব্য	-10.1597
▁ভিডিওতে	-10.1603
▁October	-10.1606
BD	-10.161
▁সতর্কতা	-10.1617
▁নিয়েও	-10.1619
▁মোটর	-10.1626
ur	-10.1629
▁কৌশল	-10.163
▁চাঁপাইনবাবগঞ্জ	-10.1633
▁প্রবল	-10.1639
▁সাহিত্য	-10.1641
টো	-10.1643
ধ	-10.1648
▁ক্ষুদ্র	-10.165
▁রিপন	-10.1659
▁সমুদ্র	-10.166
▁দেখুন	-10.1662
▁ধরেন	-10.1673
▁জ্বর	-10.1675
▁ম্যাচটি	-10.1677
উদ্দিন	-10.1678
▁দেলোয়ার	-10.1679
f	-10.168
▁এফ	-10.1681
▁থেকেও	-10.1684
▁সামনের	-10.1687
▁মতোই	-10.1689
জনের	-10.1689
▁সাব্বির	-10.1693
▁খালি	-10.17
▁ফেলা	-10.17
▁বয়ে	-10.1708
▁সচেতনতা	-10.171
▁সংক্ষিপ্ত	-10.171
▁বৃষ্টিপাত	-10.1711
▁ছাড়িয়ে	-10.1716
▁পড়বে	-10.1726
▁আত্মীয়	-10.1741
▁জাহাজ	-10.1742
▁আইডি	-10.1743
▁কমিয়ে	-10.1747
▁Previous	-10.1747
▁সিরাজুল	-10.1752
▁Newspaper	-10.1752
▁ফেরি	-10.1755
▁হেলাল	-10.1756
▁একেবারে	-10.1759
▁১টি	-10.1759
▁ফাইল	-10.1761
▁হায়দার	-10.1773
▁তেমনি	-10.1776
▁ডিএসই	-10.1781
▁পারভেজ	-10.1784
▁তৃণমূলের	-10.1786
▁সানি	-10.1788
▁লিমিটেডের	-10.1789
▁চাকমা	-10.1791
▁সবজি	-10.1794
▁সৌরভ	-10.1797
▁গুলো	-10.18
▁মতামত	-10.1805
▁চলা	-10.1807
▁লাইভ	-10.1807
বাড়ী	-10.1808
▁আয়ের	-10.181
িতে	-10.1812
ক্স	-10.1812
▁ঐক্য	-10.1813
▁অধিক	-10.182
▁ব্রাহ্মণবাড়িয়া	-10.1823
▁গ্রাহকদের	-10.1825
▁রাঙামাটি	-10.1828
▁শ্রেণি	-10.1829
▁বার্ষিকী	-10.1837
▁যোগদান	-10.1853
▁G	-10.1853
▁উজ্জ্বল	-10.1862
▁গার্ড	-10.1865
তদন্ত	-10.1865
▁দুইটি	-10.1869
▁৮টা	-10.1876
▁বালু	-10.188
▁দুর্নীতির	-10.189
এসআই	-10.1897
▁ক্যাম্পে	-10.1901
▁প্রার্থনা	-10.1901
▁মালামাল	-10.1901
▁June	-10.1904
▁কমাতে	-10.1914
▁রানী	-10.192
▁সীমিত	-10.1922
▁ভোটে	-10.1923
▁পাওয়ায়	-10.1925
▁ক্লিক	-10.1925
▁চলচ্চিত্রের	-10.1925
▁মুক্তিযুদ্ধ	-10.1926
বিষয়ক	-10.1937
▁নওগাঁ	-10.1939
▁৫৭	-10.1944
▁সম্ভাব্য	-10.1946
▁এক্স	-10.1946
▁বুকে	-10.1949
▁মোড়ে	-10.1952
▁সম্পর্কের	-10.1958
▁রিজভী	-10.196
▁ভক্তদের	-10.1964
▁ইব্রাহিম	-10.1966
▁সিদ্দিকী	-10.1975
▁বাড়বে	-10.1976
▁জ্বালানি	-10.1977
▁Kolkata	-10.1978
▁M	-10.1982
▁প্রেমিক	-10.1982
▁টুইটারে	-10.1988
▁ভিতরে	-10.199
▁হচ্ছিল	-10.1992
▁পারলে	-10.1997
▁স্থানীয়দের	-10.1998
পরিদর্শক	-10.1999
▁শিক্ষার্থীর	-10.2003
▁বৃদ্ধ	-10.2005
▁স্মরণ	-10.2006
▁অ্যাকশন	-10.2014
ভার	-10.2019
রত	-10.202
M	-10.2023
▁পাকিস্তানি	-10.2027
▁চোট	-10.2034
▁আইনগত	-10.2043
▁বিক্রয়	-10.2043
▁ইংরেজি	-10.2044
▁আজম	-10.2045
▁বাইডেন	-10.2045
▁বিধিনিষেধ	-10.2045
▁করপোরেশন	-10.2047
▁আন	-10.2048
▁২০১২	-10.2048
গু	-10.2049
▁সঙ্গী	-10.2056
▁রাজস্ব	-10.206
▁উন্মুক্ত	-10.2073
▁পরিষেবা	-10.2073
▁রাখুন	-10.2073
▁সংরক্ষিত	-10.2075
▁সোহাগ	-10.2077
▁নির্ভর	-10.208
▁লম্বা	-10.2084
▁সংঘর্ষের	-10.2086
▁উপস্থিতিতে	-10.2091
▁ব্যাগ	-10.2092
▁ছায়া	-10.2093
▁ফেরদৌস	-10.2097
িম	-10.2097
▁ছ	-10.2103
দে	-10.2108
▁হেড	-10.2112
▁জিয়াকে	-10.2113
▁বহন	-10.2118
▁উদ্বেগ	-10.2123
▁দুর্বৃত্তরা	-10.213
▁চির	-10.213
▁বোঝা	-10.213
▁বাঁধা	-10.2131
ঞ্জ	-10.2131
▁শুরুতেই	-10.2135
▁পাঠান	-10.2137
▁কৃষকের	-10.2138
▁ফ্রান্স	-10.2143
▁যাই	-10.2145
▁মুশফিকুর	-10.2151
▁বাংলাদেশী	-10.2152
▁স্বার্থে	-10.2157
▁দুদকের	-10.2162
▁সমন্বয়	-10.2165
▁শেরপুর	-10.2166
▁পায়ে	-10.2171
▁গেলো	-10.2174
▁বাসে	-10.2176
▁সনদ	-10.2177
রাও	-10.2177
▁আসছিল	-10.2179
▁৯টার	-10.2182
▁বিমানের	-10.2183
▁ইস্যু	-10.2186
▁দুলাল	-10.2186
▁কোরিয়ার	-10.2188
▁ছি	-10.2188
▁কোরবানি	-10.219
▁আপ	-10.2191
▁Amader	-10.2193
▁খাবারের	-10.2197
▁ট্রাফিক	-10.2198
▁আসিফ	-10.2201
▁পুলিশে	-10.2201
▁বক্স	-10.2202
▁হজ	-10.2202
▁পদ্ধতিতে	-10.2203
▁নবী	-10.2209
ভিডিও	-10.2209
▁নিহতদের	-10.2211
▁পাঠিয়ে	-10.2213
▁পশু	-10.2219
▁মঙ্গল	-10.2219
▁ভা	-10.222
▁কিশোরী	-10.2223
▁করছিল	-10.2225
▁E	-10.2228
▁তালেবান	-10.2235
▁টস	-10.2235
▁বিষ	-10.2247
▁ভূঁইয়া	-10.2247
▁ইসমাইল	-10.2248
▁অসাধারণ	-10.225
▁বিতর্কিত	-10.2262
▁৫৩	-10.2263
▁অপরাধে	-10.2264
▁৫৯	-10.2265
NEWS	-10.2267
▁হলুদ	-10.2269
লিয়া	-10.227
▁আফগানিস্তানের	-10.2271
▁কলকাতায়	-10.2271
▁কবীর	-10.2271
▁Sylhet	-10.2271
▁পরিপ্রেক্ষিতে	-10.2272
িয়ার	-10.2275
▁সিরাজ	-10.2276
জু	-10.2277
▁ওয়েবসাইটে	-10.2283
বু	-10.2291
▁পাথর	-10.2294
▁গুলশান	-10.2296
▁রশীদ	-10.2298
E	-10.2305
▁চুয়াডাঙ্গা	-10.2306
ন্স	-10.2308
▁রুশ	-10.2309
▁জোড়া	-10.2311
▁শ্রেষ্ঠ	-10.2312
ল্লা	-10.2314
▁সশস্ত্র	-10.2315
▁লড়াইয়ে	-10.2317
▁পয়সা	-10.2323
ম্প	-10.2324
ঙ্গা	-10.2325
▁সমস্যায়	-10.2327
বাদ	-10.2329
ৌ	-10.2334
▁অনেকের	-10.2335
▁সাইট	-10.2339
▁অপারেশন	-10.234
▁ব্যক্ত	-10.2341
▁চলছিল	-10.2346
▁রহস্য	-10.2346
▁কাজল	-10.2347
াস	-10.2348
▁প্রমূখ	-10.2348
▁ভ্যান	-10.235
▁ফিরোজ	-10.2358
▁একইসঙ্গে	-10.236
▁যমুনা	-10.2363
▁মার্কেট	-10.2373
▁কবে	-10.2379
▁অনুশীলন	-10.238
▁করিয়ে	-10.2383
▁ইঙ্গিত	-10.2393
▁শিশুটির	-10.2397
▁আর্জেন্টিনা	-10.2398
▁চ	-10.2399
▁৯টা	-10.2404
▁নিলে	-10.2406
▁যাচ্ছি	-10.2407
▁অপরাজিত	-10.2417
▁অনন্য	-10.2417
▁গবেষণায়	-10.2419
▁জানিয়েছিলেন	-10.242
▁মাংস	-10.2422
শত	-10.2426
▁Times	-10.2426
▁আবরার	-10.2427
▁চিনি	-10.243
▁পরিবর্তনের	-10.2432
িস	-10.2433
▁অবসর	-10.2434
▁মোমেন	-10.2434
স্বাস্থ্যমন্ত্রী	-10.2435
▁আশপাশের	-10.2441
▁৪টি	-10.2449
▁আবদুর	-10.2449
▁ভাঙচুর	-10.2449
▁জোরদার	-10.2451
▁গ্রাহক	-10.2454
▁হাওয়া	-10.2454
▁রাশেদ	-10.246
▁যাবজ্জীবন	-10.2462
পরিচালক	-10.2466
▁অভ্যন্তরীণ	-10.2472
▁সেন	-10.2486
▁জালাল	-10.2488
ানো	-10.249
▁সম্পাদনা	-10.249
▁একজনকে	-10.2494
▁November	-10.2495
▁রাজশাহীতে	-10.2495
▁সমৃদ্ধ	-10.2496
▁ভিডিওটি	-10.2499
▁মানববন্ধনে	-10.2506
▁সেদিন	-10.251
▁কেনার	-10.2514
▁সঙ্গীত	-10.2514
▁নারায়ণগঞ্জের	-10.2516
▁রং	-10.2518
▁ষড়যন্ত্র	-10.2518
▁বার্সেলোনা	-10.252
▁মার	-10.252
▁রঙের	-10.2521
▁যুক্তরাজ্য	-10.2524
▁বিনিময়	-10.2529
▁দিয়েই	-10.2535
▁দিল্লির	-10.2535
▁দাশ	-10.2546
▁আফগানিস্তান	-10.2547
▁সিরাজগঞ্জ	-10.2548
▁চিকিৎসকের	-10.2548
▁জিনিস	-10.255
▁নিবেদন	-10.2551
▁ফেনী	-10.2552
▁সরঞ্জাম	-10.2553
▁সিদ্দিক	-10.2554
▁সাময়িক	-10.2554
▁দুদক	-10.2555
▁পর্দায়	-10.2558
▁যাক	-10.2565
▁প্রযোজক	-10.2567
▁প্রদানের	-10.2569
বাস	-10.2569
▁কিংবদন্তি	-10.2574
▁July	-10.2575
▁লিড	-10.2577
এল	-10.2578
▁এক্ষেত্রে	-10.2579
▁চলার	-10.2582
▁ভেসে	-10.2584
▁ব্যাপার	-10.2585
▁সাইবার	-10.2586
▁রিয়াদ	-10.2587
▁অবিলম্বে	-10.2597
▁BdST	-10.2597
▁মেসির	-10.2606
▁চুরির	-10.2606
▁ডিসি	-10.2609
▁বলি	-10.2611
▁বৈশ্বিক	-10.2611
▁কর্পোরেশনের	-10.2612
▁পুকুর	-10.2617
▁আবদুল্লাহ	-10.2622
▁ভক্ত	-10.2626
▁ইস্যুতে	-10.2628
▁ফাঁড়ি	-10.2629
▁প্রতিষ্ঠিত	-10.2631
▁৬৪	-10.2637
▁রেড	-10.2639
▁চক্রের	-10.2639
▁Archives	-10.2643
▁দক্ষতা	-10.2648
▁ক্রিকেটারদের	-10.2649
▁জামে	-10.265
▁এরকম	-10.2651
▁অনেকটাই	-10.2651
▁এড়াতে	-10.2655
▁আলমের	-10.2655
▁বাছাই	-10.2657
▁বাস্তবায়নে	-10.266
▁টহল	-10.2664
গার	-10.2666
▁লন্ডন	-10.2666
▁সংকেত	-10.2666
▁৫৮	-10.2667
▁আরিফুল	-10.2667
▁পরি	-10.267
▁K	-10.2672
"।	-10.2675
▁হুদা	-10.2676
re	-10.2677
▁মহামারির	-10.2684
▁আরা	-10.2686
▁for	-10.2686
▁নবম	-10.2695
▁সিনহা	-10.2696
▁বহিষ্কার	-10.27
▁রক্ষায়	-10.2702
▁সংবাদটি	-10.2713
▁এসএম	-10.2725
▁শ্রমিকরা	-10.273
▁প্রযুক্তির	-10.2731
▁হাফেজ	-10.2733
▁December	-10.2736
▁১৪২৮	-10.274
▁ফরহাদ	-10.2747
▁মনোনয়নপত্র	-10.2748
▁আস্থা	-10.2751
স্ত	-10.2752
▁নেতৃত্বাধী	-10.2754
▁গাইবান্ধা	-10.2755
▁লিখে	-10.276
▁সম্প্রচার	-10.276
▁তরুণী	-10.2761
▁সফরের	-10.2762
▁পার্ক	-10.2765
▁মুকুল	-10.2772
ri	-10.2777
▁পরিবেশন	-10.2779
▁ডাল	-10.2779
▁জোটের	-10.278
▁অভাব	-10.2781
▁স্বতন্ত্র	-10.2786
▁ছাত্রীর	-10.2786
▁বীজ	-10.2788
দ্য	-10.279
▁জরুরী	-10.2794
▁বগুড়ার	-10.2802
▁নোবেল	-10.2805
▁February	-10.2806
▁পর্যবেক্ষণ	-10.2809
রাম	-10.2814
▁কাছাকাছি	-10.2817
▁যাতায়াত	-10.2817
▁ইউটিউব	-10.282
▁খাতের	-10.2822
en	-10.2825
▁অনুদান	-10.2829
▁সিনেমাটি	-10.2841
▁কর্মহীন	-10.2843
দল	-10.2847
▁হি	-10.2858
▁মেলার	-10.2863
▁West	-10.2864
▁সরদার	-10.2865
▁৬৮	-10.2866
▁রোগের	-10.287
▁প্রেসক্লাব	-10.287
▁ভিত্তি	-10.2872
▁পর্যাপ্ত	-10.2876
▁নাসিম	-10.2878
▁চরিত্র	-10.2879
▁ঠাকুরগাঁও	-10.2884
_	-10.2887
▁গোলের	-10.2895
▁জোন	-10.2898
▁পাড়ি	-10.2901
লের	-10.2903
▁এরমধ্যে	-10.2915
▁পশ্চিমবঙ্গের	-10.2915
▁অনু	-10.2917
▁লক্ষ্মীপুর	-10.2926
▁জয়ে	-10.2932
▁উড়িয়ে	-10.2935
▁ক্ষেপণাস্ত্র	-10.2936
▁২০১১	-10.2937
▁অন্তর্ভুক্ত	-10.2937
▁মদ	-10.2942
▁প্রদীপ	-10.2949
▁বিনিময়ে	-10.2953
গাঁও	-10.2956
▁উৎসবের	-10.2963
▁স্লোগান	-10.2964
▁ল্যাবে	-10.2968
▁লেখেন	-10.297
▁সৌন্দর্য	-10.2973
▁চালাচ্ছে	-10.2973
▁সেবার	-10.2974
▁হাফিজ	-10.2978
২০১৯	-10.2979
▁ইঞ্জিন	-10.2986
▁চার্জ	-10.2987
.)	-10.2991
▁সম্প্রদায়ের	-10.2992
আজ	-10.2995
▁ঘরোয়া	-10.3007
▁চুক্তির	-10.3009
▁আজকে	-10.3011
▁সেট	-10.3015
▁অভিনীত	-10.3018
▁যোগ্যতা	-10.302
▁ত্বকের	-10.3023
▁৮টার	-10.3024
▁শারমিন	-10.303
▁থেমে	-10.303
▁আশঙ্কাজনক	-10.303
▁চালিয়েছে	-10.3031
▁বিতরন	-10.3032
তায়	-10.3032
▁বুঝে	-10.3033
▁তৈরী	-10.3035
▁পিছনে	-10.3039
চে	-10.3041
▁পাহাড়	-10.3041
▁পর্যালোচনা	-10.3042
▁কাগজ	-10.3046
▁শেয়ারবাজার	-10.305
▁সদস্যকে	-10.3051
▁ব্যাখ্যা	-10.3054
▁ভেবে	-10.3057
▁বিশেষজ্ঞরা	-10.3059
▁ক্যাম্পাসে	-10.306
▁সত্যি	-10.3061
▁মুশফিক	-10.3065
▁ফ্রান্সের	-10.3069
▁মেলায়	-10.3072
▁জাপানের	-10.3076
▁ফিতর	-10.3077
▁April	-10.3079
ঘাট	-10.3085
আমাদের	-10.3092
▁নেতাকর্মী	-10.3095
০০০	-10.3095
▁মৃত্যুবরণ	-10.3105
▁সমর্থকদের	-10.3107
▁এরপরই	-10.311
▁উৎস	-10.3111
▁পত্রিকার	-10.3111
▁হাছান	-10.3114
▁এবারও	-10.3114
▁আলু	-10.312
▁বিচারের	-10.3121
▁প্রভাবে	-10.3126
▁নিয়োগের	-10.3127
▁রেডিও	-10.3127
▁এলো	-10.3131
▁আন্দোলনে	-10.3134
▁কতটা	-10.3135
▁বৈধ	-10.3136
▁প্রিয়াঙ্কা	-10.3138
▁একপর্যায়ে	-10.3143
▁আয়োজনের	-10.3148
নু	-10.3149
▁মাসুম	-10.3153
▁গ্রেফতারের	-10.3154
ক্ত	-10.3154
▁আনে	-10.3157
্ব	-10.3159
▁০০	-10.3159
▁শুল্ক	-10.3162
▁জলবায়ু	-10.3164
▁সেসব	-10.3168
▁লক্ষণ	-10.3175
▁স্	-10.3177
▁সাইফ	-10.3178
▁বিধান	-10.3181
▁ঘোষনা	-10.3182
▁Portal	-10.3186
▁বৈঠকের	-10.3194
মুখী	-10.3195
▁কাতার	-10.3196
▁ইংলিশ	-10.3199
▁মাঠের	-10.3199
▁একা	-10.3202
▁from	-10.3211
▁বিলিয়ন	-10.3211
▁সাকিবের	-10.322
▁রিফাত	-10.3225
▁প্রতিপক্ষ	-10.3229
▁সংগ্রহের	-10.323
▁লতিফ	-10.3234
▁বিধানসভা	-10.3235
▁প্রশাসনিক	-10.3237
▁আওয়ার	-10.3237
িংয়ের	-10.3239
পুরে	-10.3242
▁উত্তরা	-10.3246
▁পরমাণু	-10.3247
▁ওসমানী	-10.325
▁নার্স	-10.3258
▁লাইসেন্স	-10.3259
▁সমঝোতা	-10.326
▁সংগ্রাম	-10.3265
▁ইউনিভার্সিটি	-10.3265
▁শ্রেণীর	-10.327
▁পরিবারে	-10.3271
▁প্রাইভেট	-10.3274
▁রিমান্ডে	-10.3276
পো	-10.3278
▁আরোহী	-10.3278
▁বর্ষের	-10.3283
শো	-10.3294
▁প্যানেল	-10.3294
▁এশিয়ার	-10.3302
▁অগ্রগতি	-10.3304
▁রফিক	-10.3308
▁হাইওয়ে	-10.3309
▁জাপান	-10.331
▁কারিগরি	-10.3313
ir	-10.3318
কর্মী	-10.3319
▁ব্র্যান্ড	-10.332
▁সংক্রমিত	-10.3321
▁বিরতি	-10.3323
▁কেক	-10.3323
▁রাজীব	-10.3324
▁আকারে	-10.3324
▁গঠনের	-10.333
▁লু	-10.3334
▁প্রযোজনা	-10.3342
▁পালা	-10.3346
েল	-10.3348
▁ওসমান	-10.3348
▁মধু	-10.3352
▁বিদ্যুতের	-10.3352
▁আসামির	-10.3354
▁বঞ্চিত	-10.3354
▁তুমি	-10.3359
▁৬৬	-10.3364
▁নেটওয়ার্ক	-10.3365
▁প্লে	-10.3365
▁টেনে	-10.3367
▁জামান	-10.3368
ছা	-10.3372
▁কর্নেল	-10.3372
তী	-10.3375
পর	-10.3379
▁মঞ্চে	-10.3381
▁ইন্তেকাল	-10.3383
▁টাঙ্গাইলের	-10.3384
▁ছিলাম	-10.3386
▁সার্কেল	-10.3387
▁পাঠিয়েছে	-10.3387
▁সাহেব	-10.3393
▁উৎসবে	-10.3394
▁বিস্ফোরণ	-10.3398
▁টুর্নামেন্টের	-10.3399
▁চালাতে	-10.3405
াম	-10.3406
▁সিসি	-10.3407
▁এরা	-10.3407
বাগ	-10.3412
▁সফটওয়্যার	-10.3419
▁Channel	-10.342
▁সিকদার	-10.342
▁পরপরই	-10.3424
▁পালনের	-10.3424
সমূহ	-10.343
▁দেখাতে	-10.343
▁ঘন	-10.3431
▁কবিতা	-10.3431
▁রুটে	-10.3435
▁বিধ্বস্ত	-10.3443
▁কাশ্মীর	-10.3445
▁দুঃখ	-10.3447
▁চমক	-10.3451
▁নৌকার	-10.3451
▁মিত্র	-10.3452
▁অভাবে	-10.3453
▁ধরার	-10.3463
tv	-10.3465
▁সংসদীয়	-10.3468
পুলিশ	-10.3468
▁মিশিয়ে	-10.347
▁খেলবে	-10.3471
▁উল্লেখযোগ্য	-10.3472
ন্ন	-10.3476
▁অটো	-10.348
▁স্থানান্তর	-10.3481
▁পরাজিত	-10.3482
▁শিক্ষার	-10.3484
▁আসামিদের	-10.3484
▁রোহিত	-10.3487
য়ান	-10.3487
▁ইউনাইটেড	-10.3491
িয়ান	-10.3494
▁প্রাণঘাতী	-10.3495
▁শাস্তির	-10.3497
▁আফগান	-10.3497
▁আকার	-10.3502
▁মুম্বাই	-10.3508
▁রতন	-10.351
ঙ্গ	-10.3512
▁চীনে	-10.3513
জনিত	-10.3515
▁বলিউডে	-10.3515
▁ক্যাম্পাস	-10.3517
▁রযালি	-10.3519
▁পরিবেশে	-10.352
▁সমাপনী	-10.352
▁অতিক্রম	-10.352
▁August	-10.3522
ড়ে	-10.3522
▁বিরোধ	-10.3523
▁মনিরুল	-10.3525
▁শ্রম	-10.3526
▁রওনা	-10.3532
▁মাগুরা	-10.3537
▁ডিরেক্টর	-10.3538
▁অর	-10.3538
▁ইউনিটে	-10.3541
▁হারিয়েছে	-10.3544
▁কুড়িগ্রাম	-10.3544
▁Live	-10.3544
ন্দ	-10.3552
▁টের	-10.3554
▁আরোপ	-10.3558
▁ঘাট	-10.3561
গুলিতে	-10.3562
▁কান	-10.3566
সাধারণ	-10.3573
▁ক্লাবে	-10.3575
▁পাকা	-10.3576
▁তাও	-10.3577
▁মুরাদ	-10.3578
▁রুপি	-10.3581
▁বাণিজ্যিক	-10.3585
ইল	-10.3593
হাট	-10.3597
▁২য়	-10.3601
▁খালেদ	-10.3602
▁দফতর	-10.3603
▁টুইটার	-10.3606
▁ভূ	-10.3608
▁কনস্টেবল	-10.3608
▁এখনই	-10.3612
▁পো	-10.3613
▁স্পিনার	-10.3613
▁শাহিন	-10.3614
▁বড়ুয়া	-10.3615
▁ফোনের	-10.3616
▁প্রতিযোগিতার	-10.3618
▁মিরাজ	-10.3619
▁চলচ্চিত্রে	-10.3622
▁ধ	-10.3631
▁শীতের	-10.3636
▁পরিসংখ্যান	-10.3638
▁এতদিন	-10.3643
র্ক	-10.3646
▁ধাওয়া	-10.3647
▁কার্যক্রমের	-10.3648
▁দামে	-10.3653
থা	-10.3653
ারি	-10.3664
▁দাগ	-10.3664
▁নড়াইল	-10.3669
▁বিজনেস	-10.3672
ন্ট	-10.3673
O	-10.3677
▁পিতার	-10.3678
▁ক্ষমতাসীন	-10.3684
▁শাহরিয়ার	-10.3685
▁পারব	-10.3685
▁রোনালদো	-10.3685
COM	-10.3689
▁দেশগুলোর	-10.3697
▁March	-10.3697
মত	-10.37
▁দেশটি	-10.37
▁যোগ্য	-10.37
▁পরিমাণে	-10.3701
▁কর্পোরেশন	-10.3706
▁বিরাজ	-10.3707
▁মহামারী	-10.3716
▁ক্যারিয়ার	-10.3717
▁ভয়ে	-10.3724
▁দ্বীপ	-10.3724
▁টপ	-10.3724
▁কার্যকরী	-10.3725
▁b	-10.3727
▁অধিদফতর	-10.3732
ৈ	-10.3732
▁পরিবহনের	-10.3734
▁ডান	-10.3742
▁শৃঙ্খলা	-10.3747
▁ফজলে	-10.3747
▁হেলথ	-10.3749
▁পেশ	-10.3749
২০১৮	-10.3753
▁কাঁচা	-10.3756
টেক	-10.3759
▁চেয়েছেন	-10.376
ডে	-10.3764
সো	-10.3764
▁ব্রাজিলের	-10.3768
▁দেশজুড়ে	-10.3771
ul	-10.3774
এইচ	-10.378
▁উঠছে	-10.3781
▁মেট্রো	-10.3782
▁ষষ্ঠ	-10.3787
▁ইউরোপীয়	-10.3788
▁ব্যবসায়ীকে	-10.379
▁ঠিকানা	-10.3793
▁টাইগার	-10.3797
▁বিশ	-10.3797
▁যশোরের	-10.3797
▁article	-10.38
▁নাটোর	-10.3802
▁২৫০	-10.3803
▁কারখানায়	-10.3804
▁যানজট	-10.381
▁নরসিংদী	-10.3816
▁ভুক্তভোগী	-10.3819
▁ভে	-10.3823
বন	-10.3824
জুড়ে	-10.3826
▁বাচ্চু	-10.3826
▁লকডাউনে	-10.383
▁দপ্তরের	-10.3835
▁বন্দি	-10.3841
▁ওঠার	-10.3846
রিয়া	-10.3847
▁নয়ন	-10.386
▁F	-10.3864
▁গাজীপুরের	-10.3868
▁তাহের	-10.3872
গান	-10.388
▁রণবীর	-10.3882
▁ডিজাইন	-10.3887
▁সুস্থতা	-10.3893
▁রব	-10.3897
w	-10.3899
▁জন্যে	-10.3904
▁পাননি	-10.3905
▁শাসন	-10.3923
পু	-10.3924
»	-10.3925
বর	-10.3932
▁তারই	-10.3934
▁পত্র	-10.3935
▁করতেই	-10.3936
▁ভিউ	-10.3937
▁শীত	-10.3937
▁আগুনের	-10.3937
▁সমন্বয়ে	-10.3941
▁উদ্যোক্তা	-10.3945
▁পুকুরে	-10.3952
▁প্রো	-10.3952
▁ছোট্ট	-10.3952
▁আসল	-10.3959
▁কিশোরগঞ্জ	-10.396
▁মালয়েশিয়া	-10.3965
▁ছুটির	-10.3967
▁ভ্রাম্যমান	-10.3969
▁অবহিত	-10.3969
▁তালিকাভুক্ত	-10.397
▁চিফ	-10.3972
▁ময়মনসিংহের	-10.3974
াই	-10.3982
জাতীয়	-10.3987
▁পেট	-10.3988
▁গবেষক	-10.3991
▁ভিত্তিক	-10.3994
▁খুনের	-10.3995
▁গণধর্ষণ	-10.3996
▁দিবসের	-10.4012
▁পেরিয়ে	-10.4012
প্রাপ্ত	-10.4013
▁সেখানকার	-10.4013
▁মাহমুদউল্লাহ	-10.4014
▁অনিয়ম	-10.4019
▁একক	-10.4019
▁সর্বনিম্ন	-10.4022
▁প্রভাবশালী	-10.4022
▁সহকারি	-10.4026
▁সূত্রের	-10.4033
▁কামরুজ্জামান	-10.4035
▁[.]	-10.4035
▁গণতান্ত্রিক	-10.4035
▁৮৫	-10.4037
▁নেগেটিভ	-10.4038
▁ব্যাংকিং	-10.4039
▁জনপ্রিয়তা	-10.4041
▁৬টি	-10.4046
▁চলাকালে	-10.4049
▁*	-10.4056
▁ঘনিষ্ঠ	-10.4057
যোগ্য	-10.4059
▁সঞ্জয়	-10.4062
▁কৃষ্ণ	-10.4062
যে	-10.4062
▁৬১	-10.4062
▁মাহি	-10.4063
▁রহমানকে	-10.4065
▁৪০০	-10.4067
▁সেকেন্ড	-10.4068
▁শাকিল	-10.4072
▁স্বল্প	-10.4073
▁সংকটে	-10.4075
▁ইট	-10.4077
▁ক্যান্সার	-10.4085
▁জ্যেষ্ঠ	-10.4088
▁চিৎকার	-10.4092
▁খোলার	-10.4094
▁৬২	-10.4099
≣	-10.4101
▁প্রাণহানি	-10.4102
▁নেইমার	-10.4103
▁অংশে	-10.4103
▁সিম	-10.4103
▁রুমে	-10.4109
▁রুল	-10.4111
▁ব্যাটারি	-10.4112
▁পাকিস্তানে	-10.4115
▁১২টা	-10.4116
▁পায়নি	-10.4116
▁প্রাঙ্গণে	-10.4122
▁জামাত	-10.4128
▁ছেলেকে	-10.413
▁ওয়াশিংটন	-10.4131
▁নাইট	-10.4134
▁দ	-10.4137
▁নাগরিকত্ব	-10.4145
ন্দ্র	-10.4148
am	-10.415
▁আলোর	-10.4151
▁পেশা	-10.4153
▁কর্মশালা	-10.4159
▁চোর	-10.4161
▁হত	-10.4167
times	-10.4168
▁সন্দেহে	-10.4172
▁অভিভাবক	-10.4174
িকা	-10.4174
▁ফসল	-10.4175
▁গৃহবধূর	-10.4175
▁online	-10.4176
▁R	-10.4177
▁সই	-10.4182
▁হোয়াইট	-10.4184
▁যুদ্ধে	-10.4185
L	-10.4187
▁ইতিবাচক	-10.4195
▁ছিটকে	-10.4195
▁মহল	-10.4195
▁?	-10.4198
▁করানো	-10.4199
রাই	-10.4206
▁কেনা	-10.4208
▁প্রতিনিয়ত	-10.4208
▁ওপরে	-10.4209
▁করেও	-10.4209
শু	-10.421
▁গাঁজা	-10.4212
▁জমে	-10.4215
▁জামায়াত	-10.4216
শী	-10.4216
▁হাইকোর্টে	-10.4218
▁দীপিকা	-10.422
▁পরদিন	-10.422
▁সোপর্দ	-10.4222
▁পাট	-10.4222
▁মোজাম্মেল	-10.4222
গি	-10.4223
▁আব্বাস	-10.4224
▁ফেসবুকের	-10.4225
▁দেখি	-10.4228
ুল্লাহ	-10.4235
▁শিরোনামে	-10.4239
▁সিদ্ধান্তের	-10.4242
▁স্বাদ	-10.4242
ঘর	-10.425
▁বাসার	-10.4264
▁ইন্ডিজ	-10.4264
▁এশিয়ান	-10.4273
▁দেওয়ায়	-10.4273
▁দম্পতি	-10.4275
sh	-10.4276
▁গোসল	-10.4276
▁গেট	-10.4278
▁বাংলায়	-10.4285
▁এজেন্ট	-10.4288
▁সত্ত্বেও	-10.4289
▁রচনা	-10.4291
▁খাত	-10.4294
▁দেহে	-10.4295
▁চিঠিতে	-10.4296
▁৬৭	-10.4299
▁ফয়সাল	-10.4303
▁বুক	-10.4305
▁চক্র	-10.431
▁জয়া	-10.431
▁প্রকৌশল	-10.4311
▁জানাচ্ছি	-10.4314
দিয়া	-10.4315
▁নিয়েছিলেন	-10.4322
la	-10.4335
▁দিনাজপুরের	-10.4339
▁নিল	-10.434
▁TV	-10.4343
▁উত্তরে	-10.4343
▁মহিউদ্দিন	-10.4344
▁বেশী	-10.4344
▁নোয়াখালীর	-10.4345
▁হুঁশিয়ারি	-10.4345
জান	-10.4347
▁ছা	-10.4348
▁নে	-10.4348
▁আত্ম	-10.4355
▁৬টা	-10.4358
▁আমলে	-10.4378
▁খেলেছেন	-10.4378
▁রান্না	-10.4379
▁বাড়ী	-10.4381
▁ঐতিহ্যবাহী	-10.4385
▁মর্যাদা	-10.4398
▁ব্লক	-10.4404
▁দিবসটি	-10.4407
▁জানে	-10.4407
▁হোসেনকে	-10.441
▁ইলিয়াস	-10.4412
▁পাখি	-10.4414
▁লেগেছে	-10.4416
▁নওগাঁর	-10.4418
▁টুয়েন্টিফোর	-10.4425
▁ইঞ্জিনিয়ার	-10.4425
▁মনিরুজ্জামান	-10.4427
▁কোটা	-10.4428
▁মতলব	-10.4429
▁পুরুষের	-10.4431
▁বসানো	-10.4433
▁আহমেদের	-10.4434
লাল	-10.4435
▁সংশোধন	-10.4437
▁রূপান্তর	-10.4438
▁আরাফাত	-10.444
▁জানাই	-10.4444
▁ভাতা	-10.4445
▁হয়েছি	-10.4453
▁দীপু	-10.4455
দেশের	-10.4461
▁নেত্রকোনা	-10.4464
▁দেখেছেন	-10.4465
▁প্রতিপক্ষের	-10.4466
▁জামালপুর	-10.4469
▁বৌদ্ধ	-10.4475
▁হাল	-10.4477
▁শিক্ষকের	-10.4478
▁হাসানের	-10.4478
▁৭৮	-10.4481
▁উচ্ছেদ	-10.4481
▁যুগ	-10.4483
▁বিরল	-10.4485
▁হবার	-10.4486
▁দোকানের	-10.4487
▁আকাশে	-10.4489
ঙ্ক	-10.4489
▁পরা	-10.4497
▁সমর্থক	-10.451
▁হ্রাস	-10.4511
▁বাগান	-10.4516
▁কবরস্থানে	-10.4519
▁মাকে	-10.4519
▁আকর্ষণ	-10.4521
▁বরিশালে	-10.4523
▁অর্ধেক	-10.4528
▁সৌম্য	-10.4528
▁শু	-10.4532
▁উপকরণ	-10.4534
▁ওঠা	-10.4534
▁আইসোলেশনে	-10.4535
▁জনগণকে	-10.4536
▁ঊর্ধ্বতন	-10.4537
স্	-10.4539
▁১৪২৭	-10.4539
▁বিধায়ক	-10.454
হান	-10.4545
▁সম্মেলনের	-10.4546
▁ফেলতে	-10.4548
▁মহাসড়ক	-10.4549
▁সত্যিই	-10.4552
▁জয়নাল	-10.4553
▁বেল	-10.4554
▁আরবে	-10.4554
▁এডভোকেট	-10.4564
▁উল্টো	-10.4564
নিয়ে	-10.4566
▁বোলার	-10.4567
▁উপযুক্ত	-10.4568
গে	-10.4569
▁ভাষণ	-10.4571
▁অনুসন্ধান	-10.4576
▁পোস্টে	-10.4581
▁শরিফুল	-10.4585
▁ইউরোপের	-10.4588
শীল	-10.4589
ভুক্ত	-10.4591
IST	-10.4592
▁সমবায়	-10.4592
▁খুলনার	-10.4594
▁কোরিয়া	-10.4597
▁পছন্দের	-10.4598
▁স্নাতক	-10.4606
▁কৃতজ্ঞতা	-10.4609
▁ছিনতাই	-10.461
▁NEWS	-10.4611
▁একাডেমি	-10.4613
▁সাভার	-10.4613
▁উন্মোচন	-10.462
▁আবেদীন	-10.462
▁চামচ	-10.4627
▁আলাপ	-10.4629
▁ছাই	-10.4631
▁পেশায়	-10.4634
▁আপলোড	-10.4634
▁তুরস্ক	-10.4636
▁হ্যান্ড	-10.4642
▁ভর্তির	-10.4643
▁স্বামীকে	-10.4645
▁ফেলেছে	-10.4646
▁ইতিহাসের	-10.4646
▁মুফতি	-10.4648
▁পশ্চিমবঙ্গ	-10.4651
▁মিজান	-10.4661
▁নিয়োজিত	-10.4662
▁বেসামরিক	-10.4662
▁ভাব	-10.4663
▁স্বপ্নের	-10.4668
▁Time	-10.4673
▁কলা	-10.4673
▁আলিয়া	-10.4673
▁প্রার্থীরা	-10.4673
▁পুড়িয়ে	-10.4678
▁আগষ্ট	-10.468
ীন	-10.4686
স্টার	-10.4688
▁নামাজের	-10.4691
▁চিকিৎসায়	-10.4696
▁Barta	-10.4706
▁তোমার	-10.4708
▁হাতের	-10.4712
▁ভূমিকায়	-10.4714
▁ফোর্স	-10.4718
▁নানান	-10.4719
▁মনের	-10.4719
▁রকেট	-10.472
▁মানের	-10.4721
▁কাটার	-10.4722
▁রোডের	-10.4722
বী	-10.4726
▁আক্রান্তদের	-10.4729
কুল	-10.4732
▁পারছে	-10.4735
▁খু	-10.4735
▁সংস্থাটি	-10.4738
টন	-10.4741
▁নাটকে	-10.4741
▁অধিবেশন	-10.4742
▁মেঘনা	-10.4742
▁গৃহবধূ	-10.4743
▁পেঁয়াজের	-10.4748
সব	-10.4749
▁গানে	-10.4751
▁প্রমাণিত	-10.4754
▁চিকিৎসকদের	-10.4756
▁is	-10.4757
▁৭৬	-10.4757
▁বহাল	-10.4762
▁কাগজপত্র	-10.4762
▁বিএসএফ	-10.477
▁ছাত্রদল	-10.477
▁পার্শ্ববর্ত	-10.4782
▁চাকরির	-10.4783
▁সাহায্যে	-10.4783
▁ব্যক্তিত্ব	-10.4787
▁ঘাতক	-10.479
চট্টগ্রাম	-10.4791
▁দেওয়ান	-10.4793
▁প্রবীণ	-10.4794
▁রাজনীতিতে	-10.4795
▁কোয়ারেন্টাইনে	-10.4797
▁আসাদ	-10.4798
▁c	-10.4798
▁গু	-10.4804
▁তহবিল	-10.4805
▁বরণ	-10.4807
নায়	-10.4807
ডিসি	-10.4811
▁ইমন	-10.4813
▁পৌঁছেছে	-10.4814
মিন	-10.4814
▁উৎসাহ	-10.4815
▁মাঝারি	-10.4819
▁প্রজন্মের	-10.4819
▁আসামিকে	-10.482
▁গতিতে	-10.4831
▁আলোকে	-10.4835
▁দায়রা	-10.4836
▁পরিচালনার	-10.4839
▁নূরুল	-10.4839
▁পৃথিবী	-10.4842
▁গান্ধী	-10.4843
বার্তা	-10.4843
▁পিএনএস	-10.4847
▁কন	-10.485
▁ফ্যাশন	-10.4851
▁বাদশা	-10.4852
li	-10.4853
▁কাশেম	-10.4861
G	-10.4862
▁নজরে	-10.4863
▁ছয়টি	-10.4869
▁মিশন	-10.4869
▁প্রজ্ঞাপন	-10.487
বিদ	-10.4874
▁সুন্দরবন	-10.4874
▁লবণ	-10.4876
▁নাহিদ	-10.4877
▁শুনতে	-10.4883
▁বো	-10.4886
▁ফজলুল	-10.4887
▁হলেই	-10.4891
▁থাকি	-10.4894
▁১১টা	-10.4894
▁প্রশাসকের	-10.4902
মের	-10.4902
▁বগুড়ায়	-10.4904
▁চলাকালীন	-10.4905
▁দক্ষ	-10.492
▁জিজ্ঞাসাবাদের	-10.4921
▁সূচনা	-10.4923
▁আধা	-10.4928
▁বিজ্ঞানীরা	-10.4929
▁সম্প্রসারণ	-10.4929
▁অস্থায়ী	-10.4931
▁নেট	-10.4932
▁মিডিয়ার	-10.4939
▁পরেও	-10.4944
▁নারীরা	-10.4946
▁পরোয়ানা	-10.4948
▁Leave	-10.495
▁ঝালকাঠি	-10.4951
▁খ্যাত	-10.4954
▁কন্ট্রোল	-10.4967
▁হত্যাকাণ্ডের	-10.4968
▁অল	-10.4968
▁১৫০	-10.4971
v	-10.4974
ক্ষ	-10.4974
▁দিল্লিতে	-10.4981
▁বাইক	-10.499
▁IST	-10.4992
▁অষ্টম	-10.4993
▁হ্যা	-10.4994
▁প্রত্যক্ষদর্শী	-10.4998
▁বালিকা	-10.5007
▁সকলেই	-10.5009
▁বোধ	-10.5009
▁অধিবেশনে	-10.5015
▁comment	-10.5017
▁টাইগারদের	-10.5018
▁প্রতিদিনের	-10.5018
▁জার্সি	-10.5018
▁অভিনয়ের	-10.5024
▁দেয়নি	-10.5025
▁ভাবনা	-10.5025
▁চকরিয়া	-10.5028
z	-10.503
স্ক	-10.5034
▁অনুষদ	-10.5035
▁রাখবে	-10.5035
নিয়া	-10.5036
াবাদ	-10.5037
▁জু	-10.5038
▁৬৯	-10.5044
▁স্বজনরা	-10.5045
▁করতো	-10.5047
▁কুমিল্লায়	-10.5053
▁জম্মু	-10.5054
▁চিহ্ন	-10.5056
▁গ্লোবাল	-10.5056
▁৬৩	-10.5059
▁কর্মসূচী	-10.5059
▁আমন্ত্রণ	-10.5062
অব	-10.5067
▁সাউথ	-10.5069
▁তুলেছেন	-10.5071
▁পূর্ণাঙ্গ	-10.508
▁ড্রোন	-10.508
▁যাচ্ছিলেন	-10.5082
▁স্টেশনে	-10.5087
▁শিবগঞ্জ	-10.5088
াব	-10.5093
▁জহিরুল	-10.5094
▁প্রতিষ্ঠানটির	-10.5095
▁মানিকগঞ্জ	-10.5101
▁রাজনীতির	-10.5101
▁সহজে	-10.5102
▁আসেনি	-10.5103
▁আইফোন	-10.5104
▁প্রথমবার	-10.5106
▁বাতিলের	-10.5106
▁অবতরণ	-10.5109
▁কর্মসংস্থান	-10.5109
েরা	-10.5111
▁লোকসভা	-10.5111
▁ভোগ	-10.5114
▁লাখের	-10.5119
পাড়ার	-10.5121
▁পড়াশোনা	-10.5121
▁শুনানির	-10.5123
▁ডায়াবেটিস	-10.5123
▁লিওনেল	-10.5123
ফুল	-10.5126
▁শিবির	-10.5127
▁রোজ	-10.5137
▁ব্যাটিংয়ে	-10.5139
▁৯৫	-10.514
▁স্বর্ণের	-10.5141
▁আটককৃত	-10.5141
▁বৈশাখ	-10.5141
▁বিপদ	-10.5143
R	-10.5144
▁কক্সবাজারে	-10.5147
▁শিক্ষার্থীকে	-10.5148
▁তারপরও	-10.5151
>	-10.5151
▁সিআইডি	-10.5151
▁সম্মিলিত	-10.5151
বাহী	-10.5153
▁এনজিও	-10.5153
▁ইসলামকে	-10.5154
ইয়া	-10.5154
▁মোদির	-10.5156
▁জুনিয়র	-10.5158
▁৭৩	-10.5158
▁সাক্ষী	-10.5164
▁ডিভাইস	-10.5165
▁সেরে	-10.5166
▁দশম	-10.5167
▁ধারাবাহিক	-10.5167
▁ম্যানেজমেন্ট	-10.5168
▁ইতালি	-10.5173
▁পরীক্ষার্থী	-10.5176
▁৭৭	-10.5179
▁স্টেট	-10.5182
▁প্রকোপ	-10.5182
▁min	-10.5188
▁ডলারের	-10.5194
▁শিশুটিকে	-10.5195
▁বাস্তবায়নের	-10.5199
▁ইচ্ছে	-10.5199
▁শিব	-10.5203
▁আত্মহত্যার	-10.5203
▁কাজটি	-10.5205
▁ব্লগ	-10.5209
▁তৎকালীন	-10.5212
▁প্রভাষক	-10.5213
▁বিবৃতি	-10.5213
▁সার্টিফিকেট	-10.5213
▁চে	-10.5214
িজ	-10.5217
▁পৃথিবীতে	-10.522
▁অ্যাসোসিয়েশন	-10.5223
▁ঐক্যবদ্ধ	-10.5224
▁চামড়া	-10.5226
▁সেক্রেটারি	-10.5229
▁প্রকাশিতঃ	-10.5234
▁পাঠায়	-10.5237
▁H	-10.5238
▁রাকিব	-10.5239
News	-10.5239
▁অপরিবর্তিত	-10.5242
▁কার্তিক	-10.5242
▁মন্দিরে	-10.5244
▁ধাপ	-10.5244
েজ	-10.525
▁বেড়াতে	-10.5254
▁কর্মসূচিতে	-10.5259
▁অর্থবছরের	-10.526
▁পুষ্টি	-10.5261
▁পাঁচজন	-10.5266
F	-10.5268
▁ধর্মের	-10.527
▁নেমেছে	-10.5271
▁শাহাদাত	-10.5272
।[	-10.5277
▁বস	-10.5284
▁জালে	-10.5286
▁প্রতিদ্বন্দ্বী	-10.5286
▁মেধাবী	-10.5287
▁বাসভবনে	-10.5287
▁শামসুল	-10.5288
▁সেমিফাইনালে	-10.5288
চর	-10.5291
ুক	-10.5295
▁রাজবাড়ী	-10.5298
হু	-10.5298
▁তোলে	-10.5301
ভারত	-10.5304
▁পিকআপ	-10.5305
▁৯টায়	-10.5306
▁২০১০	-10.5307
▁পায়ের	-10.5307
▁মুসলমানদের	-10.5309
বাসী	-10.5312
▁জনপ্রশাসন	-10.5313
▁অভিযানের	-10.5313
▁পোস্টার	-10.5314
▁ডেভিড	-10.5317
▁ক্যাম্পেইন	-10.5318
▁কেড়ে	-10.5319
▁অফার	-10.5319
▁সপ্তম	-10.532
▁নিজাম	-10.5323
▁অ্যাওয়ার্ড	-10.5326
▁আসুন	-10.5332
▁কিডনি	-10.5334
▁স্পেশাল	-10.5334
▁করত	-10.534
▁ক্যা	-10.5347
▁ধোনি	-10.5348
শান	-10.535
▁একেবারেই	-10.5353
▁বানিয়ে	-10.5354
es	-10.5356
▁দুর্বল	-10.536
স্তা	-10.5372
▁ফেলার	-10.5389
রণ	-10.5389
▁থাকছেন	-10.5397
▁ডাকাতি	-10.5402
▁নিয়েছি	-10.5405
il	-10.5406
▁মোবাইলে	-10.5408
▁৭৪	-10.5412
▁এড	-10.542
▁মৌসুমী	-10.542
জনকে	-10.5423
▁লাগানো	-10.5424
▁যুক্তরাজ্যের	-10.5425
▁এএসআই	-10.5429
▁আবদু	-10.5431
▁দাবীতে	-10.5434
▁২০০৯	-10.5437
েস	-10.5438
▁রীতিমতো	-10.5439
ওয়ার	-10.544
▁বর্ণনা	-10.5441
▁৮৮	-10.5444
▁হয়রানি	-10.5445
ডাঙ্গা	-10.5448
▁গোষ্ঠী	-10.5448
লিন	-10.5449
▁স্কোর	-10.5453
▁পারভীন	-10.5453
▁আজিজুল	-10.5453
▁শতভাগ	-10.5454
▁কান্তি	-10.5455
োর	-10.5456
▁প্রচেষ্টা	-10.5457
▁কুরআন	-10.5457
▁অর্থায়নে	-10.546
▁বাশার	-10.546
▁বাদল	-10.5461
▁বলেছি	-10.5461
▁সম্পত্তি	-10.5462
▁অটোরিকশা	-10.5463
▁এড়িয়ে	-10.5465
▁ছবিটির	-10.5466
▁সহসভাপতি	-10.5471
▁India	-10.5474
▁রফতানি	-10.5482
▁কোপা	-10.5483
▁Lead	-10.5484
▁সুনামগঞ্জের	-10.5484
▁প্রতারণা	-10.5485
▁দিলীপ	-10.5486
▁খাল	-10.5493
▁কেননা	-10.5495
▁৯৮	-10.5496
▁তাৎক্ষণিক	-10.5497
▁অ্যান্টি	-10.5498
▁বেলাল	-10.5499
বার্ষিকী	-10.5499
▁ল্যাব	-10.5505
▁পূর্ববর্তী	-10.5515
▁১২টায়	-10.5516
H	-10.5523
▁নকল	-10.5523
কল	-10.5525
বৃন্দ	-10.5526
▁সিংহ	-10.5534
▁রাখবেন	-10.5535
▁কমপ্লেক্সের	-10.5535
▁ম্যা	-10.5536
▁খেলোয়াড়দের	-10.5538
▁পঞ্চগড়	-10.5539
▁শ্রমিকের	-10.554
▁প্রবাসীদের	-10.5541
▁পর্বের	-10.5544
ধা	-10.5545
▁সেলসিয়াস	-10.5545
▁উল্টে	-10.5545
▁পদের	-10.5546
▁ক্ষয়ক্ষতি	-10.5547
▁টুর্নামেন্টে	-10.5548
▁মতিন	-10.5553
▁শওকত	-10.556
▁বয়সের	-10.5562
কী	-10.5573
▁থাকুন	-10.5576
▁তদন্তকারী	-10.5577
▁প্রায়ই	-10.5579
▁নীতিমালা	-10.5581
▁ইন্ডিয়ান	-10.5582
▁হার্ট	-10.5583
ছিলাম	-10.5585
▁বরাবর	-10.5585
▁ব্যাংকে	-10.5588
▁কমপ্লেক্স	-10.5595
▁বন্দুক	-10.5597
▁জবানবন্দি	-10.5606
▁সীমা	-10.5606
▁প্রিন্স	-10.5606
▁মাছের	-10.5608
▁ধারালো	-10.5609
▁অভি	-10.5611
▁ট্রেনে	-10.5612
▁পেট্রোল	-10.5625
▁ঐতিহ্য	-10.5627
▁বন্ধুদের	-10.5627
▁নাটোরের	-10.5629
▁এসেছিলেন	-10.5631
▁সৈকত	-10.5636
▁টেলিযোগাযোগ	-10.5637
▁শাড়ি	-10.5638
▁অগ্নিকাণ্ডের	-10.5639
▁নিক্ষেপ	-10.5639
▁মাসিক	-10.5649
পাড়ায়	-10.5649
কান্দি	-10.5649
দুল	-10.5649
▁প্রাণী	-10.565
▁টার্গেট	-10.565
▁মৃত্যুদণ্ড	-10.5651
ol	-10.5652
▁ভট্টাচার্য	-10.5653
▁নির্দেশনায়	-10.5653
▁পাঠাতে	-10.5658
▁শের	-10.5658
▁বিস্ফোরণে	-10.5662
বাদী	-10.5663
▁রিয়াজ	-10.5667
▁১৯৭১	-10.5671
▁ঘাটতি	-10.5672
▁ঘুষ	-10.5674
▁পটুয়াখালী	-10.5674
▁প্রত্যাহারের	-10.5682
▁মূল্যে	-10.5684
▁Limited	-10.5684
▁ফরাসি	-10.5684
▁বাচ্চা	-10.5685
দান	-10.5689
▁চুলের	-10.569
▁আঘাতে	-10.569
▁চেয়ারম্যানের	-10.5696
▁বারের	-10.5697
▁শোকের	-10.5697
▁নিয়ন্ত্রক	-10.57
▁পুরাতন	-10.57
▁দেয়ায়	-10.57
PN	-10.5701
▁লালমনিরহাট	-10.5705
▁গণমাধ্যমের	-10.5706
▁একাধিকবার	-10.5707
▁সাহস	-10.5708
▁গরুর	-10.5711
৭০	-10.5715
▁জনতার	-10.5715
মোট	-10.5715
▁সমবেদনা	-10.5715
▁সম্রাট	-10.5719
▁মিলেছে	-10.5724
▁In	-10.5724
৬৫	-10.5727
▁যেকোন	-10.5729
▁পিস্তল	-10.5731
bidesh	-10.5731
▁সোনালী	-10.5732
▁ছাড়ার	-10.5736
▁ব্রিজ	-10.5737
▁জনসংযোগ	-10.5739
▁কথাও	-10.5741
▁তবুও	-10.5744
at	-10.5745
▁তানভীর	-10.5747
▁আসরের	-10.575
▁ইউএস	-10.5752
▁হানা	-10.5753
▁ইউরো	-10.5756
▁নগরের	-10.5756
▁গবেষকরা	-10.5759
ঙ	-10.576
▁জিজ্ঞাসাবাদে	-10.5762
▁আপন	-10.5764
▁ভাংচুর	-10.5765
ছবি	-10.5767
▁আইসিটি	-10.577
▁সো	-10.5771
▁পেটে	-10.5771
বিহীন	-10.5772
▁বাড়ার	-10.5772
সিলেট	-10.5773
▁গণপরিবহন	-10.5775
▁টাইগাররা	-10.5775
▁শহিদ	-10.5777
▁প্রতিবছর	-10.5778
▁হাউজ	-10.5783
▁সূর্য	-10.5785
▁প্রবেশের	-10.5791
হে	-10.5792
▁যথাক্রমে	-10.5794
▁চাপে	-10.5796
▁অনূর্ধ্ব	-10.5796
▁নেপাল	-10.5797
▁যুদ্ধের	-10.581
▁পোর্টাল	-10.5812
তুল	-10.5814
▁ভোক্তা	-10.5815
েন্ট	-10.5818
▁স্মার্ট	-10.5818
▁দুবাই	-10.5823
▁কোম্পানিটির	-10.5824
▁উত্তীর্ণ	-10.5825
Oneindia	-10.5826
▁বস্তা	-10.5826
▁চেম্বার	-10.5826
▁শরণার্থী	-10.5831
▁দূতাবাস	-10.5832
▁সন্তানদের	-10.5835
▁কোম্পানী	-10.5839
তারা	-10.5841
য়াল	-10.5848
▁হালিম	-10.585
▁আখতার	-10.5857
▁চিত্রনায়িকা	-10.5857
▁বেশকিছু	-10.586
▁দেশব্যাপী	-10.586
▁সমালোচনার	-10.5861
ার্স	-10.5861
▁সন্ধ্যার	-10.5869
▁ক্যাচ	-10.5872
▁অমান্য	-10.5873
▁উপেক্ষা	-10.5873
▁৩টার	-10.5873
▁প্রদক্ষিণ	-10.5873
▁গাড়িটি	-10.5874
▁বৈদ্যুতিক	-10.588
শ্রী	-10.5881
▁ভু	-10.5886
▁যশোরে	-10.5886
▁অমিতাভ	-10.5889
▁বিজিবির	-10.5901
▁সারাদেশের	-10.5901
রহাট	-10.5901
▁মল্লিক	-10.5902
▁ইন্ডিজের	-10.5903
▁বর্ণাঢ্য	-10.5905
▁অর্পণ	-10.5905
▁আপত্তি	-10.5905
▁আকরাম	-10.5905
▁সুন্দরী	-10.5905
▁কাউন্সিলের	-10.5912
▁লন্ডনে	-10.5914
▁ছাড়িয়েছে	-10.5914
▁একের	-10.5917
▁যাত্রীরা	-10.5918
▁জল্পনা	-10.5921
▁BanglaNews	-10.5923
▁যেটা	-10.5923
▁জার্মান	-10.5927
▁মুন	-10.5928
▁ডাকা	-10.593
▁রুম	-10.5932
▁ঠাকুরগাঁওয়ে	-10.5936
▁রযালী	-10.5937
ro	-10.5944
▁গিয়েছেন	-10.5945
▁বন্যায়	-10.5947
▁ডিএমপি	-10.5949
▁গ্রেফতারকৃত	-10.595
সী	-10.5952
নিক	-10.5959
▁শট	-10.596
্ল	-10.5962
K	-10.5963
▁শান্তিপূর্ণ	-10.5965
▁লোকজনের	-10.597
▁মিলবে	-10.5971
▁আগাম	-10.5974
▁ব্যবস্থাপক	-10.5974
▁মুখ্য	-10.5974
▁ঠাকুর	-10.5978
বিস্তারিত	-10.5979
উপজেলা	-10.5979
ানোর	-10.5981
▁ভর	-10.5981
▁বিপাকে	-10.5985
▁ধুয়ে	-10.5986
▁বসুন্ধরা	-10.5986
▁লিটার	-10.5986
ত্ত	-10.5988
▁ফেরেন	-10.5989
▁ব্যবসায়	-10.5991
▁যত্ন	-10.5992
▁সহিংসতা	-10.5998
▁স্যাটেলাইট	-10.6001
▁সাপ	-10.6001
▁দাঁত	-10.6002
▁শোভাযাত্রা	-10.6003
▁ডিসেম্বরে	-10.6004
▁পরিচিতি	-10.6014
▁রাই	-10.6015
▁প্রকাশনা	-10.6016
▁নজরদারি	-10.6016
▁থানাধীন	-10.6018
▁অবসান	-10.6018
▁প্রজাতির	-10.6023
▁বয়স্ক	-10.6023
▁বাতাস	-10.6026
▁কারখানার	-10.6028
▁গজ	-10.6039
ণ্ড	-10.6039
▁বুলবুল	-10.604
▁স্মিথ	-10.604
কারি	-10.6048
েড	-10.6051
▁ভাস্কর্য	-10.6054
▁মেধা	-10.6064
▁শিশুটি	-10.6066
▁নামিয়ে	-10.6066
▁শক্ত	-10.6067
▁ইসি	-10.6068
▁বেগমের	-10.6074
▁ফোরাম	-10.6077
▁দেবী	-10.6078
▁ল্যাপটপ	-10.6079
▁কপি	-10.6079
▁চাপায়	-10.608
▁মাদ্রিদ	-10.608
▁দাঁড়াল	-10.6081
▁করো	-10.6081
▁তৎপরতা	-10.6082
▁বাসটি	-10.609
▁ত্বক	-10.6094
▁Premi	-10.6098
▁তলা	-10.6098
▁বোনের	-10.61
Deshe	-10.6102
▁Comment	-10.6103
▁মঞ্চ	-10.6105
▁সহায়ক	-10.6107
মাস	-10.6107
▁যুবদলের	-10.6109
▁পাড়ার	-10.6111
ৃ	-10.6111
▁তেলের	-10.6112
▁ফকির	-10.6113
▁Somoy	-10.6113
▁শ্রীপুর	-10.6121
▁মৃত্যুবার্ষিকী	-10.6121
▁রঙ	-10.6124
▁ট	-10.6127
কান	-10.613
▁প্রদেশে	-10.6137
▁গেম	-10.6137
▁আইসিসির	-10.6146
▁বিদেশী	-10.6146
▁স্টেশনের	-10.615
▁ওইদিন	-10.6151
▁বৃত্তি	-10.6155
▁স্বজনদের	-10.6156
িতা	-10.6156
ঠ	-10.6157
▁মানা	-10.616
▁অন্যান্যের	-10.6161
ায়ন	-10.6162
▁জিততে	-10.6163
গ্র	-10.6166
▁সেটাই	-10.617
▁অভিবাসী	-10.6173
▁৩টায়	-10.6175
▁দেশি	-10.6175
▁হতাহতের	-10.6176
▁পারছি	-10.6178
▁Syndicate	-10.6179
▁ফাতেমা	-10.6179
▁নাশকতা	-10.6179
▁জন্মগ্রহণ	-10.618
▁উখিয়া	-10.6181
▁লাইনে	-10.6181
খবর	-10.6186
▁চারা	-10.6188
▁কুকুর	-10.6189
কোভিড	-10.6191
▁বিপরীত	-10.6193
▁আন্তরিক	-10.6194
▁সঙ্গেই	-10.6194
barta	-10.6195
▁বাঁচতে	-10.6196
▁ভবিষ্যৎ	-10.6196
্ট	-10.6196
▁জার্নাল	-10.6197
▁রয়টার্স	-10.6198
▁ক্রিকেটাররা	-10.6199
▁কমিটিতে	-10.6199
মী	-10.6208
▁Next	-10.6209
▁বরগুনা	-10.6215
▁এতো	-10.6216
▁২০০৮	-10.6217
▁ইউরোপ	-10.6224
▁বাধ্যতামূলক	-10.6226
▁বৃষ্টিতে	-10.6228
▁অ্যাটর্নি	-10.6229
▁এলাকাবাসীর	-10.6234
▁ঔষধ	-10.6237
▁হেলিকপ্টার	-10.624
হাজার	-10.6241
▁অর্ডার	-10.6243
▁গ্রিন	-10.6245
▁মাহমুদুল	-10.6246
▁দিলেও	-10.6246
▁স্ট্যাটাস	-10.6246
▁আকতার	-10.6247
el	-10.6255
▁পরিশ্রম	-10.6259
▁পূর্বাভাস	-10.6259
▁সামাদ	-10.6259
▁ক্ষতির	-10.6261
▁শিকদার	-10.6262
▁ইরফান	-10.6262
▁শাওন	-10.6262
▁ক্ষতিগ্রস্থ	-10.6262
▁একসময়	-10.6262
▁ফটো	-10.6262
▁সৎ	-10.627
▁মিলাদ	-10.6274
▁শ্বশুর	-10.6275
▁স্মারক	-10.6278
▁নেতাকে	-10.6278
▁দাঁড়াতে	-10.6278
বোধ	-10.6279
াতে	-10.6279
▁জনসংখ্যা	-10.6283
▁ত্রি	-10.6287
▁ডিআইজি	-10.6288
▁রাষ্ট্রপতির	-10.629
ন্দা	-10.6293
▁ভিপি	-10.6293
ic	-10.6298
▁খেলেন	-10.6302
বাসীর	-10.6306
▁ওয়াল	-10.6307
▁যন্ত্র	-10.6309
বছর	-10.6311
▁নাটকের	-10.6312
▁বিসিএস	-10.6314
▁জায়েদ	-10.6314
▁শঙ্কা	-10.6316
▁মৃত্যুকালে	-10.6316
▁রেখেই	-10.6317
▁হতাশ	-10.6321
বীর	-10.6324
▁পেজে	-10.6326
▁সেল	-10.6328
▁তথ্যপ্রযুক্তি	-10.6332
▁খা	-10.6339
▁f	-10.6343
▁বেকার	-10.6344
▁আবহাওয়ার	-10.6345
▁কারাদন্ড	-10.6345
▁বরিশালের	-10.635
▁মন্ত্রণালয়ে	-10.6351
▁বদলি	-10.6357
▁শ্বাসকষ্ট	-10.6361
▁বাবর	-10.6361
▁সিরিয়ার	-10.6361
▁CBN	-10.6361
▁কম্বল	-10.6362
▁ঈশ্বরদী	-10.6364
▁বিস্ফোরণের	-10.6367
▁রিপোর্টে	-10.6367
রায়	-10.6375
▁খুলনায়	-10.6379
▁আকর্ষণীয়	-10.638
▁প্রা	-10.638
▁সাপ্তাহিক	-10.6381
▁স্বার্থ	-10.6384
▁বিট	-10.6386
বিল	-10.6391
▁হস্তক্ষেপ	-10.6396
▁অপারেটর	-10.6401
▁বিশ্বনাথ	-10.6402
▁দেখছেন	-10.6403
▁নিবন্ধ	-10.6405
▁আমেরিকান	-10.6406
▁হতেই	-10.6406
newsbd	-10.6408
▁শরিফ	-10.6414
▁প্ল্যাটফর্ম	-10.6418
na	-10.642
▁জটিল	-10.6424
▁সহযোগিতার	-10.6425
▁আইয়ুব	-10.6428
▁দগ্ধ	-10.6428
▁স্প্যানিশ	-10.6428
▁আলোকিত	-10.6429
▁৮টায়	-10.6434
▁কৃষকরা	-10.6434
▁আজও	-10.6434
▁৮১	-10.6437
▁নাচ	-10.6438
▁মেইল	-10.6441
▁মোকাবিলা	-10.6444
▁অনুভব	-10.6445
▁প্রতিপাদ্য	-10.6445
▁তলিয়ে	-10.6445
▁মেয়েরা	-10.6447
তিন	-10.6448
▁সুশান্ত	-10.6453
▁ফোরামের	-10.6456
▁জলিল	-10.6457
▁সোহরাওয়ার্দী	-10.6462
▁বাঁ	-10.6462
▁ধসে	-10.6463
▁কোচিং	-10.6467
▁দখলে	-10.6467
ডিবি	-10.6472
▁সমাপ্ত	-10.6473
▁মূল্যায়ন	-10.6473
▁মারুফ	-10.6474
▁কক্ষ	-10.6476
ল্যান্ড	-10.6476
▁শিথিল	-10.6479
▁লাগছে	-10.6479
▁গানটির	-10.6479
▁অধিকারী	-10.6482
▁ক্যারিয়ারের	-10.6485
▁ত্রুটি	-10.6487
ডার	-10.6487
▁উঠেছেন	-10.6491
▁স্বদেশ	-10.6493
▁সূত্রপাত	-10.6495
▁মনসুর	-10.6496
▁আশেপাশে	-10.6496
▁উদ্ধারের	-10.6501
▁কবলে	-10.6503
▁ধনী	-10.6505
▁কারাগার	-10.651
▁ভারতকে	-10.6511
অ্যা	-10.652
▁আইপিএলে	-10.6522
▁৯টি	-10.6525
▁মজিদ	-10.6531
▁বিরোধিতা	-10.6534
ঠা	-10.6535
▁প্রদর্শনী	-10.6536
▁ত্রিপুরা	-10.6537
▁ফাঁকা	-10.6537
কর্মীদের	-10.6539
▁কুয়েত	-10.6542
▁বন্যার	-10.6542
ক্ষণ	-10.6544
▁খায়রুল	-10.6548
▁১২টি	-10.655
কর্মীরা	-10.6551
▁বিমানে	-10.6551
▁বক্তৃতা	-10.6551
▁সুখ	-10.6555
▁সৃষ্টির	-10.6559
▁প্রোগ্রাম	-10.6559
▁আত্মসমর্পণ	-10.6563
▁মুমিনুল	-10.6564
▁ইতালির	-10.6565
▁ছাড়তে	-10.6569
▁মোতাবেক	-10.658
▁বায়ু	-10.6581
▁তলায়	-10.6582
▁সেক্ষেত্রে	-10.6584
▁৮২	-10.6589
য়ো	-10.659
থি	-10.6591
ষা	-10.6592
▁বিরত	-10.6597
▁গ্রামীণ	-10.6597
▁কুদ্দুস	-10.6597
▁ফেরা	-10.66
▁চলাচলের	-10.66
▁মার্ক	-10.66
▁তাপস	-10.6601
▁ক্রেতা	-10.6602
▁ট্রলার	-10.6603
▁মন্ত্রীর	-10.6608
▁হলের	-10.6611
র্ন	-10.6614
▁বার্সা	-10.6614
▁বৈদেশিক	-10.6615
▁অস্বাভাবিক	-10.6615
َ	-10.6616
▁গড়ার	-10.6616
▁ভোটারদের	-10.6622
▁ব্যবধান	-10.6633
▁are	-10.6634
▁লাশটি	-10.6636
▁মুন্সীগঞ্জ	-10.664
▁তথ্যের	-10.664
▁জানার	-10.6647
▁ব্যান্ড	-10.6648
▁জাতীয়তাবাদী	-10.665
▁সার্চ	-10.6651
▁৮টি	-10.6653
ma	-10.6661
▁আইপিএলের	-10.6661
▁সৃষ্ট	-10.6662
▁ক্ষতিকর	-10.6668
▁দেরি	-10.667
▁বিদ্রোহী	-10.667
▁এসেছিল	-10.667
▁বাগ	-10.6671
▁আটকা	-10.6671
▁এসেছি	-10.6675
জের	-10.6676
▁মল	-10.6676
তিনি	-10.6681
▁প্রি	-10.6681
ন্না	-10.6682
▁মর্মান্তিক	-10.6683
▁রিজার্ভ	-10.6683
রাত	-10.6689
▁রেজিস্ট্রার	-10.6689
োয়া	-10.6691
▁হোয়াটসঅ্যাপ	-10.6692
▁ইঞ্জিনিয়ারিং	-10.6696
▁সাজানো	-10.6697
পন	-10.67
▁তুহিন	-10.67
▁অভিনব	-10.6701
ডো	-10.6706
un	-10.6707
▁অ্যাপল	-10.6713
▁কখন	-10.6715
▁ব্যবহারকারীদের	-10.6716
▁তীরে	-10.6719
▁দিলো	-10.6721
▁প্রবণতা	-10.6723
▁কেয়ার	-10.6725
▁ইনস্টাগ্রামে	-10.6731
▁কাশি	-10.6732
▁কৌশলে	-10.6733
▁মামুনুল	-10.6735
▁স্বাগতিক	-10.6735
▁রোধ	-10.6736
▁বাণী	-10.6736
▁সক্ষমতা	-10.6737
▁মিন্টু	-10.6738
▁উত্তম	-10.6738
▁কার্য	-10.6739
জয়	-10.6739
▁জিবি	-10.6742
▁আবিষ্কার	-10.6746
▁কোর্টে	-10.6746
▁ইয়াসমিন	-10.6752
▁অর্জুন	-10.6755
▁করলেই	-10.6762
▁৯৯	-10.6766
▁দো	-10.6769
▁বঙ্গোপসাগরে	-10.6773
▁কালি	-10.6773
▁জড়িতদের	-10.6777
▁তোলেন	-10.6779
▁৫টা	-10.6781
▁ঘাটে	-10.6784
সির	-10.6785
▁নো	-10.6787
▁রক্তাক্ত	-10.6787
▁দাঁড়ায়	-10.6792
▁বক্তা	-10.6792
প্রতিদ্বন্দ্বিতা	-10.6802
▁ঠান্ডা	-10.6805
▁ট্যাবলেট	-10.6809
▁কল্যাণে	-10.681
▁এমনটা	-10.6811
র্গ	-10.6811
▁আইনমন্ত্রী	-10.6816
▁৯৭	-10.6819
▁V	-10.682
▁চালকের	-10.682
▁বর্ষ	-10.6822
▁আলাউদ্দিন	-10.6822
▁কর্মকর্তাকে	-10.6823
▁উইকিপিডিয়া	-10.6824
▁সন্ত্রাসীরা	-10.6826
▁যৌথভাবে	-10.6829
▁O	-10.683
▁অনুভূতি	-10.6831
▁৮৭	-10.6832
▁ওপেন	-10.6834
▁নীলফামারী	-10.6839
▁ভাগ্য	-10.684
▁পুরান	-10.6843
▁একাডেমির	-10.6847
▁বসন্ত	-10.6848
▁ফুলবাড়ী	-10.6848
▁ভালোবাসার	-10.6848
▁তত	-10.6849
▁মিছিলে	-10.6849
▁পাহাড়ি	-10.6855
▁অর্জনের	-10.6856
আপডেট	-10.6857
^	-10.6857
▁খারিজ	-10.6857
▁নিরপেক্ষ	-10.6861
েট	-10.6861
▁সেলফি	-10.6863
ation	-10.6866
▁সাফ	-10.6868
▁তাল	-10.6871
স্ব	-10.6872
▁আসামিরা	-10.6873
▁হান্নান	-10.6875
▁তুমুল	-10.6875
▁চলুন	-10.6875
▁নেপালের	-10.6876
▁নিত্য	-10.6876
▁আল্লাম	-10.6876
▁মায়া	-10.6879
▁কালীগঞ্জ	-10.6881
▁মিম	-10.6883
▁আত্মার	-10.6888
▁চার্জশিট	-10.6892
▁আতঙ্কে	-10.6897
▁ফেলেন	-10.6897
▁খালেক	-10.6902
▁তিনজনের	-10.6902
▁ব্রেকিং	-10.6903
▁সাম্প্রদায়িক	-10.6904
ক্র	-10.6905
▁আবেগ	-10.6906
▁ভার	-10.6907
▁চমৎকার	-10.691
▁লাইট	-10.6912
▁সভাপতির	-10.6913
ইসি	-10.6915
▁স্মরণে	-10.6916
▁সাজ্জাদ	-10.6917
▁পর্যটকদের	-10.6919
▁পারিনি	-10.692
ংক	-10.692
▁চাঁপাইনবাবগঞ্জে	-10.6923
▁বৃহত্তম	-10.6927
▁নাম্বার	-10.6929
▁স্পর্শ	-10.693
▁খেয়াল	-10.6931
▁শয্যা	-10.6931
▁ব্রিফিংয়ে	-10.6932
▁যুগান্তর	-10.6934
▁যুক্তি	-10.6944
▁শিল্পকলা	-10.6946
▁রায়ে	-10.6946
▁চাঞ্চল্য	-10.6949
▁চাঁদা	-10.6952
উর	-10.6953
ভে	-10.6954
▁বিশ্লেষণ	-10.6958
▁মোটা	-10.6958
▁চট্টোপাধ্যায়	-10.6958
▁ফেডারেশন	-10.6958
▁ইন্না	-10.6959
▁চাইতে	-10.6959
▁প্রধানমন্ত্রীকে	-10.6964
▁জগন্নাথপুর	-10.6965
▁গোপালগঞ্জ	-10.697
▁নিলামে	-10.6975
▁গরীব	-10.698
▁ঢুকতে	-10.698
ফে	-10.6981
▁লুট	-10.6981
▁হাউস	-10.6981
▁বাসিন্দারা	-10.6982
ারের	-10.6982
▁সংগঠনটির	-10.6986
▁ভাঙন	-10.6987
▁দিনটি	-10.6992
▁রিকশা	-10.6992
▁চাচা	-10.6992
▁ফিরছেন	-10.6993
▁১ম	-10.6996
▁আউয়াল	-10.7003
▁এটিএম	-10.7004
▁দূষণ	-10.7006
▁পরিসরে	-10.701
▁ফ্লাইটে	-10.701
▁মিঠুন	-10.7013
▁হিরো	-10.7013
▁এভাবেই	-10.7014
▁মালয়েশিয়ায়	-10.7015
▁জাগো	-10.7016
▁বখাটে	-10.7016
▁বিস্ফোরক	-10.7016
ইউএনও	-10.7017
রুল	-10.7024
▁শফিউল	-10.7027
▁আয়োজক	-10.703
▁৮৪	-10.7031
▁টেকনাফে	-10.7033
▁তাসকিন	-10.7033
▁মৌসুম	-10.7037
▁কবর	-10.7039
▁তফসিল	-10.7044
▁ডাকসু	-10.7046
▁জনপ্রতিনিধি	-10.7046
▁ভক্তরা	-10.7047
▁সেমিনার	-10.7052
▁সুপারস্টার	-10.7055
পক্ষের	-10.7055
েশ	-10.7059
▁ফুড	-10.7065
▁প্রতিদিনই	-10.7067
▁পিরোজপুর	-10.7068
▁অভিজ্ঞ	-10.7069
▁আঙুল	-10.707
▁ক্ষুব্ধ	-10.707
▁নবনির্বাচিত	-10.707
▁মুছে	-10.707
▁জড়ো	-10.7071
▁ঝুঁকিপূর্ণ	-10.7071
▁জিপিএ	-10.7074
বড়	-10.7078
▁ট্রফি	-10.708
▁জব্বার	-10.7087
▁ম্যানচেস্টার	-10.7087
▁স্বেচ্ছাসেবী	-10.7087
▁ইমরুল	-10.7088
▁এমএ	-10.7088
ST	-10.7088
▁সমাজে	-10.7089
nd	-10.7091
▁ফে	-10.7098
▁কিম	-10.7098
▁ফান্ড	-10.7101
▁থাকতেন	-10.7102
▁বার্ন	-10.7105
▁আধিপত্য	-10.7105
ষ্ঠ	-10.7109
▁Last	-10.7112
▁আইএস	-10.7113
▁৮৬	-10.7113
▁লক্ষে	-10.7114
▁হয়েছিলো	-10.7117
▁সর্বস্তরে	-10.7117
▁সম্পৃক্ত	-10.7119
শিক্ষা	-10.712
▁হারের	-10.7121
▁পরিত্যক্ত	-10.7123
▁কার্যনির্বাহী	-10.7123
▁ইনজুরি	-10.7127
▁সুতরাং	-10.7127
▁অপ	-10.7131
▁খালাস	-10.7132
জল	-10.7139
▁বাসভবন	-10.7141
▁সজীব	-10.7142
▁টিপু	-10.7143
▁ময়লা	-10.7146
▁৭টার	-10.7147
এসপি	-10.7148
▁রংপুরের	-10.715
▁কিশোরীকে	-10.7152
▁''	-10.7152
▁মঈন	-10.7157
▁শ্যামল	-10.7157
▁অলিম্পিক	-10.7157
it	-10.7158
▁লক্ষ্যমাত্রা	-10.716
▁বসিয়ে	-10.7166
▁এসি	-10.7169
▁ব্যবস্থাপনায়	-10.7171
▁এসপি	-10.7172
ভাই	-10.7173
▁যুবরাজ	-10.7176
▁ইঞ্চি	-10.7178
▁চেপে	-10.7178
▁সময়ই	-10.718
▁তিনজনকে	-10.7184
▁অক্ষয়	-10.7185
▁মণ্ডল	-10.7185
▁জিম্বাবুয়ের	-10.7193
▁মালয়েশিয়ার	-10.7194
▁গভর্নর	-10.7196
কমার্স	-10.72
▁প্যাকেজ	-10.7203
▁ধরন	-10.7209
▁নই	-10.7213
▁ঝগড়া	-10.7214
▁রোবট	-10.7215
▁দুদিন	-10.7215
▁নিষেধ	-10.7215
▁সাতটি	-10.7217
▁সেন্টারের	-10.7217
▁বসু	-10.7218
▁সিঙ্গাপুর	-10.7224
▁সমর্থকরা	-10.7225
ِ	-10.7228
▁উঠবে	-10.7229
▁ওয়ালটন	-10.723
▁নাজিম	-10.7232
▁খানকে	-10.7233
▁অনুষ্ঠানটি	-10.7233
শৃঙ্খলা	-10.7233
▁সাদেক	-10.7237
▁কুলাউড়া	-10.7238
সং	-10.7239
net	-10.7243
▁ঘুরতে	-10.7245
▁লঙ্ঘন	-10.7248
▁ভোলার	-10.7251
▁ব্যাপী	-10.7251
▁সুখবর	-10.7252
▁রোজা	-10.7252
▁রক্ষার	-10.7253
▁হই	-10.7258
N	-10.7261
▁সূচি	-10.7261
▁মেলে	-10.7264
▁জিতেছে	-10.7264
▁সালাউদ্দিন	-10.7268
▁অগাস্ট	-10.7268
▁বাবলু	-10.7269
▁অভ্যাস	-10.7269
▁কন্ঠ	-10.7271
▁রাজিউন	-10.728
▁রু	-10.7283
ُ	-10.7283
▁বৃহত্তর	-10.7289
ch	-10.7289
▁স্যার	-10.7295
আপ	-10.7296
▁উনি	-10.7297
▁পড়ল	-10.7299
▁অলি	-10.7302
▁দ্বিগুণ	-10.7305
▁ঘটছে	-10.7305
▁চুক্তিতে	-10.7306
▁অগ্রাধিকার	-10.7306
পদ	-10.7308
▁সালেহ	-10.7314
▁মহিলাদের	-10.7321
▁বচ্চন	-10.7322
চু	-10.7323
▁একেএম	-10.7327
টাও	-10.7329
▁বাড়ায়	-10.733
▁মোনাজাত	-10.733
বাজ	-10.7335
▁মহিলার	-10.7336
▁আমিরাতের	-10.7339
▁প্রতারক	-10.7342
▁বৈশিষ্ট্য	-10.7342
▁উপন্যাস	-10.7342
▁নথি	-10.7342
▁ডেভেলপমেন্ট	-10.7342
▁তত্ত্বাবধানে	-10.7353
▁জঙ্গিবাদ	-10.7362
Bangla	-10.7364
চালিত	-10.7364
কন	-10.7369
▁প্লাস	-10.7371
▁কালে	-10.7373
▁ব্যবসার	-10.7377
▁মাদারীপুর	-10.7378
▁মুহম্মদ	-10.7379
▁শীঘ্রই	-10.738
▁বিজ্ঞানী	-10.738
▁প্রদেশ	-10.7382
▁বাইরের	-10.7382
▁Report	-10.7386
▁উপায়ে	-10.7389
াত	-10.7389
▁কিংস	-10.739
▁খাঁন	-10.739
িনা	-10.7392
▁শত্রু	-10.7393
▁বন্ধে	-10.7394
▁মৌলিক	-10.7398
টুকু	-10.7398
▁সম্ভবত	-10.7403
▁ক্ষমতার	-10.741
▁দ্বিতীয়বার	-10.7411
▁আফগানিস্তানে	-10.7414
▁সৈয়দপুর	-10.7414
▁উপকূলে	-10.7418
U	-10.7418
▁হাসিনাকে	-10.7419
▁শাক	-10.7424
ly	-10.743
▁মিমি	-10.7433
বির	-10.7434
▁অ্যান্ড্রয়েড	-10.7434
▁ভীষণ	-10.7434
▁মাদকের	-10.7435
▁করণ	-10.7436
জেলা	-10.7436
▁হাফিজুর	-10.7437
▁দশক	-10.7438
রূপ	-10.7441
▁একাদশে	-10.7443
▁দিবে	-10.7445
▁আনোয়ারুল	-10.7446
▁ইসরাইলের	-10.745
▁সিইও	-10.7451
▁সালমানের	-10.7452
▁নেতিবাচক	-10.7453
▁ফরোয়ার্ড	-10.7453
▁পারফরম্যান্স	-10.746
▁ডু	-10.7461
াক	-10.7461
▁গ্র	-10.7462
▁মাঝি	-10.7466
▁রাখি	-10.7467
▁দৌড়ে	-10.7468
▁বিদ্যা	-10.7469
▁তাড়া	-10.7472
▁ব্যক্তিবর্গ	-10.7472
▁অবসরপ্রাপ্ত	-10.7475
চ্ছে	-10.7477
▁এরশাদের	-10.7477
▁চেয়েও	-10.7478
ক্রমে	-10.7481
▁পারবো	-10.7481
▁কানাডা	-10.7484
▁৮৯	-10.7487
▁কোহলির	-10.7487
্ম	-10.7488
▁জার্মানি	-10.7489
▁ভাষণে	-10.7489
▁কূটনৈতিক	-10.749
▁আতাউর	-10.749
▁চেন্নাই	-10.7491
▁তাৎক্ষণিকভাবে	-10.7494
▁দেখবেন	-10.7495
▁মাহবুবুর	-10.7495
▁চেয়েছিলেন	-10.7497
বিশ্ব	-10.7498
▁দেননি	-10.7502
দিনের	-10.7506
▁তুলেছে	-10.7506
▁জানানোর	-10.7507
▁বৈশাখী	-10.7508
▁বর্জ্য	-10.7509
▁গৃহীত	-10.7509
▁উত্তাল	-10.7509
নেট	-10.7512
মুখ	-10.7512
▁প্রজেক্ট	-10.7513
te	-10.7515
▁যোগাযোগমাধ্যমে	-10.7518
▁পল	-10.7522
▁কমানোর	-10.7523
তলী	-10.7526
▁চ্যানেলে	-10.7527
▁মজার	-10.7527
▁সাফল্যের	-10.7528
▁বেন	-10.7529
▁লুকিয়ে	-10.7529
▁পরিচয়পত্র	-10.753
▁বইয়ের	-10.7531
▁তারাই	-10.7532
▁৯২	-10.7536
▁সকলে	-10.7542
▁কাঠ	-10.7543
▁একান্ত	-10.7544
▁আমিরাত	-10.7546
▁অত্যাচার	-10.7546
▁গৌতম	-10.7546
▁এরইমধ্যে	-10.7547
▁সেন্সর	-10.7547
▁ধর্ষক	-10.7549
পুরুষ	-10.755
▁সাপেক্ষে	-10.7555
▁আনিসুল	-10.7566
▁পিলার	-10.7571
৮০	-10.7572
▁অন্যান্যদের	-10.7577
▁পৌঁছায়	-10.7577
▁জুতা	-10.7578
ত্র	-10.7581
▁পাবনার	-10.7583
›	-10.7584
▁পজেটিভ	-10.7584
▁প্রান্তে	-10.7588
ফার	-10.7588
▁সিটির	-10.759
▁মুগ্ধ	-10.759
▁বালি	-10.7591
▁গড়তে	-10.7595
▁নকশা	-10.7595
▁রাফি	-10.7598
▁রঞ্জন	-10.7599
▁রোডে	-10.76
পুরের	-10.7603
▁প্রতিষ্ঠার	-10.7609
▁ধর	-10.7612
▁ভ্যাকসিনের	-10.7615
▁প্রতারণার	-10.762
▁পরিদর্শনে	-10.7621
▁প্রচণ্ড	-10.7622
▁সন্ত্রাসীদের	-10.7625
সিসি	-10.7629
িয়	-10.7638
▁বহুল	-10.7641
▁Bangladeshi	-10.7644
▁সম্মানিত	-10.7647
▁দূতাবাসের	-10.7655
▁চর্চা	-10.7656
▁তুষার	-10.7659
▁ফিটনেস	-10.766
▁অভিনেত্রীর	-10.7664
ডিএসই	-10.7664
▁পেয়েছিলেন	-10.7674
েক	-10.7674
ho	-10.7675
▁ভালোভাবে	-10.7681
▁মেহেরপুর	-10.7681
▁একযোগে	-10.7684
পাল	-10.7685
▁টিকে	-10.7686
▁সংলাপ	-10.7691
▁ফু	-10.7692
▁কথিত	-10.7698
▁গ্যাসের	-10.7699
▁মৌ	-10.77
▁সবশেষ	-10.7701
▁সংবিধান	-10.7702
▁৭৯	-10.7705
▁দফতরের	-10.7706
▁ছাগল	-10.7707
▁দেখেছি	-10.7708
ম্ম	-10.7711
▁সাতক্ষীরার	-10.7713
▁সনাক্ত	-10.7714
▁কোড	-10.7715
▁You	-10.7715
▁প্রকৃতি	-10.7715
▁সাগরে	-10.7716
▁পুঁজিবাজারে	-10.7716
▁মহসিন	-10.7717
পতি	-10.7718
▁নাছির	-10.7718
▁রেজিস্ট্রেশন	-10.772
করোনা	-10.7721
▁ব্রাহ্মণবাড়িয়ার	-10.7727
▁বাজেটে	-10.7728
▁বাস্তব	-10.7728
▁কানাডার	-10.7733
▁দশকের	-10.7734
▁জহির	-10.7736
▁be	-10.7736
▁উপকূলীয়	-10.7737
▁কাটাতে	-10.7739
নোর	-10.774
▁টিভির	-10.774
▁নাহার	-10.774
▁গ্রুপে	-10.7741
▁ইন্টার	-10.7752
▁এবছর	-10.7756
▁৯৬	-10.7758
▁শীল	-10.776
▁পুলিশি	-10.776
▁গৌরব	-10.7761
মঙ্গলবার	-10.7762
▁রুপ	-10.7762
▁বিগ	-10.7763
জী	-10.777
▁স্বজন	-10.777
▁ম্যাক	-10.7772
▁উদযাপিত	-10.7774
▁যাবৎ	-10.7775
▁শ্রীমঙ্গল	-10.7775
▁গায়ক	-10.7775
▁ডিএসইতে	-10.7782
নাথ	-10.7785
▁৪টার	-10.7788
▁ইসরাইল	-10.7788
▁পরপর	-10.779
▁গণনা	-10.7792
▁মজুদ	-10.7794
বাই	-10.7794
▁রোল	-10.7796
কর্মচারী	-10.7797
▁মাসেই	-10.7797
▁নির্	-10.78
▁প্রতীকে	-10.7802
▁N	-10.7807
▁হারায়	-10.7807
▁বাই	-10.7808
▁দরে	-10.781
▁ব্যক্তিরা	-10.7812
▁মুম্বই	-10.7816
▁হননি	-10.7818
▁অন্যায়	-10.7819
▁জিম্বাবুয়ে	-10.7822
▁লেনদেনের	-10.7823
শার	-10.7825
▁লন্ডনের	-10.7827
▁সালমা	-10.7829
▁অপরাধের	-10.7832
▁সমর্থিত	-10.7839
▁তু	-10.7839
দো	-10.7839
সোমবার	-10.7839
▁মাটির	-10.7848
▁ক্যামেরার	-10.7855
সেল	-10.7857
▁খালিদ	-10.7859
▁গবেষণার	-10.786
▁৯১	-10.7863
▁অনশন	-10.7864
▁সহায়তার	-10.7865
▁কর্মকাণ্ড	-10.7865
▁বাবাকে	-10.7868
জির	-10.7869
▁নিঃশ্বাস	-10.7871
▁সাক্ষ্য	-10.7871
▁ছাড়পত্র	-10.7872
উন	-10.7874
▁একসাথে	-10.7875
▁মাথার	-10.7878
▁প্রকল্পে	-10.7878
▁ইসলামি	-10.7881
▁লোকের	-10.7888
▁নিউইয়র্ক	-10.789
▁আইনানুগ	-10.789
▁বিদ্যমান	-10.789
▁তলব	-10.7891
▁ফেলেছেন	-10.7891
▁তরফ	-10.7893
▁পুজো	-10.7894
▁বেড়া	-10.7894
▁ব্যাটালিয়ন	-10.7894
▁আগত	-10.7897
▁সোসাইটি	-10.7897
id	-10.7898
▁বৈ	-10.7904
▁চাইছে	-10.7906
▁ইসরায়েলের	-10.7907
▁অর্থনীতির	-10.7907
▁মানতে	-10.7908
▁বদল	-10.7908
▁দুজনকে	-10.7912
দুর	-10.7915
▁তাজুল	-10.7917
নাল	-10.7917
▁উইকেটের	-10.7918
ট্র	-10.7922
▁পর্যটক	-10.7925
▁বিক্রেতা	-10.7925
▁জটিলতা	-10.7927
▁দুটো	-10.7931
▁পেরেছি	-10.7931
ণা	-10.7932
▁ব্রিটেনের	-10.7935
বুধবার	-10.7937
▁৭টি	-10.7937
▁বিসিবির	-10.794
▁হিন্দি	-10.7944
িটি	-10.7945
▁মৌলভীবাজারের	-10.7947
সচিব	-10.7951
▁ভিসি	-10.7951
▁হতাহত	-10.7953
নাম	-10.7955
▁নামবে	-10.7957
▁৪টায়	-10.7965
▁হাজতে	-10.7968
▁ক্রিস	-10.7971
▁শহীদুল	-10.7978
▁দ্রব্য	-10.7983
▁ম্যান	-10.7986
▁নিচের	-10.7986
▁বার্সেলোনার	-10.7987
▁খোরশেদ	-10.7988
▁ফেন্সিডিল	-10.7988
▁ডিসপ্লে	-10.7988
▁পর্যায়ক্রমে	-10.7988
▁জেমস	-10.7988
▁আগামীতে	-10.7989
▁গোপনে	-10.7995
▁জন্মদিনে	-10.7996
▁ঢেউ	-10.8004
▁মধ্যরাতে	-10.8007
▁প্রচলিত	-10.8007
▁আর্জেন্টিনার	-10.8008
▁মেসেজ	-10.801
▁আয়কর	-10.801
▁কখনোই	-10.8013
▁ফেডারেশনের	-10.8013
ti	-10.8013
▁ওঠেন	-10.802
▁মেয়েটি	-10.8023
▁নেশা	-10.8024
▁ব্যানারে	-10.8025
▁গুরু	-10.8027
▁সেন্ট্রাল	-10.8027
▁মাতৃভাষা	-10.8027
▁বাড়ে	-10.8028
▁নির্মম	-10.8031
২০১৭	-10.8031
▁ফিলিস্তিনি	-10.8032
▁অ্যাসোসিয়েশনের	-10.8032
▁ঝামেলা	-10.8035
র্ট	-10.8035
▁তি	-10.8036
বিডি	-10.8037
▁মধ্যেও	-10.8039
প্রশাসন	-10.8041
্র	-10.8042
▁জগতে	-10.8043
▁অস্তিত্ব	-10.8047
▁লিয়াকত	-10.8047
bangla	-10.8047
▁ভার্সন	-10.8047
▁দুনিয়া	-10.8048
▁ময়দানে	-10.8049
▁ভূমিকম্প	-10.805
▁আদায়ের	-10.8052
▁ক্যাপ্টেন	-10.8055
▁কাস্টমস	-10.8055
▁ইনস্টাগ্রাম	-10.8055
▁কিশোরীর	-10.8056
▁অনুমান	-10.8056
▁বান্দরবানে	-10.8058
▁জাহিদুল	-10.8061
us	-10.8063
▁নামতে	-10.8064
▁প্রণোদনা	-10.8067
▁চ্যাম্পিয়ন্স	-10.8069
▁২০০৭	-10.8073
▁ছাদ	-10.8076
শনিবার	-10.8076
▁কাণ্ড	-10.8077
▁সংশ্লিষ্টদের	-10.8077
▁প্রীতি	-10.8077
▁প্রবাহ	-10.808
▁অভিবাসন	-10.8081
▁গ্রেপ্তারের	-10.8081
▁মৌসুমের	-10.8082
▁রহমত	-10.8082
▁ড্রাইভার	-10.8086
▁ব্যা	-10.8086
▁অফিসিয়াল	-10.8088
▁শিমুল	-10.8088
▁বিপর্যয়	-10.8091
▁পৌঁছানো	-10.8099
▁অর্থবছরে	-10.8102
▁মোশারফ	-10.8106
▁শোভন	-10.8106
▁পড়ায়	-10.8113
লায়	-10.8116
▁ভরসা	-10.8116
▁হাফ	-10.8118
▁আসায়	-10.8118
▁L	-10.8119
▁চেষ্টার	-10.8121
▁সন্তানকে	-10.8122
▁ফেনসিডিল	-10.8126
▁প্রত্যাখ্যান	-10.8126
▁আসলাম	-10.8127
▁স্বাস্থ্যসেবা	-10.8129
▁প্রতিকৃতিতে	-10.813
▁অপসারণ	-10.8132
৭৫	-10.8133
▁আশাবাদী	-10.8134
▁প্রেমে	-10.8135
ন্য	-10.8137
▁সিদ্ধান্তে	-10.8137
জ্ঞ	-10.8139
▁সুত্রে	-10.8142
▁সিরাজগঞ্জের	-10.8146
▁সালাহ	-10.8147
▁বিমানটি	-10.8149
বারের	-10.8149
▁ফিরলেন	-10.8151
▁দোষ	-10.8151
সহকারী	-10.8153
▁ভ্যাট	-10.8153
▁শিশুরা	-10.8155
▁হামলাকারী	-10.8157
▁হো	-10.8158
▁বাজে	-10.8163
▁মুখের	-10.8163
▁মুন্না	-10.8167
▁করণীয়	-10.8168
▁কোর্স	-10.817
▁জার্মানির	-10.8176
▁আইটি	-10.8183
▁হালদার	-10.8186
জো	-10.8188
াইল	-10.8189
Shomoy	-10.8196
▁পরাজয়	-10.8199
▁শ্রেণিতে	-10.8199
▁শাসক	-10.82
▁রযাপিড	-10.8206
▁more	-10.8206
▁মর	-10.8206
▁হট	-10.8211
প্রিয়	-10.8211
ْ	-10.8214
সময়	-10.8217
▁বিষয়গুলো	-10.8223
▁Update	-10.8226
▁উইন্ডোজ	-10.823
▁হারিয়েছেন	-10.8231
▁৮৩	-10.8232
▁বক্তব্যের	-10.8233
▁হাদিস	-10.8235
▁ছিনতাইকারী	-10.8235
▁জিএম	-10.8239
▁৫টার	-10.8242
▁গ্রেনেড	-10.8246
▁হাটহাজারী	-10.8246
▁পাচারের	-10.8247
▁৯৪	-10.8247
▁ডাকাতির	-10.8248
▁অবস্থানরত	-10.8251
▁টিকটক	-10.8252
▁অমর	-10.8253
▁বিরোধের	-10.8256
▁ব্যবহারে	-10.8258
▁শহীদদের	-10.8265
▁রংপুরে	-10.8268
▁আটকের	-10.8269
▁মশা	-10.827
▁ঘটনাকে	-10.827
ta	-10.8271
▁কেউই	-10.8271
▁তরুণীর	-10.8272
▁নির্বাচনকে	-10.8275
রিক	-10.8277
▁কনফারেন্সের	-10.8278
টের	-10.8278
▁টেকনোলজি	-10.8281
▁মহড়া	-10.8285
▁দোকানপাট	-10.8287
▁ঝিনাইদহে	-10.8288
▁মানেই	-10.829
র্ত	-10.8293
▁সদরে	-10.8293
▁সিনেমাটির	-10.8295
▁ব্যয়ে	-10.83
▁স্টোর	-10.8303
▁daily	-10.8307
▁উঁচু	-10.8307
▁চিত্রনায়ক	-10.8307
▁জরিপ	-10.8309
▁মিয়ানমারে	-10.8309
▁অব্যাহতি	-10.8313
▁মজা	-10.8313
লেও	-10.8313
▁bd	-10.8314
▁পিচ	-10.8317
▁আইসিইউতে	-10.8317
▁ফাঁসির	-10.8318
▁জামিনের	-10.8326
▁প্রেসিডিয়াম	-10.8327
▁Today	-10.8327
▁ভয়ঙ্কর	-10.8327
▁নিরাপদে	-10.8328
▁চালুর	-10.8331
▁এক্সচেঞ্জ	-10.8337
▁গার্মেন্টস	-10.8339
ঙ্গি	-10.8344
▁ইতোমধ্যেই	-10.8345
▁লো	-10.8347
▁কোয়ার্টার	-10.8348
▁মুনাফা	-10.8348
ওয়ে	-10.8348
▁আসছিলেন	-10.8349
▁টিকাদান	-10.8352
▁কিট	-10.8354
বের	-10.8356
▁স্থাপনের	-10.8356
▁১২০	-10.8362
▁মূল্যের	-10.8366
▁কাম	-10.8366
▁অডিও	-10.8368
▁ওয়াজেদ	-10.8368
▁মোবারক	-10.8368
▁লেখাপড়া	-10.8368
▁নামার	-10.8369
▁মূর্তি	-10.8372
▁৯৩	-10.8373
লেট	-10.8373
▁যাব	-10.8373
▁মুদ্রা	-10.8376
▁জর্জ	-10.8377
▁সম্পদের	-10.8378
▁হবিগঞ্জের	-10.8382
▁পেজ	-10.8384
▁পৌরসভায়	-10.8385
▁সেটে	-10.8387
▁অবলম্বন	-10.8387
▁জাতের	-10.8388
▁মুম্বাইয়ের	-10.8388
▁বাঁশ	-10.8388
▁হেলপার	-10.8388
▁প্রক্টর	-10.8389
▁ইমিগ্রেশন	-10.839
▁কয়লা	-10.8391
▁স্বস্তি	-10.8393
▁সিলিন্ডার	-10.8397
▁নাট্য	-10.8397
▁ওয়ানডেতে	-10.8402
im	-10.8403
▁কাপের	-10.8407
▁দর্শন	-10.8409
▁মশিউর	-10.8409
▁উপকারী	-10.8409
তবে	-10.841
▁জান্নাত	-10.8411
▁ভাঙ্গা	-10.8412
▁এএফপি	-10.8412
▁ক্যাটরিনা	-10.8416
▁গরিব	-10.8418
▁কঙ্গনা	-10.8421
▁ফেনীর	-10.8428
▁ভাষার	-10.8428
▁হেঁটে	-10.8429
▁চিত্রনাট্য	-10.8429
▁পতন	-10.8429
▁পড়েছিল	-10.8429
▁বারী	-10.8436
জিত	-10.8439
▁দেখছে	-10.844
▁আসবেন	-10.8445
াদ	-10.8446
▁সর	-10.8448
ীদের	-10.8448
▁রিটার্নিং	-10.8451
▁বঙ্গ	-10.8451
▁মেট্রিক	-10.8452
▁খানম	-10.8454
▁জননেত্রী	-10.8455
▁স্টেডিয়াম	-10.8456
▁কমতে	-10.8456
▁স্প্যান	-10.8457
▁মারিয়া	-10.8459
▁জিডি	-10.8467
▁সেবন	-10.8467
িস্ট	-10.847
▁অঙ্গীকার	-10.847
▁সম্মুখীন	-10.847
▁ভূইয়া	-10.8471
▁Dainik	-10.8477
▁মনো	-10.8477
▁Sports	-10.8477
▁অস্ত্রের	-10.8482
▁প্রবৃদ্ধি	-10.8483
▁আদেশে	-10.8484
▁ভয়েস	-10.8484
▁আনুষ্ঠানিকতা	-10.8486
▁লাগার	-10.8487
▁বর্ডার	-10.8491
▁রাব্বি	-10.8491
▁মারমা	-10.8493
▁দোষী	-10.8494
▁ভরে	-10.8494
▁re	-10.8496
▁টিমের	-10.8501
প্রত্যক্ষদর্শীরা	-10.8503
▁হাড়	-10.8505
▁ঘন্টার	-10.8508
▁১১টি	-10.8518
▁চেষ্টায়	-10.8518
ন্ধ	-10.852
▁মুর	-10.852
সম্পাদক	-10.8524
▁প্রস্তাবিত	-10.8525
▁ফুটবলের	-10.8528
▁সেবায়	-10.8528
▁ঋণের	-10.853
▁সাত্তার	-10.8532
▁নববর্ষ	-10.8533
▁আয়েশা	-10.8533
▁কাপ্তাই	-10.8533
▁সার্কিট	-10.8536
ক্কা	-10.8537
▁উঠল	-10.8538
▁খবরের	-10.8539
িশ	-10.8539
▁ফিট	-10.854
▁নিক	-10.8542
▁দিয়া	-10.8543
▁রক্তের	-10.8548
▁আংশিক	-10.8553
▁ভুগছিলেন	-10.8553
▁সচল	-10.8555
▁অন্তঃসত্ত্বা	-10.8555
▁জামায়াতের	-10.8556
▁জিয়াউল	-10.8558
▁আলিম	-10.8558
▁ছুটিতে	-10.8558
▁সঙ্কট	-10.8561
▁পঞ্চায়েত	-10.8564
▁রাগ	-10.8566
▁বনানী	-10.8569
▁পদত্যাগের	-10.857
▁মুসলিমদের	-10.8571
▁যোগাযোগের	-10.8572
▁সাপোর্ট	-10.8572
▁রক্ষাকারী	-10.8573
▁দৃঢ়	-10.8578
তন	-10.8583
▁মাইল	-10.8586
▁গুন	-10.8589
▁গৃহবধূকে	-10.859
▁দেখলে	-10.8593
▁মেলেনি	-10.8593
▁স্যামসাং	-10.8593
▁মৃ	-10.8595
য়েল	-10.8595
se	-10.8598
▁আনন্দের	-10.8598
▁জানালে	-10.8602
▁অস্ত্রোপচার	-10.8606
ইট	-10.8608
দলীয়	-10.8609
▁ব্রা	-10.8614
▁হিলি	-10.8615
▁ঢেলে	-10.8616
▁মেদিনীপুর	-10.8616
▁প্রেসিডেন্টের	-10.8616
▁যেত	-10.8617
▁বাড়ীতে	-10.862
▁দ্যা	-10.8621
▁বজ্রপাতে	-10.8623
যোগে	-10.8626
▁ব্যবহারকারী	-10.8628
▁চালিত	-10.8631
▁ইয়া	-10.8632
▁রাসায়নিক	-10.8636
▁জিও	-10.8637
▁ছক্কা	-10.8639
ر	-10.864
▁অন্যরা	-10.8641
▁আশিক	-10.8643
উল্লাহ	-10.8645
▁রকমের	-10.8645
▁সহ্য	-10.8651
▁কমেন্ট	-10.8653
▁North	-10.8654
▁From	-10.8657
▁খসড়া	-10.8657
▁রোকেয়া	-10.8657
▁মঠবাড়িয়া	-10.8657
▁অবাধ	-10.8659
▁ছুরি	-10.8659
▁হাতিয়ে	-10.8664
গড়	-10.8666
▁আদিবাসী	-10.8668
▁ওভারের	-10.867
▁অ্যাম্বুলেন্স	-10.867
্যাল	-10.8676
▁সমগ্র	-10.8679
▁মাই	-10.8681
[	-10.8681
▁কাশ্মীরের	-10.8682
▁সংবাদপত্র	-10.8684
ান্ত	-10.8692
▁পাঠক	-10.8698
▁শ্রাবন্তী	-10.8699
▁ধর্ষন	-10.8699
▁খুলতে	-10.87
▁সর্বাধিক	-10.87
▁—	-10.87
▁লুক	-10.87
▁m	-10.8706
▁সরব	-10.8706
▁বেশির	-10.8707
▁সাতক্ষীরায়	-10.8708
ل	-10.8711
▁কোম্পানিটি	-10.872
▁সমন্বিত	-10.8721
▁হেক্টর	-10.8721
্বরাষ্ট্রমন্ত্রী	-10.8722
▁টেবিল	-10.8722
ন্ডি	-10.8722
▁চেয়ার	-10.8724
▁কমলা	-10.8725
▁বিদায়ী	-10.8727
▁কিং	-10.8727
▁ফরিদপুরে	-10.8732
▁ক্ষতিপূরণ	-10.8733
▁সঠিকভাবে	-10.8734
▁শুনেছি	-10.8735
▁আহ	-10.8735
ন্ডা	-10.8741
▁কৃত্রিম	-10.8742
▁তোফায়েল	-10.8742
▁রাষ্ট্রের	-10.8744
▁পেশাদার	-10.8747
সম	-10.8749
▁বউ	-10.875
▁টিপস	-10.8751
▁গেইল	-10.8755
কাটা	-10.8756
▁সারাদিন	-10.8756
▁শাখায়	-10.8757
▁চোপড়া	-10.8757
▁পরীমনি	-10.876
▁কর্মশালায়	-10.8761
▁বসতে	-10.8761
বাড়িয়া	-10.8763
▁বেঙ্গল	-10.8763
▁গিয়াস	-10.8764
▁রাজিব	-10.8769
▁পর্দা	-10.8777
▁আঃ	-10.8777
▁করেছিলাম	-10.8783
▁উদাহরণ	-10.8784
▁আত্মঘাতী	-10.8784
▁আমজাদ	-10.8785
▁৪টা	-10.8786
▁স্কয়ার	-10.8787
▁ঢাবি	-10.879
▁আড্ডা	-10.8794
▁রাজনীতিবিদ	-10.8797
▁পাপন	-10.8797
▁কুল	-10.8803
কারীরা	-10.8804
▁W	-10.8804
▁পূর্বাভাসে	-10.8808
▁নিষেধাজ্ঞার	-10.8816
▁মুহূর্ত	-10.8817
▁আমান	-10.8818
▁ক্রেতাদের	-10.8818
▁ইসরায়েলি	-10.8819
▁ফতুল্লা	-10.882
▁পশুর	-10.8821
৮টি	-10.8822
▁অজানা	-10.8828
▁বিশেষজ্ঞদের	-10.8831
▁কুয়াকাটা	-10.8831
▁পাড়ে	-10.8832
▁হুমকির	-10.8835
সেন	-10.8835
▁বাঘা	-10.8836
▁চেহারা	-10.8836
▁হেফাজত	-10.884
▁আমেরিকায়	-10.884
অধিনায়ক	-10.8842
▁আজহার	-10.8842
▁স্তরের	-10.8843
▁ফলন	-10.8844
▁জন্যও	-10.8848
▁সংগঠক	-10.8848
▁আইজিপি	-10.8848
▁জগন্নাথ	-10.8849
র্থ	-10.885
▁টান	-10.8852
▁মোকাবেলা	-10.8852
▁উপকার	-10.8853
▁J	-10.8854
▁মাইক্রো	-10.8857
▁প্রাচীন	-10.8858
▁বোঝাই	-10.8859
▁কার্যক্রমে	-10.8861
▁Sa	-10.8862
চ্ছ	-10.8863
j	-10.8865
▁ট্রেনটি	-10.8869
▁ব্ল্যাক	-10.8869
▁মতিউর	-10.887
▁ট্যাগ	-10.8871
▁আশায়	-10.8875
▁প্রবাসীর	-10.888
▁দয়া	-10.8881
▁২০টি	-10.8887
▁আর্	-10.8888
▁জয়পুরহাট	-10.889
▁রওশন	-10.8891
▁সন্দেহভাজন	-10.8891
▁হৃদরোগে	-10.8894
▁প্রত্যয়	-10.8897
▁আটটি	-10.8897
▁ভোরের	-10.8901
লাই	-10.8903
শুক্রবার	-10.8907
হর	-10.8907
বিষয়ে	-10.8908
▁উই	-10.8911
▁জন্মশতবার্ষিকী	-10.8913
▁জীবিত	-10.8914
▁স্পেন	-10.8916
▁উদ	-10.8918
▁৬০০	-10.893
▁mobile	-10.8934
▁সায়েন্স	-10.8934
▁হাতি	-10.8934
▁বাতাসে	-10.8935
▁অনন্ত	-10.8936
▁কাটতে	-10.8945
▁৭টায়	-10.8948
সাই	-10.8952
▁ট্রাকটি	-10.8953
ওয়ান	-10.8953
▁ডিগ্রী	-10.8956
▁তুর্কি	-10.8956
▁বিশ্বাসের	-10.8956
েন্দ্র	-10.8961
▁বলছি	-10.8963
▁ফুটেজ	-10.8964
▁মিনার	-10.8965
▁সৌজন্য	-10.8967
▁কাহিনী	-10.8967
▁ব্যবসায়ীর	-10.8967
▁অসম	-10.8968
পক্ষ	-10.8968
▁এসোসিয়েশন	-10.8971
▁বুঝিয়ে	-10.8975
▁হয়রানির	-10.8976
▁সীমান্তবর্তী	-10.8978
▁হারানো	-10.898
▁মেক্সিকো	-10.8982
▁ক্যাসিনো	-10.8984
▁বহনকারী	-10.8985
▁বইটি	-10.8988
▁সাংবাদিকরা	-10.8989
▁বিমানবন্দরের	-10.8994
▁নাটকটি	-10.8998
▁বর্ধিত	-10.8999
▁টিকেট	-10.8999
▁প্রত্যাবর্তন	-10.8999
▁চাঞ্চল্যকর	-10.9
▁ছুরিকাঘাতে	-10.9
▁পেপার	-10.9001
▁গাছে	-10.9002
▁পীর	-10.9002
▁রুট	-10.9003
▁On	-10.9005
প্রধান	-10.9006
▁কমান্ড	-10.9007
৫টি	-10.901
▁মোহন	-10.9015
▁কাট	-10.9015
?'	-10.9018
▁হালনাগাদ	-10.9021
▁Uttar	-10.9021
▁প্রাইভেটকার	-10.9021
▁প্রণয়ন	-10.9022
co	-10.9022
▁ঘুমিয়ে	-10.9023
▁১টার	-10.9024
▁অদ্ভুত	-10.9024
▁মাহফিলে	-10.9026
▁গণতন্ত্রের	-10.9026
▁চন্দন	-10.903
▁প্রান্তিক	-10.9032
▁তুলনা	-10.9033
▁ভিতর	-10.9036
বৃহস্পতিবার	-10.9038
▁বন্ধুর	-10.9038
▁হিট	-10.9042
▁টুইটে	-10.9043
▁রিভিউ	-10.9043
▁রেটিং	-10.9044
এটা	-10.9046
টিয়া	-10.9046
▁চত্বর	-10.9052
▁ফুলের	-10.9059
▁শতাংশের	-10.9059
▁মেরামত	-10.9059
▁মহাকাশ	-10.9059
▁পড়ুয়া	-10.906
▁ইনিংসের	-10.906
▁অবকাঠামো	-10.9062
▁মন্ত্রিসভার	-10.9063
▁টেনিস	-10.9064
▁আস	-10.9066
▁মিঠু	-10.9068
▁এয়ারলাইন্সের	-10.9068
আল	-10.907
▁বর্ধমান	-10.907
▁আখাউড়া	-10.9074
▁ওজনের	-10.9075
▁শিক্ষিকা	-10.9075
▁অবগত	-10.9077
▁ভাঙা	-10.9081
▁সফলতা	-10.9087
▁গণশিক্ষা	-10.9087
▁প্রতিষ্ঠানকে	-10.9091
▁ডিন	-10.9091
▁Jan	-10.9091
▁পুরোনো	-10.9094
▁চাঁদপুরের	-10.9095
▁জোনের	-10.9096
▁দেখায়	-10.9098
▁গন্ধ	-10.9098
▁সিকিউরিটি	-10.9101
ab	-10.9102
▁রক্তচাপ	-10.9108
▁দ্বি	-10.911
to	-10.9113
▁১৪২৬	-10.9114
▁পাঞ্জাব	-10.9115
▁ফোনটি	-10.9117
▁য	-10.9118
বুল	-10.9118
পাতা	-10.912
▁মমতাজ	-10.9121
▁যাবার	-10.9124
▁বুথ	-10.9125
খালি	-10.9126
▁সুনাম	-10.9126
▁বিপর্যস্ত	-10.913
▁মোয়াজ্জেম	-10.913
▁যৌতুক	-10.913
▁পরিমান	-10.913
▁নিপীড়ন	-10.9131
▁কুষ্টিয়ায়	-10.9133
্যু	-10.9133
▁গম	-10.9134
▁ক্যারিয়ারে	-10.9138
▁শিক্ষকরা	-10.9139
▁দাঁড়ানোর	-10.9139
শাহ	-10.914
▁সনাতন	-10.9141
▁সাদ	-10.9142
▁দেখছি	-10.9144
▁পদার্থ	-10.9148
▁লালন	-10.9148
▁১৫টি	-10.9149
▁নীচে	-10.915
▁ডেটা	-10.915
▁চু	-10.9151
▁টেকসই	-10.9152
▁অন্যের	-10.9154
as	-10.9154
▁দৃশ্যমান	-10.9154
▁পোর্ট	-10.9155
▁কল্পনা	-10.9157
বাবা	-10.9158
▁গণভবনে	-10.9159
▁ভাইকে	-10.916
▁পপি	-10.9162
▁দিনাজপুরে	-10.9164
▁শফিক	-10.9164
▁বোরো	-10.9165
▁বাকী	-10.9169
▁প্লাস্টিক	-10.9169
▁দিচ্ছি	-10.9169
ফল	-10.9173
▁নাথ	-10.9173
▁বায়তুল	-10.9174
▁ডেলিভারি	-10.9174
▁রসুন	-10.9176
▁ভাবতে	-10.9176
▁কোয়ারেন্টিনে	-10.9178
▁দৌড়	-10.9179
▁২টার	-10.9179
▁অর্ধ	-10.9181
▁দিনই	-10.9184
মারী	-10.9186
▁মিলিত	-10.9186
▁দালাল	-10.9186
▁শাহবাগ	-10.9191
▁সবই	-10.9196
▁মারপিট	-10.9196
দুদক	-10.9211
▁পেনাল্টি	-10.9219
▁Samb	-10.9219
▁শোয়েব	-10.9219
▁লাঠি	-10.9219
▁সাক্ষাত	-10.9221
▁পেলেও	-10.9223
▁আমীর	-10.9224
▁সাদিক	-10.9226
▁কাদেরের	-10.9226
▁নৃত্য	-10.9227
ইং	-10.9231
▁কারন	-10.9235
▁সবগুলো	-10.9237
▁গ্রন্থ	-10.9238
▁কমল	-10.9239
▁গাজীপুরে	-10.9241
▁স্মারকলিপি	-10.9241
▁জীবনযাপন	-10.9242
▁পায়রা	-10.9242
▁স্কোয়াড	-10.9245
▁শীতে	-10.9247
▁&	-10.9247
▁শিশুসহ	-10.9248
▁রাজস্থান	-10.9257
র্ষ	-10.9259
▁দিনেই	-10.926
▁খাদে	-10.9261
▁টাওয়ার	-10.9261
▁ধর্মঘট	-10.9262
▁পৌঁছালে	-10.9263
▁প্রাণিসম্পদ	-10.9263
▁বানানো	-10.9264
ha	-10.9267
▁চিন	-10.9268
▁ঐক্যফ্রন্টের	-10.9268
▁দাঁড়	-10.9269
▁বন্দুকযুদ্ধে	-10.927
দর	-10.9276
▁ওয়াই	-10.9276
▁ব্যবস্থার	-10.9285
▁তৈরিতে	-10.9292
▁পিএসজি	-10.9292
পেশার	-10.9298
ce	-10.9302
▁গ্রাহকের	-10.9303
▁ইউক্রেনের	-10.9304
▁মোদীর	-10.9307
েবল	-10.9307
▁তাড়াতাড়ি	-10.9308
▁মুখোপাধ্যায়	-10.9308
▁একদিকে	-10.9308
▁ট্রেনিং	-10.9311
banga	-10.9311
▁দায়িত্বশীল	-10.9312
▁তরুণীকে	-10.9314
▁যাকে	-10.9315
▁পুরুষদের	-10.932
▁মধ্যকা	-10.9322
স্প	-10.9324
▁তেমনই	-10.9328
▁নিজেও	-10.9331
▁পাড়ায়	-10.9331
▁মাঝ	-10.9332
▁হাইকমিশনার	-10.9334
▁প্যাকেট	-10.9334
▁আব	-10.9335
▁সেনাদের	-10.9336
▁মেয়াদে	-10.9338
▁বর্ণ	-10.9339
▁পলক	-10.9343
hi	-10.9347
▁সাবান	-10.9351
▁মুসলমান	-10.9353
bdnews	-10.9353
▁হুমায়ূন	-10.9355
▁টঙ্গী	-10.9358
▁থা	-10.937
▁সমাধানে	-10.9371
▁এক্সচেঞ্জে	-10.9373
▁দেয়াল	-10.9374
▁admin	-10.9375
▁গ্রাহকরা	-10.9375
তর	-10.9376
▁যুগে	-10.9376
▁নৌবাহিনীর	-10.9377
▁কোলে	-10.9383
▁ইসরায়েল	-10.9386
কথা	-10.9386
▁চৌ	-10.9388
▁বললে	-10.9391
িয়াল	-10.9393
▁জুম	-10.9394
▁দাসের	-10.9396
▁লিংক	-10.9398
▁নাসরিন	-10.9398
▁শীতবস্ত্র	-10.9398
▁বকেয়া	-10.9398
▁সমাজসেবা	-10.9398
▁মোল্লার	-10.94
এক্স	-10.94
▁করাতে	-10.9401
▁জিন	-10.9403
▁আপডেটঃ	-10.9404
▁ঝিনাইদহের	-10.941
▁পারায়	-10.9412
▁লিওন	-10.9413
▁তাকিয়ে	-10.9416
▁ময়নাতদন্ত	-10.9419
▁হত্যাকাণ্ড	-10.9421
▁টাঙ্গাইলে	-10.9422
▁কার্	-10.9422
▁একাডেমিক	-10.9423
▁ভৈরব	-10.9424
▁ম্যাচেই	-10.9426
▁বিজয়ের	-10.9429
▁মডেলের	-10.943
▁কয়েকবার	-10.9439
ল্ড	-10.9439
য়েন	-10.944
▁নাসিমা	-10.9443
▁রিসার্চ	-10.9443
▁সার্জারি	-10.9443
▁ঠাণ্ডা	-10.9443
▁অসম্ভব	-10.9443
ম্ব	-10.9447
▁মিরপুরে	-10.9452
▁টেলিভিশনের	-10.9459
▁হরতাল	-10.9463
▁চড়	-10.9464
▁শর্ট	-10.9466
▁সাজাপ্রাপ্ত	-10.9467
।''	-10.9467
▁ডায়েরি	-10.9467
▁সাজ	-10.9468
▁কাঠামো	-10.9472
▁মুসা	-10.9472
▁তাণ্ডব	-10.9473
▁গ্লাস	-10.9473
▁বোর্ডে	-10.9475
▁তিনদিন	-10.9475
▁পরিষদে	-10.9476
▁কার্যত	-10.9477
▁ঠিকাদার	-10.948
▁বিপিএল	-10.948
▁শর্তে	-10.9485
W	-10.9485
▁গোপাল	-10.9487
▁লুটপাট	-10.9489
▁দেবনাথ	-10.949
ছড়ি	-10.9496
টাকে	-10.9497
▁কর্মচারীদের	-10.9498
▁মহানগরীর	-10.9499
▁আঘাতের	-10.9501
দ্র	-10.9503
▁আশুলিয়া	-10.9503
▁ট্রেড	-10.9504
▁দম্পতির	-10.9505
▁মেয়েটির	-10.9506
▁ইতি	-10.9509
ধি	-10.951
আদালত	-10.951
▁রিয়া	-10.951
▁টুকরো	-10.9511
▁পরিচর্যা	-10.9511
▁কাঞ্চন	-10.9511
▁কনটেন্ট	-10.9511
▁চালের	-10.9513
▁বিচ্ছেদ	-10.9516
▁লক্ষাধিক	-10.9516
▁যুক্তরাজ্যে	-10.9517
▁হজম	-10.9517
▁সোনারগাঁ	-10.9518
▁অর্থের	-10.952
র্ণ	-10.9521
৪টি	-10.9523
▁প্রতিমা	-10.9523
▁মালিকের	-10.9525
▁শেষের	-10.9527
▁বিশ্রাম	-10.953
▁এনেছে	-10.9532
▁দৃষ্টান্ত	-10.9534
œ	-10.9534
▁উপযোগী	-10.9535
▁ক্রমশ	-10.9536
▁দুস্থ	-10.9536
▁বিবিসির	-10.954
▁সীমানা	-10.954
▁ডিসেম্বরের	-10.9544
▁সংশ্লিষ্টরা	-10.9546
▁প্রশ্নে	-10.9546
▁মন্দিরের	-10.9547
▁অভিযোগপত্র	-10.9552
▁বাঙালির	-10.9555
▁কর্মীর	-10.9556
▁মোর্শেদ	-10.9557
▁জনবল	-10.9561
▁প্রেমিকের	-10.9574
▁জিরো	-10.9578
▁করলাম	-10.9585
কন্ঠ	-10.9586
▁দুপুরের	-10.9587
▁অপরের	-10.9588
▁জান	-10.9589
▁যাত্রীর	-10.9592
▁মন্ত্রিসভা	-10.9593
▁মাতা	-10.9601
▁No	-10.9604
▁দায়েরের	-10.9604
▁উড়ে	-10.9605
▁কোষাধ্যক্ষ	-10.9605
▁আসি	-10.9607
▁p	-10.961
▁ভাট	-10.9612
থেকে	-10.9613
৩টি	-10.9615
▁কুয়াশা	-10.9616
▁ঝড়ো	-10.962
▁কাশ্মীরে	-10.9621
▁উপকূল	-10.9623
▁গাঁজাসহ	-10.9626
▁জায়ান্ট	-10.9626
▁সুনীল	-10.9627
▁নর্থ	-10.9627
▁অনিয়মের	-10.9628
▁স্যানিটাইজার	-10.963
▁সৈনিক	-10.9632
▁ঘটতে	-10.9633
▁মালা	-10.964
▁ফজলুর	-10.9644
গী	-10.9648
+	-10.9649
▁পদোন্নতি	-10.9649
▁শ্রাবণ	-10.9649
▁নির্মাণাধীন	-10.965
ব্যাপী	-10.9652
▁ফেলুন	-10.9653
৭১	-10.9655
▁গাড়ী	-10.9659
▁বিবি	-10.966
▁৮০০	-10.9661
▁ধৃত	-10.9662
৯০	-10.9666
▁মোহাম্মদপুর	-10.9669
বাণিজ্য	-10.9672
অপরাহ্ন	-10.9672
▁কটাক্ষ	-10.9673
▁হিজরি	-10.9673
▁অগ্নিকান্ডে	-10.9673
▁আনিসুর	-10.9673
▁ফ্যান	-10.9678
▁বস্ত্র	-10.9681
ভেন	-10.9683
১টি	-10.9685
▁প্রসঙ্গ	-10.9685
▁ছাত্রদের	-10.9687
▁with	-10.9691
আমিন	-10.9692
▁শপিং	-10.9693
▁de	-10.9696
▁সভাকক্ষে	-10.9696
াঙ্গ	-10.9696
▁সংশোধিত	-10.9696
▁ক্লিনিক	-10.9697
▁লাফিয়ে	-10.9697
▁সিয়াম	-10.9698
▁কোচের	-10.9699
▁প্রজন্ম	-10.9699
ve	-10.97
▁তদারকি	-10.9703
▁বাণিজ্যমন্ত্রী	-10.9704
▁রিপোর্টার্স	-10.9704
▁ইন্সপেক্টর	-10.9707
সদর	-10.9714
▁ঘ	-10.9715
▁আত্মসাত	-10.9719
▁মিনি	-10.9723
▁নোমান	-10.9723
▁আইসোলেশন	-10.9724
▁ঘুমের	-10.9726
নির	-10.9727
মেন	-10.973
▁আরমান	-10.973
▁ছাত্রের	-10.9733
▁শ্রেণী	-10.9738
▁পাঠিয়েছেন	-10.974
▁কমলগঞ্জ	-10.9741
▁পাল্টে	-10.9743
▁নগ্ন	-10.9743
▁জোহর	-10.9746
ন্ডার	-10.976
▁অনুমোদিত	-10.9766
▁আফজাল	-10.9766
▁কর্তৃপক্ষকে	-10.9766
▁বস্তু	-10.9766
▁লোহাগাড়া	-10.9769
▁রক্তে	-10.977
▁লেবু	-10.9771
বেলা	-10.9772
▁ফিফা	-10.9773
পুত্র	-10.9774
▁টেবিলের	-10.9777
▁চমকে	-10.9778
▁লিঙ্গ	-10.9779
م	-10.9779
কলেজ	-10.9779
▁মালিকদের	-10.9782
▁মনোযোগ	-10.9784
েন্স	-10.9785
▁রামু	-10.9785
▁জুমার	-10.9787
▁আজকাল	-10.9787
▁মর্যাদায়	-10.9787
▁ওষুধের	-10.9789
▁পাটোয়ারী	-10.9789
▁মাঝামাঝি	-10.9789
▁তিতাস	-10.9789
▁কাঁধে	-10.979
▁দশকে	-10.9792
▁চাইছেন	-10.9797
▁কর্মীকে	-10.98
▁ধারনা	-10.98
িও	-10.9802
▁এনিয়ে	-10.9803
বিশেষ	-10.9804
▁থ্রি	-10.9809
▁রবীন্দ্র	-10.9813
▁মাইলফলক	-10.9813
জ্জ	-10.9817
বান্ধব	-10.982
▁মার্চে	-10.9823
▁শিবিরে	-10.9824
পুল	-10.9835
▁গর্ভবতী	-10.9837
▁দৃষ্টান্তমূলক	-10.9837
র্দ	-10.9838
▁লিভারপুল	-10.9838
টিভি	-10.9839
বিসিবি	-10.9839
▁দপ্তরে	-10.9841
▁কমবে	-10.9843
▁ইউনিভার্সিটির	-10.9846
▁মামা	-10.9848
▁নবীন	-10.9851
োন	-10.9851
▁হয়ত	-10.9856
প্ত	-10.9859
তান্ত্রিক	-10.986
▁উদ্বিগ্ন	-10.986
▁ভাত	-10.9866
▁প্রান্ত	-10.9867
▁নিয়ন্ত্রিত	-10.9867
▁মিনারে	-10.9873
▁দুর্গা	-10.988
▁এটিই	-10.9881
▁সাংবাদিকের	-10.9883
▁উচিৎ	-10.9884
দাতা	-10.9885
▁ঝ	-10.9885
▁গড়া	-10.9886
▁ফ্ল্যাট	-10.9891
▁স্থিতিশীল	-10.9895
▁দলিল	-10.99
▁আগমন	-10.9906
▁অপপ্রচার	-10.9908
▁প্রেমিকা	-10.9908
▁সরেজমিনে	-10.9908
▁করোনাকালে	-10.9909
কুমার	-10.9909
▁বাংলাদেশিদের	-10.9913
▁মনিটরিং	-10.9913
▁হত্যায়	-10.9914
▁কফি	-10.9914
▁ইউপির	-10.9916
▁কোনোভাবেই	-10.9922
▁বাহার	-10.9929
о	-10.9931
▁এরদোগান	-10.9931
▁লভ্যাংশ	-10.9931
▁ফারজানা	-10.9932
▁সেমিনারে	-10.9932
॥	-10.9933
▁ছুড়ে	-10.9933
বেসরকারি	-10.9933
▁উৎসাহিত	-10.9935
▁ফেইসবুক	-10.9935
▁নয়াদিল্লি	-10.9936
▁প্রবাস	-10.9936
▁বিনিয়োগকারীদের	-10.9937
▁বসত	-10.9938
▁অস্ত্রসহ	-10.9941
▁রড	-10.9943
▁নৌকায়	-10.9944
▁রোনালদোর	-10.9947
▁লাশের	-10.9948
▁আজীবন	-10.9949
▁ভাবা	-10.9954
▁টোয়েন্টিফোর	-10.9955
▁যুগ্ন	-10.9956
▁এখানেই	-10.9956
▁চায়ের	-10.9958
মনি	-10.9959
▁গৃহ	-10.9962
▁অগ্নিকাণ্ডে	-10.9962
▁পিএসসি	-10.9966
▁দেশগুলো	-10.9971
▁সমন্বয়ক	-10.9973
▁জিতেছেন	-10.9973
▁গুগলের	-10.9975
▁সাধন	-10.9976
et	-10.9977
·	-10.9979
▁গোলরক্ষক	-10.9979
▁আমিরাতে	-10.998
▁লিপ্ত	-10.998
▁যাঁরা	-10.9981
বতী	-10.9984
▁কোর	-10.999
▁নিলাম	-10.9992
ak	-10.9993
▁নগরীতে	-10.9998
▁মদন	-10.9999
কন্যা	-11
গুন	-11
ঞ্চ	-11.0002
▁আর্জেন্টাইন	-11.0003
▁কিবরিয়া	-11.0003
▁তোলপাড়	-11.0003
▁প্যা	-11.0005
সংক্রান্ত	-11.0005
▁পৌছে	-11.0008
▁হাজারো	-11.0009
▁খেলবেন	-11.001
▁স্টাইল	-11.0012
▁চাকা	-11.0012
▁ভিকটিম	-11.0013
ভাগ	-11.0014
▁সেনারা	-11.0016
▁ফ্রান্সে	-11.0017
▁পাড়	-11.0017
▁ব্লাড	-11.002
▁ইতালিতে	-11.0021
▁ছেলেদের	-11.0023
▁ইলেকট্রনিক	-11.0028
▁মস্কো	-11.0028
▁জাফরুল্লাহ	-11.0028
▁মহামারীর	-11.0028
Live	-11.0029
▁পুলিশিং	-11.003
▁অ্যাকাউন্টে	-11.0032
▁অপূর্ব	-11.0033
▁মৃধা	-11.0033
ওয়ালা	-11.0035
▁newspaper	-11.004
▁ধরিয়ে	-11.0043
মারা	-11.0043
▁মুন্সি	-11.0044
▁দুইজনকে	-11.0047
▁লক	-11.0047
▁দীর্ঘদিনের	-11.0047
▁সুনামগঞ্জে	-11.005
জুডিশিয়াল	-11.0051
▁কণ্ঠস্বর	-11.0051
▁ফাঁদে	-11.0052
`	-11.0054
অপরাহ্ণ	-11.0054
▁৬টায়	-11.0054
▁পুতিন	-11.0055
▁ব্যবহারকারীরা	-11.0055
পশ্চিম	-11.0064
▁বাগানে	-11.0069
▁জানুয়ারিতে	-11.0075
▁পারমাণবিক	-11.0076
▁পার্থক্য	-11.0076
▁বাসিন্দাদের	-11.0077
▁সেন্ট	-11.0079
▁এটিকে	-11.0079
▁বৈষম্য	-11.0083
▁Sangbad	-11.0084
▁নিখোঁজের	-11.0088
▁গাজা	-11.009
▁যোগে	-11.0093
▁গন	-11.0093
▁সংঘ	-11.0095
ay	-11.0095
▁মধ্যরাত	-11.0095
▁Post	-11.0097
▁৬টার	-11.0097
হাম	-11.0097
▁সংস্কারের	-11.01
▁বিল্লাল	-11.01
▁স্থাপিত	-11.01
▁ফয়েজ	-11.01
▁২০০০	-11.0104
▁ছয়জন	-11.0109
▁আনন্দে	-11.0109
▁মুক্তিযোদ্ধাদের	-11.0112
টেন	-11.0114
▁সম্মতি	-11.0114
▁ভরা	-11.0117
▁মামুনু	-11.0119
▁পশ্চিমবঙ্গে	-11.0122
▁অনুপ্রেরণা	-11.0124
▁ইবনে	-11.0124
▁ভাসমান	-11.0124
▁প্রবন্ধ	-11.0125
▁মহ	-11.0128
▁শিক্ষককে	-11.0128
৭টি	-11.0129
িব	-11.0135
▁হাস	-11.0135
টোয়েন্টিতে	-11.0136
কণ্ঠ	-11.0136
▁দিবেন	-11.0137
ot	-11.0138
▁পুঁজিবাজার	-11.0138
▁পানীয়	-11.0138
▁হ্যাঁ	-11.0141
▁খাঁ	-11.0146
▁খবরটি	-11.015
▁জহুরুল	-11.015
▁বিস্তৃত	-11.015
▁দাঁড়ালো	-11.0152
▁তপন	-11.0152
▁উপপরিদর্শক	-11.0154
▁যাদব	-11.0155
▁ফারিয়া	-11.0158
বঙ্গবন্ধু	-11.0159
এমপি	-11.0165
সান	-11.0171
▁অ্যাপটি	-11.0171
▁রযা	-11.0173
▁নবাগত	-11.0173
▁রহস্যজনক	-11.0173
▁জাবেদ	-11.0173
▁অগ্নি	-11.0173
lo	-11.0176
▁বৃক্ষ	-11.0185
▁নড়াইলে	-11.0187
▁নির্মাণে	-11.0189
▁টুডে	-11.019
▁জনসন	-11.019
বেল	-11.019
▁কামনায়	-11.0193
▁নিখিল	-11.0197
▁প্লাবিত	-11.0197
▁আকন্দ	-11.0197
▁ট্রেলার	-11.0198
▁শেরেবাংলা	-11.0198
▁নজির	-11.0198
▁ফেল	-11.02
▁ঢল	-11.0201
▁কাছেই	-11.0204
▁ইউটিউবে	-11.0204
▁পাকিস্তানকে	-11.0211
▁সংস্থাটির	-11.0213
V	-11.0213
ীতে	-11.0215
▁সুরক্ষিত	-11.0222
▁সুব্রত	-11.0222
ুদ্দিন	-11.0223
▁বড়লেখা	-11.0224
▁দায়িত্বরত	-11.0228
কিউ	-11.023
▁দক্ষিন	-11.023
▁সময়সীমা	-11.0232
▁নারায়ণগঞ্জে	-11.0234
▁আনন্দিত	-11.0234
▁Paper	-11.0235
▁চালককে	-11.0237
▁মিলল	-11.0238
▁দাখিলের	-11.0241
▁গ্রে	-11.0241
▁দৌলতপুর	-11.0241
▁প্ল্যান	-11.0244
ম্যা	-11.0246
▁অসুবিধা	-11.0248
যান	-11.0249
▁এসএমএস	-11.0249
▁অশ্বিন	-11.025
মাত্র	-11.0251
▁মাইক্রোসফট	-11.0251
াদি	-11.0253
▁কুড়িগ্রামের	-11.0254
▁আনন্দবাজার	-11.0259
▁প্রাদুর্ভাব	-11.0259
▁১৩টি	-11.026
পথে	-11.0264
▁তালাক	-11.0269
ধারী	-11.0271
▁বীমা	-11.0271
▁সুনির্দিষ্ট	-11.0271
▁ফাইজার	-11.0271
▁বিতরণের	-11.0272
▁রাবি	-11.0272
▁ইভেন্ট	-11.0273
জেন	-11.0273
▁নিরসনে	-11.0283
▁সেলাই	-11.0284
▁এজেন্সি	-11.0286
▁গাইবান্ধার	-11.029
▁মাদ্রাসায়	-11.029
▁সিবিআই	-11.0295
▁দিনমজুর	-11.0296
▁একাই	-11.0296
▁খাদ্যসামগ্রী	-11.0296
▁মুভি	-11.0298
▁উঠেছিল	-11.03
▁ম্যাগাজিন	-11.0301
▁ট্রাইব্যুনাল	-11.0305
is	-11.0306
▁বসা	-11.0307
▁পড়	-11.0309
▁খলিল	-11.031
পের	-11.031
▁চলাচলে	-11.0316
▁রূপে	-11.0318
▁ম্যানেজিং	-11.0321
▁অয়েল	-11.0323
▁আজিম	-11.0326
ن	-11.0329
▁পেয়েছিল	-11.0332
▁লক্ষ্মীপুরে	-11.0342
▁উৎপাদিত	-11.0345
▁অপারেটিং	-11.0345
▁ব্যায়াম	-11.0345
▁রোজিনা	-11.0346
▁ব্লকের	-11.0346
▁সজল	-11.0348
▁চ্যাম্পিয়নস	-11.0348
▁লাইক	-11.0348
▁দুবাইয়ে	-11.0352
▁রবিন	-11.0352
▁ছাদে	-11.0354
▁ঝুঁকিতে	-11.0355
▁বাদি	-11.036
▁নাক	-11.0362
▁মুখ্যমন্ত্রীর	-11.0363
▁ফিলিস্তিনের	-11.0364
▁মিয়াকে	-11.0365
▁একইভাবে	-11.0367
▁অত্যাধুনিক	-11.037
▁হুসেইন	-11.037
▁পাওনা	-11.037
▁ঘাঁটি	-11.0375
▁লুৎফর	-11.0378
▁মুঠোফোনে	-11.0378
▁বাগেরহাটে	-11.0382
▁লামা	-11.0385
▁আতিকুল	-11.0385
▁নগরী	-11.039
▁প্রকৃতির	-11.0391
▁পূজার	-11.0393
▁পরিস্কার	-11.0395
▁জোরপূর্বক	-11.0395
▁হরি	-11.0396
▁পাচ্ছি	-11.0398
▁মাইক	-11.0399
▁আতঙ্কিত	-11.04
হাত	-11.04
▁পার্কে	-11.0404
▁আমন	-11.0409
▁হারাতে	-11.041
▁বরাবরই	-11.0411
▁বোলারদের	-11.0414
▁বসেই	-11.0418
▁আষাঢ়	-11.042
▁সিএনএন	-11.042
৬টি	-11.0421
▁মার্কেটে	-11.0424
জিয়া	-11.0424
▁থ	-11.0425
চন্দ্র	-11.0429
গঞ্জে	-11.0432
▁উদ্ভাবন	-11.0434
সিক	-11.0435
▁প্রক্রিয়ায়	-11.0435
▁গণভবন	-11.0438
▁অভিভাবকদের	-11.0439
▁তারকাদের	-11.0441
▁দর্শকের	-11.0443
▁নামা	-11.0443
▁অ্যাপ্লিকেশন	-11.0445
▁চেয়ারপার্সন	-11.0445
▁ফ্র্যাঞ্চাইজি	-11.0445
▁পিঠা	-11.0446
▁বাঘ	-11.0447
▁কমার্স	-11.0449
এখন	-11.0451
▁শ্রীলংকা	-11.0455
▁খাওয়ানো	-11.0458
▁অভিনেতার	-11.0462
▁প্রশান্ত	-11.0464
▁পুর	-11.0466
ঘটনায়	-11.0468
▁মার্কেটের	-11.0469
▁কোতোয়ালি	-11.047
▁মারধরের	-11.0471
▁সাহসী	-11.0471
▁দ্বন্দ্ব	-11.0472
প্রথম	-11.0475
▁আইনজীবীরা	-11.0475
মাল	-11.0478
▁বরগুনার	-11.0483
▁পর্যায়	-11.0484
▁ওয়ার্নার	-11.0485
▁সংশোধনী	-11.0486
▁মিশ্র	-11.0489
▁রয়ে	-11.049
▁সুবাদে	-11.0496
▁ধাপের	-11.0497
▁একদিনের	-11.0497
▁ডাটা	-11.0506
▁ব্যাচের	-11.0507
▁মোটরসাইকেলে	-11.0509
হো	-11.0511
▁প্রচারে	-11.0515
বাবু	-11.0515
জাত	-11.0515
▁কৃতি	-11.0519
▁জলের	-11.052
▁পথচারী	-11.0521
▁সংগীতশিল্পী	-11.0521
▁জন্মবার্ষিকী	-11.0523
▁জলে	-11.0524
▁লেখার	-11.0524
পরে	-11.0526
▁তোমাদের	-11.0526
▁বিয়েতে	-11.053
▁সংঘট	-11.0532
▁ধন	-11.0532
ছড়া	-11.0532
▁প্রচারিত	-11.0537
▁বিহার	-11.0537
কিছু	-11.0539
বার্ষিক	-11.0542
ا	-11.0544
বিএনপি	-11.0545
▁কোম্পানিগুলো	-11.0546
▁সজিব	-11.0546
▁মজিবুর	-11.0546
▁অধ্যায়	-11.0548
▁সাই	-11.0549
ইস	-11.055
ারে	-11.0551
▁চেকপোস্ট	-11.0551
▁খোঁজে	-11.0554
প্রধানমন্ত্রী	-11.0554
▁ফাঁসি	-11.0556
▁সিল	-11.0561
▁ঝড়ের	-11.0562
▁বিতর্কের	-11.0564
উপ	-11.0564
োস	-11.0565
▁জুয়া	-11.0566
▁কাসেম	-11.0568
▁বৃদ্ধা	-11.0568
▁জাকারিয়া	-11.0571
লেস	-11.0573
▁মাশরাফির	-11.0573
▁মোসাদ্দেক	-11.0574
▁অনেকদিন	-11.0576
▁কনফারেন্স	-11.0576
▁বাক	-11.058
▁ভারি	-11.0588
▁মোটরসাইকেলের	-11.0588
ll	-11.0589
▁কমানো	-11.059
▁অপহৃত	-11.0597
▁শক্তির	-11.0597
▁জিনিসপত্র	-11.0598
▁কিশোরগঞ্জের	-11.0598
▁অংশগ্রহণকারী	-11.0598
▁জনি	-11.0601
▁বিপিএলের	-11.0602
২টি	-11.0603
▁ওমিক্রন	-11.0603
▁মুজিববর্ষ	-11.0603
▁ডাউন	-11.0604
▁জেগে	-11.0604
পিপি	-11.0605
▁ফাঁকি	-11.0606
▁আবাসন	-11.0606
▁দিগন্ত	-11.0611
▁বিসিসিআই	-11.0617
▁গ্রেড	-11.062
থু	-11.062
▁আদা	-11.0622
▁গেজেট	-11.0622
▁১৪৪	-11.0624
▁গে	-11.0626
▁তাইজুল	-11.0627
ঝ	-11.0627
▁সায়	-11.0635
▁ডাবল	-11.0639
▁বাসস	-11.064
▁আস্তে	-11.0643
▁কাউন্টার	-11.0643
▁অপরাধী	-11.0643
ক্রান্ত	-11.0644
সিস	-11.0645
▁পার্থ	-11.0647
ডেন	-11.0647
▁৫টায়	-11.0647
▁পুনঃ	-11.065
▁শাহেদ	-11.0651
▁প্রবাহিত	-11.0651
▁অজয়	-11.0651
▁কর্মসূচীর	-11.0652
▁হিউম্যান	-11.0653
▁সাক্ষাৎকার	-11.0653
▁একাত্তর	-11.0657
হাই	-11.0657
▁পিছু	-11.0658
জুন	-11.0658
▁শিল্পের	-11.0658
me	-11.0659
প্রা	-11.0661
▁মেঘ	-11.0664
▁পাহাড়ের	-11.0667
▁খাস	-11.0672
▁পোশাকে	-11.0673
▁আহম্মদ	-11.0673
▁শাপলা	-11.0673
▁জানাচ্ছে	-11.0675
▁মাইকেল	-11.0676
▁হেফাজতের	-11.0678
▁লাইফস্টাইল	-11.0679
▁সন	-11.0681
▁চেয়েছে	-11.0685
▁যুবদল	-11.0685
▁রূপগঞ্জ	-11.0685
▁তারকার	-11.0692
স্বজন	-11.0693
▁উন্নীত	-11.0694
▁e	-11.0696
র্ম	-11.0697
নুর	-11.0698
▁শীর্ষস্থানীয়	-11.0701
▁অজ্ঞাতনামা	-11.0705
▁এলেন	-11.0707
▁আনুশকা	-11.0709
▁স্পেনের	-11.071
▁নামাজে	-11.071
▁পেছন	-11.0712
▁নবীগঞ্জ	-11.0712
▁১টা	-11.0719
▁ব্যাটালিয়নের	-11.072
মির	-11.0721
▁তত্ত্বাবধায়ক	-11.0725
▁দাম্পত্য	-11.0725
▁সারোয়ার	-11.0725
▁সেলিনা	-11.0725
▁তারাও	-11.073
িদের	-11.0733
▁ইনস্টিটিউটের	-11.0734
▁ছড়িয়েছে	-11.0736
▁অ্যাটাক	-11.0737
মেইল	-11.0742
▁ব্যতিক্রম	-11.0744
▁পাশেই	-11.0745
▁কৃষিবিদ	-11.0746
▁পুনর্বাসন	-11.0751
▁সাইদুর	-11.0752
েশ্বর	-11.0753
লিশ	-11.0753
▁খুনি	-11.0753
পরি	-11.0757
বস	-11.0758
‎	-11.0758
▁সুরে	-11.0758
শক্তি	-11.0759
▁সুদ	-11.0769
▁স্পেস	-11.0771
▁তীর	-11.0771
▁খামার	-11.0773
▁সততা	-11.0775
▁সানা	-11.0776
▁জ্যৈষ্ঠ	-11.0777
▁মুস্তফা	-11.0777
▁সূচকের	-11.0777
▁ইস	-11.0781
▁খায়ের	-11.0781
ي	-11.0783
▁লাভের	-11.0783
▁রবীন্দ্রনাথ	-11.0784
▁কমছে	-11.0786
▁স্বাস্থ্যের	-11.0786
▁আলীকে	-11.0791
▁ইসলামপুর	-11.0792
িলা	-11.0792
▁শত্রুতা	-11.0792
▁ইন্ডিয়ার	-11.0799
▁তারপরে	-11.08
মিল	-11.0801
বুর	-11.0803
▁ইফতেখার	-11.0803
▁পহেলা	-11.0803
▁পারফর্ম	-11.0803
▁প্রখ্যাত	-11.0804
▁সংগঠনটি	-11.0806
▁আজিজুর	-11.0808
▁হতাশা	-11.0809
▁পাসের	-11.0809
▁গ্রামবাসী	-11.081
▁সমাধানের	-11.0812
▁ছাপ	-11.082
no	-11.0821
▁দর্শকরা	-11.0822
▁ইরাকের	-11.0822
▁ভাবেই	-11.0823
▁ক্রু	-11.0826
▁ব্যাক	-11.0829
▁সোবহান	-11.0829
▁আখতারুজ্জামান	-11.083
▁ধোনির	-11.083
▁আক্তারের	-11.083
=	-11.0834
▁বিপদে	-11.0836
সংলগ্ন	-11.0837
▁২০০১	-11.0837
▁এজাহার	-11.0839
▁ঘা	-11.084
পথ	-11.0841
▁আফ্রিদি	-11.0841
▁রেঞ্জ	-11.0842
▁গল্পের	-11.0843
▁মহেশখালী	-11.0845
নিরীক্ষা	-11.0845
▁গুলশানে	-11.0847
কলা	-11.085
▁আমিরুল	-11.085
স্ত্রী	-11.0853
▁স্টল	-11.0853
▁ফার্স্ট	-11.0855
▁টে	-11.0857
▁জামিনে	-11.0857
▁মুন্সিগঞ্জের	-11.0859
▁সাজিয়ে	-11.0862
▁নন্দী	-11.0862
▁এবিএম	-11.0863
▁বিক্ষোভে	-11.0863
▁অং	-11.0864
▁ঈদগাহ	-11.0866
▁সমর্থনে	-11.0867
কাম	-11.0867
▁দুর্গাপুর	-11.0869
▁আটককৃতরা	-11.0872
▁পেলো	-11.0872
▁পৌঁছাতে	-11.0875
ডিপি	-11.0876
▁দুর্ভোগ	-11.0877
▁ভাঙ্গন	-11.0877
▁ব্র্যাক	-11.088
▁নেইমারের	-11.0882
▁চারজনকে	-11.0887
ভাব	-11.0889
মালা	-11.0891
▁পর্ষদ	-11.0893
▁রেখা	-11.0894
▁সতীর্থ	-11.0897
▁মেহের	-11.0897
▁হিসেবেই	-11.0897
▁সহকর্মী	-11.0903
▁বাহাদুর	-11.0904
▁আশাবাদ	-11.0906
▁সঞ্চয়	-11.0907
▁ব্রিগেডিয়ার	-11.0907
▁যুগের	-11.0908
▁২টা	-11.0908
▁আপত্তিকর	-11.0908
▁নিধন	-11.0909
▁বনাম	-11.091
▁উত্তরবঙ্গ	-11.091
▁কারবারি	-11.0911
▁প্রশ্নপত্র	-11.0912
▁শুরুটা	-11.0913
▁তরুণদের	-11.0918
▁রাঙ্গামাটি	-11.0919
▁ভোলায়	-11.0919
▁সোনারগাঁও	-11.0921
▁কচুয়া	-11.0926
▁ইসরাইলি	-11.0928
▁অন্ধকার	-11.093
এটি	-11.093
▁জ্ঞাপন	-11.0934
▁বাঁশখালী	-11.0934
▁পাত্র	-11.0935
▁চাইলেন	-11.0937
▁ফার্ম	-11.0938
▁অসুস্থতার	-11.094
াংশ	-11.094
▁কারিনা	-11.0941
▁হারানোর	-11.0942
▁গোপালগঞ্জের	-11.0945
▁শাশুড়ি	-11.0947
ডু	-11.0949
▁হতদরিদ্র	-11.095
ড়ী	-11.0951
▁বক্তৃতায়	-11.0953
খোলা	-11.0953
▁মোংলা	-11.0954
দিনে	-11.0954
দলের	-11.0955
▁ইরানি	-11.0956
▁আড়ালে	-11.0956
▁ফলাফলে	-11.0957
▁Protidin	-11.096
▁গণ্যমান্য	-11.096
▁খসরু	-11.096
▁জোরালো	-11.096
▁দায়িত্বপ্রাপ্ত	-11.0966
▁গি	-11.0968
▁করিনি	-11.0972
▁ডো	-11.0972
কায়	-11.0975
▁সংখ্যালঘু	-11.0976
▁বসেন	-11.0976
bi	-11.0976
▁কলারোয়া	-11.0977
he	-11.0977
▁প্রেক্ষাপটে	-11.0978
▁এখান	-11.098
▁মির্জাপুর	-11.0982
▁`	-11.0984
▁বিলুপ্ত	-11.0985
▁প্রলোভন	-11.0987
▁সর্বাত্মক	-11.0987
▁লোকমান	-11.0988
▁→	-11.0989
▁ভোগান্তি	-11.0991
▁প্রেসক্লাবে	-11.0991
▁প্রাইম	-11.0991
▁জামাই	-11.0993
▁অংশের	-11.0995
▁বিশেষভাবে	-11.0996
▁আমীন	-11.0997
▁সেদিকে	-11.0997
ফো	-11.0997
▁মাধ্যমেই	-11.1001
▁জেএসসি	-11.1003
▁রমনা	-11.1003
জনক	-11.1006
যাত্রা	-11.1007
্টি	-11.1007
সাস	-11.1009
▁শিক্ষিত	-11.1011
▁অগ্রহায়ণ	-11.1013
▁বেপারী	-11.1013
▁কায়সার	-11.1013
▁জানিয়েছিল	-11.1013
▁ইলাইহি	-11.1013
▁Page	-11.1014
বিধি	-11.1018
▁আম্পায়ার	-11.1023
সিন	-11.1025
সিটি	-11.1026
হাটি	-11.1026
বাহ	-11.1029
▁লাগাতে	-11.103
▁কাজেই	-11.1035
▁ঘটিয়ে	-11.1037
and	-11.1037
▁এক্সিকিউটিভ	-11.104
▁রুখতে	-11.104
▁প্রোটিন	-11.104
▁চুক্তিবদ্ধ	-11.1041
▁কায়েস	-11.1042
ঙ্কা	-11.1047
▁নাগরিকের	-11.1051
▁ব্যাটে	-11.1052
▁হাজিরা	-11.1054
▁সমীক্ষা	-11.1054
▁৩টা	-11.1059
▁নভেম্বরে	-11.106
▁মুহুর্তে	-11.1065
▁লাস্টনিউজবিডি	-11.1066
▁টলিউড	-11.1066
▁তরিকুল	-11.1066
▁সামর্থ্য	-11.1067
▁মাহফুজুর	-11.1068
▁বিশ্বসেরা	-11.1068
▁ব্রিজের	-11.107
▁স্বেচ্ছায়	-11.1071
ন্দি	-11.1072
▁হিম	-11.1074
্যে	-11.1075
*	-11.1076
▁লেগ	-11.1076
ত্তা	-11.1078
▁সিন্ডিকেট	-11.108
▁উৎপাদনের	-11.1081
▁আনোয়ারা	-11.1084
এমন	-11.1085
▁বলব	-11.1091
▁গর্বিত	-11.1094
▁রেট	-11.1096
হারা	-11.1101
▁গণিত	-11.1106
▁মরিচ	-11.1108
▁গণহত্যা	-11.111
▁গ্রেফতারি	-11.1113
▁পুষ্পস্তবক	-11.112
▁লটারি	-11.112
▁বাজেটের	-11.112
▁খেজুর	-11.1121
িনী	-11.1123
▁বকুল	-11.1123
▁রেলপথ	-11.1123
▁পত্রিকায়	-11.113
▁সরবরাহকারী	-11.1132
▁হর	-11.1132
▁কান্না	-11.1136
▁তিনবার	-11.1138
গুলিকে	-11.114
▁গোলাগুলি	-11.114
লন	-11.1143
▁তেহরান	-11.1147
▁লেভেল	-11.1147
▁চলন্ত	-11.1147
ers	-11.1147
▁মূল্যবান	-11.115
রুম	-11.1153
di	-11.1154
কস	-11.1156
▁সমৃদ্ধি	-11.1156
▁মেতে	-11.1156
িকে	-11.1157
▁শেরপুরে	-11.116
▁দখলের	-11.1162
▁সাহেদ	-11.1164
সমূহের	-11.1164
▁তাক	-11.1166
▁বন্ধুত্ব	-11.1166
▁উন	-11.117
দিকে	-11.1171
▁সংঘের	-11.1171
▁স্প্রে	-11.1174
▁শুষ্ক	-11.1174
▁বশির	-11.1174
▁কণ্ঠশিল্পী	-11.1175
▁পালনে	-11.1176
স্তি	-11.1179
▁মুহূর্তের	-11.1181
▁মানবতার	-11.1184
▁ব্যানার	-11.1189
▁নদ	-11.1189
▁আড়াইটা	-11.1191
▁ব্যাঙ্ক	-11.1191
▁সিগারেট	-11.1195
▁শিবিরের	-11.1195
▁জামিল	-11.1199
▁সাজঘরে	-11.1201
ইন্না	-11.1201
▁পারিশ্রমিক	-11.1201
▁ক্ষেত্রেও	-11.1201
▁আবৃত্তি	-11.1202
▁বসবাসরত	-11.1202
▁একদম	-11.1203
▁উচ্চশিক্ষা	-11.1204
▁ঘাম	-11.1205
▁সিঙ্গাপুরে	-11.1206
▁হাম	-11.1208
▁Banglar	-11.121
▁দাউদ	-11.1218
রচর	-11.122
▁ঘরবাড়ি	-11.1221
রুপ	-11.1222
োপ	-11.1225
▁শিরীন	-11.1228
▁মুখার্জি	-11.1228
▁কবলিত	-11.1228
▁স্পট	-11.1229
▁COVID	-11.1233
▁প্রাঙ্গনে	-11.1237
▁যেটি	-11.1237
▁ফুটে	-11.1238
▁বাস্তবে	-11.1238
▁ক্যাটাগরিতে	-11.124
▁প্রকাশক	-11.1246
ভো	-11.1247
▁সাইটে	-11.1249
▁বর্ষা	-11.1251
▁দমকল	-11.1253
¤	-11.1255
▁মেহেদি	-11.1255
▁ইউনুস	-11.1255
▁সর্দি	-11.1256
জীবন	-11.1256
▁শিল্পীদের	-11.1257
▁ইয়ার	-11.126
▁নর	-11.1262
▁রাখছেন	-11.1263
▁টিটু	-11.1268
শিশু	-11.1269
▁পারলেও	-11.127
▁নিষ্পত্তি	-11.1273
ন্টি	-11.1275
▁গোয়াল	-11.1277
স্বাস্থ্য	-11.1277
▁বুলেট	-11.1282
▁পাউন্ড	-11.1282
▁মোহাম্মাদ	-11.1282
▁ফ্রন্ট	-11.1287
#	-11.1288
▁নিয়েছিল	-11.1288
পাক	-11.1291
▁বিষয়ের	-11.1291
লির	-11.1291
▁পরিচয়ে	-11.1295
▁ওয়ার্ক	-11.1296
▁ব্লু	-11.1297
▁আনেন	-11.1298
▁ফাহাদ	-11.1299
▁ফলের	-11.1302
▁ব্যবসায়িক	-11.1305
▁ছুরিকাঘাত	-11.1309
▁ইজিবাইক	-11.1309
▁জনপদ	-11.1311
▁আহাদ	-11.1314
▁লাইনের	-11.1319
▁আলেম	-11.1321
তাই	-11.1321
▁দুইদিন	-11.1325
▁এমডি	-11.1325
▁ডাক্তারের	-11.1326
ধর	-11.1328
রান	-11.1331
▁স্পিন	-11.1333
▁নিবিড়	-11.1334
▁ফিল্ড	-11.1335
▁তৎপর	-11.1335
▁খনন	-11.1336
▁ধূমপান	-11.1337
▁বসেছে	-11.134
▁সমূহ	-11.1342
de	-11.1344
▁বিএম	-11.1345
▁অনুশীলনে	-11.1351
▁বৃদ্ধের	-11.1355
▁তিস্তা	-11.1356
▁হুইপ	-11.1364
▁কাদির	-11.1365
▁সাতজন	-11.1366
▁বিনিয়োগের	-11.1367
▁গঠনে	-11.1369
▁নীলফামারীর	-11.1369
▁হাতির	-11.137
▁বিড়াল	-11.1373
▁পিসি	-11.1374
▁গল্পে	-11.1375
▁তালেবানের	-11.1376
▁সমতা	-11.138
▁সোসাইটির	-11.1382
▁বিজয়ীদের	-11.1385
▁হৃদরোগ	-11.1388
▁পেরেছে	-11.1389
▁প্রশাসনকে	-11.139
▁তাজা	-11.139
▁মেডিকেলে	-11.139
▁আলামত	-11.1392
স্থল	-11.1393
▁সঙ্গেও	-11.1393
▁উপকারিতা	-11.1395
▁Re	-11.1395
▁কসবা	-11.1396
▁Ma	-11.1398
▁প্রত্যেককে	-11.14
চিত্র	-11.1403
বাছাই	-11.1405
▁দুনিয়ায়	-11.1409
▁বঙ্গোপসাগর	-11.1418
▁ময়মনসিংহে	-11.1419
▁জিল্লুর	-11.1419
▁টোকিও	-11.1419
▁পিসিআর	-11.142
▁জন্মের	-11.1421
▁কোম্পানীগঞ্জ	-11.1421
▁পরিকল্পনার	-11.1421
▁আর্মি	-11.1427
▁আলহাজ	-11.1427
▁১৬টি	-11.143
▁সেলিমের	-11.1434
▁জঙ্গিদের	-11.1443
▁রেফারি	-11.1443
▁জাম	-11.1447
▁উত্তপ্ত	-11.1447
▁নাটোরে	-11.1449
▁বিল্লাহ	-11.145
▁আভাস	-11.1451
▁বাবদ	-11.1451
▁প্রসাদ	-11.1453
▁সমমানের	-11.1454
▁জেএমবি	-11.1454
▁প্রসব	-11.1456
Y	-11.1459
আন্তর্জাতিক	-11.146
এসডি	-11.1462
▁রানার	-11.1463
▁ছাতক	-11.1465
▁ওবামা	-11.1468
▁প্রথমার্ধে	-11.1468
▁নেয়নি	-11.1471
▁শ্বাস	-11.1471
▁নওয়াজ	-11.1475
▁Print	-11.1475
▁সংস্পর্শে	-11.1475
▁মালিকানাধীন	-11.1475
▁ডিউটি	-11.1475
▁ব্যাহত	-11.1475
▁আলাপকালে	-11.1476
▁ভেজাল	-11.1479
রযাব	-11.148
ধু	-11.148
কর্ম	-11.1482
▁যশ	-11.1484
▁ইম	-11.1489
প্রকাশ	-11.1489
▁পরিবেশের	-11.1492
▁চড়ে	-11.1493
▁চারজনের	-11.1494
▁তাজ	-11.1496
▁প্রশিক্ষণের	-11.1497
▁মনোভাব	-11.1497
▁গুম	-11.1498
▁জামালপুরের	-11.1499
ment	-11.15
▁প্রত্যেকটি	-11.15
▁সমাধি	-11.1502
▁লেফটেন্যান্ট	-11.1503
▁উপার্জন	-11.1503
▁অভিহিত	-11.1503
▁জিজ্ঞাসা	-11.1505
▁বৃহৎ	-11.1506
▁ঘটেনি	-11.1506
ানী	-11.1509
▁এখানকার	-11.151
▁হেরেছে	-11.1512
▁মৃদু	-11.1512
▁সংসারে	-11.1515
▁নেব	-11.1516
▁Sun	-11.1517
▁জাজিরা	-11.1518
▁বাদে	-11.1518
▁কলম	-11.1523
▁শিমুলিয়া	-11.1523
▁গনি	-11.1529
▁মহলে	-11.1532
▁ওমরাহ	-11.1532
▁উচ্চতা	-11.1532
▁খাতা	-11.1533
▁ডাকে	-11.1535
▁হবিগঞ্জে	-11.1535
▁মিলছে	-11.1536
▁চায়না	-11.1536
▁Coxsbazar	-11.1537
দশ	-11.1538
▁আর্কাইভ	-11.1538
▁হিল	-11.154
▁প্রত্যক্ষ	-11.1543
একটি	-11.1544
ছিলো	-11.1544
উত্তর	-11.1545
▁কীর্তি	-11.1545
ানি	-11.1548
▁ঃ	-11.1549
▁নির্মান	-11.155
▁অংশগ্রহন	-11.1553
▁ঢামেক	-11.1554
▁আশার	-11.1554
▁কৃষিমন্ত্রী	-11.1554
▁কোষ	-11.1556
▁পাইপ	-11.1557
▁টেকনিক্যাল	-11.1559
▁ত্রিদেশীয়	-11.1559
▁Hour	-11.1559
▁মধ্যদিয়ে	-11.1559
▁ভাঙার	-11.1559
▁আতিক	-11.1561
▁ভুগছেন	-11.1563
▁ভঙ্গ	-11.1564
▁মিথিলা	-11.157
নেস	-11.1573
▁মাধবপুর	-11.1574
▁লাউ	-11.1575
▁স্কোয়াডে	-11.1581
▁ঠিকই	-11.1582
অর	-11.1585
ম্বা	-11.1585
লাইন	-11.1586
▁ইমতিয়াজ	-11.1587
▁দ্বিতীয়ার্ধে	-11.1587
▁যন্ত্রপাতি	-11.1587
▁ইমেজ	-11.1587
▁রাসেলের	-11.1588
▁মুহিত	-11.1588
▁বেঞ্চে	-11.1593
▁উড়োজাহাজ	-11.1595
▁প্রচারের	-11.1595
▁রাউন্ডে	-11.1596
▁ফোর	-11.1598
ারী	-11.1599
▁প্রার্থীকে	-11.16
▁দেখানোর	-11.1604
▁প্রস্তাবে	-11.1605
▁>>	-11.1608
ধারা	-11.1609
▁সাভারের	-11.1611
▁৭টা	-11.1613
▁পাঠদান	-11.1614
▁সন্তোষ	-11.1615
▁মিডফিল্ডার	-11.1615
তল	-11.1615
▁ফেটে	-11.1616
▁আধিকারিক	-11.1616
▁নবজাতক	-11.1618
▁করানোর	-11.1619
▁টানে	-11.162
▁বিক্রম	-11.1621
দেব	-11.1625
▁টাউন	-11.1625
▁লড়াইয়ের	-11.1627
X	-11.1629
▁টোল	-11.1631
▁জামা	-11.1632
▁বরফ	-11.1634
▁যাপন	-11.1635
কৃ	-11.1636
▁সাভারে	-11.1636
▁ধার	-11.1637
▁পোষ্ট	-11.1638
▁আদেশের	-11.164
▁মূলক	-11.164
▁Jul	-11.1643
▁ইদ্রিস	-11.1643
▁খেতাব	-11.1644
▁নাতি	-11.1645
▁কৃতিত্ব	-11.1646
▁মুক্তিযুদ্ধে	-11.1652
▁বন্ধন	-11.1652
▁প্রাক	-11.1652
▁Voice	-11.1653
রিন	-11.1654
▁বন্দী	-11.1656
▁চাঁদপুরে	-11.1657
▁বার্সার	-11.1657
দ্বীপ	-11.1658
▁হাওর	-11.1659
▁অবমুক্ত	-11.166
man	-11.166
র্জ	-11.1661
▁কাতারে	-11.1663
▁w	-11.1665
বদ্ধ	-11.1666
▁পটুয়াখালীর	-11.1666
▁ব্যাপকভাবে	-11.1669
ah	-11.1669
а	-11.1672
▁সংহতি	-11.1672
▁কোস্টগার্ড	-11.1672
▁চান্দিনা	-11.1672
▁মাজার	-11.1672
ent	-11.1674
▁অন্যরকম	-11.1674
▁সোজা	-11.1674
▁ট্রাইব্যুনালের	-11.1676
▁বেগে	-11.1678
▁মোল্যা	-11.1678
খানা	-11.168
▁ডিফেন্ডার	-11.1681
▁কিশোরের	-11.1682
▁ফারহানা	-11.1683
▁ভিশন	-11.1684
▁প্রতিষ্ঠানগুলো	-11.1685
▁ইয়র্ক	-11.1686
▁ক্ষেত	-11.1689
ণের	-11.1692
▁বিয়ানীবাজার	-11.17
▁হ্যাটট্রিক	-11.17
▁রোপন	-11.1701
▁চাঁদাবাজি	-11.1701
যোগ	-11.1702
um	-11.1702
▁অবরুদ্ধ	-11.1702
▁১৪টি	-11.1708
▁প্রসেসর	-11.172
ni	-11.1721
▁মর্তুজা	-11.1728
▁মোস্তাক	-11.1729
▁ওয়াসিম	-11.1729
▁শচীন	-11.1729
▁বুয়েট	-11.173
▁ব্য	-11.1731
ity	-11.1737
▁প্রজ্ঞাপনে	-11.174
▁ফাহিম	-11.1741
▁তৌহিদ	-11.1741
▁কিউ	-11.1741
শূন্য	-11.1742
▁এদেশের	-11.1746
িট	-11.1751
▁বিতরণী	-11.1753
▁টেলিভিশনে	-11.1753
▁লেবুর	-11.1754
▁নিউজকে	-11.1754
▁মওদুদ	-11.1757
▁সংযোজন	-11.1757
▁সিসিটিভি	-11.1757
▁হজরত	-11.1758
গর	-11.1762
▁জেলেদের	-11.1762
▁প্রতিহত	-11.1762
কিন	-11.1765
িচ	-11.1765
াগার	-11.1768
▁লোকজনকে	-11.1771
মুল	-11.1773
▁লোকেরা	-11.1782
▁সেসময়	-11.1783
▁বিজেপিতে	-11.1788
িরা	-11.179
তন্ত্র	-11.179
▁রাখাইন	-11.1791
▁নির্মল	-11.1793
▁৫০টি	-11.1797
▁দেহের	-11.1798
▁বিউটি	-11.1798
▁পিবিআই	-11.1801
▁শার্শা	-11.1802
▁বাংলানিউজকে	-11.1807
সূত্র	-11.1808
▁লিফলেট	-11.1814
▁রউফ	-11.1814
্ন	-11.1818
▁বেপরোয়া	-11.182
▁সংঘাত	-11.1824
পাকিস্তান	-11.1824
▁মাস্টার্স	-11.1827
▁গৌরীপুর	-11.1827
ফাত	-11.1829
নিউজ২৪	-11.183
▁লাইভে	-11.183
▁আমিও	-11.1832
দিক	-11.1836
ধান	-11.1836
▁ঐক্যফ্রন্ট	-11.1837
▁পৌঁছান	-11.1841
▁মাঝেই	-11.1843
▁ন্যূনতম	-11.1843
▁পূর্বকোণ	-11.1843
▁বাইপাস	-11.1843
▁ক্রিকেটারের	-11.1846
▁চালকদের	-11.1846
▁বাহিরে	-11.1847
▁মার্কেটিং	-11.1849
▁বগি	-11.1851
▁শুনানিতে	-11.1852
সুর	-11.1853
▁বায়ো	-11.1853
পন্থী	-11.1855
ম্ভ	-11.1855
ist	-11.1858
▁জার্সিতে	-11.1861
▁বিবাহিত	-11.1862
▁পরিচালকের	-11.1863
▁বাহিনীকে	-11.1863
▁৩০টি	-11.1864
▁আহতরা	-11.1864
▁সন্তুষ্ট	-11.1867
ক্রি	-11.1868
▁মৌখিক	-11.187
▁চিন্তিত	-11.1872
▁উচ্চারণ	-11.1872
▁অগ্নিসংযোগ	-11.1872
▁রেলের	-11.1875
▁পাল্লা	-11.1877
▁নিরব	-11.1878
বাজারে	-11.1881
▁আজহা	-11.1882
▁ধু	-11.1882
▁সিরিয়ায়	-11.1884
▁১৬০	-11.1885
▁নিয়ন্ত্রন	-11.1886
তাম	-11.1887
▁রোগীকে	-11.1888
▁ল্যা	-11.1891
▁জনগোষ্ঠীর	-11.19
▁Wednesday	-11.1901
▁প্রণব	-11.1901
▁প্রজনন	-11.1901
▁পুরষ্কার	-11.1901
▁গণস্বাস্থ্য	-11.1902
▁ক্ষুধা	-11.1902
▁৩য়	-11.1903
▁বিচ্ছেদের	-11.1904
▁গোলটি	-11.1904
▁মাহফুজ	-11.1904
ক্ল	-11.1905
▁পুন	-11.1908
▁সোম	-11.1909
▁ড্রাইভ	-11.1911
তক	-11.1913
▁প্রভাত	-11.1918
▁একাউন্ট	-11.1919
▁সাইদুল	-11.192
মস	-11.192
সার্স	-11.1921
▁রাখছে	-11.1923
নেতা	-11.1923
ানা	-11.193
▁সেবক	-11.193
▁মাগফেরাত	-11.193
▁সোহরাব	-11.193
▁বঙ্গমাতা	-11.193
নামা	-11.1931
▁কারেন্ট	-11.1931
▁সভানেত্রী	-11.1932
▁বিলের	-11.1933
▁হয়েই	-11.1934
▁রাজপথে	-11.1936
▁নামকরণ	-11.194
▁বয়	-11.1942
▁জাসদ	-11.1943
▁খুঁটি	-11.1943
▁দৌলতদিয়া	-11.1944
▁জগতের	-11.1947
▁মালদা	-11.195
▁বাড়ীর	-11.195
▁Mar	-11.1952
দহ	-11.1952
▁আকস্মিক	-11.1954
▁ডিভিশন	-11.1954
ang	-11.1954
োদ	-11.1957
মেয়ে	-11.1957
▁বিক্ষুব্ধ	-11.1959
▁ওয়েবডেস্ক	-11.196
▁পোড়া	-11.196
▁গাইবান্ধায়	-11.1961
▁নির্যাতিত	-11.1962
বেদ	-11.1963
▁Entertainment	-11.1963
▁ইভিএম	-11.1963
চক	-11.1965
লিং	-11.1966
ওয়াল	-11.1966
▁পলি	-11.197
ya	-11.1972
▁শিখ	-11.1978
▁আত	-11.1978
▁অনেকেরই	-11.198
াজ	-11.1982
▁ঝড়ে	-11.1984
▁ক্লিনিকে	-11.1986
▁ডিলার	-11.1986
▁মাদ্রিদের	-11.1987
▁নল	-11.1988
▁সাদ্দাম	-11.1989
▁অগ্রসর	-11.1989
▁এক্সক্লুসিভ	-11.1989
▁ইবাদত	-11.1989
▁হাতেনাতে	-11.1989
▁সাইফুর	-11.1993
▁ব্রাহ্মণবাড়িয়ায়	-11.1993
▁জুলাইয়ে	-11.1994
▁১৪০	-11.1994
করা	-11.1995
▁শতক	-11.1995
▁শুয়ে	-11.1997
▁তোমরা	-11.1998
▁চারপাশে	-11.2
▁ফিরেছে	-11.2
▁কোয়ারেন্টাইন	-11.2004
সুবিধা	-11.2004
▁ডেক্স	-11.2005
দক্ষিণ	-11.2005
▁বিপিএলে	-11.2006
ব্যাপারে	-11.2007
▁আমাদেরকে	-11.2007
ER	-11.2011
▁এয়ারলাইন্স	-11.2013
চল	-11.2014
▁তেজগাঁও	-11.2015
▁ক্ষিপ্ত	-11.2018
▁বাঁহাতি	-11.2018
▁অলআউট	-11.2018
▁অস্ট্রেলিয়ায়	-11.2018
Four	-11.2019
▁নিম	-11.2019
▁বিঘা	-11.202
▁সংবাদমাধ্যমের	-11.2021
ক্সি	-11.2023
▁প্রতিনিধিরা	-11.2025
▁লক্ষ্মী	-11.2026
▁রেখেছিলেন	-11.2033
দৈনিক	-11.2036
▁দফতরে	-11.2038
▁অক্টোবরে	-11.204
▁অক্সফোর্ড	-11.2042
▁সাহায্যের	-11.2043
▁নৌবাহিনী	-11.2046
▁কাঠের	-11.2046
▁রীতি	-11.2047
▁নরসিংদীর	-11.2047
▁মুর্তজা	-11.2047
▁ক্রমাগত	-11.2047
টায়	-11.205
▁নাইক্ষ্যংছড়ি	-11.205
▁মহকুমা	-11.2052
▁মুন্সিগঞ্জ	-11.2052
▁বাজ	-11.2054
▁২০০৬	-11.2058
▁কামার	-11.206
▁১৩০	-11.2061
▁ট্যাংক	-11.2067
মূল্য	-11.2068
▁আত্মবিশ্বাস	-11.207
▁বিটিআরসি	-11.2072
▁ডাই	-11.2074
▁স্যা	-11.2074
▁এনডিটিভি	-11.2075
ট্রা	-11.2076
▁খুচরা	-11.2077
▁মুস্তাফিজুর	-11.2078
▁প্রজাতন্ত্র	-11.2079
▁পড়লেন	-11.2081
▁এএসপি	-11.2083
ষে	-11.2084
▁স্থল	-11.2086
▁২০০৪	-11.2088
▁হৃদয়ে	-11.209
নীতি	-11.209
▁রায়গঞ্জ	-11.2091
▁সোহান	-11.2091
▁নেতৃবৃন্দের	-11.2095
▁সর্বদা	-11.2095
▁সেনার	-11.2097
▁সেপ্টেম্বরে	-11.2098
▁মুন্সীগঞ্জের	-11.2098
▁মানি	-11.2099
▁নামছে	-11.2099
▁পরস্পর	-11.21
▁রইল	-11.21
▁প্রচেষ্টায়	-11.2101
▁তাপ	-11.2101
▁ঘোড়া	-11.2103
▁মুন্সী	-11.2106
▁শ্রীনগর	-11.2106
চ্ছেন	-11.2107
▁দুঃখজনক	-11.2107
▁আবাদ	-11.2107
▁আতিকুর	-11.2108
▁অভ্যন্তরে	-11.2109
র্ড	-11.2109
▁স্বাস্থ্যকর্মী	-11.2111
শিয়া	-11.2112
্লি	-11.2112
▁প্যারিস	-11.2114
প্রাণ	-11.2122
▁যোগাযোগমাধ্যম	-11.2123
ৃত	-11.2123
▁সাংবাদিকতা	-11.2123
▁খাট	-11.2124
▁এতটাই	-11.2124
▁কাটাকাটি	-11.2126
▁মতিঝিল	-11.2127
মতো	-11.2128
▁৫ম	-11.2132
বিদেশের	-11.2132
▁পূর্ণিমা	-11.2135
▁দুইজনের	-11.2135
▁অত	-11.2135
▁সর্ববৃহৎ	-11.2136
▁শারদীয়	-11.2137
▁নির্মূল	-11.2137
▁নাকচ	-11.2137
▁মিটিং	-11.2141
▁সঙ্গীয়	-11.2141
▁কর্পোরেট	-11.2141
▁বিপজ্জনক	-11.2142
▁আওয়াজ	-11.2142
▁বকর	-11.2145
▁নির্দেশিকা	-11.2149
▁বর্ষণ	-11.215
▁রেঞ্জের	-11.2153
▁নোয়াখালীতে	-11.2153
▁স্ট্যান্ড	-11.2154
▁শান্তির	-11.2155
▁বাচ্চাদের	-11.2156
ডিএমপি	-11.2156
দেশে	-11.2159
▁বছরই	-11.2162
▁প্রয়োজনীয়তা	-11.2162
▁আদি	-11.2169
▁লুইস	-11.2169
▁লিভার	-11.217
▁স্টোরেজ	-11.2172
▁জুনে	-11.2172
▁সর্বত্র	-11.2172
▁ফর্ম	-11.2172
▁গঙ্গা	-11.2173
▁খুঁজতে	-11.2174
▁প্রক্রিয়ার	-11.2174
প্রযুক্তি	-11.2178
▁পটিয়া	-11.2179
▁আর্থ	-11.2179
▁মরিয়া	-11.218
▁অত্র	-11.2181
▁উপমন্ত্রী	-11.2185
▁বুদ্ধি	-11.2185
▁পুজোর	-11.2186
▁ব্যাক্তি	-11.2191
মন্ত্রীর	-11.2193
▁সিংড়া	-11.2194
▁Twenty	-11.2196
▁রেমিট্যান্স	-11.2196
▁লিল্লাহি	-11.2196
▁সৃজিত	-11.2196
▁গৃহকর্মী	-11.2196
▁নেতৃত্বের	-11.22
শেখ	-11.22
▁নওগাঁয়	-11.22
কর্মচারীদের	-11.2201
▁দূত	-11.2202
▁মারে	-11.2202
াচ্ছে	-11.2202
▁পাইনি	-11.2203
▁সুযোগে	-11.2206
▁শেয়ারের	-11.2207
▁পূর্বাঞ্চল	-11.2208
▁হাজি	-11.2208
্সের	-11.2216
▁কাপে	-11.2216
▁আবিদ	-11.2217
▁সেভাবে	-11.2217
▁মোটেও	-11.2219
▁টেবিলে	-11.222
▁একাংশ	-11.2222
▁রাশি	-11.2222
▁বেলায়	-11.2223
▁মিলিমিটার	-11.2226
▁ঢেকে	-11.2226
▁যুদ্ধবিমান	-11.2226
▁শুভেন্দু	-11.2226
কান্দা	-11.2227
▁ছোঁয়া	-11.2227
▁আমানত	-11.2227
▁অনুবাদ	-11.2228
▁জেতার	-11.2229
▁বিল্ডিং	-11.2239
▁সকালের	-11.224
▁গোলাপ	-11.2245
লেই	-11.2246
▁অনেকগুলো	-11.225
▁৭০০	-11.2254
ানু	-11.2255
▁আশ্বিন	-11.2256
▁থামিয়ে	-11.2256
▁আইটেম	-11.2256
▁ক্রেতারা	-11.2256
▁সুফল	-11.2258
▁শেখের	-11.2259
▁পরিণতি	-11.226
ণে	-11.2264
▁লাগা	-11.2267
▁ধারে	-11.2271
ঝা	-11.2274
▁মান্দা	-11.2274
▁বুদ্ধিজীবী	-11.2275
▁ডন	-11.2281
▁উপনির্বাচনে	-11.2283
ভু	-11.2285
▁ইনকিলাব	-11.2286
▁বাউন্ডারি	-11.2286
▁মকবুল	-11.2286
▁পরিধান	-11.2286
ীরা	-11.2287
▁পশ্চিমা	-11.2289
▁একটাই	-11.229
▁খুললেন	-11.2291
▁রাব্বানী	-11.2291
▁ওয়াটার	-11.2291
▁প্রাতিষ্ঠানিক	-11.2293
▁চক	-11.2296
▁সামাল	-11.2296
▁ক্রমেই	-11.2297
▁v	-11.2299
▁হারান	-11.2301
মিয়া	-11.2302
▁সুমি	-11.2304
বন্দুকযুদ্ধে	-11.2306
▁সাজে	-11.2308
▁গ্র্যান্ড	-11.2308
▁সম্মত	-11.231
মেলা	-11.231
খান	-11.2313
▁ককটেল	-11.2316
▁Download	-11.2318
ب	-11.2319
▁ইউরোপে	-11.2323
▁পর্দার	-11.2324
শিল্পী	-11.2327
▁দাবির	-11.2327
per	-11.2328
▁থি	-11.2332
▁নিচ্ছি	-11.2333
▁তাতেই	-11.2335
▁মিনা	-11.2336
▁Pro	-11.2338
কির	-11.2341
্টার	-11.2341
▁Tuesday	-11.2346
ত্যু	-11.2349
▁রঙিন	-11.2351
গ্ন	-11.2353
▁ঘেরাও	-11.2356
▁বাস্তবতা	-11.2357
▁দূর্ঘটনায়	-11.2358
বায়	-11.2359
▁জনসাধারণের	-11.2362
▁আইকন	-11.2363
▁নু	-11.2365
▁সহিংসতার	-11.2366
▁জানাচ্ছেন	-11.2366
▁ঝুলিয়ে	-11.2367
▁খালেদার	-11.2369
▁মাইক্রোবাস	-11.237
▁দাদা	-11.2371
▁যোগদানের	-11.2371
▁সূর্যের	-11.2374
и	-11.2377
kantho	-11.2377
▁প্রভৃতি	-11.2377
▁বায়ার্ন	-11.2377
▁শৈত্যপ্রবাহ	-11.2377
▁মেডিসিন	-11.2377
▁সংঘবদ্ধ	-11.2377
▁খায়	-11.2378
▁পর্তুগাল	-11.2378
▁Off	-11.2382
▁উত্তোলনের	-11.2383
▁পেস	-11.2383
▁মান্না	-11.2384
▁প্রচারণায়	-11.2384
▁রমজানের	-11.2386
▁হয়েছেঃ	-11.239
▁বিতর্কে	-11.2392
▁কারাগারের	-11.2393
ডেস্ক	-11.2393
▁চক্ষু	-11.2396
▁লজ্জা	-11.2396
▁আক	-11.24
াবে	-11.2401
▁হাটে	-11.2402
▁ক্ষত	-11.2404
▁দেই	-11.2405
▁শীষ	-11.2406
▁মানুষজন	-11.2406
е	-11.2407
▁পরিবহণ	-11.2407
▁আরেফিন	-11.2407
▁রবার্ট	-11.2407
▁অপকর্ম	-11.2407
▁ওড়না	-11.2408
ig	-11.2408
▁পাহাড়ে	-11.2409
▁ফেব্রুয়ারিতে	-11.2412
▁লেনদেনে	-11.2413
▁বেগমকে	-11.2415
▁সিরিয়া	-11.2415
মহা	-11.2416
▁প্যাক	-11.2417
শের	-11.2417
▁সময়টা	-11.2417
▁দেড়টা	-11.2418
▁মূ	-11.2424
৬২	-11.2424
▁মাইকিং	-11.2425
৬৯	-11.2426
▁প্রত্যেকের	-11.2426
▁অসুস্থতা	-11.243
▁পরিচ্ছন্ন	-11.2431
্বা	-11.2433
▁গোপালপুর	-11.2434
ভিন	-11.2436
ঙ্গে	-11.2437
▁রিজেন্ট	-11.2438
▁অনৈতিক	-11.2438
▁জাজ	-11.2441
▁জান্নাতুল	-11.2442
▁মন্ত্রনালয়	-11.2442
▁ধৈর্য	-11.2442
▁অ্যালবাম	-11.2443
▁প্রতিযোগী	-11.2444
▁বৈজ্ঞানিক	-11.2446
▁আরিয়ান	-11.2448
▁চিৎকারে	-11.2448
▁পূর্বের	-11.2452
▁শাল	-11.2453
▁বন্ড	-11.246
▁দ্রুতই	-11.2461
▁বাড়িতেই	-11.2461
▁দণ্ড	-11.2463
▁চেতনা	-11.2464
▁মশার	-11.2465
খো	-11.2467
▁বলবেন	-11.2468
▁বৃক্ষরোপণ	-11.2468
▁অবিশ্বাস্য	-11.2469
▁অসুখ	-11.2469
▁রসায়ন	-11.2469
▁ব্রিটেন	-11.2471
▁ট্রাকে	-11.2473
▁সেইসঙ্গে	-11.2473
ঙ্গু	-11.2475
▁আফ	-11.2479
ভারতীয়	-11.2482
▁গ্যা	-11.2482
▁হায়াত	-11.2485
▁আমের	-11.2487
▁ভালুকা	-11.2487
▁বিসিএসের	-11.2488
পুকুর	-11.2488
▁ঘি	-11.249
▁ব্যর্থতার	-11.249
ইউপি	-11.2493
▁ডিফেন্স	-11.2498
▁অশোক	-11.2499
▁হাবীব	-11.2499
▁অর্থনীতিতে	-11.25
▁রেসিপি	-11.25
▁সাবিনা	-11.25
▁জানাগেছে	-11.2501
▁মালিকানা	-11.2501
▁যানবাহনের	-11.2504
▁কালী	-11.2505
▁মরদেহটি	-11.2505
▁বিষয়টা	-11.2505
▁সিমেন্ট	-11.2505
▁ফিলিস্তিন	-11.2507
▁কর্মস্থলে	-11.2508
▁জং	-11.2508
▁অ্যাপস	-11.2509
▁ব্রেক	-11.2509
▁পাবনায়	-11.251
▁অন্তর	-11.2516
বিজ্ঞান	-11.2521
▁বাক্স	-11.2523
▁নিচ	-11.2525
▁মাদকাসক্ত	-11.253
▁আওতাধীন	-11.253
▁জুনায়েদ	-11.2531
▁রুজু	-11.2532
▁করুক	-11.2532
▁বসার	-11.2533
▁প্যান্ট	-11.2534
হত	-11.2536
▁শ্যামনগর	-11.2537
▁যতটা	-11.2539
▁চাঁদের	-11.2543
▁সেটাও	-11.2545
▁ال	-11.2545
▁বিজ	-11.2546
vi	-11.2546
াকে	-11.2547
▁Jun	-11.2551
▁ফাইনালের	-11.2553
মারি	-11.2555
▁ইউক্রেন	-11.2557
▁১১০	-11.2559
▁তাহিরপুর	-11.256
ভী	-11.2561
▁মজুত	-11.2561
▁প্রকাশে	-11.2561
▁হাইস্কুল	-11.2562
▁খেলেছে	-11.2562
▁গুদাম	-11.2562
▁গোয়াইনঘাট	-11.2564
▁ঘু	-11.2565
▁মারামারি	-11.2565
৬৭	-11.2568
দ্ব	-11.2568
▁বৈধতা	-11.2568
▁গরমে	-11.257
▁অন্যত্র	-11.257
▁বন্ধুরা	-11.257
▁সমাপ্তি	-11.2572
▁হ্যাক	-11.2576
▁আসামীদের	-11.258
▁অস্ট্রেলিয়ান	-11.2581
▁সৈন্য	-11.2582
▁কথাই	-11.2582
▁পরীক্ষার্থীদের	-11.2583
ba	-11.2586
ব্যবস্থা	-11.2587
▁ক্যাপশনে	-11.2588
▁ফুটবলে	-11.2588
▁অটোরিক্সা	-11.2592
▁ভয়ংকর	-11.2592
▁ভূষিত	-11.2592
▁আগ্রাসন	-11.2593
▁ব্রাজিলিয়ান	-11.2593
▁ব্যবহারকারীর	-11.2594
▁কাপুরের	-11.2595
▁ক্ষেত্রেই	-11.2597
▁কনে	-11.2599
▁আক্রমণে	-11.2603
▁ছাড়ে	-11.2608
▁কিছুতেই	-11.261
▁আমা	-11.2611
▁খোদ	-11.2611
▁ইস্ট	-11.2612
▁১৮টি	-11.2612
তথ্য	-11.2616
▁অশ্লীল	-11.2618
▁রেস্টুরেন্ট	-11.2618
▁কনফারেন্সে	-11.2619
ফু	-11.262
▁দেশবাসীর	-11.2621
▁বিএনপিকে	-11.2622
▁শ্যাম	-11.2622
▁সুইজারল্যান্ড	-11.2623
▁প্রত্যন্ত	-11.2624
▁লেক	-11.2624
▁ঐশ্বরিয়া	-11.2628
▁প্রতিবেদকঃ	-11.2632
▁সম্প্রীতি	-11.2633
▁তারিখের	-11.2636
▁সফলতার	-11.2636
▁দীপক	-11.2636
J	-11.2638
▁প্রভাবিত	-11.2639
▁কুড়িগ্রামে	-11.2642
▁পাতায়	-11.2643
▁বাদশাহ	-11.2644
টিসি	-11.2644
ঘাত	-11.2645
▁বালা	-11.2645
দুই	-11.2646
▁স্ক্রিন	-11.2647
ক্ট	-11.265
▁জঙ্গী	-11.2653
▁ভ্রমণের	-11.2654
▁বিজ্ঞ	-11.2655
▁দিনভর	-11.2655
▁অজ্ঞান	-11.2656
▁রানি	-11.2661
▁ক্রেডিট	-11.2661
বহ	-11.2663
▁জেরা	-11.2666
▁দম	-11.267
▁জেতা	-11.2671
▁আশ	-11.2672
▁অর্জনে	-11.2674
▁ধানমন্ডি	-11.2674
কালের	-11.2675
▁জন্মদিনের	-11.2684
▁খলিফা	-11.2686
▁New	-11.2687
ধন	-11.2687
▁গুটিয়ে	-11.2687
▁মইনুল	-11.2687
▁দর্পণ	-11.269
▁এমনিতেই	-11.2695
▁বেসরকারী	-11.2695
▁d	-11.2695
বাংলাদেশের	-11.2696
▁দ্বীপে	-11.2697
▁অভিমান	-11.2697
▁সাথী	-11.2697
▁টক	-11.2698
▁ভালোই	-11.2699
▁সেক্টর	-11.27
হাজ	-11.2702
▁শ্লোগান	-11.2703
সন্তান	-11.2705
▁ব্যবস্থায়	-11.2705
▁h	-11.2705
নীয়	-11.2706
▁মহি	-11.2707
গুণ	-11.2707
▁গেয়ে	-11.2708
▁মহানবী	-11.2709
সাম	-11.271
ত্য	-11.271
আউট	-11.2711
ফের	-11.2712
▁পাচারকারী	-11.2713
য়ারি	-11.2713
▁টার্মিনাল	-11.2714
▁you	-11.2715
▁অ্যাসিড	-11.2717
▁মাল্টিমিডিয়া	-11.2717
▁ট্রাক্টর	-11.2717
▁থাকুক	-11.2717
▁কভিড	-11.2718
▁খাগড়াছড়িতে	-11.272
▁খনিজ	-11.2722
▁তাগিদ	-11.2724
▁দাপট	-11.2732
ঁট	-11.2732
▁বেতার	-11.2734
▁পাগল	-11.2736
▁বসানোর	-11.2736
▁স্ট্রোক	-11.2738
সাগর	-11.2741
▁ওরা	-11.2742
▁সমাবেশের	-11.2742
▁প্রিয়া	-11.2742
▁গুলির	-11.2743
▁বিধবা	-11.2749
▁ভাবমূর্তি	-11.2749
▁জুনাইদ	-11.275
▁দক্ষিণাঞ্চল	-11.2753
ফোর্ড	-11.2754
▁সুন্দরবনে	-11.2755
▁আগস্টের	-11.2756
▁সিইসি	-11.2756
▁স্ট্রাইকার	-11.2757
▁ট্যাক্স	-11.2758
▁১৮০	-11.2758
▁শেরে	-11.2758
▁সন্ত্রাসবাদ	-11.2761
▁বাদাম	-11.2761
▁মন্তব্যের	-11.2764
▁অসীম	-11.2766
▁কেনাকাটা	-11.2769
▁শিরিন	-11.2769
চীন	-11.2769
▁স্থলবন্দর	-11.2772
▁bangladesh	-11.2772
▁মমতার	-11.2773
Coxsbazar	-11.2774
▁হরিণ	-11.2774
▁সন্ধানে	-11.2774
▁লোকদের	-11.2776
▁কাতারের	-11.2776
▁সৌমিত্র	-11.2781
▁অনির্দিষ্টকালের	-11.2781
▁বাঁচিয়ে	-11.2781
▁সমুদ্রবন্দর	-11.2781
▁সংবিধানের	-11.2781
▁মাষ্টার	-11.2784
▁ইডেন	-11.2784
▁বর্জন	-11.2784
▁কায়দায়	-11.2784
▁আবদ্ধ	-11.2785
▁টম	-11.2785
লান	-11.2786
ate	-11.2788
▁এসোসিয়েশনের	-11.279
bani	-11.2791
▁নবাব	-11.2793
▁অশান্তি	-11.2794
▁মানসিকভাবে	-11.2794
▁সংবাদমাধ্যমে	-11.2794
▁স্ট্র	-11.2797
টস	-11.28
বাসস	-11.28
▁ধারাবাহিকতা	-11.2801
হিত	-11.2805
▁যাবো	-11.2811
▁মন্ডলের	-11.2812
▁আশংকা	-11.2812
▁টেক্সটাইল	-11.2812
▁বনে	-11.2813
করণের	-11.2814
▁সেনাপ্রধান	-11.2814
▁বোলিংয়ে	-11.2823
▁হারুনু	-11.2825
▁ছড়ায়	-11.2825
▁মুস্তাফিজ	-11.2825
▁নিউজ২৪	-11.2827
হেল	-11.2828
▁তর	-11.2828
গ্রস্ত	-11.2829
▁জনস্বাস্থ্য	-11.2829
▁অর্ধশত	-11.283
▁সরবরাহের	-11.2831
স্কি	-11.2833
স্ট্র	-11.2833
▁সেক্স	-11.2834
▁মালি	-11.2837
▁আগস্টে	-11.2838
▁কলাপাড়া	-11.2841
▁তামিমের	-11.2843
▁ইন্সটিটিউট	-11.2844
▁চোরাচালান	-11.2844
▁রিক্সা	-11.2845
▁জয়লাভ	-11.2846
▁ক্ষেত্র	-11.2847
▁প্রেমিকার	-11.2847
র্ব	-11.2848
Northbengal	-11.2849
▁মধ্যবিত্ত	-11.2854
▁কিস্তি	-11.2856
▁শতকরা	-11.2856
▁জেড	-11.2858
▁আরেকজন	-11.2858
▁প্রতিনিধিদের	-11.2858
▁খোসা	-11.2861
▁বাইডেনের	-11.2864
সাল	-11.2865
▁মধ্যপ্রাচ্যের	-11.2866
বোন	-11.2869
ইড	-11.2873
চ্ছা	-11.2874
▁ইংল্যান্ডে	-11.2874
▁ফসলের	-11.2875
▁প্রাধান্য	-11.2876
▁ব্যানার্জি	-11.2876
▁ইভ্যালি	-11.2876
▁অস্কার	-11.2877
▁লালমোহন	-11.2877
▁হলরুমে	-11.2878
▁রাজ্যপাল	-11.288
▁হিসেবেও	-11.2882
▁ইইউ	-11.2883
▁উদ্যানে	-11.2885
▁ভরি	-11.2886
▁নিশ্চয়ই	-11.2887
▁আটজন	-11.2888
▁বিলে	-11.2892
▁মেয়রের	-11.2893
ুদ	-11.2893
▁নবাবগঞ্জ	-11.2895
▁ক্রস	-11.2898
▁ভবিষ্যত	-11.2899
খে	-11.2902
▁বইমেলা	-11.2903
ion	-11.2904
▁প্রতিশোধ	-11.2908
▁বিপণন	-11.2908
▁মধ্যপ্রদেশ	-11.2908
▁ভিজিট	-11.2908
ালী	-11.2908
▁More	-11.2908
▁রিপাবলিকান	-11.2909
▁প্রক্রিয়াধীন	-11.2909
▁নয়াপল্টনে	-11.2909
▁পেমেন্ট	-11.291
▁g	-11.291
▁ভালবাসা	-11.2915
▁মজুরি	-11.2916
▁দই	-11.2916
▁ব্রীজ	-11.2918
▁Khabor	-11.2919
▁হিসেব	-11.2921
▁মেটাতে	-11.2923
▁মর্মে	-11.2924
ড্র	-11.2925
▁r	-11.2925
▁করান	-11.2925
▁স্টিভ	-11.2925
▁টসে	-11.2926
▁বাড়ল	-11.2926
কুর	-11.2929
ব্ব	-11.293
▁ভার্চুয়ালি	-11.2934
▁বিভ্রান্তি	-11.2935
▁শীতার্ত	-11.294
▁শৈলকুপা	-11.294
▁ক্লাসে	-11.2942
▁আক্রমণের	-11.2942
▁উনার	-11.2944
▁জাত	-11.2945
▁বাল্য	-11.2945
যুদ্ধ	-11.2946
▁যেগুলো	-11.2954
স্টিক	-11.2958
▁নিউইয়র্কে	-11.2958
▁দ্রুততম	-11.2961
৬৮	-11.2963
▁দূর্ঘটনা	-11.2966
▁উহান	-11.2967
সিম	-11.2968
মোহন	-11.297
ভাবেই	-11.2971
▁সাপের	-11.2971
←	-11.2973
▁সাখাওয়াত	-11.2973
▁রিলিজ	-11.2973
▁জানালা	-11.2973
▁কাটছে	-11.2978
ভান	-11.2978
▁ফিরবেন	-11.2978
৮৮	-11.2982
▁বিরক্ত	-11.2983
▁অর্	-11.2983
▁অপশন	-11.2983
▁গোষ্ঠীর	-11.2984
▁সাদিয়া	-11.2985
▁কালা	-11.2986
▁প্রবাসীরা	-11.2986
▁উদ্ধারে	-11.2988
▁সাজু	-11.2989
▁পার্টিতে	-11.2991
▁যন্ত্রণা	-11.2993
▁আমল	-11.2996
▁All	-11.2998
▁প্রতিনিধিত্ব	-11.2999
টিং	-11.3
▁প্রতিভা	-11.3001
দায়	-11.3002
িপ	-11.3003
▁First	-11.3005
▁জিম্মি	-11.3005
▁বিষয়বস্তু	-11.3005
াহ	-11.3006
▁ধাওয়ান	-11.3007
▁পুঁজি	-11.3007
▁ঢালিউড	-11.301
▁ঢাকাগামী	-11.301
▁৪র্থ	-11.3016
▁কণ্ঠে	-11.3016
মূল	-11.3016
গেট	-11.3017
▁মাহবুবুল	-11.302
▁পর্ষদের	-11.3023
বার্গ	-11.3025
▁মহেন্দ্র	-11.3029
▁নিয়ন্ত্রণের	-11.303
▁পিরোজপুরের	-11.3031
▁প্রশংসায়	-11.3033
▁অসাধু	-11.3037
▁ফাল্গুন	-11.3037
নতুন	-11.3039
▁মিছিলটি	-11.3043
তির	-11.3044
▁উপপরিচালক	-11.3045
▁পারাপার	-11.3045
নারী	-11.3045
▁অতীতে	-11.3045
▁লোকসান	-11.3046
▁সময়সূচি	-11.3047
▁এনায়েত	-11.3047
▁লাখো	-11.3048
▁অ্যাপের	-11.3048
▁ব্রাজিলে	-11.3049
▁পূরণের	-11.305
জুলাই	-11.3051
▁মেসিকে	-11.3053
ুরিয়া	-11.3053
▁বাগানের	-11.3053
▁স্তরে	-11.3055
ীম	-11.3061
সম্পন্ন	-11.3063
পিএম	-11.3064
▁নামেন	-11.3068
টিক	-11.3068
▁বাক্য	-11.3069
▁বক্কর	-11.307
▁সানরাইজার্স	-11.307
▁সিরাজগঞ্জে	-11.3071
▁সুরক্ষার	-11.3071
য়েড	-11.3072
▁তোমাকে	-11.3072
▁তারিক	-11.3079
▁মৌলভীবাজারে	-11.3079
▁চরিত্রের	-11.308
ছাত্রীদের	-11.3081
▁একমত	-11.3083
▁পিপিএম	-11.3088
▁শুটিংয়ে	-11.3088
▁স্বীকারোক্তি	-11.3089
▁অভিযুক্তদের	-11.309
▁আরবি	-11.3093
▁জননী	-11.3096
▁ন্যায্য	-11.3102
▁লোগো	-11.3104
▁ভাড়াটিয়া	-11.3104
▁সেঞ্চুরির	-11.3106
▁অবধি	-11.3106
▁সম্প্রদায়	-11.3107
▁মেগা	-11.3109
ত্যা	-11.3109
লোক	-11.311
▁মোড়ল	-11.3112
▁মোস্তাফিজ	-11.3113
এমএস	-11.3114
ter	-11.3115
▁ট্রাম্পকে	-11.3115
▁সহযোগীতা	-11.3118
▁২০০৫	-11.3119
▁অংশগ্রহণে	-11.312
▁বরাতে	-11.3124
▁ছু	-11.3129
কিন্তু	-11.3131
▁ডিজি	-11.3135
▁ডিপার্টমেন্ট	-11.3135
▁সুমাইয়া	-11.3135
াশ	-11.3137
▁মন্টু	-11.3137
ক্ষেত্রে	-11.3138
▁নির্বাচক	-11.3141
▁দেশেই	-11.3142
ঈদ	-11.3142
▁স্মার্টফোনের	-11.3144
▁ছাত্রীদের	-11.3149
▁গাংনী	-11.3152
নির্বাচন	-11.3156
▁কারিগর	-11.3157
রোগ	-11.3162
Leave	-11.3164
▁পরকীয়া	-11.3164
ভর্তি	-11.3165
▁উদ্বুদ্ধ	-11.3166
▁জুটির	-11.3166
৬৬	-11.3167
▁উঠা	-11.3167
▁কারফিউ	-11.3168
▁জিজ্ঞেস	-11.3168
▁সুবর্ণজয়ন্তী	-11.3168
▁রুখে	-11.3169
▁স্বচ্ছ	-11.3169
▁পদক্ষেপের	-11.317
ণী	-11.3171
▁দমকা	-11.3171
▁হায়দরাবাদ	-11.3174
▁প্রতিক্রিয়ায়	-11.3174
▁ভাতিজা	-11.3175
▁খে	-11.3176
▁চেলসি	-11.3177
▁টেকটিউনস	-11.318
▁বিএসএফের	-11.3187
▁এবারে	-11.3189
▁উৎপাদনে	-11.3194
▁BANGLA	-11.3201
▁টমেটো	-11.3201
▁পুনরুদ্ধার	-11.3201
▁শংকর	-11.3201
▁উত্তরপ্রদেশের	-11.3202
▁জকিগঞ্জ	-11.3203
র্শ	-11.3207
▁আবাহনী	-11.321
▁ছড়ানো	-11.3211
▁খ্রিস্টান	-11.3212
▁রোহিঙ্গারা	-11.3212
▁ক্যাডার	-11.3214
▁রেললাইন	-11.3216
▁ঈশ্বর	-11.3219
▁ব্র্যান্ডের	-11.3221
▁জনসভায়	-11.3222
▁সেজে	-11.3226
▁যোগী	-11.3227
▁সোনারগাঁয়ে	-11.3228
রোববার	-11.3231
▁শফি	-11.3231
▁তারকারা	-11.3231
▁অংশগ্রহণের	-11.3232
পস	-11.3232
▁মাগফিরাত	-11.3234
▁রোপণ	-11.3235
▁স্ট্রিট	-11.3235
▁ইন্টারনেটে	-11.3243
▁তবু	-11.3243
▁জানাবেন	-11.3245
▁সাবধান	-11.3245
▁আফরোজ	-11.3246
▁গেইট	-11.3246
▁ছুঁয়ে	-11.3247
▁ফাস্ট	-11.325
ঘা	-11.3252
▁জঙ্গিরা	-11.3252
টিই	-11.3255
▁ট্রায়াল	-11.3255
▁পূরণে	-11.3257
▁বিবাদ	-11.3258
▁কোস্ট	-11.3259
▁দুজনেই	-11.3259
▁২নং	-11.3262
▁প্রাণের	-11.3263
ময়মনসিংহ	-11.3264
mo	-11.3265
▁গেমস	-11.3267
▁জুবায়ের	-11.3268
▁হাঁস	-11.3268
▁দুইবার	-11.3269
▁খাতুনের	-11.327
ia	-11.327
▁l	-11.327
▁জীবাণু	-11.3274
▁১৯৭৫	-11.3274
▁অপমান	-11.3276
জুল	-11.3277
▁মহামারিতে	-11.3279
▁মেয়েটিকে	-11.328
▁ফরিদগঞ্জ	-11.3282
▁শামিম	-11.3283
▁বয়ান	-11.3284
▁টাইপ	-11.3287
ল্লাহ	-11.3287
▁খ্যাতি	-11.3288
▁এবি	-11.3292
▁মোড়ক	-11.3292
▁উদ্ধারকৃত	-11.3294
ল্ট	-11.3297
▁স্থলে	-11.3298
বিজিবি	-11.3299
َّ	-11.33
▁বিষাক্ত	-11.3301
▁ভাগাভাগি	-11.3301
▁বর্ষসেরা	-11.3301
▁!!	-11.3302
▁পালানোর	-11.3303
▁ইরানে	-11.3306
▁উত্থান	-11.3308
▁মহলের	-11.3308
▁রযাঙ্কিংয়ে	-11.3311
▁চাষের	-11.3315
▁লস	-11.3317
বাড়িতে	-11.3319
▁আন্ত	-11.3319
▁কর্মকার	-11.3323
৯৫	-11.3325
দ্দ	-11.3327
▁গ্রহণযোগ্য	-11.333
▁বুদ্ধ	-11.3332
▁আত্মসাৎ	-11.3334
▁বণিক	-11.3334
▁আত্মপ্রকাশ	-11.3335
আইসি	-11.3336
ja	-11.3337
▁রাকিবুল	-11.3339
▁গুড়	-11.334
টিভ	-11.334
▁শাহজাদপুর	-11.334
ভেল	-11.3341
খ্যাত	-11.3342
▁ব্যতিক্রমী	-11.3343
▁ত্বকে	-11.3344
ছাত্রী	-11.3344
▁খাজা	-11.3355
▁ভাবছেন	-11.3355
▁ছড়া	-11.3356
▁ফ্রিজ	-11.3356
▁বিচারপতির	-11.3356
▁নির্বাহ	-11.3363
▁ক্ষয়ক্ষতির	-11.3364
নিষেধ	-11.3364
▁পর্যবেক্ষক	-11.3368
▁উজ্জল	-11.3368
▁বংশোদ্ভূত	-11.3368
▁Ajker	-11.3368
▁আদনান	-11.3368
▁রেহাই	-11.3369
▁আপেল	-11.3369
▁খণ্ড	-11.337
az	-11.337
▁সারাক্ষণ	-11.3372
▁যোদ্ধা	-11.3373
▁দামি	-11.3374
▁অস্থায়ীভাবে	-11.3374
▁ফান্ডের	-11.3374
▁আলাইহি	-11.3375
▁মিড	-11.3375
জিন	-11.3379
▁দেখেই	-11.338
▁সচেতনতামূলক	-11.3384
্যান্ট	-11.3385
▁চাপের	-11.3386
q	-11.3387
▁ঢাকাই	-11.3389
ছু	-11.3391
িমা	-11.3393
▁পাইকারি	-11.3394
▁পড়েছিলেন	-11.3394
▁হকি	-11.3395
চেয়ারম্যান	-11.3399
▁মানিকগঞ্জে	-11.3401
▁ট্রা	-11.3401
খুলনা	-11.3401
▁ডেমোক্রেট	-11.3402
▁কর্ণফুলী	-11.3402
▁মোটামুটি	-11.3402
up	-11.3402
▁বুবলী	-11.3402
▁মোরশেদ	-11.3402
▁উৎসর্গ	-11.3402
▁নবায়ন	-11.3403
▁গোবিন্দ	-11.3403
▁সত্যিকার	-11.3406
▁দেশগুলোতে	-11.3406
মানের	-11.3408
▁মুল	-11.3409
▁জাহাঙ্গীরনগর	-11.3409
▁ফো	-11.3411
▁কুক	-11.3411
▁জনগনের	-11.3414
▁শ্রীলঙ্কায়	-11.3417
▁জানাজানি	-11.3417
▁জ্বালা	-11.342
▁কুয়েতে	-11.3422
▁অঙ্কের	-11.3423
▁কানাডায়	-11.3424
▁লোহার	-11.3432
▁ভোররাতে	-11.3435
▁Large	-11.3435
▁প্রশংসিত	-11.3435
▁Monday	-11.3435
▁নামঞ্জুর	-11.3435
▁ন্যাটো	-11.3436
▁শরিক	-11.3437
▁ছাত্রনেতা	-11.3438
▁১৬৪	-11.3439
▁মিতু	-11.3443
▁বোনাস	-11.3443
▁যথাযথভাবে	-11.3446
ালি	-11.3449
▁রয়েল	-11.345
▁অভিনয়ে	-11.3451
ভাল	-11.3456
▁পর্যবেক্ষণে	-11.3458
▁রহমানসহ	-11.3459
▁গাইড	-11.3466
▁দিদি	-11.3466
▁আঁকা	-11.3467
ব্যা	-11.3467
▁ইরাক	-11.3468
ভারপ্রাপ্ত	-11.3468
আইএস	-11.3468
▁মিরপুরের	-11.3469
▁মরিয়ম	-11.3469
▁চলাফেরা	-11.3469
▁পুতুল	-11.347
▁সঞ্চালনা	-11.347
▁মিট	-11.3476
▁পলিসি	-11.3479
▁জিহাদ	-11.348
বর্ণ	-11.3481
▁তামিল	-11.3482
▁সৈকতে	-11.3484
▁আবেদনে	-11.3485
▁জনসচেতনতা	-11.3488
▁পাসওয়ার্ড	-11.3488
▁ঝলক	-11.3489
▁মেরিন	-11.3493
▁হলিউড	-11.35
Barta	-11.3501
▁Desh	-11.3502
▁কেমিক্যাল	-11.3503
▁নির্ণয়	-11.3503
▁শুকনো	-11.3504
▁আন্তঃ	-11.3505
▁পাখির	-11.3505
▁সঙ্গ	-11.3507
গাছ	-11.3507
▁অনার্স	-11.3507
▁বদর	-11.3509
▁ছে	-11.3509
▁রুমা	-11.351
▁ববি	-11.3512
▁বাঁধে	-11.3513
▁মুসল্লিদের	-11.3513
▁পরীমণি	-11.3514
▁বাংলাদেশির	-11.3518
▁সদস্যবৃন্দ	-11.3519
▁আটটা	-11.352
▁অফিসারের	-11.3522
৭৭	-11.3523
▁ইটভাটা	-11.3525
ধর্ম	-11.3526
▁লিডার	-11.3526
▁ডিএমপির	-11.3526
▁পাব	-11.3526
▁For	-11.3529
▁আলা	-11.3532
▁অটোরিকশার	-11.3535
▁হাসানকে	-11.3537
▁বরকত	-11.3538
খু	-11.3538
▁ফর্মে	-11.3539
▁চড়া	-11.3539
▁নিশ্চয়তা	-11.3544
▁লিখতে	-11.3547
▁বাউল	-11.3548
▁নিরাপত্তায়	-11.3549
▁পারা	-11.355
▁বাসস্ট্যান্ড	-11.355
▁কোচবিহার	-11.355
▁অবসরে	-11.3551
▁দেখিয়েছেন	-11.3552
বাহিনী	-11.3556
কেন্দ্র	-11.3557
▁রেলমন্ত্রী	-11.356
▁দ্র	-11.3565
▁পল্টন	-11.3566
▁কথাবার্তা	-11.3566
▁ইভেন্টে	-11.3569
ল্লাল্লাহু	-11.3572
▁দৈনন্দিন	-11.3572
▁ফেডারেল	-11.3572
▁সুস্বাদু	-11.3572
▁ত্রান	-11.3572
▁আলতাফ	-11.3572
▁শরীয়তপুর	-11.3576
ঢ	-11.3578
▁কেরানীগঞ্জ	-11.3579
ish	-11.358
▁নাজমা	-11.3583
▁রাখায়	-11.3583
ব্র	-11.3584
▁দ্বীন	-11.3588
▁ছড়াচ্ছে	-11.3591
▁সামনেই	-11.3591
▁শিখা	-11.3593
▁হলি	-11.3594
▁ওয়াহিদ	-11.3595
▁ঘটিয়েছে	-11.3598
গাছা	-11.36
দ্ধ	-11.3603
▁Saturday	-11.3606
▁সোনাগাজী	-11.3606
▁ফিরছিলেন	-11.3607
▁মজনু	-11.3608
▁বিশৃঙ্খলা	-11.3611
।#	-11.3613
৮৫	-11.3613
▁গোয়ালন্দ	-11.3614
▁অপো	-11.3614
পাই	-11.3615
▁ইত্তেফাক	-11.3616
▁আছড়	-11.3618
▁ক্যান	-11.3619
▁গ্যালারি	-11.3619
▁নান্নু	-11.3619
ফর	-11.3625
কার্ড	-11.3626
age	-11.3626
▁দিশা	-11.3631
▁গৃহহীন	-11.3631
▁মনোয়ার	-11.3633
▁শিক্ষাবর্ষের	-11.3634
▁ঢলে	-11.3635
▁শ্রীমঙ্গলে	-11.3639
ুদ্দীন	-11.3639
▁প্রদত্ত	-11.3641
▁সংশয়	-11.3641
▁গুঁড়া	-11.3641
▁নেত্রকোণা	-11.3645
▁মুহাম্মাদ	-11.3645
▁An	-11.3649
▁ইন্ডাস্ট্রিজ	-11.3649
▁আবির	-11.365
কোর	-11.365
▁চেনা	-11.3652
▁বানাতে	-11.3655
▁জাবি	-11.366
কান্ত	-11.3662
mp	-11.3663
▁রযাম	-11.3663
▁এপ্রিলে	-11.3666
▁জ্বরে	-11.3668
ঙ্গী	-11.3669
▁জুটিতে	-11.367
▁প্রযোজ্য	-11.3675
▁লাইব্রেরি	-11.3675
▁শিশির	-11.3675
▁শামসুজ্জামান	-11.3676
▁ইয়াসিন	-11.3676
▁রাজবাড়ীর	-11.3676
▁জালালাবাদ	-11.3677
চিত	-11.3678
▁আমেজ	-11.3678
পাট	-11.3678
ংগা	-11.368
শালী	-11.3683
▁Media	-11.3683
ক্রম	-11.3684
চালক	-11.3685
▁ভুটান	-11.3686
▁পরতে	-11.3688
াপ	-11.3692
▁তৎ	-11.3692
▁মুদি	-11.3693
▁ছড়ানোর	-11.3701
▁আনু	-11.3701
▁দফার	-11.3702
▁সাহিত্যিক	-11.3702
৯৭	-11.3705
সরকার	-11.3709
▁Thursday	-11.371
▁মোতালেব	-11.371
▁খোঁজাখুঁজি	-11.371
▁ভাষ্য	-11.371
▁ব্যালট	-11.371
▁ফার	-11.371
▁তৈয়ব	-11.371
জানা	-11.3711
শিল্প	-11.3714
▁দুটির	-11.3716
▁প্রতিকার	-11.3717
▁ফেনীতে	-11.3722
ঞ্জি	-11.3724
বন্ধ	-11.3727
▁কামালের	-11.3727
▁শাহরুখের	-11.3728
▁ফরম্যাটে	-11.3729
▁সমুদ্রে	-11.373
▁হককে	-11.3736
▁মাওয়া	-11.3739
৯৯	-11.3739
▁যথা	-11.3744
▁Janakantha	-11.3745
▁আমন্ত্রিত	-11.3745
▁সেন্টিমিটার	-11.3745
▁আখ	-11.3747
▁সেমি	-11.3747
▁দক্ষিণের	-11.3748
▁কর্মকান্ড	-11.375
▁নিকটতম	-11.375
▁ঢেউয়ে	-11.3751
▁এমনটি	-11.3752
সভা	-11.3752
কিয়া	-11.3755
নীর	-11.3755
▁রাশিয়ায়	-11.3757
▁এমনকী	-11.3758
▁হাতিয়ার	-11.3758
▁ধারার	-11.3758
▁উইলিয়ামসন	-11.3759
▁শুভশ্রী	-11.376
▁জব	-11.376
▁বাকিদের	-11.376
▁উদযাপনের	-11.3761
▁৯৯৯	-11.3761
লতা	-11.3762
▁সুশান্তের	-11.3764
mi	-11.3769
বোর্ড	-11.3771
▁২টায়	-11.3771
বুক	-11.3772
▁আইসিইউ	-11.3772
ঘরে	-11.3774
▁পেছনের	-11.378
মার্চ	-11.3781
▁মস্তিষ্ক	-11.3781
▁বিবিধ	-11.3781
▁হাউসের	-11.3782
▁বানানোর	-11.3782
টক	-11.3785
▁অনিল	-11.3786
▁রাজাকার	-11.3787
মলা	-11.3791
▁জালিয়াতির	-11.3792
সিয়া	-11.3792
▁জিম	-11.3794
▁বাড়িঘর	-11.3794
স্বীকারোক্তিমূলক	-11.3794
▁আইনজীবীদের	-11.3796
▁আজান	-11.3798
বন্ধু	-11.3798
▁পেরেছেন	-11.3798
৯৮	-11.38
সুন্দর	-11.3804
শ্র	-11.3806
▁কমলাপুর	-11.3806
▁এতিম	-11.3809
▁মিলি	-11.381
▁টো	-11.3812
▁দুজনই	-11.3812
▁বিশ্বাসী	-11.3812
▁উত্তেজিত	-11.3815
▁দ্বাদশ	-11.3815
▁সার্বক্ষণিক	-11.3815
▁হিজরী	-11.3815
▁পেলেই	-11.3815
▁স্ট্যান্ডার্ড	-11.3815
▁যথাযোগ্য	-11.3815
▁পরিপূর্ণ	-11.3816
▁শুধুই	-11.3816
▁মহাখালী	-11.3818
▁শাহিনুর	-11.3819
▁খরচে	-11.3821
▁অনিক	-11.3823
▁আফ্রিকায়	-11.3825
াধীন	-11.383
▁নায়েক	-11.3834
▁গাওয়া	-11.3834
মুলক	-11.3835
▁সাহার	-11.384
▁পোস্টের	-11.3843
▁যেনো	-11.3845
সিএসই	-11.3846
চিং	-11.3846
▁বিপ্লবী	-11.3848
▁টিউটোরিয়াল	-11.385
▁ডিভোর্স	-11.385
▁পারস্পরিক	-11.385
▁সোচ্চার	-11.385
▁বিনাশ্রম	-11.385
▁মানবতাবিরোধী	-11.385
▁খুলছে	-11.3851
▁দলই	-11.3851
▁খানিকটা	-11.3852
▁দুর্বলতা	-11.3854
▁জ্বালিয়ে	-11.3854
▁রমজানে	-11.3855
▁আহমাদ	-11.3855
ঙ্গার	-11.3856
অনেক	-11.3857
▁রাশেদুল	-11.3859
▁পাগলা	-11.3859
▁রাইটস	-11.3859
▁ইমেইল	-11.386
▁বোল্ড	-11.386
▁পুল	-11.3861
▁জুভেন্টাস	-11.3862
▁তরল	-11.3863
▁প্রত্যাশী	-11.3863
▁হুয়াওয়ে	-11.3864
▁শামস	-11.3868
▁ফেয়ার	-11.3868
অনু	-11.3868
▁ছেড়েছেন	-11.387
▁t	-11.3876
▁ম্যাপ	-11.388
▁১০০০	-11.3881
▁দড়ি	-11.3881
▁স্বা	-11.3881
৮৯	-11.3882
▁ছিনতাইয়ে	-11.3882
▁এনবিআর	-11.3884
▁কাইয়ুম	-11.3885
▁কার্যকলাপ	-11.3885
▁তুঙ্গে	-11.3886
▁গৌরনদী	-11.3886
▁উদ্ভিদ	-11.3886
▁সর্বকালের	-11.3886
▁রোমান	-11.3888
খি	-11.3888
hu	-11.389
▁ডুব	-11.3892
▁প্রাপ্তি	-11.3895
▁মারতে	-11.3895
▁পড়েনি	-11.3899
▁বেড	-11.3899
▁পড়ছেন	-11.39
▁সিঙ্গাপুরের	-11.3902
▁পেশাগত	-11.3903
▁Shomoy	-11.3903
▁সমুদ্রের	-11.3905
▁রাবার	-11.3906
▁বাড়িয়েছে	-11.3908
▁বোনকে	-11.3912
▁তিনিই	-11.3915
▁وَ	-11.392
▁মাগুরায়	-11.392
▁উইন্ডিজ	-11.3921
▁সফলভাবে	-11.3921
▁ওয়ার্কার্স	-11.3921
▁আমতলী	-11.3922
▁রক্তদান	-11.3923
▁ছবিগুলো	-11.3923
▁জনসভা	-11.3924
▁কওমি	-11.3924
▁ভিক্ষুক	-11.3925
▁আখ্যা	-11.3926
▁কেশবপুর	-11.3926
▁প্রতিবেশীরা	-11.3926
▁দোহার	-11.3927
এবার	-11.3932
▁গ্রেপ্তারকৃত	-11.3934
▁অনা	-11.3934
▁তিশা	-11.3935
▁ভারসাম্য	-11.3937
▁চারে	-11.3942
▁প্রত্যাবাসন	-11.3944
▁মক্কা	-11.3947
▁চল	-11.3948
▁গর্ত	-11.3951
▁জাপানি	-11.3952
▁দখলদার	-11.3953
▁বুলেটিনে	-11.3955
▁অরফানেজ	-11.3956
▁সবমিলিয়ে	-11.3956
▁জনৈক	-11.3956
▁চঞ্চল	-11.3957
▁সারি	-11.3957
▁আলোচক	-11.3958
লাইট	-11.3958
▁অবহেলা	-11.396
বিসি	-11.3962
▁লিঙ্ক	-11.3966
▁এরআগে	-11.3966
▁উজান	-11.3968
▁৬ষ্ঠ	-11.3969
▁বরিস	-11.3969
র্ধ	-11.3969
▁পুজা	-11.3969
▁আশঙ্কায়	-11.3972
▁View	-11.3972
▁জানাযা	-11.3975
▁ছক্কায়	-11.3977
▁মুক্তা	-11.3978
ry	-11.3979
▁রায়পুর	-11.3982
দূর	-11.3983
▁ঘড়ি	-11.3992
ح	-11.3992
▁গীতিকার	-11.3992
▁হরমোন	-11.3992
▁জেসমিন	-11.3992
▁অপব্যবহার	-11.3992
▁ভুইয়া	-11.3993
▁ইউরোপিয়ান	-11.3993
▁প্রয়াস	-11.3993
▁প্যান	-11.3997
▁ফুটিয়ে	-11.3997
▁বলছিলেন	-11.4002
ীয়া	-11.4004
▁গোল্ডেন	-11.4005
পাশে	-11.4007
নিউজবিডি	-11.4008
▁গ্রহ	-11.4012
৭৯	-11.4015
▁গুপ্ত	-11.4017
্ত	-11.4017
িংয়ে	-11.4018
▁যেই	-11.4019
▁পাতার	-11.4019
▁বিদ্যুৎস্পৃষ্ট	-11.4019
▁কৃতজ্ঞ	-11.402
▁বৃদ্ধিতে	-11.402
কক্ষ	-11.4022
২০২২	-11.4024
▁তৌফিক	-11.4025
▁চুনারুঘাট	-11.4028
▁সরোয়ার	-11.4028
▁সমাজকল্যাণ	-11.4028
▁পৌঁছেছেন	-11.4029
▁নাগরিককে	-11.4031
▁নুরুজ্জামান	-11.4032
▁এমদাদুল	-11.4035
▁শপিংমল	-11.4035
▁@	-11.4035
▁রাউজান	-11.4038
س	-11.404
জুর	-11.4041
▁অতীত	-11.4043
ফান	-11.4043
▁সুত্র	-11.4045
▁মিন্নি	-11.4046
▁ওয়ার	-11.4049
গঠিত	-11.405
▁মহারাষ্ট্র	-11.405
▁মধুর	-11.4051
▁কাক	-11.4052
▁পরিচ্ছন্নতা	-11.4053
▁বাজি	-11.4056
▁ফাঁকে	-11.4057
▁গেটে	-11.4057
▁পৌঁছলে	-11.4057
▁Tag	-11.4061
▁গল	-11.4064
▁ইবি	-11.4064
▁গুল	-11.4064
▁মফস্বল	-11.4064
▁শরণখোলা	-11.4064
▁সিলেবাস	-11.4064
▁উৎক্ষেপণ	-11.4064
▁একত্রিত	-11.4064
▁শাওমি	-11.4064
▁অর্জিত	-11.4064
iz	-11.4064
▁বাল্যবিয়ে	-11.4065
▁তৃতীয়বার	-11.4065
▁ঝরে	-11.4066
ai	-11.4068
▁মুক্তিযোদ্ধার	-11.4068
▁তামাক	-11.407
▁ব্যর্থতা	-11.407
▁হাওড়া	-11.4073
▁U	-11.4073
▁লেবানন	-11.4073
▁সাইদ	-11.4074
উট	-11.4076
▁শাহা	-11.4077
▁ফলাফলের	-11.4078
▁মনজুর	-11.4082
▁ইসলামাবাদ	-11.4082
▁রাখলে	-11.4083
▁দলগুলো	-11.4083
▁আসতেই	-11.4088
য়েস	-11.409
▁পুনর্	-11.4092
▁১৪৪২	-11.4094
▁ডিস	-11.4095
▁লতা	-11.4097
▁এটির	-11.4099
▁উত্থাপন	-11.41
▁হুসাইন	-11.41
▁মাজহারুল	-11.41
▁Most	-11.41
▁আনিছুর	-11.4101
▁টেলিকম	-11.4101
▁সাতদিন	-11.4101
সাংগঠনিক	-11.4102
য়ন	-11.4102
▁সাপোর্টে	-11.4103
▁ট্রে	-11.4104
▁টয়লেট	-11.4104
▁ঝাঁপ	-11.4105
rimenewsbd	-11.4106
বর্তী	-11.4106
▁বিলম্ব	-11.4107
▁সাময়িকভাবে	-11.4108
desh	-11.411
▁শিবচর	-11.411
▁রেশন	-11.4112
▁যেতেই	-11.4114
ফাই	-11.4116
ভাতা	-11.4117
▁সূ	-11.4118
▁সিরিজটি	-11.412
▁নায়িকার	-11.4121
▁বান্ধবী	-11.4122
▁শিল্পীর	-11.4122
পাঠ	-11.4123
হাল	-11.4123
▁ভূমিকম্পে	-11.4123
▁১শ	-11.4124
জাল	-11.4126
▁ইন্টারনেটের	-11.4128
▁পথসভা	-11.4129
▁কোয়ারেন্টিন	-11.4129
▁শেরপুরের	-11.4132
▁মস্তিষ্কে	-11.4135
▁সরকারিভাবে	-11.4135
▁হিমশিম	-11.4136
▁Desk	-11.4136
▁প্রতিরোধের	-11.4137
▁সোনিয়া	-11.414
▁আদায়ে	-11.4142
▁করোনাকালীন	-11.4142
িনি	-11.4143
▁বিজিএমইএ	-11.4143
▁শিপন	-11.4144
han	-11.4147
সেরা	-11.4147
▁খেলোয়াড়রা	-11.4147
▁প্রথমেই	-11.4148
ap	-11.4148
▁বিক্ষোভকারীদের	-11.415
▁যাননি	-11.415
বাজি	-11.4152
▁সংবাদপত্রের	-11.4152
▁চ্যাট	-11.4152
▁কখনই	-11.4153
▁আতঙ্কের	-11.4157
▁বারাক	-11.4158
▁হত্যাকারীদের	-11.4158
▁গ্রেফতারকৃতরা	-11.4158
▁চেয়েছিল	-11.4159
টিও	-11.4161
▁কুকুরের	-11.4167
▁পোশাকের	-11.4168
▁স্কুলছাত্রীকে	-11.4172
▁জেলহাজতে	-11.4173
▁উধাও	-11.4173
▁গাবতলী	-11.4173
▁পেঁপে	-11.4173
▁Amar	-11.4174
▁শুকিয়ে	-11.4175
▁গড়েন	-11.4176
ক্ষা	-11.4177
▁অধিনায়কের	-11.4178
▁ভূমিকম্পের	-11.418
▁কর্তব্য	-11.4181
▁সাম	-11.4182
▁পীরগঞ্জ	-11.4182
জিৎ	-11.4182
৯৬	-11.4183
▁জরিপে	-11.4183
▁তীব্রতা	-11.4185
কাজ	-11.4187
▁সংখ্যাও	-11.4188
▁খলিলু	-11.4189
▁গতবছর	-11.419
▁ঢাল	-11.4194
▁খো	-11.4195
▁বিকাশের	-11.4197
▁মাহ	-11.4201
▁it	-11.4205
▁জানায়নি	-11.4205
▁আগ্নেয়াস্ত্র	-11.4209
▁প্রতিষেধক	-11.4209
▁রক্তক্ষরণ	-11.4209
▁সাব্যস্ত	-11.4209
▁পুঠিয়া	-11.4209
▁গোল্ডকাপ	-11.4209
▁দুর্গন্ধ	-11.4209
▁ক্রিসেন্ট	-11.421
▁রেজাল্ট	-11.421
▁ঘটবে	-11.421
▁ইউজার	-11.4212
▁রুহ	-11.4213
▁আকাশের	-11.4215
▁কর্নার	-11.4217
▁চট্রগ্রাম	-11.422
▁ষড়যন্ত্রের	-11.4222
▁বঙ্গবন্ধুকে	-11.4223
সিআই	-11.4227
▁পূর্তি	-11.4228
▁নিলেও	-11.4228
সেবা	-11.4229
▁মৈত্রী	-11.4229
্ড	-11.423
ইয়ে	-11.423
ক্যা	-11.4231
▁ওয়াজ	-11.4231
▁পাম্প	-11.4232
▁মুশফিকের	-11.4238
▁আদর	-11.4239
▁২১শে	-11.4239
▁মালিকরা	-11.4242
▁সেমিফাইনাল	-11.4242
now	-11.4243
▁১০১	-11.4245
▁কার্যকারিতা	-11.4246
▁জনসমাগম	-11.4246
▁বাপ্পি	-11.4246
▁আসমা	-11.4248
▁গণসংযোগ	-11.4249
▁ফাইবার	-11.4249
▁র্যা	-11.4255
ীকরণ	-11.4255
▁কানে	-11.4259
▁চকবাজার	-11.4259
▁অতীতের	-11.426
▁রযাংকিংয়ে	-11.426
▁বিক্ষোভের	-11.4261
ect	-11.4264
▁জেলের	-11.4268
▁তিনিও	-11.4269
▁বিদ্যুত	-11.427
▁আসছি	-11.4276
▁মিশ্রণ	-11.4277
▁সৃজনশীল	-11.4279
▁দিনেও	-11.4281
▁দামুড়হুদা	-11.4282
▁শৈশব	-11.4282
▁অর্ধশতাধিক	-11.4283
▁স্নাতকোত্তর	-11.4283
▁দেবহাটা	-11.4283
▁নড়াইলের	-11.4283
▁চাকুরী	-11.4284
▁হাইকমিশন	-11.4284
▁শফিকুর	-11.4285
▁আফ্রিকান	-11.4286
▁অতিথিদের	-11.4289
▁লিখেন	-11.429
▁বিক্ষোভকারীরা	-11.4293
▁সদস্যসহ	-11.4295
▁প্লেন	-11.4296
▁বুকের	-11.4297
▁ইন্দোনেশিয়ার	-11.4297
▁এনআরসি	-11.4298
বলে	-11.4299
৬৩	-11.4299
▁বক	-11.43
TV	-11.4303
▁নিয়মে	-11.4303
ea	-11.4306
▁অঙ্গনে	-11.4306
▁চুলে	-11.4308
▁প্রদর্শ	-11.431
▁নিত্যপ্রয়োজনীয়	-11.4319
▁প্রচন্ড	-11.4319
▁লোহাগড়া	-11.4319
▁কর্মবিরতি	-11.4319
▁পিন্টু	-11.432
▁সম্বলিত	-11.432
▁প্রশিক্ষক	-11.432
▁+	-11.4321
▁১২৫	-11.4325
▁ক্রিম	-11.4327
▁দাড়ি	-11.4329
▁প্রথা	-11.433
▁সিনহার	-11.4335
▁মাঘ	-11.4336
▁দক্ষিণে	-11.4339
▁তিনটা	-11.4339
▁প্ল্যাটফর্মে	-11.4342
▁post	-11.4349
▁উত্তরের	-11.435
হল	-11.435
▁as	-11.435
▁কাইফ	-11.4353
▁হোতা	-11.4354
▁বাঁধন	-11.4355
▁অনিশ্চিত	-11.4356
▁ম্যাজিষ্ট্রেট	-11.4356
▁Friday	-11.4356
▁দাউদকান্দি	-11.4357
▁তুচ্ছ	-11.4357
▁মহিলাকে	-11.4357
▁পাঠাগার	-11.4357
▁চাচাতো	-11.4358
▁থাকতো	-11.4359
▁জলঢাকা	-11.436
▁মাসব্যাপী	-11.4361
▁নভেল	-11.4362
পানি	-11.4363
▁ইজতেমা	-11.4364
▁ওয়ারেন্ট	-11.4366
▁পার্টনার	-11.4373
তৃ	-11.4374
▁লক্ষ্মীপুরের	-11.4376
গাড়ি	-11.4378
▁সিজন	-11.4379
৭২	-11.4379
ীত	-11.4379
ংশ	-11.4379
▁মদিনা	-11.4382
▁উইল	-11.4383
▁উন্নতির	-11.4384
▁খাচ্ছে	-11.4385
▁বসবে	-11.4387
▁শ্বাসরোধ	-11.4389
▁স্বীকৃত	-11.439
▁মুজাহিদ	-11.439
▁ক্ষেতে	-11.439
সেই	-11.4391
▁সেতুটি	-11.4392
মেল	-11.4393
▁দরবারে	-11.4393
▁ডিপ্লোমা	-11.4394
▁ডেমোক্র্যাট	-11.4394
▁বেক্সিমকো	-11.4394
▁নৌযান	-11.4394
▁পদ্ম	-11.4395
িক্যাল	-11.4395
▁পাটকল	-11.4395
উদ্দীন	-11.4397
▁খাবেন	-11.4398
▁আয়ারল্যান্ড	-11.4399
▁ড্রেন	-11.4399
▁আন্ডার	-11.44
▁ফুলেল	-11.4401
▁মধ্যম	-11.4403
▁খড়	-11.4404
▁বিচারে	-11.4404
▁কাহিনি	-11.4406
ট্টা	-11.4406
বিভাগ	-11.4407
▁প্রান	-11.4408
▁অধিনায়কত্ব	-11.4409
▁স্বাভাবিকভাবেই	-11.4412
▁ভ্যারিয়েন্ট	-11.4412
▁সাইড	-11.4413
ru	-11.4414
পাত	-11.4415
▁ফিফটি	-11.4417
▁সংস্কৃতির	-11.4417
ভারতের	-11.4418
▁দেখেছে	-11.4418
▁ওমান	-11.442
▁স্টেডিয়ামের	-11.442
▁মাহফিলের	-11.4422
▁ফলোয়ার	-11.4425
▁ফ্যা	-11.4425
▁রামেক	-11.4425
চন	-11.4429
সেট	-11.443
ইয়ের	-11.443
▁ব্রিগেড	-11.4431
▁আইপিও	-11.4431
▁প্রসিকিউটর	-11.4431
▁বাঙালী	-11.4431
▁ভৌমিক	-11.4431
▁ছোড়া	-11.4432
সামাজিক	-11.4433
▁ব্রড	-11.4435
▁তরঙ্গ	-11.4435
স্থান	-11.4439
▁মাঝখানে	-11.4439
▁নুসরাতের	-11.444
▁জওয়ান	-11.4443
▁শবে	-11.4444
OR	-11.4444
▁রিয়ালের	-11.4448
▁আলমকে	-11.4451
▁টিউন	-11.4451
▁স্বাস্থ্যকর	-11.4457
▁Nov	-11.4458
▁অনার	-11.4459
▁দৃশ্যে	-11.4462
ভাগে	-11.4462
খাল	-11.4463
ne	-11.4468
▁অন্তর্গত	-11.4469
▁ইয়াসির	-11.4469
▁তুলা	-11.447
গ্রহণ	-11.447
▁আসামীকে	-11.4471
▁মূল্যবোধ	-11.4471
▁আশপাশে	-11.4473
▁চিনের	-11.4474
▁শিখর	-11.4475
▁ওদের	-11.4476
ন্দু	-11.4476
▁আলমডাঙ্গা	-11.4478
ন্দে	-11.4478
নবী	-11.4482
৮৬	-11.4482
▁সুখী	-11.4485
▁কূটনীতিক	-11.4485
ানন্দ	-11.4485
▁আচার	-11.4485
▁এমসি	-11.4487
▁ক্লাবটি	-11.4489
▁দিতেন	-11.449
▁করিমের	-11.4493
▁দাঁড়ানো	-11.4494
▁দেশবাসীকে	-11.4499
▁গতির	-11.45
▁ক্যান্সারের	-11.45
▁বসতঘর	-11.45
▁শেয়ারবাজারে	-11.4502
▁লোভ	-11.4504
▁খনি	-11.4505
▁উর্ধ্বত	-11.4506
▁খোন্দকার	-11.4506
▁লায়ন	-11.4506
▁পিপলস	-11.4509
কক্সবাজার	-11.4511
▁তথ্যমতে	-11.4512
▁রাণী	-11.4514
▁সামলাতে	-11.4515
▁ডেল্টা	-11.4516
▁ইন্দোনেশিয়া	-11.4516
▁রেস্টুরেন্টে	-11.4517
সংবাদ	-11.4517
পী	-11.4518
িয়াম	-11.4519
▁লালপুর	-11.4524
▁জীবিকা	-11.4527
▁সিট	-11.4529
▁মহম্মদ	-11.453
▁দিকেই	-11.4532
▁রেস্তোরাঁ	-11.4533
দিনাজপুর২৪	-11.4537
▁বেত	-11.4538
কমিশনার	-11.4541
▁টিভিতে	-11.4543
▁১৭টি	-11.4543
▁গ্যালাক্সি	-11.4544
▁আফিফ	-11.4544
▁পদপ্রার্থী	-11.4544
▁প্লেয়ার	-11.4545
▁মৃতদের	-11.4547
▁পরামর্শক	-11.4548
স্কা	-11.4548
▁স্মরণীয়	-11.4548
▁আর্ট	-11.4549
প্লা	-11.455
আস	-11.4552
▁ঘটায়	-11.4555
সিপি	-11.4557
▁করদাতা	-11.4558
▁তাস	-11.4559
▁মোহা	-11.4561
▁দাঁড়াবে	-11.4562
▁ভাইরাসটি	-11.4564
▁লোকাল	-11.4564
▁ক্যামেরায়	-11.4565
▁আইসি	-11.4565
▁মসজিদটি	-11.4567
▁কৃষকলীগ	-11.4571
▁ব্যাংকগুলো	-11.4571
▁today	-11.4571
▁তানিয়া	-11.4572
▁সংবাদমাধ্যমকে	-11.4576
▁হোসেনসহ	-11.4576
▁হাউসে	-11.4577
▁ঝুলে	-11.4578
ট্রি	-11.4579
্রো	-11.458
▁নী	-11.4581
▁চবি	-11.4581
▁কোতোয়ালী	-11.4582
▁খাদিজা	-11.4582
▁দিল্লী	-11.4582
▁রাতভর	-11.4582
হাব	-11.4583
▁বাকিরা	-11.4585
▁ধর্মাবলম্বীদের	-11.4585
▁ভেন্যু	-11.4586
▁প্লাজা	-11.4587
বিয়া	-11.4587
▁মেইন	-11.4594
▁লঞ্চের	-11.4597
▁কয়েকজনকে	-11.4597
▁মহাপরিদর্শক	-11.4597
▁২০০৩	-11.4598
▁ধোঁয়া	-11.4602
▁ভাবছে	-11.4602
▁জঙ্গলে	-11.4604
ver	-11.4604
▁পদ্ধতির	-11.4604
গল	-11.4605
স্থানে	-11.4606
▁কাই	-11.4608
▁মোছা	-11.4609
▁ব্যাচ	-11.461
▁সিএস	-11.4613
মায়ের	-11.4615
ক্ক	-11.4618
▁থিয়েটার	-11.4619
▁উদঘাটন	-11.462
▁বাপ্পী	-11.462
▁ঠেলে	-11.462
▁আফতাব	-11.462
▁বাইসাইকেল	-11.462
▁কালবৈশাখী	-11.462
▁সময়েই	-11.462
▁চুয়াডাঙ্গায়	-11.4624
▁ফেরাতে	-11.4624
ইসলাম	-11.4625
▁বিছানায়	-11.4625
েন্দু	-11.4626
▁উপাচার্যের	-11.4627
জ্জা	-11.4627
▁সাং	-11.4628
▁ক্যাপ	-11.463
▁আলীম	-11.4634
▁গোলাপগঞ্জ	-11.4634
▁ব্যাটিংয়ের	-11.4635
▁ব্যাটসম্যানদের	-11.4637
▁জাদুঘর	-11.4637
▁১০৫	-11.4639
▁টিজার	-11.4641
▁রুমের	-11.4643
▁কোটির	-11.4644
▁ব্যাটার	-11.4644
▁উপকৃত	-11.4645
কট	-11.4645
▁একটানা	-11.4646
এমসি	-11.4647
▁প্রাণে	-11.4648
▁বাংলাদেশেও	-11.4649
পাস	-11.465
▁উষ্ণ	-11.465
ক্রা	-11.465
▁ফেস	-11.4653
▁মুসল্লি	-11.4657
▁ইনফরমেশন	-11.4658
▁বাঁকুড়া	-11.4658
▁স্বয়ং	-11.4658
▁পারতেন	-11.4658
▁কারাবন্দি	-11.4658
▁সমন্বয়কারী	-11.4663
অপারেশন	-11.4664
▁ফিলিপ	-11.4665
▁আনবে	-11.4668
দীপ	-11.4668
▁দাওয়াত	-11.4668
▁অনুভূত	-11.4673
▁নারায়ণ	-11.4673
ঞ্জা	-11.4676
▁মালিককে	-11.4676
▁ব্রি	-11.4676
▁আগামি	-11.4676
▁গেছি	-11.4677
▁নিয়ন্ত্রনে	-11.4678
▁হংকং	-11.4679
▁গণি	-11.4683
▁মাদারীপুরের	-11.4685
▁আকারের	-11.4689
▁লীগে	-11.4694
▁চাকরিতে	-11.4694
▁কাবা	-11.4695
▁ফাইন্যান্স	-11.4696
▁কমিউনিস্ট	-11.4696
▁কেঁপে	-11.4696
▁ঋতু	-11.4699
▁গর্ভ	-11.47
▁ভবিষ্যতের	-11.4701
▁সালিশ	-11.4701
ুম	-11.4701
▁বিহারের	-11.4703
▁ইসির	-11.4705
৭৬	-11.4706
য়েট	-11.4707
লাখ	-11.4709
ধার	-11.471
fi	-11.4711
▁কার্ডের	-11.4711
▁অন্ধকারে	-11.4712
▁জবি	-11.4715
ক্তি	-11.4715
▁ছাড়েন	-11.4715
▁ব্র	-11.4717
▁সুইডেন	-11.4718
▁শিখতে	-11.4721
▁De	-11.4721
▁মেরি	-11.4722
▁জালিয়াতি	-11.4723
▁ঘটল	-11.4724
▁জামায়াতে	-11.4724
▁ছোটবেলা	-11.4726
াকার	-11.4726
▁উদ্যোক্তাদের	-11.4727
▁খাদ্যমন্ত্রী	-11.473
▁উচ্ছ্বসিত	-11.4735
▁সর্দার	-11.4735
▁ইয়াছিন	-11.4735
▁নারকেল	-11.4735
▁বাগদাদ	-11.4735
▁নৌপরিবহন	-11.4735
▁দারুন	-11.4735
ারা	-11.4735
▁পড়ালেখা	-11.4735
▁আহাম্মদ	-11.4736
▁১৯৯৬	-11.4739
▁শায়েস্তাগঞ্জ	-11.474
▁কর্মকাণ্ডে	-11.474
pe	-11.4741
টর	-11.4742
▁মহাকাশে	-11.4743
▁ইসলামিয়া	-11.4743
▁খেলছেন	-11.4744
▁রিং	-11.4748
▁কামরান	-11.4749
ant	-11.4749
▁এইসব	-11.4752
▁কালু	-11.4752
▁পরীক্ষামূলক	-11.4754
▁অস্থিরতা	-11.4755
▁গোয়া	-11.4757
▁দৈর্ঘ্য	-11.4757
▁এক্সচেঞ্জের	-11.4758
▁গোবিন্দগঞ্জ	-11.4758
▁আচরণের	-11.4759
▁অনুপস্থিত	-11.476
প্লে	-11.4762
▁কঠোরভাবে	-11.4764
tion	-11.4765
▁সেচ	-11.4767
▁ক্ষতিগ্রস্তদের	-11.477
▁অতঃপর	-11.4773
▁সাবমেরিন	-11.4773
▁আন্দ্রে	-11.4773
মণি	-11.4774
▁App	-11.4774
▁অডিট	-11.4774
▁লিগ্যাল	-11.4774
▁সায়েম	-11.4774
▁উগ্র	-11.4775
▁পাপ	-11.4775
ঢামেক	-11.478
সার্বিক	-11.478
!'	-11.4782
▁শব্দটি	-11.4783
▁লেবার	-11.4785
জাই	-11.4785
▁বলবে	-11.479
du	-11.4796
▁রাইডার্স	-11.4796
কোন	-11.4797
▁পরার	-11.4797
▁টেলি	-11.4799
▁সারির	-11.4803
▁আসলেই	-11.4805
ার্ড	-11.4808
▁সুবিধার	-11.4811
রকম	-11.4811
▁Author	-11.4812
▁Popular	-11.4812
▁ইনশাআল্লাহ	-11.4812
▁পলিথিন	-11.4812
▁কাপাসিয়া	-11.4812
▁গায়িকা	-11.4812
▁ইউনিসেফ	-11.4812
▁খেটে	-11.4813
লক্ষ	-11.4814
▁ব্রাউজার	-11.4815
▁যাত্রাবাড়ী	-11.4815
▁সুশীল	-11.4816
▁কৈ	-11.4819
▁যানজটের	-11.482
▁কয়েকশ	-11.482
▁দুশ্চিন্তা	-11.482
▁আসাম	-11.4821
▁নও	-11.4825
▁পার্লামেন্ট	-11.4828
▁অন্যান্যরা	-11.483
▁মিশে	-11.4832
▁ধরেছেন	-11.4834
▁কামড়ে	-11.4836
যুগ	-11.4837
পন্থি	-11.4837
▁একাডেমী	-11.4838
▁জাহাজটি	-11.4839
▁পার্লামেন্টে	-11.4844
▁বান	-11.4845
▁টিন	-11.4845
▁কুশল	-11.4845
▁আবহে	-11.4847
▁কনের	-11.4848
▁খোয়া	-11.4849
▁Campus	-11.4851
▁টুটুল	-11.4851
▁বাহরাইন	-11.4851
▁Sunday	-11.4851
ধরনের	-11.4851
▁থাকত	-11.4852
▁খোঁজখবর	-11.4852
▁পেনশন	-11.4853
▁কার্গো	-11.4853
▁সবকটি	-11.4853
▁গিল	-11.4854
▁বহুমুখী	-11.4854
▁বর্ণিত	-11.4856
মিত	-11.4857
সমাবেশ	-11.4858
▁চোরাই	-11.4861
হত্যা	-11.4862
▁সাথেই	-11.4867
লিয়ে	-11.4869
▁উপস্থাপনা	-11.487
▁উইকেটরক্ষক	-11.487
▁কপিল	-11.4872
▁৫শ	-11.4872
▁স্বরূপ	-11.4872
ওয়াই	-11.4874
মিক	-11.4876
▁প্রকল্পটি	-11.4877
▁রাহাত	-11.488
▁রাষ্ট্রপক্ষের	-11.4883
▁বসছে	-11.4884
জয়ী	-11.4885
▁ইয়েমেনের	-11.4887
▁দক্ষতার	-11.4888
▁বেহাল	-11.4888
▁নিম্নচাপ	-11.4889
▁নানাভাবে	-11.4889
▁অজি	-11.4889
ইন্নালিল্লাহি	-11.489
▁পাউডার	-11.489
▁জাদেজা	-11.489
▁ডেন্টাল	-11.489
▁হিলারি	-11.489
▁পুলিস	-11.4891
▁কতটুকু	-11.4891
▁আইইডিসিআর	-11.4891
▁ধর্মপ্রাণ	-11.4891
িক্স	-11.4892
▁ল্যান্ড	-11.4892
▁তরুন	-11.4892
▁শুটিংয়ের	-11.4894
▁নিবন্ধিত	-11.4895
▁অংক	-11.4895
▁লিচু	-11.4897
▁মার্	-11.4897
Home	-11.4898
▁আরিফুর	-11.4898
pm	-11.4901
able	-11.4902
▁লেডি	-11.4904
▁দিনগত	-11.4904
▁নেভা	-11.4904
▁ত্রিশাল	-11.4904
▁To	-11.4908
▁তারপরই	-11.4908
্যাট	-11.4909
▁স্তর	-11.4911
▁তৃণমূলে	-11.4915
▁ইউকে	-11.4918
▁কর্মশালার	-11.492
পরিকল্পনামন্ত্রী	-11.492
▁নিজেরাই	-11.4926
▁বোট	-11.4928
▁ঠিকঠাক	-11.4929
▁বিবেচিত	-11.4929
▁Crime	-11.4929
▁বীরভূম	-11.4929
▁বাল্যবিবাহ	-11.4929
▁কর্ণধার	-11.4929
▁দ্বিপাক্ষিক	-11.4929
▁মুকুট	-11.493
▁অধীন	-11.493
িষ্ট	-11.4933
▁মহেশপুর	-11.4934
▁মুরগি	-11.4935
▁মেঘলা	-11.4936
ther	-11.4937
রাজশাহী	-11.4938
▁সারাবাংলা	-11.4941
▁মুরগির	-11.4941
উড	-11.4947
▁অপরাধীদের	-11.4947
▁সিটিতে	-11.4951
▁সমকাল	-11.4951
▁শিল্পীরা	-11.4953
▁ডিএনএ	-11.4954
▁সুস্থ্য	-11.4954
হিদ	-11.4954
▁ধস	-11.4955
▁বিভক্ত	-11.4956
▁আয়া	-11.4961
▁আনছে	-11.4961
অন	-11.4962
▁বাড়িটি	-11.4967
▁বিশেষত	-11.4967
▁প্রযোজনায়	-11.4968
কাঙ্ক্ষিত	-11.4968
▁এরদোয়ান	-11.4968
▁ট্রান্স	-11.4968
▁নিরাময়	-11.4969
▁তোফাজ্জল	-11.4969
▁সলমন	-11.4969
د	-11.4969
▁উবার	-11.497
ফিল	-11.4971
▁একশ	-11.4971
▁গড়লেন	-11.4972
স্ত্র	-11.4975
▁যতদিন	-11.4976
▁বিরোধীদের	-11.4976
রাতে	-11.4977
টাঙ্গাইল	-11.4977
▁যুগল	-11.4978
ng	-11.4979
ill	-11.4981
আগামী	-11.4982
▁মঞ্জুরুল	-11.4983
▁প্রতিষ্ঠায়	-11.4983
▁উপরের	-11.4984
▁ঝা	-11.4985
▁শিলিগুড়ি	-11.4987
▁সীতাকুণ্ড	-11.4987
▁ঘাস	-11.4991
▁not	-11.4997
▁ঘোষণায়	-11.4999
▁রাজাপুর	-11.5
▁ভিক্টোরিয়া	-11.5008
▁বাজেয়াপ্ত	-11.5008
▁জলপাইগুড়ি	-11.5008
▁সিদ্ধার্থ	-11.5008
▁রচিত	-11.5009
▁রামপাল	-11.5009
ub	-11.5009
▁বোরহান	-11.5009
▁কর্মকাণ্ডের	-11.5014
ীক	-11.5016
বিন	-11.5017
▁নীতির	-11.5018
▁কোমর	-11.502
▁দেখান	-11.502
▁ন্যা	-11.502
▁ঘোষের	-11.5022
▁নৈতিক	-11.5024
▁ঝুঁকির	-11.5024
যো	-11.5026
▁X	-11.5027
▁সমতায়	-11.5028
▁অসহায়দের	-11.5029
▁হোন	-11.503
▁অভিজ্ঞতার	-11.5032
▁সাকিবকে	-11.5036
▁সাগরের	-11.5036
▁রাইস	-11.5038
টাকা	-11.5041
▁খেল	-11.5042
ননি	-11.5044
▁লাফ	-11.5046
▁উল্লেখিত	-11.5047
▁ইব্রাহীম	-11.5048
▁মজবুত	-11.5048
▁মাউন্ট	-11.5048
▁Prothom	-11.5048
▁দ্বারস্থ	-11.5049
▁আচার্য	-11.5049
▁সারওয়ার	-11.5049
▁জাপানে	-11.5052
▁শিবপুর	-11.5052
▁বিভ্রান্ত	-11.5054
▁ছাড়াল	-11.5055
▁ওখানে	-11.5055
▁মুন্সীগঞ্জে	-11.5056
▁মাত্রার	-11.5057
▁পৌঁছা	-11.5063
▁স্কুলছাত্রী	-11.5064
▁My	-11.5065
পিএস	-11.5068
ন্ডে	-11.5068
▁পার্কের	-11.5072
▁কালীগঞ্জে	-11.5075
▁হত্যাকাণ্ডে	-11.5075
▁হেরোইন	-11.5076
▁মহেশ	-11.5076
ag	-11.5078
▁হত্যাকান্ডের	-11.5078
মাই	-11.5079
▁পৃষ্ঠা	-11.5081
▁বডি	-11.5082
মতি	-11.5082
▁মিশনে	-11.5082
ব্রে	-11.5087
▁গাঙ্গুলি	-11.5087
▁দুরন্ত	-11.5088
▁শিলা	-11.5088
▁সন্দেহজনক	-11.5088
▁ইনস্টিটিউটে	-11.5089
▁বেলুন	-11.5089
▁পরামর্শে	-11.5092
▁শাজাহান	-11.5093
▁যাত্রীকে	-11.5098
▁কাশ্মির	-11.5098
র্স	-11.5101
▁ঝি	-11.5101
▁মাহে	-11.5102
▁শোনার	-11.5102
▁থাইল্যান্ডের	-11.5103
▁মেনন	-11.5103
▁ক্লিন	-11.5107
▁মাত	-11.5107
▁শিল্পা	-11.5108
▁জেলেরা	-11.511
▁পিপিই	-11.5112
▁থিম	-11.5112
▁চৌধুরীকে	-11.5114
ee	-11.5115
▁রাজনীতিক	-11.5117
▁ইকবালের	-11.5117
▁চলচ্চিত্রটি	-11.5119
▁শার্ট	-11.512
▁কালিয়াকৈর	-11.5121
দন	-11.5124
▁অপ্রীতিকর	-11.5127
▁গুরুত্বারোপ	-11.5127
▁নির্বিশেষে	-11.5127
▁বিলাসবহুল	-11.5128
▁জৈন	-11.5128
▁ডেঙ্গুতে	-11.5128
▁পথেই	-11.5129
▁কদর	-11.513
▁মন্ত্র	-11.5131
▁ডিমের	-11.5131
▁অপমৃত্যু	-11.5131
▁ডায়েট	-11.5133
শিক্ষক	-11.5134
▁সেখানেও	-11.5134
▁জানুন	-11.5135
ine	-11.5138
▁Kagoj	-11.5139
গড়া	-11.514
ভোগ	-11.5141
ফিক	-11.5141
▁ক্যানসার	-11.5145
▁সম্পৃক্ততা	-11.5146
▁বোর	-11.5148
▁কনক	-11.5149
▁হরিপুর	-11.5151
▁ব্রিটেনে	-11.5153
▁অপহরণকারী	-11.5154
▁ক্যাশ	-11.5156
▁ভাইরাসটিতে	-11.5156
▁কর্মক্ষেত্রে	-11.516
ten	-11.516
▁দেবার	-11.5161
▁নারাজ	-11.5162
প্রতিনিধি	-11.5164
▁শার	-11.5165
▁ইনজেকশন	-11.5168
▁দেবাশীষ	-11.5168
▁দ্বিপক্ষীয়	-11.5168
▁প্রতিবন্ধকতা	-11.5168
▁সৈয়দা	-11.5168
▁Oct	-11.5168
▁ভোটাধিকার	-11.5169
▁সাশ্রয়ী	-11.517
▁বিটিভি	-11.5172
▁স্বচ্ছতা	-11.5173
▁প্লাটফর্ম	-11.5174
▁Na	-11.5175
▁ফেলবে	-11.5176
▁মজিবর	-11.518
্রি	-11.5184
▁কপালে	-11.5185
ব্রা	-11.5186
য়ি	-11.5189
▁রয়্যাল	-11.519
▁জগ	-11.5192
▁অগ্নিকাণ্ড	-11.5193
▁গুলোতে	-11.5193
৭৮	-11.5196
▁পঞ্চগড়ে	-11.52
▁বৃদ্ধার	-11.5201
▁চক্রবর্তীর	-11.5205
▁ইলেকট্রিক	-11.5208
▁রক্ষণাবেক্ষণ	-11.5208
▁অন্যথায়	-11.5208
▁NTV	-11.5208
▁হীরা	-11.5209
▁চক্রান্ত	-11.5209
▁শিক্ষাবর্ষে	-11.5209
▁স্টে	-11.5209
▁ভিত্তিহীন	-11.521
▁বিশ্বজিৎ	-11.5211
▁এসিড	-11.5211
▁উসমান	-11.5212
ডব্লিউ	-11.5213
▁সীমাবদ্ধ	-11.5213
▁গন্তব্যে	-11.5213
▁চেইন	-11.5215
▁৩৫০	-11.5216
▁নরসিংদীতে	-11.5217
নির্ভর	-11.5218
বগুড়া	-11.5219
▁দাঙ্গা	-11.5219
▁বুয়েটের	-11.5219
▁খাইয়ে	-11.5219
▁স্রোত	-11.522
স্থা	-11.522
▁আবেদনপত্র	-11.522
নির্বাচনে	-11.5221
▁টিকিটের	-11.5221
▁ট্রেডিং	-11.5223
▁নিউজের	-11.523
▁উত্তরাঞ্চল	-11.5233
্টন	-11.5235
▁রয়টার্সের	-11.5236
▁মরে	-11.5237
▁বাবুর	-11.5237
▁রাস্তাটি	-11.524
▁সুরক্ষায়	-11.524
▁কাচ	-11.5243
▁কোয়া	-11.5243
কাশি	-11.5248
▁আশাশুনি	-11.5248
▁ছুঁড়ে	-11.5249
▁অগ্রণী	-11.5249
▁সুভাষ	-11.5249
▁জমায়েত	-11.5249
▁Our	-11.5249
প্রেস	-11.525
রাষ্ট্র	-11.525
▁প্রতিবেশি	-11.5252
▁সিদ্দিকুর	-11.5254
ওয়ার্ড	-11.5255
৬৪	-11.5256
▁নাজির	-11.5258
▁রিয়ার	-11.5261
▁বিরামপুর	-11.5262
পান	-11.5263
▁Ba	-11.5263
▁হারাম	-11.5263
▁রহিমের	-11.5264
▁বালক	-11.5266
▁সেক্টরে	-11.5269
▁সিডনি	-11.5269
হিদুল	-11.5272
▁রেলওয়ের	-11.5275
▁জুয়ার	-11.5277
▁আটককৃতদের	-11.5277
▁কমায়	-11.5277
রাজনীতি	-11.5278
▁নবীনগর	-11.5278
▁পশ্চিমাঞ্চল	-11.5278
▁পারলেন	-11.528
▁দূ	-11.528
▁চারদিন	-11.5282
▁সবুজের	-11.5286
▁অকাল	-11.5288
▁নাগ	-11.5288
▁লাগানোর	-11.5288
▁ইহুদি	-11.5289
▁বটে	-11.5289
▁সুরতহাল	-11.5289
▁সয়াবিন	-11.5289
▁সপরিবারে	-11.5289
▁পিএসজির	-11.5291
▁ইলেকট্রনিক্স	-11.5292
শিপ	-11.5293
▁চাষাবাদ	-11.5296
▁বিধ্বংসী	-11.5296
▁রশি	-11.5297
▁সংলাপে	-11.5299
এসসি	-11.5301
▁করাই	-11.5304
▁গ্রা	-11.5304
▁উইং	-11.5307
▁আনাম	-11.5308
▁কোল	-11.5309
▁অন্ত	-11.5309
ঠি	-11.5309
▁জুট	-11.531
will	-11.5311
▁নাসের	-11.5313
▁গোড়া	-11.5317
হাদ	-11.5317
▁জনজীবন	-11.5325
পল	-11.5326
▁রূপগঞ্জে	-11.5326
▁অচেতন	-11.533
▁অনুপ্রাণিত	-11.533
▁কীটনাশক	-11.533
▁উকিল	-11.533
▁ব্যতীত	-11.533
▁হোয়াইটওয়াশ	-11.533
▁অবলম্বনে	-11.5332
্লা	-11.5332
▁বদরুল	-11.5333
▁জিডিপি	-11.5334
▁আন্দোলনরত	-11.5335
▁অ্যাপে	-11.5336
▁দশা	-11.5337
▁নেননি	-11.5337
▁মনু	-11.5337
▁ফ্যানের	-11.534
▁সাঁতার	-11.534
দিনাজপুর	-11.534
ধেয়ে	-11.534
পরিচয়	-11.5341
পশ্চিমাঞ্চল	-11.5342
▁সিকিউরিটিজ	-11.5343
▁বমি	-11.5344
ম্	-11.5344
▁নান্দাইল	-11.5344
নার্স	-11.5348
▁জানাযায়	-11.5349
▁বিকৃত	-11.5349
▁বিআরটিএ	-11.5352
▁সংখ্যায়	-11.5352
▁আমিনুর	-11.5357
▁গতিশীল	-11.536
▁সেভ	-11.5361
▁জ্যোতি	-11.5363
▁ইনজুরিতে	-11.5364
▁সেশন	-11.5365
▁সমীর	-11.5367
▁জাহেদ	-11.537
▁উচ্ছ্বাস	-11.5371
▁রাবেয়া	-11.5371
▁বিশুদ্ধ	-11.5372
▁ঠিকমতো	-11.5375
▁লাভবান	-11.5375
▁ইল	-11.5378
▁ফারুকী	-11.5378
▁শ্যুটিং	-11.5379
▁যৌনতা	-11.5382
▁এসএ	-11.5383
▁জীব	-11.5388
▁লরি	-11.539
▁এটাকে	-11.5391
খার	-11.5392
▁রাষ্ট্রপক্ষে	-11.5392
▁বাউ	-11.5394
▁অধি	-11.5394
▁পিঠে	-11.5395
হী	-11.5396
▁সিরিয়াল	-11.5396
▁কাউ	-11.5398
▁মিলার	-11.5398
▁গজারিয়া	-11.54
▁তরমুজ	-11.5401
▁সবসময়ই	-11.5402
▁দেখাবে	-11.5403
ল্যা	-11.5405
▁চ্যাম্পিয়নশিপের	-11.5408
গ্রামের	-11.5409
▁খালে	-11.5409
▁দণ্ডপ্রাপ্ত	-11.541
▁প্রশিক্ষন	-11.5412
▁কনভেনশন	-11.5412
▁জৈব	-11.5412
▁গফুর	-11.5412
▁নিদর্শন	-11.5413
▁দেখিয়েছে	-11.5415
▁আজারবাইজান	-11.5416
াইন	-11.5417
▁সুবর্ণ	-11.5419
▁হবো	-11.542
▁উঠ	-11.542
▁সপ্তাহেই	-11.5426
▁চ্যান্সেলর	-11.5426
▁pro	-11.5427
▁সারাবিশ্বে	-11.5427
▁ডাচ	-11.5428
▁আচমকা	-11.5428
▁৭ই	-11.5428
োল	-11.5428
ইজ	-11.5431
ফিল্ড	-11.5435
▁মিডিয়াতে	-11.5435
▁মানুষেরা	-11.5436
▁সমাজকে	-11.5437
▁ক্র	-11.5438
▁হব	-11.544
ম্বার	-11.5441
▁ধরেছে	-11.5445
▁অবস্থানের	-11.5445
▁পরিশোধের	-11.5446
▁ধোয়া	-11.5446
▁টেলিফোন	-11.5449
জনে	-11.5451
▁ঠিকানায়	-11.5451
▁প্রোডাক্ট	-11.5453
▁বরেণ্য	-11.5453
da	-11.5454
▁চারদিকে	-11.5455
▁সিলেটভিউ	-11.5455
গাও	-11.5457
▁চুমু	-11.5457
্প	-11.5459
প্রেম	-11.5459
▁পারত	-11.5462
▁পঞ্চাশ	-11.5462
▁কমিশনে	-11.5463
তান	-11.5464
▁ধুনট	-11.5465
উপাচার্য	-11.5466
▁বিশ্বকে	-11.5466
বিদেশি	-11.5469
িয়াস	-11.5471
▁নুরু	-11.5471
ুত	-11.5472
জেল	-11.5474
বেশ	-11.5475
▁বিজ্ঞানীদের	-11.5479
▁আয়াত	-11.5481
▁সৈয়দপুরে	-11.5484
▁দাও	-11.5484
▁মাহাবুব	-11.5487
▁বৃন্দ	-11.5488
▁শব্দে	-11.5489
▁শটে	-11.549
▁নাচের	-11.5492
অ্যাস্ট্রাজেনেকা	-11.5495
▁এলোপাতাড়ি	-11.5495
▁ঠাঁই	-11.5495
▁মোস্তাফা	-11.5495
▁সুপারভাইজার	-11.5495
▁রোমান্টিক	-11.5495
▁নাসার	-11.5495
▁কাশিমপুর	-11.5495
▁ভয়ভীতি	-11.5495
▁অবকাশ	-11.5496
ছেলে	-11.5497
▁জীবননগর	-11.5497
▁রহ	-11.5499
▁বয়সি	-11.5499
লক	-11.55
▁হারালেন	-11.55
▁স্তন	-11.5501
▁বিস্ময়	-11.5501
▁নেহা	-11.5506
▁দেখবে	-11.5506
▁শর্মার	-11.5506
▁গোলাপি	-11.5507
ম্পা	-11.5507
▁বলবো	-11.5509
▁চাষে	-11.5511
▁রায়কে	-11.5511
der	-11.5513
বাড়ির	-11.5514
নব	-11.5515
▁Cha	-11.5515
▁মন্ত্রিসভায়	-11.5517
▁কল্যান	-11.552
▁সহপাঠী	-11.5521
▁টুকু	-11.5523
ga	-11.5524
রবিবার	-11.5525
স্থলে	-11.5526
▁সেশনে	-11.5528
▁কার্যদিবস	-11.5529
▁কাকে	-11.5529
▁আখের	-11.5531
▁রেস	-11.5531
▁জ্বলে	-11.5533
▁সাধু	-11.5533
দির	-11.5535
▁এমপিওভুক্ত	-11.5536
▁সবজির	-11.5536
▁তাহসান	-11.5537
▁প্রার্থিতা	-11.5537
▁উম্মে	-11.5537
▁লস্কর	-11.5537
▁সার্জেন্ট	-11.5537
▁শোবিজ	-11.5537
▁দেবো	-11.5538
▁বুস্টার	-11.5538
▁ডেট	-11.5538
▁আক্ষেপ	-11.5538
▁সতর্কবার্তা	-11.5539
▁উমর	-11.554
▁৮ম	-11.5542
▁ব্রণ	-11.5544
ight	-11.5546
▁প্রস্তুতির	-11.5547
প্রায়	-11.5547
গুলোও	-11.5548
▁এমপির	-11.5549
▁১লা	-11.555
▁ব্যাকটেরিয়া	-11.5551
হেন	-11.5552
বন্দি	-11.5552
▁শতবর্ষ	-11.5554
ালে	-11.5556
▁বইছে	-11.5556
র্ভ	-11.5562
▁চিন্তার	-11.5564
▁শিক্ষাগত	-11.5565
▁শিক্ষায়	-11.5567
▁জাতিকে	-11.557
▁কলম্বিয়া	-11.5572
▁মহারাজ	-11.5573
▁হত্যাকারী	-11.5574
▁লিপি	-11.5574
▁কটূক্তি	-11.5578
▁বরুণ	-11.5578
▁ভাঁজ	-11.5578
▁blog	-11.5578
▁ইন্ডাস্ট্রির	-11.558
▁নারায়নগঞ্জ	-11.5581
▁গুহ	-11.5581
▁সামিল	-11.5585
▁ক্ষয়	-11.5585
▁আমলা	-11.5586
▁গোপালগঞ্জে	-11.5586
ৎস	-11.5587
▁চাউল	-11.5588
▁কেএম	-11.5589
সম্মান	-11.559
▁ত্যাগের	-11.5591
▁ওয়াচ	-11.5591
▁কর্তন	-11.5593
স্তান	-11.5593
▁নাটকটির	-11.5597
▁রানেই	-11.5598
▁রাঙামাটিতে	-11.5599
▁শ্যামলী	-11.5604
▁লোকালয়	-11.5606
▁মুক্তার	-11.5607
▁ইঁদুর	-11.5607
▁উদ্যান	-11.5609
▁রুটিন	-11.5609
▁মানসিকতা	-11.5609
▁অংশীদার	-11.561
▁দুঃস্থ	-11.561
▁ফির	-11.561
▁দমনে	-11.5613
ন্টা	-11.5613
▁ফুটপাত	-11.5617
▁খেলোয়াড়ের	-11.5617
▁এরপরও	-11.5617
▁অনুষ্ঠ	-11.5618
▁সামগ্রিক	-11.5619
▁আতংক	-11.5619
▁নেপালে	-11.5619
▁রিটার্ন	-11.562
▁অনুষ্টিত	-11.562
▁পল্লবী	-11.562
▁this	-11.562
▁স্থপতি	-11.562
▁পাইকগাছা	-11.562
▁সমাগম	-11.562
▁বাস্তবায়িত	-11.5621
▁অনাদায়	-11.5621
রেট	-11.5621
▁অধীর	-11.5621
▁এয়ারপোর্ট	-11.5621
▁দেখলাম	-11.5621
▁নেটিজেনদের	-11.5623
▁পরিকল্পিতভাবে	-11.5624
কেন্দ্রে	-11.5625
▁বললেই	-11.5629
▁রোশন	-11.563
লাভ	-11.563
▁তুল	-11.563
pa	-11.5632
▁সমমান	-11.5632
▁পুরস্কারের	-11.5632
▁গণ্য	-11.5633
▁তত্ত্ব	-11.5633
আন	-11.5635
▁ট্রাস্টি	-11.5637
▁পিকে	-11.5638
▁হংকংয়ে	-11.5639
▁হাঁটতে	-11.564
▁নীরব	-11.5642
om	-11.5642
▁মৌসুমি	-11.5644
▁বেস	-11.5644
অফ	-11.5644
গঞ্জের	-11.5647
কেট	-11.5649
▁স্ক্যান	-11.5649
▁সবারই	-11.5649
▁অনলাইনের	-11.5649
▁হামজা	-11.5651
▁এলজি	-11.5652
▁তলার	-11.5652
▁দাবা	-11.5653
▁মাছটি	-11.5654
▁অন্ধ	-11.5655
▁গ্রামীণফোন	-11.5658
▁কাজটা	-11.5658
▁শিয়া	-11.566
▁মিশা	-11.5661
▁হিংসা	-11.5662
▁দ্বিধা	-11.5662
▁আশ্বস্ত	-11.5663
▁এন্টারপ্রাইজ	-11.5663
▁ক্যারিবিয়ান	-11.5663
▁থমকে	-11.5663
▁আদমদীঘি	-11.5663
▁পুরস্কৃত	-11.5663
▁ফজর	-11.5663
▁ইয়াকুব	-11.5663
▁অমানবিক	-11.5663
rd	-11.5663
▁তর্ক	-11.5665
▁শ্বশুরবাড়ি	-11.5665
▁বিলীন	-11.5665
াত্মক	-11.5669
▁ইয়ে	-11.5671
▁জাপা	-11.5674
▁চিন্তায়	-11.5674
▁১২৮	-11.5676
সম্পাদনা	-11.5677
কার্য	-11.5678
▁সড়কটি	-11.5678
▁শিগগির	-11.568
▁Dec	-11.5682
যার	-11.5683
বর্ষ	-11.5684
কোট	-11.5687
▁পড়বেন	-11.5688
পর্ব	-11.5689
▁মোমিন	-11.5691
▁দুবার	-11.5692
▁লেবাননে	-11.5694
▁কন্	-11.5699
▁নম্বরের	-11.5701
মুর	-11.5701
ঈ	-11.5701
▁আমদানির	-11.5703
▁চাননি	-11.5704
▁অতিথিরা	-11.5705
▁অতর্কিত	-11.5705
▁শবনম	-11.5705
▁শাহনাজ	-11.5705
▁চৈত্র	-11.5705
▁পরিক্ষা	-11.5705
▁শোকাহত	-11.5705
৭৩	-11.5706
শ্য	-11.5708
▁নাইম	-11.5708
▁কাটাচ্ছেন	-11.5709
▁লঙ্ঘনের	-11.571
▁ডিজাইনার	-11.571
গতি	-11.5711
বাগান	-11.5711
▁উদ্যোগের	-11.5715
নদী	-11.5715
▁মাতৃ	-11.5716
▁চুপ	-11.5718
মিট	-11.5718
▁৬নং	-11.5719
▁স্পিড	-11.5719
ডিএস	-11.5719
▁পরিকল্পিত	-11.5719
▁নীলা	-11.5719
▁যুবতী	-11.572
▁মারার	-11.5722
▁অস্বস্তি	-11.5722
▁Tags	-11.5723
▁বিবরণ	-11.5723
ঘাটা	-11.5724
▁শরীফের	-11.5729
ন্দী	-11.5731
ফেল	-11.5732
▁কোট	-11.5733
ারদের	-11.5733
ল্লি	-11.5735
▁গেটস	-11.5738
▁পিপি	-11.5739
হানি	-11.5739
▁ওয়েবসাইটের	-11.5742
▁লেন	-11.5742
▁অলিম্পিকে	-11.5745
▁অনুপ্রবেশ	-11.5746
▁তুলনামূলক	-11.5746
▁সিলভা	-11.5746
▁লাগলে	-11.5746
▁রাজস্থানের	-11.5746
▁কলেজছাত্রী	-11.5747
▁কথোপকথন	-11.5748
▁সওদাগর	-11.5748
▁হেলমেট	-11.5748
▁চৌরাস্তা	-11.5748
▁বড়সড়	-11.5748
▁সাক্ষ্যগ্রহণ	-11.5748
▁মহল্লার	-11.5748
▁হাসনাত	-11.5749
▁পিসিবি	-11.575
িয়ায়	-11.575
▁কুইজ	-11.575
▁পণ্যবাহী	-11.5752
িফ	-11.5754
▁উন্নয়নশীল	-11.5755
▁রাইড	-11.5755
▁Cox	-11.5757
bangladesh	-11.5758
কিং	-11.5759
▁মাদার	-11.576
▁ব্যাপারটা	-11.5761
উদ	-11.5761
বর্তমানে	-11.5762
▁খালের	-11.5763
▁পিটিআই	-11.5763
পাড়	-11.5765
স্য	-11.5766
▁জামিয়া	-11.5766
াও	-11.5766
▁পাঁচজনের	-11.5769
যু	-11.5769
▁থাই	-11.5769
▁ফজল	-11.5772
▁খানেক	-11.5772
▁নট	-11.5773
লস	-11.5774
▁সুগার	-11.5775
▁মোহ	-11.5777
▁বর্	-11.5777
▁ঘো	-11.578
pl	-11.578
খেলা	-11.5781
▁রণ	-11.5785
▁ধানমন্ডির	-11.5785
▁দলগুলোর	-11.5787
▁উত্তেজনার	-11.5788
▁নেওয়াজ	-11.5788
▁২জন	-11.5789
▁গাই	-11.579
▁আখ্যায়িত	-11.579
▁কতিপয়	-11.579
▁জর্ডান	-11.579
▁কার্টুন	-11.579
▁চিংড়ি	-11.579
▁ছোড়ে	-11.579
▁হ্যান্ডসেট	-11.5791
▁সুবিধাবঞ্চিত	-11.5791
▁বেধে	-11.5791
▁কিমি	-11.5792
▁কষ্টের	-11.5792
▁ঘৃণা	-11.5796
▁ইনু	-11.5799
▁বস্তি	-11.5799
আইন	-11.5799
এসএস	-11.58
▁রিসোর্ট	-11.5801
ংয়ের	-11.5804
▁বিনয়	-11.5804
▁চালালে	-11.5808
po	-11.5808
বিএম	-11.5809
▁সেগুলি	-11.5811
▁উখিয়ার	-11.5813
▁ফলো	-11.5817
ন্তি	-11.5818
সিএ	-11.5818
mb	-11.5821
▁নরম	-11.5822
▁জহুর	-11.5823
বাণী	-11.5823
▁lead	-11.5827
▁মাকসুদ	-11.5832
ষণ	-11.5833
▁চাটখিল	-11.5833
▁এনার্জি	-11.5834
▁বলেননি	-11.5835
নগরে	-11.5836
▁বাংলাদেশিরা	-11.5836
▁ছাত্রকে	-11.584
▁বিভিন্নভাবে	-11.5842
রাজ্য	-11.5845
স্যা	-11.5845
কৃষ্ণ	-11.5848
সাংবাদিক	-11.5849
সিং	-11.5849
▁দাঁড়িয়েছেন	-11.585
পূর্বক	-11.585
ভাঙ্গা	-11.5852
▁Al	-11.5853
▁সৌজন্যে	-11.5854
▁মিনিটেই	-11.5855
▁ঘটাতে	-11.5859
ts	-11.5859
▁রান্নার	-11.586
নাই	-11.586
▁ফরিদা	-11.5861
▁অস	-11.5863
▁লং	-11.5868
৮৩	-11.5868
▁সরল	-11.5869
▁কথাগুলো	-11.587
মিউচ্যুয়াল	-11.5876
▁এমতাবস্থায়	-11.5876
▁জেরুজালেম	-11.5876
▁রাব্বী	-11.5876
▁দূষিত	-11.5876
▁আনীত	-11.5877
▁অর্থে	-11.5877
▁পলাশবাড়ী	-11.5878
▁সুফিয়ান	-11.5879
▁দুর্গম	-11.588
▁রাজন	-11.588
▁থাবা	-11.588
▁নেটিজেনরা	-11.588
আলম	-11.5881
মুন	-11.5881
▁মেশিনে	-11.5883
▁আয়ু	-11.5883
্না	-11.5886
▁বাঁচা	-11.5889
▁বিডিনিউজ	-11.5889
▁সোনালি	-11.589
▁Tech	-11.5893
ct	-11.5894
▁আজগর	-11.5895
▁রোদ	-11.5895
▁রেশ	-11.5896
▁নগরে	-11.5898
▁নৃশংস	-11.5901
▁ট্রলি	-11.5902
বাবার	-11.5903
▁৭ম	-11.5905
▁স্বাগতিকরা	-11.5906
▁কান্ড	-11.5906
▁শুনলে	-11.5907
▁আমরাও	-11.5908
▁মুজিবনগর	-11.5908
ه	-11.5915
▁নামানো	-11.5916
▁রীতিমত	-11.5918
▁আসানসোল	-11.592
▁ইউনুছ	-11.592
▁দিশেহারা	-11.592
▁বন্যপ্রাণী	-11.592
▁বেনজীর	-11.592
▁সাবরিনা	-11.592
▁ফার্মেসি	-11.592
▁কলম্বো	-11.592
▁ফাটল	-11.592
▁দিবা	-11.5921
▁আমু	-11.5921
▁এনটিভি	-11.5921
▁হানাদার	-11.5922
▁ইতালিয়ান	-11.5923
▁১৪২৯	-11.5924
▁প্রোডাকশন	-11.5925
বয়	-11.5927
▁২৫টি	-11.5927
মাকে	-11.5928
▁স্টোকস	-11.5928
▁নভেম্বরের	-11.5928
▁মাইন	-11.5929
▁তরুণের	-11.5931
▁ওয়েলস	-11.5931
▁চট	-11.5932
▁পতনের	-11.5934
▁চরফ্যাশন	-11.5936
▁মিলান	-11.5936
ঘন্টা	-11.5937
▁কালার	-11.5938
▁আড়াইহাজার	-11.5938
▁মসলা	-11.5939
har	-11.594
কাণ্ডে	-11.5941
িউ	-11.5942
রক্ষা	-11.5943
▁ভোগান্তিতে	-11.5944
▁রুটের	-11.5945
▁অনুসন্ধানে	-11.5945
▁সিন	-11.5945
▁স্থায়ীভাবে	-11.5946
ছন	-11.5946
▁আস্তানা	-11.5949
▁কানাইঘাট	-11.5949
▁ma	-11.595
▁বংশ	-11.595
▁স্ট্যাটাসে	-11.595
▁দিপু	-11.5952
▁বহিরাগত	-11.5953
▁মানিয়ে	-11.5953
▁উৎপাদনকারী	-11.5954
▁স্বভাব	-11.5956
▁পাঁচজনকে	-11.5958
▁ঢোকার	-11.5959
▁রুপা	-11.5961
ত্তে	-11.5963
▁কুর্মিটোলা	-11.5963
▁গঙ্গোপাধ্যায়	-11.5963
▁শ্যাম্পু	-11.5963
▁হেনস্থা	-11.5963
▁আলামিন	-11.5963
▁মার্টিন	-11.5964
▁নোটিস	-11.5965
▁ঝাঁপিয়ে	-11.5966
▁মোকাররম	-11.5967
▁খাবারে	-11.5967
▁জেন	-11.5968
▁হিজাব	-11.5968
টেল	-11.5968
▁ইলিশের	-11.5969
▁এমরান	-11.597
▁ফেললেন	-11.5971
গির	-11.5972
▁রয়েছি	-11.5973
▁শুক্র	-11.5973
▁উদ্ধৃতি	-11.5976
▁মমিন	-11.5976
▁চালা	-11.5978
▁ভদ্র	-11.5978
▁যুবকদের	-11.5979
কাত	-11.5979
▁স্পেনে	-11.5979
od	-11.598
মণ্ডল	-11.5983
▁করুণ	-11.5984
▁নির্মাণকাজ	-11.5984
▁লাই	-11.5985
শ্রমিক	-11.5985
▁হাউজে	-11.599
▁প্রবাসে	-11.5991
▁বাহুবল	-11.5993
ণি	-11.5994
▁ক্যারিবীয়	-11.5996
▁মেগাপিক্সেল	-11.6001
▁আক্তারকে	-11.6002
য়াং	-11.6002
▁ছন্দে	-11.6002
▁করিয়া	-11.6004
▁সংক্রমণে	-11.6005
প্রচার	-11.6005
▁ছাপিয়ে	-11.6006
▁তল্লাশী	-11.6007
▁বাংলাবাজার	-11.6007
▁রজব	-11.6007
▁বসবাসকারী	-11.6007
েন্ড	-11.6007
▁ফিরতি	-11.6008
▁খোলামেলা	-11.6008
সোনা	-11.6009
▁ছবিও	-11.601
▁তৌহিদুল	-11.601
▁জামালপুরে	-11.6011
▁ভিন	-11.6012
▁অর্থদণ্ড	-11.6013
▁গম্ভীর	-11.6017
▁অভিভাবকরা	-11.6019
▁কেস	-11.602
▁চাবি	-11.602
▁বলেছিল	-11.6022
▁ডাক্তাররা	-11.6023
ছাত্র	-11.6024
▁ইজ	-11.6024
স্থানীয়	-11.6024
▁রকিব	-11.6026
▁শিবগঞ্জে	-11.6029
▁কিশোরকে	-11.603
▁মঞ্জু	-11.603
▁এদেশে	-11.6031
▁মালদ্বীপ	-11.6033
▁এরপরেই	-11.6033
▁চ্যানেলের	-11.6034
▁রাশিয়ান	-11.604
▁খেলছে	-11.6042
▁রোদে	-11.6043
▁হ্যায়	-11.6044
আইসিসি	-11.6045
▁শ্রমিককে	-11.6047
▁আত্রাই	-11.6047
▁লালমনিরহাটে	-11.6047
▁বাঙ্গালী	-11.6051
▁নৌরুটে	-11.6051
▁একইসাথে	-11.6052
▁মূলধন	-11.6053
▁He	-11.6053
▁মাসুদু	-11.6054
▁কয়েন	-11.6055
▁কৌ	-11.6056
যাত্রী	-11.6056
▁পর্ন	-11.6056
▁রাঙ্গা	-11.6061
▁১০২	-11.6061
▁অমি	-11.6062
▁ফরিদুল	-11.6063
ন্দর	-11.6064
▁নিই	-11.6064
▁দিতেই	-11.6064
চক্র	-11.607
্ফ	-11.607
ডিএফ	-11.6073
▁মেদ	-11.6073
▁সিংয়ের	-11.6074
▁তানোর	-11.6075
▁দামের	-11.6075
ট্রাক	-11.6076
▁মাহমুদুর	-11.6079
▁আয়োজকরা	-11.6079
যদি	-11.6081
▁আফরোজা	-11.6084
▁ক্যাবল	-11.6086
▁ঐক্যের	-11.6087
▁মাত্রই	-11.609
▁অনিচ্ছুক	-11.6095
▁আর্ন্তজাতিক	-11.6095
▁উদ্ধোধন	-11.6095
▁তাৎক্ষনিক	-11.6095
▁পাড়ুকোন	-11.6095
▁সাংবিধানিক	-11.6095
▁অর্গানাইজেশন	-11.6095
▁নির্যাতিতা	-11.6095
▁Sep	-11.6096
▁তারিখঃ	-11.6097
▁আয়রন	-11.6097
▁ভিসার	-11.61
▁পেন	-11.6101
▁পাপুল	-11.6102
সশ্রম	-11.6103
▁প্লাস্টিকের	-11.6105
▁বেতনের	-11.6108
এবং	-11.6113
▁জার্মানিতে	-11.6115
▁সাহ	-11.6119
▁শুন	-11.6119
▁নিউইয়র্কের	-11.6122
▁লঙ্কান	-11.6123
▁গোদাগাড়ী	-11.6125
▁পুর্ব	-11.6125
ড়ার	-11.6127
▁ভরাট	-11.6128
আইপিএল	-11.613
এমডি	-11.6133
পুরা	-11.6133
গের	-11.6137
▁টপকে	-11.6138
▁নন্দীগ্রাম	-11.6139
▁ঋষি	-11.6139
▁পিঁড়িতে	-11.6139
▁সুস্পষ্ট	-11.6139
▁এডুকেশন	-11.6139
▁গোপনীয়তা	-11.6139
▁পরিমাপ	-11.6139
▁বেলকুচি	-11.6139
▁অভিজাত	-11.6139
▁ক্রিশ্চিয়ানো	-11.614
▁বর্মন	-11.614
▁নির্ভরযোগ্য	-11.614
▁গার্ডিয়ান	-11.614
▁চ্যালেঞ্জার্স	-11.614
▁সানিয়া	-11.6142
▁আদৌ	-11.6142
▁মোটেই	-11.6142
ন্টু	-11.6144
করে	-11.6146
ik	-11.6146
▁তিল	-11.6147
▁উপচে	-11.6149
▁দেখাচ্ছে	-11.6149
▁সৌর	-11.615
▁জুড়ী	-11.615
▁ছেলেরা	-11.6151
▁স্পোর্টিং	-11.6153
▁রেহানা	-11.6154
▁বুথে	-11.6154
▁মিথ্যাচার	-11.6155
শ্বর	-11.6156
সূচক	-11.6156
▁জোরে	-11.6157
▁পরম	-11.6158
৭৪	-11.6162
ড়িয়া	-11.6163
▁নিবে	-11.6163
▁১৭০	-11.6164
▁পূর্বক	-11.6166
▁সেগুলোর	-11.6168
▁স্থানীয়ভাবে	-11.6169
▁জাতিসংঘে	-11.6171
▁উদ্বোধনের	-11.6171
▁সুদান	-11.6175
মিডিয়া	-11.6176
▁থাকব	-11.6181
ِي	-11.6181
▁পেঁচিয়ে	-11.6183
▁সজাগ	-11.6183
▁আঙ্গুল	-11.6183
▁ওয়াদুদ	-11.6183
▁বোয়ালখালী	-11.6184
▁Apr	-11.6184
▁পোষণ	-11.6184
▁সংক্রমন	-11.6184
▁সম্পাদন	-11.6184
▁বসুরহাট	-11.6184
▁নেমেছেন	-11.6185
▁ইন্ডাস্ট্রি	-11.619
▁খেলাধুলার	-11.6193
▁শ্রেনীর	-11.6195
▁চৌদ্দগ্রাম	-11.6197
▁জগৎ	-11.6197
ফোর	-11.6199
▁অনুসারী	-11.6202
▁৩৭০	-11.6202
বিনোদন	-11.6202
বর্তমান	-11.6203
▁দুর্যোগে	-11.6205
জন্ম	-11.6209
▁হাওরে	-11.621
▁অভিবাসীদের	-11.6212
▁প্রেক্ষাগৃহে	-11.6212
▁শারীরিকভাবে	-11.6215
▁ফ্লোরিডা	-11.6216
প্প	-11.6216
প্রেমী	-11.6218
▁ঘাঁটিতে	-11.6219
▁মেনেই	-11.6221
▁বিপর্যয়ের	-11.6224
view	-11.6224
▁বেইজিং	-11.6226
▁প্রিন্সিপাল	-11.6228
▁সমসাময়িক	-11.6228
▁সিগন্যাল	-11.6228
▁উয়েফা	-11.6228
▁ডুবুরি	-11.6228
▁ঊর্ধ্বমুখী	-11.6228
▁মানহানি	-11.6228
▁স্নান	-11.6229
▁আইভী	-11.623
▁মালদ্বীপের	-11.6231
▁উপসচিব	-11.6234
▁বলুন	-11.6238
▁সনি	-11.6239
মৃত্যু	-11.6248
ck	-11.625
মিস	-11.6251
▁২০০২	-11.6254
▁ইডি	-11.6255
▁মুদ্রায়	-11.6255
▁দিরাই	-11.6258
▁নিজেরা	-11.6258
নিউ	-11.6261
▁প্রতিষ্ঠানগুলোর	-11.6262
বক্স	-11.6263
দেবী	-11.6265
▁ঘটলে	-11.6268
▁বেআইনি	-11.627
▁ব্যাবহার	-11.6273
▁শাহাদাৎ	-11.6273
▁জমকালো	-11.6273
▁দাশগুপ্ত	-11.6273
▁পরিবর্তিত	-11.6273
▁স্থগিতাদেশ	-11.6274
▁জাহানারা	-11.6274
▁মধ্যপ্রাচ্য	-11.6274
▁ঘুমাতে	-11.6274
▁সেতুতে	-11.6275
▁ঘাটাইল	-11.6275
▁দিলাম	-11.6278
হীনতা	-11.6279
মেট	-11.6286
সামগ্রী	-11.629
▁সংবাদে	-11.6292
স্বপ্ন	-11.6292
ঢাবি	-11.6293
▁জীবনকে	-11.6293
▁বাইরেও	-11.6295
রামপুর	-11.6296
▁প্রান্তিকে	-11.6298
▁শ্রীলংকার	-11.6299
▁বিকাশে	-11.63
▁জটিলতায়	-11.6302
▁পৌ	-11.6306
ge	-11.6307
est	-11.6307
▁রশিদের	-11.631
ষ্টি	-11.6312
তিয়া	-11.6312
▁ফ্ল	-11.6313
▁জয়ন্তী	-11.6315
্রা	-11.6316
▁যান্ত্রিক	-11.6318
▁ডুমুরিয়া	-11.6318
▁সরস্বতী	-11.6318
▁জয়নুল	-11.6318
▁জমজমাট	-11.6318
▁সমাজসেবক	-11.6318
▁নাদাল	-11.6319
▁অস্থিতিশীল	-11.6321
▁অভিনয়শিল্পী	-11.6321
কিশোর	-11.6323
েক্স	-11.6325
▁বন্ধনে	-11.6326
▁আত্মবিশ্বাসী	-11.6328
▁কুসুম	-11.6329
▁বহুদিন	-11.633
▁বিয়ার	-11.633
▁বিকল	-11.633
▁রন	-11.6332
াং	-11.6336
▁কলহের	-11.6336
৮২	-11.6338
কলকাতা	-11.6338
কোয়া	-11.6339
pur	-11.6341
▁গণপিটুনি	-11.6346
গ্রা	-11.6347
▁সাধ	-11.6349
নান	-11.6351
লিতে	-11.6351
▁মাত্রায়	-11.6356
প্ল	-11.6356
▁কৌশলগত	-11.6358
▁প্রভা	-11.636
▁রেখেছি	-11.6361
▁অস্বীকৃতি	-11.6363
▁পথিকৃৎ	-11.6363
▁হাতীবান্ধা	-11.6363
▁bdsaradin	-11.6363
▁নোংরা	-11.6363
▁খুরশীদ	-11.6363
▁বেধড়ক	-11.6363
অক্সিডেন্ট	-11.6363
▁মেমোরিয়াল	-11.6363
▁Aug	-11.6364
▁কার্বন	-11.6364
উস	-11.6365
▁চাকুরি	-11.6366
▁দণ্ডিত	-11.6366
ন্তা	-11.637
▁ছাড়লেন	-11.6371
ka	-11.6374
▁মাহির	-11.6376
▁আযহা	-11.6381
▁শিল্পমন্ত্রী	-11.6381
▁শোধ	-11.6382
▁ট্যাব	-11.6382
▁পঞ্চায়েতের	-11.6385
▁ঘুর	-11.6388
▁এনেছেন	-11.6392
য়াজ	-11.6393
▁ছড়াতে	-11.6393
হক	-11.6395
▁১১২	-11.6395
▁স্ট্রাইক	-11.6397
▁একমাস	-11.6397
▁বরগুনায়	-11.6397
▁কর্মস্থল	-11.6398
কাট	-11.6402
▁ইরাকে	-11.6403
ঁর	-11.6406
▁ভ্লাদিমির	-11.6409
▁সুবিধার্থে	-11.6409
▁ভীড়	-11.6409
▁ইনভেস্টিগেশন	-11.6409
▁রাজনগর	-11.641
▁স্টোরি	-11.6411
▁প্রদর্শনের	-11.6411
▁বিপাশা	-11.6411
স্ত্রীর	-11.6412
দ্দা	-11.6413
▁কমিশনারের	-11.6413
▁পপ	-11.6416
▁ট্র্যাক	-11.6417
ফোন	-11.6418
ুই	-11.6418
প্রো	-11.6418
▁জামাতে	-11.6418
▁ভরপুর	-11.6419
▁আদ	-11.6419
মাতা	-11.642
▁বললেও	-11.6421
▁Ro	-11.6421
দপ্তর	-11.6428
▁কর্মকর্তাবৃন্দ	-11.6429
ব্ল	-11.643
ow	-11.6431
▁পোপ	-11.6431
▁নিরসন	-11.6432
▁সিএএ	-11.6432
▁প্রাণীর	-11.6433
▁বেদনা	-11.6433
ong	-11.6433
▁সবুর	-11.6434
গ্ল	-11.6434
▁মোবাইলের	-11.6434
▁১০৬	-11.6436
▁i	-11.6436
ণ্য	-11.6436
▁প্রেরন	-11.6437
▁দিলেই	-11.6442
▁ফেরান	-11.6443
▁মুহূর্তেই	-11.6444
▁প্রভাস	-11.6444
▁কালিহাতী	-11.6445
▁অরুণ	-11.6446
▁চিপ	-11.6446
▁Alo	-11.6446
▁কাগজে	-11.6449
▁বড়ো	-11.6451
ভিল	-11.6453
▁বিশ্বব্যাংক	-11.6454
▁hours	-11.6454
▁দেবিদ্বার	-11.6454
▁পথিমধ্যে	-11.6454
▁রব্বানী	-11.6454
▁সার্কুলার	-11.6454
▁ইনডেক্স	-11.6454
▁মালাইকা	-11.6455
▁নাচোল	-11.6455
▁সালাহউদ্দিন	-11.6455
▁সনদপত্র	-11.6456
▁সামলে	-11.6457
▁সায়েদ	-11.6459
▁মিসবাহ	-11.6462
▁মিশর	-11.6463
▁রাজ্জাকের	-11.6466
▁চিনা	-11.6467
▁উঠিয়ে	-11.6468
▁ফিরছে	-11.647
বাসি	-11.6471
দাস	-11.6471
▁মিডল	-11.6472
▁Y	-11.6473
▁সৌদিতে	-11.6475
▁উঠলে	-11.6476
▁প্রোফাইল	-11.6477
▁পোনা	-11.6478
▁বুড়িচং	-11.6481
▁গোলা	-11.6482
িয়েছেন	-11.6484
▁কমিটিকে	-11.6485
▁বাঘের	-11.6488
▁হায়দরাবাদের	-11.6492
▁টাই	-11.6493
▁ব্যস্ততা	-11.6494
▁ফাই	-11.6494
▁শোভা	-11.6494
এইচএম	-11.6495
▁বেলজিয়াম	-11.6498
DAILY	-11.65
▁Bhorer	-11.65
▁মিউনিখ	-11.65
▁অনুচ্ছেদ	-11.65
▁কেকেআর	-11.65
▁আসবাবপত্র	-11.65
▁খাইরুল	-11.65
▁রাইফেল	-11.65
▁প্যাটেল	-11.65
▁দুরত্ব	-11.6501
▁আপা	-11.6501
▁দিদার	-11.6501
▁মাইনুল	-11.6503
▁নিবেন	-11.6504
▁নীড়	-11.6504
▁বেগ	-11.6504
▁ভূমিহীন	-11.6505
ফিজ	-11.6505
▁English	-11.6505
ুরা	-11.6506
াইজেশন	-11.6507
টিন	-11.6507
▁Ra	-11.6507
▁বজ্রসহ	-11.6509
স্ট্রি	-11.6512
গায়	-11.6513
▁শিক্ষাবিদ	-11.6514
▁con	-11.652
জামায়াত	-11.6521
বিশিষ্ট	-11.6522
▁খাই	-11.6523
▁মুসলমানরা	-11.653
▁নেক	-11.6532
▁১৪৪১	-11.6536
জীবী	-11.6538
▁আবুধাবি	-11.6538
▁চালাচ্ছেন	-11.6539
▁সবকিছুই	-11.654
ম্মা	-11.6541
▁কাবুল	-11.6542
▁লিটনের	-11.6543
▁করোনামুক্ত	-11.6545
▁থাইল্যান্ড	-11.6546
▁Rajshahi	-11.6546
▁খতিব	-11.6546
▁তামান্না	-11.6546
▁পথচলা	-11.6546
▁যথাসময়ে	-11.6546
▁সেনগুপ্ত	-11.6546
▁জসীম	-11.6546
▁ন্যায়বিচার	-11.6547
▁চিকিৎসকেরা	-11.6547
▁বায়োপিক	-11.6547
▁দাঁড়ালেন	-11.6548
▁লাগান	-11.6551
রেন	-11.6554
▁মদের	-11.6555
▁দাতা	-11.6557
[...]
