<unk>	0
<s>	0
</s>	0
<pad>	0
<|user|>	0
<|assistant|>	0
<|end|>	0
<|system|>	0
<|pad|>	0
<|sep|>	0
<|cls|>	0
<|mask|>	0
<0x00>	0
<0x01>	0
<0x02>	0
<0x03>	0
<0x04>	0
<0x05>	0
<0x06>	0
<0x07>	0
<0x08>	0
<0x09>	0
<0x0A>	0
<0x0B>	0
<0x0C>	0
<0x0D>	0
<0x0E>	0
<0x0F>	0
<0x10>	0
<0x11>	0
<0x12>	0
<0x13>	0
<0x14>	0
<0x15>	0
<0x16>	0
<0x17>	0
<0x18>	0
<0x19>	0
<0x1A>	0
<0x1B>	0
<0x1C>	0
<0x1D>	0
<0x1E>	0
<0x1F>	0
<0x20>	0
<0x21>	0
<0x22>	0
<0x23>	0
<0x24>	0
<0x25>	0
<0x26>	0
<0x27>	0
<0x28>	0
<0x29>	0
<0x2A>	0
<0x2B>	0
<0x2C>	0
<0x2D>	0
<0x2E>	0
<0x2F>	0
<0x30>	0
<0x31>	0
<0x32>	0
<0x33>	0
<0x34>	0
<0x35>	0
<0x36>	0
<0x37>	0
<0x38>	0
<0x39>	0
<0x3A>	0
<0x3B>	0
<0x3C>	0
<0x3D>	0
<0x3E>	0
<0x3F>	0
<0x40>	0
<0x41>	0
<0x42>	0
<0x43>	0
<0x44>	0
<0x45>	0
<0x46>	0
<0x47>	0
<0x48>	0
<0x49>	0
<0x4A>	0
<0x4B>	0
<0x4C>	0
<0x4D>	0
<0x4E>	0
<0x4F>	0
<0x50>	0
<0x51>	0
<0x52>	0
<0x53>	0
<0x54>	0
<0x55>	0
<0x56>	0
<0x57>	0
<0x58>	0
<0x59>	0
<0x5A>	0
<0x5B>	0
<0x5C>	0
<0x5D>	0
<0x5E>	0
<0x5F>	0
<0x60>	0
<0x61>	0
<0x62>	0
<0x63>	0
<0x64>	0
<0x65>	0
<0x66>	0
<0x67>	0
<0x68>	0
<0x69>	0
<0x6A>	0
<0x6B>	0
<0x6C>	0
<0x6D>	0
<0x6E>	0
<0x6F>	0
<0x70>	0
<0x71>	0
<0x72>	0
<0x73>	0
<0x74>	0
<0x75>	0
<0x76>	0
<0x77>	0
<0x78>	0
<0x79>	0
<0x7A>	0
<0x7B>	0
<0x7C>	0
<0x7D>	0
<0x7E>	0
<0x7F>	0
<0x80>	0
<0x81>	0
<0x82>	0
<0x83>	0
<0x84>	0
<0x85>	0
<0x86>	0
<0x87>	0
<0x88>	0
<0x89>	0
<0x8A>	0
<0x8B>	0
<0x8C>	0
<0x8D>	0
<0x8E>	0
<0x8F>	0
<0x90>	0
<0x91>	0
<0x92>	0
<0x93>	0
<0x94>	0
<0x95>	0
<0x96>	0
<0x97>	0
<0x98>	0
<0x99>	0
<0x9A>	0
<0x9B>	0
<0x9C>	0
<0x9D>	0
<0x9E>	0
<0x9F>	0
<0xA0>	0
<0xA1>	0
<0xA2>	0
<0xA3>	0
<0xA4>	0
<0xA5>	0
<0xA6>	0
<0xA7>	0
<0xA8>	0
<0xA9>	0
<0xAA>	0
<0xAB>	0
<0xAC>	0
<0xAD>	0
<0xAE>	0
<0xAF>	0
<0xB0>	0
<0xB1>	0
<0xB2>	0
<0xB3>	0
<0xB4>	0
<0xB5>	0
<0xB6>	0
<0xB7>	0
<0xB8>	0
<0xB9>	0
<0xBA>	0
<0xBB>	0
<0xBC>	0
<0xBD>	0
<0xBE>	0
<0xBF>	0
<0xC0>	0
<0xC1>	0
<0xC2>	0
<0xC3>	0
<0xC4>	0
<0xC5>	0
<0xC6>	0
<0xC7>	0
<0xC8>	0
<0xC9>	0
<0xCA>	0
<0xCB>	0
<0xCC>	0
<0xCD>	0
<0xCE>	0
<0xCF>	0
<0xD0>	0
<0xD1>	0
<0xD2>	0
<0xD3>	0
<0xD4>	0
<0xD5>	0
<0xD6>	0
<0xD7>	0
<0xD8>	0
<0xD9>	0
<0xDA>	0
<0xDB>	0
<0xDC>	0
<0xDD>	0
<0xDE>	0
<0xDF>	0
<0xE0>	0
<0xE1>	0
<0xE2>	0
<0xE3>	0
<0xE4>	0
<0xE5>	0
<0xE6>	0
<0xE7>	0
<0xE8>	0
<0xE9>	0
<0xEA>	0
<0xEB>	0
<0xEC>	0
<0xED>	0
<0xEE>	0
<0xEF>	0
<0xF0>	0
<0xF1>	0
<0xF2>	0
<0xF3>	0
<0xF4>	0
<0xF5>	0
<0xF6>	0
<0xF7>	0
<0xF8>	0
<0xF9>	0
<0xFA>	0
<0xFB>	0
<0xFC>	0
<0xFD>	0
<0xFE>	0
<0xFF>	0
।	-3.01008
,	-3.58631
▁ও	-4.76215
র	-4.77089
ের	-4.81277
-	-4.93446
▁	-5.01121
:	-5.10218
▁করে	-5.13656
▁থেকে	-5.3027
▁এ	-5.33325
▁(	-5.38754
)	-5.39051
▁করা	-5.43409
▁হয়েছে	-5.46278
'	-5.5267
▁হয়	-5.54
▁এই	-5.55851
.	-5.59137
▁না	-5.67742
▁তিনি	-5.71537
▁।	-5.7268
কে	-5.74918
▁এবং	-5.75115
▁'	-5.79484
ে	-5.86911
▁হবে	-5.90579
▁এক	-5.91998
▁তার	-5.92395
▁বলেন	-5.93025
▁নিয়ে	-5.93046
▁জন্য	-5.9587
2	-6.0011
ও	-6.02764
▁করেন	-6.05988
▁একটি	-6.06896
ই	-6.09531
▁করতে	-6.22346
▁এর	-6.25045
▁সময়	-6.26461
0	-6.30734
▁মধ্যে	-6.33056
▁হয়ে	-6.36463
1	-6.37028
▁বলে	-6.38911
▁সঙ্গে	-6.39405
▁:	-6.40082
▁পর	-6.40228
▁পুলিশ	-6.45924
▁জানান	-6.46201
▁তাদের	-6.51093
▁আর	-6.51816
▁জন	-6.52672
▁করেছে	-6.55649
▁-	-6.55724
▁হাজার	-6.55736
▁যায়	-6.60013
▁বাংলাদেশ	-6.61248
সহ	-6.61248
▁করেছেন	-6.62378
▁তবে	-6.63517
▁দিয়ে	-6.64389
▁শুরু	-6.66192
▁গত	-6.66255
▁কথা	-6.71111
▁উপজেলা	-6.75772
▁হচ্ছে	-6.76588
▁যে	-6.78063
তে	-6.78098
▁ওই	-6.78607
▁দুই	-6.7883
▁তারা	-6.81018
▁বিভিন্ন	-6.82037
▁ইসলাম	-6.82607
▁নতুন	-6.83102
▁জেলা	-6.83304
▁রয়েছে	-6.83821
▁করার	-6.84591
▁ছিলেন	-6.85536
▁আগে	-6.85622
▁আজ	-6.87934
4	-6.88011
▁পর্যন্ত	-6.91325
▁টাকা	-6.92573
য়	-6.93881
▁সম্পাদক	-6.94496
▁মো	-6.94614
▁কাজ	-6.94846
▁হিসেবে	-6.9656
▁হোসেন	-6.96741
▁রহমান	-6.97007
▁গেছে	-6.97458
▁উপজেলার	-6.97682
▁কিন্তু	-6.98247
▁প্রথম	-6.98369
▁করোনা	-6.9851
▁আরও	-6.98787
▁তাকে	-6.98855
▁ঢাকা	-6.98949
▁বছর	-7.00378
▁সেই	-7.01113
▁–	-7.02163
▁তা	-7.03494
▁জাতীয়	-7.03719
▁১০	-7.04462
▁প্রধান	-7.05308
▁ছিল	-7.05605
টি	-7.05722
▁আমরা	-7.06372
▁খবর	-7.08332
দের	-7.08809
▁দিন	-7.09843
▁পারে	-7.099
▁কোনো	-7.10179
▁দেশের	-7.10748
▁দেখা	-7.11263
▁বা	-7.11396
▁সভাপতি	-7.12629
▁পরে	-7.12881
▁১	-7.12895
▁জানা	-7.13266
▁২	-7.13912
▁বিরুদ্ধে	-7.13913
▁দিকে	-7.14065
▁সাথে	-7.14262
▁আমাদের	-7.14463
▁শেখ	-7.14878
▁এখন	-7.14938
▁২০২০	-7.17412
▁সব	-7.18284
▁সাধারণ	-7.18752
▁২০২১	-7.19356
▁লাখ	-7.20444
▁হতে	-7.2083
▁শেষ	-7.21028
▁৫	-7.21156
▁দেওয়া	-7.22189
▁কাছে	-7.2251
▁প্রকাশ	-7.22617
▁তথ্য	-7.2288
▁উদ্ধার	-7.23118
▁৩	-7.23285
▁সরকার	-7.24169
▁বেশি	-7.24851
▁সদস্য	-7.24861
▁কর্মকর্তা	-7.24959
▁কিছু	-7.25117
▁মাধ্যমে	-7.25598
▁বুধবার	-7.25711
▁সে	-7.26051
রা	-7.26711
▁সোমবার	-7.27446
▁মঙ্গলবার	-7.28256
▁আমি	-7.2882
▁বৃহস্পতিবার	-7.29209
▁হাসপাতালে	-7.29334
▁৪	-7.2935
▁অভিযোগ	-7.29968
▁মে	-7.3038
▁মৃত্যু	-7.32172
▁চেয়ারম্যান	-7.32371
▁নিহত	-7.32622
ন	-7.32951
▁২০১৯	-7.34295
▁কারণে	-7.3457
▁নেই	-7.34851
!	-7.35059
▁আওয়ামী	-7.35164
▁প্রধানমন্ত্রী	-7.352
▁প্রকাশিত	-7.35375
▁আটক	-7.35831
▁এলাকায়	-7.35939
▁অনেক	-7.36499
▁শনিবার	-7.36523
▁উপস্থিত	-7.36805
▁অনুষ্ঠিত	-7.37625
▁প্রায়	-7.37801
▁ছেলে	-7.3822
▁ডেস্ক	-7.38389
▁নয়	-7.39021
▁আমার	-7.39512
▁দেন	-7.40097
▁আছে	-7.40191
▁সংবাদ	-7.4035
▁শুক্রবার	-7.40564
▁বিষয়ে	-7.40597
▁১২	-7.4105
▁২৪	-7.41598
▁৬	-7.42488
▁জানিয়েছেন	-7.4345
▁হয়েছেন	-7.44373
/	-7.44531
▁দেশে	-7.44539
▁তিন	-7.45064
▁এমন	-7.45413
▁আক্রান্ত	-7.45421
।'	-7.46862
▁বড়	-7.46934
▁গ্রামের	-7.4746
▁নিশ্চিত	-7.47902
ি	-7.47911
▁১১	-7.48026
▁ঘোষণা	-7.48093
▁করছে	-7.48716
▁হলে	-7.48888
স	-7.49481
▁বাংলাদেশের	-7.49964
▁তাই	-7.50616
▁নাম	-7.50699
▁যাবে	-7.50754
▁থানার	-7.50988
▁এতে	-7.51238
▁ধরে	-7.51316
▁সকাল	-7.51522
▁বন্ধ	-7.5154
▁৭	-7.51577
▁স্বাস্থ্য	-7.51882
3	-7.52115
▁দলের	-7.5213
▁বছরের	-7.52244
▁News	-7.52284
া	-7.52333
▁মামলা	-7.52422
▁আগামী	-7.5246
9	-7.52488
▁এবার	-7.53117
▁বিশেষ	-7.53345
▁২০	-7.53738
▁ঘটনা	-7.5382
▁বলা	-7.53832
▁দল	-7.54188
▁খান	-7.54401
▁দিতে	-7.54842
▁কোটি	-7.55787
▁দেয়া	-7.56243
▁ঘটনায়	-7.565
▁অক্টোবর	-7.56562
▁স্থানীয়	-7.56594
▁আরো	-7.56647
▁১৫	-7.57005
▁মানুষ	-7.57239
▁জুন	-7.57792
▁নিউজ	-7.57826
▁দাবি	-7.5785
▁সাবেক	-7.58202
▁পাওয়া	-7.58242
▁সেপ্টেম্বর	-7.58763
▁মতো	-7.5895
5	-7.59013
▁জুলাই	-7.59532
▁প্রতি	-7.59625
▁৮	-7.59676
▁কোন	-7.5975
▁মার্চ	-7.59995
?	-7.60616
▁মানুষের	-7.60769
▁সদর	-7.60863
▁Home	-7.61123
▁একজন	-7.61653
7	-7.63326
▁আহত	-7.63335
▁নামে	-7.65336
▁সহ	-7.6576
▁ইউনিয়নের	-7.65815
▁আপডেট	-7.65992
▁এপ্রিল	-7.66169
▁পুলিশের	-7.66662
▁যা	-7.66712
ী	-7.66715
com	-7.66938
▁৯	-7.66998
▁ছবি	-7.67039
▁রাতে	-7.67465
▁এসব	-7.67885
▁তাঁর	-7.68458
▁বিষয়টি	-7.68594
▁সকালে	-7.69046
8	-7.69247
▁গিয়ে	-7.6983
▁সালে	-7.7012
▁জনের	-7.7034
▁আলী	-7.70588
▁হওয়ার	-7.71105
▁তৈরি	-7.71114
▁আন্তর্জাতিক	-7.71487
▁পড়ে	-7.71702
▁লীগের	-7.71881
▁করছেন	-7.7285
▁"	-7.72943
▁নভেম্বর	-7.73592
▁ভারতের	-7.73601
▁রাত	-7.73683
▁বলেছেন	-7.73736
▁শেষে	-7.73747
▁গ্রেফতার	-7.73858
▁জানুয়ারি	-7.7391
▁হক	-7.74036
▁এলাকার	-7.74434
▁সেখানে	-7.75011
▁নেতা	-7.75258
▁মোঃ	-7.75459
▁যাচ্ছে	-7.76243
▁নারী	-7.76761
▁মনে	-7.76782
▁শিক্ষা	-7.76878
▁সরকারি	-7.77014
▁১৪	-7.77176
▁দিয়েছেন	-7.77384
▁বাড়ি	-7.77546
▁সংখ্যা	-7.77696
▁টি	-7.77915
▁ব্যবস্থা	-7.78021
▁অংশ	-7.78075
▁সামনে	-7.78078
6	-7.78186
▁২০১৮	-7.78227
▁দেশ	-7.7823
▁একই	-7.78402
▁নির্বাচন	-7.78661
▁কি	-7.78665
▁ডিসেম্বর	-7.78674
▁দিয়েছে	-7.78753
▁বেশ	-7.78836
▁মোহাম্মদ	-7.80367
▁পরীক্ষা	-7.80786
▁সালের	-7.80916
▁হলো	-7.81459
▁সিদ্ধান্ত	-7.818
▁অনুষ্ঠানে	-7.82252
▁থাকে	-7.82548
▁জানিয়েছে	-7.8266
▁মারা	-7.82823
▁এটি	-7.83107
▁কলেজ	-7.8316
▁আল	-7.83409
▁নিজের	-7.83736
▁দ্বিতীয়	-7.8378
▁মা	-7.83826
▁হাসান	-7.83999
▁আলম	-7.84268
▁আগস্ট	-7.85403
▁ভালো	-7.86175
▁উদ্দিন	-7.86358
▁দেয়	-7.86366
▁পরিবারের	-7.86445
▁হন	-7.86619
▁পেয়ে	-7.86705
▁এরপর	-7.86792
▁ওপর	-7.86916
▁যান	-7.87022
▁থাকা	-7.87088
▁চৌধুরী	-7.87368
▁সরকারের	-7.87385
▁চেষ্টা	-7.87516
▁হাতে	-7.87619
▁মোট	-7.87792
▁১৩	-7.87809
▁ভর্তি	-7.87905
▁বাংলা	-7.88121
▁তুলে	-7.8838
▁এম	-7.89038
▁গতকাল	-7.89129
▁করবে	-7.89409
▁প্রতিনিধি	-7.89467
▁১৮	-7.89505
▁ড	-7.89509
▁ফলে	-7.90284
▁অভিযান	-7.90521
▁১৬	-7.9065
▁ব্যবহার	-7.91399
▁১৭	-7.91487
▁থানায়	-7.91663
▁৩০	-7.91689
▁দু	-7.9181
▁সাড়ে	-7.91941
▁অবস্থায়	-7.92405
▁১৯	-7.9243
▁কে	-7.92801
▁পরিচালক	-7.93585
▁ঘটে	-7.93966
▁চলছে	-7.94739
▁পাশাপাশি	-7.94843
▁এছাড়া	-7.94944
▁আলোচনা	-7.95109
▁নির্বাহী	-7.95137
▁আহমেদ	-7.95306
▁করবেন	-7.95721
▁বক্তব্য	-7.96017
▁কারণ	-7.96349
▁ধরনের	-7.96648
▁থাকবে	-7.97042
▁কেউ	-7.97127
▁রোববার	-7.97147
▁বিএনপি	-7.97316
▁জেলার	-7.97423
▁নিতে	-7.97424
▁কম	-7.97487
▁২১	-7.97593
▁বিভাগের	-7.979
▁দুপুরে	-7.98859
▁চার	-7.99388
১	-7.99678
▁হয়েছিল	-7.99889
▁রবিবার	-8.00042
▁হত্যা	-8.0047
▁এসময়	-8.00514
▁অফিসার	-8.01277
▁ফেব্রুয়ারি	-8.01544
▁এদিকে	-8.01836
▁হয়নি	-8.02365
▁আদালত	-8.02668
▁কমিটির	-8.03079
▁২৫	-8.03269
▁মাঝে	-8.03368
▁শতাংশ	-8.03453
▁দক্ষিণ	-8.03553
▁ভারত	-8.03671
▁ক্রিকেট	-8.0434
▁২২	-8.04369
▁যদি	-8.04467
▁বিএনপির	-8.04477
s	-8.04911
▁জানায়	-8.05024
▁বিতরণ	-8.05454
▁আব্দুল	-8.05706
▁জানানো	-8.05894
▁স্ত্রী	-8.05966
▁অপরাহ্ণ	-8.06083
▁ইউনিয়ন	-8.06707
▁থেকেই	-8.06802
▁সিলেট	-8.07115
▁ভারতীয়	-8.07164
▁আ	-8.07339
ল	-8.07638
▁দিনের	-8.07887
▁কেন্দ্রীয়	-8.08013
▁উত্তর	-8.08341
▁বাড়িতে	-8.08628
▁শিশু	-8.08899
▁নেওয়া	-8.0913
▁শিক্ষক	-8.09238
▁রান	-8.09611
▁অনলাইন	-8.09871
▁সকল	-8.09973
এ	-8.1019
এর	-8.10391
১৯	-8.10436
▁অন্য	-8.1091
▁চট্টগ্রাম	-8.11095
▁ডা	-8.11222
▁হওয়া	-8.11298
টা	-8.117
▁এসে	-8.11765
▁রেখে	-8.12077
ক	-8.12337
▁সভায়	-8.12407
▁ছাড়া	-8.12707
▁দৈনিক	-8.12707
▁ঘটনার	-8.1309
▁খুব	-8.13962
▁দুটি	-8.14041
▁উপলক্ষে	-8.14863
▁পালন	-8.15196
▁ভিডিও	-8.1548
▁একটা	-8.15956
▁মাঠে	-8.16004
▁সময়ে	-8.16081
▁মার্কিন	-8.16088
▁ম্যাচে	-8.16203
▁অনুযায়ী	-8.1622
▁আইন	-8.16444
▁বিশ্ববিদ্যালয়ের	-8.16651
▁অতিথি	-8.16671
▁সড়ক	-8.16717
▁চলে	-8.16777
▁করোনায়	-8.16918
▁ম্যাচ	-8.16999
▁মামলার	-8.17418
▁সুযোগ	-8.17531
▁২৩	-8.17949
▁রাখা	-8.18151
▁দায়িত্ব	-8.18159
▁লাশ	-8.18177
▁মেডিকেল	-8.18231
▁জয়	-8.1851
▁মৃত	-8.18655
▁/	-8.19038
▁সামাজিক	-8.19121
▁থানা	-8.19198
▁যেতে	-8.1977
▁বার	-8.19901
▁আবার	-8.20434
▁নির্বাচনে	-8.20453
▁বঙ্গবন্ধু	-8.20532
▁রাজধানীর	-8.20678
▁গ্রহণ	-8.20689
▁অতিরিক্ত	-8.20958
▁পাশে	-8.21187
▁আবেদন	-8.21236
▁মামলায়	-8.21331
▁যাওয়ার	-8.21364
▁সংসদ	-8.21507
▁প্রেসিডেন্ট	-8.21605
▁হল	-8.21787
▁পরিষদের	-8.22005
▁মিয়া	-8.22162
▁সবচেয়ে	-8.22181
▁মাস	-8.2236
▁ভোট	-8.22732
▁তদন্ত	-8.22736
▁মাদক	-8.23266
▁সুপার	-8.23566
▁সভা	-8.23614
▁বর্তমানে	-8.23833
▁সম্প্রতি	-8.23976
▁পারেন	-8.24144
▁অন্যান্য	-8.24253
▁পাঁচ	-8.24275
"	-8.24436
▁পাঠানো	-8.24461
▁এগিয়ে	-8.24497
▁শুধু	-8.24702
ঃ	-8.24953
▁উপর	-8.24978
▁নানা	-8.25044
▁হলেন	-8.25505
▁লীগ	-8.25517
▁আদালতে	-8.25528
▁পক্ষ	-8.25915
▁এটা	-8.25934
▁প্রাথমিক	-8.26248
▁শনাক্ত	-8.26503
▁হাসিনা	-8.26528
▁প্রদান	-8.26682
▁আপনার	-8.26943
▁তখন	-8.27458
ম	-8.27651
▁দেওয়ার	-8.28763
▁উন্নয়ন	-8.28829
▁গ্রেপ্তার	-8.28905
▁আয়োজন	-8.29053
▁হামলা	-8.29189
▁রায়	-8.29323
▁আসে	-8.29394
▁বের	-8.29435
▁বেগম	-8.29598
▁করলে	-8.29684
▁বিয়ে	-8.29885
▁দেখে	-8.30469
▁নির্দেশ	-8.3047
▁উদ্বোধন	-8.30488
▁মেয়র	-8.30529
▁কোনও	-8.30628
▁চালিয়ে	-8.30911
▁দেখতে	-8.31114
▁চিকিৎসা	-8.31442
▁২৬	-8.31503
▁সহকারী	-8.31762
▁থাকতে	-8.32166
▁যাওয়া	-8.32215
]	-8.32306
▁অধ্যাপক	-8.32312
▁সূত্রে	-8.32433
▁হলেও	-8.32479
▁পরিবার	-8.32537
▁ব্যাপারে	-8.32572
▁বিপক্ষে	-8.32574
▁যারা	-8.32825
▁প্রার্থী	-8.32938
▁বিশ্ব	-8.32995
▁দ্রুত	-8.33063
▁উপ	-8.33432
▁কুমার	-8.33647
▁সচিব	-8.33764
▁পানি	-8.33785
না	-8.3411
▁করোনার	-8.34191
▁নিজ	-8.34191
▁করি	-8.34328
২	-8.34384
▁বাবা	-8.34797
▁অবস্থান	-8.34826
▁অর্থ	-8.34918
▁নেয়া	-8.35099
▁পরিচালনা	-8.36101
▁রয়েছেন	-8.36511
▁দাম	-8.3654
▁বাংলাদেশে	-8.36581
▁রাখেন	-8.36881
গুলো	-8.36993
▁গেছেন	-8.3718
▁সাংবাদিক	-8.37344
পুর	-8.37437
▁ক্ষেত্রে	-8.37525
▁অব	-8.37737
▁শহরের	-8.37896
▁নম্বর	-8.38027
▁যোগাযোগ	-8.38339
▁২০১৭	-8.3885
▁মাত্র	-8.39241
▁আছেন	-8.39294
▁২৮	-8.39639
▁সমস্যা	-8.39654
▁কার্যক্রম	-8.3971
▁বাজার	-8.39831
▁দায়ের	-8.40058
▁কী	-8.40168
▁মোবাইল	-8.40204
▁কয়েক	-8.40251
▁নিজস্ব	-8.40336
▁সর্বোচ্চ	-8.40345
▁যখন	-8.40574
▁নামের	-8.40696
▁২৭	-8.40784
▁মন্তব্য	-8.40786
▁বিশ্বের	-8.40903
▁যার	-8.41012
▁»	-8.41059
▁পিএম	-8.41313
▁রাখতে	-8.41565
▁পরিস্থিতি	-8.41771
▁সংস্থা	-8.41936
▁ভারপ্রাপ্ত	-8.41947
▁চেয়ে	-8.42201
▁ছোট	-8.42303
▁করুন	-8.42342
ুল	-8.42344
▁সম্পর্কে	-8.42407
▁স্কুল	-8.42437
▁মুক্তি	-8.42626
▁গ্রামে	-8.42639
▁তো	-8.42672
▁এসেছে	-8.42776
▁টাকার	-8.42807
▁অভিনয়	-8.42861
ত	-8.42928
▁পরিষদ	-8.42964
▁যেন	-8.43091
▁মন্ত্রী	-8.43323
▁খালেদা	-8.43928
▁কমিটি	-8.44001
▁বাজারে	-8.44284
▁প্রমুখ	-8.44402
▁অভিযোগে	-8.44658
▁আসা	-8.44978
▁সিটি	-8.45114
▁দিবস	-8.45117
▁নিরাপত্তা	-8.45654
▁৫০	-8.45708
▁যোগ	-8.4576
▁এলাকা	-8.45841
▁থাকার	-8.46023
▁জানতে	-8.46044
▁প্রতিষ্ঠান	-8.46138
▁সভাপতিত্বে	-8.46193
▁সম্ভব	-8.46489
▁দেশটির	-8.46756
▁ছাত্র	-8.46777
▁বিভাগ	-8.46856
▁হাত	-8.46914
▁আবু	-8.47021
▁আগুন	-8.4719
২০	-8.47192
▁ঠিক	-8.47251
তা	-8.47435
▁টিকা	-8.47718
▁জানিয়ে	-8.47827
▁তাহলে	-8.47949
▁স্থানে	-8.48017
▁পথে	-8.48031
▁বেড়ে	-8.48265
▁মেয়ে	-8.48595
▁জীবন	-8.4861
(	-8.48826
▁আহমদ	-8.49126
▁মৃত্যুর	-8.49249
▁বিক্রি	-8.4929
▁দিনে	-8.49478
▁পারবেন	-8.49545
▁ভাই	-8.49653
▁কেন্দ্র	-8.5
ভাবে	-8.50054
▁সেবা	-8.50242
;	-8.50279
▁কাদের	-8.50309
▁২০২২	-8.50342
▁খেলা	-8.50349
▁সৌদি	-8.50644
▁ওসি	-8.511
▁ফিরে	-8.51553
▁আসছে	-8.51556
▁ঘণ্টায়	-8.51716
▁আশা	-8.51877
▁বিকেলে	-8.51889
▁উচ্চ	-8.52108
▁ব্যাংক	-8.52134
▁বিশ্ববিদ্যালয়	-8.52501
▁সুস্থ	-8.52552
▁এখনও	-8.52918
▁মাসের	-8.5293
▁ঢাকার	-8.52958
▁বর্তমান	-8.52976
▁মিনিটে	-8.53059
▁গেলে	-8.53522
▁Bangla	-8.53532
▁উল্লেখ	-8.53572
▁উইকেট	-8.53709
▁নেন	-8.53727
▁নিজেদের	-8.53783
▁তৃতীয়	-8.53816
),	-8.53834
▁অপরাহ্ন	-8.53974
▁আপনি	-8.54255
▁[	-8.54285
▁শিক্ষার্থীদের	-8.54368
▁রাজশাহী	-8.54585
▁দুপুর	-8.55103
▁বাস	-8.55269
▁ঘরে	-8.55283
▁হাসপাতালের	-8.55294
▁জনপ্রিয়	-8.55419
▁হওয়ায়	-8.55581
ার	-8.5566
▁সবাই	-8.55671
▁টেস্ট	-8.55872
▁সাংবাদিকদের	-8.55908
▁বাইরে	-8.55942
▁রিপোর্ট	-8.55974
▁মহিলা	-8.56091
▁শেয়ার	-8.56154
▁স্বামী	-8.56171
▁আবুল	-8.56494
▁করছি	-8.5671
▁জারি	-8.56741
▁অভিনেত্রী	-8.56822
▁পৌর	-8.56927
▁আগের	-8.57255
▁রাজনৈতিক	-8.57293
▁মুখে	-8.57431
▁আহ্বান	-8.57552
▁ই	-8.57621
▁চলতি	-8.58138
▁কেন	-8.58487
▁পড়েছে	-8.58516
▁নিয়েছে	-8.58643
▁হার	-8.5873
▁এস	-8.59021
▁ব্যক্তি	-8.59138
▁উপজেলায়	-8.59146
▁উদ্যোগে	-8.59154
▁পক্ষে	-8.59282
▁সৃষ্টি	-8.59346
▁অধিনায়ক	-8.59558
▁আগেই	-8.59719
▁২৯	-8.59856
▁সারা	-8.60102
▁ফোন	-8.60196
▁প্রধানমন্ত্রীর	-8.60261
▁ইউপি	-8.60271
▁বিয়ের	-8.603
▁মডেল	-8.60485
▁চিকিৎসক	-8.60507
▁গেল	-8.61219
▁কাজে	-8.61267
▁মাসে	-8.61403
▁বিষয়ক	-8.61605
▁অবস্থা	-8.61641
▁বিষয়	-8.61875
▁রহমানের	-8.6203
▁চালু	-8.62091
৩	-8.62162
▁পরিকল্পনা	-8.62204
▁ব্যবসায়ী	-8.62421
▁প্রতিবেদক	-8.62578
▁চাই	-8.62734
৩০	-8.63173
▁মন্ত্রণালয়ের	-8.63173
▁গুরুত্বপূর্ণ	-8.63689
▁জেনারেল	-8.63806
▁করলেন	-8.63989
▁মেনে	-8.64175
▁হাসপাতাল	-8.64188
▁পদে	-8.64234
▁ছড়িয়ে	-8.6456
▁বিমান	-8.64593
▁সংক্রমণ	-8.64621
▁বাড়ির	-8.64728
▁অন্যতম	-8.64863
▁বি	-8.64977
▁যায়নি	-8.6504
▁শিক্ষার্থী	-8.65114
▁বিক্ষোভ	-8.65117
▁পড়া	-8.65254
▁সেরা	-8.65302
▁অ	-8.65323
▁সবার	-8.65558
▁সূত্র	-8.65584
▁এখনো	-8.65686
▁বেলা	-8.65779
▁সম্মেলনে	-8.6584
▁কাছ	-8.66093
▁সিনিয়র	-8.66279
ো	-8.66547
▁দেয়ার	-8.66602
▁হারিয়ে	-8.66608
▁পরীক্ষার	-8.66634
▁প্রয়োজন	-8.66711
▁যুগ্ম	-8.66731
▁জনকে	-8.66759
▁কৃষি	-8.66817
▁নেতৃত্বে	-8.66996
▁রযাব	-8.67116
▁করেছিলেন	-8.67227
▁বার্তা	-8.67345
▁শিকার	-8.67459
▁৩১	-8.67504
শ	-8.67693
▁ধরা	-8.67725
▁সংগ্রহ	-8.67842
▁নির্বাচিত	-8.68045
▁সহায়তা	-8.6815
▁প্রযুক্তি	-8.6815
▁কয়েকটি	-8.68155
িত	-8.68387
▁প্রশাসন	-8.68406
▁থাকায়	-8.68428
▁মরদেহ	-8.68634
▁২০১৬	-8.68697
▁আবদুল	-8.69102
▁গড়ে	-8.69187
▁প্রস্তুতি	-8.69389
▁উল্লেখ্য	-8.69765
▁পর্যায়ে	-8.69856
▁বিশ্বাস	-8.7009
▁রেকর্ড	-8.70435
▁খাবার	-8.70455
▁মধ্য	-8.70552
▁শাহ	-8.70606
▁সম্পর্ক	-8.7064
▁ঢাকায়	-8.70738
▁গাড়ি	-8.70869
▁আসামি	-8.7118
▁খাদ্য	-8.7133
▁পয়েন্ট	-8.71489
▁হত্যার	-8.71545
▁গুলি	-8.71666
▁কমিশনার	-8.71707
১০	-8.71766
▁কলেজের	-8.71892
▁নির্দেশনা	-8.72006
▁এখানে	-8.72029
▁হামলার	-8.72032
৫	-8.72082
▁ফেসবুক	-8.72146
▁পরিবর্তন	-8.72333
▁পান	-8.72588
▁কর্তৃপক্ষ	-8.72608
িং	-8.72794
ব	-8.7284
টির	-8.72986
▁ছাত্রলীগের	-8.73003
▁জেলায়	-8.73345
▁প্রতিদিন	-8.7338
▁সর্বশেষ	-8.73416
▁করেছি	-8.73495
▁উঠে	-8.73872
▁চান	-8.74041
▁ছেড়ে	-8.74262
▁ভারতে	-8.74312
▁ঘটেছে	-8.74328
▁মাহমুদ	-8.74522
▁সদস্যরা	-8.74744
▁কামাল	-8.74766
▁মন্ত্রণালয়	-8.74941
▁ভিত্তিতে	-8.74942
▁পূর্ব	-8.75004
▁প্রশ্ন	-8.7507
▁গান	-8.75119
▁অফিস	-8.75264
▁নিয়োগ	-8.75325
▁ফল	-8.75393
▁সাকিব	-8.75649
▁পুরস্কার	-8.75872
▁স	-8.75966
২৫	-8.76117
▁প্রশাসক	-8.7613
▁মহানগর	-8.76163
▁সময়ের	-8.76233
▁সম্পন্ন	-8.76272
১১	-8.76314
▁বলেও	-8.76355
১২	-8.76403
▁দাবিতে	-8.76432
▁শহীদ	-8.76482
নি	-8.76513
▁ছবির	-8.7659
২৪	-8.76805
▁অ্যান্ড	-8.76947
▁শ্রমিক	-8.77094
▁এমপি	-8.77364
▁আক্তার	-8.77385
▁সেটা	-8.77437
▁সন্ধ্যায়	-8.77868
▁আয়োজিত	-8.77926
▁ভাবে	-8.77968
২২	-8.77979
▁দীর্ঘ	-8.78069
▁মত	-8.78151
▁পাকিস্তান	-8.78291
কম	-8.78359
▁নমুনা	-8.78428
▁নেমে	-8.78489
▁রাখার	-8.78563
১৮	-8.78906
▁পা	-8.78906
▁মূল	-8.78985
▁কর্মসূচি	-8.78989
▁পোস্ট	-8.79441
▁যুক্তরাষ্ট্রের	-8.79483
▁করোনাভাইরাস	-8.79612
বি	-8.79741
▁দলীয়	-8.80039
▁পেয়েছেন	-8.80126
▁তারকা	-8.80311
জ	-8.80428
৪	-8.80623
▁নিয়ন্ত্রণ	-8.8064
▁ঘটনাস্থলে	-8.80657
▁তারিখ	-8.80876
▁গ্রাম	-8.80894
▁নির্মাণ	-8.81203
▁লক্ষ্য	-8.81814
▁অনুষ্ঠান	-8.81874
▁পুরো	-8.81877
▁সাত	-8.82159
▁আমাকে	-8.8218
▁প্রকাশের	-8.82265
▁বিচার	-8.82448
▁যেখানে	-8.82464
▁লোকজন	-8.82675
▁পাকিস্তানের	-8.82871
▁in	-8.83054
▁তিনটি	-8.83153
▁বাংলাদেশি	-8.8321
▁এদিন	-8.8322
▁মিনিট	-8.83271
▁পরবর্তী	-8.83381
▁প্রতিবেদন	-8.83528
▁ধর্ষণ	-8.83561
▁মালিক	-8.83687
▁হিসাবে	-8.83706
▁ফেলে	-8.83894
▁ফের	-8.83965
▁বৈঠক	-8.84323
▁৪০	-8.8433
▁ছয়	-8.84428
ওসি	-8.84662
▁পেতে	-8.84667
▁বৃদ্ধি	-8.84674
▁চিকিৎসাধীন	-8.84896
▁এছাড়াও	-8.84931
▁সংগঠন	-8.84941
▁নিয়েছেন	-8.84964
▁দলে	-8.85215
▁কবির	-8.85241
▁শীর্ষ	-8.85335
▁জরুরি	-8.85651
▁গিয়েছে	-8.85723
▁যদিও	-8.85768
▁মুখ	-8.85782
।"	-8.85854
▁নিয়মিত	-8.85856
▁নেয়	-8.8598
▁করায়	-8.86064
▁পেয়েছে	-8.86075
▁নেওয়ার	-8.86165
▁সংগঠনের	-8.86531
▁যাতে	-8.86627
▁সন্তান	-8.86825
▁আদালতের	-8.86842
▁অনেকেই	-8.86885
১৫	-8.86927
▁অব্যাহত	-8.87003
▁বৈঠকে	-8.87109
▁অধিকার	-8.87114
▁কেজি	-8.87149
▁দশমিক	-8.8722
▁সমিতির	-8.87252
▁বেড়েছে	-8.87345
▁ধারণা	-8.8737
▁দোয়া	-8.87794
▁সম্মেলন	-8.8785
▁গোল	-8.87869
▁রোগী	-8.87935
▁সংশ্লিষ্ট	-8.87939
২১	-8.87955
▁উঠেছে	-8.88042
▁::	-8.88266
▁থাকেন	-8.88543
▁ফুটবল	-8.8856
▁আনা	-8.88818
▁দিলেন	-8.89101
▁প্রতিটি	-8.89102
▁বিনোদন	-8.89104
▁পায়	-8.89166
▁বল	-8.89231
▁ব্যাপক	-8.89235
▁কোভিড	-8.89235
▁পালিয়ে	-8.89274
মা	-8.89463
▁অন্তত	-8.89497
▁ঘণ্টা	-8.89535
▁কার্যালয়ে	-8.89579
১৪	-8.89644
িক	-8.89686
▁জাতির	-8.89767
▁গুরুতর	-8.89814
১৭	-8.89838
▁খুলনা	-8.90512
▁বলতে	-8.90706
▁জড়িত	-8.9071
▁মুক্তিযোদ্ধা	-8.90774
▁একাধিক	-8.90899
▁পাওয়ার	-8.9122
▁রিপোর্টার	-8.91374
▁তাঁকে	-8.91468
▁চলাচল	-8.91475
▁ইসলামের	-8.9152
▁আইনজীবী	-8.91622
▁প্রেস	-8.91626
জন	-8.91691
▁জায়গায়	-8.91735
▁বাহিনীর	-8.92066
▁বাসায়	-8.92168
▁ঈদ	-8.92171
▁ব্যাংকের	-8.92355
▁বাকি	-8.92368
▁প্রতিমন্ত্রী	-8.92513
▁PM	-8.926
▁বিকেল	-8.92717
▁অস্ত্র	-8.92818
▁স্বাভাবিক	-8.92866
▁পরিবহন	-8.92965
১৬	-8.93008
▁ধর্ষণের	-8.93241
▁পণ্য	-8.93455
▁হাসিনার	-8.93531
▁জরিমানা	-8.93583
▁স্টাফ	-8.93679
▁বরিশাল	-8.93694
▁দীর্ঘদিন	-8.93896
২৮	-8.94016
▁ডি	-8.94114
▁যাত্রী	-8.94175
▁যুবক	-8.94224
▁অভিনেতা	-8.94228
▁অবৈধ	-8.94442
▁চায়	-8.94531
▁পরিমাণ	-8.94565
▁বোর্ড	-8.94642
▁বয়সী	-8.9467
▁ভাইরাস	-8.94674
▁পরিচয়	-8.94773
▁যুক্ত	-8.94896
▁বিজ্ঞপ্তিতে	-8.94949
▁রানের	-8.94951
▁গঠন	-8.95095
▁পারবে	-8.95162
দ	-8.955
▁জমা	-8.955
▁ভেঙে	-8.95539
▁পরামর্শ	-8.95556
▁ভাইস	-8.95564
▁বাহিনী	-8.95586
▁আসার	-8.95719
▁বিদ্যালয়ের	-8.95749
▁মহাসচিব	-8.95841
▁মুখোমুখি	-8.96485
▁জন্ম	-8.96605
▁প্রশাসনের	-8.96718
▁০৯	-8.96817
▁লক্ষ্যে	-8.9686
▁বয়স	-8.96869
▁কক্সবাজার	-8.971
▁মানববন্ধন	-8.97157
▁লকডাউন	-8.97182
▁বছরে	-8.97228
▁আসনের	-8.97262
প	-8.97504
▁প্রথমে	-8.97525
পাড়া	-8.97552
▁সহযোগিতা	-8.97554
▁সাংগঠনিক	-8.97686
▁সিরিজ	-8.97748
▁নির্বাচনের	-8.9779
▁থাকলে	-8.97844
▁অন্যদিকে	-8.97886
▁pm	-8.98028
▁তালিকা	-8.98182
▁কমিশন	-8.98218
▁বসে	-8.98237
▁প্রস্তাব	-8.98267
▁মধ্যেই	-8.98298
▁ছবিতে	-8.98382
▁লক্ষ	-8.9839
▁খেলতে	-8.98407
▁তাঁদের	-8.98426
▁পদক্ষেপ	-8.98482
▁কিংবা	-8.98563
▁অনুমোদন	-8.98727
▁উদ্যোগ	-8.98921
▁আওতায়	-8.98995
▁ইনচার্জ	-8.99155
▁তাতে	-8.99158
▁আদেশ	-8.99181
▁ঘর	-8.99212
▁বেসরকারি	-8.99392
▁রানে	-8.99433
▁ম্যাচের	-8.9945
▁লেখা	-8.99518
▁সংক্রান্ত	-8.99681
▁কাজের	-8.99913
২৩	-8.99914
▁বিদ্যুৎ	-9.00049
▁উচিত	-9.00084
▁প্রতিবেদনে	-9.00174
▁আই	-9.00183
▁স্থানীয়রা	-9.0023
▁পৌরসভার	-9.00454
▁প্রবেশ	-9.00546
▁চালক	-9.00574
▁হঠাৎ	-9.00796
▁কণ্ঠ	-9.00799
▁সুবিধা	-9.00867
▁থাকলেও	-9.00867
▁রাজধানী	-9.00916
▁যাচ্ছেন	-9.0103
▁আসতে	-9.01089
▁মাস্ক	-9.01146
▁ম	-9.01178
▁মাথায়	-9.0142
▁আবারও	-9.01428
▁সেনা	-9.01453
▁যেমন	-9.01493
▁রোহিঙ্গা	-9.01551
▁মাছ	-9.0159
▁বিরোধী	-9.01666
▁বাসিন্দা	-9.0178
▁চলচ্চিত্র	-9.01906
▁আরব	-9.0209
▁ওবায়দুল	-9.02185
▁সৈয়দ	-9.02235
▁শহর	-9.02276
▁সি	-9.02375
▁নিন	-9.02469
▁জায়গা	-9.02538
▁ফায়ার	-9.02659
▁সন্ধ্যা	-9.02779
▁কাজী	-9.02922
▁জিয়ার	-9.0294
৩৫	-9.02996
▁গোপন	-9.03006
▁বই	-9.03052
▁জিয়া	-9.0313
▁পবিত্র	-9.03154
▁সিনেমা	-9.03216
▁॥	-9.03261
▁পূর্বাহ্ণ	-9.03329
▁বিস্তারিত	-9.03417
সা	-9.03428
▁পৌঁছে	-9.03546
▁আয়োজনে	-9.03933
▁কঠোর	-9.04063
▁বিজেপি	-9.04228
৬	-9.04243
▁বাতিল	-9.04265
১৩	-9.04312
▁অপরাধ	-9.04465
▁বিচারপতি	-9.04824
▁প্রতিবাদ	-9.04859
▁অনুরোধ	-9.04913
▁চন্দ্র	-9.05081
▁গভীর	-9.05085
২৬	-9.051
▁চীনের	-9.05209
▁টিম	-9.05347
▁মুজিবুর	-9.05395
▁আন্দোলন	-9.0555
▁দেবে	-9.05557
▁ট্রাম্প	-9.05626
▁প্রকল্প	-9.05698
▁বিভাগে	-9.05721
▁প্রয়োজনীয়	-9.05941
▁গোলাম	-9.05971
▁অভিযানে	-9.06021
সি	-9.06045
▁ভূমিকা	-9.06075
▁আসেন	-9.06238
▁অনেকে	-9.06408
▁করোনাভাইরাসের	-9.06451
▁কোচ	-9.06537
▁সাহায্য	-9.06583
▁প্রচ্ছদ	-9.06609
▁ঈদের	-9.06769
ড	-9.06864
▁শরীরে	-9.06937
▁Daily	-9.07018
▁কর্মী	-9.07025
▁নিয়ন্ত্রণে	-9.07063
▁চাইলে	-9.07118
▁পরিবেশ	-9.07119
▁দোকান	-9.07129
▁প্রাণ	-9.07135
▁বৃষ্টি	-9.07215
▁প্রচার	-9.07238
▁পাবেন	-9.07279
▁বাদ	-9.07331
▁এরই	-9.07364
▁সদস্যদের	-9.07481
▁সংস্থার	-9.0752
▁রংপুর	-9.07628
▁তালিকায়	-9.07773
▁ডলার	-9.07857
▁কেটে	-9.08025
▁কারাগারে	-9.08038
▁Bangladesh	-9.08053
▁অনুমতি	-9.08134
▁বিশ্বকাপ	-9.0816
▁খুবই	-9.08182
▁চুক্তি	-9.08183
▁পরীক্ষায়	-9.08191
▁দুর্ঘটনা	-9.08296
▁নুরুল	-9.08337
▁.	-9.08347
▁The	-9.08348
▁ব্যবসা	-9.08561
▁কমে	-9.08728
▁দিক	-9.08783
▁ভুল	-9.08815
▁শারীরিক	-9.08844
ীয়	-9.08923
▁পরিদর্শন	-9.08955
▁চা	-9.08962
▁মুসলিম	-9.09099
ট	-9.09108
▁আর্থিক	-9.09173
ুর	-9.09298
▁মিছিল	-9.09343
▁ডেইলি	-9.09573
▁০৮	-9.09638
▁আজকের	-9.09691
▁হোম	-9.09897
৪০	-9.10004
▁উপহার	-9.10073
▁নজরুল	-9.10091
▁সবাইকে	-9.10178
▁রাজনীতি	-9.10187
▁সোশ্যাল	-9.10189
▁কিছুটা	-9.10198
▁আব্দুর	-9.10205
▁পিতা	-9.10262
▁নি	-9.10283
▁শিক্ষার্থীরা	-9.10386
▁জামিন	-9.10449
▁খেলার	-9.10511
কা	-9.10566
▁লাল	-9.10569
▁কেন্দ্রে	-9.10589
▁মানুষকে	-9.10749
▁বাড়ছে	-9.10766
▁বলছে	-9.10864
▁টানা	-9.10912
িয়া	-9.10956
০০	-9.11065
▁পথ	-9.11082
▁অর্জন	-9.11281
▁শোক	-9.11291
▁হামলায়	-9.11399
▁বিজ্ঞান	-9.11484
২৭	-9.11583
▁স্থান	-9.11591
▁আসলে	-9.11766
▁পার্টির	-9.12142
▁একটু	-9.12158
▁নিহতের	-9.12226
৭	-9.12242
▁পূর্বাহ্ন	-9.12274
▁নিষেধাজ্ঞা	-9.12383
▁চলমান	-9.12462
লা	-9.12467
▁ছাত্রলীগ	-9.12589
জি	-9.12598
▁বলছেন	-9.12603
▁মূল্য	-9.12688
▁জনগণের	-9.12871
▁জমি	-9.12877
▁কালের	-9.12951
▁ছাড়াও	-9.12958
▁ভাইরাল	-9.13073
▁নিজেকে	-9.13099
▁সামরিক	-9.13152
▁শহরে	-9.13321
▁কুমিল্লা	-9.1337
▁বহু	-9.13383
▁চলবে	-9.13499
▁আলীর	-9.13725
▁ভাল	-9.13831
▁হুমকি	-9.13892
▁on	-9.13911
▁চূড়ান্ত	-9.1395
▁হোসেনের	-9.14032
▁ডিজিটাল	-9.14087
▁দিচ্ছে	-9.14254
▁আক্রান্তের	-9.14279
ু	-9.14364
▁গবেষণা	-9.14458
▁মাধ্যমিক	-9.14488
▁সামগ্রী	-9.14702
▁০১	-9.15128
▁মির্জা	-9.15256
▁শাখার	-9.15397
▁মাওলানা	-9.15454
▁দিলে	-9.15479
▁বিকাল	-9.15489
▁দাস	-9.155
▁প্রবাসী	-9.15506
▁শুভেচ্ছা	-9.15598
▁কিলোমিটার	-9.15878
▁রক্ষা	-9.15966
▁তারপর	-9.16031
▁কয়েকজন	-9.16036
▁১০০	-9.16055
▁করেছিল	-9.16058
▁কাউন্সিলর	-9.16145
▁করোনাভাইরাসে	-9.16172
▁রাজ্য	-9.16357
▁৬০	-9.1639
▁তাঁরা	-9.16479
▁কোম্পানি	-9.16629
▁এবারের	-9.16687
▁সংঘর্ষে	-9.16726
▁সম্ভাবনা	-9.1701
▁বঙ্গবন্ধুর	-9.17021
▁ব্যাট	-9.17122
▁স্বীকার	-9.17126
▁ফারুক	-9.17176
য়ের	-9.17223
▁সমাজ	-9.17246
▁ভাগ	-9.17302
▁যুক্তরাষ্ট্র	-9.17327
▁লেনদেন	-9.17361
▁চলেছে	-9.17364
গুলি	-9.17412
▁স্থগিত	-9.17419
▁চীন	-9.17441
▁ক্রীড়া	-9.17483
▁নাগরিক	-9.17785
▁করিম	-9.17813
▁খানের	-9.17873
▁উৎসব	-9.17874
▁অভিযুক্ত	-9.17875
▁ঘটনাটি	-9.18108
▁কলকাতা	-9.18151
▁প্রতিষ্ঠানের	-9.18159
▁ক্লাব	-9.18215
▁প্রসঙ্গে	-9.18271
▁Bengali	-9.18294
news	-9.18342
২৯	-9.18471
▁খোলা	-9.18539
▁নং	-9.18642
▁পাবে	-9.18649
৫০	-9.1879
▁অসুস্থ	-9.18886
▁প্রতিবাদে	-9.18897
সভাপতি	-9.18931
▁চাল	-9.1898
▁প্রশিক্ষণ	-9.18999
▁গল্প	-9.19066
▁২০১৫	-9.19167
▁ঘরের	-9.19243
▁ব্যক্তির	-9.19336
▁নেয়ার	-9.19343
▁ধর্ম	-9.19353
৮	-9.19389
▁ইকবাল	-9.19417
▁রোগ	-9.19503
▁চিকিৎসার	-9.19723
▁ব্যক্তিগত	-9.19856
লে	-9.19879
▁সার্ভিস	-9.1991
▁দুর্ঘটনায়	-9.1992
▁তেল	-9.19953
▁বোর্ডের	-9.20037
▁পার	-9.20044
▁যুব	-9.20214
▁লিখেছেন	-9.20264
▁ক্ষমতা	-9.20274
▁প্রভাব	-9.20311
▁সেটি	-9.20353
টোয়েন্টি	-9.20527
▁ধান	-9.20754
▁দ্য	-9.20767
▁ট্রাক	-9.20898
▁of	-9.20954
▁মনোনয়ন	-9.20969
▁পালিত	-9.21008
▁আসবে	-9.21017
▁at	-9.21258
▁লোক	-9.2138
▁অবশ্য	-9.21389
▁স্বপ্ন	-9.21395
▁তাদেরকে	-9.21451
▁আলো	-9.21652
৪৫	-9.21684
▁জব্দ	-9.21696
▁সু	-9.21848
▁নিখোঁজ	-9.21888
▁কিনা	-9.21894
▁শুভ	-9.21924
০	-9.21928
▁ক্ষতি	-9.22013
▁ত্রাণ	-9.22057
▁কার্যকর	-9.22136
▁সপ্তাহ	-9.22291
▁বক্তব্যে	-9.22319
▁গোলে	-9.22331
▁সপ্তাহে	-9.2234
▁বিবৃতিতে	-9.22355
▁পারেনি	-9.22408
▁নির্যাতন	-9.22464
▁আমিন	-9.2251
▁মিয়ার	-9.22736
▁প্রশ্নের	-9.22783
ং	-9.22902
▁উন্নত	-9.22916
▁ভ্যাকসিন	-9.22945
▁শ্রদ্ধা	-9.23005
▁বিজয়	-9.23018
▁তৃণমূল	-9.23046
▁হাজির	-9.23058
▁প্রকল্পের	-9.23176
▁অসহায়	-9.23232
▁অথবা	-9.23247
▁জবাবে	-9.23432
▁আলমগীর	-9.23485
▁ক	-9.23553
ফ	-9.23562
▁০৭	-9.23616
▁কর্মকর্তারা	-9.23723
▁পশ্চিম	-9.23733
▁নদীর	-9.2374
▁আত্মহত্যা	-9.23753
▁খুলে	-9.23818
▁বাদী	-9.23822
▁বিদ্যালয়	-9.24037
ছে	-9.24185
▁চালায়	-9.24187
▁অপর	-9.24218
▁বাধা	-9.24296
▁রাস্তায়	-9.24302
▁এমনকি	-9.24304
▁জয়ের	-9.24309
▁সফল	-9.24318
▁নিষিদ্ধ	-9.24434
▁লাভ	-9.24441
▁ইয়াবা	-9.24443
▁ডট	-9.24583
মন্ত্রী	-9.24719
▁আনন্দ	-9.24896
▁আইনে	-9.24912
▁Latest	-9.24933
▁শিল্প	-9.25158
▁আঘাত	-9.25281
▁নিরাপদ	-9.25408
▁উদযাপন	-9.25459
▁জি	-9.25591
▁সেলিম	-9.25611
▁ক্রিকেটার	-9.25621
▁নদী	-9.25633
▁ফখরুল	-9.25673
▁০৬	-9.25685
▁ম্যাজিস্ট্রেট	-9.25752
▁নগরীর	-9.2577
▁নারীর	-9.25785
▁পুরুষ	-9.25911
০১	-9.25931
▁সিরিজের	-9.2604
▁অতিথির	-9.26104
▁জীবনের	-9.26122
▁ওয়ার্ড	-9.26261
▁যেসব	-9.26305
▁সরাসরি	-9.26318
▁দূর	-9.2638
▁ছিলো	-9.26483
▁অবশেষে	-9.26502
▁ভয়াবহ	-9.26529
▁গোয়েন্দা	-9.26567
▁বীর	-9.26733
▁কৃষক	-9.26797
▁০৫	-9.26885
▁পুত্র	-9.26892
▁৩৫	-9.27091
▁রোগীর	-9.27197
▁নাকি	-9.27251
▁রাষ্ট্রপতি	-9.2727
▁কামনা	-9.27355
▁হোক	-9.2745
▁আনোয়ার	-9.27463
▁মন	-9.27568
▁অধিদপ্তরের	-9.27636
–	-9.27761
▁পড়েন	-9.28023
er	-9.28121
▁০২	-9.28297
বা	-9.28432
▁এত	-9.28564
▁তীব্র	-9.28675
▁বিভাগীয়	-9.2868
বার	-9.28814
▁ইমরান	-9.28829
▁০৪	-9.28888
▁ওয়ানডে	-9.28913
▁মিডিয়া	-9.28917
▁ভাড়া	-9.29075
▁দুর্নীতি	-9.29081
▁ফেসবুকে	-9.29095
▁স্বাধীনতা	-9.29256
▁বন্ধু	-9.29286
▁দাঁড়িয়েছে	-9.29289
▁আট	-9.29451
▁বিশিষ্ট	-9.29547
▁মাঠ	-9.29599
▁রাস্তা	-9.29739
▁ঘুরে	-9.29772
▁সতর্ক	-9.29774
e	-9.29793
▁চালানো	-9.29993
৩২	-9.30136
▁শুটিং	-9.30271
▁তরুণ	-9.3032
▁সঠিক	-9.30367
▁০৩	-9.30465
▁ওষুধ	-9.30511
▁সাল	-9.30597
▁সিলেটের	-9.30682
▁>	-9.30685
▁সীমান্ত	-9.30695
০৫	-9.30828
▁এসআই	-9.3089
▁প্রস্তুত	-9.30921
▁উদ্দেশ্যে	-9.30922
▁নিচে	-9.30986
▁জাহাঙ্গীর	-9.31018
য়া	-9.31058
▁অর্থাৎ	-9.31071
লি	-9.31239
▁টিভি	-9.31265
▁আয়	-9.31306
▁শতাধিক	-9.31371
▁টাইমস	-9.31526
▁ছুটি	-9.31538
▁মুক্ত	-9.31632
▁আইনের	-9.3167
▁এদের	-9.31706
▁জানুয়ারী	-9.31715
▁পরিস্থিতিতে	-9.31838
গ	-9.31871
▁দেশটিতে	-9.31908
▁অনুষ্ঠানের	-9.31973
▁আওয়ামীলীগের	-9.32113
▁শুনানি	-9.32152
▁একমাত্র	-9.32242
▁অবশ্যই	-9.32244
▁a	-9.32306
▁মামুন	-9.32402
য়ে	-9.325
▁ফেরার	-9.32584
▁কল্যাণ	-9.32584
▁বাংলার	-9.32631
▁পড়তে	-9.32684
▁মায়ের	-9.32723
▁কঠিন	-9.32814
▁প্রমাণ	-9.32829
▁শিশুর	-9.32841
▁পারেননি	-9.32854
▁এএম	-9.32869
▁সোহেল	-9.32878
▁ডাক	-9.32902
▁সমাবেশ	-9.33158
▁যশোর	-9.3333
▁আলাদা	-9.33332
▁বিন	-9.33393
▁মসজিদ	-9.33414
▁চতুর্থ	-9.3342
▁বললেন	-9.33426
▁রাসেল	-9.3349
▁বিশ্বে	-9.33636
▁পোশাক	-9.3365
▁ব্যবস্থাপনা	-9.33994
▁নির্ধারিত	-9.34078
▁স্বাস্থ্যবিধি	-9.34165
▁শক্তিশালী	-9.34172
▁চাপ	-9.34184
০৯	-9.34328
▁রশিদ	-9.34354
▁সেখান	-9.34359
▁ছবিটি	-9.34417
▁যুবলীগের	-9.34614
▁গ্রুপ	-9.34698
▁আটকে	-9.34714
▁ভাইরাসের	-9.34979
▁মতে	-9.34995
▁রাজ্যের	-9.35014
ণ	-9.35116
০২	-9.35126
▁স্থায়ী	-9.3514
▁সিনেমার	-9.35222
▁শিশুদের	-9.35224
▁ইসলামী	-9.35301
▁বিপুল	-9.35382
গুলোর	-9.35446
▁সাংস্কৃতিক	-9.3555
▁আবহাওয়া	-9.35617
▁ফুল	-9.35686
▁খেলে	-9.35692
▁শত	-9.35792
▁পরিচিত	-9.35826
▁হয়তো	-9.35884
▁পারি	-9.35894
নং	-9.35945
▁অধ্যক্ষ	-9.35994
▁উৎপাদন	-9.36029
▁দারুণ	-9.36115
▁মূলত	-9.36129
কার	-9.36227
আমি	-9.36245
▁থাকবেন	-9.36302
▁নিয়ম	-9.36325
ন্ত	-9.36424
▁জেনে	-9.36511
▁কেন্দ্রের	-9.36653
▁অর্থনৈতিক	-9.36716
▁করল	-9.36736
▁সফরে	-9.36826
▁BD	-9.36873
বে	-9.36879
▁প্রসঙ্গত	-9.36928
▁মসজিদে	-9.36985
▁অত্যন্ত	-9.3721
▁অ্যাডভোকেট	-9.3725
▁সত্যতা	-9.37265
▁সুন্দর	-9.37319
▁ওয়ার্ডের	-9.37336
▁পড়ুন	-9.37365
▁নূর	-9.37659
▁পদ	-9.37764
▁প্রক্রিয়া	-9.37867
▁হস্তান্তর	-9.38035
▁লড়াই	-9.38135
কৃত	-9.38201
▁the	-9.38243
▁সিভিল	-9.38286
▁অংশগ্রহণ	-9.38291
০৩	-9.38307
▁সমস্ত	-9.38384
০৪	-9.38448
▁মোটরসাইকেল	-9.38453
▁পানিতে	-9.38606
▁গ্রুপের	-9.38734
▁মিজানুর	-9.38821
▁ক্লাবের	-9.3891
৩১	-9.38941
▁ফলাফল	-9.39057
▁কীভাবে	-9.39169
▁নৌকা	-9.39224
▁সিং	-9.39438
▁Published	-9.39446
▁সড়কের	-9.39558
▁ভবন	-9.39611
▁শ্রেণির	-9.39629
▁ছাত্রী	-9.39655
০৭	-9.39717
▁সরবরাহ	-9.39767
▁উপদেষ্টা	-9.39799
▁আনতে	-9.39891
তম	-9.39892
▁খুঁজে	-9.39901
াল	-9.39939
▁গোটা	-9.40014
▁সম্পদ	-9.40077
▁সড়কে	-9.401
তার	-9.4017
▁দরকার	-9.40176
হ	-9.40178
▁ট্রেন	-9.40207
০৬	-9.40312
▁খুন	-9.40452
▁এনে	-9.40501
▁পরিচালিত	-9.40539
৫৫	-9.40548
▁আদায়	-9.40552
রি	-9.40565
▁হাই	-9.40744
▁ফেরত	-9.40799
▁সহজ	-9.40917
৯	-9.41073
▁S	-9.4131
▁অবস্থিত	-9.41343
▁খারাপ	-9.41393
▁চট্টগ্রামের	-9.41406
▁ওঠে	-9.41463
▁সংকট	-9.41594
▁মুখ্যমন্ত্রী	-9.41628
▁আপনাদের	-9.41643
▁রফিকুল	-9.41679
▁প্রতিরোধ	-9.41714
▁প্রিয়	-9.41791
▁বলিউড	-9.4182
▁গাছ	-9.4189
▁আজাদ	-9.41962
▁করলেও	-9.41986
▁ডটকম	-9.42029
▁চুরি	-9.42142
▁রকম	-9.4215
▁সাতক্ষীরা	-9.42157
▁নেতৃত্ব	-9.42243
▁মৃতের	-9.4227
▁বেতন	-9.42343
▁মমতা	-9.42344
▁ঘটনাস্থল	-9.42354
▁সফর	-9.42359
▁বিকালে	-9.42383
▁স্বরাষ্ট্র	-9.42407
▁সন্ত্রাসী	-9.42434
▁শান্তি	-9.42435
কারী	-9.42473
▁বিজিবি	-9.42476
▁করেই	-9.42507
▁উক্ত	-9.42534
▁অনলাইনে	-9.4267
▁স্পোর্টস	-9.42678
▁শিল্পী	-9.42708
▁সম্পূর্ণ	-9.42754
▁চাকরি	-9.42817
▁বিল	-9.43124
▁নারায়ণগঞ্জ	-9.43253
▁পাতা	-9.43269
▁আসনে	-9.43329
▁kalerkantho	-9.43376
▁খরচ	-9.43383
▁আগামীকাল	-9.43393
▁বাবার	-9.43489
ing	-9.43525
▁মিলে	-9.43548
▁আশঙ্কা	-9.43584
▁মুহাম্মদ	-9.43696
▁প্রতিষ্ঠা	-9.43717
▁প্রকৌশলী	-9.43731
০৮	-9.43751
▁একাদশ	-9.43792
▁নাজমুল	-9.43802
▁ইতোমধ্যে	-9.43889
▁বিচারক	-9.43923
▁চিঠি	-9.44027
▁দেখিয়ে	-9.44044
▁ময়মনসিংহ	-9.4408
▁হাইকোর্ট	-9.44131
▁গ্যাস	-9.44273
▁মুক্তির	-9.44317
▁চরিত্রে	-9.44322
▁হিন্দু	-9.44448
▁বন্দর	-9.44508
▁ঘিরে	-9.44548
▁করব	-9.44681
▁বাস্তবায়ন	-9.44685
▁সালমান	-9.44896
▁সাইফুল	-9.44919
▁এন্ড	-9.44938
আ	-9.45028
▁৭০	-9.4507
▁সেতু	-9.45172
▁সদস্যের	-9.45219
▁মোস্তফা	-9.45238
▁নেতৃবৃন্দ	-9.45239
▁দিল	-9.45429
▁যৌন	-9.4551
▁তুলনায়	-9.45687
▁দেব	-9.45703
▁শাখা	-9.45709
▁বঙ্গাব্দ	-9.45717
▁নির্ধারণ	-9.45739
দা	-9.45742
▁কর	-9.45861
▁news	-9.45893
▁চাহিদা	-9.4598
▁ভোর	-9.46021
▁মিডিয়ায়	-9.46051
▁আরেক	-9.46086
▁নির্বাচনী	-9.46092
▁যুবকের	-9.4621
▁কোথাও	-9.46482
▁জিতে	-9.46665
▁জীবনে	-9.46703
▁বিদেশি	-9.46712
▁মর্গে	-9.46751
▁যুদ্ধ	-9.46847
▁একে	-9.4692
▁ইন	-9.46978
েই	-9.46985
▁দেবেন	-9.47032
▁ওভারে	-9.47091
▁টায়	-9.47229
▁মুহূর্তে	-9.47275
▁প্রেরণ	-9.47322
▁স্থাপন	-9.47337
▁মেডিক্যাল	-9.47488
▁যাদের	-9.47493
৩৮	-9.47506
▁ধাক্কা	-9.47594
▁কমিশনের	-9.47627
▁আধুনিক	-9.47654
▁জেরে	-9.47662
ঁ	-9.47695
▁সুমন	-9.47753
এম	-9.47827
▁কিছুদিন	-9.47859
▁বিডি	-9.48013
▁সাধারন	-9.48133
▁গেলেন	-9.48183
▁সংঘর্ষ	-9.48203
▁লিটন	-9.48479
▁মহান	-9.48529
স্থ	-9.4857
পররাষ্ট্রমন্ত্রী	-9.48623
▁সরিয়ে	-9.48722
▁তামিম	-9.48764
▁হোটেল	-9.48779
▁চিন্তা	-9.48901
▁জল	-9.48982
▁রাশিয়া	-9.49008
▁কোম্পানির	-9.4906
▁সক্ষম	-9.49072
▁ইউনিট	-9.49201
▁মাথা	-9.49307
▁লিখিত	-9.49345
▁চারটি	-9.49408
▁ব্রিটিশ	-9.49424
▁কর্মরত	-9.49471
▁ইমাম	-9.49545
▁ফিরিয়ে	-9.49632
▁শামীম	-9.49678
শে	-9.49761
▁ঋণ	-9.49936
▁বিশ্বকাপের	-9.49999
▁সমর্থন	-9.5008
▁কাউকে	-9.50097
▁মতবিনিময়	-9.50121
▁এলাকাবাসী	-9.50146
▁শুরুর	-9.50227
▁রেল	-9.50236
▁নরেন্দ্র	-9.50305
▁৮০	-9.50326
▁বিশাল	-9.50334
▁রানা	-9.50335
▁পেছনে	-9.50346
▁সীমান্তে	-9.50424
▁আম	-9.50469
▁নেতারা	-9.50598
▁যাত্রা	-9.5061
▁কন্যা	-9.50662
▁তোলা	-9.50729
▁কমপ্লেক্সে	-9.50884
▁ধর্মীয়	-9.50937
▁ইউনিয়নে	-9.51069
▁যত	-9.51131
'-	-9.51178
▁তাপমাত্রা	-9.51229
▁ইরানের	-9.51283
▁Online	-9.51297
▁সারাদেশে	-9.51306
▁আলোচিত	-9.51331
▁৪৫	-9.5135
▁ধন্যবাদ	-9.51474
▁কেবল	-9.5148
▁মাসুদ	-9.51511
▁দলকে	-9.51573
▁স্টেডিয়ামে	-9.51638
▁দেড়	-9.51683
▁কালাম	-9.51725
▁নগদ	-9.51769
th	-9.51951
▁জোর	-9.51962
S	-9.51972
▁অবদান	-9.5198
▁ডিগ্রি	-9.52095
▁পরিণত	-9.52132
▁ব্যবধানে	-9.52133
▁নদীতে	-9.52236
ির	-9.52298
▁বাণিজ্য	-9.52354
▁মান	-9.52369
টিতে	-9.52372
▁ক্ষতিগ্রস্ত	-9.52376
▁চেয়ারপারসন	-9.52407
▁ঝুঁকি	-9.52423
▁জানালেন	-9.52536
▁সচেতন	-9.52548
▁নিজেই	-9.5266
▁এজন্য	-9.52666
▁গুরুত্ব	-9.52699
▁দিনাজপুর	-9.52813
▁৩২	-9.52831
▁সার্বিক	-9.5287
▁সংবাদের	-9.52952
▁খাতুন	-9.53167
▁প্রেসক্লাবের	-9.53205
▁নুর	-9.533
▁২০১৪	-9.5335
▁সংসদের	-9.53405
▁উদ্বোধনী	-9.53436
▁সহযোগী	-9.53549
▁;	-9.5359
▁স্কুলের	-9.53594
▁উইকেটে	-9.53727
▁বিদায়	-9.53859
▁প্র	-9.53939
▁আসন্ন	-9.53951
▁পি	-9.53981
▁কমান্ডার	-9.5399
▁মৃত্যুতে	-9.54062
তেই	-9.54107
▁তুলতে	-9.54123
▁কুষ্টিয়া	-9.54162
▁সংলগ্ন	-9.54186
▁পাস	-9.54222
▁কার্যালয়ের	-9.54293
▁A	-9.54348
▁শরীরের	-9.54348
পি	-9.5447
▁টা	-9.54526
▁সন্তানের	-9.54532
অ	-9.54537
▁সপ্তাহের	-9.54697
▁মেলা	-9.5481
▁পরবর্তীতে	-9.5483
▁ভবনের	-9.54937
▁ইতিহাস	-9.5497
▁মহাপরিচালক	-9.55108
▁নামাজ	-9.5511
▁বোমা	-9.55137
▁কবি	-9.55187
▁চাঁদপুর	-9.55196
▁কার্ড	-9.55412
▁ভাষা	-9.55446
▁বাবু	-9.55729
▁দখল	-9.56037
▁ফি	-9.56052
▁মিলিয়ে	-9.56095
▁বিজ্ঞপ্তি	-9.561
▁তিনজন	-9.56112
▁জঙ্গি	-9.5612
▁by	-9.56154
▁দূরে	-9.56218
▁নন	-9.56228
▁আহবায়ক	-9.56228
▁ফাইনালে	-9.56244
▁কার্যালয়	-9.56252
▁প্রথমবারের	-9.56299
▁সকলের	-9.5635
▁আহসান	-9.56357
▁বজায়	-9.56367
▁পরই	-9.56418
▁চর	-9.565
▁পারিবারিক	-9.56579
▁শোনা	-9.5666
▁মসজিদের	-9.56666
▁পড়েছেন	-9.5681
▁কমেছে	-9.56911
▁মৎস্য	-9.57023
▁ধীরে	-9.57102
▁শক্তি	-9.5724
▁আহ্বায়ক	-9.57275
▁প্রফেসর	-9.57312
▁আমদানি	-9.57323
▁ওরফে	-9.57427
▁কখনো	-9.57451
▁উভয়	-9.57484
মি	-9.57516
▁সবুজ	-9.57612
▁ভিন্ন	-9.57644
▁টার	-9.5769
▁টেস্টে	-9.57728
গুলোতে	-9.57828
৪৮	-9.57849
▁যুবলীগ	-9.5797
▁দিয়েছিলেন	-9.58031
▁জানাতে	-9.58047
▁ফাঁস	-9.5805
▁পৃথক	-9.58118
▁পজিটিভ	-9.58154
▁বিশ্ববিদ্যালয়ে	-9.58185
▁ব্যর্থ	-9.58377
▁গরু	-9.58405
▁গানের	-9.5849
▁প্রেম	-9.58495
্য	-9.58513
▁নষ্ট	-9.58559
▁রাজ্যে	-9.58592
▁পরিদর্শক	-9.58687
▁বাধ্য	-9.58747
▁দাঁড়িয়ে	-9.5876
▁পুড়ে	-9.58762
▁বিশ্বকাপে	-9.58804
▁আসন	-9.58819
▁চরম	-9.58819
▁খবরে	-9.58828
▁সরকারী	-9.5898
▁আলোচনায়	-9.58994
▁খেয়ে	-9.59032
▁তালুকদার	-9.59062
ভিত্তিক	-9.59118
▁করতেন	-9.59134
▁বাসা	-9.59177
লো	-9.59177
▁খন্দকার	-9.59187
▁নেতাদের	-9.59208
▁জেল	-9.59418
▁ধারা	-9.59421
▁যেকোনো	-9.59428
▁জাকির	-9.59476
▁থাকছে	-9.59555
▁সেন্টার	-9.59617
▁লাগে	-9.59617
▁ভ্রাম্যমাণ	-9.59644
—	-9.59653
▁জাহিদ	-9.59666
▁কিশোর	-9.59667
▁আমির	-9.5967
▁রুহুল	-9.5971
▁পরিষ্কার	-9.59792
▁মেয়ের	-9.59812
▁অফিসে	-9.5991
▁কংগ্রেস	-9.59974
▁আসছেন	-9.59986
▁হচ্ছেন	-9.60008
দিন	-9.60052
▁খোঁজ	-9.60064
▁অপেক্ষা	-9.60096
▁রহিম	-9.60129
▁দর	-9.60148
▁প্রতিরোধে	-9.60154
▁একসঙ্গে	-9.60202
▁আউট	-9.60279
▁মেসি	-9.60308
▁সমাধান	-9.60308
▁যুক্তরাষ্ট্রে	-9.60358
▁বিকল্প	-9.60371
▁বদলে	-9.6042
▁অধিদপ্তর	-9.60559
▁নায়িকা	-9.60627
▁অস্ট্রেলিয়া	-9.60657
▁কক্ষে	-9.60682
▁পূজা	-9.60748
▁জন্মদিন	-9.60764
▁অঞ্চলের	-9.6079
▁ভয়	-9.60792
৩৭	-9.60798
▁বাড়িয়ে	-9.60905
▁জুটি	-9.60921
৪২	-9.60956
▁সমালোচনা	-9.61117
▁কিভাবে	-9.61248
▁হবেন	-9.61276
▁আপিল	-9.61284
▁দফায়	-9.61329
▁চট্টগ্রামে	-9.6134
▁পেলেন	-9.61351
▁বগুড়া	-9.61487
৩৩	-9.61496
▁সার্জন	-9.61578
▁যেভাবে	-9.6161
▁ইনিংস	-9.61694
▁দেখার	-9.61701
৩৪	-9.61733
▁পার্টি	-9.61855
▁রাজ	-9.61897
▁যৌথ	-9.61963
▁রাস্তার	-9.62023
▁দ্বারা	-9.62035
▁মহামারি	-9.62072
▁দমন	-9.62107
▁ব্যস্ত	-9.62161
▁কর্তৃপক্ষের	-9.62221
▁পেঁয়াজ	-9.62221
▁আন্দোলনের	-9.62223
▁ইন্টারনেট	-9.62242
▁ওয়েস্ট	-9.62243
▁কিছুই	-9.62407
▁অঞ্চলে	-9.6243
▁ডোজ	-9.62542
▁ওয়েব	-9.62659
▁উদ্দেশে	-9.62673
▁পছন্দ	-9.62709
▁লিগ	-9.62719
▁স্ত্রীর	-9.62774
▁রাশিয়ার	-9.62828
৩৬	-9.63088
▁কর্মীদের	-9.63092
▁লিমিটেড	-9.63116
▁ঢুকে	-9.63145
▁বিমানবন্দরে	-9.6318
▁প্রত্যাহার	-9.63215
▁নির্মিত	-9.63306
▁পেরে	-9.63315
▁দিচ্ছেন	-9.63317
▁রযাবের	-9.63334
▁উপায়	-9.63364
▁সংরক্ষণ	-9.63406
আমরা	-9.63559
▁কর্মকর্তাদের	-9.63643
▁পাচ্ছে	-9.63662
▁তারেক	-9.63691
▁তৈরির	-9.63741
▁উন্নয়নের	-9.63786
▁আপনারা	-9.63832
▁ঈদুল	-9.6384
▁তদন্তের	-9.63973
ভ	-9.63978
▁কালো	-9.63993
▁মাধ্যম	-9.64042
▁পদ্মা	-9.64099
▁and	-9.64106
▁বিজয়ী	-9.64154
▁ডাক্তার	-9.6416
▁বক্তারা	-9.64177
▁পরিস্থিতির	-9.64213
▁দাফন	-9.64218
▁কাল	-9.64272
▁ভেতরে	-9.64371
▁পাশের	-9.64424
▁দায়ে	-9.64507
▁অফ	-9.64556
▁নির্মাতা	-9.64595
ডি	-9.64628
কালে	-9.64675
▁প্রতিযোগিতা	-9.6474
▁নামক	-9.64827
▁অ্যাপ	-9.6485
▁প্রিমিয়ার	-9.64853
▁ম্যানেজার	-9.64862
y	-9.64888
▁শাস্তি	-9.64956
▁চুল	-9.64966
নে	-9.65055
▁আপনাকে	-9.65069
▁সার্ভিসের	-9.6511
নগর	-9.6524
▁অফিসের	-9.6528
▁কারাদণ্ড	-9.65281
▁চিত্র	-9.65428
▁বিরাট	-9.65461
▁শুরুতে	-9.6547
t	-9.65574
তি	-9.65592
▁Bengal	-9.65617
▁নির্দিষ্ট	-9.65637
▁কর্তৃক	-9.6569
▁স্টেশন	-9.65734
▁ডুবে	-9.6578
▁চোখে	-9.65848
▁কারা	-9.65876
▁ধরেই	-9.65939
▁প্রচুর	-9.65942
খ	-9.66008
▁সর্ব	-9.66164
▁খেতে	-9.66187
৪৭	-9.66248
▁মুখপাত্র	-9.66265
▁অস্ট্রেলিয়ার	-9.66273
▁পিছিয়ে	-9.66286
▁মানসিক	-9.66344
▁সংস্করণ	-9.66475
▁Views	-9.6648
▁দাখিল	-9.66485
▁ইতিমধ্যে	-9.66508
▁অবরোধ	-9.66601
▁শপথ	-9.66601
▁পড়ার	-9.66811
▁মিথ্যা	-9.66822
▁ফোনে	-9.66853
▁ট্রাম্পের	-9.66854
▁রেজাউল	-9.66927
▁জনে	-9.66955
▁চ্যানেল	-9.66964
▁পয়েন্টে	-9.66964
▁মাহবুব	-9.67056
▁দিবাগত	-9.67173
▁বিপরীতে	-9.67189
▁খুশি	-9.67198
▁চ্যাম্পিয়ন	-9.67227
▁আসামী	-9.67328
▁জুড়ে	-9.67368
▁সেনাবাহিনীর	-9.67384
▁দুজন	-9.67415
▁ত্যাগ	-9.67424
▁সংবাদদাতা	-9.67512
▁তেমন	-9.67531
▁বুঝতে	-9.67581
৪৩	-9.67586
▁বাজেট	-9.67604
▁হয়েছিলেন	-9.67615
▁পেলে	-9.67647
বাংলা	-9.67689
▁ধারণ	-9.6775
পা	-9.67791
এই	-9.67834
▁চোখ	-9.67887
▁ঐ	-9.67904
▁ভিড়	-9.68064
▁দফা	-9.68064
▁সমাজের	-9.68067
▁রাখে	-9.68074
▁পৃথিবীর	-9.68152
▁স্বামীর	-9.68153
▁খেলোয়াড়	-9.68204
▁হতো	-9.68235
▁টাকায়	-9.683
৩৯	-9.68304
▁অবস্থার	-9.68365
▁কলকাতার	-9.68437
▁পুলিশকে	-9.68479
▁কাটা	-9.6849
▁কত	-9.68558
▁স্মৃতি	-9.68725
৫৯	-9.68739
▁সুপ্রিম	-9.68869
ed	-9.68875
▁ভাইরাসে	-9.68906
x	-9.68966
▁বিজেপির	-9.68978
৫২	-9.68998
▁কারণেই	-9.69021
▁মানব	-9.69065
▁সাহা	-9.69075
▁একবার	-9.69177
▁বন	-9.69303
▁ভোরে	-9.69436
▁পররাষ্ট্র	-9.69442
▁নিবন্ধন	-9.69593
▁যাওয়ায়	-9.69598
▁সিরিজে	-9.69602
▁বলেছে	-9.69681
▁ধরণের	-9.69752
৪৪	-9.69761
৫৭	-9.69772
▁জাল	-9.69814
▁পতাকা	-9.69831
▁গাড়ির	-9.69889
▁এসএসসি	-9.70018
▁করবো	-9.70057
▁৯০	-9.70122
▁to	-9.70123
কি	-9.70149
▁আলহাজ্ব	-9.70158
▁খাওয়া	-9.70214
▁গরম	-9.70243
▁মেয়াদ	-9.70317
▁কয়েকদিন	-9.70342
▁নিয়েই	-9.70398
▁নারীদের	-9.70424
▁লা	-9.70758
▁নিউ	-9.70771
▁লেগে	-9.70778
▁ভূমি	-9.70784
▁কুপিয়ে	-9.70846
▁পঠিত	-9.70893
▁হামিদ	-9.70922
▁পূর্ণ	-9.70935
▁রক্ত	-9.70941
▁আনার	-9.70957
৪১	-9.70998
▁সা	-9.71126
▁সভাপতিত্ব	-9.71138
▁বোন	-9.71212
▁নগর	-9.7131
▁বরং	-9.71382
সে	-9.71464
▁সংবাদমাধ্যম	-9.71547
৫৮	-9.71547
▁সাংসদ	-9.71552
▁প্রাক্তন	-9.71587
▁বেরিয়ে	-9.71663
▁উপাচার্য	-9.71819
▁ঘোষ	-9.71853
▁বাজারের	-9.71915
▁পূরণ	-9.71936
বাংলাদেশ	-9.72176
▁নাসির	-9.72215
▁মাশরাফি	-9.7225
▁মুজিব	-9.72407
▁আমেরিকার	-9.72413
▁প্রকাশ্যে	-9.72461
▁কর্মসূচির	-9.72561
▁ঘণ্টার	-9.7262
▁সোনার	-9.72672
▁ঝড়	-9.72709
▁শ্রমিকদের	-9.72781
▁টেলিভিশন	-9.72911
▁২০০	-9.72991
▁এসেছেন	-9.73005
▁ডোনাল্ড	-9.73021
▁অল্প	-9.7304
▁দপ্তর	-9.73138
▁আশ্রয়	-9.73149
Com	-9.7317
ভি	-9.732
▁কর্তব্যরত	-9.73291
▁সুলতানা	-9.73295
▁প্রতিষ্ঠাতা	-9.73316
▁সংযুক্ত	-9.734
▁সাড়া	-9.73437
▁ময়নাতদন্তের	-9.73472
▁১১টার	-9.73475
▁am	-9.73616
▁কর্মীরা	-9.73625
▁কোর্ট	-9.73631
▁উপসর্গ	-9.73634
▁আব্দুল্লাহ	-9.7365
▁আরেকটি	-9.73776
▁জবাব	-9.73819
▁সুরক্ষা	-9.73912
▁হেরে	-9.73933
জা	-9.73949
▁যাবেন	-9.74006
▁টিকিট	-9.74328
▁ফ্লাইট	-9.74384
▁ফাইনাল	-9.74464
▁মাদ্রাসা	-9.74469
▁১১টায়	-9.74533
▁পৌরসভা	-9.74536
▁রাজি	-9.74624
▁গিয়েছিল	-9.74633
▁বলেই	-9.74713
▁প্রশংসা	-9.74721
▁মোল্লা	-9.74745
▁ছাড়াই	-9.7478
▁আব্দুস	-9.74843
▁বলেছিলেন	-9.75002
▁পলাতক	-9.75047
▁গণমাধ্যম	-9.75071
▁ফরিদপুর	-9.75104
▁বিদেশে	-9.75181
▁কা	-9.75212
৫৩	-9.75256
▁আকাশ	-9.75302
▁মেহেদী	-9.75333
▁ডেঙ্গু	-9.7538
▁জে	-9.75387
▁অভিষেক	-9.75392
▁রুবেল	-9.75497
▁জনগণ	-9.7555
৪৬	-9.75568
৫৪	-9.7562
▁অথচ	-9.75684
▁শো	-9.75707
i	-9.75716
▁ভবনে	-9.75754
৫৬	-9.75782
▁পরিচালনায়	-9.75855
▁সমিতি	-9.75925
▁চ্যালেঞ্জ	-9.75994
▁গাজীপুর	-9.75998
▁মহাসড়কের	-9.7603
▁ক্ষমতায়	-9.76156
▁বৃষ্টির	-9.76179
▁শ	-9.76252
▁গলায়	-9.76313
▁ওজন	-9.76326
্স	-9.76373
▁মিলন	-9.76422
▁ইংল্যান্ড	-9.76466
▁জড়িয়ে	-9.76513
▁পরিবারকে	-9.76577
▁মিলনায়তনে	-9.76577
▁গুগল	-9.76577
▁কো	-9.76708
▁শীর্ষে	-9.76803
▁ব্যাটসম্যান	-9.76828
▁সাদা	-9.76861
▁স্বাগত	-9.76921
▁সত্য	-9.76937
▁বাড়তে	-9.76976
▁রূপ	-9.76978
▁সিলেটে	-9.77092
▁ব্যবহৃত	-9.77109
▁বসবাস	-9.77133
▁সিনেমায়	-9.77169
▁সংক্রমণের	-9.77236
▁কখনও	-9.77267
▁মু	-9.77361
▁লেখক	-9.77362
রে	-9.77485
▁প	-9.77523
▁ব্যয়	-9.77526
▁কলেজে	-9.77542
▁সমাবেশে	-9.77571
▁বেঁধে	-9.77623
ছ	-9.77678
▁নজর	-9.77823
উল	-9.77836
▁টেকনাফ	-9.77933
▁আহবান	-9.77976
▁আপাতত	-9.7799
▁আবেদনের	-9.77996
উ	-9.78026
▁জামাল	-9.78056
৪৯	-9.78058
▁আহতদের	-9.78078
▁বলিউডের	-9.7811
▁নাই	-9.78255
▁পদত্যাগ	-9.78401
▁স্বাক্ষরিত	-9.78425
▁সেনাবাহিনী	-9.78499
▁ইত্যাদি	-9.78586
▁৩৩	-9.78615
▁মান্নান	-9.78756
▁আল্লাহ	-9.78788
▁অবনতি	-9.78802
▁রেজা	-9.78842
▁মিলিয়ন	-9.7885
আর	-9.78853
য	-9.7886
▁বরাত	-9.79003
▁ডিবি	-9.79034
৫১	-9.79053
▁ভোটের	-9.79066
▁৩৪	-9.79066
▁বাবুল	-9.79074
▁ইনিংসে	-9.79198
▁কামরুল	-9.79229
▁বন্দ্যোপাধ্যায়	-9.79364
▁রোহিঙ্গাদের	-9.79422
▁চৌধুরীর	-9.7946
▁৪৮	-9.79575
▁অভিজ্ঞতা	-9.79587
▁ব্যাটিং	-9.79595
▁বিবিসি	-9.79597
▁জো	-9.79659
▁ডাঃ	-9.79739
▁সালাম	-9.79914
▁বেশিরভাগ	-9.79962
▁প্রতিরক্ষা	-9.79969
▁রোধে	-9.79984
▁উপস্থিতি	-9.80014
▁মারধর	-9.80045
▁বিদেশ	-9.80243
▁হোসাইন	-9.80252
▁জাতিসংঘের	-9.80285
▁গঠিত	-9.80295
▁বন্যা	-9.80371
▁চলতে	-9.80373
▁ক্লাস	-9.80433
ড়	-9.80523
▁মনির	-9.80554
▁গ্রহণের	-9.80599
▁পিস	-9.80641
▁শুনে	-9.80649
▁উন্নয়নে	-9.80675
▁দুর্দান্ত	-9.80699
▁ক্রিকেটে	-9.8076
▁রিমান্ড	-9.80789
▁করেনি	-9.80889
▁হিসাব	-9.80923
▁পর্যায়ের	-9.81202
▁নিকট	-9.8122
▁হারুন	-9.8127
▁নিজে	-9.81363
▁৩৬	-9.81371
▁দুধ	-9.81386
▁প্রেমের	-9.81387
▁কারো	-9.81407
▁পানির	-9.81453
▁আমেরিকা	-9.81456
▁এল	-9.81491
▁বেঁচে	-9.81523
▁জন্যই	-9.81567
মে	-9.81585
▁উদ্দীন	-9.81628
▁বাড়ানো	-9.81661
▁ডেস্কঃ	-9.8167
▁পঞ্চম	-9.81678
▁আবারো	-9.81686
▁Breaking	-9.81753
▁টু	-9.81755
▁দূরত্ব	-9.81783
▁গেলেও	-9.81809
▁রেখেছে	-9.81812
▁মাটিতে	-9.81847
▁মোদি	-9.81883
d	-9.81887
▁ঐতিহাসিক	-9.81923
▁Dhaka	-9.81923
▁জজ	-9.81927
▁bangla	-9.81966
▁অভিযোগের	-9.81981
▁শব্দ	-9.82055
▁ছেলের	-9.82076
▁অসংখ্য	-9.82114
▁আইনশৃঙ্খলা	-9.82202
▁সহযোগিতায়	-9.82278
▁আবাসিক	-9.82286
▁ফেব্রুয়ারী	-9.82305
▁এভাবে	-9.82346
▁সেঞ্চুরি	-9.82368
▁সমস্যার	-9.824
▁৫০০	-9.82531
▁কম্পিউটার	-9.82588
নো	-9.82623
▁স্কুলে	-9.82624
▁পুনরায়	-9.82659
▁একদিন	-9.82742
▁Updated	-9.82749
▁নব	-9.82796
▁সেগুলো	-9.82912
▁অর্থনীতি	-9.82957
লীগের	-9.83088
▁দোকানে	-9.83099
▁সন্ধান	-9.83149
▁হেফাজতে	-9.83151
▁শিক্ষামন্ত্রী	-9.832
▁হোটেলে	-9.83209
▁উদ্দেশ্য	-9.83292
▁স্বাধীন	-9.83366
গত	-9.83381
▁সংসদে	-9.83404
▁রোগীদের	-9.83495
▁ফাউন্ডেশন	-9.8353
▁০	-9.83542
▁জানেন	-9.83579
▁কল	-9.83639
▁নম্বরে	-9.83658
▁আঞ্চলিক	-9.83743
▁ভোটার	-9.83847
এস	-9.83852
▁আসাদুজ্জামান	-9.83887
▁নিচ্ছে	-9.83887
▁মানবিক	-9.8389
▁চিহ্নিত	-9.8397
▁পক্ষের	-9.83997
▁ধ্বংস	-9.84007
▁বিনিয়োগ	-9.8403
▁শিরোপা	-9.84072
▁প্রতীক	-9.84246
▁স্ত্রীকে	-9.84248
▁জাতিসংঘ	-9.84257
▁লাগবে	-9.84271
▁নির্যাতনের	-9.84281
মান	-9.8435
▁লাইন	-9.84381
▁পর্যটন	-9.84479
▁রাষ্ট্রদূত	-9.84535
▁বিনামূল্যে	-9.84581
▁মঞ্জুর	-9.84616
▁ঘন্টা	-9.8463
▁উঠতে	-9.84676
▁বিনা	-9.84721
▁ইংল্যান্ডের	-9.8474
▁পাচ্ছেন	-9.84807
▁অতি	-9.84844
ছেন	-9.849
▁রবিউল	-9.84914
▁জাহান	-9.85073
চ	-9.85159
▁কেমন	-9.85165
▁পাঠ	-9.85185
▁জানি	-9.8519
েও	-9.85192
▁নেতার	-9.85352
▁সাম্প্রতিক	-9.85362
▁ফর	-9.85363
▁সংযোগ	-9.85366
▁মানবাধিকার	-9.85382
▁ভাষায়	-9.85412
▁নেতাকর্মীরা	-9.85451
▁স্বীকৃতি	-9.85469
নের	-9.85512
▁বিসিবি	-9.85513
▁কোথায়	-9.85529
▁হ	-9.85565
▁শরীর	-9.85605
▁হাজারের	-9.8566
▁স্বাধীনতার	-9.85708
▁ডেকে	-9.85956
▁আছি	-9.85987
▁ব্যক্তিকে	-9.86035
▁স্পষ্ট	-9.86035
▁প্রিন্ট	-9.86063
▁ক্ষমা	-9.86069
▁কাপ	-9.8617
▁যানবাহন	-9.8626
▁সাফল্য	-9.86281
▁শ্রী	-9.86287
▁পরও	-9.86297
▁দেহ	-9.86333
▁এশিয়া	-9.86342
▁বরাদ্দ	-9.86347
▁গায়ে	-9.86382
▁মিটার	-9.86416
▁করেননি	-9.86441
▁জনকন্ঠ	-9.86506
▁ব্যবহারের	-9.86597
▁মহা	-9.86607
▁অপহরণ	-9.86616
▁বাংলাদেশকে	-9.86732
▁লকডাউনের	-9.86757
▁সম্মান	-9.86766
▁শুধুমাত্র	-9.868
▁ক্যাম্প	-9.86801
▁Posted	-9.86802
▁ইন্টারন্যাশনাল	-9.86814
▁সুর	-9.86831
▁ডে	-9.86958
▁যাত্রীদের	-9.87025
▁চক্রবর্তী	-9.87029
▁পুরোপুরি	-9.87066
▁ইফতার	-9.87099
কেও	-9.87228
▁ধরতে	-9.87235
▁আওয়ামীলীগ	-9.87316
▁রাতের	-9.87329
▁উল্লাহ	-9.87376
▁শিশুকে	-9.87453
▁টন	-9.87454
▁অধিকাংশ	-9.87502
▁পরেই	-9.87678
▁সেখানেই	-9.87717
▁মিয়ানমারের	-9.87755
▁পাল	-9.87757
▁কুমিল্লার	-9.87758
▁খেলাধুলা	-9.87777
▁পাঁচটি	-9.87816
▁চেক	-9.87842
▁ঘটনাস্থলেই	-9.87844
▁রাষ্ট্রীয়	-9.87921
▁এটাই	-9.87946
▁ঘূর্ণিঝড়	-9.87966
▁শাকিব	-9.87991
▁চীনা	-9.88015
▁শাহজালাল	-9.88027
▁উ	-9.88183
▁ন্যাশনাল	-9.88209
▁রমজান	-9.88237
▁করছিলেন	-9.88242
▁মাহফিল	-9.88328
▁ধাক্কায়	-9.88361
▁বিবেচনায়	-9.8839
▁দাবী	-9.88428
▁আগেও	-9.88441
▁ক্যামেরা	-9.88458
▁নিন্দা	-9.88549
▁প্রয়োগ	-9.88588
▁সাগর	-9.88695
▁মাত্রা	-9.88734
▁সরে	-9.88735
▁#	-9.88787
▁দর্শক	-9.8881
▁টুইট	-9.88841
▁আগুনে	-9.8885
▁বাসের	-9.88859
▁অধীনে	-9.88895
▁মৌসুমে	-9.88915
▁হাজী	-9.88936
▁AM	-9.88952
▁গুলিতে	-9.89053
▁ব্যারিস্টার	-9.89105
▁লিগের	-9.89162
▁লাগিয়ে	-9.89172
▁ক্রয়	-9.89282
▁মেয়েকে	-9.89291
▁অর্থমন্ত্রী	-9.89294
▁একথা	-9.89393
▁রিয়াল	-9.89571
▁শীর্ষক	-9.89599
▁ছাড়	-9.89695
▁নৌ	-9.897
▁যুবককে	-9.89707
▁শফিকুল	-9.89712
থ	-9.89724
▁ইং	-9.89767
▁রোড	-9.89825
▁সারাদেশ	-9.89891
▁জয়ী	-9.89933
▁উন্নতি	-9.89986
▁বোলিং	-9.90084
▁ব	-9.90181
▁বৃদ্ধির	-9.90312
▁বিমানবন্দর	-9.90344
▁মেজর	-9.90415
▁অজ্ঞাত	-9.90493
▁কষ্ট	-9.90518
▁বার্ষিক	-9.90535
▁মাদরাসা	-9.9057
▁কক্সবাজারের	-9.90574
▁বিধি	-9.90638
▁তথা	-9.9064
▁ভালোবাসা	-9.90663
▁মাটি	-9.90681
▁মেশিন	-9.90751
লেন	-9.90802
▁সংস্কৃতি	-9.90842
▁আসর	-9.9097
▁পদ্ধতি	-9.91065
গণ	-9.91091
▁সিএনজি	-9.91168
▁•	-9.91171
▁প্রতিনিধিঃ	-9.91211
▁বাড়াতে	-9.91268
▁ফাউন্ডেশনের	-9.91289
▁কমপক্ষে	-9.91326
▁সূচক	-9.91351
▁১০টায়	-9.91418
▁নেবে	-9.91424
▁May	-9.91448
▁খ্রিস্টাব্দ	-9.91461
▁পেল	-9.91474
▁বিবেচনা	-9.91501
▁ফ্রি	-9.91544
▁জোট	-9.91647
▁নাটক	-9.91653
▁জাফর	-9.91779
▁ট্রাস্ট	-9.91792
▁রাজশাহীর	-9.91833
▁ছুটে	-9.91931
▁স্মার্টফোন	-9.92005
▁নায়ক	-9.92119
▁গাজী	-9.92174
▁গাছের	-9.92271
▁ওয়েবসাইট	-9.923
▁নেতাকর্মীদের	-9.92319
▁বারবার	-9.9232
▁আগ্রহ	-9.92331
▁হাওলাদার	-9.92339
▁পাঠানোর	-9.92354
r	-9.92413
▁একদিনে	-9.92456
▁সরকারকে	-9.92504
▁নোটিশ	-9.92549
▁এনামুল	-9.92554
▁শনাক্তের	-9.92577
▁সেতুমন্ত্রী	-9.92597
▁সংবর্ধনা	-9.92834
▁টাঙ্গাইল	-9.92877
▁জমির	-9.92895
▁মৃতদেহ	-9.92912
হা	-9.92935
▁ওয়ার্ডে	-9.92974
▁দেশীয়	-9.92974
▁ফুট	-9.93041
▁শাহরুখ	-9.93042
▁ওমর	-9.93093
▁২০১৩	-9.93099
▁ইতিহাসে	-9.93103
▁চাষ	-9.9314
তেও	-9.93155
▁রেখেছেন	-9.93271
▁স্টক	-9.93339
▁পাড়া	-9.93356
▁ঘুম	-9.93378
▁চিকিৎসকরা	-9.93386
▁রেলওয়ে	-9.93505
▁ভুয়া	-9.93532
▁মিরপুর	-9.93586
▁সদ্য	-9.93598
▁শ্রীলঙ্কা	-9.93656
▁পাশ	-9.93796
▁মনি	-9.93829
▁মন্ডল	-9.9383
▁প্রতিবন্ধী	-9.93862
▁পাবলিক	-9.93863
▁শূন্য	-9.93905
▁ঘোষণার	-9.93939
▁!	-9.93941
▁৫৫	-9.94088
▁জমিতে	-9.94151
▁ক্রিকেটের	-9.94183
▁পুরনো	-9.94187
▁দিল্লি	-9.94324
▁মানে	-9.94361
▁প্রয়োজনে	-9.94366
▁ফিরেছেন	-9.94397
▁মোকাবিলায়	-9.94407
▁খাতে	-9.94433
▁হযরত	-9.94449
▁৪২	-9.94477
▁বাঙালি	-9.94482
▁রাজা	-9.94537
▁সক্রিয়	-9.94544
▁অভিনন্দন	-9.94622
▁১০টার	-9.9464
▁ঘোষিত	-9.9465
▁দিনব্যাপী	-9.94657
তো	-9.94678
▁ফিচার	-9.94684
▁শ্রীলঙ্কার	-9.94699
▁আক্রমণ	-9.94732
▁সুজন	-9.94916
২০২০	-9.94983
▁রি	-9.94995
▁কারনে	-9.95073
▁কমিউনিটি	-9.95074
▁এন	-9.95114
নিউজ	-9.95141
▁কথায়	-9.95288
▁ব্যক্তিদের	-9.95294
ইন	-9.95294
▁বাড়ানোর	-9.95325
বাড়ি	-9.9533
▁অনেকটা	-9.9534
▁এগুলো	-9.95391
▁গিয়েছিলেন	-9.95599
▁আদর্শ	-9.95621
▁ব্যুরো	-9.95622
▁টুর্নামেন্ট	-9.95665
▁প্রাপ্ত	-9.9567
▁স্ব	-9.95708
▁এইচ	-9.95728
▁নির্দেশে	-9.9582
▁সামান্য	-9.95837
▁৪১	-9.95856
▁হকের	-9.95858
▁ago	-9.95909
▁মোড়	-9.95946
▁গণ	-9.95961
▁সেতুর	-9.96014
▁সুপারিশ	-9.96064
▁সন্দেহ	-9.96139
▁কারও	-9.96205
▁২টি	-9.96208
▁ইরান	-9.96246
▁মেট্রোপলিটন	-9.96257
▁তল্লাশি	-9.96257
▁মাস্টার	-9.96278
▁ইতিমধ্যেই	-9.96299
▁ধাপে	-9.96357
▁রায়ের	-9.96394
▁রাম	-9.96463
▁পেসার	-9.96471
▁লাইফ	-9.9649
▁শিরোনাম	-9.96532
▁ঠেকাতে	-9.96694
▁ঝুল	-9.96696
▁খোকন	-9.96708
▁অঞ্চল	-9.96805
▁আইনি	-9.96831
▁মানিক	-9.9698
▁পরের	-9.97045
▁সুরমা	-9.97085
▁ইয়াবাসহ	-9.97147
সের	-9.97151
▁জের	-9.97153
▁দৃশ্য	-9.97159
▁দরিদ্র	-9.97174
▁লিগে	-9.97192
▁১২টার	-9.97228
▁পূর্বে	-9.97318
▁উদ্দিনের	-9.97324
গা	-9.97343
▁করলো	-9.97352
লীগ	-9.97392
▁মেয়েদের	-9.97394
▁ব্যথা	-9.97414
▁দশ	-9.97492
%	-9.9751
▁ইউএনও	-9.97512
▁নীতি	-9.97564
▁আজিজ	-9.97578
▁ভোলা	-9.97667
▁রাষ্ট্র	-9.97687
▁হাকিম	-9.97691
কো	-9.97713
▁জখম	-9.97751
▁ছাত্রদলের	-9.97819
▁রায়হান	-9.97825
▁উপরে	-9.97866
▁বিক্রির	-9.97928
▁সাজা	-9.97987
▁গতি	-9.98016
▁মোস্তাফিজুর	-9.98019
▁বিস্তার	-9.98036
আই	-9.98042
▁বয়সে	-9.98061
▁মি	-9.98084
▁দেখানো	-9.98158
▁শরীফ	-9.98164
▁অপরদিকে	-9.98197
▁যিনি	-9.98215
▁মামলাটি	-9.9823
▁প্রতিযোগিতায়	-9.98241
▁ভাইয়ের	-9.98288
▁একুশে	-9.98306
▁কু	-9.98354
▁সকলকে	-9.98456
▁নুসরাত	-9.9846
▁মজুমদার	-9.98537
▁সোনা	-9.98551
▁গানটি	-9.98561
▁ওপেনার	-9.98636
গামী	-9.9866
▁জনক	-9.98694
▁৩৮	-9.98727
▁ভিটামিন	-9.9873
▁ফিরতে	-9.98753
▁মেম্বার	-9.98758
▁নোয়াখালী	-9.98808
▁রাজধানীতে	-9.98841
▁খাগড়াছড়ি	-9.98906
▁৭৫	-9.98948
▁আরিফ	-9.98969
▁তোলার	-9.98991
▁হাবিবুর	-9.99008
▁ক্রাইম	-9.99037
▁জেলে	-9.99106
▁হাট	-9.99108
▁ভেতর	-9.99125
▁ডেপুটি	-9.99177
▁আফ্রিকার	-9.99208
▁কোহলি	-9.99269
▁উত্তেজনা	-9.99312
▁মিনিটের	-9.99325
▁জিজ্ঞাসাবাদ	-9.99332
▁অপেক্ষায়	-9.99411
▁আনুষ্ঠানিকভাবে	-9.99468
▁আইপিএল	-9.99474
▁শিক্ষকদের	-9.99482
▁সাক্ষাৎকারে	-9.99517
টার	-9.99536
▁Pratidin	-9.99541
▁মাননীয়	-9.99564
▁সোয়া	-9.99595
▁মনোনীত	-9.99629
ad	-9.99642
▁রে	-9.99651
▁দায়ী	-9.99703
▁সার	-9.99731
য়ার	-9.99744
দার	-9.99832
▁হালকা	-9.99904
▁সমান	-10.0004
▁জুয়েল	-10.0005
▁এক্সপ্রেস	-10.001
▁জনতা	-10.0013
▁এরশাদ	-10.0019
▁ক্ষোভ	-10.0023
▁সুনামগঞ্জ	-10.0023
▁দলটির	-10.0029
bd	-10.004
▁বন্ধের	-10.0049
▁মোদী	-10.0051
▁যথাযথ	-10.0061
▁৩৭	-10.0067
▁কর্মকর্তার	-10.0071
▁আরবের	-10.0071
▁পারছেন	-10.0071
হীন	-10.0073
▁রোগে	-10.0075
▁বিশেষজ্ঞ	-10.0078
▁বিদ্যালয়ে	-10.0082
▁পাবনা	-10.0085
▁দুইজন	-10.0086
▁মিল	-10.0087
▁দিয়েছিল	-10.0089
▁পিটিয়ে	-10.0091
মূলক	-10.0097
▁আহম্মেদ	-10.0099
▁সবসময়	-10.0099
ছি	-10.01
▁জনাব	-10.0106
▁সাধারণত	-10.0112
▁পৌন	-10.0114
▁যথেষ্ট	-10.0117
▁ওয়ার্ল্ড	-10.0122
▁ট্রেনের	-10.0125
▁কাটিয়ে	-10.0126
▁গণমাধ্যমকে	-10.0132
▁সবকিছু	-10.0132
▁Read	-10.0147
▁নিউজিল্যান্ড	-10.015
▁হা	-10.0156
▁স্বাক্ষর	-10.0156
▁বাড়তি	-10.0163
▁ওয়া	-10.0166
▁দায়িত্বে	-10.0177
▁মেরে	-10.018
▁মন্দির	-10.0183
▁লে	-10.0186
▁সংসার	-10.0186
▁ইলিশ	-10.0189
▁অবস্থানে	-10.0191
▁মাদ্রাসার	-10.0201
▁শহিদুল	-10.0203
▁যাবত	-10.0206
▁ভার্চুয়াল	-10.0215
▁১০টি	-10.0217
▁অনুসারে	-10.0219
▁তদন্তে	-10.0221
▁তম	-10.0227
▁আমিনুল	-10.0229
▁হানিফ	-10.023
ভূমি	-10.023
▁মুক্তিযুদ্ধের	-10.024
শিক্ষাপ্রতিষ্ঠান	-10.0243
বিরোধী	-10.0246
▁January	-10.0247
▁ড্র	-10.0251
▁সেন্টারে	-10.0253
▁নির্মাণের	-10.0256
▁By	-10.0257
▁পার্বত্য	-10.0258
▁ঈদে	-10.0269
▁ইসলামিক	-10.0273
▁ঝিনাইদহ	-10.0281
▁সঞ্চালনায়	-10.0286
▁ইউনিটের	-10.029
▁সহায়তায়	-10.0293
▁মালেক	-10.03
▁রাহুল	-10.0301
▁স্বেচ্ছাসেবক	-10.0304
▁পাক	-10.0304
▁উপস্থাপন	-10.0304
▁অ্যা	-10.031
আমার	-10.0314
▁পত্রিকা	-10.0319
▁ট্রাকের	-10.033
▁আশরাফুল	-10.0333
▁একদল	-10.0334
▁সদরের	-10.0336
▁প্রার্থীর	-10.034
st	-10.0348
▁প্রয়াত	-10.036
▁বিশ্বব্যাপী	-10.0361
▁এইচএসসি	-10.0376
▁প্রত্যাশা	-10.0377
▁বেছে	-10.0378
▁তে	-10.0384
▁তারিখে	-10.0384
n	-10.0388
▁কিছুক্ষণ	-10.0388
▁দুর্ঘটনার	-10.0391
▁সেজন্য	-10.0397
a	-10.0401
o	-10.0403
▁মাদকদ্রব্য	-10.0406
▁নিলেন	-10.0411
▁ইউ	-10.0417
▁যেহেতু	-10.042
▁আল্লাহর	-10.042
ঢাকা	-10.0423
▁স্পিকার	-10.0425
ফা	-10.0427
▁ভেঙ্গে	-10.0434
▁দরজা	-10.0435
▁৬৫	-10.0438
টাই	-10.044
▁সাইকেল	-10.0444
▁সাঈদ	-10.0448
▁চাঁদ	-10.0448
▁বলার	-10.0451
▁করপোরেশনের	-10.0456
▁পল্লী	-10.0458
▁নেবেন	-10.047
▁নিরাপত্তার	-10.0471
▁রবি	-10.0472
▁যাচাই	-10.0479
▁দুর্যোগ	-10.048
▁কার	-10.0484
▁সংগীত	-10.0501
▁কাপড়	-10.0507
দি	-10.0519
কু	-10.0524
▁চাওয়া	-10.0525
▁তুরস্কের	-10.053
▁ঘন্টায়	-10.0531
▁শিগগিরই	-10.0533
▁কোর্টের	-10.0535
▁ভ্রমণ	-10.0541
▁দেখেন	-10.0544
▁নাগাদ	-10.0548
▁কিনতে	-10.055
▁এলে	-10.0551
▁অমিত	-10.0556
▁রিট	-10.0557
▁জিয়াউর	-10.0559
কেই	-10.056
▁আইসিসি	-10.056
▁ভিসা	-10.0561
▁মোতায়েন	-10.0562
▁ইন্ডিয়া	-10.0563
▁শাহজাহান	-10.0569
কালীন	-10.0569
▁স্বর্ণ	-10.0577
▁সান	-10.0586
▁চলেছেন	-10.0586
▁পাল্টা	-10.0588
▁আশ্বাস	-10.0588
▁হাইকোর্টের	-10.0596
▁খাওয়ার	-10.0602
▁বিতর্ক	-10.0605
▁প্রার্থীদের	-10.0606
▁ব্যবসায়ীরা	-10.0607
▁ওভার	-10.0608
▁তথ্যমন্ত্রী	-10.061
▁ধার্য	-10.0615
▁নিচ্ছেন	-10.0615
▁প্রতিষ্ঠানে	-10.0623
▁পড়লে	-10.0625
▁নয়া	-10.0626
▁মীর	-10.0628
▁প্রাথমিকভাবে	-10.063
▁সহজেই	-10.0632
▁প্রাকৃতিক	-10.0633
▁আনুষ্ঠানিক	-10.0639
▁টেস্টের	-10.0647
▁নারীকে	-10.0648
▁অপু	-10.0661
▁অধিদফতরের	-10.0667
▁চোখের	-10.0669
▁বিকাশ	-10.0671
▁৩৯	-10.0674
▁শান্ত	-10.0686
▁আসরে	-10.0687
▁৪৩	-10.0688
▁মানুষদের	-10.069
▁ব্যবসায়ীদের	-10.071
▁ব্রাজিল	-10.0718
▁শাহীন	-10.0722
▁বার্তায়	-10.0722
▁পর্ব	-10.0726
▁গাড়িতে	-10.0726
▁কিনে	-10.0727
▁টিকার	-10.0728
▁রাজ্জাক	-10.0731
▁আলোচনার	-10.0732
▁Comments	-10.0743
▁প্রত্যেক	-10.0749
▁কর্ম	-10.0762
▁দর্শকদের	-10.0763
▁পাসপোর্ট	-10.0767
▁চাপা	-10.0768
▁মরহুম	-10.0778
▁একজনের	-10.0779
▁কারখানা	-10.0781
▁জানাজা	-10.0788
▁কৃষকদের	-10.079
▁ডিম	-10.0792
▁সম্পর্কিত	-10.0799
▁ভবিষ্যতে	-10.08
▁বিপ্লব	-10.0802
▁খেলায়	-10.0805
▁জসিম	-10.0811
▁দিয়েছি	-10.0813
▁বিগত	-10.0814
▁টাইম	-10.0816
▁প্রচারণা	-10.0829
প্র	-10.0835
গুলির	-10.0838
▁ভি	-10.085
▁নিউজিল্যান্ডের	-10.0855
▁পণ্যের	-10.086
▁পেয়েছি	-10.0864
▁সুলতান	-10.0866
▁অস্বীকার	-10.0869
▁রাতেই	-10.0873
▁অলরাউন্ডার	-10.0876
▁৩টি	-10.0877
▁নিযুক্ত	-10.088
নার	-10.0887
শা	-10.0889
▁এয়ার	-10.0893
▁তালা	-10.0902
▁হবিগঞ্জ	-10.0903
ছিল	-10.0904
▁গণমাধ্যমে	-10.0909
▁বিবাহ	-10.091
▁সভার	-10.0914
ড়া	-10.0916
▁৪৪	-10.0918
P	-10.0921
▁চালান	-10.0921
▁বোতল	-10.0925
▁চত্বরে	-10.0926
▁আকবর	-10.0927
▁লঞ্চ	-10.0929
▁প্রতিবেশী	-10.093
িয়ে	-10.0935
▁তরফে	-10.0936
▁দায়	-10.094
u	-10.0941
▁সংখ্যক	-10.0949
▁বাঁচাতে	-10.0951
▁প্রতিশ্রুতি	-10.0951
▁অন্যদের	-10.0951
▁দিবসে	-10.0964
▁সম্মাননা	-10.0972
মো	-10.0974
▁সুষ্ঠু	-10.0977
▁হুমায়ুন	-10.099
▁ওয়ান	-10.0993
▁প্রদেশের	-10.1001
▁৭১	-10.1004
▁চারজন	-10.1006
▁উপাদান	-10.1017
▁ডাকাত	-10.1019
▁September	-10.1019
▁বন্দরে	-10.1024
▁ডাউনলোড	-10.1025
▁এমনটাই	-10.1029
▁যাত্রীবাহী	-10.1039
▁হারে	-10.1039
▁বে	-10.1043
▁ধারায়	-10.1044
▁রাজু	-10.1044
▁মারাত্মক	-10.1047
▁মহাসড়কে	-10.1049
▁ল	-10.1055
▁সাক্ষাৎ	-10.1055
▁আগ্রহী	-10.1056
▁ইউসুফ	-10.1059
▁দেশকে	-10.106
▁আলি	-10.1066
▁গুলিবিদ্ধ	-10.1068
▁ক্যাম্পের	-10.1068
▁বিখ্যাত	-10.1069
▁অনুসরণ	-10.1078
▁ভারী	-10.1091
▁সচিবালয়ে	-10.1096
▁আশরাফ	-10.1098
▁মিয়ানমার	-10.1099
▁পরিবর্তে	-10.11
কারীদের	-10.1112
▁কড়া	-10.1115
▁৭২	-10.1119
▁পড়ছে	-10.112
▁প্রেক্ষিতে	-10.1121
▁বিশ্বজুড়ে	-10.1121
▁৫২	-10.1123
▁থেকেও	-10.1124
▁কংগ্রেসের	-10.1127
▁পদক	-10.1138
▁আতঙ্ক	-10.114
▁এমনই	-10.1147
▁গুঞ্জন	-10.1148
▁উত্তোলন	-10.1149
▁ভোটগ্রহণ	-10.1153
▁বান্দরবান	-10.1164
▁উপভোগ	-10.1169
▁যাচ্ছিল	-10.1171
২০২১	-10.1171
▁৫টি	-10.1179
▁আফ্রিকা	-10.118
▁অবাক	-10.118
▁নাগরিকদের	-10.1181
▁শর্ত	-10.1183
▁আড়াই	-10.1195
▁নিয়েও	-10.1198
▁মিষ্টি	-10.1201
▁চালানোর	-10.1209
শি	-10.1211
▁স্বপন	-10.1212
▁পরিশোধ	-10.1212
▁ন্যায়	-10.1215
▁স্থাপনা	-10.1219
▁১০টা	-10.122
▁আচরণ	-10.1221
▁প্রকৃত	-10.1229
▁মৌলভীবাজার	-10.1229
▁ধানের	-10.1244
▁মোকাবেলায়	-10.1246
▁প্রকার	-10.1252
▁সংগৃহীত	-10.1254
▁মিউজিক	-10.1263
▁পর্বে	-10.1272
▁বাগেরহাট	-10.1272
▁অক্সিজেন	-10.1275
ীর	-10.1277
▁অবৈধভাবে	-10.1278
▁ধারাবাহিকতায়	-10.1285
▁আনুমানিক	-10.1293
▁ইনস্টিটিউট	-10.1295
▁C	-10.1295
জে	-10.1297
▁মোশাররফ	-10.1303
▁দি	-10.1306
▁ময়না	-10.1317
▁ছাত্রীকে	-10.1318
ান	-10.1318
▁জ্ঞান	-10.1322
▁তখনই	-10.1323
▁মন্ত্রিপরিষদ	-10.1323
▁৩০০	-10.1325
▁ভিডিওতে	-10.1328
▁সাব	-10.1331
▁বেঞ্চ	-10.1338
▁দলটি	-10.1339
▁খতিয়	-10.1342
▁প্রদর্শন	-10.1343
▁উপলক্ষ্যে	-10.1345
ম্যান	-10.1353
▁October	-10.1354
▁বেনাপোল	-10.1365
▁সতর্কতা	-10.1367
▁সংস্কার	-10.1369
তলা	-10.1369
▁সামনের	-10.1378
▁জাতি	-10.1379
▁গ্রহন	-10.138
▁রাউন্ড	-10.1383
▁তাছাড়া	-10.1383
বো	-10.1386
▁প্রবল	-10.1387
▁ম্যাচটি	-10.1388
▁কাউন্সিল	-10.1391
▁সন্ত্রাস	-10.1394
রো	-10.1396
▁মতোই	-10.1403
▁রিপন	-10.1408
▁দেখুন	-10.141
▁দে	-10.1416
▁পুলিশে	-10.1417
▁১টি	-10.142
▁দেলোয়ার	-10.1429
▁ফেলা	-10.1438
▁হাবিব	-10.144
▁দান	-10.1446
▁সংক্ষিপ্ত	-10.1459
▁বৃষ্টিপাত	-10.1459
▁দৃষ্টি	-10.1463
▁গলা	-10.1464
▁ছাড়িয়ে	-10.1465
▁সচেতনতা	-10.1466
▁পড়বে	-10.1479
▁বিচ্ছিন্ন	-10.148
গঞ্জ	-10.1481
▁চাঁপাইনবাবগঞ্জ	-10.1483
▁গুজব	-10.1484
▁গুণ	-10.1486
▁হাসি	-10.1487
▁আয়ের	-10.1493
▁Previous	-10.1495
▁ভুলে	-10.1496
▁তৃণমূলের	-10.1496
▁সিরাজুল	-10.1499
ুজ্জামান	-10.1499
▁কমিয়ে	-10.15
▁Newspaper	-10.1501
▁হেলাল	-10.1503
যা	-10.1509
▁একেবারে	-10.151
▁লিমিটেডের	-10.1516
▁দুইটি	-10.1524
▁কর্মচারী	-10.1536
▁ফরম	-10.1536
▁ডিএসই	-10.1537
▁সবজি	-10.1541
▁চাকমা	-10.1545
▁মতামত	-10.1554
▁ফরিদ	-10.1563
▁অধিক	-10.1565
▁গো	-10.1565
▁ভোটে	-10.157
▁ইচ্ছা	-10.1571
▁গ্রাহকদের	-10.1572
▁সমুদ্র	-10.1573
▁শর্মা	-10.1573
▁লাইভ	-10.1575
▁ঐক্য	-10.1575
▁ক্ষুদ্র	-10.1577
▁বার্ষিকী	-10.1578
▁রাঙামাটি	-10.1578
▁ব্রাহ্মণবাড়িয়া	-10.1579
▁ধরেন	-10.158
▁যোগদান	-10.1599
▁উজ্জ্বল	-10.1612
তদন্ত	-10.1616
▁সম্পর্কের	-10.1618
▁৮টা	-10.162
▁দুর্নীতির	-10.1623
▁চলচ্চিত্রের	-10.1625
▁ক্যাম্পে	-10.1633
▁পাওয়ায়	-10.1638
▁মালামাল	-10.1649
▁June	-10.1652
▁সাহিত্য	-10.1653
▁কমাতে	-10.1661
▁বুকে	-10.1665
▁সীমিত	-10.167
▁বালু	-10.1673
▁গুলো	-10.1681
▁মোড়ে	-10.1685
বিষয়ক	-10.1687
▁নওগাঁ	-10.1694
▁সম্ভাব্য	-10.1697
▁অ্যাকাউন্ট	-10.1698
▁ভক্তদের	-10.1713
▁রিজভী	-10.1714
▁আনসার	-10.1717
▁স্থানীয়দের	-10.1719
▁রপ্তানি	-10.172
▁বাড়বে	-10.1724
▁Kolkata	-10.1726
▁শিক্ষার্থীর	-10.1729
▁টুইটারে	-10.173
▁সিদ্দিকী	-10.1732
মুক্ত	-10.1739
▁টেক	-10.174
▁হচ্ছিল	-10.1741
▁হু	-10.1745
▁কোরআন	-10.1747
▁পারলে	-10.1751
পরিদর্শক	-10.1751
▁প্রেমিক	-10.1754
▁নেত্রী	-10.1757
▁পাকিস্তানি	-10.1767
▁স্মরণ	-10.177
▁৫১	-10.1775
▁বৃদ্ধ	-10.1775
▁মোটর	-10.1783
টে	-10.1793
▁ইংরেজি	-10.1794
▁২০১২	-10.1795
▁সংঘর্ষের	-10.1796
▁হায়দার	-10.1797
▁বিধিনিষেধ	-10.1806
▁রাজস্ব	-10.1807
▁চোট	-10.1812
▁দুজনের	-10.1814
স্বাস্থ্যমন্ত্রী	-10.1815
▁করপোরেশন	-10.182
▁রাখুন	-10.1821
▁উন্মুক্ত	-10.1822
▁সংরক্ষিত	-10.1823
মু	-10.1824
▁নির্ভর	-10.1825
▁সোহাগ	-10.1825
▁বরখাস্ত	-10.1828
▁উপস্থিতিতে	-10.1833
▁জিয়াকে	-10.1838
▁তেমনি	-10.1838
▁বাঁধা	-10.1845
▁হৃদয়	-10.1847
▁বিক্রয়	-10.1853
▁কৃষকের	-10.1856
▁অনেকের	-10.1856
▁পাচার	-10.1861
▁বিমানের	-10.1864
▁বয়ে	-10.1866
▁চলা	-10.1867
▁পায়ে	-10.1871
▁নোট	-10.1873
▁শুরুতেই	-10.1874
▁দুর্বৃত্তরা	-10.1877
▁বাম	-10.1878
▁পাঠান	-10.1881
▁৪৯	-10.1882
▁উদ্বেগ	-10.1883
▁খাবারের	-10.1885
▁ফেরি	-10.1886
▁দুদকের	-10.1898
▁মুশফিকুর	-10.1899
▁B	-10.1899
▁বোঝা	-10.1905
▁সনদ	-10.1908
▁আগ	-10.1909
▁কাপুর	-10.1913
▁নিম্ন	-10.1914
▁গেলো	-10.1919
▁৯টার	-10.1921
▁নিহতদের	-10.1925
▁কোরিয়ার	-10.1926
▁কোরবানি	-10.1937
▁শেরপুর	-10.1939
▁Amader	-10.1941
▁পদ্ধতিতে	-10.1946
▁ট্রাফিক	-10.1946
▁দুলাল	-10.1956
ভিডিও	-10.1961
▁জ	-10.1961
▁করছিল	-10.1964
▁অপরাধে	-10.1973
▁Sylhet	-10.198
▁টস	-10.1988
▁ফুটবলার	-10.1993
ড়ি	-10.1997
▁ইসমাইল	-10.1997
▁আফগানিস্তানের	-10.1997
▁নীল	-10.1997
▁অসাধারণ	-10.2
▁কৌশল	-10.2
▁৫৪	-10.2002
▁বিতর্কিত	-10.2012
▁কলকাতায়	-10.2012
▁ওয়েবসাইটে	-10.2013
▁হলুদ	-10.2015
▁পরিপ্রেক্ষিতে	-10.202
▁কবীর	-10.2021
সু	-10.2023
▁ফ্রান্স	-10.2025
▁প্রতিষ্ঠানটি	-10.2029
▁লম্বা	-10.203
▁দত্ত	-10.203
▁পাথর	-10.2031
▁ক্লিক	-10.2039
এসআই	-10.2041
স্ট	-10.2047
▁সমস্যায়	-10.2056
▁চুয়াডাঙ্গা	-10.2057
▁শ্রেষ্ঠ	-10.2062
▁আসছিল	-10.2062
বাজার	-10.2062
▁মুক্তিযুদ্ধ	-10.2063
▁লড়াইয়ে	-10.2069
▁পয়সা	-10.2071
▁অ্যাড	-10.2071
▁চিনি	-10.2077
▁চলছিল	-10.2084
▁পরিষেবা	-10.2086
▁ব্যক্ত	-10.2091
▁পাইলট	-10.2093
▁জাহাজ	-10.2096
▁প্রমূখ	-10.2097
▁আইডি	-10.2097
এক	-10.2097
▁বাংলাদেশী	-10.2098
▁ফাইল	-10.2105
▁একইসঙ্গে	-10.2109
▁ফিরোজ	-10.2115
▁স্টার	-10.2116
▁সানি	-10.2116
▁পরিবর্তনের	-10.2123
▁কবে	-10.2123
▁নিলে	-10.213
▁৪টি	-10.213
▁গুলশান	-10.2131
▁বাঁধ	-10.2134
▁শিশুটির	-10.2136
▁পাই	-10.2139
▁৯টা	-10.2147
▁খালি	-10.215
▁আইনগত	-10.2152
▁একজনকে	-10.2156
▁অনুশীলন	-10.2157
▁প্রতিক্রিয়া	-10.2158
▁যাচ্ছি	-10.2158
▁গবেষণায়	-10.2158
▁হজ	-10.2161
▁পাঠিয়ে	-10.2164
▁জানিয়েছিলেন	-10.2166
▁অপরাজিত	-10.2172
▁Times	-10.2173
▁বক্স	-10.2174
▁সিস্টেম	-10.2176
▁অনন্য	-10.2176
▁এফ	-10.2178
▁আশপাশের	-10.2186
▁মানববন্ধনে	-10.219
▁দিয়েই	-10.2191
▁আবদুর	-10.2193
▁জোরদার	-10.2199
▁ভাঙচুর	-10.2209
▁যাবজ্জীবন	-10.221
▁রাশেদ	-10.2214
▁বাসে	-10.222
▁অভ্যন্তরীণ	-10.2221
▁প্রদানের	-10.2227
▁রাজশাহীতে	-10.2228
▁নারায়ণগঞ্জের	-10.2235
▁চিকিৎসকের	-10.2239
▁অবসর	-10.224
▁November	-10.2244
▁কেনার	-10.2245
ৎ	-10.2248
▁৪৬	-10.2251
▁রঙের	-10.226
▁আলমের	-10.2265
▁ভিতরে	-10.227
▁দিল্লির	-10.2276
▁ফেরদৌস	-10.228
▁সাব্বির	-10.229
ষ	-10.2294
▁মাল	-10.2294
▁গা	-10.2299
▁নিবেদন	-10.23
▁মিস	-10.2301
▁যুক্তরাজ্য	-10.2302
▁দাশ	-10.2304
▁পর্দায়	-10.2305
▁ফেনী	-10.2309
▁রুশ	-10.231
▁সিদ্দিক	-10.2314
▁সৌরভ	-10.2317
▁চলার	-10.232
▁সিরাজগঞ্জ	-10.2322
▁কিংবদন্তি	-10.2322
▁এক্ষেত্রে	-10.2323
▁লিড	-10.2323
▁July	-10.2324
▁অন	-10.2325
▁শ্রেণি	-10.2327
▁দুদক	-10.2327
▁ভেসে	-10.2327
▁মাংস	-10.2328
▁সাময়িক	-10.2332
▁সাইবার	-10.2337
▁কিশোরী	-10.2342
▁চুরির	-10.2342
▁জ্বর	-10.2345
▁BdST	-10.2345
▁অবিলম্বে	-10.2346
BD	-10.2347
▁কর্পোরেশনের	-10.235
▁মার্কেট	-10.2351
▁যাই	-10.2352
▁সশস্ত্র	-10.2355
▁বৈশ্বিক	-10.2359
▁রিয়াদ	-10.236
▁আবদুল্লাহ	-10.237
▁ইস্যুতে	-10.2371
▁ব্যাপার	-10.2372
▁চক্রের	-10.2372
A	-10.2374
▁জামে	-10.2377
▁প্রতিষ্ঠিত	-10.238
▁ফাঁড়ি	-10.2381
▁বাস্তবায়নে	-10.2381
টিকে	-10.2388
▁পারভেজ	-10.239
▁ক্রিকেটারদের	-10.2391
▁Archives	-10.2391
▁অনেকটাই	-10.2395
▁অ্যাকশন	-10.2397
▁সংবাদটি	-10.2398
▁বাছাই	-10.2402
▁গণতন্ত্র	-10.2403
▁৬৪	-10.2404
NEWS	-10.2405
▁এড়াতে	-10.2407
▁আত্মীয়	-10.241
▁জা	-10.241
▁আরিফুল	-10.2413
▁সংকেত	-10.2416
▁অঙ্গ	-10.2416
▁P	-10.242
▁মহামারির	-10.2422
"।	-10.2423
▁লন্ডন	-10.2441
▁রক্ষায়	-10.2443
▁গ্রাহক	-10.2445
▁৫৩	-10.2447
▁প্রযুক্তির	-10.245
▁সফরের	-10.2456
▁বহিষ্কার	-10.246
▁ইঙ্গিত	-10.246
▁শ্রমিকরা	-10.2468
জনের	-10.2481
▁December	-10.2485
▁১৪২৮	-10.2488
▁ন	-10.2491
পরিচালক	-10.2495
▁মনোনয়নপত্র	-10.2496
ায়	-10.2497
৬০	-10.2497
▁ফরহাদ	-10.2497
▁জোটের	-10.2505
▁নেতৃত্বাধী	-10.2506
▁গাইবান্ধা	-10.2511
▁পরিবেশন	-10.2517
▁ছাত্রীর	-10.2517
িন	-10.2521
▁বর	-10.2524
▁স্বতন্ত্র	-10.2534
▁ভূঁইয়া	-10.2539
▁বগুড়ার	-10.2539
▁জরুরী	-10.2543
▁খাতের	-10.2543
▁জোড়া	-10.2549
▁মেসির	-10.2549
▁তরুণী	-10.255
▁গোলের	-10.2554
▁February	-10.2554
▁সেন	-10.2559
▁কাছাকাছি	-10.2565
গ্রাম	-10.2566
▁বাইডেন	-10.257
▁রোগের	-10.2572
▁হেড	-10.2579
▁আজকে	-10.2579
▁সিনেমাটি	-10.2584
▁শি	-10.2585
▁রং	-10.2587
▁অনুদান	-10.259
▁মেলার	-10.2592
▁পর্যবেক্ষণ	-10.2593
ছিলেন	-10.2597
▁ইউটিউব	-10.2603
▁পু	-10.2612
▁West	-10.2614
▁ভিত্তি	-10.2619
▁পর্যাপ্ত	-10.2625
▁সরদার	-10.2625
▁৪৭	-10.2633
_	-10.2636
▁এরা	-10.2637
▁সম্পাদনা	-10.2638
▁নাসিম	-10.2638
▁করিয়ে	-10.2641
▁ঠাকুরগাঁও	-10.2642
▁প্রেসক্লাব	-10.2645
▁৫৬	-10.2646
▁পাড়ি	-10.2646
▁ব্যাগ	-10.2648
▁হাফেজ	-10.2648
▁লি	-10.2649
▁পশ্চিমবঙ্গের	-10.2651
▁সেবার	-10.2661
▁এরমধ্যে	-10.2662
▁উৎসবের	-10.2663
▁তালেবান	-10.2666
▁আসিফ	-10.2666
ভা	-10.2667
▁সদস্যকে	-10.2667
▁বীজ	-10.2676
▁উড়িয়ে	-10.2683
ষ্ট	-10.2684
▁সরঞ্জাম	-10.2687
▁২০১১	-10.2688
▁অন্তর্ভুক্ত	-10.269
▁পলাশ	-10.2694
▁প্রদীপ	-10.2696
▁লক্ষ্মীপুর	-10.2699
▁নবী	-10.2703
▁লেখেন	-10.2719
▁চালাচ্ছে	-10.2724
▁চুক্তির	-10.2724
▁ক্যাম্পাসে	-10.2726
২০১৯	-10.273
▁স্লোগান	-10.2732
▁সম্প্রদায়ের	-10.2736
▁এসএম	-10.274
▁টহল	-10.2741
▁হুদা	-10.2742
▁গ্রেফতারের	-10.2754
▁ত্বকের	-10.2761
▁for	-10.2761
▁৮টার	-10.2761
▁পিছনে	-10.2765
▁অভিনীত	-10.2767
চার	-10.2767
▁ভিডিওটি	-10.2772
▁যাক	-10.2773
▁বুঝে	-10.2775
▁শারমিন	-10.2778
▁আশঙ্কাজনক	-10.2778
▁চালিয়েছে	-10.2779
▁রেড	-10.278
▁বলি	-10.2788
▁তৈরী	-10.2789
▁আয়োজনের	-10.2792
▁রশীদ	-10.2797
▁ফ্রান্সের	-10.2801
▁ব্যাখ্যা	-10.2802
▁বিশেষজ্ঞরা	-10.2803
▁বিচারের	-10.2808
▁জাপানের	-10.2811
▁নিয়োগের	-10.2814
▁প্রভাবে	-10.2814
▁জালাল	-10.2816
▁মেলায়	-10.2816
▁ইব্রাহিম	-10.2818
▁এবারও	-10.282
▁কাগজ	-10.2822
▁শেয়ারবাজার	-10.2825
▁জ্বালানি	-10.2825
এন	-10.2826
▁এরপরই	-10.2828
▁April	-10.2828
যুক্ত	-10.2831
▁মৃত্যুবরণ	-10.2838
▁আন্দোলনে	-10.2839
আমাদের	-10.2844
▁মোমেন	-10.2845
▁পত্রিকার	-10.2851
▁সমর্থকদের	-10.2853
▁মাঠের	-10.2854
▁হাওয়া	-10.2855
▁বৈঠকের	-10.2857
▁নেতাকর্মী	-10.2859
▁আপ	-10.2859
.)	-10.286
দেশ	-10.2861
▁রেডিও	-10.2861
▁হাছান	-10.2863
▁রস	-10.2869
▁০০	-10.2878
▁আবরার	-10.288
▁সমৃদ্ধ	-10.288
▁কতটা	-10.2882
▁একপর্যায়ে	-10.2891
▁আনে	-10.2896
▁ভক্ত	-10.2904
▁শুল্ক	-10.2911
▁পরিবারে	-10.2912
▁সংগ্রহের	-10.2912
▁জলবায়ু	-10.2913
▁সাকিবের	-10.2913
▁সেসব	-10.2915
▁ছি	-10.2918
▁ঘোষনা	-10.2924
▁ষড়যন্ত্র	-10.2925
▁পুকুর	-10.2926
▁বিধান	-10.2926
▁নবম	-10.293
▁গ	-10.2931
▁ইস্যু	-10.2934
▁সমন্বয়	-10.2935
▁Portal	-10.2935
দু	-10.2941
▁জয়ে	-10.2947
▁ইংলিশ	-10.2952
▁from	-10.2959
▁অভাব	-10.2969
▁কাতার	-10.2973
▁প্রার্থনা	-10.2976
▁আওয়ার	-10.2979
▁প্রশাসনিক	-10.298
▁বিধানসভা	-10.2986
▁দক্ষতা	-10.2989
▁পরমাণু	-10.2996
▁প্রতিপক্ষ	-10.2998
▁নাঈম	-10.2999
▁ওসমানী	-10.3003
▁রিমান্ডে	-10.3007
▁সমঝোতা	-10.3011
▁বার্সেলোনা	-10.3016
▁শ্রেণীর	-10.3016
▁বর্ষের	-10.3017
▁প্রাইভেট	-10.3021
▁ইউনিভার্সিটি	-10.3022
▁গঠনের	-10.303
▁এলো	-10.3038
খালী	-10.3038
▁সংগ্রাম	-10.3039
▁এশিয়ার	-10.3042
▁আরা	-10.3049
▁হাইওয়ে	-10.3057
▁অগ্রগতি	-10.3059
▁প্রযোজক	-10.3059
▁কারিগরি	-10.3061
▁পালনের	-10.3062
▁বিরতি	-10.3062
▁আকারে	-10.3064
▁৫৯	-10.3065
▁আলু	-10.3069
▁সংক্রমিত	-10.3069
al	-10.307
▁প্যানেল	-10.3073
▁আসামির	-10.3076
▁জোন	-10.3079
▁স্বার্থে	-10.3088
▁কেক	-10.3098
▁উৎসবে	-10.3098
▁দেখাতে	-10.3098
▁প্রযোজনা	-10.3098
▁বিদ্যুতের	-10.3099
▁ছিলাম	-10.3099
▁বঞ্চিত	-10.3102
▁সেদিন	-10.3103
▁তুমি	-10.3106
▁ওসমান	-10.3107
▁টাঙ্গাইলের	-10.3112
▁সিসি	-10.3114
▁গার্ড	-10.3114
▁মঞ্চে	-10.3117
▁টুর্নামেন্টের	-10.3118
▁কাজল	-10.3119
▁কর্নেল	-10.312
▁অভাবে	-10.3122
▁ঘরোয়া	-10.3124
▁সার্কেল	-10.3135
▁পাঠিয়েছে	-10.3138
▁ছায়া	-10.3148
▁চালাতে	-10.3154
▁শিক্ষার	-10.3156
▁Channel	-10.3168
▁সিকদার	-10.3168
▁জাপান	-10.3169
▁পরপরই	-10.317
▁বিস্ফোরণ	-10.3172
▁ধরার	-10.3174
▁সফটওয়্যার	-10.3179
▁রুটে	-10.318
▁নৌকার	-10.3185
▁কবিতা	-10.3186
▁থেমে	-10.3188
▁বিধ্বস্ত	-10.3191
▁বিনিময়	-10.3193
▁সত্যি	-10.3194
দ্য	-10.3196
▁রহস্য	-10.3199
▁সিনহা	-10.3201
▁সংসদীয়	-10.3215
▁জন্যে	-10.3216
▁মিশিয়ে	-10.3218
▁পরিবেশে	-10.3218
▁চীনে	-10.3219
▁খেলবে	-10.3221
▁আসামিদের	-10.3224
▁লক্ষণ	-10.3225
▁স্থানান্তর	-10.3229
▁পরাজিত	-10.3231
▁বলিউডে	-10.3232
পুলিশ	-10.3232
▁সাইট	-10.3233
▁শাস্তির	-10.3234
▁সিরাজ	-10.3238
▁প্রাণঘাতী	-10.3243
▁রনি	-10.3244
▁বিনিময়ে	-10.325
▁ইউনাইটেড	-10.3251
▁মুম্বাই	-10.326
▁কর্মহীন	-10.3261
▁আকার	-10.3261
▁২য়	-10.3263
▁ইউনিটে	-10.3263
▁রতন	-10.3265
▁সমাপনী	-10.3268
▁অতিক্রম	-10.3269
▁রযালি	-10.327
▁August	-10.327
▁মনিরুল	-10.3272
জনিত	-10.3272
▁ফোনের	-10.3274
▁অপারেশন	-10.3274
▁ক্লাবে	-10.3275
▁যমুনা	-10.3277
▁দামে	-10.328
▁রওনা	-10.3281
▁লিখে	-10.3284
▁Live	-10.3291
▁হারিয়েছে	-10.3292
▁মাগুরা	-10.3293
▁এখনই	-10.3294
▁এরকম	-10.3295
▁ল্যাবে	-10.3296
▁ক্ষেপণাস্ত্র	-10.3296
▁আরোপ	-10.3299
▁কার্যক্রমের	-10.3302
কাল	-10.3305
▁চলচ্চিত্রে	-10.3313
▁কুড়িগ্রাম	-10.3317
▁উৎস	-10.3317
▁মুরাদ	-10.3328
▁আফগানিস্তান	-10.3332
▁বাণিজ্যিক	-10.3335
in	-10.3341
▁প্রতিযোগিতার	-10.3348
▁ক্যাম্পাস	-10.3352
▁খালেদ	-10.3353
▁শীতের	-10.3367
▁দফতর	-10.3374
▁পরিমাণে	-10.3375
▁টুইটার	-10.3379
▁মিরাজ	-10.3383
▁উত্তরা	-10.3385
▁পশু	-10.3393
▁পিতার	-10.3394
▁হাফিজ	-10.3394
▁আজম	-10.3399
▁পরিসংখ্যান	-10.3406
▁বিলিয়ন	-10.3407
▁সম	-10.3409
▁ধাওয়া	-10.3413
চা	-10.3416
▁বিজনেস	-10.3422
▁ইঞ্জিন	-10.3423
▁পরিবহনের	-10.3427
সার	-10.3429
▁শাহরিয়ার	-10.3437
এফ	-10.3438
▁যোগ্য	-10.3438
▁দেশগুলোর	-10.3438
▁পাহাড়	-10.3439
▁তাও	-10.3439
▁নড়াইল	-10.3443
COM	-10.3444
▁রোনালদো	-10.3444
▁March	-10.3447
▁বিরাজ	-10.3453
▁মদ	-10.3454
▁পারব	-10.3455
▁প্রিয়াঙ্কা	-10.3462
▁কার্যকরী	-10.3467
▁তারই	-10.347
▁চির	-10.3474
▁মহামারী	-10.3475
▁মঙ্গল	-10.3478
▁চরিত্র	-10.348
▁ব্রাজিলের	-10.3484
▁বিতরন	-10.3485
▁ফজলে	-10.3486
▁ক্যারিয়ার	-10.3491
▁হেলথ	-10.3499
▁পার্ক	-10.35
▁ব্যবসায়ীকে	-10.3502
▁চেয়েছেন	-10.3504
২০১৮	-10.3504
▁যশোরের	-10.3508
▁করেও	-10.3508
▁মধু	-10.3509
▁বৈধ	-10.3509
▁রিফাত	-10.3517
▁দেশজুড়ে	-10.3519
▁লকডাউনে	-10.352
▁করতেই	-10.3521
মার	-10.3524
an	-10.3528
▁সুস্থতা	-10.3529
▁আরোহী	-10.3529
▁ডাল	-10.3532
▁উঠছে	-10.3532
▁আস্থা	-10.3541
ুন	-10.3542
▁ঠিকানা	-10.3543
▁কারখানায়	-10.3548
▁টাইগার	-10.3549
▁পুকুরে	-10.355
▁দপ্তরের	-10.3553
▁পর্যালোচনা	-10.3554
▁মুশফিক	-10.3554
▁চমক	-10.3556
▁মুকুল	-10.3571
▁নরসিংদী	-10.3572
▁নাটোর	-10.3575
▁ভুক্তভোগী	-10.3577
গুলোকে	-10.3577
▁বাচ্চু	-10.3581
▁ভ্যান	-10.3581
▁একক	-10.3583
▁সম্প্রচার	-10.3588
▁ওঠার	-10.3589
▁গাজীপুরের	-10.3591
▁আগুনের	-10.3599
▁ঘাট	-10.3617
▁কাঁচা	-10.3626
▁রহমানকে	-10.3628
▁নোবেল	-10.3637
▁ফিল্ম	-10.3638
০০০	-10.3638
▁রণবীর	-10.3641
▁পাননি	-10.3647
▁অংশে	-10.3649
ইউ	-10.3653
লার	-10.3656
▁সূত্রের	-10.366
▁সংকটে	-10.3669
▁একা	-10.3674
»	-10.3677
▁আর্জেন্টিনা	-10.3686
▁দিবসের	-10.3689
▁ময়মনসিংহের	-10.3689
দী	-10.3694
▁ডিরেক্টর	-10.3697
▁উদ্যোক্তা	-10.3699
▁ছুটির	-10.3699
▁ছোট্ট	-10.3702
▁খুনের	-10.3705
▁অবহিত	-10.3717
▁ভ্রাম্যমান	-10.3717
▁৬টি	-10.3718
▁চিফ	-10.3719
▁ঘন	-10.372
▁আসল	-10.372
▁M	-10.3723
▁মালয়েশিয়া	-10.3725
▁কিশোরগঞ্জ	-10.3733
▁ভিত্তিক	-10.3735
▁সাহেব	-10.3738
B	-10.3738
▁শ্রম	-10.3741
▁গবেষক	-10.3744
▁গণধর্ষণ	-10.3746
▁ছেলেকে	-10.3751
▁অটো	-10.3753
▁সেখানকার	-10.376
▁T	-10.3768
▁সর্বনিম্ন	-10.377
▁যাতায়াত	-10.3774
▁পেশা	-10.3776
▁I	-10.3778
▁অনিয়ম	-10.3782
▁সহকারি	-10.3783
▁[.]	-10.3783
▁কামরুজ্জামান	-10.3785
▁নেগেটিভ	-10.3786
▁গণতান্ত্রিক	-10.3786
▁ভয়ে	-10.3787
▁পাকিস্তানে	-10.3794
▁চলাকালে	-10.3797
▁*	-10.3799
D	-10.3802
▁খোলার	-10.3813
গো	-10.3817
▁পেশ	-10.3824
▁সিদ্ধান্তের	-10.3824
▁৪০০	-10.3825
কর	-10.3829
সাধারণ	-10.3833
▁লাইসেন্স	-10.3834
▁৬২	-10.3834
▁শিরোনামে	-10.3837
▁জ্যেষ্ঠ	-10.3837
▁রুমে	-10.3838
▁টের	-10.384
≣	-10.385
▁সেকেন্ড	-10.385
▁চিৎকার	-10.3851
▁প্রাণহানি	-10.3851
▁১২টা	-10.3853
▁ক্যান্সার	-10.3859
▁পায়নি	-10.386
▁ব্যাটারি	-10.3861
▁প্রাঙ্গণে	-10.3865
▁নেইমার	-10.3865
▁আলোর	-10.3873
▁বহন	-10.3881
C	-10.3883
▁৫৭	-10.3886
▁যুদ্ধে	-10.3889
▁?	-10.3889
▁বিরোধ	-10.3894
▁ফেসবুকের	-10.3894
▁নাগরিকত্ব	-10.3895
T	-10.3896
▁করানো	-10.3896
▁হে	-10.3901
▁উল্লেখযোগ্য	-10.3903
▁জামান	-10.3903
মুখী	-10.3906
▁রানী	-10.3909
▁গৃহবধূর	-10.3919
▁ওয়াশিংটন	-10.392
▁চোর	-10.392
▁সেট	-10.392
▁online	-10.3923
▁article	-10.3927
times	-10.3932
▁হোয়াইট	-10.3932
▁পাকা	-10.3932
▁টেনে	-10.3936
▁হাইকোর্টে	-10.3936
▁জামাত	-10.3939
▁D	-10.3942
▁ছিটকে	-10.3943
m	-10.3946
▁উত্তরে	-10.395
▁পরদিন	-10.3954
▁জমে	-10.3956
▁প্রতিনিয়ত	-10.3957
▁৫৮	-10.3959
▁দেওয়ায়	-10.396
▁হোসেনকে	-10.3962
▁স্পিনার	-10.3962
▁দেখি	-10.3964
▁গাঁজা	-10.3966
▁কান	-10.397
▁সোপর্দ	-10.397
▁মোজাম্মেল	-10.397
▁মহল	-10.3971
▁বাসার	-10.3978
▁ইউরোপীয়	-10.3984
▁এতদিন	-10.3988
▁বাংলায়	-10.4001
▁চার্জ	-10.4006
▁শীত	-10.4007
▁কাশ্মীর	-10.4012
▁ভেবে	-10.4013
▁এশিয়ান	-10.4017
▁দেহে	-10.4018
▁গোসল	-10.4024
▁ত	-10.4026
▁পে	-10.403
▁চিঠিতে	-10.4034
▁সত্ত্বেও	-10.4038
▁রচনা	-10.4042
▁নিয়েছিলেন	-10.4042
▁আহমেদের	-10.4046
▁নেটওয়ার্ক	-10.405
▁দিনাজপুরের	-10.4055
▁বেশী	-10.4057
▁কর্পোরেশন	-10.4064
▁হাসানের	-10.4064
▁শাহিন	-10.4071
▁জানাচ্ছি	-10.4072
▁প্রকৌশল	-10.4075
▁ইন্তেকাল	-10.4078
▁সৌন্দর্য	-10.4085
▁নোয়াখালীর	-10.4085
▁TV	-10.4087
▁অধিদফতর	-10.4088
▁ব্যাংকিং	-10.4089
▁অর	-10.4092
▁৬টা	-10.4092
▁মহিউদ্দিন	-10.4092
▁হুঁশিয়ারি	-10.4094
▁আমলে	-10.4113
উদ্দিন	-10.4121
▁খেলেছেন	-10.4124
▁মাকে	-10.4127
▁স্বল্প	-10.4132
▁ঐতিহ্যবাহী	-10.4133
▁রান্না	-10.4133
▁জানাই	-10.4134
▁ইট	-10.4135
▁ক্ষমতাসীন	-10.4139
▁সঞ্জয়	-10.4147
▁মর্যাদা	-10.415
▁লেগেছে	-10.4158
▁নওগাঁর	-10.4159
ময়	-10.416
▁ব্র্যান্ড	-10.416
▁ইলিয়াস	-10.4162
▁ভিউ	-10.4166
▁সঙ্গী	-10.4169
g	-10.4172
▁দোকানের	-10.4172
▁টুয়েন্টিফোর	-10.4173
▁ইঞ্জিনিয়ার	-10.4174
▁মনিরুজ্জামান	-10.4175
▁মতলব	-10.4177
▁হয়েছি	-10.4182
▁ব্লক	-10.4183
▁ওপরে	-10.4185
▁বসানো	-10.4186
▁সংশোধন	-10.4191
▁বড়ুয়া	-10.4191
▁২৫০	-10.4197
▁প্রতিপক্ষের	-10.42
▁দীপু	-10.4203
▁ফ	-10.4203
▁রুপি	-10.4204
▁সম্মেলনের	-10.4208
▁দেখেছেন	-10.4209
▁আকাশে	-10.421
▁বরিশালে	-10.4214
▁নেত্রকোনা	-10.4214
শন	-10.4215
▁৮৫	-10.4215
▁আরবে	-10.4218
▁রাজীব	-10.4219
▁বুক	-10.4223
▁আফগান	-10.4229
▁হবার	-10.423
▁রো	-10.4235
▁বিরল	-10.4237
▁জামালপুর	-10.424
পে	-10.4241
ব্য	-10.4248
▁কবরস্থানে	-10.4253
▁দেশটি	-10.4259
▁হ্রাস	-10.426
▁দা	-10.4261
▁সমন্বয়ে	-10.4261
▁পোস্টে	-10.4262
▁জানে	-10.4262
▁রোহিত	-10.4263
▁সমর্থক	-10.4264
▁রফিক	-10.4264
▁আইসোলেশনে	-10.4266
▁পেরিয়ে	-10.4267
▁উল	-10.4267
tv	-10.4269
▁জনগণকে	-10.4269
▁ঘনিষ্ঠ	-10.4275
▁সৌম্য	-10.4276
▁দাগ	-10.4278
▁ওঠা	-10.428
▁সাইফ	-10.4281
▁উপকরণ	-10.4281
▁হাতের	-10.4284
▁ঊর্ধ্বতন	-10.4285
▁১৪২৭	-10.4287
▁অর্ধেক	-10.4287
▁ফেলতে	-10.4291
▁সত্যিই	-10.4296
গাঁও	-10.4297
▁জয়নাল	-10.43
▁is	-10.4307
▁ভর্তির	-10.4308
লাম	-10.4309
▁মনের	-10.431
▁এডভোকেট	-10.4313
▁খুলনার	-10.4313
▁পছন্দের	-10.4313
▁উপযুক্ত	-10.4315
▁ইউরোপের	-10.432
▁পত্র	-10.4325
▁শরিফুল	-10.4328
▁৬১	-10.4333
▁দুঃখ	-10.4335
▁দ্বীপ	-10.4337
দিয়া	-10.4338
▁কেনা	-10.434
▁সমবায়	-10.4341
▁৬৬	-10.4344
IST	-10.4344
▁ছাই	-10.4345
▁ভাতা	-10.4346
▁স্বামীকে	-10.4352
▁স্বপ্নের	-10.4356
▁ইতিহাসের	-10.4357
▁কৃতজ্ঞতা	-10.4357
▁স্নাতক	-10.4357
▁ছিনতাই	-10.4358
▁তালিকাভুক্ত	-10.4363
▁অনুসন্ধান	-10.4364
▁NEWS	-10.4364
▁ইতিবাচক	-10.4368
▁একাডেমি	-10.4368
▁উন্মোচন	-10.4369
▁মাসুম	-10.4373
▁চামচ	-10.4375
▁ভাষণ	-10.4376
▁পেশায়	-10.4379
▁ডিজাইন	-10.4381
▁আপলোড	-10.4383
েন	-10.4385
▁সাভার	-10.4386
রাজ	-10.4388
▁প্রার্থীরা	-10.4391
▁ফেলেছে	-10.4395
▁বাড়ী	-10.4397
মন	-10.4397
▁মুফতি	-10.4398
▁নামাজের	-10.4402
▁মানের	-10.4406
▁নিয়োজিত	-10.4411
▁বেসামরিক	-10.4411
▁শৃঙ্খলা	-10.4412
র্	-10.4413
▁যোগ্যতা	-10.4414
▁কর্মশালা	-10.4417
▁বিশ	-10.4417
▁গানে	-10.4417
▁চিকিৎসায়	-10.4422
▁Time	-10.4423
▁পুড়িয়ে	-10.4426
▁সন্দেহে	-10.4427
▁আগষ্ট	-10.4428
▁পশ্চিমবঙ্গ	-10.4428
ওয়া	-10.4435
▁নানান	-10.4435
▁আক্রান্তদের	-10.4436
▁কাটার	-10.4437
▁রোডের	-10.4446
▁ভূমিকায়	-10.445
জাতীয়	-10.445
▁G	-10.4453
▁তোমার	-10.4454
▁সংস্থাটি	-10.4458
▁নাটকে	-10.4467
▁পেঁয়াজের	-10.4469
c	-10.4469
▁সাহায্যে	-10.4473
▁ফোর্স	-10.4475
জার	-10.4482
p	-10.4483
▁ফসল	-10.4489
▁চিকিৎসকদের	-10.4492
বাড়ী	-10.4494
▁সঙ্গীত	-10.4494
▁প্রমাণিত	-10.4501
স্ত	-10.4503
▁গৃহবধূ	-10.4503
দেশের	-10.4506
▁বহাল	-10.451
▁কাগজপত্র	-10.451
▁চাকরির	-10.4512
▁যানজট	-10.4514
▁ফয়সাল	-10.4515
▁অধিবেশন	-10.4518
▁পার্শ্ববর্ত	-10.4528
▁বিএসএফ	-10.4529
▁খ	-10.453
▁রাজনীতিতে	-10.4532
▁আসামিকে	-10.4532
▁ছাত্রদল	-10.4533
নী	-10.4534
নিয়ে	-10.454
▁জিনিস	-10.4542
▁বরণ	-10.4543
▁পরিচালনার	-10.4543
চট্টগ্রাম	-10.4543
▁ডান	-10.4547
▁আলোকে	-10.4549
▁প্রজন্মের	-10.456
▁পাখি	-10.4562
▁পৌঁছেছে	-10.4563
▁মাঝারি	-10.4567
▁গতিতে	-10.4567
▁গড়	-10.4572
রাও	-10.4573
▁জনপ্রিয়তা	-10.4574
▁লাখের	-10.4574
▁প্রশাসকের	-10.4576
▁শিক্ষকের	-10.4579
▁তহবিল	-10.458
▁দায়রা	-10.458
▁নজরে	-10.4582
▁নূরুল	-10.4584
▁হলেই	-10.4584
প্রতি	-10.4594
▁পিএনএস	-10.4595
▁ছয়টি	-10.4599
▁পরেও	-10.4601
▁শাকিল	-10.4605
▁বাগান	-10.4605
▁রুল	-10.4608
▁কাশেম	-10.4612
▁ফিতর	-10.4621
চি	-10.4622
▁লবণ	-10.4626
▁শুনতে	-10.4627
▁১১টা	-10.463
▁নারীরা	-10.4631
▁ফজলুল	-10.4631
▁একের	-10.4632
▁জামায়াত	-10.4633
▁মিশন	-10.4638
▁থাকি	-10.4639
▁ষষ্ঠ	-10.4643
▁প্রজ্ঞাপন	-10.4643
▁জিজ্ঞাসাবাদের	-10.4645
▁বগুড়ায়	-10.4647
▁চলাকালীন	-10.4653
▁মিডিয়ার	-10.4654
▁সই	-10.4659
▁ইসলামকে	-10.4663
▁উৎসাহ	-10.4663
▁সূচনা	-10.4671
▁বিজ্ঞানীরা	-10.4675
▁পারছে	-10.4676
▁অভিনয়ের	-10.468
▁দক্ষ	-10.4681
▁অস্থায়ী	-10.4681
বু	-10.4682
▁প্রবীণ	-10.4684
▁বৌদ্ধ	-10.4689
▁দীপিকা	-10.4696
▁Leave	-10.4697
▁গেট	-10.4697
▁প্রতিদিনের	-10.4698
▁ঝালকাঠি	-10.4702
▁খ্যাত	-10.4705
পূর্ব	-10.4706
▁হত্যাকাণ্ডের	-10.4707
গন	-10.4707
▁দম্পতি	-10.4711
▁কন্ট্রোল	-10.4719
▁সুন্দরবন	-10.4723
▁দিল্লিতে	-10.4725
ফি	-10.4727
সন	-10.4728
ধ	-10.4729
▁১৫০	-10.4736
▁প্লে	-10.4736
▁IST	-10.4737
সমূহ	-10.4742
▁বিষ	-10.4748
▁সকলেই	-10.4752
▁অধিবেশনে	-10.4752
▁পুরুষের	-10.4755
▁বালিকা	-10.4755
▁অষ্টম	-10.4756
▁দেয়নি	-10.4761
▁টাইগারদের	-10.4764
▁comment	-10.4766
▁নাইট	-10.4775
আজ	-10.4776
▁রাখবে	-10.4786
▁নাহিদ	-10.4788
▁কুমিল্লায়	-10.4792
▁স্বজনরা	-10.4794
▁করতো	-10.4796
▁চিহ্ন	-10.4801
▁সহজে	-10.4801
▁পরা	-10.4802
▁জম্মু	-10.4802
▁স্টেশনে	-10.4803
▁কাজটি	-10.4804
▁গ্লোবাল	-10.4804
▁বাতিলের	-10.4804
▁তুলেছেন	-10.481
▁কর্মসূচী	-10.4816
▁প্রতিষ্ঠানটির	-10.482
▁আমন্ত্রণ	-10.4827
▁পূর্ণাঙ্গ	-10.4828
▁রাজনীতির	-10.4828
▁যাচ্ছিলেন	-10.4829
b	-10.4832
▁কক্সবাজারে	-10.4835
▁স্বাদ	-10.4835
▁আসেনি	-10.4835
▁তাহের	-10.4841
▁জহিরুল	-10.4843
▁মহাসড়ক	-10.4846
▁শুনানির	-10.4849
▁শে	-10.4855
▁প্রথমবার	-10.4856
▁শিক্ষার্থীকে	-10.4857
▁বন্দি	-10.4857
▁অবতরণ	-10.4857
▁কনস্টেবল	-10.4858
▁লোকসভা	-10.4862
▁শিবগঞ্জ	-10.4864
▁স্বর্ণের	-10.4864
▁কর্মসংস্থান	-10.4866
▁লিওনেল	-10.4872
▁ভ	-10.4874
▁অভিযানের	-10.4887
▁মোদির	-10.4887
▁তারপরও	-10.4889
▁আটককৃত	-10.489
▁ডলারের	-10.4892
▁ব্যাটিংয়ে	-10.4892
▁সিআইডি	-10.4899
▁সম্মিলিত	-10.49
▁Barta	-10.49
▁বাস্তবায়নের	-10.4901
▁সেরে	-10.4904
▁জুনিয়র	-10.4906
▁৭৩	-10.4913
▁৬৮	-10.4914
▁ধর্মের	-10.4918
▁বৈশাখ	-10.4926
▁গান্ধী	-10.4929
▁ইতালি	-10.493
▁আত্মহত্যার	-10.4932
▁min	-10.4935
▁শিশুটিকে	-10.4935
▁পাট	-10.4939
▁দশম	-10.4941
▁মানিকগঞ্জ	-10.4942
▁নিল	-10.4947
▁ধারাবাহিক	-10.4947
▁তৎকালীন	-10.4961
▁সার্টিফিকেট	-10.4962
▁প্রভাষক	-10.4962
▁জালে	-10.4963
▁পৃথিবীতে	-10.4964
▁মন্দিরে	-10.4972
▁টপ	-10.4972
▁ঐক্যবদ্ধ	-10.4973
▁প্রকাশিতঃ	-10.4976
▁প্রো	-10.4977
।[	-10.4983
▁অ্যাসোসিয়েশন	-10.4983
▁অপরিবর্তিত	-10.499
▁পাঠায়	-10.4991
▁বাসভবনে	-10.4991
▁চক্র	-10.4991
▁পায়ের	-10.4991
▁কর্মসূচিতে	-10.4992
▁সেমিফাইনালে	-10.4997
▁বেড়াতে	-10.4999
or	-10.5001
▁অর্থবছরের	-10.5003
রু	-10.5006
▁সাউথ	-10.501
▁লতিফ	-10.5015
▁নেমেছে	-10.5019
▁শাহাদাত	-10.502
▁পাঁচজন	-10.503
▁পৃথিবী	-10.5031
▁ধাপ	-10.5032
▁শামসুল	-10.5036
▁এক্স	-10.5038
▁নয়ন	-10.5042
▁মোবাইলে	-10.5042
▁৯টায়	-10.505
▁তোলে	-10.505
▁K	-10.5052
▁রাজবাড়ী	-10.5054
▁আলিয়া	-10.5056
▁মুসলমানদের	-10.5056
▁২০১০	-10.5058
▁জনপ্রশাসন	-10.506
ঘাট	-10.506
▁ডেভিড	-10.5065
▁সপ্তম	-10.5068
লী	-10.5071
▁পোস্টার	-10.5075
▁চি	-10.5076
▁প্রত্যক্ষদর্শী	-10.5076
▁অ্যাওয়ার্ড	-10.5078
▁আসুন	-10.5083
টু	-10.5089
▁পেটে	-10.5089
▁কিডনি	-10.5092
▁করত	-10.5093
▁একেবারেই	-10.5097
▁কোটা	-10.5098
▁কোয়ারেন্টাইনে	-10.51
▁ধোনি	-10.5111
▁শা	-10.5112
▁সং	-10.5125
▁ফেলার	-10.5128
▁বাইক	-10.5129
▁বিবৃতি	-10.5129
▁দুর্বল	-10.5131
▁অভিভাবক	-10.5131
▁থাকছেন	-10.5132
▁তুরস্ক	-10.5133
্	-10.5135
▁চেয়ারম্যানের	-10.514
▁যুক্তরাজ্যের	-10.5154
▁মাহমুদউল্লাহ	-10.5159
▁নিয়েছি	-10.5163
▁যুগ	-10.5165
▁মৌসুমী	-10.5167
▁৭৪	-10.5171
▁এএসআই	-10.5175
▁দাবীতে	-10.5177
▁পদের	-10.5178
▁লাগানো	-10.5178
ুয়া	-10.5182
▁মেট্রো	-10.5183
▁২০০৯	-10.5183
▁ছবিটির	-10.5186
▁আবদু	-10.5186
▁পরোয়ানা	-10.5186
▁রীতিমতো	-10.5187
▁শাসন	-10.5188
▁বলেছি	-10.5192
▁অর্থায়নে	-10.5193
▁প্রভাবশালী	-10.5193
▁আজিজুল	-10.52
▁পারভীন	-10.5201
▁শতভাগ	-10.5202
▁বাশার	-10.5205
▁দেওয়ান	-10.5205
▁কান্তি	-10.5206
▁উল্টো	-10.5208
▁সুনামগঞ্জের	-10.5209
▁এড়িয়ে	-10.5211
▁প্রচেষ্টা	-10.5213
িতে	-10.5214
রত	-10.5219
▁সহসভাপতি	-10.5219
▁India	-10.5221
▁শ্রমিকের	-10.5222
▁কোরিয়া	-10.5226
▁অটোরিকশা	-10.5227
▁দিবসটি	-10.5229
▁Lead	-10.5232
▁ইচ্ছে	-10.5233
▁কেননা	-10.5233
▁ব্যাংকে	-10.5233
▁দিলীপ	-10.5234
▁ছ	-10.5236
▁বোধ	-10.5238
▁বেলাল	-10.5238
▁আব্বাস	-10.524
▁ভাবনা	-10.5243
▁বয়সের	-10.5244
▁তাৎক্ষণিক	-10.5246
▁আকর্ষণ	-10.5255
▁৬৩	-10.5256
▁ডিসি	-10.5257
▁কমপ্লেক্সের	-10.5257
▁পর্বের	-10.5257
▁বারের	-10.5257
গুলিতে	-10.5257
▁১২টায়	-10.526
▁পূর্ববর্তী	-10.5265
▁টুর্নামেন্টে	-10.5266
▁প্রায়ই	-10.5266
হি	-10.5276
▁রাখবেন	-10.5279
▁মাছের	-10.5281
▁প্রবাসীদের	-10.5282
▁খেলোয়াড়দের	-10.5282
▁উচ্ছেদ	-10.5282
▁আবেদীন	-10.5288
▁সিংহ	-10.5289
▁সেলসিয়াস	-10.5293
▁উল্টে	-10.5293
▁৭৮	-10.5294
▁হত	-10.5295
▁ক্ষয়ক্ষতি	-10.53
▁নকল	-10.5307
▁নেট	-10.5307
▁শওকত	-10.531
▁ট্রেনে	-10.5312
▁ইন্ডিয়ান	-10.5317
▁থাকুন	-10.5324
▁ডাকাতি	-10.5327
▁নীতিমালা	-10.5337
▁স্কোর	-10.5339
বাহী	-10.5341
▁পঞ্চগড়	-10.5347
▁ড্রোন	-10.5351
▁ধ	-10.5352
রী	-10.5353
▁ধারালো	-10.5357
▁জবানবন্দি	-10.5357
▁প্রিন্স	-10.5357
▁নাটোরের	-10.536
▁কথাও	-10.5361
▁বরাবর	-10.5362
▁মৃত্যুদণ্ড	-10.5365
▁রূপান্তর	-10.5366
▁কমপ্লেক্স	-10.5369
▁বন্ধুদের	-10.5369
▁শিবির	-10.537
▁পেট্রোল	-10.5371
▁এসেছিলেন	-10.5375
▁মূল্যে	-10.5377
▁অগ্নিকাণ্ডের	-10.5379
▁নিক্ষেপ	-10.5382
▁নির্দেশনায়	-10.5385
▁টেলিযোগাযোগ	-10.5386
▁শোকের	-10.5386
▁আঘাতে	-10.5391
▁মাসিক	-10.5393
বল	-10.5395
▁দেয়ায়	-10.5395
▁বিস্ফোরণে	-10.5399
▁প্রত্যাহারের	-10.5401
▁চুলের	-10.5403
▁পাঠাতে	-10.5403
▁সেক্রেটারি	-10.5403
▁ছাড়ার	-10.5405
l	-10.5409
▁সৈকত	-10.5411
▁টার্গেট	-10.5412
লু	-10.5415
▁গরুর	-10.5418
▁গণমাধ্যমের	-10.5418
▁প্রাণী	-10.5419
▁ঘাটতি	-10.5419
▁১৯৭১	-10.5422
k	-10.5425
▁প্রতিদ্বন্দ্বী	-10.5428
▁পটুয়াখালী	-10.543
▁ঘুষ	-10.5431
▁Limited	-10.5432
▁ফরাসি	-10.5433
▁রিয়াজ	-10.5435
▁চামড়া	-10.5441
▁আরাফাত	-10.5448
▁নিয়ন্ত্রক	-10.545
▁পুরাতন	-10.5451
▁একাধিকবার	-10.5453
ঙ্গা	-10.5453
▁আসরের	-10.5458
▁নগরের	-10.546
on	-10.5462
▁সমবেদনা	-10.5464
▁মিলেছে	-10.547
মোট	-10.547
▁জনতার	-10.5473
▁হানা	-10.5473
▁পিস্তল	-10.5479
bidesh	-10.5481
▁প্রবেশের	-10.5481
▁সোনালী	-10.5482
▁৯৫	-10.5483
বাগ	-10.5485
▁চাপে	-10.5486
▁জনসংযোগ	-10.5487
▁তবুও	-10.5491
▁জিজ্ঞাসাবাদে	-10.5492
▁তানভীর	-10.5497
h	-10.5498
▁ব্রিজ	-10.5501
▁E	-10.5503
▁গবেষকরা	-10.5504
▁বোলার	-10.5506
I	-10.5508
▁যুদ্ধের	-10.551
বিহীন	-10.5511
▁আইসিটি	-10.5512
▁ভাংচুর	-10.5513
▁বাড়ার	-10.5515
▁টাইগাররা	-10.552
▁আইফোন	-10.5526
▁কেড়ে	-10.5527
ar	-10.5532
▁লালমনিরহাট	-10.5532
▁প্রতিবছর	-10.5532
▁যথাক্রমে	-10.5542
▁মিত্র	-10.5542
▁৭৬	-10.5543
▁অনূর্ধ্ব	-10.5545
▁স্মার্ট	-10.5564
▁কোম্পানিটির	-10.5565
▁s	-10.5571
▁যেকোন	-10.5572
Oneindia	-10.5574
▁নিজাম	-10.5575
▁সন্তানদের	-10.5577
▁কলা	-10.5582
▁যেটা	-10.5585
▁দুবাই	-10.5587
▁কোম্পানী	-10.5588
▁যশোরে	-10.5592
▁সমালোচনার	-10.5594
▁সন্ধ্যার	-10.5597
▁ডাকা	-10.5601
▁চিত্রনায়িকা	-10.5605
▁৩টার	-10.5606
▁দূতাবাস	-10.5606
▁জয়া	-10.5606
▁দেশব্যাপী	-10.5608
▁সম্প্রসারণ	-10.5609
▁হালিম	-10.561
▁সারাদেশের	-10.5611
▁বৈদ্যুতিক	-10.5613
▁খাত	-10.5615
▁অমান্য	-10.5621
▁উপেক্ষা	-10.5621
▁প্রদক্ষিণ	-10.5622
▁ঘাতক	-10.5622
▁ইন্ডিজের	-10.5627
▁ব্যক্তিত্ব	-10.5628
▁মেধাবী	-10.5629
▁রা	-10.5629
▁বিজিবির	-10.5632
▁কাউন্সিলের	-10.5637
▁লোকজনের	-10.5637
▁সুন্দরী	-10.5645
▁লন্ডনে	-10.5647
▁যাত্রীরা	-10.5648
▁এজেন্ট	-10.5648
▁বর্ণাঢ্য	-10.5653
▁অর্পণ	-10.5653
▁ছাড়িয়েছে	-10.566
▁চেম্বার	-10.5665
▁গিয়েছেন	-10.5667
▁ঠাকুরগাঁওয়ে	-10.567
▁BanglaNews	-10.5673
▁প্রকাশনা	-10.5674
মেন্ট	-10.5677
▁হয়রানি	-10.5687
▁রযালী	-10.5687
▁বন্যায়	-10.569
▁তদন্তকারী	-10.5692
▁ডিএমপি	-10.57
▁গ্রেফতারকৃত	-10.5702
ত্ব	-10.5702
▁পড়াশোনা	-10.5702
▁বেগমের	-10.5708
▁শান্তিপূর্ণ	-10.5715
▁মিলবে	-10.5718
▁হাউজ	-10.5719
▁মুখ্য	-10.572
▁ব্যবস্থাপক	-10.5722
▁মার	-10.5722
▁শট	-10.5722
অব	-10.5727
▁আগাম	-10.573
বিস্তারিত	-10.5731
▁ফেরেন	-10.5734
▁ধুয়ে	-10.5734
▁বিপাকে	-10.5742
▁মেঘনা	-10.5747
▁পরিচিতি	-10.5751
▁সহিংসতা	-10.5754
▁ফ্যাশন	-10.5756
▁ব্যবসায়	-10.5757
▁কারখানার	-10.576
▁বাদশা	-10.576
▁ডিভাইস	-10.5765
▁থানাধীন	-10.5766
▁Somoy	-10.5766
▁অবসান	-10.5766
▁প্রজাতির	-10.577
বাদ	-10.5773
▁সঙ্গেই	-10.5776
▁বয়স্ক	-10.5777
▁শিশুটি	-10.5779
▁আধা	-10.578
▁অন্যান্যের	-10.5788
▁তলা	-10.5795
▁বুলবুল	-10.5799
▁তেলের	-10.58
▁বর্ণনা	-10.581
▁নামিয়ে	-10.5812
▁চাপায়	-10.5813
▁F	-10.5814
▁ইন্ডিজ	-10.5814
▁সাক্ষী	-10.5817
▁কৃষ্ণ	-10.5819
▁পালা	-10.5821
পত্র	-10.5821
▁কপি	-10.5829
▁পাড়ার	-10.583
▁আলাপ	-10.5835
করণ	-10.5837
▁Premi	-10.5846
▁স্পেশাল	-10.5848
▁যুবদলের	-10.5849
▁Comment	-10.5851
▁চকরিয়া	-10.5853
▁স্টেশনের	-10.5854
▁সহায়ক	-10.5854
▁ফোরাম	-10.5855
▁মাদ্রিদ	-10.5856
▁রাকিব	-10.5865
▁মৃত্যুবার্ষিকী	-10.5869
▁প্রদেশে	-10.5874
জু	-10.5874
▁ত্বক	-10.5875
▁দেশি	-10.5876
▁চারা	-10.5881
▁আইসিসির	-10.5883
▁ওইদিন	-10.5884
▁সম্পত্তি	-10.589
▁বৃত্তি	-10.589
▁লাইনে	-10.5895
▁শ্রীপুর	-10.5899
▁সেটাই	-10.5899
▁ল্যাব	-10.5901
▁বানিয়ে	-10.5904
▁স্বজনদের	-10.5907
▁উদ্ধারের	-10.5911
▁হতাহতের	-10.5914
▁জিততে	-10.5915
▁নেতাকে	-10.5916
▁৩টায়	-10.592
▁বাতাস	-10.5923
▁কমিটিতে	-10.5923
▁আপন	-10.5923
Deshe	-10.5926
▁Syndicate	-10.5928
▁এতো	-10.5933
▁উখিয়া	-10.5937
▁বাঁচতে	-10.5944
▁ভবিষ্যৎ	-10.5945
বার্ষিকী	-10.5951
▁বিপরীত	-10.5956
▁Next	-10.5957
▁আন্তরিক	-10.5959
▁বৃষ্টিতে	-10.5959
▁রকেট	-10.5959
▁রফতানি	-10.596
▁৬৯	-10.5962
▁রয়টার্স	-10.5964
▁২০০৮	-10.5968
▁জার্নাল	-10.5969
▁বরগুনা	-10.5971
▁বাধ্যতামূলক	-10.5976
▁অ্যাটর্নি	-10.5977
▁সামাদ	-10.5982
▁দিলেও	-10.5982
রাই	-10.5984
▁প্রকোপ	-10.5988
▁পেট	-10.5989
▁ঔষধ	-10.5989
▁ক্ষতির	-10.5989
▁মাহমুদুল	-10.5993
▁৬৭	-10.5994
▁আকতার	-10.5996
▁পেজে	-10.5996
▁ইউএস	-10.5999
▁বিধায়ক	-10.6001
▁b	-10.6001
▁রাষ্ট্রপতির	-10.6005
▁ক্ষতিগ্রস্থ	-10.601
▁আকরাম	-10.6011
▁শাওন	-10.6012
▁মাহি	-10.6014
▁মন্ত্রণালয়ে	-10.6016
েড	-10.6023
▁নাটকের	-10.6023
▁শ্বশুর	-10.6024
দল	-10.6024
▁পরীক্ষার্থী	-10.6026
▁স্ট্যাটাস	-10.6028
▁বরিশালের	-10.603
▁জনসংখ্যা	-10.603
▁পূর্বাভাস	-10.603
▁রেখেই	-10.6031
▁ডিআইজি	-10.6033
▁তথ্যের	-10.6037
তায়	-10.6039
▁নার্স	-10.6039
িংয়ের	-10.604
▁বেশকিছু	-10.6043
▁আপত্তি	-10.6059
▁আজও	-10.606
▁একসময়	-10.606
▁মৃত্যুকালে	-10.6061
▁কার্তিক	-10.6062
▁ডিসেম্বরে	-10.6067
▁হতেই	-10.6072
▁হতাশ	-10.6073
▁আবহাওয়ার	-10.6074
▁হলের	-10.6092
▁বিস্ফোরণের	-10.6093
f	-10.6095
▁বদলি	-10.6101
▁সিরিয়ার	-10.6106
▁CBN	-10.6109
▁বিপদ	-10.611
▁কম্বল	-10.6112
▁জায়েদ	-10.6112
▁খুলনায়	-10.6113
▁ঈশ্বরদী	-10.6118
▁রঙ	-10.6124
▁আকর্ষণীয়	-10.6128
▁সাপ্তাহিক	-10.613
ভারত	-10.6138
▁সহযোগিতার	-10.6145
▁আমেরিকান	-10.6147
▁দেখছেন	-10.6148
▁ভর	-10.615
▁রব	-10.6154
▁মেয়েরা	-10.6156
▁হ্যান্ড	-10.6157
▁ব্লগ	-10.6162
▁মিলাদ	-10.6169
▁কৃষকরা	-10.617
▁ধসে	-10.6172
কোভিড	-10.6174
▁জটিল	-10.6175
▁দখলে	-10.6176
▁ভারতকে	-10.6177
▁আলোকিত	-10.6177
▁৮টায়	-10.6177
▁স্প্যানিশ	-10.6178
▁আইয়ুব	-10.6178
▁শহিদ	-10.6181
▁বিমানে	-10.6189
▁ফোরামের	-10.6191
▁৮১	-10.6192
▁শের	-10.6193
টেক	-10.6193
▁অনুভব	-10.6193
▁তলিয়ে	-10.6193
▁৯টি	-10.6194
▁মোকাবিলা	-10.62
▁জানার	-10.6206
▁সোহরাওয়ার্দী	-10.6211
▁গানটির	-10.6213
▁এলাকাবাসীর	-10.6213
PN	-10.6213
▁ক্যারিয়ারের	-10.6214
▁১২টি	-10.6215
▁প্রতারণা	-10.6216
▁জলিল	-10.6217
▁উঠেছেন	-10.6217
▁কোচিং	-10.6218
▁বিসিএস	-10.6218
▁অধিকারী	-10.6223
▁রিপোর্টে	-10.6224
▁আন	-10.6225
▁লাগছে	-10.6227
▁সমাপ্ত	-10.6229
▁ত্রুটি	-10.6232
▁সূত্রপাত	-10.6239
▁আশেপাশে	-10.6245
▁মঞ্চ	-10.6246
▁ভোক্তা	-10.6246
▁আইপিএলে	-10.6246
▁কবলে	-10.6249
▁অল	-10.6256
ূ	-10.6258
▁সৃষ্টির	-10.6266
▁ফা	-10.6271
▁বন্যার	-10.6275
কান্দি	-10.6277
▁সৎ	-10.6278
▁চলাচলের	-10.6279
▁ফাঁকা	-10.6282
▁ম্যানেজমেন্ট	-10.6282
▁দেবী	-10.6284
▁আটকা	-10.6285
▁বিরোধিতা	-10.6286
▁কারাগার	-10.6286
▁প্রদর্শনী	-10.629
রাম	-10.6292
▁খায়রুল	-10.6296
▁ত্রিপুরা	-10.6298
▁ক্যাচ	-10.6299
▁বক্তৃতা	-10.6302
▁ছাড়তে	-10.6305
▁ইতালির	-10.6307
▁আত্মসমর্পণ	-10.6312
▁৮টি	-10.6313
▁বোনের	-10.6317
▁তলায়	-10.6322
▁ঠাকুর	-10.6324
▁কুরআন	-10.6329
▁লাশটি	-10.633
▁মোতাবেক	-10.633
▁৮২	-10.633
▁সেক্ষেত্রে	-10.6331
▁প্রোগ্রাম	-10.6337
▁শাড়ি	-10.6339
সিলেট	-10.6344
▁কুদ্দুস	-10.6346
▁গ্রামীণ	-10.6346
▁গড়ার	-10.6347
▁মিজান	-10.6349
▁তাপস	-10.635
newsbd	-10.6354
▁উত্তীর্ণ	-10.6355
▁ক্রেতা	-10.636
News	-10.6364
▁বৈদেশিক	-10.6364
▁অস্বাভাবিক	-10.6365
▁গণপরিবহন	-10.6366
▁রোজ	-10.6366
▁ভোটারদের	-10.6366
▁বিরত	-10.6366
বেন	-10.6371
▁ইউরো	-10.6376
▁আইপিএলের	-10.6381
▁ট্রলার	-10.6387
▁কর্মকর্তাকে	-10.6389
▁মন্ত্রীর	-10.639
▁নেপাল	-10.6391
▁মতিন	-10.6392
িল	-10.6395
▁জাতীয়তাবাদী	-10.64
বান	-10.64
▁সার্চ	-10.6402
▁তীরে	-10.6406
জনকে	-10.6407
তিনি	-10.6408
▁সৃষ্ট	-10.6411
▁ব্যবধান	-10.6412
▁মুন্সীগঞ্জ	-10.6413
▁কারাদন্ড	-10.6415
▁ক্ষতিকর	-10.6416
▁কৌশলে	-10.6417
▁দেরি	-10.6419
▁বিদ্রোহী	-10.6422
ভুক্ত	-10.6423
িয়ান	-10.6424
▁মর্মান্তিক	-10.6431
হার	-10.6432
▁রেজিস্ট্রার	-10.6437
▁ক্যাম্পেইন	-10.6447
▁তুহিন	-10.6449
▁সাজানো	-10.645
▁ইনস্টাগ্রামে	-10.6453
▁ইউরোপ	-10.6454
▁এনজিও	-10.6455
▁৭৭	-10.6458
▁ইঞ্জিনিয়ারিং	-10.6459
▁কোর্টে	-10.6461
▁ফকির	-10.6461
▁ব্যবহারকারীদের	-10.6462
▁অ্যাপল	-10.6466
▁সিম	-10.6468
▁কখন	-10.647
▁বাণী	-10.6471
▁সক্ষমতা	-10.6472
▁এসেছিল	-10.6473
▁প্রবণতা	-10.6474
▁কেয়ার	-10.6476
▁বঙ্গোপসাগরে	-10.6477
▁দ	-10.6477
▁মামুনুল	-10.6478
▁করলেই	-10.6481
▁হোয়াটসঅ্যাপ	-10.6482
▁সভাপতির	-10.6484
▁উত্তম	-10.6485
▁স্বাগতিক	-10.6487
▁ভিপি	-10.6487
এল	-10.6488
যে	-10.6489
▁সাহস	-10.6493
ভার	-10.6494
▁এড	-10.6498
▁চালকের	-10.65
▁শক্ত	-10.65
▁চাঁপাইনবাবগঞ্জে	-10.65
▁ইয়াসমিন	-10.6501
▁এসেছি	-10.6501
▁৫টা	-10.6504
▁পারছি	-10.6505
▁ঘাটে	-10.6511
▁বস্তা	-10.6512
▁অ্যান্টি	-10.6514
▁জড়িতদের	-10.6514
▁তোলেন	-10.6516
▁রোধ	-10.6517
▁বাদল	-10.652
▁নাশকতা	-10.6522
▁শরণার্থী	-10.6527
▁ভাব	-10.6528
▁জার্মান	-10.6535
▁রক্তাক্ত	-10.6535
▁এমনটা	-10.6538
▁দাঁড়ায়	-10.6539
▁অমিতাভ	-10.6542
▁প্রধানমন্ত্রীকে	-10.6543
▁অর্জনের	-10.6546
▁ভা	-10.6547
▁ঠান্ডা	-10.6553
▁ট্যাবলেট	-10.6557
▁আইনমন্ত্রী	-10.6561
▁সন্ত্রাসীরা	-10.6563
▁দিনটি	-10.6564
▁আলাউদ্দিন	-10.657
▁ফটো	-10.6571
▁যৌথভাবে	-10.6576
সব	-10.6577
ri	-10.6583
▁ভালোবাসার	-10.6584
▁হার্ট	-10.6585
▁বিট	-10.6585
▁একাডেমির	-10.6589
▁বসুন্ধরা	-10.6591
▁নীলফামারী	-10.6593
▁আসামিরা	-10.6598
▁ফুলবাড়ী	-10.6599
▁নেপালের	-10.6601
^	-10.6605
▁খারিজ	-10.6605
▁পাহাড়ি	-10.6608
▁জন্মগ্রহণ	-10.6608
আপডেট	-10.6609
▁সেলফি	-10.6609
▁ওপেন	-10.661
▁তিনজনের	-10.6613
তারা	-10.6616
▁ফেলেন	-10.6617
▁হান্নান	-10.6623
▁তুমুল	-10.6623
▁চলুন	-10.6623
▁আতঙ্কে	-10.6625
▁আত্মার	-10.6633
▁টেকনাফে	-10.6634
▁আসাদ	-10.6636
▁স্মরণে	-10.6639
▁৯৮	-10.6645
ডা	-10.6646
পু	-10.6647
▁ক্রিকেটাররা	-10.6655
▁কালীগঞ্জ	-10.6657
▁চমৎকার	-10.6658
▁সাম্প্রদায়িক	-10.6666
▁পর্যটকদের	-10.6666
▁নিলামে	-10.6672
▁ইমন	-10.6672
▁গু	-10.6673
▁বৃহত্তম	-10.6676
▁চাঁদা	-10.6678
▁ব্রিফিংয়ে	-10.668
▁খেয়াল	-10.6681
▁পারিনি	-10.6681
▁নাম্বার	-10.669
▁শিল্পকলা	-10.6694
▁চাঞ্চল্য	-10.6695
▁১ম	-10.6697
▁বিদেশী	-10.6697
▁সময়ই	-10.6698
▁সম্রাট	-10.6702
▁বাসিন্দারা	-10.6712
▁ফেডারেশন	-10.6718
খা	-10.672
ছবি	-10.6721
▁হারের	-10.6722
বাসী	-10.6724
▁পরিশ্রম	-10.6725
▁ফ্লাইটে	-10.6726
▁সংগঠনটির	-10.6726
▁ঢুকতে	-10.6729
▁গোষ্ঠী	-10.673
▁গরীব	-10.6732
▁জগন্নাথপুর	-10.6735
▁খেলেন	-10.6736
▁বিশ্লেষণ	-10.6737
▁ফিরছেন	-10.6739
▁গোপালগঞ্জ	-10.6747
▁are	-10.6748
▁এটিএম	-10.675
▁লক্ষে	-10.6751
▁এভাবেই	-10.6751
▁আউয়াল	-10.6751
▁হেলিকপ্টার	-10.6752
▁পরিসরে	-10.6753
▁হিরো	-10.6755
গার	-10.6756
▁স্মারক	-10.6757
▁এসি	-10.6758
▁মালয়েশিয়ায়	-10.676
▁বিস্ফোরক	-10.6765
ক্স	-10.6768
▁সমাজে	-10.6768
ইউএনও	-10.6769
▁জাগো	-10.677
▁শফিউল	-10.6775
>	-10.6778
পাড়ার	-10.678
▁বু	-10.6782
▁ডাকসু	-10.6786
▁ভক্তরা	-10.6788
▁তাসকিন	-10.6793
▁সূর্য	-10.6794
▁তফসিল	-10.6794
▁দাঁড়াতে	-10.6795
▁প্রতিদিনই	-10.6797
▁সুপারস্টার	-10.6802
▁এসপি	-10.6804
▁মুছে	-10.6806
▁ভোগ	-10.6807
▁ভট্টাচার্য	-10.6808
▁লিটার	-10.6808
▁থাকতেন	-10.6816
▁ক্ষুব্ধ	-10.6818
▁নবনির্বাচিত	-10.6818
▁অভিজ্ঞ	-10.6818
▁জড়ো	-10.6818
▁কল্যাণে	-10.6819
▁ঝুঁকিপূর্ণ	-10.6821
▁জল্পনা	-10.6822
▁কিম	-10.6825
▁টিপু	-10.6825
▁বন্ধে	-10.6828
▁সাজ্জাদ	-10.6828
▁মৌসুম	-10.6829
▁খানকে	-10.6833
▁রংপুরের	-10.6834
▁জব্বার	-10.6836
▁স্বেচ্ছাসেবী	-10.6836
▁ট্রফি	-10.6837
▁ইমরুল	-10.6839
▁কবর	-10.6839
▁গাড়িটি	-10.684
▁পিরোজপুর	-10.6841
▁জিবি	-10.6844
▁আখতার	-10.6844
কর্মী	-10.6845
▁সেমিনার	-10.6846
▁জনপ্রতিনিধি	-10.6848
▁অভিনব	-10.685
▁হয়েছিলো	-10.6851
▁আধিপত্য	-10.6854
▁প্ল্যাটফর্ম	-10.6854
কর্মীদের	-10.6855
▁Last	-10.686
▁দাঁড়াল	-10.6864
▁সর্বস্তরে	-10.6864
▁খালাস	-10.687
▁মনসুর	-10.687
▁কার্যনির্বাহী	-10.6872
▁সুতরাং	-10.6876
▁শয্যা	-10.6877
▁ইনজুরি	-10.6878
▁মিছিলে	-10.6879
লাল	-10.6879
▁ইন্না	-10.688
▁গ্রিন	-10.6883
▁৭টার	-10.6883
▁কিশোরীকে	-10.6888
টন	-10.689
▁সজীব	-10.689
▁শোভাযাত্রা	-10.6891
▁ফাতেমা	-10.6894
▁ময়লা	-10.6895
▁সম্পৃক্ত	-10.6903
▁দাঁত	-10.6905
লিয়া	-10.6907
▁আল্লাম	-10.6909
▁ব্যবস্থাপনায়	-10.6909
▁লক্ষ্যমাত্রা	-10.6911
▁নই	-10.6911
▁তিনজনকে	-10.6912
M	-10.6918
▁সেন্টারের	-10.6919
▁দগ্ধ	-10.6922
▁অফার	-10.6922
▁চেপে	-10.6926
▁অর্ডার	-10.6927
▁ইঞ্চি	-10.6931
▁মালয়েশিয়ার	-10.6934
▁জিম্বাবুয়ের	-10.6935
▁খাল	-10.6937
▁যুবরাজ	-10.6939
▁সাতটি	-10.6941
জান	-10.6942
▁বাসভবন	-10.6944
▁গভর্নর	-10.6944
▁মারুফ	-10.6945
▁বিশ্বনাথ	-10.6946
▁৮৮	-10.6951
▁স্মিথ	-10.6955
▁সমর্থকরা	-10.6968
▁রায়ে	-10.6973
▁রক্ষার	-10.6975
▁উঠবে	-10.6982
▁ভোলার	-10.6983
▁মেলে	-10.6984
▁নাজিম	-10.6986
▁ঘুরতে	-10.6988
▁উপকূলে	-10.6991
▁কুলাউড়া	-10.6992
▁ওয়ালটন	-10.6992
▁ব্যাপী	-10.6994
▁সিঙ্গাপুর	-10.6999
▁সুখবর	-10.7
▁লঙ্ঘন	-10.701
▁নিষেধ	-10.701
▁''	-10.701
▁পড়ল	-10.701
▁ইসি	-10.7012
▁জিতেছে	-10.7013
▁করো	-10.7014
en	-10.7015
▁শঙ্কা	-10.7016
▁অগাস্ট	-10.7017
▁অভ্যাস	-10.7021
▁রাজিউন	-10.7028
▁স্যার	-10.7028
▁মাদকের	-10.7029
▁সাদেক	-10.7029
▁বাসটি	-10.7029
▁কন্ঠ	-10.7032
▁উনি	-10.7032
▁চুক্তিতে	-10.7035
▁বৃহত্তর	-10.7037
▁দিলো	-10.7038
▁মহিলার	-10.7041
▁বাঁ	-10.7041
▁সুশান্ত	-10.7042
ডিবি	-10.7044
▁দ্বিগুণ	-10.7053
▁ঘটছে	-10.7054
▁মহিলাদের	-10.7054
প্রতিদ্বন্দ্বিতা	-10.7056
▁সাফ	-10.7057
িকা	-10.7061
▁৯৭	-10.7064
▁অগ্রাধিকার	-10.7065
▁মেধা	-10.7067
▁বাবর	-10.7069
▁বসিয়ে	-10.7071
▁আমিরাতের	-10.7071
▁কুকুর	-10.7072
▁একেএম	-10.7075
▁বাড়ায়	-10.7076
re	-10.708
এইচ	-10.708
▁আবিষ্কার	-10.7081
▁বাইরের	-10.7084
▁উপায়ে	-10.7086
▁ডেভেলপমেন্ট	-10.7092
▁ভাঙন	-10.7092
▁হাসিনাকে	-10.7095
▁নথি	-10.7096
▁বন্দুক	-10.7098
▁ব্যবসার	-10.7098
▁পুষ্টি	-10.7098
▁তত্ত্বাবধানে	-10.71
▁দ্বিতীয়বার	-10.71
▁জঙ্গিবাদ	-10.7109
▁সকলে	-10.7114
▁পিকআপ	-10.7115
▁মোনাজাত	-10.7115
চালিত	-10.7116
▁ক্ষমতার	-10.7124
▁মুহম্মদ	-10.7127
যোগ্য	-10.7127
▁শীঘ্রই	-10.7128
▁খাঁন	-10.7133
▁তারাই	-10.7136
▁একাদশে	-10.7136
▁Report	-10.7137
▁আফগানিস্তানে	-10.714
▁সম্ভবত	-10.7143
▁দৌড়ে	-10.7144
▁মৌলিক	-10.7149
▁মাদারীপুর	-10.7152
▁সালমানের	-10.7158
▁ভাষণে	-10.716
ক্ত	-10.7169
বার্তা	-10.717
▁জানানোর	-10.7172
▁ইসরাইলের	-10.7175
▁বাচ্চা	-10.7179
ST	-10.718
▁ভীষণ	-10.7183
▁অ্যান্ড্রয়েড	-10.7184
দে	-10.7184
▁হাফিজুর	-10.7184
▁আয়োজক	-10.7185
▁যত্ন	-10.7186
▁সৈয়দপুর	-10.7188
নু	-10.719
▁আনোয়ারুল	-10.7192
▁ডায়াবেটিস	-10.7197
▁সিইও	-10.7198
▁দিবে	-10.7198
▁চেয়েও	-10.7199
▁এরশাদের	-10.7201
▁তৎপরতা	-10.7202
▁নেতিবাচক	-10.7202
▁মজিদ	-10.7212
ল্লা	-10.7212
▁মেইল	-10.7217
▁টিকে	-10.7219
▁দশক	-10.722
▁কুয়েত	-10.7223
▁অবসরপ্রাপ্ত	-10.7223
▁দেননি	-10.7226
▁পারবো	-10.7227
▁ধনী	-10.7229
েশন	-10.7229
▁চাইতে	-10.7231
▁৯২	-10.7231
▁চ্যানেলে	-10.7233
▁৮৪	-10.7235
▁কোপা	-10.7236
▁কূটনৈতিক	-10.7238
▁আতাউর	-10.7238
▁পারফরম্যান্স	-10.7239
▁চেন্নাই	-10.724
▁কানাডা	-10.724
▁দেখবেন	-10.7241
▁তাৎক্ষণিকভাবে	-10.7242
▁মাহবুবুর	-10.7242
▁জার্মানি	-10.7242
▁চেয়েছিলেন	-10.7242
▁যোগাযোগমাধ্যমে	-10.7246
▁সাফল্যের	-10.7247
▁তুলেছে	-10.7248
▁মূল্যায়ন	-10.7251
▁ব্রেকিং	-10.7252
▁বৈশাখী	-10.7252
▁গৃহীত	-10.7257
▁উত্তাল	-10.7257
▁বর্জ্য	-10.7261
▁কমানোর	-10.7265
টো	-10.7268
▁মজার	-10.7268
ছা	-10.7268
▁বইয়ের	-10.7275
▁লুকিয়ে	-10.7278
▁পরিচয়পত্র	-10.7279
▁সিটির	-10.7282
▁জার্সি	-10.7282
▁তথ্যপ্রযুক্তি	-10.7288
▁নিরপেক্ষ	-10.7289
▁৮৭	-10.729
▁গৌতম	-10.7295
▁এরইমধ্যে	-10.7295
তু	-10.7296
▁জুতা	-10.7299
▁প্রতিপাদ্য	-10.73
▁অন্যান্যদের	-10.7302
▁সাপেক্ষে	-10.7302
▁সাপ	-10.7302
▁পরিদর্শনে	-10.7303
▁ভ্যাকসিনের	-10.7303
▁ঐতিহ্য	-10.7305
▁রিজার্ভ	-10.7314
▁আনিসুল	-10.7314
▁পাবনার	-10.7319
▁রোডে	-10.7322
▁লাইট	-10.7324
প্রাপ্ত	-10.7326
▁প্রান্তে	-10.7328
▁আমিরাত	-10.7328
▁গড়তে	-10.7331
হাট	-10.7331
›	-10.7332
▁পজেটিভ	-10.7334
▁প্রতিষ্ঠার	-10.7335
▁মুগ্ধ	-10.7342
▁রঞ্জন	-10.7344
লের	-10.7345
▁প্রতারণার	-10.7352
▁স্টেট	-10.7354
বৃন্দ	-10.7358
▁নজরদারি	-10.7363
▁অভিনেত্রীর	-10.7366
▁বহুল	-10.7367
▁সন্ত্রাসীদের	-10.7368
▁হাউস	-10.7368
▁হাল	-10.7368
▁প্রচণ্ড	-10.737
▁পুলিশি	-10.7372
▁মোটা	-10.7378
▁বর্ষ	-10.7381
ন্ড	-10.7385
▁দূতাবাসের	-10.7386
াম	-10.7389
▁প্লাস	-10.739
▁Bangladeshi	-10.7392
▁সম্মানিত	-10.7394
▁রোল	-10.7394
৬৫	-10.7394
পুরে	-10.7397
▁চর্চা	-10.7402
▁গ্যাসের	-10.7403
▁প্রতীকে	-10.7407
ডিএসই	-10.7414
▁পেয়েছিলেন	-10.7415
▁মিন্টু	-10.7418
▁ভালোভাবে	-10.7421
▁একযোগে	-10.7429
▁সাগরে	-10.743
▁দফতরের	-10.7433
▁গ্রুপে	-10.7434
▁স্পর্শ	-10.7436
▁চট্টোপাধ্যায়	-10.7438
▁বাজেটে	-10.7438
▁সাতক্ষীরার	-10.7441
▁হস্তক্ষেপ	-10.7442
▁নাহার	-10.7445
▁সালেহ	-10.7447
▁কথিত	-10.7448
▁In	-10.7449
▁মেহেরপুর	-10.7454
্যা	-10.7457
▁৯৯	-10.7458
▁পুঁজিবাজারে	-10.7459
▁ইরফান	-10.7459
▁টিভির	-10.746
▁সনাক্ত	-10.746
▁সবশেষ	-10.7463
▁মহসিন	-10.7465
▁ব্রাহ্মণবাড়িয়ার	-10.7465
▁দশকের	-10.7466
▁নাছির	-10.7466
▁সংলাপ	-10.7468
▁রেজিস্ট্রেশন	-10.7468
▁কাটাতে	-10.7472
▁কানাডার	-10.7476
▁কক্ষ	-10.7478
▁সংবিধান	-10.7479
▁দরে	-10.7479
▁পোর্টাল	-10.748
▁মুমিনুল	-10.7482
করোনা	-10.7482
▁উপকূলীয়	-10.7485
▁জহির	-10.7486
▁কোহলির	-10.7487
▁মানা	-10.7501
▁বেকার	-10.7505
▁অপরাধের	-10.7505
▁লেনদেনের	-10.7511
▁ব্যক্তিরা	-10.7513
মঙ্গলবার	-10.7514
▁অনুষ্ঠানটি	-10.7514
▁উইকিপিডিয়া	-10.7515
▁মাসেই	-10.7515
উপজেলা	-10.7515
পূর্ণ	-10.7516
▁গণনা	-10.7518
▁৪টার	-10.7519
▁ইসলামি	-10.7522
ঘ	-10.7522
▁উদযাপিত	-10.7522
িয়ার	-10.7523
▁যাবৎ	-10.7523
▁ডিএসইতে	-10.7525
▁এবছর	-10.7529
▁পরপর	-10.7531
▁উইকেটের	-10.7537
▁শ্যামল	-10.7537
জেলা	-10.7541
▁হারায়	-10.7543
▁লোকের	-10.7544
খবর	-10.7546
▁প্রকল্পে	-10.7548
▁লন্ডনের	-10.7549
▁হননি	-10.7551
▁মজুদ	-10.7551
▁বাবাকে	-10.7555
▁শরিফ	-10.7559
▁শ্রীমঙ্গল	-10.7561
▁সহায়তার	-10.7562
▁অন্যায়	-10.7566
▁গবেষণার	-10.7567
▁মাটির	-10.7567
গু	-10.7568
▁পরিত্যক্ত	-10.7573
▁৭টি	-10.7574
▁মধ্যেও	-10.7574
▁সালমা	-10.7577
▁কালে	-10.758
েল	-10.758
▁জিম্বাবুয়ে	-10.7582
▁ক্যামেরার	-10.7586
▁মল্লিক	-10.7586
▁সমর্থিত	-10.7587
▁মুন	-10.7588
সোমবার	-10.7591
▁খালিদ	-10.7594
বাস	-10.7595
▁ত্রি	-10.7599
▁মাথার	-10.76
চে	-10.7601
▁সিদ্ধান্তে	-10.7601
শৃঙ্খলা	-10.7606
▁সেল	-10.7608
▁R	-10.7613
▁চার্জশিট	-10.7613
▁ভাগ্য	-10.7615
▁মঈন	-10.7616
▁গেম	-10.7618
▁নিঃশ্বাস	-10.7619
▁ছাড়পত্র	-10.762
াই	-10.762
▁একসাথে	-10.7623
▁ভাস্কর্য	-10.7624
▁সেন্সর	-10.7629
▁ফেলেছেন	-10.7632
▁কিংস	-10.7633
▁আইনানুগ	-10.7638
▁বিদ্যমান	-10.7638
▁আগত	-10.7639
▁গোপনে	-10.7639
▁কর্মকাণ্ড	-10.764
▁মানতে	-10.764
▁অর্থনীতির	-10.7641
▁বান্দরবানে	-10.7642
▁দুজনকে	-10.7643
▁ইসরায়েলের	-10.7644
▁আটকের	-10.7644
▁তলব	-10.7645
▁ছাগল	-10.7646
▁পুজো	-10.7647
▁তরফ	-10.765
▁সোসাইটি	-10.7651
Bangla	-10.7651
▁মণ্ডল	-10.7653
▁চাইছে	-10.7653
▁ব্যাটালিয়ন	-10.7655
▁ম্যানচেস্টার	-10.7663
▁তাজুল	-10.7664
▁নিউইয়র্ক	-10.7664
▁আগামীতে	-10.7665
মিন	-10.7666
▁মৌলভীবাজারের	-10.7669
▁ব্রিটেনের	-10.7673
▁অভিবাসন	-10.7673
▁ক্রিস	-10.7673
▁শিকদার	-10.7674
▁বিসিবির	-10.7675
▁দুটো	-10.7682
▁মিঠুন	-10.7682
▁বিক্রেতা	-10.7682
▁জটিলতা	-10.7683
বুধবার	-10.7689
▁গ্রেপ্তারের	-10.769
ইল	-10.7691
▁নামবে	-10.7693
হাজার	-10.7694
▁নিত্য	-10.7695
▁নিচের	-10.7698
▁জন্মদিনে	-10.7698
▁নামতে	-10.7699
▁শ্বাসকষ্ট	-10.7702
▁ভিসি	-10.7703
▁৪টায়	-10.7709
▁আইএস	-10.7711
▁হতাহত	-10.7713
তুল	-10.7715
▁বার্সেলোনার	-10.7715
▁সদরে	-10.7719
▁তত	-10.772
▁হাজতে	-10.772
▁মধ্যরাতে	-10.772
▁আর্জেন্টিনার	-10.7726
▁শহীদুল	-10.7727
▁খোরশেদ	-10.7736
▁ফেন্সিডিল	-10.7736
▁ডিসপ্লে	-10.7736
▁পর্যায়ক্রমে	-10.7736
▁ব্যবহারে	-10.7739
▁জেমস	-10.774
▁মুখের	-10.774
▁দ্রব্য	-10.774
▁নাচ	-10.7744
▁মেয়েটি	-10.7748
▁ফেডারেশনের	-10.7748
▁৮৬	-10.7749
▁আদায়ের	-10.775
▁পর্যটক	-10.7751
▁কখনোই	-10.7752
▁ওঠেন	-10.7754
▁ব্যানারে	-10.7755
▁প্রচলিত	-10.7757
▁আয়কর	-10.7757
▁অনুভূতি	-10.776
▁দেখেছি	-10.7764
▁অ্যাসোসিয়েশনের	-10.7765
▁বক্তব্যের	-10.7766
▁ময়দানে	-10.7766
▁বাড়ে	-10.7768
▁ঢেউ	-10.777
▁চেষ্টার	-10.7772
▁তাল	-10.7775
▁মাতৃভাষা	-10.7775
▁সেন্ট্রাল	-10.7778
▁নির্মম	-10.7778
▁জগতে	-10.7779
২০১৭	-10.7782
▁ফিলিস্তিনি	-10.7782
▁অনুমান	-10.7786
▁নিবন্ধ	-10.7786
▁কিশোরীর	-10.779
▁বক্তা	-10.7793
▁জিপিএ	-10.7794
▁লিয়াকত	-10.7795
▁মৌসুমের	-10.7796
তিন	-10.7799
প্রত্যক্ষদর্শীরা	-10.78
▁কাস্টমস	-10.7802
▁ক্যাপ্টেন	-10.7803
▁জাহিদুল	-10.7807
▁দূষণ	-10.7807
▁সংশ্লিষ্টদের	-10.7813
▁রোজা	-10.7815
▁খবরের	-10.7816
▁চ্যাম্পিয়ন্স	-10.7817
▁২০০৭	-10.7824
▁সুত্রে	-10.7826
▁সন্তানকে	-10.7827
শনিবার	-10.7828
▁ইনস্টাগ্রাম	-10.7833
▁পৌঁছানো	-10.7835
চর	-10.7835
▁শিমুল	-10.7836
▁আসায়	-10.7837
▁স্বদেশ	-10.7837
▁পড়ায়	-10.7837
net	-10.7839
▁ঘটনাকে	-10.7839
বর	-10.784
▁প্রেমে	-10.785
▁রিকশা	-10.7851
▁অর্থবছরে	-10.7854
▁মোশারফ	-10.7855
পাড়ায়	-10.7855
▁বসু	-10.7859
▁প্রদেশ	-10.786
▁ভরসা	-10.7861
▁যুক্তি	-10.7863
▁আত্ম	-10.7869
▁সিরাজগঞ্জের	-10.787
▁প্রত্যাখ্যান	-10.7874
▁ফেনসিডিল	-10.7874
▁আসলাম	-10.7875
▁বচ্চন	-10.7876
ra	-10.7876
▁স্বাস্থ্যসেবা	-10.7877
▁প্রতিকৃতিতে	-10.7877
▁আশাবাদী	-10.788
▁অভিবাসী	-10.7882
সহকারী	-10.7883
▁পুরান	-10.789
▁ভ্যাট	-10.7893
▁নির্বাচনকে	-10.7895
▁বিগ	-10.7896
▁ফিরলেন	-10.7897
▁দোষ	-10.7901
▁অলিম্পিক	-10.7913
▁ধর্ষক	-10.7914
▁করণীয়	-10.7915
▁জার্মানির	-10.7918
▁মার্ক	-10.7918
▁অপারেটর	-10.7922
▁বস	-10.7923
▁বিষয়গুলো	-10.7939
▁শ্রেণিতে	-10.794
▁রংপুরে	-10.7942
টাও	-10.7944
োর	-10.7944
▁অভি	-10.7945
Shomoy	-10.7948
▁জিএম	-10.7952
▁রযাপিড	-10.7954
▁more	-10.7954
G	-10.7956
▁বার্সা	-10.7962
▁ফেরা	-10.7965
▁ফুড	-10.7966
▁স্যাটেলাইট	-10.7968
পার	-10.7968
কমার্স	-10.7969
▁৫টার	-10.7969
▁হারিয়েছেন	-10.797
▁৮৩	-10.7971
▁Update	-10.7972
▁পাচারের	-10.7972
▁সালাউদ্দিন	-10.7973
▁কেউই	-10.7974
▁বিরোধের	-10.7976
▁উইন্ডোজ	-10.7978
▁প্রতারক	-10.7984
্বরাষ্ট্রমন্ত্রী	-10.7986
▁ডাকাতির	-10.7986
ঘর	-10.7988
▁গ্রেনেড	-10.7995
▁হাটহাজারী	-10.7997
▁অবস্থানরত	-10.7998
▁নে	-10.7998
▁শহীদদের	-10.7999
শত	-10.7999
▁জামিনের	-10.8001
▁চ	-10.8003
▁বাগ	-10.8004
ঙ্গ	-10.8006
▁নিরাপদে	-10.8007
▁কনফারেন্সের	-10.8008
▁ঝিনাইদহে	-10.8011
▁অব্যাহতি	-10.8018
▁চালুর	-10.8026
F	-10.8026
বোধ	-10.8028
▁সিনেমাটির	-10.8029
▁টেকনোলজি	-10.803
▁মানেই	-10.8031
▁ম্যান	-10.8031
▁মিয়ানমারে	-10.8033
▁দোকানপাট	-10.8035
▁You	-10.8036
▁মূল্যের	-10.8036
am	-10.8038
▁মজা	-10.804
শিক্ষা	-10.8041
▁সীমা	-10.8041
▁মহড়া	-10.8041
▁নামার	-10.8049
at	-10.805
▁শিথিল	-10.8052
▁তরুণীর	-10.8054
▁daily	-10.8055
▁চিত্রনায়ক	-10.8055
▁স্থাপনের	-10.8058
▁ফাঁসির	-10.8062
▁ব্যান্ড	-10.8063
▁আইসিইউতে	-10.8063
▁সম্পদের	-10.8065
▁অনুষদ	-10.8071
▁বাস্তব	-10.8075
▁প্রেসিডিয়াম	-10.8075
▁ভয়ঙ্কর	-10.8076
সো	-10.8078
▁Today	-10.8078
▁ইতোমধ্যেই	-10.8083
▁টিকাদান	-10.8085
▁যাব	-10.8086
জুড়ে	-10.809
▁আসছিলেন	-10.8097
▁কাপের	-10.81
▁হবিগঞ্জের	-10.8101
▁বারী	-10.8105
▁৯৩	-10.8107
▁এক্সচেঞ্জ	-10.8114
▁ওয়াজেদ	-10.8116
▁জাতের	-10.8117
▁লেখাপড়া	-10.8117
▁অডিও	-10.8119
▁কোয়ার্টার	-10.8122
▁পৌরসভায়	-10.8125
▁১২০	-10.8126
▁মূর্তি	-10.8132
▁মুম্বাইয়ের	-10.8133
▁ওয়ানডেতে	-10.8135
▁কমতে	-10.8135
ারি	-10.8137
▁রাখি	-10.8137
▁ইমিগ্রেশন	-10.8138
▁কয়লা	-10.814
▁অস্ত্রের	-10.8142
▁স্টোর	-10.8145
▁জর্জ	-10.8147
▁ভাষার	-10.815
▁উপকারী	-10.815
▁আদেশে	-10.8152
বড়	-10.8154
▁মশিউর	-10.8157
তবে	-10.8159
▁এএফপি	-10.8161
▁ধরন	-10.8165
▁টিমের	-10.8165
▁ফেনীর	-10.8166
▁১১টি	-10.8168
▁ক্যাটরিনা	-10.8169
▁অবলম্বন	-10.817
▁আসবেন	-10.8173
▁খালেক	-10.8176
▁ফরোয়ার্ড	-10.8177
▁হেঁটে	-10.8178
▁ফুটবলের	-10.8181
▁যোগাযোগের	-10.8184
▁দুদিন	-10.8186
পর	-10.8187
▁প্রেসিডেন্টের	-10.8189
▁দেখছে	-10.8192
▁জিডি	-10.8197
▁সাক্ষ্য	-10.8198
▁রিটার্নিং	-10.8199
▁মেট্রিক	-10.8201
▁জননেত্রী	-10.8202
▁ভূ	-10.8204
▁পতন	-10.8204
ir	-10.8205
▁যুগান্তর	-10.8206
▁ছাদ	-10.8207
▁৭৯	-10.821
▁লাগার	-10.8212
▁ভরে	-10.8215
▁ঋণের	-10.8215
▁চেষ্টায়	-10.8218
▁অঙ্গীকার	-10.8218
▁সম্মুখীন	-10.8219
▁বেল	-10.8221
▁মারমা	-10.8223
গি	-10.8223
▁আনুষ্ঠানিকতা	-10.8225
▁Sports	-10.8225
▁স্টেডিয়াম	-10.823
▁রক্তের	-10.8233
▁হাফ	-10.8238
▁ঘন্টার	-10.8238
▁Dainik	-10.8239
▁রাব্বি	-10.8239
▁ভয়েস	-10.824
▁সেবায়	-10.8242
▁বর্ডার	-10.8242
পুরুষ	-10.8244
▁বেশির	-10.8254
▁মুদ্রা	-10.8256
৭০	-10.8259
▁একান্ত	-10.8263
▁অর্জুন	-10.8263
▁ফরিদপুরে	-10.8266
▁উঠল	-10.8267
▁জন্যও	-10.8267
▁প্রস্তাবিত	-10.8271
▁আনন্দের	-10.8272
▁জামায়াতের	-10.8274
▁নববর্ষ	-10.8281
▁আয়েশা	-10.8281
▁পৌঁছায়	-10.8283
▁পদত্যাগের	-10.8284
▁সার্কিট	-10.8284
▁কাঠ	-10.8285
▁হিলি	-10.829
▁ছুটিতে	-10.8293
E	-10.8299
▁ব্যক্তিবর্গ	-10.83
▁ভুগছিলেন	-10.8301
▁অন্তঃসত্ত্বা	-10.8303
▁জিয়াউল	-10.8305
▁মুসলিমদের	-10.8309
▁দোষী	-10.8319
▁বাবলু	-10.8321
▁রুম	-10.8321
শান	-10.8322
▁রক্ষাকারী	-10.8324
▁জানালে	-10.8324
▁সাপোর্ট	-10.8324
▁গৃহবধূকে	-10.8328
▁যেত	-10.833
▁বনানী	-10.833
▁রকমের	-10.8333
▁মায়া	-10.8333
ইসি	-10.8336
িস	-10.8337
▁মেলেনি	-10.8338
▁কাপ্তাই	-10.8343
▁স্যামসাং	-10.8344
▁দ্যা	-10.8348
▁প্রীতি	-10.8351
▁ওভারের	-10.8352
▁চালিত	-10.8355
▁বৈশিষ্ট্য	-10.8361
▁বাড়ীতে	-10.8363
▁ঢেলে	-10.8364
▁অস্ত্রোপচার	-10.8366
▁মিমি	-10.8378
▁সুখ	-10.838
▁রাসায়নিক	-10.8385
াস	-10.8385
▁সহ্য	-10.8386
▁ব্যবহারকারী	-10.8387
ঙ	-10.8387
▁কাশ্মীরের	-10.8393
▁অনশন	-10.8394
▁ছক্কা	-10.8395
▁অমর	-10.8396
ইয়া	-10.8397
▁যন্ত্র	-10.8398
▁৮৯	-10.8401
▁North	-10.8402
ur	-10.8405
▁From	-10.8406
▁ছুরি	-10.8406
▁মঠবাড়িয়া	-10.8407
▁রোকেয়া	-10.8408
▁বিজ্ঞানী	-10.8409
▁হাতিয়ে	-10.8411
▁গায়ক	-10.8411
▁৯১	-10.8416
▁সরব	-10.8417
ly	-10.8424
প্রশাসন	-10.8429
▁রাষ্ট্রের	-10.8429
▁সমগ্র	-10.843
▁পড়েছিল	-10.8436
▁কোম্পানিটি	-10.8442
▁কার্যক্রমে	-10.8445
▁সাতক্ষীরায়	-10.8446
▁ধর্ষন	-10.8448
▁খুলতে	-10.8448
▁সর্বাধিক	-10.8448
▁শ্রাবন্তী	-10.8453
▁শুনেছি	-10.8454
▁বিদায়ী	-10.8467
▁ব্যয়ে	-10.8468
বিডি	-10.8469
▁হেক্টর	-10.8469
▁সমন্বিত	-10.8471
▁বায়ু	-10.8473
▁মুনাফা	-10.8474
▁সঠিকভাবে	-10.8479
▁স্প্যান	-10.848
▁২০টি	-10.848
▁bd	-10.8481
▁বসতে	-10.8483
▁বাতাসে	-10.8483
বছর	-10.8483
▁শাখায়	-10.8487
▁করেছিলাম	-10.8488
▁তোফায়েল	-10.849
▁ক্ষতিপূরণ	-10.8493
▁সারাদিন	-10.8493
▁টিপস	-10.8499
▁টেবিল	-10.8499
▁৪টা	-10.8499
▁কর্মশালায়	-10.8505
▁বিমানটি	-10.8511
▁চোপড়া	-10.8511
▁গিয়াস	-10.8512
▁প্যাকেজ	-10.8512
▁আইটি	-10.8512
▁বেঙ্গল	-10.8517
▁নিষেধাজ্ঞার	-10.852
▁পরীমনি	-10.8522
▁সূচি	-10.8525
▁পূর্বাভাসে	-10.8527
▁ফলন	-10.8528
▁উদাহরণ	-10.8532
▁আত্মঘাতী	-10.8532
▁আমজাদ	-10.8533
▁হুমকির	-10.8536
বন	-10.8538
গান	-10.8541
▁বাজে	-10.8543
▁ঢাবি	-10.8543
রাত	-10.855
▁করাতে	-10.8552
কুল	-10.8554
▁মশা	-10.8562
▁শিশুরা	-10.8562
▁প্রকৃতি	-10.8563
▁ক্রেতাদের	-10.8564
▁ইসরায়েলি	-10.8565
▁ফতুল্লা	-10.857
▁বিপর্যয়	-10.8572
▁বিশেষজ্ঞদের	-10.8573
▁বিশ্বাসের	-10.8575
li	-10.8577
▁ভোরের	-10.8579
▁স্তরের	-10.858
▁অজানা	-10.8581
▁আমেরিকায়	-10.8581
▁ফিটনেস	-10.8582
▁হৃদরোগে	-10.8584
▁করণ	-10.8585
▁নো	-10.8585
▁প্রবাসীর	-10.8586
▁চেহারা	-10.8587
▁হিন্দি	-10.8591
অধিনায়ক	-10.8594
▁আইজিপি	-10.8595
▁জগন্নাথ	-10.8595
য়ান	-10.8596
ড়ে	-10.8596
▁আশায়	-10.8596
▁সংগঠক	-10.8596
▁ল্যাপটপ	-10.8598
▁বোঝাই	-10.8598
▁পেরেছি	-10.8599
▁পাড়ে	-10.8606
▁মোকাবেলা	-10.8609
▁শতাংশের	-10.861
▁আটটি	-10.8613
▁হেফাজত	-10.8615
▁ইন্টার	-10.8616
▁মতিউর	-10.8618
▁কোড	-10.8622
▁বিদ্যা	-10.8623
▁প্রাচীন	-10.8623
ঠা	-10.8628
▁৯৪	-10.8628
barta	-10.863
▁ট্রাকটি	-10.8638
▁রওশন	-10.8639
▁সন্দেহভাজন	-10.8639
▁লুট	-10.8644
▁মধ্যকা	-10.8652
▁ব্যবসায়ীর	-10.8657
শুক্রবার	-10.8659
▁জরিপ	-10.8659
▁জন্মশতবার্ষিকী	-10.8661
▁জীবিত	-10.8662
▁বাই	-10.8662
▁জয়পুরহাট	-10.8664
▁অন্যের	-10.8665
বিষয়ে	-10.8669
L	-10.868
▁মোবারক	-10.8682
▁mobile	-10.8682
▁দৃঢ়	-10.8684
▁অনন্ত	-10.8684
▁গাছে	-10.8686
▁—	-10.8689
▁কাটতে	-10.8689
▁বিমানবন্দরের	-10.8692
▁৭টায়	-10.8693
▁সাংবাদিকরা	-10.87
▁টুইটে	-10.8702
▁ডিগ্রী	-10.8706
▁তুর্কি	-10.8706
▁কাহিনী	-10.871
▁হয়রানির	-10.8711
▁ছুরিকাঘাতে	-10.8718
▁বইটি	-10.8719
▁শেষের	-10.8723
▁ফুলের	-10.8725
▁সীমান্তবর্তী	-10.8726
▁মুম্বই	-10.8727
▁হালদার	-10.873
▁এসোসিয়েশন	-10.8731
▁ফুটেজ	-10.8732
▁হারানো	-10.8732
▁বহনকারী	-10.8732
▁মেক্সিকো	-10.8733
হে	-10.8733
▁সৌজন্য	-10.8735
▁গণতন্ত্রের	-10.8736
▁৬০০	-10.874
▁ইনিংসের	-10.8742
▁মাহফিলে	-10.8742
▁নাটকটি	-10.8744
জয়	-10.8747
▁বন্ধুর	-10.8747
▁বর্ধিত	-10.8747
▁প্রত্যাবর্তন	-10.8747
ডে	-10.8747
▁চাঞ্চল্যকর	-10.8748
▁টিকেট	-10.8749
কর্মীরা	-10.8752
▁১টার	-10.8752
▁রাফি	-10.8755
▁পশুর	-10.8757
il	-10.8759
▁প্রতিষ্ঠানকে	-10.8767
▁ঘুমিয়ে	-10.8769
▁হালনাগাদ	-10.8769
▁Uttar	-10.8769
▁ওজনের	-10.8769
▁অদ্ভুত	-10.8772
রিয়া	-10.8773
▁রুট	-10.8779
▁৯৬	-10.878
▁তুলনা	-10.8782
w	-10.8782
ডাঙ্গা	-10.8785
▁রেটিং	-10.8788
বৃহস্পতিবার	-10.879
▁ডিন	-10.8791
?'	-10.8791
▁চাঁদপুরের	-10.8794
▁দিনই	-10.8798
▁১৫টি	-10.88
▁স্বস্তি	-10.8802
ুল্লাহ	-10.8803
▁মন্ত্রিসভার	-10.8806
▁প্রক্টর	-10.8806
▁এয়ারলাইন্সের	-10.8808
▁ফান্ড	-10.881
▁অবকাঠামো	-10.8811
▁জোনের	-10.8813
le	-10.8816
▁বেড়া	-10.8816
▁বাঁশ	-10.8816
▁পড়ুয়া	-10.8816
▁পরাজয়	-10.8818
▁ভাইকে	-10.8823
▁শিক্ষকরা	-10.8824
▁ফোনটি	-10.8825
▁শিক্ষিকা	-10.8826
▁মিঠু	-10.8826
▁আখাউড়া	-10.8827
▁সবই	-10.8827
▁সফলতা	-10.8831
▁প্রান্তিক	-10.8831
▁মেসেজ	-10.8831
▁মহাকাশ	-10.8832
▁পুরোনো	-10.8839
▁কাদেরের	-10.8839
▁দো	-10.8841
▁কাশি	-10.8846
▁ভাঙা	-10.8854
▁সিকিউরিটি	-10.8855
▁মমতাজ	-10.8855
▁যাবার	-10.886
▁১৪২৬	-10.8861
▁দিনাজপুরে	-10.8863
▁ক্যারিয়ারে	-10.8868
▁হই	-10.8871
َ	-10.8871
▁কুষ্টিয়ায়	-10.8872
▁নীচে	-10.8874
O	-10.8875
▁On	-10.8876
নায়	-10.8876
▁ঝগড়া	-10.8878
▁বিপর্যস্ত	-10.8878
▁মোয়াজ্জেম	-10.8879
▁যৌতুক	-10.888
▁গণভবনে	-10.8881
▁সুনাম	-10.8882
▁নিপীড়ন	-10.8884
▁দাঁড়ানোর	-10.8884
গে	-10.8885
▁ব্যবস্থার	-10.8887
▁মিম	-10.8887
▁ফিট	-10.8889
লিন	-10.8889
▁বউ	-10.889
▁অফিসিয়াল	-10.8896
▁পরিমান	-10.8896
▁পদার্থ	-10.8898
bangla	-10.8899
▁পর্দা	-10.8901
▁সচল	-10.8901
▁দৃশ্যমান	-10.8902
▁টেকসই	-10.8904
▁২টার	-10.8904
▁বাকী	-10.8906
▁বদল	-10.8908
▁সেটে	-10.8908
▁বোরো	-10.891
▁স্বজন	-10.8914
▁ভাবতে	-10.8914
▁বায়তুল	-10.8921
▁শফিক	-10.8924
▁বুথ	-10.8925
▁কোর্স	-10.8927
▁রসুন	-10.8928
▁মিলিত	-10.8929
▁অক্ষয়	-10.8931
▁প্লাস্টিক	-10.8932
▁দিচ্ছি	-10.8933
▁খাদে	-10.8939
▁সঙ্কট	-10.8942
▁মারপিট	-10.8945
▁কিং	-10.8948
▁গাজীপুরে	-10.8951
▁প্রবৃদ্ধি	-10.8954
▁পেজ	-10.8959
▁পেলেও	-10.8962
দুদক	-10.8963
▁দিনেই	-10.8964
▁অবাধ	-10.8966
▁পেনাল্টি	-10.8967
▁শোয়েব	-10.8967
▁আমীর	-10.897
▁শাহবাগ	-10.8971
▁কারন	-10.8972
▁শীতে	-10.8972
▁তৈরিতে	-10.8973
স্টার	-10.8987
▁স্মারকলিপি	-10.8989
বাদী	-10.899
▁Samb	-10.8994
H	-10.8994
▁শিশুসহ	-10.8995
▁&	-10.8995
▁ভূমিকম্প	-10.9
▁পৌঁছালে	-10.9007
▁ঐক্যফ্রন্টের	-10.9008
▁প্রাণিসম্পদ	-10.9011
▁স্বার্থ	-10.9013
▁মুন্না	-10.9013
▁সায়েন্স	-10.9016
▁বানানো	-10.9017
িম	-10.9019
▁ডিসেম্বরের	-10.9019
▁নাথ	-10.902
▁আঙুল	-10.9021
▁আলিম	-10.9021
ঞ্জ	-10.9025
▁গ্রাহকের	-10.9027
বাসীর	-10.9031
▁রাজস্থান	-10.9032
▁আমান	-10.9032
▁শাক	-10.9037
▁ধর্মঘট	-10.9037
▁ডেটা	-10.9038
▁মেয়াদে	-10.9039
▁দাসের	-10.9039
▁অনু	-10.904
▁মোদীর	-10.9041
▁ইউক্রেনের	-10.9041
ফুল	-10.9043
▁পাড়ায়	-10.9046
▁একদিকে	-10.905
▁তরুণীকে	-10.905
▁চাচা	-10.9051
▁সাক্ষাত	-10.9052
▁সিলিন্ডার	-10.9054
▁তাড়াতাড়ি	-10.9056
▁মডেলের	-10.9056
▁পুরুষদের	-10.9056
ক্রমে	-10.906
▁হাতি	-10.9061
▁পরিষদে	-10.9061
▁তেমনই	-10.9066
▁ট্রেনিং	-10.9067
▁নিজেও	-10.9068
▁সেনাদের	-10.9069
▁আজহার	-10.9072
▁ঝামেলা	-10.9073
ন্দ	-10.9073
▁সমাধানে	-10.9074
▁অর্থের	-10.9077
▁আদিবাসী	-10.908
▁হাইকমিশনার	-10.9081
▁সাবান	-10.9087
ৌ	-10.9089
▁টাওয়ার	-10.9098
▁আংশিক	-10.9098
▁পেশাদার	-10.9101
▁যুগে	-10.9103
▁হুমায়ূন	-10.9103
ul	-10.9105
▁প্যাকেট	-10.9107
▁এক্সচেঞ্জে	-10.9108
▁বোর্ডে	-10.9111
▁বিজয়ের	-10.9111
▁টঙ্গী	-10.9114
▁নৌবাহিনীর	-10.9114
▁গ্রাহকরা	-10.9117
সী	-10.9118
▁দুপুরের	-10.9118
▁চালের	-10.9121
▁মুসলমান	-10.9122
▁ঝিনাইদহের	-10.9124
▁কৃত্রিম	-10.9124
▁অন্যরা	-10.9124
▁ম্যাচেই	-10.9128
▁বললে	-10.9137
▁প্রি	-10.9137
▁টাঙ্গাইলে	-10.9139
▁নাসরিন	-10.9146
▁আপডেটঃ	-10.9146
▁শীতবস্ত্র	-10.9146
▁লুক	-10.9146
▁বকেয়া	-10.9146
▁সমাজসেবা	-10.9147
banga	-10.9149
▁অপসারণ	-10.9152
▁পারায়	-10.9156
▁প্রশ্নে	-10.9161
▁ইসরায়েল	-10.9163
ম্প	-10.9164
▁তাকিয়ে	-10.9164
▁টেলিভিশনের	-10.9164
▁মিরপুরে	-10.9167
▁মোল্লার	-10.9168
▁শর্তে	-10.9173
▁পিলার	-10.9173
▁একাডেমিক	-10.9174
▁আঘাতের	-10.9179
▁কয়েকবার	-10.9181
▁মার্চে	-10.9182
▁আঃ	-10.9183
▁নাসিমা	-10.9185
▁রাজনীতিবিদ	-10.9186
াবাদ	-10.9187
▁সার্জারি	-10.9191
▁ঠাণ্ডা	-10.9191
▁রিসার্চ	-10.9191
▁অসম্ভব	-10.9192
▁প্রজেক্ট	-10.9194
▁হত্যাকাণ্ড	-10.9195
▁ভৈরব	-10.9204
▁দায়েরের	-10.9207
▁প্রতিমা	-10.9208
▁সাজাপ্রাপ্ত	-10.9217
▁বুঝিয়ে	-10.9218
▁admin	-10.9219
▁কার্যত	-10.9221
▁বলছি	-10.9222
পো	-10.9227
▁গরিব	-10.9232
▁গৌরব	-10.9232
▁দম্পতির	-10.9233
▁এমএ	-10.9234
▁হরতাল	-10.9238
▁কর্মচারীদের	-10.9238
▁লুটপাট	-10.924
R	-10.924
▁মেয়েটির	-10.9241
▁যুক্তরাজ্যে	-10.9241
▁অপরের	-10.9242
▁মহানগরীর	-10.9243
▁রিভিউ	-10.9244
▁বন্দুকযুদ্ধে	-10.9245
▁মন্দিরের	-10.9249
▁আশুলিয়া	-10.9255
▁বিপিএল	-10.9255
▁দেখলে	-10.9256
।''	-10.9258
▁কনটেন্ট	-10.926
K	-10.9261
▁টুকরো	-10.9262
▁লক্ষাধিক	-10.9264
▁তাণ্ডব	-10.9267
▁বিবিসির	-10.9271
▁সংশ্লিষ্টরা	-10.9272
▁বিচ্ছেদ	-10.9276
▁সোনারগাঁ	-10.9276
▁এনেছে	-10.928
▁দৃষ্টান্ত	-10.9282
▁সীমানা	-10.9282
œ	-10.9282
▁কর্মীর	-10.9283
▁উপযোগী	-10.9283
▁কোলে	-10.9283
▁ছাত্রের	-10.9284
▁বাঘা	-10.9292
▁বঙ্গ	-10.9294
▁H	-10.9295
▁অগ্নিকান্ডে	-10.9295
▁প্রেমিকের	-10.9297
▁কাণ্ড	-10.9297
▁যাত্রীর	-10.9299
▁জনবল	-10.9301
▁তাড়া	-10.9308
▁পঞ্চায়েত	-10.9311
▁বেন	-10.9312
▁হেলপার	-10.9318
▁যাকে	-10.9322
মের	-10.9325
পক্ষের	-10.9327
▁কোচের	-10.934
▁কাশ্মীরে	-10.9341
তী	-10.9345
▁স্পেন	-10.9348
▁পাঠক	-10.9349
▁নকশা	-10.935
আপ	-10.935
▁মন্ত্রিসভা	-10.9351
▁উড়ে	-10.9352
▁কোষাধ্যক্ষ	-10.9354
▁করলাম	-10.9354
▁প্রা	-10.9354
▁জিও	-10.9355
▁অনিয়মের	-10.9355
▁তুষার	-10.9363
v	-10.9363
▁ভিতর	-10.9365
▁ঝড়ো	-10.937
▁নেশা	-10.937
▁গাঁজাসহ	-10.9375
▁সুনীল	-10.9375
▁ট্যাগ	-10.9377
▁স্যানিটাইজার	-10.9378
▁লাঠি	-10.9378
▁ঘটতে	-10.9379
▁ভার	-10.9381
▁সবগুলো	-10.9388
▁জুম	-10.9389
▁ফজলুর	-10.9391
▁নির্মাণাধীন	-10.9398
শো	-10.9399
▁সাদ	-10.94
▁ফেলুন	-10.94
এটা	-10.9408
▁ছাত্রদের	-10.9411
▁পায়রা	-10.9413
▁মোহন	-10.9415
▁হয়ত	-10.9416
বীর	-10.9416
▁মোহাম্মদপুর	-10.9417
মত	-10.9418
▁পোর্ট	-10.9419
▁ড্রাইভার	-10.942
▁কটাক্ষ	-10.9421
▁হিজরি	-10.9421
▁আনিসুর	-10.9421
▁ঘুমের	-10.9423
অপরাহ্ন	-10.9424
আমিন	-10.9426
▁O	-10.9427
▁রাজিব	-10.9428
▁ভূইয়া	-10.9428
▁বস্ত্র	-10.9429
মী	-10.9431
▁উঁচু	-10.9435
▁দুনিয়া	-10.9435
▁আশিক	-10.9438
▁with	-10.9439
▁মেরামত	-10.9441
ন্ট	-10.9441
▁গণশিক্ষা	-10.9444
▁সভাকক্ষে	-10.9445
▁লাফিয়ে	-10.9445
▁৮০০	-10.9448
▁সংশোধিত	-10.9449
▁রিপোর্টার্স	-10.945
▁বাণিজ্যমন্ত্রী	-10.945
▁প্রসঙ্গ	-10.9451
▁লালন	-10.9452
▁ইন্সপেক্টর	-10.9455
▁কর্তৃপক্ষকে	-10.9456
▁বার্ন	-10.9457
▁শপিং	-10.946
▁রক্তে	-10.9463
▁মাঝি	-10.9466
▁আত্মসাত	-10.9468
▁ওষুধের	-10.9468
▁দেখায়	-10.9468
▁প্রজন্ম	-10.9469
▁ক্যাসিনো	-10.9474
▁চত্বর	-10.9474
▁চমকে	-10.9474
▁রিয়া	-10.9478
▁পাঠিয়েছেন	-10.9481
▁বাঙালির	-10.9481
স্	-10.9483
▁পাল্টে	-10.9491
▁ম্যাক	-10.9492
▁কঙ্গনা	-10.9492
▁দশকে	-10.9497
▁লাশের	-10.9501
▁আইসোলেশন	-10.9501
▁জোহর	-10.9503
▁কর্মীকে	-10.9504
▁টেবিলের	-10.9507
▁কমলা	-10.951
▁কাঁধে	-10.9512
▁অনুমোদিত	-10.9514
▁আজকাল	-10.9516
▁মালিকদের	-10.9516
▁লোহাগাড়া	-10.9517
▁মাইক্রো	-10.9519
▁ফিফা	-10.9525
▁লিঙ্গ	-10.9529
▁কমলগঞ্জ	-10.953
▁জুমার	-10.9531
▁মর্যাদায়	-10.9531
▁মনোযোগ	-10.9534
শী	-10.9535
▁চাইছেন	-10.9536
উন	-10.9536
▁ভাত	-10.9537
▁পাটোয়ারী	-10.9538
▁দপ্তরে	-10.954
▁ধারনা	-10.9545
▁এনিয়ে	-10.9548
▁অস্তিত্ব	-10.9549
▁প্রবাহ	-10.9551
▁এটিই	-10.9551
▁শিবিরে	-10.9552
▁মারিয়া	-10.9553
▁গেইল	-10.9562
▁রবীন্দ্র	-10.9563
▁লিংক	-10.9568
▁সেবন	-10.9568
▁শু	-10.9569
বান্ধব	-10.9573
▁পল	-10.9577
▁ইউনিভার্সিটির	-10.9583
▁গর্ভবতী	-10.9585
▁দৃষ্টান্তমূলক	-10.9585
▁মামা	-10.9588
▁নবীন	-10.9589
বিসিবি	-10.959
কান	-10.9597
্ট	-10.9602
▁ইউপির	-10.9608
▁উদ্বিগ্ন	-10.9608
▁মিনারে	-10.9609
▁হত্যায়	-10.9611
▁চায়ের	-10.9612
▁খানম	-10.9614
▁মামুনু	-10.9614
▁নিয়ন্ত্রিত	-10.9615
▁সেমিনারে	-10.9622
সচিব	-10.9623
থেকে	-10.9623
▁শোভন	-10.9624
▁এটিকে	-10.963
▁উচিৎ	-10.9632
▁দালাল	-10.9635
▁Jan	-10.9639
▁বাংলাদেশিদের	-10.9641
▁প্রান্ত	-10.9642
▁করোনাকালে	-10.9643
▁স্থিতিশীল	-10.9651
▁সরেজমিনে	-10.9652
▁কমবে	-10.9652
▁শীল	-10.9655
▁প্রেমিকা	-10.9657
শু	-10.9658
▁be	-10.9667
▁থ্রি	-10.9667
▁যোগে	-10.9668
▁কোনোভাবেই	-10.9668
▁ফ্ল্যাট	-10.9669
▁বাহার	-10.9672
▁রহমত	-10.9676
▁মনিটরিং	-10.9676
▁নৌকায়	-10.9679
▁এখানেই	-10.968
▁লভ্যাংশ	-10.968
о	-10.968
▁ফারজানা	-10.968
▁উৎসাহিত	-10.9683
▁কোয়ারেন্টিনে	-10.9683
▁গুগলের	-10.9683
▁বিনিয়োগকারীদের	-10.9684
॥	-10.9685
বেসরকারি	-10.9685
▁ডায়েরি	-10.9686
▁রোনালদোর	-10.9686
▁দুস্থ	-10.9687
▁অস্ত্রসহ	-10.9688
াব	-10.9688
▁পলক	-10.9689
▁কুয়াশা	-10.9695
▁আজীবন	-10.9695
▁পাপন	-10.9698
▁ছুড়ে	-10.97
▁সমন্বয়ক	-10.9701
▁ছেলেদের	-10.9702
সম্পাদক	-10.9703
▁হাজারো	-10.9704
▁দেশগুলো	-10.9704
▁দীর্ঘদিনের	-10.9705
▁খবরটি	-10.9706
▁যুগ্ন	-10.9707
নেট	-10.9707
▁অগ্নিকাণ্ডে	-10.9708
▁পিএসসি	-10.9708
▁টোয়েন্টিফোর	-10.9708
▁আমিরাতে	-10.9713
▁প্রণোদনা	-10.9714
▁জিতেছেন	-10.9715
▁অবগত	-10.9723
▁ফ্রান্সে	-10.9724
দিনের	-10.9724
▁পুলিশিং	-10.9727
·	-10.9728
▁লিপ্ত	-10.9728
▁সাধন	-10.973
▁ফেইসবুক	-10.973
▁যাঁরা	-10.9731
▁গ্লাস	-10.9734
বিদ	-10.9735
▁অ্যাকাউন্টে	-10.9736
▁সেনারা	-10.9737
▁নগরীতে	-10.9743
▁খেলবেন	-10.9751
▁আর্জেন্টাইন	-10.9752
▁কিবরিয়া	-10.9752
▁তোলপাড়	-10.9752
▁শিক্ষককে	-10.9753
▁মিনার	-10.9753
▁ওয়াল	-10.9755
সংক্রান্ত	-10.9757
▁ট্রেনটি	-10.976
▁ব্লাড	-10.9761
▁ইতালিতে	-10.9764
▁মহামারীর	-10.9766
▁নিখোঁজের	-10.9767
▁সুনামগঞ্জে	-10.9768
▁ভিকটিম	-10.9768
▁দুইজনকে	-10.9769
▁আনন্দে	-10.9775
▁ভাঙ্গা	-10.9776
▁জাফরুল্লাহ	-10.9776
দুল	-10.9776
▁পাড়	-10.9777
▁অপূর্ব	-10.9779
Live	-10.9781
▁ইলেকট্রনিক	-10.9781
মাস	-10.9784
▁পিচ	-10.9786
▁মৃধা	-10.9787
▁ধরিয়ে	-10.9787
▁সালাহ	-10.979
▁ফাঁদে	-10.979
▁কিট	-10.9792
▁খু	-10.9794
▁৬টায়	-10.9796
▁বাগানে	-10.9797
▁ব্যবহারকারীরা	-10.9797
▁কণ্ঠস্বর	-10.98
জুডিশিয়াল	-10.98
▁বিতরণের	-10.9804
`	-10.9805
অপরাহ্ণ	-10.9805
▁নিলাম	-10.9808
▁বাসিন্দাদের	-10.9812
▁মাঝ	-10.9812
▁সংস্কারের	-10.9813
▁নির্মাণে	-10.9813
▁পুতিন	-10.9815
বিশ্ব	-10.9816
▁সেন্ট	-10.9817
▁৬টার	-10.9822
▁পার্থক্য	-10.9824
▁পারমাণবিক	-10.9825
ব্যাপী	-10.9828
▁গুরু	-10.983
▁ভরা	-10.9831
▁কাছেই	-10.9831
▁Sangbad	-10.9832
▁ডু	-10.9834
▁কমেন্ট	-10.9841
▁রোবট	-10.9842
▁মুক্তিযোদ্ধাদের	-10.9844
▁পশ্চিমবঙ্গে	-10.9845
▁২০০০	-10.9845
▁Post	-10.9846
▁বিল্লাল	-10.9848
▁স্থাপিত	-10.9848
▁ফয়েজ	-10.9848
েরা	-10.9853
▁সম্মতি	-10.9866
▁কমান্ড	-10.9866
▁জিরো	-10.9868
▁চেয়ার	-10.9868
▁বজ্রপাতে	-10.9868
টোয়েন্টিতে	-10.987
▁ছয়জন	-10.9871
▁ভাসমান	-10.9873
▁দিবেন	-10.9873
দান	-10.9875
▁ইবনে	-10.9876
▁আড্ডা	-10.9877
যোগে	-10.9882
▁মধ্যরাত	-10.9884
▁পানীয়	-10.9884
▁ইউটিউবে	-10.9886
▁হ্যাঁ	-10.9887
▁গোপাল	-10.9897
▁জহুরুল	-10.9898
▁তপন	-10.9898
▁দাঁড়ালো	-10.9899
▁উপপরিদর্শক	-10.9902
▁পাকিস্তানকে	-10.9902
▁বিস্তৃত	-10.9904
হু	-10.9906
▁বাগেরহাটে	-10.9909
▁পুঁজিবাজার	-10.9912
▁টেনিস	-10.9912
es	-10.9913
▁নড়াইলে	-10.9915
▁ফারিয়া	-10.9916
বঙ্গবন্ধু	-10.9916
▁ট্রেড	-10.9917
▁নারায়ণগঞ্জে	-10.9918
▁নবাগত	-10.9921
▁রহস্যজনক	-10.9921
▁জাবেদ	-10.9921
▁কামনায়	-10.9926
▁নাট্য	-10.9928
▁রাবি	-10.9929
ডিসি	-10.9931
▁No	-10.9932
▁টুডে	-10.9933
▁দাখিলের	-10.9935
▁ছাদে	-10.9936
[	-10.9937
▁জনসন	-10.9939
▁চালককে	-10.994
▁১৩টি	-10.994
▁সংস্থাটির	-10.9943
▁দায়িত্বশীল	-10.9945
▁প্লাবিত	-10.9945
▁নজির	-10.9946
▁আকন্দ	-10.9946
▁চলাচলে	-10.9949
▁ডেলিভারি	-10.9949
bdnews	-10.9954
▁প্রণয়ন	-10.9956
▁কুয়াকাটা	-10.9965
▁সুরক্ষিত	-10.997
▁সুব্রত	-10.997
▁বড়লেখা	-10.9972
▁কুড়িগ্রামের	-10.9975
▁দায়িত্বরত	-10.9975
▁আফজাল	-10.9975
▁সময়সীমা	-10.9977
▁নিরসনে	-10.9978
▁আনন্দিত	-10.998
▁Paper	-10.9982
▁সো	-10.9985
▁সাত্তার	-10.9986
▁ঢল	-10.9992
এক্স	-10.9993
▁শ্রেণী	-10.9995
স্ক	-10.9999
▁মিয়াকে	-11.0003
▁আনন্দবাজার	-11.0009
▁সনাতন	-11.0011
▁দৌলতপুর	-11.0013
▁মাইক্রোসফট	-11.0015
প্রধান	-11.0016
▁একাই	-11.0016
▁সুনির্দিষ্ট	-11.0019
▁জনি	-11.0025
▁ফাইজার	-11.0025
▁গাইবান্ধার	-11.0027
▁বীমা	-11.0027
নিয়া	-11.0028
▁মাদ্রাসায়	-11.0029
▁সাংবাদিকের	-11.0029
ওয়ার	-11.0029
ন্ন	-11.003
▁প্রাদুর্ভাব	-11.0033
▁মালিকের	-11.0033
ার্স	-11.0036
▁কমল	-11.0036
পেশার	-11.0039
▁শিব	-11.004
▁সিবিআই	-11.0043
▁খাদ্যসামগ্রী	-11.0044
▁কার্য	-11.0046
▁নর্থ	-11.0046
▁নৃত্য	-11.0051
পশ্চিম	-11.0054
▁আজিম	-11.0061
▁জীবনযাপন	-11.0062
সদর	-11.0064
▁বখাটে	-11.0064
▁পিএসজি	-11.0065
▁মুখ্যমন্ত্রীর	-11.0066
▁লক্ষ্মীপুরে	-11.0067
▁ম্যানেজিং	-11.0069
▁উপকূল	-11.0069
▁অয়েল	-11.007
▁চিত্রনাট্য	-11.007
▁ব্লকের	-11.0071
▁লক	-11.0075
▁ট্রাইব্যুনাল	-11.008
▁দুবাইয়ে	-11.0081
োয়া	-11.0086
▁ঝুঁকিতে	-11.0088
▁চ্যাম্পিয়নস	-11.0089
▁উৎপাদিত	-11.0093
▁অপারেটিং	-11.0093
▁ব্যায়াম	-11.0093
▁ফিলিস্তিনের	-11.0094
▁সজল	-11.0095
▁টান	-11.0101
▁একইভাবে	-11.0101
▁খলিল	-11.0106
▁মুঠোফোনে	-11.0107
▁লুৎফর	-11.0108
▁অত্যাধুনিক	-11.0118
▁হুসেইন	-11.0118
▁আতিকুল	-11.0119
▁প্রকৃতির	-11.012
ীন	-11.012
▁পার্কে	-11.0121
▁বালি	-11.0125
▁স্বাস্থ্যের	-11.0127
▁জলের	-11.0129
▁অভিনেতার	-11.0132
▁শ্রাবণ	-11.0134
▁চন্দন	-11.0136
▁দর্শকের	-11.0138
▁মৃ	-11.014
▁দেয়াল	-11.0141
▁বসেই	-11.0142
▁পরিস্কার	-11.0143
▁জোরপূর্বক	-11.0144
▁মার্কেটে	-11.0145
▁আতঙ্কিত	-11.0147
▁নগরী	-11.0149
▁হারাতে	-11.0151
▁ধৃত	-11.0154
▁বরাবরই	-11.0155
▁বোলারদের	-11.0157
▁প্রচারে	-11.0159
▁মিনি	-11.0163
▁প্রক্রিয়ায়	-11.0168
▁আষাঢ়	-11.0168
▁পদোন্নতি	-11.0169
▁ম্যা	-11.0169
▁জলে	-11.0171
▁স্কোয়াড	-11.0173
▁তারকাদের	-11.0175
▁মারধরের	-11.0177
অ্যা	-11.0179
▁সংবাদপত্র	-11.0181
▁মার্কেটের	-11.0181
▁একদিনের	-11.0182
▁অভিভাবকদের	-11.0183
▁ধাপের	-11.0186
▁মোটরসাইকেলে	-11.019
▁খাওয়ানো	-11.0194
▁আইনজীবীরা	-11.0196
▁লেখার	-11.0197
▁নগ্ন	-11.0197
▁ডাটা	-11.0208
▁সাহসী	-11.0211
▁J	-11.0213
▁প্রশান্ত	-11.0215
▁গণভবন	-11.0215
▁কোতোয়ালি	-11.0218
▁বরগুনার	-11.0223
▁বাদি	-11.0223
▁উপকার	-11.0224
▁সংশোধনী	-11.0225
য়ো	-11.0226
▁মুহূর্ত	-11.0227
▁বিয়েতে	-11.023
▁রড	-11.0231
▁কাম	-11.0239
▁খোঁজে	-11.024
েস	-11.0243
▁সুবাদে	-11.0244
▁অ্যাম্বুলেন্স	-11.0245
▁ব্যাচের	-11.0248
▁পর্যায়	-11.0258
▁ঝড়ের	-11.0262
▁কালি	-11.0264
▁ইতি	-11.0264
▁বর্ধমান	-11.0268
আল	-11.0268
▁সংগীতশিল্পী	-11.0269
▁মোটরসাইকেলের	-11.027
▁তিনদিন	-11.0272
+	-11.0274
▁তোমাদের	-11.0274
▁বিতর্কের	-11.0276
▁ভার্সন	-11.0276
▁মুসা	-11.0279
▁প্রচারিত	-11.0283
▁দ্বন্দ্ব	-11.0283
▁ইসরাইল	-11.0286
▁শিল্পের	-11.0287
▁তারাও	-11.0289
▁ফাঁসি	-11.0291
▁রূপে	-11.0292
▁সজিব	-11.0294
▁মজিবুর	-11.0294
▁চে	-11.0298
▁নাক	-11.03
▁মাইক	-11.0301
বিএনপি	-11.0302
▁শক্তির	-11.0303
▁তারকার	-11.0304
▁দ্বি	-11.031
▁অনেকদিন	-11.0312
▁কাসেম	-11.0316
▁কিশোরগঞ্জের	-11.032
▁জাকারিয়া	-11.0321
▁প্রত্যয়	-11.0321
▁বৃদ্ধা	-11.0322
▁মোসাদ্দেক	-11.0322
▁ভারি	-11.0324
▁পোশাকে	-11.0324
▁উপন্যাস	-11.0324
▁ক্লিনিক	-11.0324
▁আদা	-11.0325
▁আমন	-11.0326
▁বিপিএলের	-11.0332
▁জানুয়ারিতে	-11.0332
কন্ঠ	-11.0337
ধা	-11.0338
▁কমানো	-11.034
▁তারপরে	-11.0342
▁ডাউন	-11.0343
▁দিগন্ত	-11.0351
▁ওমিক্রন	-11.0351
▁আলীকে	-11.0353
▁এলেন	-11.0353
▁বিসিসিআই	-11.0364
▁রক্তচাপ	-11.0365
▁গাড়ী	-11.037
▁পেয়েছিল	-11.0372
▁তাইজুল	-11.0374
▁পাহাড়ের	-11.0375
▁স্কয়ার	-11.0379
▁আস্তে	-11.0381
▁১৪৪	-11.0388
▁৫টায়	-11.0389
▁কর্মসূচীর	-11.0391
▁হেফাজতের	-11.0394
▁নামাজে	-11.0396
▁গুলশানে	-11.0398
▁প্রবাহিত	-11.0398
▁অজয়	-11.0398
▁চিন	-11.0398
▁হিট	-11.0401
▁অংশের	-11.0401
▁ডাবল	-11.0403
▁পিছু	-11.0403
▁নভেম্বরে	-11.0408
বাড়িয়া	-11.0413
▁পীর	-11.0414
▁আহম্মদ	-11.0422
▁সংঘ	-11.0422
কর্মচারী	-11.0423
▁জানাচ্ছে	-11.0423
▁মুজিববর্ষ	-11.0423
▁মাইকেল	-11.0424
▁লাভের	-11.0426
▁লাইফস্টাইল	-11.0427
▁চেয়েছে	-11.0429
▁কাউন্টার	-11.0429
▁১টা	-11.0433
▁স্পেনের	-11.0434
▁শাহেদ	-11.0434
▁শত্রু	-11.0436
ch	-11.0437
▁সাক্ষাৎকার	-11.0438
▁মাইল	-11.0441
▁উন্নীত	-11.0442
▁সৈনিক	-11.0445
▁পাশেই	-11.0447
▁জু	-11.0448
▁ইনস্টিটিউটের	-11.0449
▁যুবদল	-11.0449
▁শীর্ষস্থানীয়	-11.045
ঘটনায়	-11.0452
▁ব্যাটালিয়নের	-11.0452
▁অজ্ঞাতনামা	-11.0453
আদালত	-11.0455
▁উই	-11.0455
nd	-11.0455
▁পূজার	-11.0459
▁ইসলামপুর	-11.0462
▁বিক্ষোভে	-11.0463
▁আক্তারের	-11.0464
▁বসত	-11.0467
▁দেবনাথ	-11.0469
▁দাম্পত্য	-11.0473
▁সারোয়ার	-11.0473
▁সেলিনা	-11.0473
▁তত্ত্বাবধায়ক	-11.0475
রহাট	-11.0477
▁শাসক	-11.0479
▁সূচকের	-11.048
▁সাদিক	-11.048
▁গল্পের	-11.0482
বাবা	-11.0482
▁শত্রুতা	-11.0488
বিল	-11.0489
▁পেছন	-11.049
▁নবীগঞ্জ	-11.0492
▁হিসেবেই	-11.0494
▁রূপগঞ্জ	-11.0494
▁পপি	-11.0496
▁ব্যতিক্রম	-11.0496
▁সমর্থনে	-11.0498
ওয়ান	-11.0499
▁পাসের	-11.0499
▁সাইদুর	-11.05
▁আবেগ	-11.0501
▁পুনর্বাসন	-11.0501
▁মাশরাফির	-11.0503
▁সমাধানের	-11.0503
▁উঠেছিল	-11.0507
▁কৃষিবিদ	-11.0507
▁একাত্তর	-11.0511
▁জামিনে	-11.0511
▁দক্ষিন	-11.0512
▁সততা	-11.0514
▁ভাট	-11.0515
ক্র	-11.0515
েবল	-11.0516
▁লো	-11.0517
▁খায়ের	-11.0518
▁সংগঠনটি	-11.0518
▁কমছে	-11.052
▁চাকা	-11.052
▁ইন্ডিয়ার	-11.0522
▁জ্যৈষ্ঠ	-11.0525
▁মুস্তফা	-11.0525
▁V	-11.0526
▁পরি	-11.053
▁ভাবেই	-11.0532
েশ	-11.0533
▁c	-11.0535
ন্স	-11.0535
▁মেদিনীপুর	-11.0536
▁লামা	-11.0539
▁অত্যাচার	-11.0545
▁গৃহ	-11.0547
ُ	-11.0551
▁পহেলা	-11.0551
▁প্রখ্যাত	-11.0551
▁দর্শকরা	-11.0552
▁বিপদে	-11.0554
▁আজিজুর	-11.0554
▁ইরাকের	-11.0558
▁ছাপ	-11.0566
▁মোর্শেদ	-11.0568
▁ধোনির	-11.057
শ্রী	-11.0571
▁বৃক্ষ	-11.0578
▁নামা	-11.0581
▁পৌছে	-11.0581
▁শুরুটা	-11.0584
▁আমিরুল	-11.0591
▁২০০১	-11.0591
▁সুদ	-11.0592
▁তীর	-11.0592
নিরীক্ষা	-11.0593
মারা	-11.0595
▁মহেশখালী	-11.0596
▁আফ্রিদি	-11.0596
▁আসি	-11.0597
▁মুন্সিগঞ্জের	-11.0597
▁ব্ল্যাক	-11.06
▁সিয়াম	-11.0601
▁নেইমারের	-11.0606
▁২টা	-11.0613
▁এজাহার	-11.0613
▁আটককৃতরা	-11.0616
▁পৌঁছাতে	-11.0616
▁পেলো	-11.0616
▁ব্র্যাক	-11.0616
▁চারজনকে	-11.0618
▁খামার	-11.0618
▁গন্ধ	-11.0621
▁যুগের	-11.0623
▁মাধ্যমেই	-11.0626
▁মাইলফলক	-11.0628
▁ঠিকাদার	-11.0631
z	-11.0632
▁ফলাফলে	-11.0635
▁এবিএম	-11.0635
▁ঈদগাহ	-11.0638
পাল	-11.0638
▁খসড়া	-11.0639
দলীয়	-11.0639
▁পার্থ	-11.0642
▁মালা	-11.0645
ডার	-11.0647
▁ইয়া	-11.0648
▁দুর্ভোগ	-11.0651
▁পর্ষদ	-11.0653
▁তরুণদের	-11.0654
▁ব্রিগেডিয়ার	-11.0656
▁বনাম	-11.0657
▁দুর্গাপুর	-11.0657
▁চাইলেন	-11.0657
▁যেটি	-11.0658
▁ভোলায়	-11.0658
▁আপত্তিকর	-11.0658
▁আরমান	-11.066
▁ক্রমশ	-11.066
▁ব্যাটে	-11.0666
▁পালনে	-11.0667
▁ইসরাইলি	-11.0669
▁মনো	-11.0669
▁এজেন্সি	-11.067
▁রাঙ্গামাটি	-11.0671
▁অসুস্থতার	-11.0671
▁গোপালগঞ্জের	-11.0672
▁আশাবাদ	-11.0673
▁সোনারগাঁও	-11.0674
▁কচুয়া	-11.0676
নিক	-11.0677
▁বৈষম্য	-11.0679
▁হারানোর	-11.0681
▁বসেন	-11.0684
▁বাঁশখালী	-11.0686
▁জ্ঞাপন	-11.0687
ِ	-11.0687
▁উত্তরবঙ্গ	-11.0688
▁আড়ালে	-11.0691
▁বক্তৃতায়	-11.0697
▁সিল	-11.0698
▁ইরানি	-11.0699
▁হতদরিদ্র	-11.07
▁পিঠা	-11.0703
▁মোংলা	-11.0704
▁জামাই	-11.0706
▁করিনি	-11.0706
▁গণ্যমান্য	-11.0708
▁খসরু	-11.0708
▁Protidin	-11.071
▁দর্শন	-11.0712
▁অন্ধকার	-11.0714
▁প্রেসক্লাবে	-11.0714
কথা	-11.0714
▁পাত্র	-11.0714
▁প্রেক্ষাপটে	-11.0716
▁বিষয়ের	-11.0717
▁বিশেষভাবে	-11.0725
ন্য	-11.0728
▁কলারোয়া	-11.0728
▁`	-11.0728
▁হাজিরা	-11.0729
▁সংখ্যালঘু	-11.0729
▁শেরেবাংলা	-11.0729
▁দায়িত্বপ্রাপ্ত	-11.073
▁লোকমান	-11.0731
▁কাজেই	-11.0732
▁অলি	-11.0737
▁প্রাইম	-11.0737
▁সর্বাত্মক	-11.0738
▁এখান	-11.0739
▁আমীন	-11.0743
▁শিক্ষিত	-11.0745
▁ভোগান্তি	-11.0747
▁৩টা	-11.0748
▁মির্জাপুর	-11.0748
▁মেতে	-11.0749
▁প্রলোভন	-11.075
▁অভিযোগপত্র	-11.0751
▁উৎপাদনের	-11.0752
▁ফলের	-11.0752
▁কাঠামো	-11.0758
▁অগ্রহায়ণ	-11.0761
▁ইলাইহি	-11.0762
▁L	-11.0763
▁স্পেস	-11.0763
▁Page	-11.0765
▁গ্রেফতারি	-11.0774
▁লাগাতে	-11.0775
টাকে	-11.0778
▁দয়া	-11.0778
জো	-11.0779
▁অসুবিধা	-11.078
কণ্ঠ	-11.0786
▁ঘটিয়ে	-11.0786
▁এক্সিকিউটিভ	-11.0788
▁রুখতে	-11.0788
▁চুক্তিবদ্ধ	-11.0788
▁কায়েস	-11.0789
▁মুহুর্তে	-11.0795
▁ব্রিজের	-11.0796
জুন	-11.08
▁নোমান	-11.0801
▁সমীক্ষা	-11.0805
▁লিভারপুল	-11.0811
▁বাজেটের	-11.0812
▁ময়নাতদন্ত	-11.0813
▁জানিয়েছিল	-11.0814
▁তরিকুল	-11.0814
▁মাহফুজুর	-11.0815
▁বিশ্বসেরা	-11.0816
▁লাস্টনিউজবিডি	-11.0817
▁বলব	-11.0817
▁স্বেচ্ছায়	-11.0817
▁মৌ	-11.0819
ৈ	-11.0825
নাথ	-11.0834
▁তিতাস	-11.0835
▁সিন্ডিকেট	-11.0842
▁দখলের	-11.0842
▁গর্বিত	-11.0842
la	-11.0842
▁অর্ধ	-11.0843
▁স্	-11.0845
নাল	-11.085
▁ঘাম	-11.0854
▁পুষ্পস্তবক	-11.0868
▁সঙ্গেও	-11.0869
▁পত্রিকায়	-11.0869
▁আড়াইটা	-11.0869
▁রাই	-11.0869
▁গণহত্যা	-11.087
উর	-11.087
▁মুহূর্তের	-11.0872
চ্ছে	-11.0875
▁সমৃদ্ধি	-11.0876
▁newspaper	-11.0876
▁ছা	-11.0877
▁সেলাই	-11.0877
▁কল্পনা	-11.0878
▁শেরপুরে	-11.088
কারীরা	-11.088
▁গাজা	-11.0884
▁বিশ্রাম	-11.0886
ওয়ে	-11.0887
▁সরবরাহকারী	-11.0889
স্ত্রী	-11.0889
▁ইভেন্ট	-11.0892
বির	-11.0894
▁চলন্ত	-11.0895
▁মূল্যবান	-11.0897
▁সংঘের	-11.0901
▁গেজেট	-11.0902
▁শিবিরের	-11.0908
▁ক্ষেত্রেও	-11.091
▁রয়ে	-11.091
▁বাস্তবে	-11.0915
▁মানবতার	-11.092
▁সুরে	-11.0921
▁স্প্রে	-11.0922
▁কণ্ঠশিল্পী	-11.0923
িস্ট	-11.0923
▁সাহেদ	-11.0924
হাটি	-11.0927
▁বন্ধুত্ব	-11.0928
্ব	-11.093
▁হি	-11.0933
▁সিঙ্গাপুরে	-11.0938
▁সাইটে	-11.0939
▁সাজঘরে	-11.0949
▁পারিশ্রমিক	-11.0949
▁বসবাসরত	-11.095
▁পাওনা	-11.0951
িনা	-11.0953
▁একদম	-11.0954
ন্না	-11.0954
▁সিগারেট	-11.0954
প্রধানমন্ত্রী	-11.0959
▁ব্যানার	-11.096
▁মাঝামাঝি	-11.096
▁দাঁড়	-11.0961
▁ঘরবাড়ি	-11.0965
৭৫	-11.0966
▁স্টল	-11.0971
▁প্রাইভেটকার	-11.0975
▁এমডি	-11.0979
ারের	-11.098
▁কবলিত	-11.098
▁শিরীন	-11.098
▁প্রাঙ্গনে	-11.0981
▁COVID	-11.0981
জল	-11.0982
▁গম	-11.0983
▁জন্মের	-11.0984
থা	-11.0985
▁বর্ষা	-11.0986
▁ক্যাটাগরিতে	-11.0986
তর	-11.0992
▁শিল্পীদের	-11.0995
▁গঠনে	-11.0996
▁লাইনের	-11.0996
▁মেডিকেলে	-11.0998
▁দমকল	-11.1001
¤	-11.1003
▁মেহেদি	-11.1003
▁ইউনুস	-11.1003
▁পাঞ্জাব	-11.1003
▁রাখছেন	-11.1006
▁আনেন	-11.1006
▁গল্পে	-11.1008
▁ফার্স্ট	-11.1009
▁ছিনতাইকারী	-11.1009
েন্ট	-11.1009
▁সর্দি	-11.101
▁পারলেও	-11.1011
▁টিটু	-11.1011
▁গার্মেন্টস	-11.1019
el	-11.102
▁ডাক্তারের	-11.1021
▁রবিন	-11.1023
▁গন	-11.1023
▁নিষ্পত্তি	-11.1027
▁বাঘ	-11.103
▁বুলেট	-11.103
▁মোহাম্মাদ	-11.1031
▁ছড়িয়েছে	-11.1035
▁প্রবাস	-11.104
▁ডাকে	-11.1042
বিশেষ	-11.1049
▁ব্যবসায়িক	-11.1052
▁ফাহাদ	-11.1053
▁হামলাকারী	-11.1054
রূপ	-11.1056
বী	-11.1057
▁প্রশাসনকে	-11.1058
W	-11.1061
ইং	-11.1064
▁অনুশীলনে	-11.1066
▁কৃতি	-11.1066
▁বিনিয়োগের	-11.1071
▁ফিল্ড	-11.1072
▁বৃদ্ধের	-11.1072
▁লেগ	-11.1077
▁আহাদ	-11.1077
▁ভে	-11.1079
মুখ	-11.1082
▁নিয়েছিল	-11.1082
▁তালেবানের	-11.1082
▁নিবিড়	-11.1083
▁সেলিমের	-11.1083
▁সোবহান	-11.1085
▁ধূমপান	-11.1087
▁বসেছে	-11.1087
▁দেখছি	-11.1087
ানো	-11.109
▁১৬টি	-11.1092
▁ছুরিকাঘাত	-11.1095
▁ঃ	-11.1097
▁ময়মনসিংহে	-11.1099
▁তৎপর	-11.1101
▁পরিকল্পনার	-11.1101
পুরের	-11.1103
▁হাতির	-11.1105
▁সমতা	-11.1105
▁নীলফামারীর	-11.1109
▁m	-11.1112
▁ম্যাগাজিন	-11.1113
▁হুইপ	-11.1113
▁কাদির	-11.1113
▁তিস্তা	-11.1114
ক্ষ	-11.1115
▁হিউম্যান	-11.1117
এটি	-11.1118
▁দলিল	-11.1119
▁সোসাইটির	-11.1123
▁বিজয়ীদের	-11.1123
▁প্রত্যেককে	-11.1123
▁সাতজন	-11.1127
▁পরিবেশের	-11.1129
▁গোলাগুলি	-11.1133
▁অপহৃত	-11.1136
▁পেরেছে	-11.1138
▁আলামত	-11.114
▁উপকারিতা	-11.1143
▁কসবা	-11.1143
অর	-11.1144
▁সংঘট	-11.1149
▁দুনিয়ায়	-11.1152
▁বো	-11.1156
▁প্রশিক্ষণের	-11.1161
▁পিসিআর	-11.1162
▁রানার	-11.1162
▁প্রস্তাবে	-11.1164
▁মিশ্র	-11.1165
▁বাহাদুর	-11.1166
▁চড়ে	-11.1168
▁নাটোরে	-11.1173
▁জিল্লুর	-11.1175
▁রামু	-11.1178
বার্ষিক	-11.1178
তাই	-11.1178
▁আর্মি	-11.1179
▁জঙ্গিদের	-11.1181
▁প্রসাদ	-11.1189
▁এসএমএস	-11.1193
▁সমমানের	-11.1194
▁বাক	-11.1195
▁উত্তপ্ত	-11.1195
▁বিল্লাহ	-11.1197
▁পরিচয়ে	-11.1197
▁বাবদ	-11.1198
▁আভাস	-11.1198
▁রেফারি	-11.1199
তলী	-11.12
▁প্রসব	-11.12
▁জেএমবি	-11.1202
▁চারজনের	-11.1208
▁গ্রন্থ	-11.1209
রযাব	-11.121
▁নেয়নি	-11.121
▁কোম্পানীগঞ্জ	-11.1211
▁হৃদরোগ	-11.1212
আন্তর্জাতিক	-11.1212
খালি	-11.1213
▁জন্মবার্ষিকী	-11.1214
▁নদ	-11.1214
▁জামালপুরের	-11.1219
▁ওবামা	-11.1222
▁সংসারে	-11.1222
▁কনফারেন্স	-11.1223
▁Print	-11.1223
▁ব্যাহত	-11.1223
▁স্টাইল	-11.1224
▁আলাপকালে	-11.1224
▁চেকপোস্ট	-11.1224
▁মালিকানাধীন	-11.1225
▁সমাধি	-11.1226
▁আশার	-11.1227
▁প্রচারের	-11.1228
▁সংস্পর্শে	-11.1229
▁ভেজাল	-11.123
▁প্রত্যেকটি	-11.1231
U	-11.1232
▁ঘটেনি	-11.1233
ইন্না	-11.1235
▁বঙ্গোপসাগর	-11.1237
=	-11.1237
▁মহলে	-11.1241
▁ফু	-11.1241
▁প্রার্থীকে	-11.1247
▁হবিগঞ্জে	-11.125
ছড়ি	-11.125
▁লেফটেন্যান্ট	-11.1251
▁ট	-11.1251
▁অভিহিত	-11.1251
▁নিক	-11.1252
▁জুয়া	-11.1252
জী	-11.1253
▁মুখোপাধ্যায়	-11.1253
▁জিজ্ঞাসা	-11.1253
▁বৃহৎ	-11.1253
▁চায়না	-11.1254
▁খাতা	-11.1255
▁ছাতক	-11.1258
▁এখানকার	-11.1258
▁কলম	-11.126
বাজ	-11.126
▁রাসেলের	-11.1265
▁মিলল	-11.1269
▁শিমুলিয়া	-11.1269
▁নিউজকে	-11.127
▁জাজিরা	-11.1271
▁অসম	-11.1273
▁উচ্চতা	-11.1275
▁ওমরাহ	-11.128
▁পাইপ	-11.128
▁আদেশের	-11.128
▁Coxsbazar	-11.1282
▁মিলছে	-11.1282
▁তালাক	-11.1283
একটি	-11.1284
▁আর্কাইভ	-11.1286
▁কীর্তি	-11.1288
▁ভাঙার	-11.1292
▁ঠিকই	-11.1292
গড়	-11.1295
▁নেব	-11.1297
▁কৃষিমন্ত্রী	-11.1299
▁ভঙ্গ	-11.1301
▁বিহার	-11.1302
শীল	-11.1302
▁পরিচালকের	-11.1304
▁ত্রিদেশীয়	-11.1307
▁মধ্যদিয়ে	-11.1307
▁রাউন্ডে	-11.1308
▁টেকনিক্যাল	-11.1309
▁ভুগছেন	-11.131
▁Hour	-11.1311
▁নির্মান	-11.1311
▁হয়েই	-11.1314
▁মিথিলা	-11.1315
ol	-11.1316
▁মূলক	-11.1324
▁শাপলা	-11.1325
▁বসন্ত	-11.133
▁সাভারের	-11.133
▁করানোর	-11.133
▁দেখানোর	-11.133
▁অগ্নি	-11.1332
▁ইমতিয়াজ	-11.1335
▁দ্বিতীয়ার্ধে	-11.1335
▁যন্ত্রপাতি	-11.1335
▁লাইক	-11.1336
▁মুহিত	-11.1336
▁মাধবপুর	-11.1341
▁চাঁদপুরে	-11.1342
▁শর্ট	-11.1344
▁৭টা	-11.1345
▁জেগে	-11.1351
ل	-11.1353
▁পাঠদান	-11.1354
কলেজ	-11.1357
র্ক	-11.1357
▁পেপার	-11.1359
▁লড়াইয়ের	-11.1359
ْ	-11.136
▁>>	-11.136
▁কিশোরের	-11.136
▁বন্ধন	-11.1361
▁সাভারে	-11.1363
ণা	-11.1363
▁মুক্তিযুদ্ধে	-11.1363
▁প্রতিষ্ঠানগুলো	-11.1363
▁সন্তোষ	-11.1363
▁মিডফিল্ডার	-11.1363
▁অক্টোবরে	-11.1365
▁জান্নাত	-11.1366
▁ফেটে	-11.1367
▁গুম	-11.137
▁বার্সার	-11.1375
গ্র	-11.1379
▁কাতারে	-11.1382
▁শেখের	-11.1389
▁ইদ্রিস	-11.1392
▁বিবি	-11.1392
▁Jul	-11.1394
▁→	-11.1395
▁জান	-11.1395
▁নাগরিকের	-11.1396
▁ধর	-11.1397
▁জায়ান্ট	-11.14
▁Voice	-11.1401
▁১৪টি	-11.1401
▁পটুয়াখালীর	-11.1405
▁ক্যা	-11.1405
▁ট্রাইব্যুনালের	-11.1408
▁বেগে	-11.1408
▁আগমন	-11.141
▁ব্যাপকভাবে	-11.1412
▁ভিশন	-11.1418
ro	-11.1419
а	-11.142
▁কোস্টগার্ড	-11.142
▁অন্যরকম	-11.1422
▁চান্দিনা	-11.1423
▁মোল্যা	-11.1425
▁ডিফেন্ডার	-11.1427
▁ভু	-11.1427
▁আমাদেরকে	-11.1428
▁ফারহানা	-11.1428
্ল	-11.1438
▁প্রজ্ঞাপনে	-11.1439
▁জুলাইয়ে	-11.1439
▁বিতরণী	-11.1444
▁সকালের	-11.1445
▁টেলিভিশনে	-11.1446
▁সেপ্টেম্বরে	-11.1447
▁৩য়	-11.1448
▁লোকজনকে	-11.1448
▁রোপন	-11.1449
▁অবরুদ্ধ	-11.145
▁চাঁদাবাজি	-11.1453
▁আমিও	-11.1453
▁প্রত্যক্ষ	-11.1454
এমন	-11.1459
▁ফোর	-11.1461
ন্দা	-11.1463
▁দেহের	-11.1466
▁হতাশা	-11.1471
৮০	-11.1472
▁লেবুর	-11.1474
ীদের	-11.1481
▁ওয়াসিম	-11.1483
▁সাজ	-11.1487
▁কোম্পানিগুলো	-11.1487
▁তু	-11.1488
▁এদেশের	-11.1488
▁মাজার	-11.1494
▁হাওর	-11.1494
▁আস	-11.1497
▁তাজা	-11.1498
▁ফাহিম	-11.15
▁ক্রিকেটারের	-11.1502
▁জেলেদের	-11.1504
▁মওদুদ	-11.1505
ৃ	-11.1505
▁সিসিটিভি	-11.1506
te	-11.1506
▁কন	-11.1506
▁হজরত	-11.1506
▁সংযোজন	-11.1508
▁হট	-11.1509
▁পথচারী	-11.151
▁বিজেপিতে	-11.1512
জ্ঞ	-11.1519
▁প্রতিহত	-11.152
▁রেলের	-11.1521
▁লাইভে	-11.1521
▁আহতরা	-11.1521
সংলগ্ন	-11.1523
রুল	-11.1524
▁লোকেরা	-11.1528
▁মাঝেই	-11.1529
▁সেসময়	-11.1534
▁ওয়ার্নার	-11.1539
▁দৌড়	-11.154
▁বিলের	-11.1545
▁নির্মল	-11.1549
▁বাংলানিউজকে	-11.1552
▁বাহিনীকে	-11.1555
▁শার্শা	-11.1556
▁কাঞ্চন	-11.156
▁অং	-11.1561
▁রউফ	-11.1563
▁লিফলেট	-11.1563
বাণিজ্য	-11.1563
▁রোজিনা	-11.1564
মারী	-11.1565
▁মুভি	-11.1568
ation	-11.1568
▁রোগীকে	-11.1575
▁পিবিআই	-11.1575
▁রাখাইন	-11.1575
▁গ্র	-11.1577
▁মাস্টার্স	-11.1578
লেট	-11.1579
▁চালকদের	-11.1581
▁শুনানিতে	-11.1581
দুর	-11.1584
▁পৌঁছান	-11.1585
পাকিস্তান	-11.1588
▁ন্যূনতম	-11.1592
▁বাইপাস	-11.1592
▁পূর্বকোণ	-11.1592
▁জার্সিতে	-11.1595
▁বগি	-11.1595
▁গ্রামবাসী	-11.1596
▁গৌরীপুর	-11.1596
▁প্ল্যান	-11.1597
কন্যা	-11.1598
▁গোলটি	-11.1598
▁গড়া	-11.1599
র্ন	-11.1601
▁সংঘাত	-11.1602
▁বিবাহিত	-11.1604
▁স্পট	-11.1616
it	-11.1617
▁ওরা	-11.1618
▁মৌখিক	-11.1618
▁আজহা	-11.1618
▁চিন্তিত	-11.162
▁উচ্চারণ	-11.162
▁অগ্নিসংযোগ	-11.162
▁সন্তুষ্ট	-11.1624
▁সুযোগে	-11.1627
▁প্রকাশে	-11.1628
▁নিখিল	-11.1629
▁সিরিয়ায়	-11.163
সেল	-11.1637
▁বিচ্ছেদের	-11.1637
▁ইয়ার	-11.164
▁রমনা	-11.1645
▁ইফতেখার	-11.1649
▁Wednesday	-11.1649
▁প্রজনন	-11.1649
▁পুরষ্কার	-11.1649
▁গণস্বাস্থ্য	-11.165
▁জনগোষ্ঠীর	-11.1651
▁প্রণব	-11.1651
রণ	-11.1654
▁সিএনএন	-11.1655
▁নিয়ন্ত্রন	-11.1659
▁সাইদুল	-11.1662
হান	-11.1664
▁রাজপথে	-11.1664
▁সেবক	-11.1667
sh	-11.1667
▁নামকরণ	-11.1673
▁জোরালো	-11.1674
▁রাখছে	-11.1676
▁মাহফুজ	-11.1676
▁সাহায্যের	-11.1677
্যাল	-11.1677
▁মাগফেরাত	-11.1679
▁সোহরাব	-11.1679
▁কারেন্ট	-11.1679
▁সভানেত্রী	-11.168
▁বাড়ীর	-11.1681
▁কফি	-11.1682
▁বঙ্গমাতা	-11.1682
▁ঝড়ে	-11.1683
ফার	-11.1683
▁ফাঁকি	-11.1683
▁Sun	-11.1683
▁প্রতিনিধিরা	-11.1687
▁জগতের	-11.1689
▁জাসদ	-11.169
▁চারপাশে	-11.169
▁দৌলতদিয়া	-11.1692
▁করান	-11.1697
▁সংবাদমাধ্যমের	-11.1698
▁আকস্মিক	-11.1703
বাবু	-11.1703
▁গাইবান্ধায়	-11.1703
▁ওয়েবডেস্ক	-11.1708
ভাই	-11.171
▁সামর্থ্য	-11.1711
▁মাদ্রিদের	-11.1711
▁Entertainment	-11.1711
▁ডিভিশন	-11.1714
▁খনন	-11.1717
▁ক্লিনিকে	-11.1719
▁বকুল	-11.1719
▁অনেকেরই	-11.172
▁ওয়াই	-11.1721
জীবন	-11.1721
▁সর	-11.1727
কী	-11.1728
▁অংশগ্রহণকারী	-11.1728
▁জিন	-11.173
▁বছরই	-11.1732
▁ব্রাহ্মণবাড়িয়ায়	-11.1734
▁পোড়া	-11.1736
▁সাদ্দাম	-11.1737
▁অগ্রসর	-11.1737
▁এক্সক্লুসিভ	-11.1737
▁ইবাদত	-11.1737
▁হাতেনাতে	-11.1737
▁বিপিএলে	-11.1738
▁মস্কো	-11.1738
▁সাইফুর	-11.1739
জের	-11.1742
▁শুয়ে	-11.1742
▁নির্যাতিত	-11.1742
▁Banglar	-11.1744
▁ফিরেছে	-11.1744
▁সেনার	-11.1746
▁তোমরা	-11.1747
▁ইভিএম	-11.175
▁গজ	-11.175
▁নেতৃবৃন্দের	-11.1753
▁অ্যাপ্লিকেশন	-11.1754
▁অস্ট্রেলিয়ায়	-11.1754
▁দিয়া	-11.1755
োন	-11.1756
সুবিধা	-11.1756
দক্ষিণ	-11.1758
▁দফতরে	-11.1758
ব্যাপারে	-11.1758
▁প্রবন্ধ	-11.1762
▁খা	-11.1763
▁কাঠের	-11.1764
৫টি	-11.1766
▁ক্ষিপ্ত	-11.1766
▁বাঁহাতি	-11.1766
▁অলআউট	-11.1766
Four	-11.1766
▁আবৃত্তি	-11.1767
▁সেদিকে	-11.1767
▁মাই	-11.1772
▁এরদোগান	-11.1772
▁এয়ারলাইন্স	-11.1773
▁রেখেছিলেন	-11.1774
▁তেজগাঁও	-11.1774
▁গণিত	-11.1776
▁বিঘা	-11.1779
▁নেতৃত্বের	-11.1781
▁নরসিংদীর	-11.1783
▁৫ম	-11.1784
▁কমার্স	-11.1786
দৈনিক	-11.1788
▁হৃদয়ে	-11.179
▁শেয়ারের	-11.1791
্র	-11.1793
ي	-11.1793
▁হ্যা	-11.1794
▁ক্রমাগত	-11.1796
▁প্রকাশক	-11.1796
▁গ্রেড	-11.1797
▁আনোয়ারা	-11.1798
▁নাইক্ষ্যংছড়ি	-11.1799
ডো	-11.1799
▁এএসপি	-11.18
লেও	-11.18
▁প্রশ্নপত্র	-11.1804
▁অক্সফোর্ড	-11.1805
▁২০০৬	-11.181
▁টোল	-11.1816
▁পড়লেন	-11.1816
▁লেবু	-11.1817
▁পারফর্ম	-11.1817
খোলা	-11.1822
▁মুন্সীগঞ্জের	-11.1822
▁মানি	-11.1822
▁দুইজনের	-11.1823
▁কারবারি	-11.1823
▁বিটিআরসি	-11.1825
▁খুচরা	-11.1825
▁মুস্তাফিজুর	-11.1826
▁জেএসসি	-11.1826
▁সোজা	-11.1826
▁নামছে	-11.1827
▁বাসস	-11.1829
▁শান্তির	-11.1832
▁এনডিটিভি	-11.1832
▁মারে	-11.1832
বিদেশের	-11.1834
▁২০০৪	-11.1834
▁সর্বদা	-11.1837
▁সোহান	-11.1842
▁প্রচেষ্টায়	-11.1844
▁দাবির	-11.1846
▁অভ্যন্তরে	-11.1848
▁প্রয়োজনীয়তা	-11.1855
▁দুঃখজনক	-11.1855
▁টিকটক	-11.1855
▁আতিকুর	-11.1856
▁বকর	-11.1856
▁বশির	-11.1857
▁ঘোড়া	-11.1863
▁কাটাকাটি	-11.1864
▁সাংবাদিকতা	-11.1864
▁প্রক্রিয়ার	-11.1869
▁এতটাই	-11.187
▁জুনে	-11.1871
▁সঙ্গীয়	-11.1876
▁ডন	-11.1882
▁রেঞ্জের	-11.1883
▁সর্ববৃহৎ	-11.1884
▁শারদীয়	-11.1885
▁নাকচ	-11.1885
▁আওয়াজ	-11.1889
▁কর্পোরেট	-11.1889
▁প্যারিস	-11.189
▁বিপজ্জনক	-11.189
▁শ্রীনগর	-11.1891
উত্তর	-11.1891
▁নোয়াখালীতে	-11.1892
▁পূর্ণিমা	-11.1893
▁কাপে	-11.1897
▁ফ্রন্ট	-11.1897
▁মিটিং	-11.1897
▁বাচ্চাদের	-11.1898
▁যোগাযোগমাধ্যম	-11.1903
রায়	-11.1903
ডিএমপি	-11.1908
▁অত্র	-11.1909
▁নির্মূল	-11.1912
ঙ্ক	-11.1913
এসপি	-11.1913
সমূহের	-11.1914
▁দিনমজুর	-11.1915
▁খুঁজতে	-11.1918
▁মতিঝিল	-11.1918
▁স্টোরেজ	-11.1918
▁ধারে	-11.1922
▁সর্বত্র	-11.1922
▁মরিয়া	-11.1923
▁বেলায়	-11.1924
▁উপমন্ত্রী	-11.1924
▁পুজোর	-11.1925
▁শুষ্ক	-11.1928
▁বর্ষণ	-11.1928
▁দূত	-11.1931
▁আতিক	-11.1932
ক্কা	-11.1935
▁সেভাবে	-11.1936
▁নওগাঁয়	-11.1941
▁আলেম	-11.1941
▁বেঞ্চে	-11.1943
▁Twenty	-11.1944
▁লিল্লাহি	-11.1944
▁সিংড়া	-11.1944
▁রেমিট্যান্স	-11.1946
কর্মচারীদের	-11.1947
শেখ	-11.1948
▁টেবিলে	-11.1949
▁পাইনি	-11.195
▁অনেকগুলো	-11.195
▁জেতার	-11.1953
স্তা	-11.1956
েন্দ্র	-11.1958
▁মোটেও	-11.196
▁একটাই	-11.1962
co	-11.1964
▁ব্যাক	-11.1973
▁মিলিমিটার	-11.1974
▁ঢেকে	-11.1974
▁যুদ্ধবিমান	-11.1974
▁একাংশ	-11.1978
▁উপনির্বাচনে	-11.198
▁অধ্যায়	-11.1984
বুল	-11.1984
▁উপার্জন	-11.1991
▁যাদব	-11.1997
▁সময়টা	-11.1997
▁ক্রেতারা	-11.1997
▁পো	-11.1999
▁৭০০	-11.2004
▁থামিয়ে	-11.2004
▁আইটেম	-11.2004
▁আশ্বিন	-11.2004
▁বাদে	-11.2005
▁দেড়টা	-11.2005
▁ইমেজ	-11.2006
▁বিল্ডিং	-11.2006
▁খুনি	-11.2022
▁পূর্বের	-11.2023
▁পশ্চিমা	-11.2025
▁বুদ্ধিজীবী	-11.2026
▁উদ্ধারে	-11.2026
▁ঘাঁটি	-11.2029
▁খালেদার	-11.203
*	-11.2032
▁ইনকিলাব	-11.2034
▁মকবুল	-11.2034
▁পরিধান	-11.2034
▁হারান	-11.2035
▁আলহাজ	-11.2035
▁প্রাতিষ্ঠানিক	-11.2036
▁খুললেন	-11.2036
▁সামাল	-11.2038
কল	-11.2038
id	-11.2043
▁ক্রমেই	-11.2044
▁ওয়াটার	-11.2044
▁ইউরোপে	-11.2045
▁আমের	-11.2045
▁তাতেই	-11.2047
▁সম্মত	-11.2048
▁বেগমকে	-11.2049
▁ধন	-11.2049
▁মার্কেটিং	-11.2049
▁লেনদেনে	-11.2055
▁সঞ্চয়	-11.2055
▁গ্র্যান্ড	-11.2057
▁f	-11.2061
▁পর্দার	-11.2063
▁ককটেল	-11.2064
▁অপ	-11.2064
▁হয়েছেঃ	-11.2065
▁Download	-11.2066
পরে	-11.2071
▁চেয়ারপার্সন	-11.2073
▁কারাগারের	-11.2075
▁স্বাস্থ্যকর্মী	-11.2081
▁সূর্যের	-11.2081
মেন	-11.2083
▁ফেব্রুয়ারিতে	-11.2083
▁রমজানের	-11.2084
▁যোগদানের	-11.2085
বন্দুকযুদ্ধে	-11.2086
▁থা	-11.2088
▁দুইদিন	-11.2093
▁বাস্তবতা	-11.2093
▁Tuesday	-11.2095
▁ট্রাকে	-11.2095
▁উত্তোলনের	-11.2095
▁বিতর্কে	-11.2097
▁রঙিন	-11.2098
▁হাটে	-11.2102
▁খায়	-11.2102
▁সহিংসতার	-11.2103
▁পাচ্ছি	-11.2104
▁দূর্ঘটনায়	-11.2104
▁জনসাধারণের	-11.2104
▁নিচ্ছি	-11.2104
▁ঘেরাও	-11.2105
▁জানাচ্ছেন	-11.2107
চন্দ্র	-11.2107
দহ	-11.2108
▁কথাই	-11.2108
▁জামা	-11.211
ফে	-11.211
▁ঝুলিয়ে	-11.2115
▁ক্ষত	-11.2117
কন	-11.2119
▁তাজ	-11.212
ত্র	-11.212
▁পাহাড়ে	-11.212
▁হেরেছে	-11.2123
▁দাদা	-11.2123
▁প্রচারণায়	-11.2125
▁প্রভৃতি	-11.2125
▁শৈত্যপ্রবাহ	-11.2125
▁সংঘবদ্ধ	-11.2125
▁দেই	-11.2127
▁মেডিসিন	-11.2128
▁ভাবা	-11.2129
ر	-11.2132
▁প্রোটিন	-11.2134
▁সানা	-11.2139
▁বেপরোয়া	-11.2139
সেন	-11.214
▁আবাসন	-11.2141
▁বাড়িতেই	-11.2145
▁খাঁ	-11.2147
▁লজ্জা	-11.2152
▁আরেফিন	-11.2156
▁রবার্ট	-11.2156
▁ওড়না	-11.2156
▁পরিবহণ	-11.2158
▁মাইক্রোবাস	-11.216
▁পেস	-11.216
▁মহ	-11.2161
▁দ্রুতই	-11.2162
কারি	-11.2164
▁চিৎকারে	-11.2167
▁প্রাক	-11.217
▁পরিচর্যা	-11.217
▁মাইকিং	-11.217
▁আগস্টে	-11.2171
▁ফ্যান	-11.2171
সিন	-11.2172
▁সিরিয়া	-11.2172
▁দ্বীপে	-11.2173
▁আগস্টের	-11.2175
▁ফুটবলে	-11.2178
নিউজ২৪	-11.2179
▁রিজেন্ট	-11.2186
▁অনৈতিক	-11.2186
▁জান্নাতুল	-11.2188
▁মন্ত্রনালয়	-11.219
▁মশার	-11.2192
▁বৈজ্ঞানিক	-11.2194
হর	-11.2195
▁যানবাহনের	-11.2195
▁বিএনপিকে	-11.2197
▁মরদেহটি	-11.2197
▁শতক	-11.2198
▁বিউটি	-11.22
ল্যান্ড	-11.2204
▁বলবেন	-11.221
▁বিসিএসের	-11.221
▁বৃক্ষরোপণ	-11.2217
▁অবিশ্বাস্য	-11.2219
▁সেইসঙ্গে	-11.222
▁ফাইনালের	-11.2222
ফল	-11.2222
▁হায়াত	-11.2223
▁চেতনা	-11.2226
▁কোর	-11.2226
▁বিষয়টা	-11.2227
ভারতীয়	-11.2228
▁কর্মস্থলে	-11.223
▁ব্যর্থতার	-11.2232
▁১৮টি	-11.2232
▁অর্থনীতিতে	-11.2236
▁হাদিস	-11.2236
▁তারিখের	-11.2237
▁ছাড়ে	-11.2239
▁চাঁদের	-11.2241
টিভি	-11.2242
▁বসার	-11.2242
▁ভালুকা	-11.2246
▁তাক	-11.2246
ওয়ালা	-11.2248
▁সাবিনা	-11.2248
▁জানাগেছে	-11.2249
▁পাবনায়	-11.225
▁ব্রিটেন	-11.2253
▁জং	-11.2254
▁গরমে	-11.2255
▁ডিফেন্স	-11.2258
▁আখতারুজ্জামান	-11.2259
▁লুইস	-11.226
▁সেটাও	-11.2261
বাছাই	-11.2272
▁জুনায়েদ	-11.2278
▁আওতাধীন	-11.2278
▁যতটা	-11.2279
▁রুজু	-11.2279
▁করুক	-11.2279
▁বন্ধুরা	-11.2282
▁প্যান্ট	-11.2284
▁লটারি	-11.2287
▁সুন্দরবনে	-11.2291
▁কাপুরের	-11.2293
▁অন্তর	-11.2295
▁আক্রমণে	-11.2296
▁রু	-11.2298
▁ক্ষেত্রেই	-11.2299
▁Jun	-11.23
▁ভাঙ্গন	-11.2304
পন	-11.2305
▁বৈধতা	-11.2306
▁অর্জনে	-11.2308
▁খেলেছে	-11.2309
▁খেতাব	-11.2309
▁সমাপ্তি	-11.231
▁মজুত	-11.2312
▁শ্যামনগর	-11.2313
▁অস্ট্রেলিয়ান	-11.2313
চু	-11.2315
▁অন্যত্র	-11.2317
▁মন্তব্যের	-11.2317
▁খেজুর	-11.2321
িয়	-11.2322
▁জেরা	-11.2323
▁আসামীদের	-11.2323
লাই	-11.2326
▁পরীক্ষার্থীদের	-11.2326
▁অপরাধী	-11.2328
▁ক্যাপশনে	-11.2329
▁তাহিরপুর	-11.2331
▁ইউক্রেন	-11.2331
▁পিসি	-11.2335
▁ব্যবহারকারীর	-11.2337
▁অটোরিক্সা	-11.234
▁ভূষিত	-11.234
▁আগ্রাসন	-11.2341
▁ব্রাজিলিয়ান	-11.2341
▁মহকুমা	-11.2343
▁ভয়ংকর	-11.2344
▁খোদ	-11.2345
▁জানালা	-11.2349
▁কিছুতেই	-11.2349
▁ইস্ট	-11.235
▁কোয়ারেন্টাইন	-11.2352
▁ভ্রমণের	-11.2352
▁কনফারেন্সে	-11.2352
▁বরফ	-11.2353
মনি	-11.2356
▁কুড়িগ্রামে	-11.2361
য়েল	-11.2362
লায়	-11.2362
▁১১০	-11.2363
▁জন্মদিনের	-11.2363
▁দেশবাসীর	-11.2364
▁Mar	-11.2365
▁পোষ্ট	-11.2366
▁গুলির	-11.2366
▁ব্যবস্থায়	-11.2368
▁প্রত্যন্ত	-11.2372
ঠ	-11.2372
▁ভালোই	-11.2372
▁গুদাম	-11.2373
বাংলাদেশের	-11.2373
▁পাতায়	-11.2374
▁সফলতার	-11.2374
▁অশ্লীল	-11.2375
▁প্রতিবেদকঃ	-11.2376
▁৩০টি	-11.2376
▁সমাবেশের	-11.2381
▁দীপক	-11.2384
▁প্রভাবিত	-11.2385
▁সম্প্রীতি	-11.2386
▁বন্ড	-11.2389
▁বাদশাহ	-11.2392
▁হারুনু	-11.2396
▁গে	-11.2397
▁প্রিয়া	-11.2397
▁মেয়রের	-11.2402
▁অজ্ঞান	-11.2403
▁দিনভর	-11.2405
▁ক্রেডিট	-11.2409
নুর	-11.2413
▁জিনিসপত্র	-11.2416
▁নাতি	-11.2422
▁স্কোয়াডে	-11.243
▁ধানমন্ডি	-11.2431
▁মইনুল	-11.2435
▁গুটিয়ে	-11.2436
▁New	-11.2436
তান্ত্রিক	-11.2436
▁দর্পণ	-11.2437
▁এমনিতেই	-11.2442
▁বেসরকারী	-11.2443
▁সাথী	-11.2447
▁হিসেবেও	-11.2447
নোর	-11.2449
ষা	-11.245
▁N	-11.2451
▁সন্ধানে	-11.2451
▁মহানবী	-11.2451
▁মমতার	-11.2456
▁খুঁটি	-11.2458
▁খাগড়াছড়িতে	-11.2458
▁স্থল	-11.2459
▁ফুটে	-11.2459
উল্লাহ	-11.2464
▁you	-11.2465
৮টি	-11.2465
▁তাপ	-11.2465
▁ট্রাক্টর	-11.2466
▁মাল্টিমিডিয়া	-11.2466
▁থাকুক	-11.2466
▁অ্যাসিড	-11.2466
▁শেরে	-11.2467
ভাব	-11.2467
▁অভিমান	-11.2467
▁সুফল	-11.2467
▁সমূহ	-11.2471
▁সংবাদমাধ্যমে	-11.2471
▁বসানোর	-11.2471
▁শ্লোগান	-11.2472
▁সেক্টর	-11.2475
▁কভিড	-11.2475
▁বেতার	-11.2475
প্রযুক্তি	-11.2483
▁কাতারের	-11.2488
▁৫০টি	-11.2488
▁ফে	-11.2488
▁স্ট্রাইকার	-11.2489
তন	-11.249
সান	-11.2492
▁শ্রীলংকা	-11.2493
▁তাগিদ	-11.2493
▁বিধবা	-11.2497
▁ভাবমূর্তি	-11.2497
ছড়া	-11.2498
▁তামিমের	-11.2498
▁জুনাইদ	-11.2498
▁সিইসি	-11.2502
▁লোকদের	-11.2502
▁সরবরাহের	-11.2503
▁হাড়	-11.2506
▁সংবিধানের	-11.2508
▁bangladesh	-11.2509
▁অসীম	-11.2511
▁অবমুক্ত	-11.2513
পুত্র	-11.2514
▁মন্ডলের	-11.2515
▁ট্যাক্স	-11.2517
গুলিকে	-11.2518
▁টার্মিনাল	-11.2518
▁আর্থ	-11.252
▁কেনাকাটা	-11.2521
▁এসোসিয়েশনের	-11.2521
▁মোস্তাক	-11.2524
Coxsbazar	-11.2525
বাসস	-11.2528
▁পাগল	-11.2529
▁অনির্দিষ্টকালের	-11.2529
▁সৌমিত্র	-11.2529
▁আবদ্ধ	-11.2531
▁কায়দায়	-11.2532
এখন	-11.2533
▁মাষ্টার	-11.2536
▁দাপট	-11.2538
▁মানসিকভাবে	-11.254
▁যেগুলো	-11.2541
▁বর্জন	-11.2543
▁ধারাবাহিকতা	-11.2544
▁স্থলবন্দর	-11.2546
▁যাবো	-11.2548
▁প্রতিনিধিদের	-11.2551
▁সন্ত্রাসবাদ	-11.2552
▁বিক্ষুব্ধ	-11.2553
#	-11.2557
▁চক	-11.2557
▁ইংল্যান্ডে	-11.2557
▁অশান্তি	-11.2559
▁বাইডেনের	-11.2559
▁আশংকা	-11.256
▁টেক্সটাইল	-11.2561
▁সেনাপ্রধান	-11.2562
▁উদ্যানে	-11.2563
▁প্রথমার্ধে	-11.2564
▁নিউজ২৪	-11.2564
▁মুন্সি	-11.2566
▁ছড়ায়	-11.2569
▁১৮০	-11.2569
▁ডেক্স	-11.2571
▁বোলিংয়ে	-11.2575
▁জনস্বাস্থ্য	-11.2575
▁নিয়ন্ত্রণের	-11.2575
na	-11.2575
▁রবীন্দ্রনাথ	-11.2583
▁ফসলের	-11.2584
‎	-11.2588
▁প্রেমিকার	-11.259
▁ইন্সটিটিউট	-11.2592
▁ক্লাসে	-11.2594
জির	-11.2594
▁জয়লাভ	-11.2594
ho	-11.2595
▁কলাপাড়া	-11.2597
Northbengal	-11.2597
▁খোসা	-11.26
▁শতকরা	-11.2601
▁মধ্যপ্রাচ্যের	-11.2602
▁কিস্তি	-11.2605
▁ভরি	-11.2609
▁কারিনা	-11.2609
▁ক্ষেত্র	-11.2615
▁টসে	-11.262
বেলা	-11.262
▁প্রাধান্য	-11.2624
▁ইভ্যালি	-11.2625
▁ইইউ	-11.2625
▁হলরুমে	-11.2626
থি	-11.263
▁ফার্ম	-11.263
▁আক্রমণের	-11.2632
▁সেক্স	-11.2633
▁নিশ্চয়ই	-11.2634
▁কায়সার	-11.2639
▁দক্ষিণাঞ্চল	-11.2639
▁নয়াপল্টনে	-11.2641
সির	-11.2642
▁টম	-11.2644
▁বিলুপ্ত	-11.2644
ভে	-11.2645
▁আটজন	-11.2649
▁অ্যাপটি	-11.2657
▁রিপাবলিকান	-11.2657
▁প্রক্রিয়াধীন	-11.2657
▁ক্ষেত	-11.2657
▁More	-11.2658
▁বইমেলা	-11.2659
▁নন্দী	-11.2659
এমপি	-11.266
▁প্রতিশোধ	-11.266
ya	-11.2661
▁মজুরি	-11.2661
▁পেমেন্ট	-11.2663
▁মর্মে	-11.2665
▁মেটাতে	-11.2665
▁বর্ণ	-11.2674
▁স্টিভ	-11.2676
▁ভার্চুয়ালি	-11.2676
▁দুর্গা	-11.2679
▁কাটছে	-11.2681
▁হিসেব	-11.2684
us	-11.2684
▁যাপন	-11.2686
▁নিউইয়র্কে	-11.2688
▁শীতার্ত	-11.2689
▁বাল্য	-11.269
▁শৈলকুপা	-11.2691
▁সাপের	-11.2691
▁বাড়ল	-11.2695
▁প্রবাসীরা	-11.2699
▁p	-11.27
un	-11.2702
▁স্পিন	-11.2702
▁দ্রুততম	-11.2704
▁চক্ষু	-11.2708
▁গোষ্ঠীর	-11.2709
▁বাহিরে	-11.2711
▁অ্যাপের	-11.2716
▁উদ	-11.2717
▁পার্টিতে	-11.2719
▁মেহের	-11.2719
▁সাজু	-11.2719
←	-11.2721
▁রিলিজ	-11.2721
▁তারিক	-11.2722
▁সাখাওয়াত	-11.2723
▁ফিরবেন	-11.2725
▁দূর্ঘটনা	-11.2726
▁লাগা	-11.2726
▁সাদিয়া	-11.2728
▁ব্রাজিলে	-11.2729
▁প্রতিভা	-11.2733
▁স্ক্রিন	-11.2734
▁পূরণের	-11.2737
ইট	-11.2741
▁উচ্চশিক্ষা	-11.2741
▁বিরক্ত	-11.2744
▁আনুশকা	-11.2744
▁চরিত্রের	-11.2745
▁মিছিলটি	-11.2745
▁যন্ত্রণা	-11.2747
মিল	-11.2749
দো	-11.275
▁দেশেই	-11.275
প্রথম	-11.2751
▁মদন	-11.2753
▁First	-11.2753
▁জিম্মি	-11.2753
▁বিষয়বস্তু	-11.2753
▁মেসিকে	-11.2754
▁ঢাকাগামী	-11.2754
▁পিরোজপুরের	-11.2755
▁পর্ষদের	-11.2756
▁উহান	-11.2758
▁ঢালিউড	-11.2758
▁৪র্থ	-11.2759
▁লক্ষ্মী	-11.2763
▁মাহবুবুল	-11.2764
▁গোলরক্ষক	-11.2765
▁প্রশংসায়	-11.2766
▁বাগানের	-11.2771
▁টানে	-11.2776
▁অংশগ্রহণে	-11.2778
▁সিরাজগঞ্জে	-11.2784
▁অসাধু	-11.2786
▁জননী	-11.2786
▁সুরক্ষার	-11.2788
▁সময়সূচি	-11.2789
▁মৌলভীবাজারে	-11.279
▁বরাতে	-11.279
দুই	-11.2792
▁উপপরিচালক	-11.2792
নতুন	-11.2793
▁লোকসান	-11.2795
▁চৌ	-11.2795
পতি	-11.2795
▁বাক্য	-11.2796
▁এনায়েত	-11.2798
▁পদক্ষেপের	-11.2799
▁একমত	-11.2801
▁স্তরে	-11.2806
▁বন্দী	-11.2806
▁ট্রাম্পকে	-11.2806
ম্ম	-11.2808
দিক	-11.281
ছাত্রীদের	-11.2815
▁কুয়েতে	-11.2818
▁বক্কর	-11.2818
▁সানরাইজার্স	-11.2818
িটি	-11.2818
ak	-11.2819
▁বিজ্ঞ	-11.2819
N	-11.2821
▁প্রসেসর	-11.2823
বাই	-11.2824
▁তোমাকে	-11.2824
▁অভিযুক্তদের	-11.2825
▁সেঞ্চুরির	-11.2825
ab	-11.2828
▁সহযোগীতা	-11.2835
▁পিপিএম	-11.2835
▁স্মার্টফোনের	-11.2837
▁শুটিংয়ে	-11.2838
▁উৎপাদনে	-11.2841
বারের	-11.2844
▁টোকিও	-11.2846
▁জুটির	-11.2849
▁বিএম	-11.285
▁লোগো	-11.2852
▁প্রাণের	-11.2853
▁নৌবাহিনী	-11.2853
▁অবধি	-11.2853
▁কণ্ঠে	-11.2854
▁চু	-11.2855
▁পরিচ্ছন্ন	-11.2859
▁১৩০	-11.2861
ত্ত	-11.2862
াত	-11.2863
▁২০০৫	-11.2865
▁জামিল	-11.2871
▁মর্তুজা	-11.2872
▁সম্প্রদায়	-11.2873
▁রেট	-11.2873
▁এপ্রিলে	-11.288
▁ছাত্রীদের	-11.2881
কিন্তু	-11.2883
▁ডিপার্টমেন্ট	-11.2884
▁সুমাইয়া	-11.2884
▁মন্টু	-11.2885
▁১৪০	-11.2887
▁রাশি	-11.2893
▁অংশগ্রহণের	-11.2894
▁দুইবার	-11.2898
মিয়া	-11.29
▁পাউন্ড	-11.29
▁গাংনী	-11.2903
▁অপপ্রচার	-11.2905
▁বিএসএফের	-11.2908
ুক	-11.2908
▁নির্বাচক	-11.2909
ষ্ঠ	-11.291
▁বসা	-11.291
ic	-11.291
▁ঐক্যফ্রন্ট	-11.291
▁প্রতিক্রিয়ায়	-11.2912
▁উদ্বুদ্ধ	-11.2914
▁ব্র্যান্ডের	-11.2915
Leave	-11.2916
ভর্তি	-11.2916
▁কারফিউ	-11.2917
▁জিজ্ঞেস	-11.2917
▁রুখে	-11.2917
ধারী	-11.2917
▁দমকা	-11.2918
স্বাস্থ্য	-11.292
▁ইন্টারনেটে	-11.2923
▁ভাতিজা	-11.2923
মন্ত্রীর	-11.2924
▁পরকীয়া	-11.2924
▁প্যা	-11.2926
▁খাতুনের	-11.2929
▁রোহিঙ্গারা	-11.2931
▁আবেদনে	-11.2935
▁পূরণে	-11.2937
▁তারকারা	-11.2938
▁অফিসারের	-11.2938
িজ	-11.2939
▁উত্তরপ্রদেশের	-11.2941
▁অভিনয়ে	-11.2941
▁ঢাকাই	-11.2943
▁মানিকগঞ্জে	-11.2943
▁টেকটিউনস	-11.2943
▁কুল	-11.2943
ন্দ্র	-11.2945
▁কোস্ট	-11.2947
▁তদারকি	-11.2947
▁হজম	-11.2948
জাত	-11.2948
▁BANGLA	-11.2949
▁টমেটো	-11.295
▁ব্লু	-11.2952
▁Off	-11.2953
X	-11.2958
▁যোগী	-11.2959
▁খ্রিস্টান	-11.2959
▁আবাহনী	-11.2964
▁ছড়ানো	-11.2965
▁সোনারগাঁয়ে	-11.2966
▁জনসভায়	-11.2967
▁আফরোজ	-11.2967
▁শফি	-11.2971
▁জানাবেন	-11.2978
▁জঙ্গিরা	-11.2978
রোববার	-11.2982
▁মাগফিরাত	-11.2983
▁রোপণ	-11.2983
▁স্থলে	-11.2985
▁মাতা	-11.2989
▁নিরব	-11.2991
▁তবু	-11.2993
▁টাউন	-11.2993
▁ফাস্ট	-11.2996
▁১৬০	-11.3
▁ইরানে	-11.3002
▁দুজনেই	-11.3004
▁২নং	-11.3005
▁চাষের	-11.3006
▁ট্রেলার	-11.3008
▁প্রতিনিধিত্ব	-11.3011
▁চাপের	-11.3011
▁মহামারিতে	-11.3013
▁মেয়েটিকে	-11.3014
ময়মনসিংহ	-11.3016
▁জুবায়ের	-11.3016
▁মহলের	-11.302
▁১৯৭৫	-11.3021
▁সাবধান	-11.3021
▁জীবাণু	-11.3022
▁খ্যাতি	-11.3022
▁অপমান	-11.3023
▁শামিম	-11.3023
▁আমানত	-11.3026
▁নবজাতক	-11.3026
▁ট্রায়াল	-11.3031
▁উদ্ধারকৃত	-11.3032
▁টাইপ	-11.3036
▁গেমস	-11.3038
র্ষ	-11.3038
▁বিচারপতির	-11.3041
▁পরতে	-11.3042
ot	-11.3043
▁মরিচ	-11.3044
িরা	-11.3045
bani	-11.3045
▁বিষাক্ত	-11.3049
▁ভাগাভাগি	-11.3049
▁বর্ষসেরা	-11.3049
▁!!	-11.305
▁তিনিই	-11.3051
বিজিবি	-11.3051
াইল	-11.3053
▁রুমা	-11.3054
▁রযাঙ্কিংয়ে	-11.3057
▁বনে	-11.3057
কাটা	-11.3059
▁পালানোর	-11.306
▁ত্বকে	-11.3062
মেইল	-11.3066
▁ফরিদগঞ্জ	-11.3067
▁আটটা	-11.3067
▁কর্মকার	-11.3069
▁হাসানকে	-11.3075
▁কাট	-11.3077
▁মোড়ক	-11.3077
ডেস্ক	-11.3077
করা	-11.3078
▁গ্রহণযোগ্য	-11.3079
▁দেখেই	-11.3079
▁আত্মসাৎ	-11.3083
▁বণিক	-11.3083
▁আত্মপ্রকাশ	-11.3083
▁বস্তু	-11.3083
▁দামি	-11.3084
শাহ	-11.3084
▁রাকিবুল	-11.3085
▁নামেন	-11.3088
▁ব্যতিক্রমী	-11.3089
▁ফান্ডের	-11.3091
▁নির্বাহ	-11.3091
▁ভাবছেন	-11.3099
▁ক্ষয়ক্ষতির	-11.31
রচর	-11.31
▁উত্থান	-11.3101
▁রেঞ্জ	-11.3102
▁পর্যবেক্ষণে	-11.3106
াতে	-11.3107
ভাগ	-11.3109
▁যোদ্ধা	-11.3114
শার	-11.3114
▁বংশোদ্ভূত	-11.3116
▁Ajker	-11.3116
▁রেহাই	-11.3117
▁আদনান	-11.3117
▁সারাক্ষণ	-11.3118
▁অস্থায়ীভাবে	-11.3121
▁ফ্র্যাঞ্চাইজি	-11.3121
▁উজ্জল	-11.3122
▁আলাইহি	-11.3123
যান	-11.3123
▁ওয়ার্ক	-11.3126
খানা	-11.3126
▁Khabor	-11.3127
▁অবসরে	-11.3129
▁পড়েছিলেন	-11.313
▁গ্রে	-11.3131
▁সচেতনতামূলক	-11.3131
▁re	-11.3133
▁ডিউটি	-11.3135
▁দেশগুলোতে	-11.3136
▁পাইকারি	-11.3137
▁অঙ্কের	-11.3138
Y	-11.3138
পক্ষ	-11.3139
▁মৃদু	-11.3141
▁তিনটা	-11.3144
▁ইভেন্টে	-11.3145
▁আশ	-11.3147
▁অনুবাদ	-11.3148
и	-11.315
▁ডেমোক্রেট	-11.315
▁মোটামুটি	-11.315
▁উৎসর্গ	-11.315
খুলনা	-11.3153
▁কর্ণফুলী	-11.3153
▁সত্যিকার	-11.3153
▁শ্রীলঙ্কায়	-11.3155
▁জাহাঙ্গীরনগর	-11.3156
▁জনগনের	-11.3156
▁বেপারী	-11.3159
▁জানাজানি	-11.316
▁মিরপুরের	-11.3162
▁হাস	-11.3163
▁ওদের	-11.3164
▁বাংলাদেশির	-11.3165
▁বিক্রম	-11.3166
▁মুখার্জি	-11.3166
▁মনোভাব	-11.3167
▁দক্ষিণের	-11.3167
▁কানাডায়	-11.3167
▁ফর্মে	-11.3171
▁ভোররাতে	-11.3172
▁পুর	-11.3172
▁বৈ	-11.3173
▁গাইড	-11.3173
▁তৌহিদ	-11.3176
▁লোহার	-11.3178
▁১৬৪	-11.318
е	-11.3184
▁প্রশংসিত	-11.3184
▁Monday	-11.3184
▁Large	-11.3184
▁ন্যাটো	-11.3184
োস	-11.3184
▁শরিক	-11.3185
▁ছাত্রনেতা	-11.3186
▁নামঞ্জুর	-11.3186
▁আঁকা	-11.3187
▁যথাযথভাবে	-11.3192
kantho	-11.3193
▁বোনাস	-11.3195
পাতা	-11.3196
▁রয়েল	-11.3196
▁অনুপ্রেরণা	-11.3198
▁চড়া	-11.3199
▁সৈকতে	-11.3205
▁মোরশেদ	-11.3206
▁ভবিষ্যত	-11.3208
▁প্রভাত	-11.3208
▁অশোক	-11.3212
ma	-11.3216
▁রেখা	-11.3216
▁সঞ্চালনা	-11.3217
▁চলাফেরা	-11.3218
ভারপ্রাপ্ত	-11.3219
দেব	-11.3219
▁মরিয়ম	-11.322
▁হো	-11.322
▁কোষ	-11.3224
▁পলিসি	-11.3224
▁ইয়র্ক	-11.3226
▁তামিল	-11.3227
▁নয়াদিল্লি	-11.3228
▁পাসওয়ার্ড	-11.3235
▁দণ্ড	-11.3236
▁শচীন	-11.3238
▁ইরাক	-11.3238
▁রহমানসহ	-11.3241
▁হককে	-11.3243
▁নওয়াজ	-11.3247
▁জনপদ	-11.3247
▁সামনেই	-11.3249
▁লিওন	-11.325
▁নির্ণয়	-11.3252
▁শুকনো	-11.3252
▁নিরাপত্তায়	-11.3252
Barta	-11.3253
৭১	-11.3254
▁বাউল	-11.3254
▁পারা	-11.3254
▁কেমিক্যাল	-11.3255
▁ববি	-11.3256
▁ব্রা	-11.3258
ti	-11.3258
▁মুসল্লিদের	-11.3259
▁অনার্স	-11.3259
V	-11.3262
▁ফর্ম	-11.3262
▁ডিএমপির	-11.3263
সূত্র	-11.3264
▁সদস্যবৃন্দ	-11.3264
▁অটোরিকশার	-11.3271
ছিলাম	-11.3271
▁লিডার	-11.3272
িতা	-11.3272
▁রাখায়	-11.3272
▁ইটভাটা	-11.3276
▁হলিউড	-11.3281
।#	-11.3285
▁মহেন্দ্র	-11.3286
▁বুদ্ধি	-11.3289
▁খনিজ	-11.3289
▁লিখতে	-11.329
▁নিশ্চয়তা	-11.3291
▁রীতি	-11.3291
▁রাব্বানী	-11.3293
ইউপি	-11.3294
▁দেখিয়েছেন	-11.3295
▁গনি	-11.3296
▁কান্না	-11.3296
▁জনসচেতনতা	-11.3298
▁কামালের	-11.3302
▁রেলমন্ত্রী	-11.3305
ন্ডা	-11.3306
▁রেসিপি	-11.3307
▁পাল্লা	-11.3307
র্জ	-11.3307
▁দুটির	-11.3312
িশ	-11.3317
▁তিনবার	-11.3317
র্ম	-11.3318
ল্লাল্লাহু	-11.332
▁দৈনন্দিন	-11.332
▁ফেডারেল	-11.332
▁সুস্বাদু	-11.332
▁আলতাফ	-11.332
▁ত্রান	-11.332
▁ঢলে	-11.3323
▁মেঘ	-11.3324
▁শ্রীমঙ্গলে	-11.3326
▁হরি	-11.333
▁হ্যাটট্রিক	-11.333
▁নাজমা	-11.3332
▁রেলপথ	-11.3334
▁এবারে	-11.3335
▁এমনটি	-11.3339
▁জঙ্গী	-11.3345
▁ঘটিয়েছে	-11.3349
▁আছড়	-11.335
▁শরীয়তপুর	-11.335
▁পল্টন	-11.335
▁বাসস্ট্যান্ড	-11.3352
▁Saturday	-11.3354
▁ফিরছিলেন	-11.3355
▁মজনু	-11.3355
▁কোচবিহার	-11.3359
▁বিশৃঙ্খলা	-11.3362
▁ইজিবাইক	-11.3363
▁ইত্তেফাক	-11.3363
▁নান্নু	-11.3364
▁মল	-11.3369
▁গ্যালারি	-11.3372
▁তিনিও	-11.3373
্টি	-11.3373
▁শিক্ষাবর্ষের	-11.3375
▁জুটিতে	-11.3381
▁ঘ	-11.3381
▁রইল	-11.3385
▁গৃহহীন	-11.3385
▁ছুঁয়ে	-11.3387
▁প্রদত্ত	-11.339
▁গুঁড়া	-11.339
▁মনোয়ার	-11.3392
▁সংশয়	-11.3392
▁মুহাম্মাদ	-11.3393
▁বানাতে	-11.3396
▁রযাম	-11.3397
▁আত্মবিশ্বাস	-11.3406
পদ	-11.3406
▁অপো	-11.3408
▁উদযাপনের	-11.3411
▁সাজে	-11.3411
১টি	-11.3411
▁শাহরুখের	-11.3411
▁রাজবাড়ীর	-11.3412
▁দাউদ	-11.3412
▁কেরানীগঞ্জ	-11.3412
▁এটির	-11.3413
▁যশ	-11.3414
▁লিভার	-11.3417
▁দফার	-11.3421
▁ধার	-11.3422
প্রা	-11.3422
▁শিশির	-11.3424
▁শামসুজ্জামান	-11.3424
▁ইয়াসিন	-11.3424
▁লস	-11.3424
▁প্রযোজ্য	-11.3425
▁ঢামেক	-11.3426
▁জালালাবাদ	-11.3427
৪টি	-11.3428
▁পোস্টের	-11.343
▁মুদি	-11.343
▁Media	-11.3431
▁সমুদ্রে	-11.3436
▁ব্যাঙ্ক	-11.3441
▁সাহিত্যিক	-11.3442
▁ছড়ানোর	-11.3443
▁মাওয়া	-11.3445
ধি	-11.3445
▁ক্ষুধা	-11.3448
▁নিচ	-11.3453
ুদ্দিন	-11.3455
▁Thursday	-11.3458
▁মোতালেব	-11.3458
▁খোঁজাখুঁজি	-11.3458
▁ভাষ্য	-11.3458
▁খরচে	-11.3459
▁ফেনীতে	-11.3462
▁দলই	-11.3462
▁প্রতিকার	-11.3463
▁মস্তিষ্কে	-11.3463
▁ঢেউয়ে	-11.3468
▁পরিণতি	-11.3469
▁ড্রাইভ	-11.3469
▁ফরম্যাটে	-11.3473
ঝ	-11.3474
▁সুশান্তের	-11.3474
▁পেছনের	-11.3478
▁লু	-11.3479
▁ফিলিস্তিন	-11.3479
▁পাব	-11.3482
▁রাশিয়ায়	-11.3486
ক্ষণ	-11.3487
▁বাকিদের	-11.3489
▁হাউসের	-11.3492
▁Janakantha	-11.3493
▁আমন্ত্রিত	-11.3493
▁সেন্টিমিটার	-11.3493
as	-11.3495
▁নিকটতম	-11.3497
▁আজান	-11.3497
▁টক	-11.3498
▁আবির	-11.3499
▁এমনকী	-11.35
▁হাতিয়ার	-11.35
▁অর্ধশত	-11.3504
▁৯৯৯	-11.3506
▁শুধুই	-11.3506
ছাত্রী	-11.3508
▁আমা	-11.3508
▁যেই	-11.3509
▁২টায়	-11.3513
▁de	-11.3516
▁গেটে	-11.3517
▁বিশ্বাসী	-11.3518
▁খাস	-11.3518
স্ব	-11.352
স্বীকারোক্তিমূলক	-11.352
▁পাখির	-11.3521
▁আইসিইউ	-11.3521
▁বানানোর	-11.3522
▁আইনজীবীদের	-11.3523
▁ধারার	-11.3523
▁কর্মকান্ড	-11.3523
▁হকি	-11.3524
▁বিবিধ	-11.3529
▁বরিস	-11.353
▁অনিল	-11.3531
▁বিলে	-11.3532
মার্চ	-11.3532
▁আরবি	-11.3533
▁জালিয়াতির	-11.3535
▁পেরেছেন	-11.3539
▁রমজানে	-11.354
▁যেনো	-11.3543
▁তেহরান	-11.3543
লাইন	-11.3544
ন্ডার	-11.3545
▁দুজনই	-11.3546
শিশু	-11.3546
▁তরল	-11.3546
▁পেলেই	-11.3547
▁অংশগ্রহন	-11.3549
▁অনিক	-11.355
▁বিপণন	-11.3553
ha	-11.3555
▁এতিম	-11.356
▁আফ্রিকায়	-11.3561
▁মুর্তজা	-11.3562
▁উদ্ভাবন	-11.3563
▁উত্তেজিত	-11.3563
▁সার্বক্ষণিক	-11.3563
▁হিজরী	-11.3563
▁যথাযোগ্য	-11.3563
▁ছিনতাইয়ে	-11.3564
▁বাড়িঘর	-11.3565
▁শাহিনুর	-11.3566
▁দ্বাদশ	-11.3567
াক	-11.357
▁সোম	-11.3579
▁চোরাচালান	-11.3582
▁সেমি	-11.3584
▁বিপ্লবী	-11.3584
জুলাই	-11.3587
▁গাওয়া	-11.3592
সিএসই	-11.3594
▁সাজিয়ে	-11.3596
▁পড়েনি	-11.3597
▁টিউটোরিয়াল	-11.3598
▁পারস্পরিক	-11.3598
▁সোচ্চার	-11.3598
▁বিনাশ্রম	-11.3598
▁মানবতাবিরোধী	-11.3599
▁খানিকটা	-11.3599
▁ডিভোর্স	-11.3601
পরি	-11.3602
▁মাদকাসক্ত	-11.3602
▁জ্বালিয়ে	-11.3602
▁বোল্ড	-11.3603
▁সমুদ্রের	-11.3603
▁রাইটস	-11.3604
▁রাশেদুল	-11.3605
▁ছেড়েছেন	-11.361
▁দড়ি	-11.3614
▁মারতে	-11.3615
▁বোনকে	-11.3618
▁শুভেন্দু	-11.3619
▁সিঙ্গাপুরের	-11.362
ানোর	-11.3621
▁হুয়াওয়ে	-11.3621
▁১০০০	-11.3622
▁পড়ছেন	-11.363
▁কাইয়ুম	-11.3634
▁তুঙ্গে	-11.3634
▁গৌরনদী	-11.3634
▁সর্বকালের	-11.3634
▁রোমান	-11.3635
রিক	-11.3641
▁রাবার	-11.3643
▁মেগা	-11.3644
র্থ	-11.3645
▁Shomoy	-11.3645
▁উদ্ভিদ	-11.3649
▁পেশাগত	-11.3649
▁রানি	-11.3649
▁রক্তদান	-11.3661
▁মাগুরায়	-11.3661
▁প্রতিবেশীরা	-11.3662
▁সফলভাবে	-11.3664
▁জনসভা	-11.3669
▁ওয়ার্কার্স	-11.3669
▁আমতলী	-11.367
▁নির্দেশিকা	-11.3673
▁দোহার	-11.3673
▁আখ্যা	-11.3673
▁লাখো	-11.3675
▁বুলেটিনে	-11.3683
▁বেড	-11.3685
▁সুমি	-11.3691
▁পাতার	-11.3693
▁দখলদার	-11.3694
▁মারামারি	-11.3696
▁মক্কা	-11.3696
জ্জ	-11.37
▁আশঙ্কায়	-11.3701
মাত্র	-11.3701
▁বুয়েট	-11.3704
▁অরফানেজ	-11.3705
▁সবমিলিয়ে	-11.3705
▁জনৈক	-11.3705
▁চঞ্চল	-11.3705
▁বাদাম	-11.3706
▁সিরিজটি	-11.3709
▁View	-11.3711
▁৬ষ্ঠ	-11.3711
▁নাগরিককে	-11.3712
▁মেরিন	-11.3713
▁কেশবপুর	-11.3713
▁এরআগে	-11.3714
▁খাজা	-11.3716
▁অধিনায়কের	-11.3717
▁অবহেলা	-11.3717
সেরা	-11.3717
▁জানাযা	-11.3721
▁দক্ষিণে	-11.3721
▁ছক্কায়	-11.3721
▁শিখা	-11.3721
কিউ	-11.3722
▁মুর	-11.3731
▁বৃদ্ধিতে	-11.3733
▁ফলাফলের	-11.3733
▁মুক্তিযোদ্ধার	-11.3733
▁তৃতীয়বার	-11.3738
▁ফুটিয়ে	-11.3739
▁অসুস্থতা	-11.3739
▁রায়পুর	-11.3739
াঙ্গ	-11.3739
▁হরমোন	-11.374
▁জেসমিন	-11.374
▁অপব্যবহার	-11.374
▁গীতিকার	-11.374
▁ভুইয়া	-11.3741
▁ইউরোপিয়ান	-11.3745
▁বলছিলেন	-11.3745
▁পরিচ্ছন্নতা	-11.3748
▁গোল্ডেন	-11.3753
▁উত্তরের	-11.3757
▁প্রত্যাবাসন	-11.3759
▁জেড	-11.3761
▁প্রতিরোধের	-11.3764
▁পৌঁছেছেন	-11.3764
▁কৃতিত্ব	-11.3766
▁হ্যাক	-11.3767
▁সেজে	-11.3768
▁বিয়ানীবাজার	-11.377
▁কৃতজ্ঞ	-11.3771
পের	-11.3772
২০২২	-11.3773
▁মধুর	-11.3774
▁সরোয়ার	-11.3776
▁এমদাদুল	-11.3777
▁সমাজকল্যাণ	-11.3777
িও	-11.3777
▁নুরুজ্জামান	-11.3779
▁বিদ্যুৎস্পৃষ্ট	-11.3783
▁ফাঁকে	-11.3783
▁@	-11.3783
▁যেতেই	-11.3784
▁আদায়ে	-11.3795
▁ইন্টারনেটের	-11.3802
▁আসতেই	-11.3803
হারা	-11.3804
▁পোশাকের	-11.3806
▁Tag	-11.3809
▁বিক্ষোভের	-11.3811
আইএস	-11.3812
▁উৎক্ষেপণ	-11.3812
▁শাওমি	-11.3812
▁অর্জিত	-11.3812
▁একত্রিত	-11.3812
▁মফস্বল	-11.3814
▁শরণখোলা	-11.3815
▁সাতদিন	-11.3816
খান	-11.3816
▁তামাক	-11.3818
▁রাখলে	-11.3819
▁নায়িকার	-11.3821
▁ব্যর্থতা	-11.3823
▁বঙ্গবন্ধুকে	-11.3824
▁পুঁজি	-11.3826
▁মনজুর	-11.3828
▁শিল্পীর	-11.3831
▁মহারাষ্ট্র	-11.3832
▁শেরপুরের	-11.3834
▁সংখ্যাও	-11.3835
▁ব্যা	-11.3835
▁টলিউড	-11.3836
▁রাউজান	-11.3837
▁মালিকানা	-11.384
▁১৪৪২	-11.384
▁প্রথমেই	-11.3842
▁আতঙ্কের	-11.3844
▁ক্রু	-11.3844
াদি	-11.3844
▁সাপোর্টে	-11.3845
▁ভূমিকম্পে	-11.3846
▁অতীত	-11.3847
▁উত্থাপন	-11.3848
▁হুসাইন	-11.3848
▁Most	-11.3848
▁মাজহারুল	-11.3848
▁টেলিকম	-11.3849
▁আনিছুর	-11.3849
সাংগঠনিক	-11.3854
▁সাময়িকভাবে	-11.3855
▁আধিকারিক	-11.3855
▁নবাবগঞ্জ	-11.3861
▁পরস্পর	-11.3861
▁সরকারিভাবে	-11.3862
শক্তি	-11.3863
▁যাননি	-11.3867
▁খলিলু	-11.3869
▁কুকুরের	-11.3869
▁শীষ	-11.3871
▁অশ্বিন	-11.3873
▁আকাশের	-11.3873
▁খেলোয়াড়রা	-11.3874
▁গড়েন	-11.3874
দেশে	-11.3874
rimenewsbd	-11.3876
▁খলিফা	-11.3878
▁সংবাদপত্রের	-11.3881
▁উড়োজাহাজ	-11.3883
▁করোনাকালীন	-11.3883
▁Desk	-11.3884
▁হিমশিম	-11.3884
▁ভূমিকম্পের	-11.3885
▁রেস্টুরেন্ট	-11.3886
▁সোনিয়া	-11.3887
▁শিপন	-11.3889
▁নিয়মে	-11.3892
▁কখনই	-11.3896
▁বিকাশের	-11.3896
▁বিক্ষোভকারীদের	-11.3897
ায়ন	-11.3897
▁তৎ	-11.3897
▁ছোঁয়া	-11.3898
▁গ্রেফতারকৃতরা	-11.39
▁ক্ষেতে	-11.3902
▁হত্যাকারীদের	-11.3902
▁জরিপে	-11.3906
▁ভাড়াটিয়া	-11.3912
▁ষড়যন্ত্রের	-11.3913
▁পথসভা	-11.3914
▁স্কুলছাত্রীকে	-11.3914
▁বায়ার্ন	-11.3914
▁জেলের	-11.3915
▁বয়	-11.3917
▁মুন্সিগঞ্জ	-11.3918
▁প্ল্যাটফর্মে	-11.3919
▁উধাও	-11.3921
▁গাবতলী	-11.3921
▁পেঁপে	-11.3921
▁জেলহাজতে	-11.3921
▁Amar	-11.3922
▁শুকিয়ে	-11.3922
ফোর্ড	-11.3925
▁অপশন	-11.3926
৩টি	-11.3928
▁জানায়নি	-11.3929
সার্স	-11.3929
▁মুশফিকের	-11.3932
▁সায়	-11.3935
▁শ্বাস	-11.3937
▁ন্যায্য	-11.3938
খ্যাত	-11.3938
েজ	-11.3939
▁বাউন্ডারি	-11.3946
্যু	-11.3946
▁বিভ্রান্তি	-11.3947
▁ঘি	-11.3949
▁মালিকরা	-11.395
▁আগ্নেয়াস্ত্র	-11.3957
▁সাব্যস্ত	-11.3957
▁প্রতিষেধক	-11.3957
▁গোল্ডকাপ	-11.3957
▁দুর্গন্ধ	-11.3958
▁রেজাল্ট	-11.3958
▁ক্রিসেন্ট	-11.3958
▁ঘটবে	-11.3958
▁আহমাদ	-11.3959
▁বিচারে	-11.396
▁কানে	-11.3961
▁পীরগঞ্জ	-11.3965
▁দিনেও	-11.3965
▁নিলেও	-11.3966
▁মৈত্রী	-11.3967
▁আলমকে	-11.3967
▁চুলে	-11.3968
▁চট্রগ্রাম	-11.3968
▁গণসংযোগ	-11.3968
তথ্য	-11.3973
▁গতবছর	-11.3974
মালা	-11.3976
▁অতীতের	-11.3978
▁গি	-11.3981
▁পূর্তি	-11.3982
▁সংহতি	-11.3983
▁২১শে	-11.3983
ta	-11.3985
▁নড়াইলের	-11.3989
▁সৃজিত	-11.399
▁বুকের	-11.399
▁কার্যকারিতা	-11.3994
▁জনসমাগম	-11.3994
▁ফাইবার	-11.3995
▁বাপ্পি	-11.3995
▁মিতু	-11.3998
জেন	-11.3998
▁মহিলাকে	-11.3999
▁১শ	-11.3999
▁রসায়ন	-11.4
▁অতিথিদের	-11.4001
▁শিরিন	-11.4001
▁ওমান	-11.4005
বের	-11.4012
▁রাগ	-11.4012
টেন	-11.4015
▁আফ্রিকান	-11.402
▁লিখেন	-11.4021
▁সেতুটি	-11.4023
▁পর্তুগাল	-11.4028
▁অতীতে	-11.4028
▁মান্না	-11.4029
▁ইন্দোনেশিয়ার	-11.403
▁অর্ধশতাধিক	-11.4031
▁স্নাতকোত্তর	-11.4031
▁দেবহাটা	-11.4031
▁চাকুরী	-11.4032
▁শংকর	-11.4032
▁শফিকুর	-11.4033
▁বিক্ষোভকারীরা	-11.4039
▁সৃজনশীল	-11.404
▁সদস্যসহ	-11.4041
মেয়ে	-11.4045
▁অঙ্গনে	-11.4045
▁এনআরসি	-11.4045
▁সিনহার	-11.4045
he	-11.4047
▁অ্যাটাক	-11.4047
▁একাউন্ট	-11.405
▁রেশন	-11.4054
▁হরিণ	-11.4057
▁লেবানন	-11.4057
ফাত	-11.406
▁চারে	-11.406
▁সতীর্থ	-11.4065
▁বাঁচিয়ে	-11.4066
▁লাউ	-11.4067
▁নিত্যপ্রয়োজনীয়	-11.4068
▁প্রচন্ড	-11.4068
▁লোহাগড়া	-11.4068
▁কর্মবিরতি	-11.4068
▁পিন্টু	-11.4068
▁প্রত্যেকের	-11.4068
▁প্রশিক্ষক	-11.4068
▁সম্বলিত	-11.4068
▁বাঁধন	-11.4074
▁মাঘ	-11.4076
▁জ্বরে	-11.4077
▁সাহার	-11.4078
▁সংস্কৃতির	-11.4079
▁লক্ষ্মীপুরের	-11.4079
▁প্রথা	-11.4079
টের	-11.4081
▁দিতেন	-11.4084
▁উন্নতির	-11.4088
▁সেমিফাইনাল	-11.4089
▁ব্য	-11.4089
▁করিমের	-11.409
▁হোতা	-11.4091
se	-11.4094
▁দিকেই	-11.4096
▁W	-11.4098
প্রিয়	-11.41
▁Friday	-11.4105
▁ম্যাজিষ্ট্রেট	-11.4105
▁অনিশ্চিত	-11.4105
▁তুচ্ছ	-11.4105
▁দাউদকান্দি	-11.4105
▁চাচাতো	-11.4106
▁মাহফিলের	-11.4106
▁দরবারে	-11.4107
▁থাকতো	-11.4107
▁ফেল	-11.4107
▁পাঠাগার	-11.4109
▁মাসব্যাপী	-11.4109
▁নুসরাতের	-11.411
▁পার্টনার	-11.4111
▁স্টেডিয়ামের	-11.4111
▁১২৫	-11.4115
▁লীগে	-11.4116
▁নভেল	-11.4118
▁ইজতেমা	-11.412
▁ওয়ারেন্ট	-11.4121
▁রিয়ালের	-11.4121
▁সৈন্য	-11.4122
▁দৃশ্যে	-11.4124
চিত্র	-11.4127
কুমার	-11.4129
▁বিদ্যুত	-11.4134
▁খাচ্ছে	-11.4136
▁ঐশ্বরিয়া	-11.4136
ter	-11.4137
▁মদিনা	-11.4139
▁ব্রীজ	-11.4139
▁বসবে	-11.4141
▁ডেমোক্র্যাট	-11.4142
▁স্বীকৃত	-11.4142
▁নৌযান	-11.4142
▁বেক্সিমকো	-11.4143
▁খাবেন	-11.4144
▁ডিপ্লোমা	-11.4144
▁জলঢাকা	-11.4146
▁ফুলেল	-11.4147
▁মোস্তাফিজ	-11.4147
ভারতের	-11.4148
▁অধিনায়কত্ব	-11.4148
▁কোটির	-11.4148
চেয়ারম্যান	-11.4148
▁কাহিনি	-11.4149
▁শ্বাসরোধ	-11.4153
▁দেখেছে	-11.4157
▁স্বাভাবিকভাবেই	-11.4158
▁গতির	-11.416
▁শেয়ারবাজারে	-11.4162
▁আব	-11.4166
ীত	-11.417
▁ফলোয়ার	-11.4173
▁ভ্যারিয়েন্ট	-11.4175
▁আইপিও	-11.4175
▁আয়ারল্যান্ড	-11.4175
সিটি	-11.4177
েন্স	-11.4178
▁চিনের	-11.4178
▁ব্রিগেড	-11.4179
▁প্রসিকিউটর	-11.4179
▁ভৌমিক	-11.4179
▁ছোড়া	-11.418
▁মাঝখানে	-11.418
▁বাঙালী	-11.4181
ীয়া	-11.4181
▁তরঙ্গ	-11.4182
▁আসামীকে	-11.4183
▁লেভেল	-11.4185
সামাজিক	-11.4185
▁Nov	-11.4186
▁নবাব	-11.4187
▁সহকর্মী	-11.4189
▁রায়গঞ্জ	-11.4195
▁স্বাস্থ্যকর	-11.4196
▁+	-11.4198
▁১৭টি	-11.4199
▁টিউন	-11.42
কান্দা	-11.4201
িদের	-11.4203
▁পলি	-11.4208
▁বিজ	-11.4208
▁শবে	-11.4208
▁ক্যান্সারের	-11.4211
▁আসছি	-11.4212
▁অন্তর্গত	-11.4217
▁ইয়াসির	-11.4217
▁মূল্যবোধ	-11.4219
▁সিট	-11.4219
৭টি	-11.422
গঞ্জে	-11.422
▁আশপাশে	-11.4221
▁আলমডাঙ্গা	-11.4223
▁সুখী	-11.4226
দলের	-11.4229
▁মুন্সী	-11.4232
▁সময়েই	-11.4236
um	-11.4237
▁গৃহকর্মী	-11.4237
▁বুদ্ধ	-11.4237
▁ডিলার	-11.4238
▁প্রাণে	-11.4239
▁রাণী	-11.4241
▁দেশবাসীকে	-11.4243
▁মৃতদের	-11.4244
কাম	-11.4244
▁উনার	-11.4244
▁মধ্যম	-11.4245
▁For	-11.4246
▁দাঁড়ানো	-11.4248
▁লায়ন	-11.4253
▁ঝুলে	-11.4254
▁খোন্দকার	-11.4254
▁পিপলস	-11.4256
▁যথা	-11.4256
bi	-11.4257
▁তথ্যমতে	-11.4258
▁খনি	-11.4258
▁সামলাতে	-11.4258
▁আরেকজন	-11.426
▁বালা	-11.426
কক্সবাজার	-11.4263
▁ডেল্টা	-11.4263
▁টিভিতে	-11.4264
▁অপকর্ম	-11.4266
▁সারি	-11.4272
▁ভাইরাসটি	-11.4273
▁উর্ধ্বত	-11.4276
▁জীবিকা	-11.4278
▁মহম্মদ	-11.428
▁পরামর্শক	-11.428
▁সংবাদমাধ্যমকে	-11.428
বাজারে	-11.4281
▁লঞ্চের	-11.4282
▁কয়েকজনকে	-11.4284
▁রাজ্যপাল	-11.4285
দিনাজপুর২৪	-11.4286
▁বাকিরা	-11.4289
▁উপাচার্যের	-11.429
▁তানিয়া	-11.4291
▁আফিফ	-11.4292
▁পদপ্রার্থী	-11.4292
পরিকল্পনামন্ত্রী	-11.4293
▁গ্যালাক্সি	-11.4295
কমিশনার	-11.4295
▁লালপুর	-11.4296
▁স্মরণীয়	-11.4296
▁হাউসে	-11.4296
▁বসতঘর	-11.4297
▁অ্যালবাম	-11.4297
▁ঘটায়	-11.4299
▁ক্যামেরায়	-11.43
▁কর্তব্য	-11.43
▁প্লেয়ার	-11.43
▁পদ্ধতির	-11.4302
▁করাই	-11.4304
▁লোকাল	-11.4307
▁স্বীকারোক্তি	-11.4308
▁বাংলাদেশেও	-11.4315
▁রুমের	-11.4315
মায়ের	-11.4317
▁today	-11.4318
▁ফাল্গুন	-11.4321
▁হোসেনসহ	-11.4324
পথ	-11.4327
▁চড়	-11.4327
কালের	-11.433
▁মান্দা	-11.433
▁খাদিজা	-11.4331
▁গণি	-11.4331
সুর	-11.4331
▁কার্ডের	-11.4331
▁রাতভর	-11.4331
▁গোলাপ	-11.4332
▁কোতোয়ালী	-11.4332
▁গোপালপুর	-11.4332
▁প্লাজা	-11.4333
▁ধর্মাবলম্বীদের	-11.4333
▁মালিককে	-11.4338
নিউজবিডি	-11.4339
▁মহাপরিদর্শক	-11.4339
কলা	-11.4341
▁২০০৩	-11.4343
▁সুবর্ণজয়ন্তী	-11.4345
▁জঙ্গলে	-11.4346
▁হাজি	-11.435
▁ভাবছে	-11.4353
▁ধোঁয়া	-11.4355
মাল	-11.4357
৬টি	-11.4358
▁কৃষকলীগ	-11.4358
▁রুপ	-11.4359
▁ফেরাতে	-11.4359
শূন্য	-11.4359
▁একটানা	-11.4359
▁মুল	-11.436
▁চুয়াডাঙ্গায়	-11.4363
▁e	-11.4364
▁ব্যাটিংয়ের	-11.4367
▁ওয়াহিদ	-11.4367
▁বাপ্পী	-11.4368
▁বাইসাইকেল	-11.4368
▁মর	-11.4369
▁ঠেলে	-11.437
৯০	-11.4372
▁বিছানায়	-11.4372
ণ্ড	-11.4374
▁মিড	-11.4374
▁ব্যাটসম্যানদের	-11.4374
প্রকাশ	-11.4374
ত্যু	-11.4377
লাখ	-11.4378
▁চেয়েছিল	-11.4378
▁হলি	-11.4383
▁আকারের	-11.4384
▁ছে	-11.4386
▁উপকৃত	-11.4387
▁নিয়ন্ত্রনে	-11.4394
▁উপরের	-11.4397
ডেন	-11.4398
▁থিয়েটার	-11.4401
▁১০৫	-11.4404
▁হাবীব	-11.4405
▁মাদারীপুরের	-11.4405
▁অন্ধকারে	-11.4405
▁জবি	-11.4406
▁স্বয়ং	-11.4406
▁পারতেন	-11.4406
▁কারাবন্দি	-11.4407
▁বাজি	-11.4407
হো	-11.4408
▁ব্যাক্তি	-11.4408
▁আগামি	-11.4408
▁ইনফরমেশন	-11.4408
▁ভবিষ্যতের	-11.4409
▁সমন্বয়কারী	-11.441
▁ইসির	-11.441
▁জাদুঘর	-11.4411
▁নিউজের	-11.4414
▁জাম	-11.4415
▁মুসল্লি	-11.4416
েশ্বর	-11.4416
▁বিহারের	-11.4418
ম্ব	-11.4419
▁চাকরিতে	-11.442
সম	-11.4421
▁ওয়াজ	-11.4421
▁সাথেই	-11.4421
▁নারায়ণ	-11.4422
▁কনের	-11.4424
▁নর	-11.4429
▁তৌফিক	-11.4433
▁জামায়াতে	-11.4434
দিকে	-11.4434
j	-11.4436
▁অনুভূত	-11.4436
▁ইসলামিয়া	-11.4439
▁আর্ট	-11.444
▁মস্তিষ্ক	-11.444
▁হংকং	-11.4444
▁কমিউনিস্ট	-11.4444
▁কেঁপে	-11.4444
েট	-11.4446
সেই	-11.4448
▁মহাকাশে	-11.4449
▁আচরণের	-11.4449
▁জাপানি	-11.445
▁সুবিধার	-11.4453
▁সেচ	-11.4453
▁পুনঃ	-11.4455
গুন	-11.4455
▁শিখতে	-11.4455
▁ছাড়েন	-11.446
▁জিম	-11.4464
▁কর্মকাণ্ডে	-11.4465
জিত	-11.4467
▁উদ্যোক্তাদের	-11.4469
▁ভালবাসা	-11.447
▁রুহ	-11.4473
▁এক্সচেঞ্জের	-11.4474
▁খাদ্যমন্ত্রী	-11.4475
▁গেয়ে	-11.448
▁জালিয়াতি	-11.4481
িট	-11.4481
লেস	-11.4481
▁ইয়াছিন	-11.4483
▁উচ্ছ্বসিত	-11.4483
▁সর্দার	-11.4483
▁নারকেল	-11.4483
▁নৌপরিবহন	-11.4483
▁আহাম্মদ	-11.4483
▁দারুন	-11.4484
▁ঘটল	-11.4485
▁স্ট্রোক	-11.4485
▁১৯৯৬	-11.4486
▁কামরান	-11.4488
▁খেলছেন	-11.4489
৬৮	-11.4492
▁পরীক্ষামূলক	-11.4498
▁কথাবার্তা	-11.4498
▁ফেয়ার	-11.4499
▁ইস	-11.45
▁আবহে	-11.45
▁অস্থিরতা	-11.45
▁অন্যান্যরা	-11.4503
▁ক্ষতিগ্রস্তদের	-11.4504
▁কঠোরভাবে	-11.4505
ডু	-11.4506
▁দেখান	-11.4506
▁ভারসাম্য	-11.451
▁বলবে	-11.4513
▁তৃণমূলে	-11.4515
▁দৈর্ঘ্য	-11.4517
প্ত	-11.4519
বুক	-11.452
▁এইসব	-11.452
hi	-11.4521
▁সাবমেরিন	-11.4521
ers	-11.4522
▁সায়েম	-11.4522
▁অনুপস্থিত	-11.4522
নেতা	-11.4522
▁অতঃপর	-11.4524
▁আসলেই	-11.4525
▁লিগ্যাল	-11.4527
▁লেবার	-11.4527
পুকুর	-11.4529
▁মোড়ল	-11.453
র্ট	-11.4531
ঢামেক	-11.4532
সার্বিক	-11.4532
▁যানজটের	-11.4534
▁গোবিন্দগঞ্জ	-11.4535
▁সারির	-11.4535
▁পরিপূর্ণ	-11.4541
▁All	-11.4546
▁আরিয়ান	-11.4549
▁পরার	-11.455
▁ব্যানার্জি	-11.4552
▁ধরেছেন	-11.4555
▁কামড়ে	-11.4556
▁রাইডার্স	-11.4556
▁Popular	-11.456
▁গায়িকা	-11.456
ب	-11.4561
▁সুশীল	-11.4562
▁Author	-11.4562
▁কাপাসিয়া	-11.4562
▁পারাপার	-11.4563
▁ইনশাআল্লাহ	-11.4564
সিস	-11.4564
▁ইউনিসেফ	-11.4564
▁আসাম	-11.4564
ভাবেই	-11.4568
▁মিনা	-11.4569
▁বাক্স	-11.4573
▁প্রজাতন্ত্র	-11.4575
▁প্রকল্পটি	-11.4577
স্বজন	-11.4581
▁পার্লামেন্টে	-11.4584
▁গুপ্ত	-11.4585
▁বোট	-11.4589
▁জাজ	-11.459
▁Pro	-11.4591
▁t	-11.4598
▁টুটুল	-11.4599
▁Campus	-11.4599
▁Sunday	-11.4599
▁পরামর্শে	-11.4599
▁কার্গো	-11.46
▁দক্ষতার	-11.46
▁খোঁজখবর	-11.46
!'	-11.4601
ধরনের	-11.4602
▁বর্ণিত	-11.4602
▁সবকটি	-11.4603
▁চোরাই	-11.4606
সেবা	-11.4606
▁পার্লামেন্ট	-11.4606
ুম	-11.4609
▁প্যাক	-11.461
▁ঘোষণায়	-11.4612
▁গোবিন্দ	-11.4612
বিধি	-11.4613
▁থাকত	-11.4613
▁কপিল	-11.4613
▁রাষ্ট্রপক্ষের	-11.4618
জুল	-11.4618
▁উইকেটরক্ষক	-11.4618
▁স্বরূপ	-11.4619
▁নানাভাবে	-11.4623
▁ইয়েমেনের	-11.4625
▁পাচারকারী	-11.4628
▁সিটিতে	-11.4629
▁তারপরই	-11.4629
▁স্ট্যান্ডার্ড	-11.4631
▁শুটিংয়ের	-11.4632
টিয়া	-11.4633
▁বসছে	-11.4633
▁চৌধুরীকে	-11.4636
▁ডেন্টাল	-11.4638
▁পাউডার	-11.4638
▁ধর্মপ্রাণ	-11.4639
▁কতটুকু	-11.4639
▁কর্মশালার	-11.464
▁দিনগত	-11.4641
▁নিবন্ধিত	-11.4642
াংশ	-11.4642
▁আরিফুর	-11.4643
ল্ড	-11.4643
▁এবি	-11.4645
Home	-11.465
▁তরুন	-11.4653
▁একশ	-11.4657
▁মোহা	-11.4657
▁পুলিস	-11.4659
▁জেতা	-11.466
▁১০১	-11.4666
▁নিজেরাই	-11.4668
▁স্তর	-11.4668
▁বিশেষত	-11.4671
to	-11.4671
▁শিল্পীরা	-11.4671
▁উবার	-11.4673
et	-11.4673
▁আপেল	-11.4675
▁বয়ান	-11.4677
▁Crime	-11.4677
▁ঠিকঠাক	-11.4677
▁বিবেচিত	-11.4677
▁ঘোষের	-11.4677
▁কর্ণধার	-11.4677
▁দ্বিপাক্ষিক	-11.4677
দাতা	-11.468
▁বীরভূম	-11.468
▁ঘাস	-11.468
▁মেঘলা	-11.468
▁বাল্যবিবাহ	-11.4681
▁বিভক্ত	-11.4682
▁সাইড	-11.4682
▁মুরগির	-11.4684
▁ত্রিশাল	-11.4686
ক্ট	-11.4687
▁মুরগি	-11.4688
▁অজি	-11.4688
▁কোয়ারেন্টিন	-11.4689
রাজশাহী	-11.4689
ব্যবস্থা	-11.469
▁সারাবাংলা	-11.469
▁সাকিবকে	-11.469
▁অপরাধীদের	-11.469
▁জ্বালা	-11.4694
▁বিরোধীদের	-11.4697
▁সাগরের	-11.4699
▁ডিএনএ	-11.4701
বেল	-11.4706
▁প্রযোজনায়	-11.4708
▁আনছে	-11.4709
▁গুলোতে	-11.471
▁অধীন	-11.4711
▁প্রতিষ্ঠায়	-11.4712
▁মহেশপুর	-11.4716
pm	-11.4716
▁এরদোয়ান	-11.4717
▁তোফাজ্জল	-11.4717
▁গড়লেন	-11.4718
▁হেরোইন	-11.4719
রান	-11.4719
▁ঝুঁকির	-11.4721
▁যতদিন	-11.4722
ধারা	-11.4722
▁ইকবালের	-11.4723
▁টয়লেট	-11.4723
▁বিবাদ	-11.4725
▁বেহাল	-11.4726
▁মঞ্জুরুল	-11.4728
টাঙ্গাইল	-11.4729
বস	-11.4729
আগামী	-11.4732
▁কর্মকাণ্ডের	-11.4733
▁টে	-11.4735
▁রাহাত	-11.4735
▁অভিজ্ঞতার	-11.4739
▁শিল্পা	-11.474
▁হোন	-11.474
▁দই	-11.4742
▁শিলিগুড়ি	-11.4742
▁ছাড়াল	-11.4744
▁পার্কের	-11.4747
বিজ্ঞান	-11.4748
▁ব্রেক	-11.4749
▁ছড়াচ্ছে	-11.475
▁মাত্রার	-11.4752
▁জাপানে	-11.4753
▁অসহায়দের	-11.4756
▁৫শ	-11.4756
▁বাজেয়াপ্ত	-11.4756
▁সিদ্ধার্থ	-11.4756
▁রচিত	-11.4757
▁ভিক্টোরিয়া	-11.4757
▁নীতির	-11.4758
▁ঝাঁপ	-11.4759
▁বোরহান	-11.476
▁আবাদ	-11.4762
▁যাত্রীকে	-11.4762
▁কালীগঞ্জে	-11.4765
▁ধস	-11.4767
নাম	-11.4768
ঙ্গে	-11.4771
সময়	-11.4771
▁সাই	-11.4772
▁সমতায়	-11.4772
▁রাজাপুর	-11.4773
▁সেখানেও	-11.4773
▁নৈতিক	-11.4775
▁মুন্সীগঞ্জে	-11.4778
▁শোনার	-11.4778
▁ধাওয়ান	-11.4781
▁গোয়াইনঘাট	-11.4784
▁ইনস্টিটিউটে	-11.4788
▁উল্লেখিত	-11.4788
▁আলোচক	-11.479
▁পঞ্চগড়ে	-11.4794
▁মজবুত	-11.4796
▁Prothom	-11.4796
▁মিশনে	-11.4796
▁দ্বারস্থ	-11.4797
▁সারওয়ার	-11.4797
▁আচার্য	-11.4797
▁কওমি	-11.4797
▁সিমেন্ট	-11.4797
▁Sa	-11.4798
▁ইব্রাহীম	-11.4798
▁ওখানে	-11.4801
▁মাউন্ট	-11.4802
▁হত্যাকাণ্ডে	-11.4803
▁সীতাকুণ্ড	-11.4804
হাই	-11.4805
▁বিভ্রান্ত	-11.4807
▁ডিমের	-11.4809
য়াল	-11.4812
▁মুস্তাফিজ	-11.4812
কিন	-11.4813
▁কোমর	-11.4814
▁হত্যাকান্ডের	-11.4819
▁পথেই	-11.4821
▁My	-11.4827
ত্য	-11.4828
▁মহেশ	-11.4829
ER	-11.4831
▁শিবপুর	-11.4833
▁স্কুলছাত্রী	-11.4833
▁গাঙ্গুলি	-11.4836
▁সন্দেহজনক	-11.4836
▁বেলুন	-11.4836
▁দুরন্ত	-11.4837
▁থাইল্যান্ডের	-11.4838
▁জেলেরা	-11.4841
▁মেনন	-11.4849
▁শার্ট	-11.485
▁ডেঙ্গুতে	-11.486
▁আহ	-11.4861
▁শ্যাম	-11.4863
▁পিপিই	-11.4867
▁অ্যাপস	-11.487
▁শাজাহান	-11.4872
▁অংকে	-11.4872
▁তীব্রতা	-11.4873
▁অপ্রীতিকর	-11.4876
▁বিলাসবহুল	-11.4876
▁গুরুত্বারোপ	-11.4876
▁বাড়িয়েছে	-11.4877
▁অপমৃত্যু	-11.4878
▁ক্যাশ	-11.4879
▁Kagoj	-11.4879
▁কদর	-11.4879
স্থল	-11.488
▁নির্বিশেষে	-11.488
▁জানুন	-11.488
▁চেলসি	-11.4883
▁আম্পায়ার	-11.4884
ten	-11.4885
▁ব্রিটেনে	-11.4885
▁রাস্তাটি	-11.4886
শিক্ষক	-11.4886
▁সৈয়দা	-11.4887
ারী	-11.4889
২টি	-11.489
▁অবস্থানের	-11.4891
▁রহিমের	-11.4893
▁দেবার	-11.4894
▁কর্মক্ষেত্রে	-11.4896
▁চক্রবর্তীর	-11.4896
▁ভাইরাসটিতে	-11.4897
OR	-11.4897
▁টিকিটের	-11.4899
▁গন্তব্যে	-11.4902
▁স্বচ্ছতা	-11.4902
▁কালিয়াকৈর	-11.4904
▁দশা	-11.4905
ry	-11.4908
▁কপালে	-11.4913
গী	-11.4913
▁ফ্রিজ	-11.4915
▁ইনজেকশন	-11.4916
▁দেবাশীষ	-11.4916
▁দ্বিপক্ষীয়	-11.4916
▁Oct	-11.4916
▁ভোটাধিকার	-11.4917
▁প্রতিবন্ধকতা	-11.4918
▁সাশ্রয়ী	-11.4918
▁ক্যানসার	-11.492
▁কামার	-11.4921
▁এসিড	-11.4925
▁আবিদ	-11.4926
▁মজিবর	-11.4927
র্গ	-11.4928
▁আলা	-11.4929
▁বাঁধে	-11.4932
▁ফেলবে	-11.4932
▁বৃদ্ধার	-11.4938
▁কালী	-11.494
▁সবুজের	-11.494
▁রয়্যাল	-11.4941
▁থিম	-11.4945
▁Re	-11.4945
▁বুয়েটের	-11.4952
▁শাশুড়ি	-11.4952
েন্দু	-11.4952
▁পৌঁছলে	-11.4955
▁রয়টার্সের	-11.4955
▁এটাকে	-11.4955
▁নরসিংদীতে	-11.4956
▁রক্ষণাবেক্ষণ	-11.4956
▁NTV	-11.4956
▁হীরা	-11.4957
▁অন্যথায়	-11.4957
▁বিশ্বজিৎ	-11.4958
▁ট্রেডিং	-11.4959
▁চেইন	-11.4959
▁শিক্ষাবর্ষে	-11.4959
সরকার	-11.496
▁উসমান	-11.496
▁ইলেকট্রিক	-11.4961
▁শব্দে	-11.4961
ঞ্চ	-11.4961
▁ডাই	-11.4963
▁ভিত্তিহীন	-11.4963
▁বালক	-11.4964
▁অগ্নিকাণ্ড	-11.4967
▁প্লাটফর্ম	-11.4968
▁সীমাবদ্ধ	-11.4968
য়ারি	-11.4969
▁নাসের	-11.497
▁উন	-11.497
বগুড়া	-11.4971
▁সুরক্ষায়	-11.4972
▁আনাম	-11.4973
▁রূপগঞ্জে	-11.4973
im	-11.4975
▁খাইয়ে	-11.4976
▁পাগলা	-11.4978
▁রিয়ার	-11.498
▁আবেদনপত্র	-11.4984
▁বিশ্বকে	-11.4985
▁কিউ	-11.4987
▁বান্ধবী	-11.4989
▁অনলাইনের	-11.4989
▁পুন	-11.4992
▁সংখ্যায়	-11.4993
▁৭ই	-11.4994
কর্ম	-11.4995
ভাতা	-11.4997
▁আশাশুনি	-11.4997
▁অগ্রণী	-11.4997
▁ছুঁড়ে	-11.4997
▁গুন	-11.4997
▁সুভাষ	-11.4997
▁Our	-11.4997
▁রেলওয়ের	-11.4998
▁জমায়েত	-11.4998
▁সিদ্দিকুর	-11.5001
▁সেক্টরে	-11.5002
▁হাওড়া	-11.5004
▁উত্তরাঞ্চল	-11.5007
স্থানে	-11.501
▁চারদিন	-11.501
▁লেক	-11.5011
▁কমায়	-11.5011
▁পারলেন	-11.5011
▁অবলম্বনে	-11.5012
▁পিএসজির	-11.5014
▁বটে	-11.5016
▁সিডনি	-11.5017
▁ফ্যানের	-11.5017
▁ব্যালট	-11.5019
م	-11.502
▁আটককৃতদের	-11.5021
▁লাগানোর	-11.5021
▁সংলাপে	-11.5022
ফো	-11.5025
কাশি	-11.5025
desh	-11.5027
▁রশি	-11.5029
▁ক্লাবটি	-11.503
▁বিরামপুর	-11.503
▁পিঠে	-11.5031
▁মানুষেরা	-11.5031
▁কুশল	-11.5032
▁আলীম	-11.5033
▁কমিশনে	-11.5037
▁সুরতহাল	-11.5037
▁সয়াবিন	-11.5037
▁সপরিবারে	-11.5038
▁ইলেকট্রনিক্স	-11.504
▁কাকে	-11.5041
▁বিধ্বংসী	-11.5044
▁আয়াত	-11.5048
will	-11.5048
▁ال	-11.5051
▁ফারুকী	-11.5052
ল্লাহ	-11.5053
পিএম	-11.5054
সংবাদ	-11.5055
▁ইডেন	-11.5056
▁জাত	-11.5057
▁ব্যাংকগুলো	-11.5061
▁not	-11.5062
▁নবীনগর	-11.5062
▁নেননি	-11.5068
নীতি	-11.5069
▁প্রত্যাশী	-11.5072
▁স্রোত	-11.5074
ধর	-11.5076
▁অচেতন	-11.5078
▁বরকত	-11.5078
▁ব্যতীত	-11.5078
▁হোয়াইটওয়াশ	-11.5078
▁উকিল	-11.5078
▁অনুপ্রাণিত	-11.5078
▁উইং	-11.5079
▁বদরুল	-11.508
▁কীটনাশক	-11.508
▁আন্দোলনরত	-11.5082
▁জুট	-11.5084
▁বমি	-11.5084
ধেয়ে	-11.5084
▁এমসি	-11.5084
▁সিকিউরিটিজ	-11.5087
দিনাজপুর	-11.5092
পরিচয়	-11.5093
▁রায়কে	-11.5093
▁সাঁতার	-11.5093
▁জানাযায়	-11.5094
▁জিডিপি	-11.5094
▁বিকৃত	-11.5098
▁আমিনুর	-11.5099
▁বিআরটিএ	-11.5099
▁ডিজি	-11.5103
সিক	-11.5104
▁ইনজুরিতে	-11.5106
▁সারাবিশ্বে	-11.5107
▁সমাজকে	-11.5109
▁লতা	-11.511
▁ছবিগুলো	-11.5111
▁গতিশীল	-11.5111
জাল	-11.5118
নির্বাচনে	-11.5119
▁লেন	-11.512
▁পাটকল	-11.512
য়েন	-11.5121
▁ঠিকমতো	-11.5121
▁লাভবান	-11.5122
▁উচ্ছ্বাস	-11.5122
▁আফতাব	-11.5122
▁নান্দাইল	-11.5122
▁আচার	-11.5123
ীরা	-11.5124
▁রাবেয়া	-11.5125
▁সেশন	-11.5128
▁মিলার	-11.513
▁পুরস্কারের	-11.5131
▁খালে	-11.5132
▁রাষ্ট্রপক্ষে	-11.5136
▁মিডিয়াতে	-11.5137
▁কমলাপুর	-11.5138
▁সবসময়ই	-11.5138
▁বডি	-11.5139
▁নম্বরের	-11.514
▁পারত	-11.514
▁বাবুর	-11.514
নির্বাচন	-11.514
▁চ্যাম্পিয়নশিপের	-11.5145
▁সপ্তাহেই	-11.5145
▁পরিশোধের	-11.5145
▁নাসার	-11.5146
▁শ্যুটিং	-11.5147
▁সোনাগাজী	-11.5149
▁হায়দরাবাদ	-11.5149
▁গজারিয়া	-11.5151
▁প্রস্তুতির	-11.5154
▁প্রশিক্ষন	-11.516
▁উগ্র	-11.5161
▁গফুর	-11.5161
▁কনভেনশন	-11.5161
▁তরমুজ	-11.5161
▁নিদর্শন	-11.5161
▁পুতুল	-11.5161
▁সৈয়দপুরে	-11.5162
▁দেখিয়েছে	-11.5162
▁দণ্ডপ্রাপ্ত	-11.5162
▁জৈব	-11.5164
▁আজারবাইজান	-11.5164
▁হবো	-11.5166
▁ধরেছে	-11.5166
ion	-11.5169
▁নাচের	-11.517
▁চ্যান্সেলর	-11.5174
▁সিরিয়াল	-11.5176
▁সুবর্ণ	-11.5176
▁লেবাননে	-11.5178
পন্থী	-11.5178
▁শটে	-11.5179
▁আচমকা	-11.5179
TV	-11.5181
▁হাইস্কুল	-11.5188
▁চাষে	-11.5189
▁বৃন্দ	-11.519
▁নভেম্বরের	-11.5191
▁ঠিকানায়	-11.5191
পাক	-11.5194
▁চারদিকে	-11.5194
▁সাইদ	-11.5198
▁শিক্ষায়	-11.5203
▁সিলেটভিউ	-11.5203
▁ধোয়া	-11.5205
▁বিড়াল	-11.5206
▁উদ্যোগের	-11.5206
▁বরেণ্য	-11.5207
বিন	-11.5208
▁শর্মার	-11.5209
▁নারাজ	-11.5212
▁বয়সি	-11.5216
▁লালমোহন	-11.5217
উপাচার্য	-11.5218
▁ডাচ	-11.5218
▁অ্যাপে	-11.5219
▁মাছটি	-11.522
▁বিজ্ঞানীদের	-11.522
বিদেশি	-11.5221
▁সংবাদে	-11.5221
টাকা	-11.5223
▁৮ম	-11.5224
ন্দি	-11.5229
▁টেলিফোন	-11.5229
াদ	-11.523
▁টুকু	-11.5231
▁মারার	-11.5231
গাও	-11.5232
কায়	-11.5234
▁নির্	-11.5235
▁ধুনট	-11.5237
▁চেনা	-11.5241
▁মানুষজন	-11.5241
অ্যাস্ট্রাজেনেকা	-11.5243
▁এলোপাতাড়ি	-11.5243
▁ঠাঁই	-11.5243
▁সুপারভাইজার	-11.5243
▁কাশিমপুর	-11.5243
▁মোস্তাফা	-11.5243
▁ভয়ভীতি	-11.5243
▁কেএম	-11.5244
▁অবকাশ	-11.5244
▁হারালেন	-11.5246
▁রোমান্টিক	-11.5246
কুর	-11.525
▁গোলাপি	-11.525
▁দেখবে	-11.5251
▁বলবো	-11.5251
ঙ্গি	-11.5255
মাই	-11.5256
িয়াল	-11.5256
▁সবজির	-11.5256
▁ছড়া	-11.5257
▁মালদা	-11.5258
কেন্দ্র	-11.5258
বন্ধু	-11.5259
▁সেশনে	-11.526
▁কালা	-11.526
▁শাল	-11.5261
▁মন্ত্রিসভায়	-11.5261
▁ক্যাডার	-11.5261
▁ত্যাগের	-11.5263
▁এরপরও	-11.5263
▁জ্বলে	-11.5264
▁অনার	-11.5265
▁চিন্তার	-11.527
▁শপিংমল	-11.5271
রবিবার	-11.5271
ng	-11.5274
▁অর্থে	-11.5276
▁কল্যান	-11.5276
▁মাহাবুব	-11.5278
▁কনে	-11.5279
▁কোল	-11.5279
▁কাজটা	-11.5281
▁তাহসান	-11.5285
▁উম্মে	-11.5285
▁সার্জেন্ট	-11.5285
▁ঝরে	-11.5285
▁বুস্টার	-11.5285
▁আক্ষেপ	-11.5286
▁প্রার্থিতা	-11.5288
▁ব্রণ	-11.5288
▁ডেট	-11.529
▁জাতিকে	-11.5291
▁খেলোয়াড়ের	-11.5293
▁চ্যাট	-11.5293
▁বইছে	-11.5297
▁হব	-11.5297
িকে	-11.5297
র্ড	-11.5299
▁ইসলামাবাদ	-11.5302
▁রানেই	-11.5303
▁গোপালগঞ্জে	-11.5308
▁শিক্ষাগত	-11.5308
▁১লা	-11.5308
▁কার্যদিবস	-11.531
৬২	-11.5314
▁আন্ত	-11.5317
নারী	-11.532
▁দেবো	-11.532
▁ক্ষয়	-11.5322
▁ইন্ডাস্ট্রির	-11.5323
▁এমপির	-11.5323
▁পিপি	-11.5324
▁নেপালে	-11.5326
▁খেটে	-11.5326
▁বরুণ	-11.5327
▁ভাঁজ	-11.5327
▁শ্যামলী	-11.5329
▁সামিল	-11.533
▁নাটকটির	-11.5332
▁সঙ্গ	-11.5332
▁চাউল	-11.5333
ধর্ম	-11.5334
▁কর্তন	-11.5336
▁রাঙামাটিতে	-11.5336
▁বলেননি	-11.5341
▁অতিথিরা	-11.5346
▁Desh	-11.5349
ণে	-11.535
▁সবারই	-11.5351
▁রুটিন	-11.5354
▁post	-11.5355
▁অংশীদার	-11.536
পথে	-11.5362
▁হামজা	-11.5363
▁দুঃস্থ	-11.5363
▁শিয়া	-11.5366
▁অনুষ্ঠ	-11.5367
▁বহুমুখী	-11.5367
▁সামগ্রিক	-11.5367
▁আইকন	-11.5367
▁রিটার্ন	-11.5368
▁ইঁদুর	-11.5368
▁this	-11.5369
▁অনুষ্টিত	-11.5369
▁স্থপতি	-11.5369
▁সমাগম	-11.5369
▁বাস্তবায়িত	-11.5369
▁অধীর	-11.5369
▁দেখলাম	-11.5369
▁ভিজিট	-11.5369
▁হংকংয়ে	-11.5369
▁লোকালয়	-11.5369
▁অনাদায়	-11.537
▁নেটিজেনদের	-11.537
▁বললেই	-11.5371
▁পাইকগাছা	-11.5371
▁পরিকল্পিতভাবে	-11.5372
ফাই	-11.5373
▁পল্লবী	-11.5375
▁হাঁটতে	-11.5378
▁গণ্য	-11.5379
▁আমদানির	-11.5385
▁ওয়েবসাইটের	-11.5386
▁মৌসুমি	-11.5386
▁দুবার	-11.5388
▁সমমান	-11.539
▁আমেজ	-11.539
অপারেশন	-11.5391
▁শরীফের	-11.5392
▁দুর্বলতা	-11.5395
গঠিত	-11.5397
▁blog	-11.5399
▁গেইট	-11.5401
▁স্ক্যান	-11.5401
▁খুলছে	-11.5401
▁চিন্তায়	-11.5402
▁নামানো	-11.5402
▁কয়েকশ	-11.5404
▁ছাত্রকে	-11.5407
▁নাইম	-11.5408
▁জাপা	-11.541
▁তলার	-11.541
▁এন্টারপ্রাইজ	-11.5411
▁থমকে	-11.5411
▁আদমদীঘি	-11.5411
▁আশ্বস্ত	-11.5411
▁পুরস্কৃত	-11.5411
▁ফজর	-11.5411
▁ট্যাংক	-11.5411
▁ইয়াকুব	-11.5411
▁অমানবিক	-11.5411
▁বিলীন	-11.5412
▁পুনরুদ্ধার	-11.5412
▁মাসুদু	-11.5413
▁শ্বশুরবাড়ি	-11.5414
▁ল্যা	-11.5415
▁হিংসা	-11.5417
▁গ্রামীণফোন	-11.5418
▁পড়বেন	-11.5419
▁ঝ	-11.5419
▁নীরব	-11.5421
▁জীব	-11.5423
▁আমরাও	-11.5424
▁ফুটপাত	-11.5425
▁রিক্সা	-11.5425
▁প্রাপ্তি	-11.5426
সম্পাদনা	-11.5429
অনেক	-11.543
▁লঙ্ঘনের	-11.5431
▁বেত	-11.5432
▁ক্রিম	-11.5433
▁খালের	-11.5436
▁চাননি	-11.5437
▁r	-11.5439
▁খাবারে	-11.5439
সিসি	-11.5442
▁ডিজাইনার	-11.5442
▁পটিয়া	-11.5444
▁দাড়ি	-11.5445
▁স্ট্রিট	-11.5446
ানা	-11.5448
▁উঠা	-11.5451
▁উদ্যান	-11.5451
▁অলিম্পিকে	-11.5452
▁অতর্কিত	-11.5453
▁শবনম	-11.5453
▁চৈত্র	-11.5453
▁শাহনাজ	-11.5454
▁শোকাহত	-11.5454
▁কাটাচ্ছেন	-11.5456
▁পরিকল্পিত	-11.5457
▁ধৈর্য	-11.5459
ত্তা	-11.546
▁খণ্ড	-11.5462
▁পরীমণি	-11.5462
▁স্পিড	-11.5463
▁৬নং	-11.5464
▁আমল	-11.5465
▁২৫টি	-11.5465
▁২জন	-11.5466
▁১২৮	-11.5469
▁কষ্টের	-11.5469
▁Tags	-11.547
▁রাজস্থানের	-11.547
হত	-11.5472
▁উত্তেজনার	-11.5473
▁l	-11.5473
লন	-11.5474
▁যুবতী	-11.5474
▁অস্বস্তি	-11.5474
▁ভিক্ষুক	-11.5476
কস	-11.5477
▁চুপ	-11.5477
▁পুজা	-11.5479
▁পাঁচজনের	-11.5482
▁কথাগুলো	-11.5488
টুকু	-11.5488
▁দামের	-11.5492
▁বিবরণ	-11.5493
▁তুলনামূলক	-11.5495
▁নেওয়াজ	-11.5495
▁সওদাগর	-11.5496
▁হেলমেট	-11.5496
▁বড়সড়	-11.5496
▁চৌরাস্তা	-11.5496
▁সাক্ষ্যগ্রহণ	-11.5496
▁গোয়াল	-11.5496
▁হাসনাত	-11.5497
▁কুইজ	-11.5497
ছিলো	-11.5497
▁তরুণের	-11.5498
▁সিলভা	-11.5499
▁পণ্যবাহী	-11.5499
▁উন্নয়নশীল	-11.55
▁দলগুলোর	-11.5501
▁অনুপ্রবেশ	-11.5502
▁খানেক	-11.5503
▁সংক্রমণে	-11.5503
▁ইনু	-11.5503
▁ব্যাপারটা	-11.5504
▁Cox	-11.5505
▁সেগুলি	-11.5507
খেলা	-11.5508
▁as	-11.5508
▁আখ	-11.5509
▁কিমি	-11.5511
▁রাজন	-11.5515
▁নিধন	-11.5515
▁মহল্লার	-11.5515
▁আন্তঃ	-11.5518
▁সুগার	-11.5519
ীতে	-11.552
▁নগরে	-11.5522
▁বাংলাদেশিরা	-11.5525
▁ধানমন্ডির	-11.5526
ll	-11.5527
▁বিভিন্নভাবে	-11.5528
man	-11.5529
▁রিং	-11.5531
▁দামুড়হুদা	-11.5532
▁মেশিনে	-11.5536
▁কার্টুন	-11.5539
▁আখ্যায়িত	-11.5539
▁কতিপয়	-11.5539
▁ছোড়ে	-11.5539
▁বেধে	-11.5539
▁সুবিধাবঞ্চিত	-11.5539
▁চিংড়ি	-11.554
▁নরম	-11.5543
▁ঘৃণা	-11.5543
মহা	-11.5544
▁হাউজে	-11.5544
▁মিনিটেই	-11.5544
▁উখিয়ার	-11.5547
▁উইলিয়ামসন	-11.5548
▁ফলো	-11.555
▁হাম	-11.5552
▁৭ম	-11.5553
▁বস্তি	-11.5556
▁আমু	-11.5556
▁দেখাবে	-11.5562
▁দাঁড়িয়েছেন	-11.5563
▁চালালে	-11.5564
▁জহুর	-11.5566
▁সৌজন্যে	-11.5567
▁ইন্দোনেশিয়া	-11.5569
▁ইউজার	-11.5573
দ্র	-11.5577
▁লালমনিরহাটে	-11.5577
▁ইবি	-11.5578
▁দলগুলো	-11.5578
▁লোভ	-11.5581
▁অনুসন্ধানে	-11.5582
ا	-11.5584
▁ডিস	-11.5586
▁দমনে	-11.5587
টায়	-11.559
▁ইন্ডাস্ট্রিজ	-11.559
▁রান্নার	-11.5591
▁বিলম্ব	-11.5593
▁Dec	-11.5595
▁ছবিও	-11.5599
▁ঘটাতে	-11.56
বাবার	-11.5601
▁রযা	-11.5602
উপ	-11.5603
▁মুক্তা	-11.5608
▁ফরিদা	-11.5609
▁জামিয়া	-11.5617
▁সুফিয়ান	-11.5621
▁থাবা	-11.5624
মিউচ্যুয়াল	-11.5625
▁রাব্বী	-11.5625
▁দূষিত	-11.5625
▁আনীত	-11.5625
▁উদ্বোধনের	-11.5625
ক্রান্ত	-11.5627
▁দুর্গম	-11.5627
▁নেটিজেনরা	-11.5628
োপ	-11.5628
▁মধ্যবিত্ত	-11.5628
▁এমতাবস্থায়	-11.5629
▁উষ্ণ	-11.563
▁স্ট্যাটাসে	-11.563
▁গ্রেপ্তারকৃত	-11.5631
সম্পন্ন	-11.5631
▁সোনালি	-11.5632
▁পলাশবাড়ী	-11.5633
▁আক	-11.5634
িনী	-11.5636
▁মিশা	-11.5636
▁আজগর	-11.5636
পূর্বক	-11.5637
▁আক্তারকে	-11.5647
▁ট্রলি	-11.5647
▁স্বাগতিকরা	-11.5647
▁রুটের	-11.565
▁মিলি	-11.565
is	-11.5652
▁এসএ	-11.5653
▁পতনের	-11.5655
▁দিপু	-11.5657
▁ছন্দে	-11.5659
▁ইলিশের	-11.5661
ent	-11.5664
▁নৃশংস	-11.5665
▁রীতিমত	-11.5666
▁আসানসোল	-11.5668
▁ইউনুছ	-11.5668
▁দিশেহারা	-11.5668
▁বেনজীর	-11.5668
▁ফাটল	-11.5668
▁দিতেই	-11.5669
▁হানাদার	-11.5669
▁রাজাকার	-11.5669
▁বন্যপ্রাণী	-11.567
চ্ছ	-11.5671
▁১৪২৯	-11.5671
▁ইতালিয়ান	-11.5671
▁সাবরিনা	-11.5672
▁চ্যানেলের	-11.5672
▁ছেলেরা	-11.5673
▁তিশা	-11.5681
বতী	-11.5681
▁কর্নার	-11.5682
▁স্যা	-11.5683
▁পাঁচজনকে	-11.5687
▁ভোগান্তিতে	-11.5688
▁স্থায়ীভাবে	-11.5688
শিল্পী	-11.5689
▁জুভেন্টাস	-11.5691
▁শ্রমিককে	-11.5691
ia	-11.5694
▁কুক	-11.5696
▁স্পেনে	-11.5697
▁যুবকদের	-11.5699
▁আস্তানা	-11.5699
▁শিবগঞ্জে	-11.57
▁আন্দ্রে	-11.5704
▁ঢোকার	-11.5705
▁রেস্টুরেন্টে	-11.5705
৬৬	-11.5708
▁উৎপাদনকারী	-11.5711
▁কুর্মিটোলা	-11.5711
▁শ্যাম্পু	-11.5711
▁হেনস্থা	-11.5711
▁নোটিস	-11.5712
▁ঝাঁপিয়ে	-11.5714
▁বলেছিল	-11.5714
▁হিজাব	-11.5714
▁মার্টিন	-11.5715
▁হিল	-11.5715
▁ফেললেন	-11.5715
▁এমরান	-11.5716
▁জামালপুরে	-11.572
▁রয়েছি	-11.5721
▁শুক্র	-11.5721
▁উদ্ধৃতি	-11.5722
▁কিশোরকে	-11.5724
▁মনু	-11.5725
▁করুণ	-11.5725
▁আড়াইহাজার	-11.5725
▁করিয়া	-11.5727
▁নিবে	-11.5727
▁মমিন	-11.5729
সশ্রম	-11.5731
▁অর্থদণ্ড	-11.5733
▁চরফ্যাশন	-11.5734
▁টেলি	-11.5735
▁নির্মাণকাজ	-11.5737
সাস	-11.5739
মোহন	-11.5741
নেস	-11.5742
▁চলচ্চিত্রটি	-11.5743
▁রাইস	-11.5745
▁বেতনের	-11.5746
▁চাবি	-11.5746
▁হারাম	-11.5747
▁ডাক্তাররা	-11.5749
েয়	-11.575
▁অভিভাবকরা	-11.575
▁মিশে	-11.5751
▁তৌহিদুল	-11.5755
▁তল্লাশী	-11.5755
▁ফিরতি	-11.5755
▁ছাপিয়ে	-11.5756
▁খোলামেলা	-11.5756
▁রজব	-11.5757
▁রাশিয়ান	-11.5757
▁গম্ভীর	-11.576
▁বাংলাবাজার	-11.5761
▁মেগাপিক্সেল	-11.5763
▁মেদ	-11.5765
▁এরপরেই	-11.5767
▁মরে	-11.5767
▁আত	-11.5767
▁মাহে	-11.5768
▁হ্যায়	-11.577
াকে	-11.5771
▁মোকাররম	-11.5772
▁এদেশে	-11.5773
ধান	-11.5774
বাড়িতে	-11.5777
হেন	-11.5779
বোর্ড	-11.5783
গুণ	-11.5783
▁অকাল	-11.5784
▁ঐক্যের	-11.5786
▁মাত্রই	-11.5786
▁নিই	-11.5787
৯৯	-11.5789
গাছ	-11.5791
▁খেলছে	-11.5793
▁ভিসার	-11.5795
▁নির্যাতিতা	-11.5796
▁গুহ	-11.5796
▁মহাখালী	-11.5797
▁আত্রাই	-11.5797
▁বুথে	-11.5798
▁দাওয়াত	-11.5799
▁পাপ	-11.5799
লেই	-11.58
▁রাঙ্গা	-11.58
▁একইসাথে	-11.58
▁স্তন	-11.5801
▁বাঙ্গালী	-11.5803
্সের	-11.5803
▁হর	-11.5806
চন	-11.5807
▁মঞ্জু	-11.5808
▁জকিগঞ্জ	-11.5808
▁it	-11.5808
▁ফরিদুল	-11.5808
▁ট্রান্স	-11.5809
▁মালদ্বীপ	-11.5814
▁সিংয়ের	-11.5814
▁গর্ত	-11.5814
▁মূলধন	-11.5818
▁মাহমুদুর	-11.5818
▁আয়োজকরা	-11.5819
▁হাওরে	-11.582
▁আফরোজা	-11.5823
▁ক্রস	-11.5824
্যে	-11.5825
▁কয়েন	-11.5827
▁সেগুলোর	-11.5828
▁ক্যাবল	-11.5829
▁প্লাস্টিকের	-11.5829
▁সন	-11.583
▁বারাক	-11.5833
▁নিউইয়র্কের	-11.5835
▁সুইজারল্যান্ড	-11.5839
▁তারিখঃ	-11.5841
▁নিজেরা	-11.5841
করে	-11.5842
▁অনিচ্ছুক	-11.5843
▁তাৎক্ষনিক	-11.5843
▁পাড়ুকোন	-11.5843
▁সাংবিধানিক	-11.5843
▁অর্গানাইজেশন	-11.5843
▁জাতিসংঘে	-11.5844
▁আয়রন	-11.5844
▁আর্ন্তজাতিক	-11.5845
হাত	-11.5848
▁Sep	-11.5848
বলে	-11.5849
▁টপকে	-11.5849
▁পঞ্চাশ	-11.5852
▁সানিয়া	-11.5854
▁বিজিএমইএ	-11.5854
▁জার্মানিতে	-11.5855
সাই	-11.586
▁নিম	-11.5864
এবং	-11.5865
▁পূর্বক	-11.5868
▁সুত্র	-11.5869
ist	-11.5872
▁ভরাট	-11.5873
পাট	-11.5874
▁লঙ্কান	-11.5874
▁রক্তক্ষরণ	-11.5874
▁গোদাগাড়ী	-11.5876
জানা	-11.5876
▁মোটেই	-11.5877
▁থাই	-11.5878
আইপিএল	-11.5882
▁দুর্যোগে	-11.5882
▁মুজাহিদ	-11.5884
▁স্থানীয়ভাবে	-11.5886
▁পিঁড়িতে	-11.5887
▁পরিমাপ	-11.5887
▁সুস্পষ্ট	-11.5887
▁অভিজাত	-11.5887
▁জীবনকে	-11.5888
▁খেলাধুলার	-11.5888
▁বর্মন	-11.5888
▁আদৌ	-11.5888
▁বেলকুচি	-11.5888
▁চ্যালেঞ্জার্স	-11.5888
▁ক্রিশ্চিয়ানো	-11.5889
যার	-11.589
▁এডুকেশন	-11.5891
▁উপচে	-11.5893
▁মোবাইলের	-11.5894
▁দেখাচ্ছে	-11.5894
▁গোপনীয়তা	-11.5895
▁লিঙ্ক	-11.5896
েক	-11.5899
▁জুড়ী	-11.5899
ভিন	-11.59
▁স্পোর্টিং	-11.5901
▁Tech	-11.5902
▁গর্ভে	-11.5903
▁রেহানা	-11.5903
▁নির্ভরযোগ্য	-11.5908
▁স্বচ্ছ	-11.5908
যোগ	-11.5911
▁নৌরুটে	-11.5913
▁রশিদের	-11.5913
▁وَ	-11.5914
▁নেমেছেন	-11.5915
▁মিশ্রণ	-11.5918
▁মেনেই	-11.5919
▁ক্যাপ	-11.592
▁থাকব	-11.5922
▁শাহজাদপুর	-11.5925
মিডিয়া	-11.5926
▁শ্রেনীর	-11.5927
▁মিথ্যাচার	-11.5928
▁ইমেইল	-11.5929
▁বিপর্যয়ের	-11.593
▁তৈয়ব	-11.5931
▁পেঁচিয়ে	-11.5932
▁আঙ্গুল	-11.5932
▁ওয়াদুদ	-11.5932
▁Apr	-11.5932
▁সজাগ	-11.5932
▁সংক্রমন	-11.5932
▁বসুরহাট	-11.5932
▁প্রান	-11.5939
▁পোষণ	-11.5939
▁নন্দীগ্রাম	-11.5939
▁প্রান্তিকে	-11.5941
▁নবায়ন	-11.5942
▁৩৭০	-11.5942
▁জগৎ	-11.5944
লান	-11.5947
▁প্রেক্ষাগৃহে	-11.595
▁অভিবাসীদের	-11.5951
▁কারিগর	-11.5954
বিনোদন	-11.5954
ভাঙ্গা	-11.5955
▁কমিশনারের	-11.5956
▁ইন্ডাস্ট্রি	-11.5956
▁শারীরিকভাবে	-11.5957
▁ঘাঁটিতে	-11.5957
▁অনুসারী	-11.5958
ন্ধ	-11.5961
▁সম্পাদন	-11.5963
▁মালদ্বীপের	-11.5964
▁ফ্লোরিডা	-11.5967
বর্তমান	-11.5967
▁অন্ধ	-11.5968
▁রেশ	-11.5969
৭২	-11.5971
ভো	-11.5974
▁বেইজিং	-11.5974
▁বিশুদ্ধ	-11.5976
▁উয়েফা	-11.5976
▁প্রিন্সিপাল	-11.5976
▁সমসাময়িক	-11.5976
▁ঊর্ধ্বমুখী	-11.5976
▁মানহানি	-11.5977
▁সিগন্যাল	-11.5979
▁উপসচিব	-11.5981
▁বলুন	-11.5981
পুল	-11.5982
▁জামাতে	-11.5983
ক্ষেত্রে	-11.5986
▁বিকাশে	-11.5988
▁বাইরেও	-11.5988
▁স্নান	-11.5988
▁বন্ধনে	-11.599
লাভ	-11.5992
ন্ডি	-11.5993
▁সেতুতে	-11.5997
▁মুদ্রায়	-11.5997
▁প্রতিষ্ঠানগুলোর	-11.5997
▁২০০২	-11.5998
▁ঘটলে	-11.5999
▁চৌদ্দগ্রাম	-11.6002
▁আমলা	-11.6003
▁শ্রীলংকার	-11.6007
▁মেরি	-11.6009
▁দিরাই	-11.6009
q	-11.6013
▁পাম্প	-11.6013
▁বেআইনি	-11.6018
▁ব্যাবহার	-11.6021
▁জমকালো	-11.6021
▁শাহাদাৎ	-11.6021
▁দাশগুপ্ত	-11.6021
▁স্থগিতাদেশ	-11.6021
▁পরিবর্তিত	-11.6022
▁ঘুমাতে	-11.6022
কিছু	-11.6024
▁দিলাম	-11.6024
গাছা	-11.6025
শিল্প	-11.6025
▁জাহানারা	-11.6026
নির	-11.6027
রোগ	-11.6031
▁জয়ন্তী	-11.6044
▁জটিলতায়	-11.6044
ঢাবি	-11.6044
▁ঝলক	-11.6045
ব্যা	-11.6045
র্ণ	-11.6046
▁মধ্যপ্রাচ্য	-11.6048
▁টিজার	-11.605
▁মাহির	-11.6053
▁এরিয়া	-11.6055
▁ঘাটাইল	-11.6057
এবার	-11.6057
াচ্ছে	-11.6064
▁সরস্বতী	-11.6066
▁জয়নুল	-11.6066
▁জমজমাট	-11.6066
▁সমাজসেবক	-11.6066
▁বহুদিন	-11.6068
▁উমর	-11.6068
▁ওয়ার	-11.6068
▁প্রদর্শ	-11.6069
▁প্যান	-11.6069
▁যান্ত্রিক	-11.607
▁আত্মবিশ্বাসী	-11.6072
বন্দি	-11.6073
▁ডুমুরিয়া	-11.6073
র্দ	-11.6075
▁কলহের	-11.6077
▁অস্থিতিশীল	-11.6078
▁গোয়ালন্দ	-11.6081
▁পোপ	-11.6081
▁কমিটিকে	-11.6084
বোন	-11.6084
▁বিয়ার	-11.6084
▁পপ	-11.6085
▁ভেন্যু	-11.6087
কলকাতা	-11.609
▁বান	-11.6092
ওয়াল	-11.6094
বক্স	-11.6096
▁চিপ	-11.6097
▁গণপিটুনি	-11.6097
▁মাত্রায়	-11.6098
▁কৌশলগত	-11.61
খাল	-11.61
ইসলাম	-11.6102
▁ট্যাব	-11.6103
▁প্রদর্শনের	-11.6106
▁বাঁকুড়া	-11.6106
▁মুকুট	-11.6108
কাঙ্ক্ষিত	-11.6108
▁পঞ্চায়েতের	-11.6108
▁জৈন	-11.6111
▁bdsaradin	-11.6111
▁অস্বীকৃতি	-11.6111
▁পথিকৃৎ	-11.6111
▁হাতীবান্ধা	-11.6111
▁বেধড়ক	-11.6111
▁খুরশীদ	-11.6111
▁মেমোরিয়াল	-11.6111
অক্সিডেন্ট	-11.6111
গেট	-11.6112
▁কার্বন	-11.6112
▁দণ্ডিত	-11.6114
▁ছাড়লেন	-11.6116
▁বক্সে	-11.6116
▁১০৬	-11.6116
টিও	-11.6117
সমাবেশ	-11.612
▁শিল্পমন্ত্রী	-11.6126
▁শোধ	-11.6126
▁ইরাকে	-11.6128
▁রাজ্জাকের	-11.6128
▁এনেছেন	-11.6129
▁ছড়াতে	-11.6132
৬৯	-11.6133
▁ঈশ্বর	-11.6135
▁আযহা	-11.6138
▁বরগুনায়	-11.6138
▁গিল	-11.6138
▁১৯টি	-11.6145
▁সিজন	-11.6146
নিষেধ	-11.6146
▁কাগজে	-11.6148
▁দাঁড়াবে	-11.615
▁সবুর	-11.6152
মানের	-11.6152
▁সুস্থ্য	-11.6152
▁বড়ো	-11.6152
▁মদের	-11.6153
▁দিলেই	-11.6156
▁ভ্লাদিমির	-11.6157
▁সুবিধার্থে	-11.6157
▁ভীড়	-11.6157
▁ইনভেস্টিগেশন	-11.6157
▁সৌদিতে	-11.6157
▁বিপাশা	-11.6158
▁কালু	-11.616
প্রতিষ্ঠানে	-11.6161
▁লিটনের	-11.6161
▁বললেও	-11.6163
▁ভরপুর	-11.6163
▁স্ট্যান্ড	-11.6164
▁প্রাণীর	-11.6167
▁মুহূর্তেই	-11.6169
▁ভাগে	-11.617
▁প্রেরন	-11.6171
▁ফেরান	-11.6173
▁কর্মকর্তাবৃন্দ	-11.6174
▁শব্দটি	-11.6177
▁উঠলে	-11.6178
▁ফেস	-11.6178
▁কর্মস্থল	-11.6184
ওয়াই	-11.6187
শের	-11.6195
▁কালিহাতী	-11.6196
▁ফিফটি	-11.6197
▁গেছি	-11.6198
▁বেস	-11.62
স্ত্রীর	-11.6201
▁বাঘের	-11.6203
▁রব্বানী	-11.6203
▁পথিমধ্যে	-11.6203
▁ইনডেক্স	-11.6203
▁hours	-11.6203
▁সালাহউদ্দিন	-11.6203
▁সনদপত্র	-11.6204
▁ট্রাস্টি	-11.6206
▁মালাইকা	-11.6206
মিস	-11.6208
▁খেল	-11.6209
▁উঠিয়ে	-11.6209
▁লিপি	-11.6211
▁মিসবাহ	-11.6211
▁বিশ্বব্যাংক	-11.6214
▁মেইন	-11.6218
▁শাহের	-11.622
▁আসমা	-11.6221
▁বাড়িটি	-11.6221
এইচএম	-11.6221
▁ফিরছে	-11.6222
স্তি	-11.6222
৮৮	-11.6224
▁সূ	-11.6224
▁হায়দরাবাদের	-11.6225
নীয়	-11.623
দর	-11.623
▁রেখেছি	-11.6231
▁জানাল	-11.6232
▁পূর্বাঞ্চল	-11.6233
▁উপস্থাপনা	-11.6234
▁শোভা	-11.6234
▁বুড়িচং	-11.6235
যদি	-11.6237
▁নিবেন	-11.6239
▁৩৫০	-11.624
ানন্দ	-11.6242
ভেন	-11.6245
▁দিদার	-11.6248
DAILY	-11.6248
▁Bhorer	-11.6248
▁খাইরুল	-11.6249
▁আসবাবপত্র	-11.6249
▁দুরত্ব	-11.6249
▁মাইনুল	-11.6251
▁ভূমিহীন	-11.6251
▁শিলা	-11.6253
▁English	-11.6253
▁বেলজিয়াম	-11.6263
▁প্রোফাইল	-11.6263
▁বজ্রসহ	-11.6264
▁পাঞ্জাবের	-11.6267
▁দোষীদ	-11.6268
▁সবকিছুই	-11.6271
আউট	-11.6271
▁মুসলমানরা	-11.6271
প্রেস	-11.6272
বিশিষ্ট	-11.6274
▁চালাচ্ছেন	-11.6274
▁ভ্রমণে	-11.6278
▁নিরসন	-11.628
▁চিকিৎসকেরা	-11.628
বাজি	-11.628
▁চুমু	-11.628
▁ফুলে	-11.6281
ছু	-11.6283
▁বিশ্লেষণে	-11.6283
▁১৪৪১	-11.6283
গাড়ি	-11.6284
▁বেগ	-11.6284
জামায়াত	-11.6285
▁জলপাইগুড়ি	-11.6285
▁লাগান	-11.6285
▁আবুধাবি	-11.6289
▁পুঠিয়া	-11.6289
▁বিষয়টিকে	-11.6291
▁মোদিকে	-11.6291
▁এরপরে	-11.6291
দ্ধ	-11.6292
▁Rajshahi	-11.6294
▁খতিব	-11.6294
▁তামান্না	-11.6294
▁যথাসময়ে	-11.6295
▁সেনগুপ্ত	-11.6295
▁জসীম	-11.6295
▁পথচলা	-11.6295
▁করোনামুক্ত	-11.6295
▁দাঁড়ালেন	-11.6297
▁অপসারণের	-11.6299
▁ন্যায়বিচার	-11.63
▁হরিপুর	-11.6301
▁রোগীরা	-11.6302
▁অন্ত	-11.6302
ni	-11.6303
▁নেভা	-11.6308
▁প্রযুক্তিগত	-11.6308
▁কাবুল	-11.6309
▁রাজনীতিক	-11.6309
▁সেলস	-11.631
▁রামেক	-11.6311
▁আবর্জনা	-11.6313
▁একাদশের	-11.6313
ানি	-11.6315
▁প্রতিনিধিদল	-11.6316
▁মোছা	-11.6316
মারি	-11.6316
▁মিন্নি	-11.6316
▁শিক্ষাবিদ	-11.6318
▁এটাও	-11.6319
▁থাইল্যান্ড	-11.632
এপ্রিল	-11.632
▁১টায়	-11.6321
▁জেলেকে	-11.6321
▁মহারাষ্ট্রের	-11.6321
▁বান্ধব	-11.6322
▁নার্সিং	-11.6323
▁আনবে	-11.6327
▁ছাতকে	-11.6329
▁লরি	-11.633
▁পাঁচটা	-11.6332
নামা	-11.6337
৮৫	-11.6338
▁রুটি	-11.6339
▁শিডিউল	-11.6341
▁কন্টেন্ট	-11.6341
▁জুনের	-11.6341
▁শাহাবুদ্দিন	-11.6341
▁বন্যার্ত	-11.6341
▁রোকন	-11.6342
▁ব্যাথা	-11.6344
▁আর্জি	-11.6344
▁ডোজের	-11.6346
▁যমজ	-11.6346
▁দুর্গাপূজা	-11.6347
▁Al	-11.6347
▁দূরপাল্লার	-11.6348
▁সংক্রামক	-11.635
▁কাচ	-11.6352
▁চুনারুঘাট	-11.6358
▁আলোয়	-11.636
▁বাড়লেও	-11.6361
জনক	-11.6361
▁চকবাজার	-11.6362
▁বহুতল	-11.6363
▁ঘটেছিল	-11.6363
টস	-11.6364
newspaper	-11.6367
লির	-11.6369
▁সিএএ	-11.6369
▁তাণ্ডবে	-11.6371
▁বুবলী	-11.6373
▁অপরকে	-11.6374
▁সমুদ্রবন্দর	-11.6377
ne	-11.6378
বন্ধ	-11.638
▁স্মার্টফোনে	-11.6382
▁গণপূর্ত	-11.6385
▁নিঃশর্ত	-11.6387
▁প্রিয়াংকা	-11.6387
▁পোহাতে	-11.6387
▁চৌগাছা	-11.6387
▁আশিকুর	-11.639
▁রিয়েল	-11.6393
▁w	-11.6393
▁লিমন	-11.6394
▁মানুষই	-11.6398
▁জোরে	-11.6399
▁ইন্স্যুরেন্স	-11.6399
▁করতোয়া	-11.6404
▁জ্যাক	-11.6409
▁লাগতে	-11.6411
শেষ	-11.6414
▁অরুণ	-11.6418
▁মানসিকতা	-11.6418
করণের	-11.6418
▁bdnews	-11.6424
▁জাহাজের	-11.6426
▁বিটিভি	-11.6427
ce	-11.6429
▁কাইফ	-11.643
▁একাডেমী	-11.6431
▁চাওয়ার	-11.6432
▁লেডি	-11.6434
▁ড্রেজার	-11.6434
▁ব্যাবসায়ী	-11.6434
ণের	-11.6436
▁মিরসরাই	-11.6439
▁পদত্যাগপত্র	-11.6439
▁দুর্বৃত্তদের	-11.6441
রওয়ানা	-11.6441
▁উপলব্ধি	-11.6442
▁নাগরিকরা	-11.6443
▁কর্মচারীরা	-11.6446
▁সুখের	-11.6446
▁সোর্স	-11.6446
▁করদাতা	-11.6447
▁নেত্রকোণা	-11.6448
▁লং	-11.6449
▁দাবানল	-11.6451
▁১০২	-11.6451
▁থাকাকালীন	-11.6453
▁সেভ	-11.6455
▁গুণী	-11.6457
▁ভেতরের	-11.6457
▁১০০টি	-11.6458
▁টিন	-11.6459
▁তালুকদারের	-11.646
▁দিশা	-11.6462
▁দরবার	-11.6463
▁ঘড়ি	-11.6463
পর্ব	-11.6471
▁সেভেন	-11.6472
▁তিনদিনের	-11.6474
▁কাজগুলো	-11.6474
▁রিমান্ডের	-11.6475
িপ	-11.6479
▁জগত	-11.648
মতি	-11.648
▁ঋষি	-11.6481
▁ক্যান্টনমেন্ট	-11.6481
▁রমেশ	-11.6481
▁কালকিনি	-11.6481
▁পেশাজীবী	-11.6481
▁ক্রেস্ট	-11.6481
▁লাইনচ্যুত	-11.6481
▁says	-11.6481
▁আকৃষ্ট	-11.6482
▁দক্ষিণবঙ্গ	-11.6482
▁প্রয়াস	-11.6482
▁ভোটাররা	-11.6483
▁ঝিকরগাছা	-11.6484
▁বাতি	-11.6488
▁খেলাধূলা	-11.6488
▁গোল্ড	-11.6489
▁হিলারি	-11.649
▁রাখলেন	-11.649
▁ডজন	-11.649
গ্রামের	-11.6491
▁তত্ত্ব	-11.6492
▁কাঁটা	-11.6493
য়ি	-11.6493
▁কালিগঞ্জ	-11.6493
▁মাইন	-11.6493
▁কান্নায়	-11.6494
▁বহুবার	-11.6495
▁নাসা	-11.6497
▁আলমগীরের	-11.6498
▁পর্ন	-11.65
▁ঘা	-11.6502
▁তালে	-11.6502
▁কিশোরগঞ্জে	-11.6502
▁দারিদ্র্য	-11.6503
▁নল	-11.6509
▁কেস	-11.6509
▁হাঁস	-11.6511
▁v	-11.6514
▁সরাইল	-11.6514
▁মঞ্চের	-11.6514
▁মানিয়ে	-11.6517
ঈদ	-11.6517
▁২শ	-11.6517
▁পেইজ	-11.6518
▁ভদ্র	-11.6521
প্রাণ	-11.6528
▁চীফ	-11.6528
▁ড্যানিয়েল	-11.6528
▁অপচেষ্টা	-11.6528
▁গয়না	-11.6528
▁রযাংকিংয়ে	-11.6528
▁গলাকাটা	-11.6529
▁কার্	-11.6529
▁অধ্যুষিত	-11.6531
▁তি	-11.6531
▁কাঁচামাল	-11.6532
জিয়া	-11.6532
লিশ	-11.6535
ঘরে	-11.6536
▁বুঝি	-11.6538
▁কার্যকলাপ	-11.6538
▁সুষ্ঠুভাবে	-11.6539
▁গড়েছেন	-11.6542
▁সত্যের	-11.6545
বর্ণ	-11.6545
▁শামস	-11.6547
▁জনজীবন	-11.6548
▁রাজার	-11.6549
▁কুমারের	-11.6552
▁হজের	-11.6553
▁বসতি	-11.6554
▁অনুপম	-11.6555
▁বজলুর	-11.6555
▁মাগুরার	-11.6558
▁ঋতু	-11.656
্ড	-11.6561
▁দম	-11.6562
শিয়া	-11.6564
ফু	-11.6566
▁রাঙ্গুনিয়া	-11.6569
▁সমকাল	-11.6569
▁Alo	-11.6572
▁অনুদানের	-11.6573
▁প্রতিযোগীতা	-11.6575
▁দুঃসংবাদ	-11.6576
▁ভগবান	-11.6576
▁হিন্দুস্তান	-11.6576
▁লাগাতার	-11.6577
▁সামগ্রীর	-11.6578
▁শহীদুল্লাহ	-11.6579
▁আদিত্য	-11.6579
প্রায়	-11.658
▁সুরকার	-11.6581
▁জনই	-11.6584
▁লক্ষীপুর	-11.6584
▁কিংসের	-11.6586
▁সুজিত	-11.6588
রাজনীতি	-11.6589
ang	-11.659
▁নোটিশে	-11.6591
▁সচিবের	-11.6591
▁সুদের	-11.6593
লোক	-11.6594
▁প্রাদুর্ভাবের	-11.6594
▁প্রত্যেকেই	-11.6596
▁মতই	-11.6597
▁শায়েস্তাগঞ্জ	-11.6597
▁সুশাসন	-11.6597
▁জানাবে	-11.66
▁কর্মসংস্থানের	-11.6601
▁বিরতিতে	-11.6602
মূল	-11.6602
যশোর	-11.6604
▁আইনজীবীর	-11.6605
▁শিগগির	-11.6606
▁দাও	-11.661
▁লস্কর	-11.6611
▁ajker	-11.6613
▁ডলারে	-11.6614
বর্তী	-11.6617
▁অস্ট্রিয়া	-11.6623
▁প্রিমিয়াম	-11.6623
▁পূর্বধলা	-11.6623
▁জাভেদ	-11.6623
▁পাথরঘাটা	-11.6623
▁পার্বতীপুর	-11.6626
▁সানজিদা	-11.6627
▁পরনে	-11.6627
▁সুখে	-11.6629
▁জ্যোতি	-11.6629
▁ধ্রুব	-11.6631
▁যাত্রায়	-11.6631
▁বিদ্যুৎকেন্দ্র	-11.6632
টক	-11.6632
▁বাল্যবিয়ে	-11.6633
ত্যা	-11.6634
▁মাদার	-11.6638
J	-11.6639
গ্রহণ	-11.6639
▁সমীক্ষায়	-11.6641
▁দূরের	-11.6641
▁অসুখ	-11.6643
▁ধর্মঘটের	-11.6645
▁দাতা	-11.6649
▁শঙ্কায়	-11.6649
▁পদ্মায়	-11.6649
মুলক	-11.665
উদ্দীন	-11.6651
▁তুরস্কে	-11.6653
খালেদা	-11.6654
▁নীলফামারীতে	-11.6654
▁নিউজিল্যান্ডে	-11.6655
no	-11.6656
▁শেষবার	-11.6656
ম্বা	-11.6656
▁দুনিয়ার	-11.6656
able	-11.6657
▁সংখ্যার	-11.6658
▁বাঁশের	-11.6658
▁সৌদির	-11.666
▁দোকানদার	-11.6662
▁যৌক্তিক	-11.6666
▁প্রবেশে	-11.6669
▁Version	-11.6671
▁কোলেস্টেরল	-11.6671
▁পাটওয়ারী	-11.6671
▁বহিষ্কৃত	-11.6671
▁ওয়েলফেয়ার	-11.6671
▁চিন্তাভাবনা	-11.6671
৯৫	-11.6673
▁সরফরাজ	-11.6674
▁প্রতিযোগী	-11.6674
▁হাজীগঞ্জ	-11.6674
▁নেপথ্যে	-11.6676
▁গেলেই	-11.6679
▁ফাইন্যান্স	-11.6685
▁চেতনায়	-11.6686
▁স্থির	-11.6687
▁বিপিএম	-11.6688
▁পাথরের	-11.6689
▁কাঁঠাল	-11.6691
▁মফিজ	-11.6693
▁মোমিন	-11.6693
▁মানায়	-11.6694
সোনা	-11.6694
▁কামড়	-11.6694
▁মেরামতের	-11.6695
▁শিবচর	-11.6696
rd	-11.6696
৯৬	-11.6698
সম্মান	-11.6699
▁তহবিলে	-11.6699
ডিসেম্বর	-11.67
অভিনেত্রী	-11.6701
নদী	-11.6703
▁উপত্যকা	-11.6708
▁ফুটবলারদের	-11.6708
▁নায়েক	-11.6712
▁বেড়াচ্ছে	-11.6713
▁গুল	-11.6715
▁নিঃসন্দেহে	-11.6719
▁নিরীহ	-11.6719
▁অগ্রিম	-11.6719
▁ফৌজদারি	-11.672
▁বিওপি	-11.6721
▁ভাঙ্গুড়া	-11.6724
▁রেখেছিল	-11.6724
▁সিন	-11.6725
▁গিয়েছিলাম	-11.6727
▁কক্ষের	-11.6728
▁ততদিন	-11.6729
ve	-11.6729
▁সহকারে	-11.673
▁জিহাদ	-11.673
▁নিচু	-11.6731
▁বাঁচার	-11.6733
▁দাবা	-11.6734
জুর	-11.6736
▁কয়েকদিনের	-11.6736
▁আদলে	-11.6739
▁সিলেবাস	-11.6739
▁কষ্টে	-11.6739
▁পেরেরা	-11.674
▁X	-11.6743
▁মাও	-11.6743
▁ব্যক্তিগতভাবে	-11.6744
▁নবজাতকের	-11.6745
যু	-11.6746
▁চিনা	-11.6746
▁কিছুর	-11.6748
▁এডিস	-11.675
▁সিদ্ধিরগঞ্জ	-11.6758
▁সতর্কবার্তা	-11.676
সকল	-11.676
বদ্ধ	-11.6761
▁গ্রামীণফোনের	-11.6764
▁সরদারের	-11.6764
▁স্লোগানে	-11.6765
▁পলিথিন	-11.6766
▁লাগলে	-11.6767
▁বাজারজাত	-11.6767
▁উপাধ্যক্ষ	-11.6767
▁শিখর	-11.6768
▁ফিল্ডিং	-11.6768
পাশে	-11.677
▁গুদামে	-11.6771
দীপ	-11.6771
▁ব্রড	-11.6772
▁উইল	-11.6774
▁মেকআপ	-11.6775
▁শীতল	-11.6775
▁বেগুন	-11.6778
▁বাঁচানোর	-11.678
ill	-11.6781
▁সাংবাদিককে	-11.6781
▁ব্যাচ	-11.6782
▁মুম্বাইয়ে	-11.6783
▁কেনো	-11.6783
▁নিলো	-11.6785
▁মোহামেডান	-11.6786
▁গন্তব্য	-11.6789
ভেল	-11.6789
সং	-11.6789
▁পুরোটাই	-11.6791
▁সিরাজদিখান	-11.6791
▁চিনে	-11.6791
▁রাস্তাঘাট	-11.6792
▁রিটে	-11.6792
▁টানেল	-11.6793
▁রহিমা	-11.6795
▁বিজ্ঞপ্তির	-11.6795
▁প্রতীকী	-11.6797
ছেলে	-11.6797
বিএসএমএমইউ	-11.6798
▁লাফ	-11.6798
▁শুভশ্রী	-11.6798
পরীক্ষা	-11.6799
▁যুদ্ধাপরাধী	-11.6802
হাম	-11.6804
▁ডিএসসিসি	-11.6807
▁বলল	-11.681
ন্তি	-11.6811
▁রোহিঙ্গাকে	-11.6811
যাত্রা	-11.6811
▁ড্রাম	-11.6813
▁করিনা	-11.6814
বোঝাই	-11.6814
▁সেবনের	-11.6815
▁তাৎপর্য	-11.6816
▁সেক্রেটারী	-11.6816
▁জিতেছিল	-11.6819
▁মেজবাহ	-11.6819
▁বসবাসকারী	-11.6819
▁পুরানো	-11.6822
৬৩	-11.6823
▁বিবাদী	-11.6825
▁গ্রীন	-11.6827
▁মাহিয়া	-11.6827
▁সংগঠিত	-11.6827
ن	-11.6827
টিভ	-11.6828
▁আলুর	-11.6828
▁ফিরলে	-11.6831
▁চক্রান্ত	-11.6832
▁পেনশন	-11.6832
▁টেলিফোনে	-11.6833
▁পকেটে	-11.6834
▁উপনির্বাচন	-11.6834
▁সেকেন্ডের	-11.684
▁ইন্ডাস্ট্রিতে	-11.6841
▁Express	-11.6841
▁বায়ো	-11.6841
bangladesh	-11.6842
▁ফুসফুস	-11.6845
▁জয়পুরহাটে	-11.6845
▁ফজল	-11.6846
▁পরিয়ে	-11.6849
▁সমীর	-11.6851
▁ড্রেন	-11.6851
ন্টি	-11.6855
▁ফেলছে	-11.6859
▁ফাইভ	-11.686
view	-11.6861
▁হ্যারি	-11.6862
▁শিক্ষাঙ্গন	-11.6862
▁১০৭	-11.6864
▁বাংলাদেশিকে	-11.6864
▁গয়েশ্বর	-11.6865
▁জাটকা	-11.6865
▁মহসীন	-11.6865
▁সীমান্তরক্ষী	-11.6865
▁তেলাওয়াত	-11.6865
▁ফাজিল	-11.6865
▁এনার্জি	-11.6865
▁পুত্রবধূ	-11.6865
▁চর্বি	-11.6865
▁বিধিমালা	-11.6865
▁প্রদানে	-11.6867
▁ছিঁড়ে	-11.6868
▁পেকুয়া	-11.6869
▁উইমেন	-11.687
▁পোস্টটি	-11.6872
▁বিসর্জন	-11.6872
▁সামিট	-11.6875
▁দূতাবাসে	-11.6875
▁শান্তিপূর্ণভাবে	-11.6879
▁বরাদ্দের	-11.6881
▁জিয়ারত	-11.6881
▁ডোমার	-11.6883
▁৯০০	-11.6883
▁বিদ্রোহীদের	-11.6889
চীন	-11.689
▁আয়ু	-11.6892
▁অডিটোরিয়ামে	-11.6893
▁কুসুম	-11.6894
▁মাহমুদা	-11.6896
▁পকেট	-11.6897
▁বাফুফে	-11.6897
▁ইউনিটির	-11.6899
▁রাইড	-11.69
▁অস্কার	-11.6902
▁এমপিও	-11.6903
৯৮	-11.6903
▁আয়ারল্যান্ডের	-11.6904
▁যাত্রাবাড়ী	-11.6905
হাতি	-11.6905
▁মণ	-11.6905
▁চরে	-11.6905
▁ক্যারিবিয়ান	-11.6905
▁গ্রামবাসীর	-11.6906
▁সড়কটি	-11.691
▁দাঙ্গা	-11.6911
▁দ্বীন	-11.6911
▁ফাঁদ	-11.6912
▁তখনও	-11.6913
▁উরুগুয়ে	-11.6914
▁অগ্নিদগ্ধ	-11.6914
▁Pabna	-11.6914
▁ভুট্টা	-11.6914
▁বোয়িং	-11.6914
▁কান্ট্রি	-11.6914
▁বর্ষীয়া	-11.6915
▁শীতকালীন	-11.6915
▁যতটুকু	-11.6916
▁খুশির	-11.6916
▁অদূরে	-11.6916
▁জীবন্ত	-11.6917
▁উচ্চতর	-11.6918
▁পৃষ্ঠা	-11.6921
পোল	-11.6922
▁সুমনের	-11.6924
▁উপত্যকায়	-11.6925
▁এগুলোর	-11.6926
▁১৬ই	-11.6928
▁কাজও	-11.693
▁দিয়েও	-11.6931
কির	-11.6932
▁এমপিওভুক্ত	-11.6933
▁স্ট্রাইক	-11.6934
▁১১২	-11.6935
নীর	-11.6936
ান্ত	-11.6937
▁শামীমা	-11.6937
▁পিটার	-11.6938
▁মহানগরের	-11.6941
▁কিরণ	-11.6941
▁রামপাল	-11.6942
▁সিস্টেমের	-11.6943
▁ভিআইপি	-11.6945
▁ক্যান্সারে	-11.6945
মূল্য	-11.6947
য়ন	-11.695
▁রিসোর্ট	-11.695
▁ব্রিফিং	-11.6953
▁গোলা	-11.6954
▁স্বস্তির	-11.6958
▁টায়ার	-11.696
▁অপরিহার্য	-11.6963
▁থামাতে	-11.6963
▁লাঞ্ছিত	-11.6963
▁Aug	-11.6963
▁ইন্দিরা	-11.6963
▁হাসেম	-11.6963
▁পিএইচডি	-11.6963
হল	-11.6964
▁ভুঁইয়া	-11.6964
▁ছাপা	-11.6965
▁পদ্মার	-11.6968
ধন	-11.6969
▁টাওয়ারে	-11.6972
▁ত্রিশ	-11.6972
▁ইউক্রেনে	-11.6973
▁মানচিত্র	-11.6974
▁দিদি	-11.6975
▁ভিকি	-11.6975
▁SYLHET	-11.6976
▁ছোটবেলা	-11.6976
▁লিচু	-11.6977
▁পিটিআই	-11.6978
▁মারেন	-11.6978
▁গুলোর	-11.6979
▁views	-11.698
আলম	-11.698
ate	-11.698
▁দুর্ভোগে	-11.698
▁খাট	-11.6988
▁বহিরাগত	-11.6989
▁নামটি	-11.6989
▁প্রবাসে	-11.6989
▁মিঃ	-11.6989
যাপন	-11.699
শ্রমিক	-11.6991
▁অনুকূলে	-11.6991
▁চকরিয়ায়	-11.6993
▁নয়টি	-11.6993
▁খেলাপি	-11.6995
▁মহিষ	-11.6997
▁সম্প্রীতির	-11.6999
তাম	-11.6999
▁মিশনের	-11.7003
▁৪০টি	-11.7005
শিপ	-11.7006
▁এসকে	-11.7007
▁রাখাইনে	-11.7008
▁ঘু	-11.701
দিনে	-11.7011
▁জুলফিকার	-11.7012
▁রাতারাতি	-11.7012
▁অভিজিৎ	-11.7013
▁শুনলে	-11.7013
▁শিল্পপতি	-11.7014
▁গ্যা	-11.7015
▁২২টি	-11.7017
▁সনি	-11.7017
রুম	-11.7018
▁১৯৯০	-11.702
▁শনি	-11.7021
ুরিয়া	-11.7023
▁ঘাটের	-11.7023
▁জরিমানার	-11.7024
▁কুমারখালী	-11.7025
▁পার্লামেন্টের	-11.7026
জিডি	-11.7027
▁উচ্চতায়	-11.7036
রকম	-11.7037
মুল	-11.7045
▁বিনয়	-11.7047
▁মরা	-11.7049
টিং	-11.7052
▁গৃহবধুর	-11.7052
জিৎ	-11.7053
▁কানাইঘাট	-11.7055
▁দুর্ঘটনাটি	-11.7056
মোঃ	-11.7058
▁অক্সিজেনের	-11.7059
▁আন্তরিকতা	-11.7059
প্রচার	-11.7061
▁সেটার	-11.7061
▁দৃষ্টিনন্দন	-11.7062
▁হার্দিক	-11.7062
▁ক্রমবর্ধমান	-11.7062
▁কৌশিক	-11.7062
▁আসুক	-11.7062
▁শিবলী	-11.7063
▁চাষী	-11.7064
▁গঙ্গা	-11.7064
▁গলার	-11.7065
▁ইঞ্জিনিয়ার্স	-11.7065
▁ভাঙতে	-11.7067
▁মহিবুল	-11.7069
▁সেমাই	-11.7071
র্ব	-11.7073
▁পরিকল্পনায়	-11.7075
▁এনবিআর	-11.7075
র্স	-11.7077
▁ময়দান	-11.7079
▁খোকা	-11.708
▁দিনগুলোতে	-11.708
াবে	-11.7084
▁নুরু	-11.7085
▁বিস্ময়	-11.7087
▁দুর্যোগের	-11.7088
গর	-11.7088
রিন	-11.7089
বাহিনী	-11.709
▁ইম	-11.709
▁ধ্বংসের	-11.7091
▁প্রমান	-11.7093
রাবি	-11.7094
▁প্রিয়াঙ্কার	-11.7095
▁লেন্স	-11.7096
বার্গ	-11.7097
▁বানু	-11.7098
ক্তি	-11.7098
▁পরম	-11.71
▁পায়েল	-11.71
▁অ্যাপলের	-11.71
সরকারি	-11.7102
▁সাতকানিয়া	-11.7102
▁গ্রেফতারে	-11.7106
মেলা	-11.7106
▁আটা	-11.711
▁মাল্টি	-11.711
▁ক্যান	-11.7111
▁২০শে	-11.7111
▁Narayanganj	-11.7112
▁হৃদযন্ত্র	-11.7112
▁ফ্লাইওভার	-11.7112
▁মানসম্মত	-11.7113
▁শিহাব	-11.7113
▁জুতো	-11.7114
▁কয়েকজনের	-11.7115
▁লৌহজং	-11.7116
▁শাবনূর	-11.7118
▁কিন্ত	-11.7119
َّ	-11.7121
অন	-11.7121
▁টাকাসহ	-11.7122
▁কোর্সের	-11.7122
মির	-11.7124
▁ডাক্তারি	-11.7126
▁ভাবি	-11.7128
▁প্রতিবেদনের	-11.7128
ment	-11.7129
▁এফএম	-11.7134
▁শ্রোতাদের	-11.7134
▁নাজির	-11.7134
▁জনিত	-11.7136
ঘাটা	-11.7137
▁ইসলামসহ	-11.714
▁পাশা	-11.714
lo	-11.7144
ংক	-11.7147
সাবেক	-11.7147
▁An	-11.7147
▁সুইডেন	-11.715
▁মুক্তার	-11.7151
▁ইহুদি	-11.7154
কোন	-11.7155
▁নিয়োগে	-11.7156
▁মেশিনের	-11.7156
▁Ctg	-11.7162
▁ব্যাডমিন্টন	-11.7162
▁গুণগ্রাহী	-11.7163
▁গতিবেগ	-11.7163
▁নু	-11.7163
▁বিস্ময়কর	-11.7163
▁কাউখালী	-11.7163
▁মার্শাল	-11.7164
▁সিফাত	-11.7164
▁প্রদর্শনীর	-11.7165
▁ডায়েট	-11.7166
▁হেয়ার	-11.7166
কোট	-11.7167
▁আশীর্বাদ	-11.7167
▁Uncategorized	-11.7168
▁নীড়	-11.7171
▁গুড়	-11.7174
▁নেওয়ায়	-11.7175
▁বদর	-11.7176
র্ত	-11.7177
▁বিআইডব্লিউটিএ	-11.7177
▁কালবৈশাখী	-11.7178
▁কাবা	-11.7178
ঞ্জা	-11.7182
▁হৃদয়ের	-11.7182
▁বইটির	-11.7184
▁আশুলিয়ায়	-11.7184
▁সানী	-11.7184
▁বিডিনিউজ	-11.7184
▁প্রেরণা	-11.7186
▁উদ্বেগের	-11.7186
▁স্বাগতিকদের	-11.7187
▁রেললাইন	-11.7188
▁হাইকমিশন	-11.7189
▁আমিনের	-11.719
di	-11.7196
▁রোদ	-11.7199
▁গান্ধীর	-11.7199
▁উদ্ধোধন	-11.7205
▁আলোড়ন	-11.7213
▁ভয়ানক	-11.7213
▁নলছিটি	-11.7213
▁ব্রহ্মপুত্র	-11.7213
▁ভুটান	-11.7215
▁ভিভো	-11.7216
৫০০	-11.7217
▁National	-11.7217
▁ভাসানী	-11.7218
▁শতবর্ষ	-11.7219
▁আবহাওয়াবিদ	-11.7222
▁খে	-11.7224
▁বকশীগঞ্জ	-11.7226
▁lead	-11.7228
▁নখ	-11.723
▁ভোটারের	-11.723
▁সহযোগীতায়	-11.723
▁মুসল্লিরা	-11.7231
▁রত্না	-11.7231
▁অনুশীলনের	-11.7232
▁লীগকে	-11.7233
চক	-11.7234
▁থ	-11.7237
▁কিডনির	-11.7238
▁আসলেও	-11.7238
▁ব্রি	-11.7243
▁ক্রাইস্টচার্চে	-11.7245
▁গবেষকদের	-11.7246
▁১৯৯৯	-11.7247
▁শিল্পে	-11.725
▁পেস্ট	-11.725
বিপিএল	-11.7251
ag	-11.7252
sangbad	-11.7253
▁ব্যাপারটি	-11.7254
▁পাঁচবার	-11.7254
▁ভ্যানের	-11.7256
▁জওয়ান	-11.7257
▁নকলা	-11.7257
▁সেরাম	-11.726
▁বিএসইসি	-11.7262
▁নোংরা	-11.7262
▁first	-11.7264
▁উজ্জীবিত	-11.7264
▁টুর্ণামেন্ট	-11.7264
▁পড়াশুনা	-11.7264
▁অবশিষ্ট	-11.7264
▁that	-11.7264
▁বাবুনগরী	-11.7264
▁ইহুদিবাদী	-11.7264
▁উচ্চমাধ্যমিক	-11.7264
▁বরেন্দ্র	-11.7264
▁মালবাহী	-11.7265
▁হাতছাড়া	-11.7265
▁সরওয়ার	-11.7267
▁ইয়ুথ	-11.7267
▁সম্মানে	-11.7269
▁উপড়ে	-11.727
▁উদযাপনে	-11.727
▁সিন্ধু	-11.727
▁কোট	-11.7272
ه	-11.7274
▁সাহেবের	-11.7275
▁রিয়াদের	-11.7277
▁অভিনেত্রীকে	-11.7278
৬৭	-11.7278
৮৯	-11.7281
▁আইইডিসিআর	-11.7282
▁গতবারের	-11.7284
▁নিম্নচাপ	-11.7287
২০১৬	-11.7288
▁ক্লান্তি	-11.7289
▁গার্ডেন	-11.7291
▁প্রতিমন্ত্রীর	-11.7294
▁পদ্ম	-11.7303
▁সম্পত্তির	-11.7307
▁পাহারা	-11.7307
▁হকার	-11.7307
িমা	-11.7312
৯৭	-11.7313
্বা	-11.7313
▁অবহেলিত	-11.7315
▁বাঘাইছড়ি	-11.7315
▁গেরুয়া	-11.7315
▁বার্ধক্যজনিত	-11.7315
▁বিদেহী	-11.7315
▁শ্রীলেখা	-11.7315
▁পরীমনির	-11.7315
▁অভিমত	-11.7315
▁দূর্যোগ	-11.7316
▁উদ্ধারকারী	-11.7317
▁দশটা	-11.7318
▁বিকল	-11.732
▁জীবনী	-11.7321
▁হলিউডের	-11.7323
▁ধারাবাহিকভাবে	-11.7324
▁উদ্ভাবনী	-11.7324
▁কলম্বিয়া	-11.7325
[...]
