<unk>	0
<s>	0
</s>	0
<pad>	0
<|user|>	0
<|assistant|>	0
<|end|>	0
<|system|>	0
<|pad|>	0
<|sep|>	0
<|cls|>	0
<|mask|>	0
<0x00>	0
<0x01>	0
<0x02>	0
<0x03>	0
<0x04>	0
<0x05>	0
<0x06>	0
<0x07>	0
<0x08>	0
<0x09>	0
<0x0A>	0
<0x0B>	0
<0x0C>	0
<0x0D>	0
<0x0E>	0
<0x0F>	0
<0x10>	0
<0x11>	0
<0x12>	0
<0x13>	0
<0x14>	0
<0x15>	0
<0x16>	0
<0x17>	0
<0x18>	0
<0x19>	0
<0x1A>	0
<0x1B>	0
<0x1C>	0
<0x1D>	0
<0x1E>	0
<0x1F>	0
<0x20>	0
<0x21>	0
<0x22>	0
<0x23>	0
<0x24>	0
<0x25>	0
<0x26>	0
<0x27>	0
<0x28>	0
<0x29>	0
<0x2A>	0
<0x2B>	0
<0x2C>	0
<0x2D>	0
<0x2E>	0
<0x2F>	0
<0x30>	0
<0x31>	0
<0x32>	0
<0x33>	0
<0x34>	0
<0x35>	0
<0x36>	0
<0x37>	0
<0x38>	0
<0x39>	0
<0x3A>	0
<0x3B>	0
<0x3C>	0
<0x3D>	0
<0x3E>	0
<0x3F>	0
<0x40>	0
<0x41>	0
<0x42>	0
<0x43>	0
<0x44>	0
<0x45>	0
<0x46>	0
<0x47>	0
<0x48>	0
<0x49>	0
<0x4A>	0
<0x4B>	0
<0x4C>	0
<0x4D>	0
<0x4E>	0
<0x4F>	0
<0x50>	0
<0x51>	0
<0x52>	0
<0x53>	0
<0x54>	0
<0x55>	0
<0x56>	0
<0x57>	0
<0x58>	0
<0x59>	0
<0x5A>	0
<0x5B>	0
<0x5C>	0
<0x5D>	0
<0x5E>	0
<0x5F>	0
<0x60>	0
<0x61>	0
<0x62>	0
<0x63>	0
<0x64>	0
<0x65>	0
<0x66>	0
<0x67>	0
<0x68>	0
<0x69>	0
<0x6A>	0
<0x6B>	0
<0x6C>	0
<0x6D>	0
<0x6E>	0
<0x6F>	0
<0x70>	0
<0x71>	0
<0x72>	0
<0x73>	0
<0x74>	0
<0x75>	0
<0x76>	0
<0x77>	0
<0x78>	0
<0x79>	0
<0x7A>	0
<0x7B>	0
<0x7C>	0
<0x7D>	0
<0x7E>	0
<0x7F>	0
<0x80>	0
<0x81>	0
<0x82>	0
<0x83>	0
<0x84>	0
<0x85>	0
<0x86>	0
<0x87>	0
<0x88>	0
<0x89>	0
<0x8A>	0
<0x8B>	0
<0x8C>	0
<0x8D>	0
<0x8E>	0
<0x8F>	0
<0x90>	0
<0x91>	0
<0x92>	0
<0x93>	0
<0x94>	0
<0x95>	0
<0x96>	0
<0x97>	0
<0x98>	0
<0x99>	0
<0x9A>	0
<0x9B>	0
<0x9C>	0
<0x9D>	0
<0x9E>	0
<0x9F>	0
<0xA0>	0
<0xA1>	0
<0xA2>	0
<0xA3>	0
<0xA4>	0
<0xA5>	0
<0xA6>	0
<0xA7>	0
<0xA8>	0
<0xA9>	0
<0xAA>	0
<0xAB>	0
<0xAC>	0
<0xAD>	0
<0xAE>	0
<0xAF>	0
<0xB0>	0
<0xB1>	0
<0xB2>	0
<0xB3>	0
<0xB4>	0
<0xB5>	0
<0xB6>	0
<0xB7>	0
<0xB8>	0
<0xB9>	0
<0xBA>	0
<0xBB>	0
<0xBC>	0
<0xBD>	0
<0xBE>	0
<0xBF>	0
<0xC0>	0
<0xC1>	0
<0xC2>	0
<0xC3>	0
<0xC4>	0
<0xC5>	0
<0xC6>	0
<0xC7>	0
<0xC8>	0
<0xC9>	0
<0xCA>	0
<0xCB>	0
<0xCC>	0
<0xCD>	0
<0xCE>	0
<0xCF>	0
<0xD0>	0
<0xD1>	0
<0xD2>	0
<0xD3>	0
<0xD4>	0
<0xD5>	0
<0xD6>	0
<0xD7>	0
<0xD8>	0
<0xD9>	0
<0xDA>	0
<0xDB>	0
<0xDC>	0
<0xDD>	0
<0xDE>	0
<0xDF>	0
<0xE0>	0
<0xE1>	0
<0xE2>	0
<0xE3>	0
<0xE4>	0
<0xE5>	0
<0xE6>	0
<0xE7>	0
<0xE8>	0
<0xE9>	0
<0xEA>	0
<0xEB>	0
<0xEC>	0
<0xED>	0
<0xEE>	0
<0xEF>	0
<0xF0>	0
<0xF1>	0
<0xF2>	0
<0xF3>	0
<0xF4>	0
<0xF5>	0
<0xF6>	0
<0xF7>	0
<0xF8>	0
<0xF9>	0
<0xFA>	0
<0xFB>	0
<0xFC>	0
<0xFD>	0
<0xFE>	0
<0xFF>	0
▁t	-0
▁a	-1
he	-2
in	-3
ার	-4
re	-5
▁স	-6
▁ক	-7
on	-8
▁ব	-9
▁the	-10
ের	-11
▁প	-12
er	-13
্র	-14
▁s	-15
at	-16
▁o	-17
ান	-18
en	-19
▁c	-20
্য	-21
es	-22
▁ম	-23
▁w	-24
is	-25
nd	-26
▁আ	-27
or	-28
it	-29
▁এ	-30
▁p	-31
al	-32
▁হ	-33
▁f	-34
an	-35
▁b	-36
ed	-37
▁ন	-38
▁of	-39
ar	-40
ing	-41
▁in	-42
ou	-43
▁দ	-44
্ত	-45
▁m	-46
▁কর	-47
েন	-48
ic	-49
▁and	-50
▁to	-51
য়ে	-52
▁জ	-53
▁d	-54
ion	-55
▁অ	-56
▁ত	-57
ro	-58
le	-59
লা	-60
িক	-61
as	-62
িন	-63
▁প্র	-64
াল	-65
ent	-66
ায়	-67
▁র	-68
▁h	-69
▁th	-70
▁শ	-71
ছে	-72
ির	-73
াম	-74
il	-75
কে	-76
্ব	-77
ct	-78
▁T	-79
িত	-80
om	-81
▁e	-82
▁re	-83
▁গ	-84
ve	-85
▁l	-86
্ট	-87
st	-88
▁n	-89
▁চ	-90
▁বি	-91
লে	-92
াস	-93
াত	-94
বে	-95
ুর	-96
▁ও	-97
▁A	-98
▁উ	-99
ly	-100
et	-101
▁is	-102
ol	-103
▁য	-104
▁S	-105
টি	-106
▁g	-107
se	-108
্ষ	-109
id	-110
ation	-111
▁be	-112
াদ	-113
িয়ে	-114
াক	-115
▁পর	-116
াজ	-117
im	-118
▁C	-119
ra	-120
ch	-121
▁(	-122
▁ভ	-123
ur	-124
ut	-125
ুল	-126
ow	-127
ce	-128
ot	-129
্থ	-130
▁I	-131
ig	-132
▁for	-133
াই	-134
▁on	-135
েশ	-136
▁থ	-137
▁u	-138
▁st	-139
▁The	-140
তে	-141
▁করে	-142
▁y	-143
ver	-144
তি	-145
িল	-146
▁that	-147
ay	-148
িয়	-149
ir	-150
বার	-151
▁ই	-152
▁২	-153
ন্	-154
▁এক	-155
▁সম	-156
ul	-157
am	-158
▁M	-159
▁P	-160
▁ফ	-161
▁বা	-162
ad	-163
্যা	-164
el	-165
▁১	-166
▁are	-167
her	-168
▁pro	-169
ith	-170
র্	-171
▁B	-172
▁as	-173
▁হয়ে	-174
ন্ত	-175
▁an	-176
▁খ	-177
্প	-178
▁or	-179
th	-180
▁you	-181
াহ	-182
▁con	-183
▁with	-184
ঙ্	-185
▁-	-186
ছেন	-187
od	-188
if	-189
ter	-190
না	-191
েল	-192
▁ছ	-193
িস	-194
▁H	-195
ge	-196
াব	-197
▁wh	-198
op	-199
▁it	-200
▁W	-201
ment	-202
ীর	-203
▁D	-204
ক্ষ	-205
▁al	-206
্ম	-207
ts	-208
▁জন	-209
িশ	-210
▁ট	-211
াপ	-212
ate	-213
েকে	-214
দের	-215
ওয়	-216
ill	-217
▁জান	-218
ঙ্গ	-219
▁অন	-220
▁N	-221
ies	-222
ore	-223
ers	-224
▁ড	-225
ab	-226
▁he	-227
▁de	-228
▁থেকে	-229
ect	-230
▁ঘ	-231
um	-232
কার	-233
▁F	-234
▁E	-235
us	-236
ew	-237
দ্	-238
▁ex	-239
rom	-240
▁সং	-241
▁R	-242
▁com	-243
▁উপ	-244
োগ	-245
ess	-246
est	-247
ac	-248
ure	-249
▁by	-250
▁দে	-251
▁at	-252
▁ha	-253
os	-254
ud	-255
ist	-256
ity	-257
ক্ত	-258
▁we	-259
ke	-260
ive	-261
▁ল	-262
▁v	-263
নের	-264
igh	-265
িনি	-266
নে	-267
ld	-268
রা	-269
▁from	-270
▁su	-271
▁তার	-272
িতে	-273
em	-274
▁L	-275
ধ্য	-276
▁ch	-277
▁সে	-278
▁নি	-279
চ্	-280
▁হয়	-281
iv	-282
▁can	-283
qu	-284
ain	-285
োর	-286
ুন	-287
ci	-288
াশ	-289
▁২০	-290
ীয়	-291
▁করা	-292
▁হয়েছে	-293
un	-294
▁r	-295
and	-296
ার্	-297
pp	-298
▁সা	-299
▁আম	-300
▁G	-301
বি	-302
▁না	-303
▁এই	-304
▁se	-305
দেশ	-306
▁মো	-307
ren	-308
স্থ	-309
res	-310
োন	-311
▁ধ	-312
মান	-313
og	-314
▁আর	-315
দ্ধ	-316
▁O	-317
▁was	-318
▁পরি	-319
ort	-320
ical	-321
ear	-322
▁বল	-323
▁নে	-324
▁sp	-325
ant	-326
▁have	-327
▁le	-328
ri	-329
্রী	-330
▁নির	-331
art	-332
েলা	-333
▁।	-334
াদের	-335
ষ্ট	-336
▁U	-337
▁In	-338
াড়	-339
▁'	-340
▁sh	-341
েস	-342
ome	-343
য়ার	-344
ঞ্	-345
▁ab	-346
▁en	-347
all	-348
our	-349
্যান	-350
ৃত	-351
rou	-352
▁তিনি	-353
▁not	-354
্ন	-355
▁এব	-356
ine	-357
েম	-358
▁this	-359
out	-360
▁মা	-361
ost	-362
্দ	-363
▁"	-364
ap	-365
▁দু	-366
▁এবং	-367
▁আগ	-368
াঁ	-369
িকে	-370
▁মু	-371
▁নিয়ে	-372
নি	-373
ag	-374
ুষ	-375
du	-376
▁প্রতি	-377
red	-378
ংলা	-379
▁wor	-380
রে	-381
তা	-382
জন	-383
পুর	-384
▁ব্য	-385
র্ত	-386
ated	-387
ভা	-388
ions	-389
ight	-390
gh	-391
▁অভ	-392
▁us	-393
▁pl	-394
ালে	-395
ক্র	-396
oc	-397
ther	-398
▁গ্র	-399
▁সর	-400
্ঠ	-401
▁im	-402
▁J	-403
▁বাংলা	-404
ell	-405
ard	-406
ich	-407
▁স্ব	-408
ast	-409
▁বিশ	-410
▁কার	-411
িব	-412
ide	-413
▁আল	-414
age	-415
▁পার	-416
ood	-417
ধান	-418
ould	-419
▁আস	-420
ak	-421
▁এর	-422
act	-423
▁k	-424
্ড	-425
েক	-426
▁হবে	-427
াকা	-428
াজার	-429
িম	-430
ff	-431
▁your	-432
▁Th	-433
▁জন্য	-434
▁বলেন	-435
▁more	-436
so	-437
▁int	-438
▁অব	-439
ন্দ	-440
▁লা	-441
ia	-442
ally	-443
▁dis	-444
▁their	-445
পর	-446
pl	-447
pt	-448
▁মে	-449
ild	-450
▁will	-451
▁inc	-452
যোগ	-453
orm	-454
ans	-455
ust	-456
▁দেশ	-457
ান্ত	-458
িয়া	-459
্ক	-460
▁ঘট	-461
▁whe	-462
▁বলে	-463
per	-464
▁ad	-465
ড়ে	-466
vel	-467
মে	-468
ানে	-469
ary	-470
▁করেন	-471
টা	-472
▁বাংলাদেশ	-473
ater	-474
▁cont	-475
েষ	-476
ous	-477
ec	-478
ib	-479
ওয়া	-480
াতে	-481
▁they	-482
▁সম্প	-483
cc	-484
▁has	-485
▁সু	-486
▁দিয়ে	-487
nt	-488
iz	-489
ru	-490
▁যা	-491
প্র	-492
▁একটি	-493
ong	-494
িক্ষ	-495
▁which	-496
▁উপজ	-497
▁res	-498
ks	-499
▁comp	-500
▁মধ্য	-501
▁মান	-502
স্ত	-503
▁পা	-504
end	-505
লাম	-506
▁all	-507
▁সি	-508
ুলিশ	-509
▁St	-510
ang	-511
▁do	-512
▁so	-513
▁৩	-514
িজ	-515
ations	-516
▁প্রক	-517
ind	-518
▁পুলিশ	-519
দিন	-520
ছিল	-521
▁সময়	-522
য়া	-523
ase	-524
▁cl	-525
্স	-526
▁ne	-527
ip	-528
ents	-529
▁te	-530
▁stud	-531
oo	-532
ep	-533
▁হাস	-534
▁কা	-535
▁রাজ	-536
▁কর্ম	-537
ঞ্জ	-538
▁other	-539
চ্ছে	-540
▁এস	-541
▁কম	-542
▁per	-543
বর	-544
▁কো	-545
ুম	-546
াকে	-547
পি	-548
গ্র	-549
▁দেখ	-550
ry	-551
able	-552
ামী	-553
ঙ্গে	-554
▁করতে	-555
ber	-556
▁about	-557
reat	-558
▁ছিল	-559
্বর	-560
ence	-561
▁রা	-562
েন্ট	-563
িট	-564
▁:	-565
ach	-566
▁inf	-567
খন	-568
ial	-569
ake	-570
ন্ধ	-571
ুরু	-572
▁মধ্যে	-573
ult	-574
বাদ	-575
▁but	-576
ass	-577
▁জানান	-578
▁man	-579
▁ইউ	-580
▁one	-581
রের	-582
য়ের	-583
োস	-584
au	-585
ub	-586
ত্র	-587
▁me	-588
▁ar	-589
ice	-590
▁ইস	-591
▁বিশ্ব	-592
▁imp	-593
্লা	-594
▁also	-595
ign	-596
ace	-597
▁অভি	-598
▁di	-599
▁j	-600
ord	-601
ory	-602
▁K	-603
হত	-604
ress	-605
▁যে	-606
িদ	-607
av	-608
▁সদ	-609
▁কি	-610
্যাল	-611
ction	-612
▁out	-613
▁২০১	-614
▁ব্যব	-615
ite	-616
লের	-617
▁were	-618
▁সহ	-619
ound	-620
ন্ত্র	-621
ors	-622
▁থাক	-623
াত্র	-624
ারা	-625
্ল	-626
mer	-627
▁who	-628
ail	-629
olog	-630
▁গত	-631
▁নাম	-632
▁প্রধান	-633
ens	-634
▁২০২	-635
ance	-636
ish	-637
েছে	-638
ুক্ত	-639
ition	-640
▁year	-641
মা	-642
থা	-643
▁মহ	-644
▁may	-645
one	-646
▁সঙ্গে	-647
▁This	-648
▁“	-649
▁চে	-650
▁দিন	-651
▁সব	-652
ীগ	-653
ack	-654
▁শিক্ষ	-655
▁pe	-656
কের	-657
very	-658
▁than	-659
fe	-660
▁ঢ	-661
টে	-662
ন্ত্রী	-663
▁সরকার	-664
ric	-665
▁প্রকাশ	-666
ays	-667
▁আই	-668
▁আব	-669
▁বছ	-670
ame	-671
▁app	-672
are	-673
সি	-674
ime	-675
▁বাড়	-676
▁কোন	-677
▁sy	-678
▁ভার	-679
ানের	-680
▁un	-681
াচ	-682
vers	-683
▁V	-684
▁It	-685
▁pre	-686
▁sa	-687
▁বিষ	-688
low	-689
ces	-690
▁৫	-691
▁এম	-692
▁Ch	-693
▁ev	-694
িড	-695
▁তাদের	-696
alth	-697
▁আজ	-698
ount	-699
▁স্থ	-700
ree	-701
ike	-702
now	-703
োনা	-704
ews	-705
েই	-706
▁ব্যা	-707
ত্ত	-708
▁৪	-709
▁up	-710
ose	-711
তার	-712
ীন	-713
▁শু	-714
▁যায়	-715
ue	-716
েলার	-717
▁নির্ব	-718
▁part	-719
▁Y	-720
erv	-721
ople	-722
ুব	-723
▁সভ	-724
ates	-725
▁col	-726
োম	-727
▁কাজ	-728
▁পে	-729
▁–	-730
▁সক	-731
ph	-732
ওয়ার	-733
ুষ্ঠ	-734
াগ	-735
▁হাজার	-736
ile	-737
▁মৃত	-738
▁rec	-739
lud	-740
▁আপ	-741
স্য	-742
▁ইসলাম	-743
pe	-744
প্ত	-745
োধ	-746
নার	-747
▁bl	-748
▁comm	-749
▁বে	-750
▁Un	-751
াড়া	-752
ানা	-753
▁এলা	-754
te	-755
▁করেছে	-756
▁bec	-757
king	-758
▁প্রত	-759
rent	-760
েম্বর	-761
থম	-762
▁qu	-763
▁সাম	-764
ারণ	-765
ian	-766
ভাবে	-767
▁child	-768
্যু	-769
▁when	-770
▁been	-771
▁them	-772
▁its	-773
▁শুরু	-774
▁নিজ	-775
ms	-776
ারে	-777
▁ra	-778
োল	-779
row	-780
▁some	-781
▁into	-782
াদক	-783
▁রহ	-784
▁ag	-785
▁people	-786
▁over	-787
ll	-788
▁রয়ে	-789
▁বির	-790
▁মাম	-791
rough	-792
▁use	-793
▁উপজেলা	-794
ie	-795
tern	-796
ough	-797
▁বৃ	-798
সহ	-799
রণ	-800
ool	-801
রি	-802
েখ	-803
ings	-804
▁করেছেন	-805
nder	-806
ীব	-807
জ্	-808
ject	-809
ons	-810
নায়	-811
velop	-812
চিত	-813
▁তবে	-814
ational	-815
▁how	-816
irst	-817
▁includ	-818
▁tra	-819
▁ro	-820
ause	-821
▁অনুষ্ঠ	-822
les	-823
ys	-824
িন্ন	-825
ুদ্ধ	-826
▁দুই	-827
ার্থ	-828
কা	-829
ove	-830
▁১০	-831
).	-832
hed	-833
lect	-834
োট	-835
গুল	-836
▁most	-837
পাত	-838
মন্ত্রী	-839
▁বেশ	-840
▁জাত	-841
rit	-842
▁his	-843
▁পর্য	-844
বা	-845
▁করোনা	-846
ob	-847
▁He	-848
▁কথা	-849
als	-850
lic	-851
লাই	-852
▁these	-853
ংশ	-854
ond	-855
▁জানিয়ে	-856
▁কে	-857
),	-858
চে	-859
স্ট	-860
▁শেষ	-861
we	-862
ments	-863
▁জেলা	-864
▁go	-865
ীদের	-866
▁আহ	-867
োক	-868
▁hel	-869
িয়ার	-870
ific	-871
▁time	-872
েট	-873
ৎস	-874
▁মানুষ	-875
িং	-876
▁like	-877
▁act	-878
▁ক্ষ	-879
চার	-880
▁tw	-881
▁know	-882
ক্ষে	-883
ূর	-884
▁চল	-885
ছি	-886
▁হিস	-887
▁রাখ	-888
▁ওই	-889
▁৬	-890
▁help	-891
▁হোস	-892
▁bet	-893
▁dif	-894
▁there	-895
▁new	-896
ছু	-897
▁এখন	-898
থে	-899
ook	-900
▁cons	-901
▁কিন	-902
ning	-903
▁acc	-904
▁অধ	-905
▁gen	-906
▁বিভ	-907
▁প্রশ	-908
▁ph	-909
ities	-910
ণে	-911
▁develop	-912
▁রহমান	-913
ুক	-914
▁our	-915
াস্থ	-916
▁under	-917
▁ক্র	-918
এস	-919
র্থ	-920
▁ভারত	-921
▁des	-922
▁হচ্ছে	-923
িপ	-924
▁rep	-925
stem	-926
▁used	-927
েন্দ	-928
িকা	-929
▁সদস্য	-930
▁first	-931
তুন	-932
ple	-933
▁such	-934
টির	-935
▁if	-936
এন	-937
▁উদ	-938
ন্ড	-939
▁নির্বাচ	-940
▁সভাপ	-941
ffect	-942
▁produ	-943
ড়া	-944
গঞ্জ	-945
▁need	-946
▁৭	-947
ালের	-948
ating	-949
round	-950
▁Wh	-951
▁rese	-952
▁আগে	-953
বেন	-954
▁sur	-955
▁করার	-956
▁আদ	-957
▁হোসেন	-958
▁বু	-959
▁বাস	-960
▁prov	-961
ষ্ঠ	-962
▁নতুন	-963
ics	-964
▁বিভিন্ন	-965
arch	-966
ire	-967
ular	-968
▁মাস	-969
▁ট্র	-970
ise	-971
▁প্রথম	-972
▁রয়েছে	-973
▁তা	-974
iss	-975
▁তারা	-976
ov	-977
com	-978
ারের	-979
িউ	-980
▁fl	-981
ন্ন	-982
▁হাসপাত	-983
োজ	-984
▁said	-985
▁fe	-986
▁water	-987
ঞ্চ	-988
▁through	-989
▁am	-990
▁sc	-991
টক	-992
▁any	-993
ব্য	-994
ূল	-995
ious	-996
ath	-997
▁ছিলেন	-998
▁|	-999
িও	-1000
ram	-1001
uc	-1002
ne	-1003
োপ	-1004
ced	-1005
▁many	-1006
েবে	-1007
▁what	-1008
..	-1009
▁As	-1010
▁হল	-1011
ative	-1012
▁would	-1013
ষ্ট্র	-1014
ধারণ	-1015
ble	-1016
ুয়ার	-1017
cial	-1018
uring	-1019
▁rel	-1020
ানি	-1021
▁work	-1022
▁two	-1023
ormation	-1024
▁tr	-1025
chool	-1026
▁কিছু	-1027
▁only	-1028
▁off	-1029
গর	-1030
ng	-1031
ual	-1032
▁অবস্থ	-1033
এম	-1034
ark	-1035
জি	-1036
▁health	-1037
▁০	-1038
▁মার্	-1039
বেদ	-1040
্তু	-1041
▁গ্রাম	-1042
▁কর্মক	-1043
▁৮	-1044
▁had	-1045
টার	-1046
▁Re	-1047
▁years	-1048
তো	-1049
ange	-1050
▁pr	-1051
ature	-1052
▁চাল	-1053
▁ob	-1054
int	-1055
লার	-1056
▁পর্যন্ত	-1057
ivers	-1058
▁অভিযোগ	-1059
meric	-1060
চাল	-1061
ীরা	-1062
োষ	-1063
▁হিসেবে	-1064
▁po	-1065
▁সম্পাদক	-1066
র্ম	-1067
▁ছে	-1068
র্শ	-1069
ক্তি	-1070
▁টাকা	-1071
▁ac	-1072
fter	-1073
▁কর্মকর্ত	-1074
েন্দ্র	-1075
oss	-1076
ভাগ	-1077
▁Pro	-1078
▁add	-1079
▁sm	-1080
▁ধর	-1081
োর্ট	-1082
র্ণ	-1083
▁ইউন	-1084
▁জু	-1085
▁স্ট	-1086
cer	-1087
ology	-1088
▁exp	-1089
erm	-1090
▁থান	-1091
cy	-1092
rib	-1093
▁reg	-1094
▁ind	-1095
▁উপজেলার	-1096
ারী	-1097
▁তিন	-1098
ased	-1099
▁বছর	-1100
▁তাকে	-1101
▁সেই	-1102
▁no	-1103
ten	-1104
ল্প	-1105
ists	-1106
▁দল	-1107
াট	-1108
▁কিন্তু	-1109
eth	-1110
▁আরও	-1111
own	-1112
▁টি	-1113
▁গেছে	-1114
ম্যান	-1115
xt	-1116
hen	-1117
ife	-1118
▁জাতীয়	-1119
▁Americ	-1120
ful	-1121
▁co	-1122
▁৯	-1123
▁মাধ্য	-1124
উজ	-1125
land	-1126
▁high	-1127
▁আশ	-1128
ছিলেন	-1129
▁system	-1130
▁diffe	-1131
vent	-1132
ানো	-1133
▁ঢাকা	-1134
ited	-1135
▁spec	-1136
oth	-1137
▁ম্যা	-1138
▁বিষয়	-1139
মু	-1140
থ্য	-1141
▁নিয়	-1142
▁em	-1143
ds	-1144
▁found	-1145
▁Al	-1146
ুদ্ধে	-1147
hes	-1148
▁গ্রে	-1149
▁রো	-1150
ick	-1151
erg	-1152
▁ear	-1153
ower	-1154
▁সংবাদ	-1155
▁খবর	-1156
িকি	-1157
▁জানা	-1158
ত্য	-1159
▁get	-1160
ীগের	-1161
ible	-1162
িকার	-1163
▁মামলা	-1164
▁If	-1165
ালো	-1166
হার	-1167
ক্রান্ত	-1168
▁বিক	-1169
▁information	-1170
ting	-1171
▁dec	-1172
ীক্ষ	-1173
▁ইউনিয়	-1174
▁মৃত্যু	-1175
ink	-1176
▁আমরা	-1177
খানে	-1178
▁বর	-1179
দে	-1180
chn	-1181
্যান্ড	-1182
▁তাঁ	-1183
▁স্থান	-1184
▁তথ্য	-1185
▁ওয়	-1186
াইর	-1187
িকিৎস	-1188
▁rem	-1189
▁১২	-1190
দ্যাল	-1191
▁med	-1192
ron	-1193
▁১১	-1194
ণা	-1195
▁অনেক	-1196
▁দুর	-1197
▁make	-1198
ily	-1199
its	-1200
▁children	-1201
▁ed	-1202
cent	-1203
ade	-1204
▁এমন	-1205
▁শ্র	-1206
ants	-1207
▁চিকিৎস	-1208
▁কোনো	-1209
gan	-1210
▁study	-1211
▁well	-1212
▁আন	-1213
ied	-1214
▁পরে	-1215
▁দেশের	-1216
▁অপ	-1217
ines	-1218
▁should	-1219
▁att	-1220
▁could	-1221
ীত	-1222
▁পারে	-1223
ility	-1224
ween	-1225
▁sub	-1226
ঙ্গল	-1227
▁supp	-1228
▁pres	-1229
▁পুর	-1230
fore	-1231
▁sci	-1232
▁For	-1233
▁চেয়ার	-1234
▁We	-1235
▁দেখা	-1236
▁বন্ধ	-1237
▁উদ্ধ	-1238
বন্ধ	-1239
hers	-1240
▁prog	-1241
ural	-1242
ins	-1243
▁আওয়	-1244
▁হলে	-1245
গুলো	-1246
▁উদ্	-1247
▁শেখ	-1248
▁উপস্থ	-1249
্যাপ	-1250
▁অপর	-1251
▁সাং	-1252
▁সাধারণ	-1253
▁পৌ	-1254
ণের	-1255
ert	-1256
েলে	-1257
ually	-1258
▁সাথে	-1259
াস্থ্য	-1260
গ্রাম	-1261
▁সভাপতি	-1262
▁নিহত	-1263
▁দাব	-1264
▁দিকে	-1265
▁অনু	-1266
স্প	-1267
▁num	-1268
েজ	-1269
▁আয়	-1270
▁bu	-1271
▁car	-1272
্যাম	-1273
▁বিরুদ্ধে	-1274
▁আমাদের	-1275
ract	-1276
wn	-1277
াহী	-1278
জ্ঞ	-1279
▁নির্	-1280
▁between	-1281
uch	-1282
▁An	-1283
▁form	-1284
▁call	-1285
▁লাখ	-1286
ution	-1287
▁Com	-1288
▁lar	-1289
▁cent	-1290
বেশ	-1291
▁আওয়ামী	-1292
▁শহ	-1293
▁where	-1294
▁ব্র	-1295
▁অন্য	-1296
▁ঘোষ	-1297
।'	-1298
▁এলাক	-1299
▁নেত	-1300
▁ty	-1301
▁ইন	-1302
াধ	-1303
▁দায়	-1304
iversity	-1305
old	-1306
ict	-1307
▁পাল	-1308
িত্ব	-1309
▁পাশ	-1310
iron	-1311
▁গো	-1312
aking	-1313
▁হতে	-1314
▁পেয়ে	-1315
▁বিভাগ	-1316
▁পরীক্ষ	-1317
্লে	-1318
▁অফ	-1319
ident	-1320
▁import	-1321
ুলে	-1322
াইল	-1323
েব	-1324
▁২০২০	-1325
ুয়ারি	-1326
▁পরিচাল	-1327
▁মুখ	-1328
▁অভিন	-1329
▁long	-1330
▁mod	-1331
ft	-1332
▁world	-1333
▁উত্ত	-1334
▁গিয়ে	-1335
স্থা	-1336
▁dise	-1337
▁food	-1338
cess	-1339
াউ	-1340
▁pub	-1341
ata	-1342
▁কেন্দ্র	-1343
▁inst	-1344
▁ঝ	-1345
াফ	-1346
▁বার	-1347
▁inv	-1348
▁পি	-1349
▁gra	-1350
বারের	-1351
▁art	-1352
▁স্বাস্থ্য	-1353
বর্ত	-1354
▁২০২১	-1355
▁উদ্ধার	-1356
▁আদাল	-1357
urn	-1358
▁কাছে	-1359
imes	-1360
▁অর্থ	-1361
ps	-1362
▁পড়ে	-1363
▁see	-1364
ধবার	-1365
▁উপস্থিত	-1366
▁students	-1367
▁নয়	-1368
▁exam	-1369
বাস	-1370
▁দ্ব	-1371
ases	-1372
▁det	-1373
▁sk	-1374
▁lear	-1375
ায়ী	-1376
আই	-1377
র্জ	-1378
ives	-1379
▁mon	-1380
দি	-1381
▁incre	-1382
,"	-1383
ীতে	-1384
পুরে	-1385
sel	-1386
▁মঙ্গল	-1387
▁trans	-1388
▁just	-1389
মিক	-1390
াণ	-1391
▁দেওয়া	-1392
▁গণ	-1393
iew	-1394
েস্ক	-1395
▁ছাত্র	-1396
ূর্ব	-1397
▁after	-1398
▁সংস	-1399
▁আটক	-1400
▁সোম	-1401
▁inter	-1402
ages	-1403
aw	-1404
."	-1405
▁বৃহ	-1406
▁বুধবার	-1407
▁News	-1408
get	-1409
arm	-1410
▁বেশি	-1411
ues	-1412
▁পড়	-1413
▁pers	-1414
▁চেয়ারম্যান	-1415
িফ	-1416
▁because	-1417
▁মাধ্যমে	-1418
oy	-1419
স্পতি	-1420
▁আক্রান্ত	-1421
▁আলো	-1422
িস্ত	-1423
▁শিশ	-1424
▁১৯	-1425
▁নেই	-1426
▁find	-1427
▁hum	-1428
▁Se	-1429
▁ke	-1430
▁কর্মকর্তা	-1431
▁loc	-1432
▁sim	-1433
কাল	-1434
▁হার	-1435
▁হাম	-1436
orn	-1437
স্পতিবার	-1438
▁pol	-1439
▁স্থানীয়	-1440
েড	-1441
ures	-1442
▁exper	-1443
▁count	-1444
▁her	-1445
▁প্রতিষ্ঠ	-1446
▁sign	-1447
▁ছেলে	-1448
▁different	-1449
▁বড়	-1450
ভাব	-1451
▁লে	-1452
▁বিশেষ	-1453
▁school	-1454
▁Ar	-1455
াইরাস	-1456
▁বিএন	-1457
কারী	-1458
ished	-1459
য়েক	-1460
নিক	-1461
▁শাহ	-1462
▁সোমবার	-1463
ety	-1464
▁those	-1465
▁disc	-1466
viron	-1467
▁ext	-1468
▁ডেস্ক	-1469
▁each	-1470
▁fol	-1471
▁very	-1472
▁pat	-1473
▁effect	-1474
▁মঙ্গলবার	-1475
▁হাসপাতালে	-1476
▁read	-1477
ুত	-1478
চ্ছ	-1479
িশ্	-1480
▁নিউজ	-1481
ধি	-1482
▁সর্ব	-1483
▁যোগ	-1484
day	-1485
▁বৃহস্পতিবার	-1486
▁Con	-1487
tle	-1488
ody	-1489
ergy	-1490
▁fam	-1491
ণ্ড	-1492
▁way	-1493
লেজ	-1494
▁gener	-1495
▁সিন	-1496
▁How	-1497
▁var	-1498
চ্চ	-1499
▁পাঠ	-1500
▁মন	-1501
▁অফিস	-1502
▁spe	-1503
ically	-1504
টের	-1505
সা	-1506
▁during	-1507
▁cre	-1508
▁প্রায়	-1509
▁প্রকাশিত	-1510
ক্স	-1511
▁even	-1512
▁আমি	-1513
▁কারণে	-1514
▁অভিয	-1515
▁২৪	-1516
▁che	-1517
▁then	-1518
▁ভা	-1519
▁ঘটনা	-1520
▁১৪	-1521
ck	-1522
তিক	-1523
▁partic	-1524
ros	-1525
▁You	-1526
ex	-1527
▁techn	-1528
নিবার	-1529
▁ris	-1530
▁University	-1531
▁show	-1532
▁কয়েক	-1533
▁প্রধানমন্ত্রী	-1534
▁দেন	-1535
ef	-1536
র্ড	-1537
▁every	-1538
ক্রম	-1539
্যে	-1540
▁লি	-1541
▁treat	-1542
▁grow	-1543
ection	-1544
gg	-1545
ময়	-1546
▁av	-1547
▁এলাকায়	-1548
▁২০১৯	-1549
ত্রে	-1550
▁মাহ	-1551
▁অংশ	-1552
▁ধরে	-1553
▁research	-1554
ার্ড	-1555
নী	-1556
▁সূ	-1557
ক্ট	-1558
▁proble	-1559
ars	-1560
la	-1561
পার	-1562
▁উল	-1563
▁কলেজ	-1564
▁level	-1565
other	-1566
সে	-1567
▁They	-1568
▁শনিবার	-1569
▁অনুষ্ঠিত	-1570
▁১৫	-1571
্ণ	-1572
▁আগামী	-1573
▁important	-1574
▁much	-1575
ever	-1576
▁small	-1577
য়ন	-1578
▁cell	-1579
ূর্ণ	-1580
▁নিশ্	-1581
▁she	-1582
vironment	-1583
▁Sp	-1584
িটি	-1585
eng	-1586
ness	-1587
▁পরিষ	-1588
▁cur	-1589
▁ক্রিকে	-1590
▁ছবি	-1591
read	-1592
ফতার	-1593
াম্ম	-1594
▁যুব	-1595
io	-1596
▁gl	-1597
▁resp	-1598
োজন	-1599
ক্রবার	-1600
▁তৈ	-1601
▁But	-1602
ted	-1603
▁set	-1604
▁আইন	-1605
led	-1606
▁লক্ষ	-1607
▁বৈ	-1608
▁আছে	-1609
▁New	-1610
rect	-1611
ize	-1612
ট্ট	-1613
▁Res	-1614
▁বিষয়ে	-1615
▁life	-1616
▁hist	-1617
▁dist	-1618
▁প্রেস	-1619
oun	-1620
▁fact	-1621
▁সম্ম	-1622
▁খান	-1623
▁কু	-1624
ides	-1625
▁বক্ত	-1626
▁vis	-1627
দার	-1628
াক্ত	-1629
রাষ্ট্র	-1630
ম্প	-1631
্টার	-1632
▁On	-1633
স্ব	-1634
ices	-1635
▁আমার	-1636
▁ঠ	-1637
iel	-1638
▁aut	-1639
▁জানিয়েছেন	-1640
ale	-1641
▁ca	-1642
ruct	-1643
imate	-1644
line	-1645
con	-1646
▁follow	-1647
ather	-1648
▁শুক্রবার	-1649
▁হয়েছেন	-1650
▁পূর্ব	-1651
▁using	-1652
েছেন	-1653
▁এবার	-1654
▁commun	-1655
ালা	-1656
▁দেশে	-1657
▁স্ক	-1658
দিকে	-1659
▁তাই	-1660
▁back	-1661
▁আলম	-1662
▁চার	-1663
▁lead	-1664
ার্স	-1665
ute	-1666
▁[	-1667
াপ্ত	-1668
ড়িয়ে	-1669
র্ক	-1670
ork	-1671
ism	-1672
▁process	-1673
▁expl	-1674
omen	-1675
und	-1676
▁করোন	-1677
োয়	-1678
▁disease	-1679
▁ass	-1680
▁উঠ	-1681
▁সির	-1682
ন্ত্রণ	-1683
▁sec	-1684
▁grou	-1685
দন্ত	-1686
▁made	-1687
▁dep	-1688
form	-1689
▁পদ	-1690
▁prot	-1691
▁pop	-1692
▁min	-1693
reen	-1694
▁যুক্ত	-1695
▁উন্ন	-1696
any	-1697
ছাড়া	-1698
▁ফির	-1699
▁ent	-1700
▁does	-1701
দা	-1702
▁জীব	-1703
ুট	-1704
▁before	-1705
▁being	-1706
বিদ্যাল	-1707
াকার	-1708
▁আব্দ	-1709
▁গ্রামের	-1710
▁There	-1711
▁less	-1712
▁বছরের	-1713
▁নিশ্চিত	-1714
▁day	-1715
▁মোট	-1716
▁Home	-1717
▁জাম	-1718
ward	-1719
▁requ	-1720
▁স্প	-1721
কি	-1722
প্ট	-1723
িতা	-1724
োহ	-1725
াইন	-1726
ized	-1727
দুল	-1728
াস্ত	-1729
তির	-1730
rain	-1731
গঠ	-1732
তম	-1733
▁ডিস	-1734
ix	-1735
ডি	-1736
▁ডি	-1737
চনা	-1738
▁বাংলাদেশের	-1739
▁বঙ্গ	-1740
▁এতে	-1741
▁বিপ	-1742
▁ঘোষণা	-1743
কর	-1744
▁শিক্ষার্থ	-1745
▁sol	-1746
▁আহত	-1747
▁থানার	-1748
রু	-1749
akes	-1750
The	-1751
▁To	-1752
ভার	-1753
▁দলের	-1754
▁বিশ্ববিদ্যাল	-1755
বেক	-1756
ids	-1757
▁মি	-1758
▁করছে	-1759
▁same	-1760
িনা	-1761
্লাহ	-1762
▁comple	-1763
▁often	-1764
▁যাবে	-1765
▁চৌ	-1766
▁জুন	-1767
▁data	-1768
▁test	-1769
▁occ	-1770
▁বিত	-1771
ury	-1772
▁মতো	-1773
rop	-1774
ক্টো	-1775
▁সকাল	-1776
▁body	-1777
▁around	-1778
▁blood	-1779
ier	-1780
▁প্রশাস	-1781
ত্ব	-1782
▁str	-1783
▁end	-1784
ায়ক	-1785
▁ins	-1786
▁দিতে	-1787
▁আন্ত	-1788
▁বো	-1789
হাম্ম	-1790
▁গ্রেফতার	-1791
▁অক্টো	-1792
ved	-1793
▁সেপ্ট	-1794
▁percent	-1795
▁activ	-1796
শন	-1797
▁says	-1798
rol	-1799
▁plan	-1800
||	-1801
▁fun	-1802
arc	-1803
▁good	-1804
্যাক	-1805
▁What	-1806
ral	-1807
▁So	-1808
▁Ind	-1809
vern	-1810
▁now	-1811
ty	-1812
ুঁ	-1813
ৃষ	-1814
ারি	-1815
▁শিশু	-1816
▁person	-1817
▁বলা	-1818
▁ফের	-1819
▁ভালো	-1820
▁def	-1821
cept	-1822
▁number	-1823
▁কল	-1824
▁take	-1825
▁lit	-1826
.”	-1827
ুগ	-1828
▁আত	-1829
▁called	-1830
▁ঘটনায়	-1831
▁কার্য	-1832
▁br	-1833
▁common	-1834
outh	-1835
েত	-1836
াতা	-1837
ত্যা	-1838
▁একজন	-1839
ince	-1840
▁including	-1841
২০	-1842
▁কোটি	-1843
▁design	-1844
▁both	-1845
▁বাজার	-1846
▁own	-1847
▁three	-1848
▁state	-1849
lished	-1850
▁সংখ	-1851
oms	-1852
▁elect	-1853
oh	-1854
ains	-1855
ডেট	-1856
▁জুলাই	-1857
▁আরো	-1858
gen	-1859
▁my	-1860
▁De	-1861
▁down	-1862
▁অক্টোবর	-1863
▁Ph	-1864
inal	-1865
▁American	-1866
▁cond	-1867
▁রাত	-1868
গ্রহ	-1869
▁সেপ্টেম্বর	-1870
্কার	-1871
▁দেয়া	-1872
▁স্ত	-1873
illion	-1874
াঙ্গ	-1875
ere	-1876
▁মূল	-1877
▁রোগ	-1878
ults	-1879
▁প্রদ	-1880
▁অপরাহ	-1881
ources	-1882
বির	-1883
▁par	-1884
ock	-1885
▁সার	-1886
সু	-1887
জ্জ	-1888
air	-1889
▁redu	-1890
agn	-1891
েশন	-1892
▁উই	-1893
▁সদর	-1894
▁পাওয়া	-1895
▁যান	-1896
▁ম্যাচ	-1897
▁নির্দেশ	-1898
▁মানুষের	-1899
াঁচ	-1900
▁এছাড়া	-1901
▁দাবি	-1902
িত্র	-1903
পির	-1904
▁class	-1905
ash	-1906
ালী	-1907
হাম্মদ	-1908
ull	-1909
ধুর	-1910
▁সিদ্ধ	-1911
▁নভ	-1912
▁সাবেক	-1913
▁care	-1914
▁dr	-1915
▁মার্চ	-1916
stand	-1917
raph	-1918
iqu	-1919
▁energy	-1920
ger	-1921
ax	-1922
▁রাতে	-1923
iving	-1924
bs	-1925
▁মিল	-1926
▁ref	-1927
▁দক্ষ	-1928
লেন	-1929
জে	-1930
বাদিক	-1931
▁ser	-1932
লেট	-1933
ষ্টা	-1934
▁too	-1935
up	-1936
ters	-1937
▁অতি	-1938
ets	-1939
ন্ম	-1940
▁চট্ট	-1941
▁while	-1942
cl	-1943
াতিক	-1944
iver	-1945
▁risk	-1946
▁And	-1947
▁একই	-1948
▁scient	-1949
▁মাল	-1950
▁কৃষ	-1951
▁দী	-1952
▁organ	-1953
▁সেখানে	-1954
বেদন	-1955
▁Sh	-1956
▁এপ্র	-1957
▁কাম	-1958
▁land	-1959
aj	-1960
▁আপডেট	-1961
▁som	-1962
▁কুম	-1963
ient	-1964
▁সাংবাদিক	-1965
▁serv	-1966
▁En	-1967
▁,	-1968
▁সালে	-1969
soci	-1970
orts	-1971
▁Col	-1972
▁human	-1973
▁ভূ	-1974
▁large	-1975
ouse	-1976
সের	-1977
▁প্রস্ত	-1978
▁আদালত	-1979
▁ঈ	-1980
ital	-1981
▁known	-1982
▁প্রতিনি	-1983
▁১৩	-1984
orth	-1985
▁বিন	-1986
acter	-1987
▁রু	-1988
ined	-1989
▁মুক্তি	-1990
ave	-1991
▁educ	-1992
▁পুলিশের	-1993
▁report	-1994
▁mem	-1995
▁When	-1996
▁cap	-1997
▁Ad	-1998
▁রেখ	-1999
▁তাঁর	-2000
তায়	-2001
▁ভোট	-2002
কম	-2003
▁মাঝ	-2004
▁These	-2005
aterial	-2006
মি	-2007
▁National	-2008
▁ইউনিয়নের	-2009
ording	-2010
লি	-2011
▁species	-2012
চিব	-2013
▁নামে	-2014
▁প্রয়	-2015
hip	-2016
াত্রী	-2017
▁poss	-2018
্যের	-2019
▁environment	-2020
▁caus	-2021
ox	-2022
▁hand	-2023
▁আলী	-2024
▁power	-2025
০০	-2026
▁Ex	-2027
▁দেয়	-2028
▁এপ্রিল	-2029
▁সিদ্ধান্ত	-2030
pr	-2031
▁বক্তব্য	-2032
▁দি	-2033
▁নারী	-2034
▁সড়	-2035
▁এসব	-2036
▁পারেন	-2037
মন	-2038
▁Sci	-2039
ights	-2040
▁sym	-2041
ality	-2042
uss	-2043
র্জাতিক	-2044
▁রান	-2045
▁est	-2046
েস্ট	-2047
▁চৌধুর	-2048
▁main	-2049
▁program	-2050
িন্দ	-2051
der	-2052
ium	-2053
ানোর	-2054
ায়ের	-2055
ulation	-2056
ah	-2057
ষ্টি	-2058
িয়ান	-2059
▁রিপ	-2060
▁সাহ	-2061
্রি	-2062
্যার	-2063
▁পরিস	-2064
▁জনের	-2065
▁১৬	-2066
▁নির্ম	-2067
itions	-2068
ross	-2069
▁বর্ত	-2070
▁anim	-2071
▁project	-2072
rence	-2073
▁val	-2074
▁char	-2075
▁উদ্ব	-2076
ton	-2077
▁সকালে	-2078
ven	-2079
▁Eng	-2080
▁বয়	-2081
িস্ট	-2082
▁চট্টগ্রাম	-2083
▁Cent	-2084
▁বর্তমান	-2085
▁১৮	-2086
ional	-2087
োভ	-2088
ource	-2089
▁বিষয়টি	-2090
▁নভেম্বর	-2091
way	-2092
▁ve	-2093
▁গুরু	-2094
▁হক	-2095
চ্ছেন	-2096
োয়া	-2097
▁include	-2098
ivid	-2099
▁পাক	-2100
▁/	-2101
▁Med	-2102
ves	-2103
▁ভারতের	-2104
▁আন্তর্জাতিক	-2105
▁area	-2106
ected	-2107
▁আবার	-2108
▁তৈরি	-2109
de	-2110
▁তুলে	-2111
▁again	-2112
র্তি	-2113
▁শতা	-2114
▁হওয়ার	-2115
িতীয়	-2116
দী	-2117
লায়	-2118
িসি	-2119
▁cle	-2120
▁সরকারি	-2121
▁ব্যবহার	-2122
▁সৌ	-2123
▁এটি	-2124
যুক্ত	-2125
▁public	-2126
▁সফ	-2127
কেট	-2128
▁উদ্দিন	-2129
বান	-2130
▁লীগের	-2131
▁Le	-2132
িষ্ট	-2133
me	-2134
▁—	-2135
▁শর	-2136
ving	-2137
াখ	-2138
▁দ্বিতীয়	-2139
▁করছেন	-2140
▁ব্যাং	-2141
▁met	-2142
▁জয়	-2143
ug	-2144
▁At	-2145
▁contin	-2146
▁সাই	-2147
▁ভাই	-2148
েনে	-2149
▁বিদ	-2150
▁নেতা	-2151
▁phys	-2152
▁bre	-2153
▁build	-2154
▁Te	-2155
▁typ	-2156
▁সাক	-2157
▁চলে	-2158
▁গ্রহ	-2159
▁allow	-2160
▁few	-2161
▁learn	-2162
▁রবি	-2163
▁শেষে	-2164
▁দিয়েছেন	-2165
iod	-2166
▁রাজধান	-2167
els	-2168
▁সংখ্যা	-2169
▁Health	-2170
▁এলাকার	-2171
ীল	-2172
▁cancer	-2173
▁বলেছেন	-2174
▁United	-2175
▁air	-2176
▁প্রার্থ	-2177
ধু	-2178
েব্র	-2179
▁Is	-2180
গত	-2181
োদ	-2182
icle	-2183
osed	-2184
▁pain	-2185
ran	-2186
▁eas	-2187
্ঞ	-2188
▁দিব	-2189
▁প্রতিনিধি	-2190
ww	-2191
▁বস	-2192
▁tem	-2193
fess	-2194
লীগের	-2195
▁সেন	-2196
▁ব্যাপ	-2197
▁সামনে	-2198
▁এরপর	-2199
▁বাড়ি	-2200
▁don	-2201
▁material	-2202
▁নির্বাচন	-2203
▁জানুয়ারি	-2204
ograph	-2205
▁change	-2206
ন্ট	-2207
▁light	-2208
▁researc	-2209
বল	-2210
ন্স	-2211
▁পান	-2212
▁মোঃ	-2213
▁op	-2214
▁মাঠ	-2215
▁যাচ্ছে	-2216
▁adv	-2217
▁cor	-2218
▁ret	-2219
▁১৭	-2220
▁direct	-2221
▁হাসান	-2222
▁ডিসেম্বর	-2223
ধা	-2224
ries	-2225
▁bel	-2226
▁মোহাম্মদ	-2227
▁start	-2228
▁নিজের	-2229
▁গুল	-2230
▁Bang	-2231
atural	-2232
▁chang	-2233
,”	-2234
্লেখ	-2235
র্ঘ	-2236
...	-2237
▁stand	-2238
▁Pl	-2239
mon	-2240
িল্প	-2241
ailable	-2242
▁দুর্	-2243
lish	-2244
▁women	-2245
the	-2246
লেও	-2247
▁অতিথ	-2248
▁ফেব্র	-2249
▁cour	-2250
▁writ	-2251
▁দিয়েছে	-2252
্যাম্প	-2253
▁great	-2254
▁ব্যবস্থা	-2255
▁দিল	-2256
▁উল্লেখ	-2257
▁মিনি	-2258
▁লোক	-2259
▁হন	-2260
ien	-2261
িণ	-2262
ats	-2263
aper	-2264
▁২০১৮	-2265
▁কর্ত	-2266
▁mus	-2267
▁তদন্ত	-2268
▁মনে	-2269
তন	-2270
▁beh	-2271
▁still	-2272
টিতে	-2273
িটির	-2274
িডিও	-2275
বায়	-2276
▁বিচার	-2277
▁quest	-2278
▁মেড	-2279
ড়ি	-2280
▁আগস্ট	-2281
▁though	-2282
▁কারণ	-2283
▁২১	-2284
stit	-2285
▁near	-2286
eral	-2287
্যাস	-2288
▁তাল	-2289
▁পাঁচ	-2290
az	-2291
▁support	-2292
ared	-2293
▁সার্	-2294
▁early	-2295
▁পু	-2296
▁equ	-2297
ering	-2298
▁bir	-2299
▁থাকে	-2300
াড়ি	-2301
iven	-2302
▁Can	-2303
ভব	-2304
্যোগ	-2305
▁নার	-2306
▁gu	-2307
▁সম্	-2308
▁পৌর	-2309
▁বিমান	-2310
▁নিরাপ	-2311
▁২৫	-2312
ired	-2313
▁example	-2314
gin	-2315
পক্ষ	-2316
▁govern	-2317
▁must	-2318
▁ঘণ	-2319
▁understand	-2320
ুদ	-2321
man	-2322
angu	-2323
▁কমিশ	-2324
▁product	-2325
টায়	-2326
▁হাতে	-2327
▁বঙ্গবন্ধ	-2328
গে	-2329
▁ছাড়া	-2330
▁ব্যবস	-2331
▁শিক্ষক	-2332
▁৩০	-2333
ield	-2334
▁বিজ্ঞ	-2335
ites	-2336
▁খুব	-2337
▁cause	-2338
▁wee	-2339
▁খেল	-2340
▁অনুষ্ঠানে	-2341
ctor	-2342
▁সালের	-2343
▁হলো	-2344
▁meas	-2345
▁occur	-2346
rodu	-2347
াধীন	-2348
▁চাই	-2349
▁look	-2350
▁iss	-2351
▁অনলাই	-2352
▁সম্প্র	-2353
▁did	-2354
▁বহ	-2355
▁last	-2356
▁old	-2357
bers	-2358
▁জানিয়েছে	-2359
▁চৌধুরী	-2360
▁--	-2361
▁হাত	-2362
▁play	-2363
াশি	-2364
ik	-2365
▁Ear	-2366
▁উত্তর	-2367
েসব	-2368
▁ফর	-2369
▁আফ	-2370
▁Cl	-2371
বাজার	-2372
)।	-2373
osp	-2374
▁place	-2375
▁here	-2376
ম্ব	-2377
▁development	-2378
▁পরিবারের	-2379
aren	-2380
▁মারা	-2381
ভাইরাস	-2382
▁mat	-2383
▁right	-2384
▁পরীক্ষা	-2385
▁খা	-2386
▁আত্ম	-2387
েন্স	-2388
▁ওপর	-2389
ator	-2390
▁আহমে	-2391
ration	-2392
▁স্ম	-2393
veral	-2394
আর	-2395
▁.	-2396
▁All	-2397
মাণ	-2398
▁might	-2399
▁States	-2400
▁history	-2401
une	-2402
▁available	-2403
▁দাঁ	-2404
▁pot	-2405
▁appro	-2406
▁সাত	-2407
▁prevent	-2408
▁রিপোর্ট	-2409
▁ধর্ষ	-2410
রত	-2411
▁meth	-2412
▁Be	-2413
ason	-2414
ior	-2415
▁eng	-2416
▁আব্দুল	-2417
িয়ায়	-2418
▁want	-2419
ified	-2420
▁pract	-2421
▁hy	-2422
▁present	-2423
ption	-2424
▁সরকারের	-2425
▁ident	-2426
▁সংগঠ	-2427
জা	-2428
▁impro	-2429
▁রয	-2430
▁জাহ	-2431
▁ভর্তি	-2432
সূ	-2433
.,	-2434
রুল	-2435
্থিত	-2436
▁imm	-2437
ission	-2438
জিব	-2439
▁থাকা	-2440
▁রোব	-2441
▁bas	-2442
▁eff	-2443
ন্দর	-2444
▁vari	-2445
use	-2446
ards	-2447
▁cells	-2448
▁low	-2449
view	-2450
▁কেউ	-2451
▁tre	-2452
▁&	-2453
ন্ত্রণাল	-2454
▁result	-2455
▁month	-2456
▁বিতরণ	-2457
tain	-2458
hor	-2459
▁পরিস্থিত	-2460
▁করোনাভাইরাস	-2461
▁ফলে	-2462
▁রায়	-2463
▁বাহ	-2464
ote	-2465
▁group	-2466
▁home	-2467
ination	-2468
▁treatment	-2469
▁ভিডিও	-2470
▁রাষ্ট্র	-2471
▁heart	-2472
uro	-2473
ered	-2474
▁শিক্ষা	-2475
ীকে	-2476
▁বাঁ	-2477
▁দায়িত্ব	-2478
▁সাড়ে	-2479
▁গতকাল	-2480
▁পাকিস্ত	-2481
ুরি	-2482
▁family	-2483
▁থানায়	-2484
▁চেষ্টা	-2485
িত্ত	-2486
▁ant	-2487
▁মেডিক	-2488
▁করবে	-2489
here	-2490
ajor	-2491
▁areas	-2492
▁Wor	-2493
ived	-2494
▁mil	-2495
▁বাই	-2496
ense	-2497
▁মর	-2498
ider	-2499
ision	-2500
tt	-2501
ills	-2502
▁within	-2503
বের	-2504
▁ঘটে	-2505
▁মেয়	-2506
▁স্ত্রী	-2507
▁plant	-2508
▁অবস্থায়	-2509
▁গু	-2510
▁অভিযান	-2511
▁মন্ত্রণাল	-2512
▁এসে	-2513
conom	-2514
ological	-2515
▁better	-2516
▁২২	-2517
প্রাপ্ত	-2518
SA	-2519
ently	-2520
▁বাদ	-2521
▁researchers	-2522
▁হাই	-2523
িলা	-2524
ential	-2525
itive	-2526
cing	-2527
েরা	-2528
▁অ্যা	-2529
▁ডা	-2530
▁মেয়ে	-2531
▁হয়েছিল	-2532
▁conf	-2533
▁ide	-2534
▁current	-2535
▁দক্ষিণ	-2536
▁মানব	-2537
কিন	-2538
▁উদ্বোধ	-2539
▁মার	-2540
ner	-2541
ঙ্ক	-2542
▁শতাংশ	-2543
▁Dr	-2544
▁pass	-2545
ccess	-2546
▁আয়োজ	-2547
oid	-2548
ুস	-2549
▁fore	-2550
▁age	-2551
োয়ার	-2552
মাধ্য	-2553
▁মাদক	-2554
▁another	-2555
▁আহমেদ	-2556
▁করবেন	-2557
▁সম্মেল	-2558
ওয়ায়	-2559
▁cal	-2560
▁তো	-2561
▁say	-2562
▁desc	-2563
ests	-2564
erest	-2565
ify	-2566
▁provide	-2567
▁book	-2568
▁without	-2569
▁top	-2570
▁জেলার	-2571
▁থাকবে	-2572
▁সুপার	-2573
ঘট	-2574
োঁ	-2575
▁comput	-2576
▁Q	-2577
abor	-2578
াপাশি	-2579
▁affect	-2580
▁million	-2581
▁প্রা	-2582
▁ক্লা	-2583
▁নির্বাহী	-2584
ালি	-2585
▁কাউ	-2586
▁hig	-2587
▁দীর্ঘ	-2588
গু	-2589
self	-2590
▁sl	-2591
ories	-2592
▁হত্যা	-2593
▁নব	-2594
▁ele	-2595
▁পাশাপাশি	-2596
ients	-2597
▁ben	-2598
lease	-2599
▁নিতে	-2600
▁second	-2601
গম	-2602
▁দৈ	-2603
▁সকল	-2604
▁এন	-2605
▁চলছে	-2606
▁Or	-2607
বাহ	-2608
▁বেড়ে	-2609
▁es	-2610
▁become	-2611
▁রোববার	-2612
▁bo	-2613
ots	-2614
ৈতিক	-2615
▁pur	-2616
▁Sy	-2617
▁mar	-2618
ining	-2619
াপন	-2620
্যাত	-2621
▁several	-2622
▁পরিচালক	-2623
▁interest	-2624
ope	-2625
▁By	-2626
▁লাই	-2627
স্ক	-2628
▁খেলা	-2629
▁problems	-2630
▁ক্রিকেট	-2631
▁পরিবার	-2632
ামান	-2633
পুরের	-2634
▁ধরনের	-2635
▁keep	-2636
▁name	-2637
▁মত	-2638
ট্র	-2639
ina	-2640
ization	-2641
▁বিভাগের	-2642
▁উপল	-2643
▁control	-2644
▁young	-2645
▁major	-2646
▁ঐ	-2647
▁স্কুল	-2648
লো	-2649
্তা	-2650
▁four	-2651
ians	-2652
▁জন্ম	-2653
▁শে	-2654
▁ঘণ্ট	-2655
▁best	-2656
▁দাম	-2657
েরে	-2658
হা	-2659
amp	-2660
atic	-2661
▁দ্র	-2662
নাক্ত	-2663
▁আলোচনা	-2664
▁Resear	-2665
to	-2666
▁চেয়ে	-2667
▁colle	-2668
▁individ	-2669
▁মাদ	-2670
▁পক্ষ	-2671
বর্তী	-2672
▁May	-2673
▁ছাড়	-2674
▁দুপুরে	-2675
▁list	-2676
▁orig	-2677
▁যুক্তরাষ্ট্র	-2678
১৯	-2679
ৃত্ব	-2680
▁চা	-2681
▁ক্ষে	-2682
▁বের	-2683
টিং	-2684
র্ষ	-2685
াৎ	-2686
ames	-2687
ptoms	-2688
▁কন	-2689
▁দশ	-2690
face	-2691
▁আসাম	-2692
▁এসময়	-2693
▁সিনেম	-2694
▁বিএনপি	-2695
▁method	-2696
▁times	-2697
▁levels	-2698
▁উদ্যোগ	-2699
গিয়ে	-2700
▁invol	-2701
itional	-2702
সং	-2703
▁ভারতীয়	-2704
▁অফিসার	-2705
▁রবিবার	-2706
▁ব্যক্তি	-2707
▁চর	-2708
র্ধ	-2709
▁সহযোগ	-2710
▁মাঝে	-2711
▁One	-2712
▁এদিকে	-2713
▁natural	-2714
ern	-2715
▁কেন	-2716
▁Z	-2717
▁থেকেই	-2718
▁proper	-2719
▁press	-2720
ole	-2721
ুয়া	-2722
▁him	-2723
min	-2724
less	-2725
▁ফেব্রুয়ারি	-2726
▁object	-2727
eb	-2728
▁rest	-2729
▁কমিটির	-2730
ades	-2731
▁unt	-2732
▁জানায়	-2733
এর	-2734
কদের	-2735
▁সিলেট	-2736
▁move	-2737
▁অন্যান	-2738
sc	-2739
▁প্রেসিড	-2740
▁সপ্ত	-2741
▁দর	-2742
ooks	-2743
▁rad	-2744
▁bi	-2745
▁বাড়িতে	-2746
▁রেখে	-2747
িখ	-2748
par	-2749
atory	-2750
▁হয়নি	-2751
▁run	-2752
▁প্রতিষ্ঠান	-2753
▁anal	-2754
▁However	-2755
▁প্রতিবেদ	-2756
▁usually	-2757
ায়ে	-2758
▁প্রস	-2759
▁type	-2760
▁কী	-2761
ways	-2762
▁বিএনপির	-2763
▁শ্রী	-2764
▁news	-2765
▁langu	-2766
▁head	-2767
▁medic	-2768
▁war	-2769
▁sugg	-2770
▁leg	-2771
ফিক	-2772
▁শিল্প	-2773
▁sw	-2774
▁cult	-2775
▁ইতি	-2776
▁দিনের	-2777
সূচ	-2778
▁২৩	-2779
cle	-2780
▁ওয়ে	-2781
ertain	-2782
▁ঠিক	-2783
ভি	-2784
▁আক	-2785
▁সী	-2786
নৈতিক	-2787
aily	-2788
▁following	-2789
স্ত্র	-2790
▁period	-2791
▁able	-2792
▁পৌঁ	-2793
▁dev	-2794
▁লাশ	-2795
erc	-2796
▁সন্ত	-2797
▁জানানো	-2798
▁possible	-2799
▁const	-2800
etic	-2801
▁$	-2802
▁since	-2803
ক্ষা	-2804
vious	-2805
▁মাত্র	-2806
শেষ	-2807
lo	-2808
ones	-2809
▁শনাক্ত	-2810
cially	-2811
▁vir	-2812
▁তখন	-2813
▁space	-2814
▁যদি	-2815
▁Some	-2816
ember	-2817
▁belie	-2818
▁টেস্ট	-2819
▁কেন্দ্রীয়	-2820
▁think	-2821
ples	-2822
াযোগ	-2823
ability	-2824
ateg	-2825
though	-2826
গাঁ	-2827
▁flow	-2828
▁জায়	-2829
▁সবাই	-2830
জনের	-2831
atch	-2832
mber	-2833
ends	-2834
▁সুযোগ	-2835
ৃতি	-2836
▁pos	-2837
ৃহ	-2838
▁ইয়	-2839
▁indu	-2840
িক্ত	-2841
lu	-2842
▁ইউনিয়ন	-2843
▁ইম	-2844
▁real	-2845
▁কর্তৃ	-2846
▁আট	-2847
▁বৈঠ	-2848
ised	-2849
▁likely	-2850
▁Earth	-2851
াজিক	-2852
▁ey	-2853
ূপ	-2854
▁open	-2855
▁অপরাহ্ণ	-2856
গা	-2857
▁econom	-2858
▁কোম্প	-2859
ended	-2860
▁নেতৃত্ব	-2861
▁perform	-2862
▁ill	-2863
▁Stud	-2864
▁ঘটনার	-2865
urope	-2866
▁Pre	-2867
▁মৌ	-2868
▁ফুট	-2869
ুপ	-2870
▁point	-2871
যায়ী	-2872
থমিক	-2873
▁brain	-2874
▁temper	-2875
▁government	-2876
rap	-2877
ling	-2878
idence	-2879
▁দৈনিক	-2880
ধার	-2881
▁Af	-2882
▁men	-2883
▁free	-2884
▁means	-2885
▁local	-2886
▁post	-2887
▁গ্রেপ্ত	-2888
▁ঘটন	-2889
মুখ	-2890
▁অনলাইন	-2891
দর্শ	-2892
▁তাহ	-2893
▁লেখ	-2894
▁lim	-2895
▁associ	-2896
▁mean	-2897
▁যুগ	-2898
ental	-2899
সল	-2900
alk	-2901
▁profess	-2902
▁among	-2903
ন্য	-2904
▁days	-2905
▁ধর্ম	-2906
শ্য	-2907
▁particular	-2908
▁জনপ্র	-2909
▁প্রেসিডেন্ট	-2910
▁site	-2911
▁সিরিজ	-2912
ided	-2913
▁access	-2914
▁হত্য	-2915
মিন	-2916
▁vol	-2917
▁শ্রমিক	-2918
ring	-2919
▁oper	-2920
▁সময়ে	-2921
▁আবেদন	-2922
hem	-2923
▁ম্যাচে	-2924
োশ	-2925
obal	-2926
েদ	-2927
▁উচ্চ	-2928
ন্ত্রীর	-2929
▁মহান	-2930
▁opp	-2931
ংস	-2932
▁non	-2933
▁বৃদ্ধ	-2934
▁সড়ক	-2935
▁সংসদ	-2936
iness	-2937
▁পালন	-2938
▁appear	-2939
▁সচিব	-2940
▁সভায়	-2941
▁flu	-2942
▁ter	-2943
▁social	-2944
িয়াম	-2945
▁গেল	-2946
▁based	-2947
▁হওয়া	-2948
▁প্রাথমিক	-2949
▁অতিথি	-2950
লীগ	-2951
▁mark	-2952
▁অন্ত	-2953
mit	-2954
rist	-2955
▁results	-2956
▁today	-2957
▁অন্যান্য	-2958
▁contain	-2959
▁পয়	-2960
ibr	-2961
▁fac	-2962
ীর্ষ	-2963
▁সংঘ	-2964
▁cost	-2965
▁নেওয়া	-2966
acc	-2967
▁প্রয়োজন	-2968
omm	-2969
▁Pub	-2970
▁problem	-2971
▁চাঁ	-2972
▁science	-2973
▁ঘটনাস্থ	-2974
olution	-2975
িরা	-2976
▁rece	-2977
▁signific	-2978
▁record	-2979
▁মামলার	-2980
ocus	-2981
▁মার্কিন	-2982
▁থানা	-2983
▁Europe	-2984
▁ভাইরাস	-2985
▁সপ্তাহ	-2986
▁লিখ	-2987
▁symptoms	-2988
▁ইং	-2989
খান	-2990
▁শীর্ষ	-2991
▁ফেসব	-2992
▁little	-2993
কাপ	-2994
ীতি	-2995
ogn	-2996
▁গ্রহণ	-2997
ank	-2998
ators	-2999
▁যেতে	-3000
্চ	-3001
▁Sc	-3002
hern	-3003
বাড়	-3004
জ্জামান	-3005
be	-3006
ুই	-3007
চিত্র	-3008
▁চলা	-3009
▁বেগম	-3010
▁মির	-3011
ternational	-3012
▁against	-3013
ret	-3014
গ্ন	-3015
▁সংক্রম	-3016
▁diff	-3017
ns	-3018
▁চি	-3019
ার্জ	-3020
▁plants	-3021
▁আহম	-3022
▁ছোট	-3023
▁গান	-3024
▁cr	-3025
▁Dep	-3026
▁সুর	-3027
▁wind	-3028
ably	-3029
ape	-3030
▁নিরাপত্ত	-3031
▁নিষ	-3032
▁learning	-3033
ourn	-3034
br	-3035
▁মহাস	-3036
▁North	-3037
org	-3038
▁মস	-3039
▁fin	-3040
▁কর্মসূচ	-3041
▁special	-3042
▁until	-3043
▁মেডিকেল	-3044
▁চালিয়ে	-3045
▁অনুযায়ী	-3046
artment	-3047
▁বিশ্ববিদ্যালয়ের	-3048
▁উৎস	-3049
▁মাঠে	-3050
▁country	-3051
▁প্রাণ	-3052
▁far	-3053
▁temperature	-3054
▁খালে	-3055
টাই	-3056
সাই	-3057
▁benef	-3058
▁উপলক্ষে	-3059
ilar	-3060
▁জীবন	-3061
▁বঙ্গবন্ধু	-3062
▁World	-3063
ience	-3064
▁বয়স	-3065
▁teac	-3066
▁করোনায়	-3067
▁dra	-3068
▁hard	-3069
▁team	-3070
▁phot	-3071
▁Cal	-3072
তর	-3073
▁order	-3074
▁impact	-3075
▁Ab	-3076
▁el	-3077
▁হা	-3078
▁past	-3079
▁একটা	-3080
▁making	-3081
▁creat	-3082
▁মিয়া	-3083
resent	-3084
▁কার্যাল	-3085
তিরিক্ত	-3086
▁হামলা	-3087
▁others	-3088
ference	-3089
aps	-3090
▁education	-3091
▁টাই	-3092
্যাট	-3093
▁সাল	-3094
▁করলে	-3095
▁পশ	-3096
▁দুটি	-3097
▁bro	-3098
▁happ	-3099
▁যোগাযোগ	-3100
▁সভাপত	-3101
▁put	-3102
ead	-3103
▁given	-3104
▁comb	-3105
▁দ্রুত	-3106
rug	-3107
▁hour	-3108
ode	-3109
জীব	-3110
েমন	-3111
▁Afric	-3112
▁সামাজিক	-3113
▁নির্বাচনে	-3114
▁Ne	-3115
▁বিদ্যাল	-3116
port	-3117
▁রাজশ	-3118
▁নজ	-3119
▁শেয়ার	-3120
▁del	-3121
চেয়ে	-3122
▁words	-3123
ured	-3124
▁শুভ	-3125
ormal	-3126
▁যাওয়ার	-3127
ae	-3128
▁death	-3129
▁বাহিন	-3130
pect	-3131
▁ব্যক্ত	-3132
▁লীগ	-3133
▁সভাপতিত্ব	-3134
▁সৃ	-3135
▁article	-3136
▁fil	-3137
▁chem	-3138
▁come	-3139
▁With	-3140
▁আন্দ	-3141
▁রাখা	-3142
▁function	-3143
বহ	-3144
্বাস	-3145
▁শুধু	-3146
por	-3147
▁fre	-3148
▁বিয়ে	-3149
▁obs	-3150
▁conditions	-3151
▁Car	-3152
▁ast	-3153
াকি	-3154
▁উপর	-3155
abet	-3156
▁along	-3157
▁century	-3158
▁protect	-3159
সম	-3160
▁পরিষদের	-3161
▁অতিরিক্ত	-3162
arents	-3163
▁Jan	-3164
▁determ	-3165
▁এগিয়ে	-3166
▁নিজে	-3167
▁গুরুত্ব	-3168
▁মুক্তিয	-3169
rams	-3170
▁technology	-3171
▁২৬	-3172
▁ফার	-3173
ান্দ	-3174
uture	-3175
▁success	-3176
aves	-3177
▁Ge	-3178
▁Pr	-3179
▁খুল	-3180
ray	-3181
af	-3182
▁skin	-3183
▁পাশে	-3184
▁রাজধানীর	-3185
▁দেখে	-3186
ড়াই	-3187
▁That	-3188
▁মোব	-3189
▁আহ্ব	-3190
▁মামলায়	-3191
▁increase	-3192
▁law	-3193
▁প্রদান	-3194
▁medical	-3195
▁short	-3196
itor	-3197
over	-3198
▁দুর্ঘট	-3199
ডে	-3200
▁let	-3201
idd	-3202
▁রাস্ত	-3203
aken	-3204
▁পাব	-3205
▁Am	-3206
▁ব্যাংক	-3207
▁ডে	-3208
▁সবচেয়ে	-3209
▁next	-3210
▁certain	-3211
aster	-3212
▁গ্রেপ্তার	-3213
ন্তব্য	-3214
▁struct	-3215
▁Bl	-3216
পত্র	-3217
▁mov	-3218
▁text	-3219
▁নৌ	-3220
ST	-3221
▁উদ্বোধন	-3222
alf	-3223
ুকে	-3224
▁উন্নয়ন	-3225
মাধ্যম	-3226
ored	-3227
▁consum	-3228
োদন	-3229
হি	-3230
▁এটা	-3231
▁বিশ্বকাপ	-3232
▁scientists	-3233
্ধ	-3234
▁prom	-3235
▁least	-3236
▁Joh	-3237
▁সম্প্রতি	-3238
ips	-3239
িশোর	-3240
▁»	-3241
▁gr	-3242
▁সংশ	-3243
▁২৮	-3244
urther	-3245
▁dam	-3246
াসহ	-3247
▁Im	-3248
▁ধার	-3249
▁indust	-3250
াম্প	-3251
▁tool	-3252
▁according	-3253
▁later	-3254
িয়ন	-3255
্রম	-3256
pecially	-3257
▁full	-3258
▁Science	-3259
▁works	-3260
▁আপনার	-3261
▁community	-3262
▁fish	-3263
ann	-3264
ately	-3265
▁view	-3266
overed	-3267
মার	-3268
ধ্যায়	-3269
▁patients	-3270
োস্ট	-3271
▁turn	-3272
মন্ত্রীর	-3273
▁trad	-3274
▁focus	-3275
জয়	-3276
iting	-3277
▁significant	-3278
▁nec	-3279
▁সংস্থা	-3280
▁sun	-3281
ances	-3282
ribut	-3283
ething	-3284
ler	-3285
ortun	-3286
▁২৭	-3287
▁feel	-3288
মিত	-3289
▁শরীর	-3290
▁higher	-3291
▁things	-3292
▁সন্	-3293
ীদ	-3294
▁সমা	-3295
▁গেলে	-3296
icult	-3297
▁population	-3298
▁হলেন	-3299
▁bus	-3300
▁মাহমু	-3301
ences	-3302
কৃত	-3303
▁পরিবর্ত	-3304
িকল্প	-3305
▁Cont	-3306
ems	-3307
put	-3308
▁across	-3309
▁অনেকে	-3310
▁খাদ	-3311
▁কোনও	-3312
▁School	-3313
▁বর্তমানে	-3314
▁বিক্ষ	-3315
▁তুল	-3316
াবে	-3317
িনার	-3318
▁বোর্ড	-3319
▁mult	-3320
isc	-3321
দ্ধা	-3322
▁দায়ের	-3323
▁tri	-3324
▁create	-3325
▁published	-3326
▁মিড	-3327
.)	-3328
▁ভিত্ত	-3329
▁অনুম	-3330
▁changes	-3331
করা	-3332
▁সম্পর্	-3333
লী	-3334
ocu	-3335
▁নম	-3336
▁>	-3337
oot	-3338
▁week	-3339
opy	-3340
নির	-3341
▁সেল	-3342
▁surface	-3343
▁above	-3344
াজী	-3345
▁begin	-3346
▁আদালতে	-3347
কর্ম	-3348
▁প্রকল্প	-3349
ware	-3350
▁toget	-3351
েনার	-3352
▁climate	-3353
▁Gen	-3354
▁together	-3355
দেহ	-3356
eter	-3357
▁কার্যক্রম	-3358
▁mot	-3359
▁পাঠানো	-3360
▁বন	-3361
সিং	-3362
▁অবস্থান	-3363
রাধ	-3364
▁er	-3365
▁নানা	-3366
▁সমাজ	-3367
জার	-3368
▁সভা	-3369
বেষ	-3370
▁author	-3371
aut	-3372
ression	-3373
▁resources	-3374
ged	-3375
ention	-3376
▁আয়োজন	-3377
ither	-3378
▁টেক	-3379
▁course	-3380
▁ক্ষেত্রে	-3381
oph	-3382
oon	-3383
ott	-3384
▁দূ	-3385
▁সূত্র	-3386
▁US	-3387
▁language	-3388
bon	-3389
▁enc	-3390
▁দেওয়ার	-3391
▁আন্দোল	-3392
▁key	-3393
▁sing	-3394
▁Center	-3395
▁দেখতে	-3396
োলা	-3397
্যুর	-3398
▁behav	-3399
▁থাকতে	-3400
াকায়	-3401
▁কুমার	-3402
▁English	-3403
এফ	-3404
▁More	-3405
app	-3406
▁War	-3407
▁gas	-3408
ruction	-3409
▁গোল	-3410
▁conn	-3411
▁Do	-3412
াসের	-3413
▁away	-3414
▁গবেষ	-3415
ung	-3416
ober	-3417
▁cir	-3418
▁left	-3419
▁আসে	-3420
▁try	-3421
▁দোক	-3422
▁হাসিনা	-3423
ique	-3424
▁ডাক	-3425
▁studies	-3426
▁সৈ	-3427
▁ann	-3428
▁প্রেম	-3429
▁ময়	-3430
▁red	-3431
▁জনগ	-3432
▁systems	-3433
▁অধ্যাপ	-3434
ডাউ	-3435
াপুর	-3436
দ্দিন	-3437
NA	-3438
▁করোনার	-3439
▁Rep	-3440
▁মেয়র	-3441
▁future	-3442
sy	-3443
▁বাংলাদেশে	-3444
▁discuss	-3445
স্যা	-3446
verage	-3447
▁gre	-3448
▁Mar	-3449
পূর্ণ	-3450
▁give	-3451
▁বিরোধ	-3452
▁কর্তৃপক্ষ	-3453
কেল	-3454
▁ক্ষম	-3455
ল্যান্ড	-3456
▁৫০	-3457
▁lower	-3458
▁activity	-3459
ales	-3460
▁complete	-3461
থায়	-3462
▁মন্তব্য	-3463
াতের	-3464
্চিম	-3465
▁দৃ	-3466
▁সূত্রে	-3467
▁গোপ	-3468
▁সহায়	-3469
▁রাখেন	-3470
▁case	-3471
▁ফাঁ	-3472
▁live	-3473
▁কাল	-3474
▁কিশোর	-3475
▁sum	-3476
▁ব্যাপারে	-3477
▁রাশ	-3478
▁specific	-3479
▁something	-3480
ফা	-3481
ুতি	-3482
ournal	-3483
▁countries	-3484
edi	-3485
▁ক্ষতি	-3486
▁why	-3487
▁দিবস	-3488
▁সর্বো	-3489
▁Instit	-3490
▁especially	-3491
▁Hist	-3492
▁বন্দ	-3493
sw	-3494
▁America	-3495
িভ	-3496
ুখ	-3497
জিদ	-3498
▁গঠ	-3499
▁মুক্ত	-3500
পতি	-3501
▁developed	-3502
ফল	-3503
িটার	-3504
▁similar	-3505
▁গা	-3506
▁working	-3507
amm	-3508
▁enough	-3509
▁অধ্যাপক	-3510
▁বিল	-3511
osis	-3512
▁particip	-3513
eds	-3514
▁মড	-3515
▁প্রার্থী	-3516
▁Research	-3517
রিক	-3518
▁nut	-3519
▁সুস্থ	-3520
▁indic	-3521
ok	-3522
▁ব্যাট	-3523
▁online	-3524
▁পৃ	-3525
▁cases	-3526
▁বিপক্ষে	-3527
▁লাগ	-3528
তের	-3529
▁হলেও	-3530
▁Go	-3531
ক্ষণ	-3532
ush	-3533
let	-3534
abetes	-3535
▁বিদেশ	-3536
▁সত্য	-3537
াবাদ	-3538
▁ফ্র	-3539
inking	-3540
▁পরিকল্প	-3541
▁পয়েন্ট	-3542
▁ইউনি	-3543
▁animals	-3544
ervation	-3545
aces	-3546
▁oil	-3547
▁page	-3548
▁রেজ	-3549
শা	-3550
▁word	-3551
▁five	-3552
ilities	-3553
▁মন্ত্রী	-3554
cul	-3555
▁যাওয়া	-3556
yl	-3557
▁improve	-3558
asing	-3559
//	-3560
▁সমস্যা	-3561
etw	-3562
ending	-3563
▁প্রত্যা	-3564
▁due	-3565
▁paper	-3566
▁মালিক	-3567
omes	-3568
▁সহকারী	-3569
▁অধিদ	-3570
▁green	-3571
▁ভব	-3572
aring	-3573
বো	-3574
▁computer	-3575
ানির	-3576
▁character	-3577
▁পানি	-3578
▁applic	-3579
▁South	-3580
▁types	-3581
▁সাজ	-3582
▁নেয়া	-3583
২৪	-3584
▁জনপ্রিয়	-3585
রাফ	-3586
▁ground	-3587
most	-3588
েশনের	-3589
গঞ্জের	-3590
▁reduce	-3591
▁হারিয়ে	-3592
▁বিক্ষোভ	-3593
▁শহরের	-3594
ভূ	-3595
▁২০১৭	-3596
ley	-3597
▁doctor	-3598
▁invest	-3599
ন্দ্র	-3600
▁নামের	-3601
agement	-3602
ooking	-3603
▁activities	-3604
▁চাক	-3605
▁physical	-3606
মান্ত	-3607
▁prim	-3608
▁story	-3609
▁যেন	-3610
▁Most	-3611
▁নম্বর	-3612
ilt	-3613
ont	-3614
গঞ্জে	-3615
▁যৌ	-3616
েনের	-3617
▁Christ	-3618
েসর	-3619
▁ago	-3620
▁pred	-3621
▁যাত্রী	-3622
oint	-3623
▁যার	-3624
▁গেছেন	-3625
▁পূ	-3626
▁describ	-3627
াবাহ	-3628
▁recomm	-3629
▁যারা	-3630
aching	-3631
▁amount	-3632
▁সর্বোচ্চ	-3633
://	-3634
াসী	-3635
▁রয়েছেন	-3636
মূল	-3637
▁big	-3638
▁sens	-3639
ciety	-3640
▁effective	-3641
রফ	-3642
ttp	-3643
▁সম্ভব	-3644
'।	-3645
▁source	-3646
lement	-3647
মাত্র	-3648
▁ওয়ার্ড	-3649
▁sure	-3650
etimes	-3651
▁X	-3652
▁term	-3653
▁টাকার	-3654
▁Read	-3655
▁বিশ্বের	-3656
▁effects	-3657
ream	-3658
▁আবু	-3659
াস্ট	-3660
▁ways	-3661
▁range	-3662
▁মুসল	-3663
ane	-3664
▁লাল	-3665
উল	-3666
▁Des	-3667
▁কাদের	-3668
▁করি	-3669
লেই	-3670
▁collect	-3671
▁বেলা	-3672
পে	-3673
ned	-3674
▁রাখতে	-3675
হে	-3676
▁Brit	-3677
▁respons	-3678
রুণ	-3679
▁step	-3680
▁ভয়	-3681
▁side	-3682
▁ক্যাম্প	-3683
▁পূর্বাহ	-3684
▁diagn	-3685
▁রযাব	-3686
▁চিকিৎসা	-3687
ER	-3688
কারি	-3689
ধ্যে	-3690
▁pressure	-3691
ables	-3692
▁লক	-3693
amin	-3694
▁drug	-3695
▁আছেন	-3696
ledge	-3697
▁State	-3698
▁While	-3699
▁‘	-3700
িনায়ক	-3701
ird	-3702
▁পরিবেশ	-3703
▁ফোন	-3704
sh	-3705
▁below	-3706
▁parents	-3707
▁উদ্দেশ	-3708
▁রাজশাহী	-3709
▁whether	-3710
চল	-3711
oles	-3712
েচ্ছ	-3713
ৃতীয়	-3714
pos	-3715
ison	-3716
▁প্রতির	-3717
দ্দ	-3718
▁যখন	-3719
▁field	-3720
দান	-3721
▁products	-3722
▁et	-3723
িজ্ঞ	-3724
▁z	-3725
ints	-3726
▁exist	-3727
▁*	-3728
▁নিজস্ব	-3729
▁প্রতিবাদ	-3730
ipp	-3731
▁সোন	-3732
▁After	-3733
▁নুর	-3734
▁নাগর	-3735
▁শান্ত	-3736
পিএ	-3737
▁NA	-3738
▁needs	-3739
urs	-3740
েধ	-3741
▁provides	-3742
ঞ্চল	-3743
▁ফল	-3744
icles	-3745
▁fall	-3746
▁healthy	-3747
__	-3748
▁মহিলা	-3749
▁অভিনয়	-3750
▁মোবাইল	-3751
ুশ	-3752
▁fat	-3753
্ষিক	-3754
▁Bangla	-3755
ান্ড	-3756
▁রেল	-3757
▁করুন	-3758
▁মুজিব	-3759
▁concer	-3760
plic	-3761
▁জম	-3762
▁strong	-3763
▁always	-3764
▁difficult	-3765
▁size	-3766
▁এক্স	-3767
▁থাকার	-3768
duct	-3769
▁কাছ	-3770
▁গ্রামে	-3771
স্কার	-3772
▁পরিচালনা	-3773
▁She	-3774
▁সম্পর্ক	-3775
gest	-3776
নীতি	-3777
▁Your	-3778
▁বই	-3779
ches	-3780
াদেশ	-3781
ery	-3782
ুটি	-3783
▁•	-3784
▁বাবা	-3785
▁white	-3786
▁kind	-3787
elf	-3788
▁প্রযুক্ত	-3789
ires	-3790
▁পার্ট	-3791
▁Department	-3792
বৃ	-3793
▁তৃতীয়	-3794
চয়	-3795
ially	-3796
▁বাত	-3797
▁created	-3798
▁months	-3799
▁পিএম	-3800
দ্র	-3801
▁জানতে	-3802
▁crit	-3803
▁সিটি	-3804
▁image	-3805
▁স্বামী	-3806
▁ভারপ্রাপ্ত	-3807
ploy	-3808
▁বিস	-3809
▁প্রমুখ	-3810
▁এসেছে	-3811
▁ভাষ	-3812
ক্সবাজার	-3813
▁কঠ	-3814
ges	-3815
▁Comm	-3816
▁visit	-3817
বু	-3818
▁সাহা	-3819
▁সম্পর্কে	-3820
▁exerc	-3821
▁পরিষদ	-3822
ym	-3823
▁mic	-3824
▁বিব	-3825
▁কমিটি	-3826
not	-3827
▁ur	-3828
▁চালা	-3829
▁ড্র	-3830
▁সংঘর্ষ	-3831
েণ	-3832
▁Inf	-3833
▁deg	-3834
ready	-3835
oura	-3836
▁detail	-3837
▁প্রতিদিন	-3838
ands	-3839
▁cut	-3840
িয়র	-3841
▁ছয়	-3842
abit	-3843
▁soil	-3844
▁engine	-3845
গান	-3846
িলের	-3847
▁পোস্ট	-3848
▁বাস্ত	-3849
▁বদ	-3850
▁estab	-3851
▁represent	-3852
▁weight	-3853
▁Man	-3854
▁Aust	-3855
▁suggest	-3856
▁ভে	-3857
াধিক	-3858
▁সোহ	-3859
▁makes	-3860
▁mass	-3861
▁তারিখ	-3862
▁global	-3863
▁আগুন	-3864
▁বিদ্যু	-3865
▁চী	-3866
▁স্থানে	-3867
▁সাব	-3868
▁হুম	-3869
▁২০০	-3870
▁অভিযোগে	-3871
rad	-3872
ওয়ে	-3873
িয়াল	-3874
▁ব্যবসায়ী	-3875
▁having	-3876
ণ্য	-3877
▁মডেল	-3878
ffic	-3879
right	-3880
eg	-3881
হাট	-3882
▁done	-3883
▁সাক্ষ	-3884
▁wild	-3885
▁সমর্থ	-3886
▁চাপ	-3887
হাস	-3888
▁cat	-3889
▁rights	-3890
▁বাজারে	-3891
▁জড়	-3892
▁সভাপতিত্বে	-3893
▁অস্ত্র	-3894
▁address	-3895
▁Many	-3896
ising	-3897
▁শুন	-3898
রান	-3899
▁ত্র	-3900
েত্রী	-3901
▁subject	-3902
ounds	-3903
▁diet	-3904
ুজ্জামান	-3905
গের	-3906
গুলোর	-3907
▁growth	-3908
ma	-3909
▁পথ	-3910
▁sit	-3911
▁পরিস্থিতি	-3912
leep	-3913
▁dig	-3914
iation	-3915
ৌশ	-3916
▁২৯	-3917
▁black	-3918
▁পরিদর্শ	-3919
▁সত	-3920
erved	-3921
▁পারবেন	-3922
▁Gu	-3923
▁Act	-3924
স্ট্র	-3925
▁নগর	-3926
▁অপরাধ	-3927
▁বিজ্ঞপ্ত	-3928
▁seen	-3929
▁জিয়া	-3930
▁loss	-3931
▁দেশটির	-3932
▁জব	-3933
▁close	-3934
▁shows	-3935
▁line	-3936
▁জল	-3937
▁ask	-3938
▁questions	-3939
▁পথে	-3940
▁clear	-3941
▁really	-3942
ঙ্গা	-3943
▁however	-3944
▁মাহমুদ	-3945
▁শাখ	-3946
▁going	-3947
▁general	-3948
▁vi	-3949
▁Acc	-3950
বিষ	-3951
ার্ট	-3952
্যায়ে	-3953
▁ইন্ড	-3954
▁wr	-3955
▁এলাকা	-3956
▁বিকে	-3957
erve	-3958
▁half	-3959
▁never	-3960
▁লকডাউ	-3961
চ্চিত্র	-3962
▁প্রত্য	-3963
▁Pe	-3964
▁Other	-3965
▁Count	-3966
▁require	-3967
duc	-3968
▁উৎ	-3969
▁গৃহ	-3970
side	-3971
▁ধারণ	-3972
▁house	-3973
▁various	-3974
▁link	-3975
ency	-3976
Th	-3977
▁Germ	-3978
▁kids	-3979
▁পৌরস	-3980
▁দিনে	-3981
▁রং	-3982
▁feature	-3983
▁সংগ্রহ	-3984
▁নাগরিক	-3985
▁কক্সবাজার	-3986
of	-3987
▁offic	-3988
▁মৃত্যুর	-3989
▁Co	-3990
িনের	-3991
▁পশ্চিম	-3992
▁bab	-3993
inter	-3994
▁ফেলে	-3995
hib	-3996
▁docu	-3997
▁চলচ্চিত্র	-3998
by	-3999
▁living	-4000
▁opt	-4001
▁region	-4002
োঁজ	-4003
useum	-4004
▁বিজে	-4005
মান্ড	-4006
▁নিয়োগ	-4007
ইউ	-4008
rel	-4009
▁Ju	-4010
▁became	-4011
▁already	-4012
ীকার	-4013
▁অধিনায়ক	-4014
▁student	-4015
▁সেন্ট	-4016
▁নেমে	-4017
▁পুরো	-4018
cean	-4019
▁further	-4020
▁color	-4021
--	-4022
▁lot	-4023
▁event	-4024
▁materials	-4025
েফ	-4026
▁ঘরে	-4027
▁ঢাকার	-4028
▁fund	-4029
▁আসছে	-4030
▁related	-4031
▁উইকেট	-4032
▁আসা	-4033
▁wide	-4034
▁শ্রেণ	-4035
▁la	-4036
ণ্ঠ	-4037
▁Fl	-4038
▁নদ	-4039
▁webs	-4040
▁অভিনেত্রী	-4041
▁Ed	-4042
▁production	-4043
▁environmental	-4044
▁Lat	-4045
▁taken	-4046
▁মাসের	-4047
▁কলক	-4048
▁আগের	-4049
▁experience	-4050
▁নেন	-4051
▁tell	-4052
▁কোর	-4053
▁আপনি	-4054
▁ge	-4055
▁নিয়ন্ত্র	-4056
িকায়	-4057
▁prob	-4058
▁তরুণ	-4059
ivil	-4060
▁city	-4061
▁এখনও	-4062
▁necess	-4063
রাজ	-4064
▁যাব	-4065
ained	-4066
▁টিকা	-4067
▁নিরাপত্তা	-4068
▁national	-4069
েতা	-4070
▁ডিজ	-4071
eding	-4072
▁সংগঠন	-4073
▁rate	-4074
▁ঘণ্টায়	-4075
▁প্রশ্ন	-4076
▁আবদুল	-4077
▁সীমান্ত	-4078
▁Institute	-4079
▁Calif	-4080
▁contact	-4081
▁অপরাহ্ন	-4082
▁ওসি	-4083
lands	-4084
গ্রহণ	-4085
▁স্বাধীন	-4086
vey	-4087
▁Us	-4088
▁groups	-4089
▁নিজেদের	-4090
▁ফিরে	-4091
▁সৌদি	-4092
▁polit	-4093
▁প্রবাস	-4094
হীন	-4095
▁associated	-4096
ভিস	-4097
▁স্বপ	-4098
▁arch	-4099
▁role	-4100
oman	-4101
েন্ড	-4102
▁রোহি	-4103
▁famil	-4104
িষ	-4105
▁মিনিটে	-4106
▁Child	-4107
মের	-4108
▁skills	-4109
rict	-4110
▁simple	-4111
িদের	-4112
lying	-4113
▁single	-4114
▁অ্যাপ	-4115
ুজ	-4116
like	-4117
▁Oct	-4118
▁histor	-4119
▁ইত	-4120
▁জি	-4121
▁ভাগ	-4122
▁খাদ্য	-4123
ভিড	-4124
▁একে	-4125
ীগঞ্জ	-4126
ores	-4127
৩০	-4128
▁চো	-4129
▁২০২২	-4130
▁খালেদা	-4131
▁quality	-4132
▁পৃথ	-4133
▁মুহ	-4134
▁cy	-4135
▁ট্রাম্প	-4136
roll	-4137
▁বিস্ত	-4138
▁solar	-4139
▁সাকিব	-4140
▁programs	-4141
oney	-4142
▁Educ	-4143
▁coll	-4144
▁spread	-4145
▁port	-4146
▁introdu	-4147
▁ঘর	-4148
▁recent	-4149
▁tru	-4150
িকভাবে	-4151
▁শিক্ষার্থীদের	-4152
▁York	-4153
▁vide	-4154
ections	-4155
▁caused	-4156
▁বান	-4157
▁evidence	-4158
▁বিশ্ববিদ্যালয়	-4159
acy	-4160
thing	-4161
▁সমিত	-4162
ুয়	-4163
▁ess	-4164
arent	-4165
engal	-4166
▁rele	-4167
▁June	-4168
▁সন্ত্র	-4169
▁৩১	-4170
▁কিং	-4171
▁রেক	-4172
▁শার	-4173
▁chemical	-4174
▁once	-4175
▁either	-4176
▁তাহলে	-4177
▁বিক্রি	-4178
▁increased	-4179
▁আক্ত	-4180
▁No	-4181
▁quick	-4182
▁চুক্ত	-4183
▁Canad	-4184
▁রাজনৈতিক	-4185
reme	-4186
ows	-4187
সার	-4188
ival	-4189
istic	-4190
▁হাসপাতালের	-4191
ule	-4192
▁রূপ	-4193
inc	-4194
হের	-4195
▁influ	-4196
▁সন্তান	-4197
ask	-4198
uary	-4199
estern	-4200
▁প্রধানমন্ত্রীর	-4201
ysis	-4202
▁measure	-4203
oll	-4204
▁chall	-4205
ঘাত	-4206
▁টেল	-4207
▁পায়	-4208
▁John	-4209
icy	-4210
augh	-4211
utes	-4212
▁condition	-4213
জু	-4214
▁গর	-4215
▁addition	-4216
▁potential	-4217
ricult	-4218
iam	-4219
▁Aug	-4220
▁গ্রুপ	-4221
▁বিকেলে	-4222
▁sam	-4223
টিভ	-4224
ভীর	-4225
▁আলা	-4226
▁গুলি	-4227
১৮	-4228
vere	-4229
▁নাস	-4230
্জ	-4231
▁বরিশ	-4232
▁হওয়ায়	-4233
▁পরিবহ	-4234
▁question	-4235
▁কমে	-4236
▁সাদ	-4237
▁http	-4238
▁কাউন্স	-4239
উট	-4240
▁sal	-4241
inks	-4242
ান্তর	-4243
এই	-4244
বন্দ	-4245
iction	-4246
▁recogn	-4247
▁return	-4248
uel	-4249
▁জর	-4250
▁অবশ্য	-4251
ney	-4252
ঙ্কা	-4253
▁করছি	-4254
▁দুপুর	-4255
▁ম্যান	-4256
ক্ষেপ	-4257
▁hours	-4258
কালে	-4259
▁Feb	-4260
▁যুবক	-4261
▁নাজ	-4262
▁আহমদ	-4263
▁শত	-4264
▁produce	-4265
▁building	-4266
▁ফিল	-4267
▁ছড়িয়ে	-4268
▁হাসপাতাল	-4269
ification	-4270
বী	-4271
▁উপজেলায়	-4272
▁bat	-4273
▁dem	-4274
ibrary	-4275
াবি	-4276
▁From	-4277
▁বাইরে	-4278
▁মহানগর	-4279
▁actually	-4280
▁ver	-4281
ued	-4282
▁dog	-4283
▁six	-4284
▁বাজ	-4285
▁সেবা	-4286
▁কমপ	-4287
▁সেত	-4288
▁issues	-4289
▁Apr	-4290
▁bacter	-4291
▁প্রতিবেদক	-4292
chie	-4293
▁vacc	-4294
▁দর্শ	-4295
▁মুখে	-4296
▁individual	-4297
▁রেকর্ড	-4298
▁নির্যাত	-4299
umb	-4300
▁parts	-4301
▁আহ্বান	-4302
▁চলতি	-4303
ensive	-4304
▁পুরস্কার	-4305
▁includes	-4306
▁March	-4307
▁মসজিদ	-4308
▁=	-4309
▁।।	-4310
▁meet	-4311
▁মেস	-4312
▁sent	-4313
▁নিয়েছে	-4314
selves	-4315
gn	-4316
▁খে	-4317
েক্ষ	-4318
AR	-4319
fer	-4320
▁ওঠ	-4321
▁frequ	-4322
iddle	-4323
▁thought	-4324
▁consider	-4325
▁চালু	-4326
▁needed	-4327
▁feet	-4328
▁আগেই	-4329
▁লক্ষ্য	-4330
lades	-4331
▁উদ্যোগে	-4332
ening	-4333
▁আবুল	-4334
ese	-4335
▁answ	-4336
▁poll	-4337
োপা	-4338
▁Tr	-4339
▁চিকিৎসক	-4340
▁fri	-4341
▁factors	-4342
str	-4343
illed	-4344
▁foods	-4345
tal	-4346
▁fru	-4347
▁developing	-4348
ornia	-4349
িউড	-4350
▁diabetes	-4351
▁virus	-4352
▁অ্যান্ড	-4353
▁জরি	-4354
▁vers	-4355
িগ	-4356
▁designed	-4357
▁সার্ভিস	-4358
▁stat	-4359
▁ওয়েব	-4360
▁কখন	-4361
▁carbon	-4362
▁ব্যবস্থ	-4363
মুনা	-4364
▁শিব	-4365
▁হাজ	-4366
্লিষ্ট	-4367
২১	-4368
▁দূর	-4369
▁disord	-4370
াভাব	-4371
ederal	-4372
ened	-4373
পাড়া	-4374
▁মাসে	-4375
▁বিয়ের	-4376
▁Up	-4377
▁West	-4378
▁reading	-4379
▁model	-4380
▁কুমিল	-4381
▁eat	-4382
ুলের	-4383
▁prote	-4384
▁সাংবাদিকদের	-4385
val	-4386
inci	-4387
▁ট্রাক	-4388
▁পড়েছে	-4389
ronic	-4390
▁knowledge	-4391
ump	-4392
ামা	-4393
▁stop	-4394
▁মাই	-4395
খালী	-4396
▁মরদেহ	-4397
শীল	-4398
▁সবার	-4399
▁value	-4400
সভ	-4401
edia	-4402
▁lab	-4403
▁রক্ত	-4404
▁প্রশাসন	-4405
ায়ণ	-4406
▁ইন্টার	-4407
ES	-4408
জনকে	-4409
sych	-4410
▁মিশ	-4411
rown	-4412
▁কোচ	-4413
▁শির	-4414
▁average	-4415
▁California	-4416
▁বিষয়ক	-4417
▁states	-4418
▁রহমানের	-4419
▁করেছি	-4420
▁পক্ষে	-4421
▁মূল্য	-4422
▁ইউপি	-4423
▁পুন	-4424
▁lay	-4425
▁ছেড়ে	-4426
্রাম	-4427
▁অস্ট্র	-4428
go	-4429
▁emer	-4430
বন্ধন	-4431
▁sea	-4432
▁surv	-4433
▁দাঁড়িয়ে	-4434
▁রি	-4435
▁Sept	-4436
▁heat	-4437
▁schools	-4438
▁কমিশনার	-4439
ze	-4440
▁এখানে	-4441
▁animal	-4442
iding	-4443
ivity	-4444
▁Prog	-4445
▁init	-4446
▁মনোন	-4447
দ্ব	-4448
▁pict	-4449
▁provided	-4450
▁lo	-4451
▁inj	-4452
▁সারা	-4453
▁circ	-4454
▁প্রতিযোগ	-4455
▁নাট	-4456
▁এমপি	-4457
▁causes	-4458
▁গড়ে	-4459
▁pattern	-4460
▁উঠে	-4461
idered	-4462
▁displ	-4463
▁বিশ্বাস	-4464
enn	-4465
াক্ষ	-4466
▁সংশ্লিষ্ট	-4467
▁Austral	-4468
▁normal	-4469
pid	-4470
▁মোস্ত	-4471
▁ভাল	-4472
▁আশা	-4473
▁July	-4474
▁জেনার	-4475
▁business	-4476
▁মেনে	-4477
রণের	-4478
▁warm	-4479
▁অনুষ্ঠান	-4480
▁ec	-4481
▁কাজে	-4482
▁Qu	-4483
uals	-4484
▁toward	-4485
ried	-4486
▁যুগ্ম	-4487
▁জনকে	-4488
▁বিজয়	-4489
▁Although	-4490
▁clean	-4491
ibility	-4492
▁God	-4493
▁মোটর	-4494
▁ability	-4495
▁মন্ত্রণালয়ের	-4496
১০	-4497
▁Ac	-4498
aging	-4499
▁চিত্র	-4500
We	-4501
▁avoid	-4502
▁liter	-4503
yn	-4504
▁বাড়ির	-4505
গার	-4506
▁গাড়	-4507
▁Cons	-4508
ington	-4509
▁শিকার	-4510
▁বাল	-4511
িন্দা	-4512
▁অন্যতম	-4513
▁forest	-4514
▁সিনিয়র	-4515
▁করলেন	-4516
রী	-4517
uck	-4518
ামূল	-4519
▁Rec	-4520
োলার	-4521
▁অর্	-4522
▁সেরা	-4523
▁সংক্রমণ	-4524
acks	-4525
aged	-4526
▁Inc	-4527
▁সম্মেলনে	-4528
টন	-4529
ফুল	-4530
ায়ার	-4531
▁নির্বাচিত	-4532
▁ভোর	-4533
▁চাঁদ	-4534
for	-4535
itud	-4536
▁Tw	-4537
▁চিন	-4538
▁দেয়ার	-4539
▁ভাব	-4540
▁infection	-4541
▁uses	-4542
▁reason	-4543
▁Post	-4544
ladesh	-4545
ব্র	-4546
▁Here	-4547
▁ever	-4548
oose	-4549
াফিজ	-4550
▁পার্	-4551
▁গুরুত্বপূর্ণ	-4552
▁Em	-4553
aced	-4554
▁Pres	-4555
▁খাবার	-4556
▁understanding	-4557
▁তৃ	-4558
▁According	-4559
ched	-4560
▁App	-4561
▁whole	-4562
▁react	-4563
▁সৃষ্টি	-4564
▁সুবি	-4565
▁রাম	-4566
▁NASA	-4567
▁সময়ের	-4568
▁পরিকল্পনা	-4569
▁হত্যার	-4570
▁প্রস্তুতি	-4571
▁PM	-4572
▁ক্ল	-4573
▁almost	-4574
▁experim	-4575
▁abs	-4576
▁আমের	-4577
▁আক্তার	-4578
ume	-4579
▁ঈদ	-4580
▁previous	-4581
াতার	-4582
▁পদে	-4583
▁soft	-4584
▁মহাম	-4585
yle	-4586
ীক	-4587
oice	-4588
▁চান	-4589
based	-4590
▁এখনো	-4591
▁Ke	-4592
▁content	-4593
২৫	-4594
issions	-4595
▁considered	-4596
gar	-4597
▁bur	-4598
▁sleep	-4599
▁কয়েকটি	-4600
▁মুক্তিযো	-4601
▁শিক্ষার্থী	-4602
পাদ	-4603
itis	-4604
▁comes	-4605
▁প্রবেশ	-4606
▁জেনারেল	-4607
ীপ	-4608
load	-4609
▁সুন	-4610
▁যায়নি	-4611
▁safe	-4612
reg	-4613
▁entire	-4614
▁অবস্থা	-4615
টু	-4616
inary	-4617
▁প্রচ	-4618
▁communic	-4619
▁শো	-4620
▁modern	-4621
▁music	-4622
▁৪০	-4623
▁bar	-4624
▁শহীদ	-4625
vention	-4626
amed	-4627
্রাস	-4628
▁কৃষি	-4629
▁taking	-4630
▁travel	-4631
▁করেছিলেন	-4632
▁path	-4633
▁magn	-4634
▁Su	-4635
fact	-4636
▁থাকায়	-4637
▁অসু	-4638
▁came	-4639
▁opportun	-4640
▁অস্ট্রেল	-4641
PA	-4642
▁Mon	-4643
▁জারি	-4644
minist	-4645
▁অ্যাড	-4646
▁আইনজীব	-4647
▁electric	-4648
▁produced	-4649
▁achie	-4650
▁Bengal	-4651
১৭	-4652
▁অথ	-4653
cient	-4654
pro	-4655
ancy	-4656
ging	-4657
▁dest	-4658
▁slow	-4659
▁Medic	-4660
▁পরীক্ষার	-4661
▁super	-4662
ৈধ	-4663
▁নেয়	-4664
▁উল্লেখ্য	-4665
▁Me	-4666
▁সিং	-4667
▁rather	-4668
াগত	-4669
ড়ায়	-4670
▁সেটা	-4671
▁built	-4672
▁variety	-4673
্যাপী	-4674
▁পর্যায়ে	-4675
▁নেতৃত্বে	-4676
ront	-4677
২২	-4678
▁farm	-4679
rought	-4680
urch	-4681
▁বাণ	-4682
▁কবির	-4683
ানী	-4684
room	-4685
▁২০১৬	-4686
▁Associ	-4687
▁কণ্ঠ	-4688
etwork	-4689
▁ভিত্তিতে	-4690
adem	-4691
▁প্রতিরোধ	-4692
▁relations	-4693
সর	-4694
▁ঢাকায়	-4695
▁দার	-4696
ength	-4697
▁Serv	-4698
২৮	-4699
▁সাহায	-4700
▁আপন	-4701
light	-4702
▁members	-4703
▁complex	-4704
het	-4705
▁April	-4706
▁throughout	-4707
apan	-4708
▁longer	-4709
▁হামলার	-4710
▁ce	-4711
▁যশ	-4712
▁রাস	-4713
বাংলা	-4714
▁পরিবর্তন	-4715
▁sometimes	-4716
▁Har	-4717
▁began	-4718
▁earth	-4719
▁সিলে	-4720
▁হাল	-4721
িস্ট্র	-4722
কোর্ট	-4723
মেন্ট	-4724
▁মাছ	-4725
▁অবৈধ	-4726
▁damage	-4727
▁সর্বশেষ	-4728
▁fire	-4729
▁ছাত্রলীগের	-4730
▁চোখ	-4731
ID	-4732
▁নর	-4733
www	-4734
▁squ	-4735
ography	-4736
▁Gl	-4737
▁x	-4738
চেতন	-4739
ee	-4740
▁January	-4741
▁জঙ্গ	-4742
▁ভাবে	-4743
▁সম্ভাব	-4744
▁sat	-4745
▁আরেক	-4746
▁প্রযুক্তি	-4747
▁সহায়তা	-4748
টিয়ে	-4749
▁পড়া	-4750
▁practice	-4751
▁পুরুষ	-4752
▁সিরাজ	-4753
▁required	-4754
ai	-4755
▁নো	-4756
ান্স	-4757
▁ধরা	-4758
gency	-4759
▁website	-4760
▁সিনেমা	-4761
ৃত্ত	-4762
্ফ	-4763
▁হত	-4764
▁কলেজের	-4765
lt	-4766
▁জোর	-4767
▁সৈয়	-4768
নাথ	-4769
ulations	-4770
▁sources	-4771
▁Will	-4772
ster	-4773
▁ens	-4774
▁ব্ল	-4775
▁প্রশিক্ষ	-4776
life	-4777
াভাবিক	-4778
▁সদস্যরা	-4779
hood	-4780
▁জড়িত	-4781
▁ফেসবুক	-4782
▁diseases	-4783
▁পৌঁছে	-4784
▁star	-4785
▁বার্তা	-4786
▁saf	-4787
▁reported	-4788
োনাল	-4789
▁সতর্ক	-4790
▁conduct	-4791
',	-4792
▁এল	-4793
▁ক্যা	-4794
▁issue	-4795
hing	-4796
▁smo	-4797
▁yet	-4798
▁অব্যা	-4799
▁suff	-4800
▁popular	-4801
▁scientific	-4802
েলের	-4803
▁Par	-4804
▁History	-4805
▁Fr	-4806
েম্ব	-4807
▁interact	-4808
▁job	-4809
বিতে	-4810
asc	-4811
▁active	-4812
▁পল	-4813
▁eye	-4814
uation	-4815
▁ভারতে	-4816
▁যাত্র	-4817
শে	-4818
istics	-4819
▁behavior	-4820
▁ইক	-4821
▁আসামি	-4822
▁check	-4823
▁regular	-4824
য়াজ	-4825
▁রশ	-4826
িত্য	-4827
১১	-4828
ground	-4829
▁ম্য	-4830
▁break	-4831
▁কাউন্সিল	-4832
ূর্ত	-4833
▁ঘটেছে	-4834
▁বিস্তার	-4835
গ্রী	-4836
▁অধিদপ্ত	-4837
▁fail	-4838
chan	-4839
▁lif	-4840
াব্দ	-4841
bor	-4842
wise	-4843
▁তাম	-4844
erous	-4845
▁series	-4846
▁এত	-4847
▁সুন্দর	-4848
াকর্ম	-4849
▁সংস্থ	-4850
▁growing	-4851
দেশের	-4852
▁ছবির	-4853
▁lives	-4854
▁veget	-4855
▁জেলায়	-4856
▁পাকিস্তান	-4857
েহ	-4858
দিও	-4859
▁কাপ	-4860
▁images	-4861
ises	-4862
ners	-4863
▁ice	-4864
▁took	-4865
▁পারি	-4866
▁ক্রিকেটার	-4867
aff	-4868
বাল	-4869
ming	-4870
▁Web	-4871
▁Wash	-4872
▁Art	-4873
▁His	-4874
anced	-4875
▁daily	-4876
▁গাজী	-4877
▁Colle	-4878
▁সমাবেশ	-4879
iet	-4880
▁September	-4881
▁আমিন	-4882
▁ওয়ান	-4883
▁দাবিতে	-4884
apt	-4885
▁মন্ত্রণালয়	-4886
▁অল	-4887
মানা	-4888
▁বলেও	-4889
rences	-4890
১২	-4891
ুণ	-4892
▁threat	-4893
টিকে	-4894
▁sex	-4895
▁প্রস্তাব	-4896
ON	-4897
▁রাখার	-4898
▁যুক্তরাষ্ট্রের	-4899
sect	-4900
▁তৃণ	-4901
▁পেশ	-4902
aries	-4903
▁পরাম	-4904
▁আনন্দ	-4905
▁adults	-4906
াক্ক	-4907
▁বাস্তবায়	-4908
ims	-4909
জাত	-4910
▁numbers	-4911
▁সম্পন্ন	-4912
▁ox	-4913
overy	-4914
▁encoura	-4915
▁arr	-4916
▁idea	-4917
▁origin	-4918
▁shown	-4919
▁easy	-4920
তেই	-4921
▁একাধিক	-4922
▁involved	-4923
ils	-4924
▁গাড়ি	-4925
▁কামাল	-4926
▁increasing	-4927
▁self	-4928
▁বর্ষ	-4929
▁themselves	-4930
▁ফো	-4931
▁lat	-4932
▁services	-4933
▁Lear	-4934
▁tree	-4935
▁Japan	-4936
াহিদ	-4937
▁log	-4938
▁draw	-4939
▁late	-4940
▁পরামর্শ	-4941
▁আও	-4942
▁See	-4943
▁প্রচার	-4944
▁প্রশাসক	-4945
IN	-4946
mb	-4947
▁search	-4948
▁Comp	-4949
cember	-4950
▁habit	-4951
▁পরবর্তী	-4952
তেন	-4953
fully	-4954
▁exercise	-4955
utions	-4956
েনি	-4957
▁::	-4958
▁একা	-4959
▁বিধ	-4960
ister	-4961
▁strateg	-4962
▁standard	-4963
▁Sm	-4964
▁effic	-4965
ternet	-4966
▁miles	-4967
▁আয়োজিত	-4968
▁ফাইন	-4969
দল	-4970
▁লেন	-4971
▁tools	-4972
▁Education	-4973
▁added	-4974
▁assess	-4975
ply	-4976
▁Not	-4977
itation	-4978
▁নির্মাণ	-4979
aches	-4980
▁economic	-4981
▁নিয়ন্ত্রণ	-4982
▁আধ	-4983
▁books	-4984
▁total	-4985
ভোগ	-4986
▁আমির	-4987
IV	-4988
rial	-4989
▁নাই	-4990
▁safety	-4991
▁কাশ	-4992
▁birth	-4993
It	-4994
শার	-4995
▁August	-4996
ules	-4997
সিন	-4998
▁ধর্ষণ	-4999
▁training	-5000
▁video	-5001
▁ঘটনাস্থলে	-5002
ক্য	-5003
▁টিক	-5004
▁ব্যাপক	-5005
্বল	-5006
িরে	-5007
▁দোকান	-5008
izing	-5009
▁সারাদেশ	-5010
▁Min	-5011
▁pay	-5012
োয়েন্ট	-5013
▁cannot	-5014
▁County	-5015
pts	-5016
▁separ	-5017
য়েল	-5018
▁itself	-5019
▁International	-5020
▁October	-5021
elling	-5022
▁প্রকাশের	-5023
সন	-5024
▁tur	-5025
ড়ার	-5026
ounts	-5027
▁সৈয়দ	-5028
▁basic	-5029
▁repl	-5030
▁tests	-5031
▁management	-5032
AN	-5033
▁যত	-5034
ৃতিক	-5035
▁fig	-5036
▁খেলে	-5037
▁events	-5038
এসসি	-5039
▁expos	-5040
▁industry	-5041
▁হাইকোর্ট	-5042
▁pm	-5043
iter	-5044
ার্ম	-5045
▁অনুর	-5046
▁greater	-5047
ellow	-5048
▁bring	-5049
▁নমুনা	-5050
▁weather	-5051
ban	-5052
▁নিয়মিত	-5053
▁গোয়	-5054
১৪	-5055
▁Per	-5056
ঙ্খ	-5057
ucle	-5058
▁serious	-5059
▁dom	-5060
▁identify	-5061
ব্যাপী	-5062
aving	-5063
▁ইউর	-5064
▁বাকি	-5065
AT	-5066
▁Ag	-5067
▁খুঁ	-5068
▁wood	-5069
ভো	-5070
▁doesn	-5071
▁remain	-5072
ruary	-5073
িজ্য	-5074
▁জায়গ	-5075
oard	-5076
▁led	-5077
▁শক্ত	-5078
▁সংস্ক	-5079
ধে	-5080
▁আন্দোলন	-5081
▁সন্ধ্যায়	-5082
▁প্রতিবেদন	-5083
ধানে	-5084
▁exc	-5085
▁দেব	-5086
▁নিষেধ	-5087
▁teachers	-5088
▁পরিচয়	-5089
▁stress	-5090
▁Day	-5091
▁শোক	-5092
চার্জ	-5093
▁দীর্ঘদিন	-5094
▁remov	-5095
▁তাতে	-5096
▁writing	-5097
hy	-5098
rapy	-5099
উন্ড	-5100
▁Part	-5101
▁helps	-5102
▁ব্যবসায়	-5103
▁relative	-5104
▁necessary	-5105
year	-5106
১৫	-5107
ropri	-5108
▁getting	-5109
▁পঞ্চ	-5110
▁পৌঁছ	-5111
▁extreme	-5112
):	-5113
▁ফরিদ	-5114
▁II	-5115
astic	-5116
মনসিং	-5117
▁গল্প	-5118
িসং	-5119
▁Bangladesh	-5120
ঘাট	-5121
▁share	-5122
থমে	-5123
epend	-5124
▁যদিও	-5125
▁nature	-5126
▁গাছ	-5127
▁probably	-5128
▁pan	-5129
▁ইনি	-5130
▁mind	-5131
▁written	-5132
▁ঋ	-5133
itary	-5134
▁Daily	-5135
▁service	-5136
▁experien	-5137
▁নেতাকর্ম	-5138
▁demon	-5139
▁বুঝ	-5140
news	-5141
▁কারাগ	-5142
ুয়ারী	-5143
▁takes	-5144
▁December	-5145
▁neg	-5146
▁ফেল	-5147
▁forms	-5148
▁nation	-5149
▁আদালতের	-5150
▁tar	-5151
▁Arch	-5152
▁আমাকে	-5153
▁El	-5154
▁যশোর	-5155
▁River	-5156
▁estim	-5157
imately	-5158
▁card	-5159
oday	-5160
▁Sur	-5161
▁ঘুর	-5162
▁sites	-5163
ovember	-5164
▁personal	-5165
▁Of	-5166
▁First	-5167
▁রাজ্য	-5168
▁Americans	-5169
▁নির্দেশনা	-5170
▁থাকেন	-5171
▁হিসাবে	-5172
▁Bec	-5173
▁দফ	-5174
raft	-5175
▁ইর	-5176
▁তারকা	-5177
▁নেওয়ার	-5178
oor	-5179
▁rev	-5180
anth	-5181
▁Our	-5182
▁বিপর	-5183
▁print	-5184
▁Environment	-5185
▁ভি	-5186
▁সংগঠনের	-5187
sequ	-5188
▁যেখানে	-5189
▁পেয়েছেন	-5190
▁পণ্য	-5191
▁humans	-5192
oes	-5193
▁দলে	-5194
▁review	-5195
▁বিজ্ঞান	-5196
▁ভূম	-5197
্যাশন	-5198
▁continue	-5199
▁টুই	-5200
▁Now	-5201
▁priv	-5202
▁tiss	-5203
▁included	-5204
▁investig	-5205
▁Pol	-5206
▁deep	-5207
ক্লা	-5208
▁severe	-5209
▁বাংলাদেশি	-5210
▁collection	-5211
omet	-5212
▁season	-5213
সান	-5214
▁mor	-5215
্লেক্স	-5216
চালক	-5217
▁তারপর	-5218
▁নিয়েছেন	-5219
▁এছাড়াও	-5220
ঙে	-5221
▁বছরে	-5222
গুলোতে	-5223
▁Techn	-5224
ুকুর	-5225
▁মিনিট	-5226
াবা	-5227
▁ধান	-5228
▁নিখ	-5229
▁শ্রীল	-5230
▁sil	-5231
▁বসে	-5232
্যান্ট	-5233
▁উৎপাদ	-5234
▁গিয়েছে	-5235
OR	-5236
▁আলোচ	-5237
▁সংক	-5238
rated	-5239
▁কর্মসূচি	-5240
▁গণমাধ্যম	-5241
▁subst	-5242
▁নারায়ণ	-5243
▁meaning	-5244
ইন	-5245
ene	-5246
▁তাপ	-5247
এসই	-5248
িকের	-5249
▁camp	-5250
▁pregn	-5251
▁determine	-5252
▁চিকিৎসাধীন	-5253
outhern	-5254
▁কাট	-5255
▁ফুল	-5256
▁দশমিক	-5257
▁inside	-5258
▁সম্মেলন	-5259
।"	-5260
▁February	-5261
নগর	-5262
ার্ন	-5263
▁Dav	-5264
▁চায়	-5265
ত্ত্ব	-5266
▁পালিয়ে	-5267
▁মুর	-5268
▁original	-5269
▁যুদ্ধ	-5270
র্গ	-5271
্নের	-5272
▁summer	-5273
▁কোভিড	-5274
▁অব্যাহত	-5275
▁British	-5276
▁structure	-5277
▁দলীয়	-5278
▁কত	-5279
▁আদেশ	-5280
▁princi	-5281
েও	-5282
▁জরুরি	-5283
▁তিনটি	-5284
▁looking	-5285
▁methods	-5286
▁চ্যাম্প	-5287
▁ছাত্রী	-5288
▁heav	-5289
▁nearly	-5290
▁অনেকেই	-5291
▁analysis	-5292
▁document	-5293
▁পেতে	-5294
▁ফুটবল	-5295
▁গুরুতর	-5296
▁sn	-5297
▁সহজ	-5298
▁প্রভাব	-5299
▁maintain	-5300
▁বেসর	-5301
▁ইসলামের	-5302
▁অনুস	-5303
ino	-5304
ctions	-5305
▁employ	-5306
ওসি	-5307
▁Sec	-5308
▁এদিন	-5309
▁fem	-5310
▁ste	-5311
arily	-5312
▁night	-5313
▁লোকজন	-5314
know	-5315
▁rock	-5316
▁Washington	-5317
৫০	-5318
গঠনিক	-5319
▁লেনদ	-5320
▁Cur	-5321
ternal	-5322
াসন	-5323
mosp	-5324
▁চালক	-5325
▁প্রথমে	-5326
rior	-5327
▁চক্র	-5328
▁পেয়েছে	-5329
DA	-5330
▁jo	-5331
▁gard	-5332
▁যাতে	-5333
২৭	-5334
▁baby	-5335
▁King	-5336
▁birds	-5337
▁account	-5338
ops	-5339
dated	-5340
▁আর্থ	-5341
▁করায়	-5342
▁money	-5343
▁terms	-5344
▁Her	-5345
▁hot	-5346
verse	-5347
gu	-5348
িতার	-5349
ls	-5350
onse	-5351
▁শহর	-5352
▁আফ্র	-5353
urity	-5354
cri	-5355
▁cover	-5356
▁ভাঙ	-5357
মস	-5358
▁trees	-5359
lies	-5360
wh	-5361
▁bacteria	-5362
▁families	-5363
▁upon	-5364
▁অভিযুক্ত	-5365
▁কোম্পানি	-5366
▁পাকিস্তানের	-5367
orthern	-5368
▁select	-5369
▁benefits	-5370
▁মজ	-5371
▁conc	-5372
▁বৈঠক	-5373
▁sense	-5374
▁রিপোর্টার	-5375
▁লাভ	-5376
▁চন্দ্র	-5377
▁November	-5378
▁official	-5379
▁Medical	-5380
েক্ট	-5381
▁Bar	-5382
▁এরই	-5383
▁বেড়েছে	-5384
কারে	-5385
▁কেজি	-5386
▁সফল	-5387
▁relig	-5388
▁স্টাফ	-5389
▁পররাষ্ট্র	-5390
▁প্রক্র	-5391
▁বীর	-5392
ঠি	-5393
olic	-5394
▁বিদ্যুৎ	-5395
▁political	-5396
সী	-5397
াসে	-5398
lick	-5399
▁deb	-5400
▁অসুস্থ	-5401
াতি	-5402
rench	-5403
▁thing	-5404
▁ইনস্ট	-5405
▁ধর্ষণের	-5406
াচার	-5407
▁ভ্যাক	-5408
▁action	-5409
▁approach	-5410
▁পাওয়ার	-5411
▁contains	-5412
▁জো	-5413
▁রানে	-5414
▁ছবিতে	-5415
▁Ant	-5416
▁দুর্ন	-5417
কারীদের	-5418
udd	-5419
atives	-5420
▁ব্যবস্থাপ	-5421
▁চলাচল	-5422
▁poor	-5423
▁Reg	-5424
▁face	-5425
▁ইংল্যান্ড	-5426
২৬	-5427
▁ir	-5428
▁rare	-5429
▁i	-5430
▁thous	-5431
▁dry	-5432
▁weeks	-5433
▁market	-5434
বীর	-5435
▁My	-5436
▁Park	-5437
▁স্বাভাবিক	-5438
▁Program	-5439
▁Gra	-5440
▁খুলনা	-5441
resh	-5442
জন্য	-5443
ফিকুল	-5444
▁বিনোদন	-5445
▁বৃদ্ধি	-5446
▁bul	-5447
▁পত্র	-5448
▁দিলেন	-5449
▁During	-5450
বছ	-5451
১৬	-5452
cies	-5453
ল্লা	-5454
▁Medicine	-5455
২৩	-5456
্বিক	-5457
▁feed	-5458
▁অগ্ন	-5459
▁larger	-5460
▁believe	-5461
▁instead	-5462
চ্ছি	-5463
▁African	-5464
▁সন্ধ	-5465
eration	-5466
▁Museum	-5467
▁ওপ	-5468
▁মামুন	-5469
▁eating	-5470
▁foot	-5471
▁বলতে	-5472
▁বরিশাল	-5473
▁largest	-5474
▁Sw	-5475
াপতি	-5476
▁আসার	-5477
▁outside	-5478
▁বগু	-5479
▁communities	-5480
মত	-5481
bre	-5482
▁prop	-5483
▁arm	-5484
▁mach	-5485
ille	-5486
▁খাত	-5487
▁হেল	-5488
▁ব্যবহ	-5489
book	-5490
▁hold	-5491
▁town	-5492
▁অন্তত	-5493
▁বিক্র	-5494
lex	-5495
ালেন	-5496
ields	-5497
att	-5498
▁লড়াই	-5499
▁জমা	-5500
▁sound	-5501
▁mess	-5502
▁বাব	-5503
▁acid	-5504
▁রানের	-5505
▁findings	-5506
ads	-5507
▁Fran	-5508
▁mechan	-5509
▁সমিতির	-5510
▁উদয	-5511
▁China	-5512
▁আনা	-5513
▁বৃষ্টি	-5514
ospital	-5515
opyright	-5516
▁পদক্ষেপ	-5517
কো	-5518
usion	-5519
istance	-5520
▁চরিত্র	-5521
▁মন্ত্র	-5522
cks	-5523
▁কার্যালয়ে	-5524
idge	-5525
▁প্লা	-5526
▁ময়মনসিং	-5527
সিক	-5528
াজ্ঞ	-5529
▁বৈঠকে	-5530
▁minutes	-5531
▁individuals	-5532
ufact	-5533
▁রোগী	-5534
▁Since	-5535
▁dang	-5536
▁ut	-5537
reng	-5538
▁তালিকা	-5539
▁মুখ্য	-5540
▁প্রতিমন্ত্রী	-5541
atur	-5542
▁attention	-5543
▁প্রেসক্লা	-5544
▁©	-5545
▁rain	-5546
▁অধিকার	-5547
ief	-5548
▁আইস	-5549
▁sust	-5550
▁India	-5551
▁বাহিনীর	-5552
▁নির্বাচনের	-5553
▁relationship	-5554
This	-5555
▁integ	-5556
▁objects	-5557
▁generally	-5558
▁শাম	-5559
▁seem	-5560
▁প্রতিটি	-5561
▁implement	-5562
▁Bi	-5563
exic	-5564
▁বিজ্ঞপ্তিতে	-5565
▁cool	-5566
উদ্দিন	-5567
▁জায়গায়	-5568
▁ভাইস	-5569
ংক	-5570
গুলি	-5571
ached	-5572
্যান্স	-5573
▁micro	-5574
▁মুক্তিযোদ্ধা	-5575
ক্ষম	-5576
aters	-5577
▁পরিবহন	-5578
▁Over	-5579
▁পরিমাণ	-5580
▁গঠন	-5581
▁নিউ	-5582
▁দাঁড়	-5583
▁জামিন	-5584
▁Africa	-5585
▁planet	-5586
▁Children	-5587
▁ব্যাংকের	-5588
mar	-5589
▁আফগান	-5590
▁কাজের	-5591
▁অভিনেতা	-5592
▁জরিমানা	-5593
▁গভীর	-5594
▁উঠেছে	-5595
▁Online	-5596
▁leading	-5597
▁তাঁকে	-5598
new	-5599
▁High	-5600
▁কমিশন	-5601
▁জাতির	-5602
মূ	-5603
▁মাস্ক	-5604
▁আনোয়ার	-5605
▁ম্যাচের	-5606
ৃদ	-5607
ুলত	-5608
▁মুসলিম	-5609
িনী	-5610
rees	-5611
▁বাঁচ	-5612
িটন	-5613
▁har	-5614
▁prep	-5615
▁হস্ত	-5616
▁কমপ্লেক্স	-5617
▁web	-5618
▁হাব	-5619
▁হাসিনার	-5620
▁compared	-5621
▁etc	-5622
▁particularly	-5623
▁born	-5624
ension	-5625
iot	-5626
ুর্ন	-5627
▁map	-5628
▁Also	-5629
▁multip	-5630
▁০৯	-5631
gery	-5632
▁older	-5633
▁বিদ্যালয়ের	-5634
িতায়	-5635
▁ভুল	-5636
মর	-5637
▁দখ	-5638
▁dark	-5639
▁file	-5640
▁ধারণা	-5641
▁international	-5642
▁doing	-5643
▁সচেতন	-5644
▁প্রয়োজনীয়	-5645
▁এশ	-5646
▁লিম	-5647
ামেন্ট	-5648
ৃঙ্খ	-5649
aling	-5650
▁বিকেল	-5651
▁European	-5652
uk	-5653
▁capt	-5654
▁দোয়া	-5655
▁Aut	-5656
▁আসনের	-5657
▁মহাসড়	-5658
▁বজ	-5659
▁কঠোর	-5660
তন্ত্র	-5661
টোয়েন্ট	-5662
▁নিক	-5663
▁বায়	-5664
▁বলিউড	-5665
▁কুমিল্লা	-5666
ফো	-5667
uge	-5668
▁Use	-5669
▁সাংগঠনিক	-5670
▁cla	-5671
▁কিল	-5672
▁পাস	-5673
▁মহাসচিব	-5674
▁জে	-5675
▁সংব	-5676
▁reve	-5677
ধ্যক্ষ	-5678
▁south	-5679
▁target	-5680
▁vit	-5681
undred	-5682
▁প্রশাসনের	-5683
unch	-5684
ুদ্র	-5685
▁বাসায়	-5686
▁screen	-5687
▁position	-5688
পাশ	-5689
িশন	-5690
▁হোম	-5691
▁খেলতে	-5692
▁আইনজীবী	-5693
wide	-5694
আপ	-5695
্না	-5696
▁নিন	-5697
▁পেঁ	-5698
সভাপতি	-5699
▁Association	-5700
▁মাও	-5701
▁ক্লাব	-5702
▁Each	-5703
▁ভেঙে	-5704
▁#	-5705
hest	-5706
▁অঞ্চ	-5707
▁tax	-5708
sp	-5709
▁Cor	-5710
isions	-5711
▁easily	-5712
▁মিছিল	-5713
▁স্থানীয়রা	-5714
hel	-5715
▁ঝুঁ	-5716
▁বাং	-5717
▁Canada	-5718
▁CO	-5719
▁tend	-5720
▁Today	-5721
▁Scient	-5722
▁labor	-5723
▁matter	-5724
▁বেঁ	-5725
▁বয়সী	-5726
▁যেমন	-5727
▁north	-5728
▁refer	-5729
▁simply	-5730
ropriate	-5731
োমুখ	-5732
na	-5733
াইভ	-5734
▁coast	-5735
▁unique	-5736
▁রাজনীতি	-5737
▁ষ	-5738
িয়েছে	-5739
▁Water	-5740
▁rates	-5741
▁proced	-5742
▁Mexic	-5743
▁বাণিজ্য	-5744
▁mill	-5745
▁colon	-5746
▁মধ্যেই	-5747
বঙ্গ	-5748
বৃন্দ	-5749
▁কল্যা	-5750
▁দিনাজ	-5751
▁quickly	-5752
▁concent	-5753
▁Space	-5754
▁ideas	-5755
▁কোর্ট	-5756
▁বেসরকারি	-5757
uries	-5758
water	-5759
▁sugar	-5760
▁third	-5761
▁answer	-5762
▁stra	-5763
▁আত্মহত	-5764
▁correct	-5765
▁মুখোমুখ	-5766
▁broad	-5767
▁discovered	-5768
▁Public	-5769
▁ইনচার্জ	-5770
▁winter	-5771
IC	-5772
ভুক্ত	-5773
▁Prot	-5774
▁length	-5775
irm	-5776
▁ধাক্ক	-5777
▁company	-5778
▁recently	-5779
atab	-5780
▁hyd	-5781
▁Char	-5782
▁cold	-5783
▁mole	-5784
▁মনির	-5785
▁দিল্ল	-5786
▁center	-5787
▁জিতে	-5788
হান	-5789
▁থাকলে	-5790
▁স্বীকার	-5791
ED	-5792
ana	-5793
▁Add	-5794
▁emb	-5795
নীত	-5796
▁সঙ্গ	-5797
▁নিষেধাজ্ঞ	-5798
▁শাক	-5799
▁wall	-5800
▁insect	-5801
▁যাচ্ছেন	-5802
▁হিন্দ	-5803
▁তাঁদের	-5804
মধ্যে	-5805
▁extra	-5806
▁মোটরসাই	-5807
alking	-5808
▁display	-5809
পু	-5810
▁bott	-5811
▁প্রস্তুত	-5812
dom	-5813
▁bal	-5814
▁pet	-5815
▁harm	-5816
▁সন্দ	-5817
▁altern	-5818
cil	-5819
▁অট	-5820
▁থাকলেও	-5821
▁পৌরসভার	-5822
▁ap	-5823
▁City	-5824
▁federal	-5825
▁located	-5826
nes	-5827
▁মুখোমুখি	-5828
িমা	-5829
▁পেল	-5830
▁Tra	-5831
▁নূর	-5832
▁একদিন	-5833
▁section	-5834
াপ্র	-5835
▁About	-5836
▁ঘণ্টা	-5837
▁মানববন্ধন	-5838
▁জিজ্ঞ	-5839
▁Develop	-5840
▁পর্ব	-5841
্ফোর	-5842
amer	-5843
▁attack	-5844
▁movement	-5845
▁অন্যদিকে	-5846
ha	-5847
▁হঠ	-5848
▁true	-5849
বায়দুল	-5850
াউন্ড	-5851
▁behind	-5852
▁সংক্রান্ত	-5853
amb	-5854
itude	-5855
▁Indian	-5856
▁points	-5857
▁demonstr	-5858
৪০	-5859
গীর	-5860
▁এড	-5861
▁ফায়ার	-5862
▁শারীর	-5863
▁মাদ্রাস	-5864
চি	-5865
▁President	-5866
কল	-5867
pper	-5868
▁কান	-5869
▁লেখা	-5870
▁লকডাউন	-5871
ফর	-5872
বিত্র	-5873
▁পারবে	-5874
▁গোপন	-5875
▁Because	-5876
rag	-5877
▁primary	-5878
omy	-5879
লিশ	-5880
▁San	-5881
▁lack	-5882
▁করিম	-5883
▁জিয়ার	-5884
১৩	-5885
▁জায়গা	-5886
▁additional	-5887
▁দিক	-5888
▁viol	-5889
▁streng	-5890
▁সাতক্ষ	-5891
".	-5892
▁allows	-5893
রক্ষ	-5894
▁culture	-5895
▁চত	-5896
▁ডেই	-5897
ড়ান্ত	-5898
▁fuel	-5899
▁কং	-5900
lier	-5901
▁Vir	-5902
▁আরব	-5903
▁মর্	-5904
▁মাহফ	-5905
▁আয়োজনে	-5906
পথ	-5907
▁নামাজ	-5908
▁লক্ষ্যে	-5909
▁সমন	-5910
▁অগ্র	-5911
▁কিংবা	-5912
▁ম্যাজ	-5913
▁response	-5914
▁সহযোগিতা	-5915
▁defin	-5916
▁dou	-5917
ুষ্ঠান	-5918
▁exposure	-5919
রির	-5920
ুধ	-5921
িদুল	-5922
estic	-5923
্লাই	-5924
▁Why	-5925
▁আবহা	-5926
▁মাথায়	-5927
▁regard	-5928
▁পিছ	-5929
▁Di	-5930
▁Great	-5931
▁front	-5932
▁উন্নয়	-5933
ura	-5934
▁Tex	-5935
▁People	-5936
▁এইচ	-5937
erson	-5938
▁bit	-5939
▁bra	-5940
▁টিম	-5941
▁সম্মান	-5942
ribution	-5943
oe	-5944
▁রম	-5945
rest	-5946
▁আসতে	-5947
▁Published	-5948
iews	-5949
▁আগ্র	-5950
rim	-5951
▁আখ	-5952
গাঁও	-5953
joy	-5954
াদি	-5955
গ্রেস	-5956
▁features	-5957
তী	-5958
elt	-5959
▁সেনাবাহ	-5960
পরি	-5961
▁পোশ	-5962
▁fast	-5963
▁সমালো	-5964
▁positive	-5965
▁পেছ	-5966
▁আসেন	-5967
▁ঈদের	-5968
▁অনুরোধ	-5969
▁challeng	-5970
▁ট্রেন	-5971
▁ইতিহাস	-5972
▁genetic	-5973
lied	-5974
▁Cong	-5975
▁compon	-5976
▁someone	-5977
▁সাহায্য	-5978
▁mount	-5979
▁leaves	-5980
▁professor	-5981
▁চূ	-5982
যোগ্য	-5983
▁MD	-5984
▁ভেত	-5985
iques	-5986
▁breat	-5987
▁French	-5988
ীরে	-5989
cell	-5990
ords	-5991
▁cele	-5992
▁উচিত	-5993
▁গ্রাহ	-5994
▁কার্যকর	-5995
ার্চ	-5996
▁Sun	-5997
▁central	-5998
▁emissions	-5999
▁difference	-6000
▁...	-6001
▁manufact	-6002
▁DNA	-6003
▁cross	-6004
▁hor	-6005
▁আওতায়	-6006
বাগ	-6007
বরাহ	-6008
▁বাসিন্দা	-6009
avor	-6010
▁জামাল	-6011
▁useful	-6012
▁চীন	-6013
▁ফারুক	-6014
▁বিরোধী	-6015
▁projects	-6016
▁established	-6017
▁শাস্ত	-6018
▁atmosp	-6019
খাল	-6020
তাব	-6021
ামের	-6022
▁চাষ	-6023
▁মিজ	-6024
▁coun	-6025
▁stay	-6026
▁compet	-6027
▁সাপ	-6028
▁মনোনয়ন	-6029
▁efforts	-6030
▁মুহূর্ত	-6031
জের	-6032
▁Red	-6033
▁পাই	-6034
ৃতিতে	-6035
▁Last	-6036
▁Green	-6037
▁পৃথিব	-6038
ধিক	-6039
জনক	-6040
ফের	-6041
term	-6042
▁Phil	-6043
▁প্রতিবেদনে	-6044
iles	-6045
ties	-6046
▁বাহিনী	-6047
▁ancient	-6048
৩৫	-6049
িসংঘ	-6050
▁আবারও	-6051
▁progress	-6052
▁ঐতি	-6053
iency	-6054
▁Mars	-6055
▁immedi	-6056
▁ওবায়দুল	-6057
rs	-6058
িক্স	-6059
istry	-6060
▁eval	-6061
▁psych	-6062
▁পবিত্র	-6063
▁started	-6064
▁traditional	-6065
▁Dis	-6066
▁পূর্ণ	-6067
hens	-6068
সঙ্গে	-6069
▁শীত	-6070
্ষিকী	-6071
িল্যান্ড	-6072
▁টুর্ন	-6073
▁বিস্ফোর	-6074
▁sus	-6075
▁বিস্তারিত	-6076
▁শিশুর	-6077
coh	-6078
▁compan	-6079
▁occurs	-6080
▁hundred	-6081
আম	-6082
▁কেটে	-6083
▁হঠাৎ	-6084
সব	-6085
ডেম	-6086
▁৩৫	-6087
▁সংগ	-6088
▁মেট্র	-6089
▁agricult	-6090
▁চ্যাম্পিয়ন	-6091
▁pack	-6092
▁টুর্নামেন্ট	-6093
▁storm	-6094
▁সমন্ব	-6095
▁স্মার্ট	-6096
▁aw	-6097
ন্থ	-6098
▁HIV	-6099
▁contribut	-6100
▁করোনাভাইরাসের	-6101
ulate	-6102
ama	-6103
▁রংপুর	-6104
▁প্রমাণ	-6105
▁অনুমোদন	-6106
▁বিচারপতি	-6107
In	-6108
▁Are	-6109
▁hol	-6110
▁lines	-6111
▁বিভাগে	-6112
▁সবাইকে	-6113
▁reflect	-6114
bit	-6115
▁অসহ	-6116
▁critical	-6117
▁Bre	-6118
▁সফর	-6119
▁একাদ	-6120
rition	-6121
▁nucle	-6122
▁আব্দুর	-6123
▁although	-6124
can	-6125
▁egg	-6126
ভোকেট	-6127
ologist	-6128
▁ম্যানেজ	-6129
▁চীনের	-6130
▁commer	-6131
▁সরবরাহ	-6132
▁billion	-6133
bd	-6134
▁William	-6135
▁patient	-6136
▁॥	-6137
াহার	-6138
োয়াড়	-6139
▁held	-6140
▁সুবিধা	-6141
▁পূর্বাহ্ণ	-6142
▁নুরুল	-6143
▁eyes	-6144
▁write	-6145
▁বাতিল	-6146
▁Students	-6147
▁bad	-6148
idents	-6149
▁directly	-6150
য়েশ	-6151
▁জাতিসংঘ	-6152
▁beginning	-6153
▁তুর	-6154
▁ভাস	-6155
▁rout	-6156
▁ওয়ার্	-6157
▁Society	-6158
▁সংস্থার	-6159
▁এজ	-6160
▁host	-6161
▁prof	-6162
▁রোহিঙ্গা	-6163
▁কর্মী	-6164
▁বিজেপি	-6165
▁বহু	-6166
▁সান	-6167
▁whose	-6168
▁সেখান	-6169
▁অ্যাস	-6170
▁illness	-6171
▁দুর্ঘটনা	-6172
nov	-6173
▁wa	-6174
চ্ছিল	-6175
▁পুত্র	-6176
▁ঘুম	-6177
▁শাহজ	-6178
▁recommend	-6179
▁veh	-6180
▁দেবে	-6181
▁consist	-6182
uff	-6183
বাহী	-6184
▁civil	-6185
▁কংগ্রেস	-6186
▁সোশ	-6187
ching	-6188
▁force	-6189
▁journal	-6190
▁protein	-6191
চ্ছদ	-6192
▁মুজিবুর	-6193
▁ang	-6194
▁পাবেন	-6195
▁মিয়ান	-6196
▁highly	-6197
ror	-6198
▁ক্রী	-6199
▁System	-6200
▁monitor	-6201
ius	-6202
শ্র	-6203
▁ফি	-6204
ওয়ান	-6205
িটেড	-6206
▁corn	-6207
দুর	-6208
হাজ	-6209
▁৬০	-6210
▁ফলা	-6211
▁বৈশ	-6212
arian	-6213
▁খেলোয়াড়	-6214
▁তালিকায়	-6215
▁নিয়ন্ত্রণে	-6216
hors	-6217
▁Press	-6218
▁Journal	-6219
▁সন্ধ্যা	-6220
ygen	-6221
atric	-6222
▁কাজী	-6223
aly	-6224
▁Found	-6225
▁আর্থিক	-6226
▁কৃষক	-6227
িসহ	-6228
▁নিখোঁজ	-6229
▁protection	-6230
osy	-6231
▁ডলার	-6232
▁attem	-6233
▁কারাদ	-6234
▁নজরুল	-6235
▁theory	-6236
▁সদস্যদের	-6237
pes	-6238
▁সেলিম	-6239
IS	-6240
িনিময়	-6241
▁soon	-6242
▁সুলত	-6243
▁Texas	-6244
াইজ	-6245
anks	-6246
্লার	-6247
▁Hum	-6248
▁talk	-6249
▁hands	-6250
▁শারীরিক	-6251
ম্ন	-6252
ুনের	-6253
▁রাজধানী	-6254
নং	-6255
জুড়ে	-6256
odies	-6257
▁অর্জন	-6258
▁teaching	-6259
▁শিক্ষার্থীরা	-6260
▁stri	-6261
▁antib	-6262
▁instru	-6263
oma	-6264
osa	-6265
vest	-6266
▁drugs	-6267
▁commit	-6268
▁sustain	-6269
পাড়	-6270
াবহ	-6271
▁UN	-6272
▁ওষ	-6273
▁চাইলে	-6274
▁প্রকৌশ	-6275
▁কাউন্সিলর	-6276
▁Ty	-6277
▁নগ	-6278
isms	-6279
osing	-6280
▁রক্ষ	-6281
▁astron	-6282
▁testing	-6283
▁পলা	-6284
▁শুটিং	-6285
▁currently	-6286
২৯	-6287
ফোন	-6288
লানা	-6289
▁নিহতের	-6290
▁পার্টির	-6291
▁পরীক্ষায়	-6292
চর	-6293
:||	-6294
▁এনে	-6295
▁মেলা	-6296
▁decre	-6297
▁quite	-6298
ণার	-6299
▁আলীর	-6300
▁স্থগ	-6301
▁হামলায়	-6302
▁ক্ষতিগ্র	-6303
▁সোনার	-6304
▁Mc	-6305
rast	-6306
শিক্ষ	-6307
▁mouth	-6308
▁base	-6309
▁স্বপ্ন	-6310
▁sequ	-6311
▁Please	-6312
▁College	-6313
বাব	-6314
বেল	-6315
িয়োগ	-6316
ctors	-6317
▁speed	-6318
▁শরীরে	-6319
▁রে	-6320
▁swe	-6321
oring	-6322
ৃঙ্খলা	-6323
▁ছু	-6324
▁খুন	-6325
chers	-6326
▁Find	-6327
▁সেনা	-6328
▁খেলার	-6329
▁affected	-6330
CO	-6331
বুব	-6332
oming	-6333
▁ভূমিকা	-6334
▁চূড়ান্ত	-6335
▁medicine	-6336
▁আনুষ্ঠান	-6337
▁আজকের	-6338
▁remains	-6339
▁অভিযানে	-6340
▁ওভ	-6341
▁Off	-6342
▁১০০	-6343
ামূলক	-6344
▁love	-6345
পা	-6346
olar	-6347
▁জাপ	-6348
▁মন্দ	-6349
EN	-6350
কালীন	-6351
▁স্থগিত	-6352
ভর	-6353
▁Once	-6354
▁নেতৃ	-6355
▁exact	-6356
rate	-6357
▁অঙ্গ	-6358
▁বলছে	-6359
▁carry	-6360
▁জিজ্ঞাস	-6361
▁বঙ্গবন্ধুর	-6362
▁offer	-6363
▁গোলাম	-6364
হল	-6365
▁ভো	-6366
imum	-6367
্যাব	-6368
▁symb	-6369
▁ensure	-6370
▁please	-6371
▁জাহাঙ্গ	-6372
▁মানুষকে	-6373
▁software	-6374
iff	-6375
▁খুবই	-6376
▁ছাত্রলীগ	-6377
▁society	-6378
head	-6379
▁date	-6380
▁media	-6381
▁Internet	-6382
▁Mod	-6383
▁খার	-6384
▁policy	-6385
▁supply	-6386
▁smaller	-6387
IT	-6388
ift	-6389
▁খুলে	-6390
▁receive	-6391
▁প্রচ্ছদ	-6392
সাম	-6393
স্থান	-6394
▁বন্ধু	-6395
▁পরিচিত	-6396
▁England	-6397
▁concept	-6398
▁বিবে	-6399
▁ক্যার	-6400
▁সালমান	-6401
eles	-6402
▁tum	-6403
▁ইঞ্জ	-6404
কেটে	-6405
▁Dec	-6406
▁survey	-6407
▁fruit	-6408
▁ছাড়াও	-6409
এইচ	-6410
▁রিজ	-6411
▁ঐক্য	-6412
▁হোসেনের	-6413
ulf	-6414
haps	-6415
▁died	-6416
▁বাক	-6417
▁চলমান	-6418
▁middle	-6419
▁স্বেচ্ছ	-6420
oly	-6421
▁তেল	-6422
▁ocean	-6423
ধীন	-6424
▁নও	-6425
▁prior	-6426
▁সুনাম	-6427
▁mission	-6428
াইরাল	-6429
▁সেটি	-6430
▁network	-6431
▁শুভেচ্ছ	-6432
চা	-6433
▁analy	-6434
▁নিজেকে	-6435
▁প্রশিক্ষণ	-6436
arr	-6437
iece	-6438
ocks	-6439
িটাল	-6440
▁ওয়ানডে	-6441
▁জনগণের	-6442
▁surround	-6443
time	-6444
ালাল	-6445
িদ্র	-6446
▁hope	-6447
▁উপহার	-6448
▁লিমিটেড	-6449
▁transport	-6450
▁performance	-6451
▁আবেদ	-6452
▁পরিদর্শন	-6453
▁Ob	-6454
▁gradu	-6455
▁স্বাক্ষ	-6456
ively	-6457
সির	-6458
▁খর	-6459
▁আলমগীর	-6460
▁multiple	-6461
্যাগ	-6462
▁told	-6463
▁প্রের	-6464
▁illust	-6465
▁+	-6466
▁সঠ	-6467
▁উৎসব	-6468
▁টানা	-6469
▁বাড়ছে	-6470
▁responsible	-6471
'-	-6472
বধ	-6473
cles	-6474
asons	-6475
pan	-6476
alled	-6477
▁teacher	-6478
▁lost	-6479
▁ওষুধ	-6480
▁exhib	-6481
▁পূর্বাহ্ন	-6482
রফে	-6483
▁goal	-6484
▁প্রয	-6485
াকুর	-6486
▁কাঁ	-6487
▁গাই	-6488
ণ্ডের	-6489
▁Food	-6490
▁dead	-6491
রাত	-6492
নির্ব	-6493
▁চলবে	-6494
▁ব্রাজ	-6495
▁Project	-6496
▁Australia	-6497
উর	-6498
▁ডাক্ত	-6499
▁express	-6500
▁applications	-6501
াও	-6502
yond	-6503
pose	-6504
▁ইউরোপ	-6505
▁সোশ্যাল	-6506
াজন	-6507
rows	-6508
tery	-6509
▁আকাশ	-6510
▁ভাড়া	-6511
▁ইকবাল	-6512
হিত	-6513
▁got	-6514
▁এয়ার	-6515
▁breast	-6516
▁করেছিল	-6517
▁Port	-6518
▁দপ্ত	-6519
▁০৮	-6520
▁Som	-6521
▁fight	-6522
▁দাস	-6523
▁অস্ব	-6524
▁শাখার	-6525
ky	-6526
▁পদ্ম	-6527
▁independ	-6528
▁blue	-6529
▁articles	-6530
▁আসলে	-6531
▁একটু	-6532
▁তাদেরকে	-6533
ula	-6534
rote	-6535
▁gir	-6536
▁চুক্তি	-6537
▁ভ্যাকসিন	-6538
▁হৃদ	-6539
▁waste	-6540
্যাশনাল	-6541
▁কারাগারে	-6542
▁gene	-6543
▁seems	-6544
▁expect	-6545
▁techniques	-6546
বিষ্য	-6547
more	-6548
▁ult	-6549
▁বলছেন	-6550
▁কিছুটা	-6551
inct	-6552
rogen	-6553
েডিয়াম	-6554
▁ব্যক্তিগত	-6555
শেষে	-6556
▁Che	-6557
▁surpr	-6558
▁গ্যাস	-6559
▁Library	-6560
see	-6561
▁পিতা	-6562
inated	-6563
▁ক্ষমতা	-6564
িস্ট্রেট	-6565
son	-6566
িয়াস	-6567
▁rob	-6568
▁আরিফ	-6569
▁gives	-6570
▁ক্যাম	-6571
▁এবারের	-6572
ন্ঠ	-6573
▁code	-6574
▁member	-6575
▁গবেষণা	-6576
▁ভাইরাল	-6577
▁এফ	-6578
▁cra	-6579
hemat	-6580
▁দিলে	-6581
▁named	-6582
▁places	-6583
▁Service	-6584
▁expected	-6585
ানুর	-6586
ipment	-6587
▁ডেইলি	-6588
▁radiation	-6589
▁typically	-6590
▁Mich	-6591
▁অসহায়	-6592
▁eth	-6593
▁electr	-6594
▁সামরিক	-6595
সময়	-6596
ying	-6597
বিধি	-6598
▁aff	-6599
▁prec	-6600
▁memory	-6601
▁ভালোবাস	-6602
▁কেন্দ্রে	-6603
▁মাধ্যমিক	-6604
▁জাহাঙ্গীর	-6605
▁কালের	-6606
▁standards	-6607
cohol	-6608
▁Even	-6609
▁reach	-6610
▁সন্ত্রাস	-6611
▁আক্রান্তের	-6612
▁মম	-6613
▁div	-6614
▁essential	-6615
এল	-6616
▁Spe	-6617
▁cit	-6618
▁পুনর	-6619
▁কিলোম	-6620
▁Profess	-6621
▁স্টেডিয়াম	-6622
ste	-6623
reek	-6624
▁mid	-6625
র্ধ্ব	-6626
",	-6627
মুল	-6628
▁জেল	-6629
▁table	-6630
▁নেয়ার	-6631
▁এলাকাব	-6632
▁দিচ্ছে	-6633
ologists	-6634
▁temperatures	-6635
ফার	-6636
্জা	-6637
▁German	-6638
▁tit	-6639
▁offers	-6640
▁গৌ	-6641
িন্ট	-6642
▁পাহ	-6643
ologies	-6644
oration	-6645
▁ভবিষ্য	-6646
▁মৌল	-6647
▁লেনদেন	-6648
izations	-6649
▁suggests	-6650
▁Wind	-6651
▁আল্লাহ	-6652
▁অংশগ্রহণ	-6653
▁sold	-6654
▁বিনিয়োগ	-6655
▁application	-6656
▁version	-6657
aler	-6658
▁মাশ	-6659
▁Commun	-6660
▁প্রসঙ্গ	-6661
▁received	-6662
▁সম্ভাবনা	-6663
্যায়	-6664
▁game	-6665
▁eight	-6666
▁পোশাক	-6667
পাল	-6668
▁Dise	-6669
▁টাঙ্গ	-6670
▁ম্যাজিস্ট্রেট	-6671
hat	-6672
নীয়	-6673
▁কার্ড	-6674
▁বিশেষজ্ঞ	-6675
▁খানের	-6676
▁প্রবাসী	-6677
পণ	-6678
▁ফখ	-6679
▁Sch	-6680
▁Then	-6681
inical	-6682
▁হুমকি	-6683
rig	-6684
▁Pa	-6685
▁জগ	-6686
▁rapid	-6687
▁মিয়ার	-6688
▁নির্যাতন	-6689
▁Sim	-6690
▁enjoy	-6691
▁else	-6692
্যানেল	-6693
▁ব্যবসা	-6694
apter	-6695
▁surgery	-6696
▁location	-6697
▁resource	-6698
▁হাঁ	-6699
ডাঙ্গ	-6700
▁ভক্ত	-6701
▁devices	-6702
▁Information	-6703
▁conservation	-6704
ica	-6705
▁spring	-6706
য়াল	-6707
▁email	-6708
▁উন্নত	-6709
▁except	-6710
▁achieve	-6711
▁reports	-6712
▁respond	-6713
▁গোয়েন্দ	-6714
izes	-6715
▁mob	-6716
▁importance	-6717
▁professional	-6718
ext	-6719
ভিল	-6720
▁জিন	-6721
▁tissue	-6722
entially	-6723
▁commonly	-6724
▁appropriate	-6725
র্স	-6726
▁David	-6727
▁mother	-6728
▁transl	-6729
পোর	-6730
▁মোক	-6731
▁রকম	-6732
▁প্রদর্শ	-6733
▁বেন	-6734
▁রিয়	-6735
itect	-6736
▁cred	-6737
▁শহরে	-6738
▁ফাউন্ড	-6739
EW	-6740
▁প্ল	-6741
▁সামগ্রী	-6742
▁Ass	-6743
▁Rel	-6744
▁ঘরের	-6745
▁কয়েকজন	-6746
▁picture	-6747
▁elements	-6748
ida	-6749
সুম	-6750
েক্স	-6751
▁শুভেচ্ছা	-6752
▁fit	-6753
▁hair	-6754
ধর	-6755
▁user	-6756
▁বিকাল	-6757
▁ভয়াবহ	-6758
mission	-6759
▁চিকিৎসার	-6760
াইদ	-6761
▁Just	-6762
▁instit	-6763
▁Bengali	-6764
▁General	-6765
▁মাওলানা	-6766
craft	-6767
▁Inst	-6768
▁২০১৫	-6769
▁obtain	-6770
▁private	-6771
cers	-6772
▁shape	-6773
▁Latest	-6774
▁oxygen	-6775
▁পারেনি	-6776
▁ডিজিটাল	-6777
▁মাহবুব	-6778
▁সংঘর্ষে	-6779
▁requires	-6780
▁দেড়	-6781
ample	-6782
che	-6783
rops	-6784
জান	-6785
▁bird	-6786
▁সক্ষম	-6787
বিদ	-6788
▁Plan	-6789
alt	-6790
াত্ম	-6791
▁Fin	-6792
▁মিথ	-6793
▁ব্যক্তির	-6794
ET	-6795
▁BD	-6796
▁পেঁয়াজ	-6797
ech	-6798
name	-6799
ুনিক	-6800
▁কম্প	-6801
▁জয়ের	-6802
iday	-6803
ীব্র	-6804
▁মাত	-6805
▁names	-6806
▁চলেছে	-6807
▁পত	-6808
▁স্বরাষ্ট্র	-6809
▁kid	-6810
▁infl	-6811
▁accom	-6812
▁datab	-6813
▁earlier	-6814
▁নীল	-6815
▁রক্ষা	-6816
▁beaut	-6817
▁predict	-6818
▁সো	-6819
▁বিসি	-6820
▁তাঁরা	-6821
▁করোনাভাইরাসে	-6822
▁fa	-6823
▁গড়	-6824
▁ones	-6825
▁ঘন্ট	-6826
▁educational	-6827
fect	-6828
▁খোলা	-6829
▁goes	-6830
▁হাজির	-6831
▁immune	-6832
▁values	-6833
▁beg	-6834
▁হাও	-6835
টোয়েন্টি	-6836
▁দৌ	-6837
clop	-6838
▁প্রকল্পের	-6839
ony	-6840
▁উভ	-6841
▁Don	-6842
inate	-6843
ষ্টির	-6844
▁appears	-6845
omb	-6846
▁দ্য	-6847
▁signs	-6848
▁তীব্র	-6849
▁বোর্ডের	-6850
▁প্রতিষ্ঠানের	-6851
▁watch	-6852
▁কোয়ার	-6853
▁approx	-6854
▁ব্যর্থ	-6855
iny	-6856
▁administ	-6857
▁লো	-6858
▁জনক	-6859
▁stories	-6860
▁নিষেধাজ্ঞা	-6861
▁ball	-6862
▁accept	-6863
▁মুশ	-6864
▁fresh	-6865
িনীর	-6866
anish	-6867
▁ছিন	-6868
paper	-6869
▁native	-6870
▁limited	-6871
iers	-6872
▁জন্মদিন	-6873
▁নিউজিল্যান্ড	-6874
▁hyp	-6875
▁respect	-6876
দলের	-6877
▁বাধ্য	-6878
▁মুম্ব	-6879
ara	-6880
ari	-6881
▁০১	-6882
▁lung	-6883
সাধারণ	-6884
▁সিরিজের	-6885
▁released	-6886
AL	-6887
▁পছ	-6888
▁অনুমতি	-6889
▁প্রতিবাদে	-6890
▁Bra	-6891
▁mig	-6892
▁kill	-6893
▁দুর্ঘটনায়	-6894
রোধ	-6895
rome	-6896
▁দুঃ	-6897
aught	-6898
▁একাডেম	-6899
▁জীবনের	-6900
▁তৃণমূল	-6901
▁লিখেছেন	-6902
▁Sub	-6903
▁East	-6904
▁পদ্ধ	-6905
▁Trans	-6906
▁explain	-6907
▁নদী	-6908
house	-6909
▁পাবে	-6910
▁observ	-6911
▁processes	-6912
▁rise	-6913
▁বর্ণ	-6914
াসেব	-6915
known	-6916
▁guide	-6917
োনো	-6918
iber	-6919
▁গোলে	-6920
▁Energy	-6921
▁Review	-6922
▁comment	-6923
্দিষ্ট	-6924
▁আইপিএ	-6925
▁স্বাক্ষর	-6926
▁নং	-6927
▁প্রক্রিয়া	-6928
▁fram	-6929
▁ইতোম	-6930
▁ত্রাণ	-6931
▁বিদ্যালয়	-6932
back	-6933
fort	-6934
imal	-6935
ঙ্কার	-6936
▁নোয়া	-6937
▁প্রশ্নের	-6938
ris	-6939
▁নায়	-6940
▁Phys	-6941
▁শ্রদ্ধা	-6942
▁বাদী	-6943
rection	-6944
▁ইঞ্জিন	-6945
▁কল্যাণ	-6946
▁মির্জা	-6947
ribute	-6948
▁সিদ্দ	-6949
ফি	-6950
দায়	-6951
▁উপক	-6952
▁জবা	-6953
▁বোল	-6954
▁House	-6955
▁তামিম	-6956
ero	-6957
);	-6958
্রাম্য	-6959
▁ঘটনাটি	-6960
▁রাস্তা	-6961
▁infections	-6962
urg	-6963
come	-6964
▁speak	-6965
▁brought	-6966
টকম	-6967
▁নজর	-6968
▁Coun	-6969
▁device	-6970
▁classroom	-6971
▁জ্ব	-6972
▁emot	-6973
▁আলাদা	-6974
▁প্রিয়	-6975
zz	-6976
ুয়ে	-6977
▁ফজ	-6978
▁release	-6979
▁Av	-6980
▁ডট	-6981
▁Int	-6982
▁won	-6983
▁পাড়	-6984
▁কিনা	-6985
▁চতুর	-6986
ographic	-6987
৪৫	-6988
enty	-6989
▁মিলে	-6990
▁asked	-6991
▁costs	-6992
▁সোহেল	-6993
▁ওয়েবসাই	-6994
▁ভ্রাম্য	-6995
▁নান	-6996
▁ফ্ল	-6997
▁decision	-6998
▁evolution	-6999
গো	-7000
ously	-7001
▁ফখরুল	-7002
▁moving	-7003
▁vision	-7004
▁Get	-7005
▁tox	-7006
▁হোক	-7007
orial	-7008
▁hous	-7009
▁ঠাকুর	-7010
▁degrees	-7011
▁providing	-7012
▁historical	-7013
বিশ	-7014
ায়ন	-7015
▁mix	-7016
roke	-7017
ondon	-7018
▁আইনে	-7019
▁Mexico	-7020
▁উৎপাদন	-7021
▁interesting	-7022
েনা	-7023
▁ep	-7024
▁শের	-7025
▁কিলোমিটার	-7026
ags	-7027
▁পের	-7028
▁Mary	-7029
▁ক্রীড়া	-7030
mitted	-7031
AS	-7032
চের	-7033
ডের	-7034
▁isn	-7035
▁হাবিব	-7036
▁রিমান্ড	-7037
▁প্রসঙ্গে	-7038
▁বক্তব্যে	-7039
্যালে	-7040
▁aspect	-7041
বরে	-7042
েষ্ঠ	-7043
▁নারীর	-7044
oud	-7045
▁AM	-7046
pite	-7047
where	-7048
▁Expl	-7049
▁বাধা	-7050
▁click	-7051
▁physic	-7052
▁বিশিষ্ট	-7053
▁military	-7054
ুরুর	-7055
▁adj	-7056
▁aud	-7057
▁cust	-7058
▁নদীর	-7059
istant	-7060
▁teach	-7061
▁স্থায়ী	-7062
▁experts	-7063
ফত	-7064
ender	-7065
▁Russ	-7066
▁fields	-7067
▁সাক্ষাৎ	-7068
▁electricity	-7069
াইট	-7070
▁জেনে	-7071
cope	-7072
▁Using	-7073
▁ফ্রান্স	-7074
িনে	-7075
▁সমস্য	-7076
▁examples	-7077
▁equipment	-7078
▁Development	-7079
সদ	-7080
edic	-7081
▁thus	-7082
▁wond	-7083
▁scale	-7084
▁trying	-7085
▁details	-7086
▁thinking	-7087
▁tub	-7088
▁জিম	-7089
▁যেক	-7090
▁showed	-7091
▁অতিথির	-7092
▁friends	-7093
hold	-7094
vert	-7095
▁formed	-7096
▁therapy	-7097
▁আওয়ামীলীগের	-7098
aled	-7099
▁যৌন	-7100
▁Click	-7101
▁নগরীর	-7102
▁Technology	-7103
iant	-7104
▁hun	-7105
▁হেফ	-7106
▁ফ্লাই	-7107
খা	-7108
▁আসবে	-7109
▁glass	-7110
▁চালায়	-7111
▁পালিত	-7112
▁রোজ	-7113
ublic	-7114
▁দাঁড়িয়েছে	-7115
▁enh	-7116
▁মিডিয়া	-7117
▁overall	-7118
▁creating	-7119
▁০৭	-7120
▁Dire	-7121
▁এন্ড	-7122
▁মায়ের	-7123
▁mental	-7124
▁স্বর্ণ	-7125
▁mom	-7126
▁ভবন	-7127
▁জবাবে	-7128
ন্দন	-7129
▁Phot	-7130
▁went	-7131
▁Their	-7132
▁রাসেল	-7133
▁detect	-7134
▁;	-7135
▁ves	-7136
▁www	-7137
▁বিভাগীয়	-7138
ek	-7139
▁cho	-7140
▁poly	-7141
▁room	-7142
▁element	-7143
asts	-7144
াদ্দ	-7145
▁অথবা	-7146
▁pages	-7147
▁successful	-7148
▁এদের	-7149
▁ইমরান	-7150
osystem	-7151
▁অধ্যক্ষ	-7152
সংখ	-7153
ford	-7154
▁বোঝ	-7155
▁tele	-7156
▁কলকাতা	-7157
▁নিরাপদ	-7158
র্ন	-7159
▁garden	-7160
ছড়ি	-7161
airs	-7162
▁সপ্তাহে	-7163
▁Congress	-7164
tes	-7165
imer	-7166
▁Jew	-7167
▁জমি	-7168
▁river	-7169
▁দেখিয়ে	-7170
▁disorder	-7171
ham	-7172
সম্যান	-7173
▁identified	-7174
▁কর্মকর্তারা	-7175
▁টা	-7176
▁এমনকি	-7177
▁leaders	-7178
তাই	-7179
▁ঝড়	-7180
ceed	-7181
িদ্ধ	-7182
▁son	-7183
▁পড়েন	-7184
▁প্রতিক	-7185
▁সংবাদমাধ্যম	-7186
▁ঝিন	-7187
▁দারুণ	-7188
▁ফেসবুকে	-7189
▁জাক	-7190
inese	-7191
▁companies	-7192
্নে	-7193
▁La	-7194
antho	-7195
মাত্রা	-7196
▁cultural	-7197
▁patterns	-7198
▁আত্মহত্যা	-7199
ঘা	-7200
৩২	-7201
ন্দ্ব	-7202
rehens	-7203
▁আইনের	-7204
▁Columb	-7205
▁দুর্নীতি	-7206
▁৭০	-7207
idel	-7208
▁রাহ	-7209
▁আঘাত	-7210
▁block	-7211
▁graph	-7212
▁অবশেষে	-7213
▁vaccine	-7214
▁users	-7215
▁আগ্রহ	-7216
▁symbol	-7217
কিছু	-7218
ধারিত	-7219
▁নাকি	-7220
স্কৃতিক	-7221
▁benefit	-7222
▁Under	-7223
▁সম্পূর্ণ	-7224
াসরি	-7225
▁বসবাস	-7226
▁ব্যাটিং	-7227
শত	-7228
ulum	-7229
▁der	-7230
েক্ষা	-7231
▁save	-7232
▁কমান্ড	-7233
▁রাস্তায়	-7234
▁০৪	-7235
oses	-7236
▁মহাপ	-7237
acific	-7238
▁রোগীর	-7239
▁interp	-7240
বদ্ধ	-7241
▁Fore	-7242
▁spir	-7243
▁celebr	-7244
কু	-7245
lin	-7246
িশালী	-7247
াচার্য	-7248
▁plans	-7249
▁মেয়ের	-7250
▁visual	-7251
▁controll	-7252
my	-7253
টর	-7254
antic	-7255
▁ঘুরে	-7256
▁পরিশ	-7257
▁wrote	-7258
▁beyond	-7259
▁বাংলার	-7260
▁উদ্দেশ্যে	-7261
্রয়	-7262
▁stream	-7263
▁finan	-7264
▁আসামী	-7265
▁calcul	-7266
বন	-7267
হন	-7268
▁০৫	-7269
▁কখনো	-7270
▁বিজি	-7271
▁placed	-7272
EC	-7273
equ	-7274
▁appe	-7275
▁construction	-7276
▁Mus	-7277
▁insp	-7278
▁আসাদ	-7279
▁জব্দ	-7280
▁Inter	-7281
▁alcohol	-7282
ingu	-7283
▁এসআই	-7284
▁করপোর	-7285
▁মানিক	-7286
related	-7287
▁workers	-7288
▁Researchers	-7289
▁০৬	-7290
▁Val	-7291
▁নিয়ম	-7292
▁basis	-7293
▁উদযাপন	-7294
▁নিষিদ্ধ	-7295
▁pen	-7296
▁road	-7297
কারীরা	-7298
ীবাজার	-7299
▁thousands	-7300
▁Note	-7301
AC	-7302
োসিয়ে	-7303
▁একাদশ	-7304
▁প্রযোজ	-7305
▁অনুষ্ঠানের	-7306
▁opportunity	-7307
▁যেসব	-7308
▁সরাসরি	-7309
▁শক্তিশালী	-7310
▁সিক	-7311
▁steps	-7312
▁স্ট্র	-7313
▁effort	-7314
▁followed	-7315
▁Environmental	-7316
used	-7317
▁imag	-7318
▁করেই	-7319
▁বিবৃতিতে	-7320
▁আফগানিস্ত	-7321
কির	-7322
োনার	-7323
ensity	-7324
▁adult	-7325
▁conce	-7326
▁chance	-7327
▁অর্থাৎ	-7328
▁records	-7329
bl	-7330
▁হায়	-7331
▁Disc	-7332
▁পরিণ	-7333
▁regions	-7334
ictionary	-7335
▁collabor	-7336
▁প্রত্যেক	-7337
▁কব	-7338
▁পড়ুন	-7339
▁nutri	-7340
▁হেফাজ	-7341
▁চতুর্থ	-7342
isher	-7343
▁সাম্প	-7344
▁treated	-7345
▁exec	-7346
▁অত্য	-7347
▁গোয়েন্দা	-7348
▁নির্ধারণ	-7349
rog	-7350
োপাধ্যায়	-7351
▁মোটরসাইকেল	-7352
lar	-7353
ুরা	-7354
▁০৩	-7355
ulated	-7356
west	-7357
orpor	-7358
▁adop	-7359
▁সঞ্চ	-7360
▁ধারাবাহ	-7361
▁থাকবেন	-7362
▁authors	-7363
▁increases	-7364
▁নিল	-7365
▁যৌথ	-7366
▁আজিজ	-7367
▁Govern	-7368
▁অভিজ্ঞ	-7369
▁পারেননি	-7370
abilities	-7371
শনে	-7372
▁pi	-7373
িংয়ের	-7374
▁sett	-7375
▁সঠিক	-7376
isl	-7377
▁৪৫	-7378
▁আশরাফ	-7379
▁tou	-7380
▁vessel	-7381
▁und	-7382
▁পদত্যা	-7383
সমান	-7384
cyclop	-7385
▁piece	-7386
▁Miss	-7387
▁স্পোর্ট	-7388
▁নাটক	-7389
▁রশিদ	-7390
▁latest	-7391
▁শিশুদের	-7392
▁property	-7393
▁relatively	-7394
▁Cour	-7395
▁vict	-7396
▁spect	-7397
০১	-7398
▁Hy	-7399
নাকে	-7400
▁London	-7401
▁অবশ্যই	-7402
হ্ন	-7403
াদার	-7404
esity	-7405
▁টেলিভ	-7406
lection	-7407
▁সিলেটের	-7408
▁bright	-7409
gy	-7410
▁Rem	-7411
▁anything	-7412
▁solution	-7413
চুর	-7414
ript	-7415
▁cou	-7416
▁আকর	-7417
kantho	-7418
▁running	-7419
▁জানুয়ারী	-7420
▁অস	-7421
odes	-7422
লগ্ন	-7423
▁tips	-7424
areness	-7425
▁নেতৃবৃন্দ	-7426
্মী	-7427
▁মঞ্জ	-7428
▁final	-7429
▁rich	-7430
▁প্রজ	-7431
▁অধিদপ্তরের	-7432
ken	-7433
____	-7434
▁Let	-7435
▁পেরে	-7436
্মণ	-7437
date	-7438
▁box	-7439
পূর্ব	-7440
▁slight	-7441
▁হিন্দু	-7442
▁ডু	-7443
▁মের	-7444
▁টুইট	-7445
▁Mount	-7446
▁autom	-7447
▁স্থাপ	-7448
▁Chinese	-7449
▁কেন্দ্রের	-7450
ago	-7451
set	-7452
▁Air	-7453
ndrome	-7454
▁ভোটার	-7455
▁becomes	-7456
▁practices	-7457
uth	-7458
ully	-7459
▁ছিলো	-7460
▁links	-7461
▁purch	-7462
▁functions	-7463
াতায়	-7464
▁Mart	-7465
▁everyone	-7466
▁ইন্টারনে	-7467
▁সাংস্কৃতিক	-7468
▁ব্যাটসম্যান	-7469
▁Mat	-7470
▁mag	-7471
▁একমাত্র	-7472
▁partners	-7473
▁Ang	-7474
▁Pat	-7475
▁ত্ব	-7476
▁quant	-7477
▁reduced	-7478
নো	-7479
▁নিচে	-7480
▁চালানো	-7481
০৯	-7482
▁ধাপ	-7483
▁তেমন	-7484
▁upper	-7485
▁ফেরার	-7486
সিটি	-7487
▁অপহ	-7488
যাত্র	-7489
াইলের	-7490
্টা	-7491
aign	-7492
▁cop	-7493
▁বাগ	-7494
▁বোন	-7495
▁Black	-7496
▁কামনা	-7497
▁কুষ্ট	-7498
▁differences	-7499
iar	-7500
▁বাঙ	-7501
▁মেশ	-7502
▁রিট	-7503
▁খোঁজ	-7504
▁camer	-7505
▁director	-7506
▁পরিস্থিতিতে	-7507
▁Hel	-7508
▁flood	-7509
▁neigh	-7510
▁waters	-7511
▁শতাধিক	-7512
▁disorders	-7513
▁ten	-7514
▁math	-7515
▁স্বাধীনতা	-7516
াজা	-7517
▁mo	-7518
▁bone	-7519
▁capac	-7520
▁radio	-7521
▁stars	-7522
▁টাইমস	-7523
SS	-7524
▁Vol	-7525
▁stru	-7526
▁expand	-7527
ses	-7528
▁০২	-7529
enge	-7530
▁Wild	-7531
▁ফুটব	-7532
▁Ocean	-7533
▁limit	-7534
DC	-7535
▁didn	-7536
▁allerg	-7537
▁college	-7538
▁অত্যন্ত	-7539
িউজ	-7540
ocol	-7541
ার্ক	-7542
শিল্প	-7543
▁moon	-7544
▁ছুটি	-7545
▁বিপুল	-7546
▁অধিক	-7547
▁homes	-7548
▁ব্রাহ	-7549
▁mal	-7550
▁via	-7551
▁চাকরি	-7552
▁সমস্ত	-7553
▁establish	-7554
▁rules	-7555
▁coming	-7556
▁ব্যস্ত	-7557
▁distance	-7558
▁commercial	-7559
িংয়ে	-7560
▁Def	-7561
▁Mic	-7562
▁Two	-7563
▁hom	-7564
▁এএম	-7565
▁ধ্ব	-7566
▁highest	-7567
▁সাম্প্র	-7568
▁টু	-7569
▁উপদে	-7570
▁প্যা	-7571
▁Posted	-7572
▁শুনানি	-7573
▁রাষ্ট্রপতি	-7574
ভাষ	-7575
▁models	-7576
▁অর্থনৈতিক	-7577
▁নির্ধারিত	-7578
টিউ	-7579
তুল	-7580
▁জোট	-7581
▁ফেন	-7582
▁সিনেমার	-7583
▁শামী	-7584
▁stage	-7585
▁passed	-7586
▁purpose	-7587
▁stim	-7588
▁বিশ্বে	-7589
▁যুবলীগের	-7590
▁ক্ষতিগ্রস্ত	-7591
৩১	-7592
▁দখল	-7593
▁আটকে	-7594
▁Another	-7595
▁organic	-7596
orge	-7597
▁fair	-7598
▁sample	-7599
▁digital	-7600
orks	-7601
vant	-7602
▁অজ্ঞ	-7603
▁Human	-7604
▁নাসির	-7605
▁pregnancy	-7606
▁vegetables	-7607
off	-7608
▁হোট	-7609
▁জনগণ	-7610
▁items	-7611
▁France	-7612
▁southern	-7613
▁জের	-7614
▁অর্ধ	-7615
rab	-7616
নিউজ	-7617
▁Flor	-7618
▁gain	-7619
▁কঠিন	-7620
▁আক্রম	-7621
▁মাসুদ	-7622
▁muscle	-7623
▁দেশটিতে	-7624
eces	-7625
▁আউট	-7626
itage	-7627
▁মূলত	-7628
▁হয়তো	-7629
▁bottom	-7630
▁degree	-7631
▁female	-7632
ভূত	-7633
itch	-7634
▁sch	-7635
▁unit	-7636
▁wet	-7637
▁রেড	-7638
▁snow	-7639
▁TV	-7640
▁টিভি	-7641
▁শুনে	-7642
ht	-7643
cont	-7644
্নান	-7645
▁দুদ	-7646
▁alone	-7647
▁বাচ্চ	-7648
▁Council	-7649
▁Western	-7650
▁attempt	-7651
▁প্রসঙ্গত	-7652
▁presented	-7653
্যো	-7654
▁লিগ	-7655
▁miss	-7656
▁categ	-7657
roy	-7658
▁নৌকা	-7659
▁seven	-7660
riculum	-7661
▁behavi	-7662
▁populations	-7663
এক	-7664
▁চেক	-7665
▁গৃহবধ	-7666
▁মেয়াদ	-7667
▁শুরুর	-7668
▁explore	-7669
▁construct	-7670
▁atmosphere	-7671
▁Rev	-7672
▁মোড়	-7673
▁লন্ড	-7674
▁Organ	-7675
▁কাশ্ম	-7676
▁measures	-7677
ন্দের	-7678
▁Stand	-7679
▁choose	-7680
▁compos	-7681
▁Pacific	-7682
ald	-7683
িসির	-7684
▁বার্স	-7685
▁মাশরাফ	-7686
rew	-7687
জির	-7688
উন্ট	-7689
খ্যাত	-7690
▁সত্যতা	-7691
▁properties	-7692
que	-7693
rick	-7694
শ্বর	-7695
▁burn	-7696
▁leave	-7697
▁demand	-7698
▁রাজ্যের	-7699
▁Copyright	-7700
▁estimated	-7701
▁influence	-7702
▁woman	-7703
▁Professor	-7704
hma	-7705
▁hon	-7706
▁হাট	-7707
▁ইমাম	-7708
▁Union	-7709
▁genes	-7710
fficient	-7711
ঘর	-7712
গির	-7713
▁pul	-7714
▁পড়তে	-7715
▁changed	-7716
▁described	-7717
▁চট্টগ্রামের	-7718
UR	-7719
▁ময়ন	-7720
imens	-7721
▁architect	-7722
▁মুখ্যমন্ত্রী	-7723
▁seed	-7724
▁agree	-7725
▁খারাপ	-7726
▁পানিতে	-7727
▁download	-7728
▁৩৬	-7729
▁initi	-7730
ogle	-7731
▁কৌশ	-7732
▁applied	-7733
▁causing	-7734
▁complic	-7735
▁অশ	-7736
ibly	-7737
▁drive	-7738
▁ইয়াবা	-7739
▁worked	-7740
▁ময়মনসিংহ	-7741
▁diagnosis	-7742
omas	-7743
্পোর	-7744
▁rot	-7745
▁জাল	-7746
erate	-7747
▁স্মৃতি	-7748
▁negative	-7749
▁Foundation	-7750
▁experiment	-7751
ado	-7752
▁উভয়	-7753
▁পাট	-7754
▁মতে	-7755
angla	-7756
▁yellow	-7757
০৫	-7758
▁ST	-7759
cast	-7760
দাতা	-7761
▁gets	-7762
▁northern	-7763
দূ	-7764
ams	-7765
লাপ	-7766
▁নীতি	-7767
▁Jewish	-7768
▁decades	-7769
▁habitat	-7770
▁গ্রুপের	-7771
▁ডায়	-7772
▁gold	-7773
▁বললেন	-7774
▁covered	-7775
▁স্বাস্থ্যবিধি	-7776
সভা	-7777
ড়াতে	-7778
▁Atl	-7779
▁finding	-7780
াভ	-7781
eed	-7782
ামে	-7783
▁চম	-7784
emic	-7785
▁করল	-7786
▁horm	-7787
▁ডটকম	-7788
▁ফলাফল	-7789
▁মুক্তির	-7790
bed	-7791
ত্তি	-7792
▁hear	-7793
▁economy	-7794
▁মুক্তিযুদ্ধ	-7795
co	-7796
su	-7797
্ডার	-7798
▁অধি	-7799
▁Academ	-7800
▁সহযোগী	-7801
▁সিদ্দিক	-7802
▁মদ	-7803
▁সিল	-7804
▁iron	-7805
▁Island	-7806
▁শ্রেণির	-7807
▁ভাইরাসের	-7808
▁অ্যাডভোকেট	-7809
বাড়ী	-7810
দিনের	-7811
▁grass	-7812
▁remember	-7813
▁বিমানবন্দ	-7814
▁approximately	-7815
৫৫	-7816
rief	-7817
▁কৃত	-7818
▁মসজিদে	-7819
▁মালয়েশ	-7820
▁pollution	-7821
▁খরচ	-7822
▁তান	-7823
াফিজুর	-7824
▁সুপ্র	-7825
▁continu	-7826
▁powerful	-7827
▁Mor	-7828
Com	-7829
aped	-7830
▁সড়কে	-7831
▁security	-7832
ব্দ	-7833
cular	-7834
▁আজাদ	-7835
▁সিভিল	-7836
▁বিচারক	-7837
ক্ক	-7838
ভাই	-7839
reet	-7840
▁সুই	-7841
▁connect	-7842
▁স্বেচ্ছাসেব	-7843
৪২	-7844
aste	-7845
▁ফোর	-7846
▁male	-7847
▁ইসলামী	-7848
▁নাজমুল	-7849
▁colleag	-7850
▁president	-7851
▁নেট	-7852
পোর্ট	-7853
▁liqu	-7854
encies	-7855
▁command	-7856
মানের	-7857
▁মমতা	-7858
▁সাফল	-7859
▁Rober	-7860
▁৩৭	-7861
▁খুশ	-7862
▁Elect	-7863
▁ছবিটি	-7864
▁inches	-7865
▁Br	-7866
▁হবি	-7867
apers	-7868
ভাবেই	-7869
▁ages	-7870
▁cand	-7871
▁fert	-7872
▁নামক	-7873
▁exposed	-7874
ৎস্য	-7875
▁walk	-7876
▁গোটা	-7877
▁রোহিঙ্গ	-7878
pped	-7879
▁বেতন	-7880
▁Every	-7881
▁Treat	-7882
▁Spanish	-7883
▁ওয়ার্ডের	-7884
▁chemicals	-7885
▁everything	-7886
▁ভিন্ন	-7887
▁injury	-7888
▁টাইগার	-7889
▁ব্রাহ্মণ	-7890
▁conducted	-7891
▁প্রতিষ্ঠা	-7892
▁আচ	-7893
▁তৎ	-7894
▁Bay	-7895
▁Labor	-7896
▁enter	-7897
▁completely	-7898
আন	-7899
ira	-7900
▁ডোজ	-7901
▁anti	-7902
▁evalu	-7903
▁সড়কের	-7904
ছা	-7905
▁সরে	-7906
▁Time	-7907
▁accur	-7908
▁topic	-7909
▁landsc	-7910
▁consumption	-7911
ড়ির	-7912
▁claim	-7913
▁কথ	-7914
▁ফু	-7915
aint	-7916
▁রহিম	-7917
▁রানা	-7918
▁staff	-7919
▁store	-7920
▁annual	-7921
▁assign	-7922
▁existing	-7923
ম্ম	-7924
▁Bu	-7925
▁Fam	-7926
▁nan	-7927
▁কীভাবে	-7928
▁সন	-7929
▁গুগ	-7930
▁virt	-7931
▁কর্পোর	-7932
▁ব্যবস্থাপনা	-7933
roph	-7934
▁উন্ম	-7935
▁কর্মচার	-7936
▁therefore	-7937
▁participants	-7938
St	-7939
▁জহ	-7940
▁বিজ	-7941
▁ঝিনাইদ	-7942
▁vitamin	-7943
▁efficient	-7944
▁extremely	-7945
▁বেল	-7946
▁root	-7947
▁teeth	-7948
▁লিখিত	-7949
▁Germany	-7950
▁nuclear	-7951
▁উপদেষ্টা	-7952
▁ওয়া	-7953
▁huge	-7954
▁সমাধান	-7955
্যালেঞ্জ	-7956
▁yourself	-7957
▁হস্তান্তর	-7958
াউল	-7959
িলে	-7960
ping	-7961
▁নিকট	-7962
▁স্মরণ	-7963
নির্বাচ	-7964
▁চরম	-7965
iverse	-7966
▁Learn	-7967
▁কন্যা	-7968
▁জার্ম	-7969
▁সম্পদ	-7970
▁মাইক্র	-7971
▁<	-7972
াবল	-7973
icip	-7974
▁বাবার	-7975
▁parent	-7976
▁options	-7977
▁৩৩	-7978
▁Hol	-7979
▁bed	-7980
▁জাফ	-7981
▁মুশফিক	-7982
▁মতব	-7983
▁sand	-7984
▁খুঁজে	-7985
▁consequ	-7986
▁মুহাম্মদ	-7987
EWS	-7988
গরে	-7989
াইম	-7990
▁কাগ	-7991
▁foss	-7992
▁আড়াই	-7993
▁কোথা	-7994
▁প্রফ	-7995
▁favor	-7996
▁গোপাল	-7997
০২	-7998
ios	-7999
াগুল	-8000
▁ing	-8001
▁খাতুন	-8002
▁নওগাঁ	-8003
▁allowed	-8004
চাপ	-8005
ogen	-8006
▁ওঠে	-8007
▁absor	-8008
▁citiz	-8009
▁সাইফুল	-8010
▁১৯৯	-8011
▁blog	-8012
▁কাউকে	-8013
ormally	-8014
▁famous	-8015
▁instruct	-8016
াউন	-8017
▁dri	-8018
▁জিত	-8019
▁রুহ	-8020
▁আবহাওয়া	-8021
▁মিজানুর	-8022
▁চ্যালেঞ্জ	-8023
▁বাস্তবায়ন	-8024
▁trade	-8025
▁মৎস্য	-8026
▁শান্তি	-8027
▁chronic	-8028
▁পরিচালিত	-8029
শি	-8030
umn	-8031
▁সূচ	-8032
▁ক্লাবের	-8033
▁ডাক্তার	-8034
cyclopedia	-8035
EM	-8036
ped	-8037
▁UK	-8038
▁অ্য	-8039
▁সফরে	-8040
বার্ষিকী	-8041
▁direction	-8042
▁dogs	-8043
▁promot	-8044
▁মাধ্যম	-8045
▁অবস্থিত	-8046
▁wildlife	-8047
ta	-8048
ল্ড	-8049
াত্মক	-8050
োনাল্ড	-8051
▁advant	-8052
▁Disease	-8053
আমি	-8054
োতে	-8055
শনের	-8056
▁স্ল	-8057
▁former	-8058
▁mis	-8059
▁Date	-8060
▁milk	-8061
▁সবুজ	-8062
▁Civil	-8063
▁হো	-8064
ocal	-8065
ঞ্জন	-8066
oxide	-8067
বন্দর	-8068
▁সেতু	-8069
▁প্রতার	-8070
▁মানসিক	-8071
▁technologies	-8072
লোড	-8073
▁pow	-8074
▁কাঠ	-8075
▁মন্ড	-8076
▁ঘটনাস্থল	-8077
▁situation	-8078
phas	-8079
▁James	-8080
▁টেকনা	-8081
cription	-8082
▁reprodu	-8083
াইলে	-8084
▁ফেরত	-8085
পক্ষের	-8086
▁depend	-8087
▁বিকালে	-8088
wards	-8089
▁generation	-8090
lor	-8091
▁হু	-8092
▁দাখ	-8093
▁উক্ত	-8094
▁করলেও	-8095
▁বিতর্ক	-8096
▁reasons	-8097
▁mathemat	-8098
▁organization	-8099
▁Ste	-8100
▁কুর	-8101
▁রোধ	-8102
জিদের	-8103
▁আনতে	-8104
▁ডিগ্র	-8105
▁square	-8106
▁নির্মা	-8107
▁সমুদ্র	-8108
▁amounts	-8109
▁সদস্যের	-8110
০৭	-8111
amic	-8112
ামুল	-8113
▁খেয়ে	-8114
▁factor	-8115
▁গতি	-8116
প্রেস	-8117
▁Times	-8118
▁heavy	-8119
▁বেশির	-8120
খানা	-8121
▁আপনাদের	-8122
▁constant	-8123
▁medications	-8124
▁background	-8125
▁communication	-8126
RO	-8127
।।	-8128
▁Bro	-8129
▁kil	-8130
▁Asia	-8131
▁Dist	-8132
▁Rich	-8133
▁আলহাজ	-8134
▁তুলনায়	-8135
▁রফিকুল	-8136
PS	-8137
পিয়ে	-8138
বর্ষ	-8139
▁আহব	-8140
itable	-8141
মাধ্যমে	-8142
stitution	-8143
▁সন্ত্রাসী	-8144
ডার	-8145
▁Op	-8146
zing	-8147
▁Church	-8148
▁capital	-8149
▁চির	-8150
▁style	-8151
▁মৌসুম	-8152
▁remove	-8153
▁drinking	-8154
▁নারায়ণগঞ্জ	-8155
omic	-8156
▁notes	-8157
▁চিন্তা	-8158
▁reference	-8159
গামী	-8160
▁টায়	-8161
▁কষ্ট	-8162
▁satell	-8163
▁financial	-8164
▁interested	-8165
ণী	-8166
iful	-8167
▁Lou	-8168
তিষ্ঠ	-8169
▁নাটোর	-8170
▁Cancer	-8171
▁hospital	-8172
▁treatments	-8173
ঙ্গু	-8174
annel	-8175
েক্টর	-8176
▁হবেন	-8177
▁kaler	-8178
▁জীবনে	-8179
েক্ষিতে	-8180
▁প্রেরণ	-8181
▁infected	-8182
০৪	-8183
▁Bas	-8184
▁repe	-8185
▁প্রণ	-8186
▁ecosystem	-8187
▁eventually	-8188
▁kalerkantho	-8189
০৬	-8190
▁saw	-8191
▁clos	-8192
▁তালুক	-8193
▁মৃতের	-8194
▁যাদের	-8195
▁সন্দেহ	-8196
▁ইতোমধ্যে	-8197
▁মেডিক্যাল	-8198
▁significantly	-8199
opes	-8200
সম্প	-8201
াজিত	-8202
▁দীপ	-8203
▁figure	-8204
▁মেজ	-8205
▁সিএন	-8206
▁ওভারে	-8207
▁friend	-8208
▁database	-8209
▁সাতক্ষীরা	-8210
▁engineering	-8211
gra	-8212
key	-8213
ears	-8214
▁Bel	-8215
▁নিম্ন	-8216
▁সেঞ্চ	-8217
▁custom	-8218
▁Control	-8219
roup	-8220
এসআই	-8221
▁strength	-8222
▁নির্বাচনী	-8223
▁TH	-8224
crib	-8225
▁ঘাট	-8226
▁শরী	-8227
▁note	-8228
▁cities	-8229
০৩	-8230
rie	-8231
▁তোম	-8232
▁আর্জ	-8233
▁বিডি	-8234
▁চিহ্ন	-8235
▁machine	-8236
fish	-8237
uses	-8238
▁Law	-8239
board	-8240
▁আদায়	-8241
▁সুমন	-8242
▁linked	-8243
▁towards	-8244
▁starting	-8245
▁Christian	-8246
tee	-8247
▁লু	-8248
ধারন	-8249
ought	-8250
ছিলাম	-8251
ন্দকার	-8252
▁Updated	-8253
▁rat	-8254
▁equal	-8255
▁occup	-8256
▁কমিশনের	-8257
▁strategies	-8258
ইল	-8259
াহান	-8260
▁tour	-8261
▁দরকার	-8262
ropical	-8263
▁letter	-8264
▁আধুনিক	-8265
ামন্ত্রী	-8266
▁flowers	-8267
▁comprehens	-8268
▁প্রেসক্লাবের	-8269
▁Sk	-8270
▁Cle	-8271
▁Report	-8272
▁বিদেশি	-8273
▁স্থাপন	-8274
▁religious	-8275
▁technique	-8276
▁কোম্পানির	-8277
োধী	-8278
▁রস	-8279
▁spot	-8280
▁innov	-8281
▁ভূমিক	-8282
▁শ্যাম	-8283
▁warming	-8284
▁অনলাইনে	-8285
▁Healthwise	-8286
des	-8287
▁উপস	-8288
▁করব	-8289
▁argu	-8290
▁compar	-8291
▁perhaps	-8292
▁প্রান্ত	-8293
▁ইনস্টিটি	-8294
▁introduced	-8295
গুন	-8296
▁Roman	-8297
▁defined	-8298
▁Its	-8299
▁সুখ	-8300
▁গেলেন	-8301
▁দৃশ্য	-8302
▁helping	-8303
▁বঙ্গাব্দ	-8304
▁)	-8305
াতদন্ত	-8306
▁track	-8307
▁যুবকের	-8308
▁depression	-8309
met	-8310
▁মতবিনিময়	-8311
▁recommended	-8312
▁হজ	-8313
ামীর	-8314
▁dram	-8315
▁কাটা	-8316
▁urban	-8317
▁father	-8318
▁removed	-8319
▁প্রাপ্ত	-8320
▁separate	-8321
রব	-8322
▁পট	-8323
allow	-8324
▁অক্স	-8325
▁board	-8326
▁academ	-8327
▁office	-8328
▁যুক্তরাজ	-8329
▁structures	-8330
mat	-8331
terol	-8332
▁film	-8333
▁thin	-8334
▁কর্মরত	-8335
idelines	-8336
ifically	-8337
▁কিছুদিন	-8338
▁বিশ্বকাপের	-8339
▁sky	-8340
▁ইলে	-8341
মুক্ত	-8342
▁bill	-8343
▁games	-8344
▁status	-8345
▁সংসদের	-8346
men	-8347
semb	-8348
্রীর	-8349
▁recy	-8350
▁trig	-8351
▁শিল্পী	-8352
▁convers	-8353
▁plastic	-8354
enth	-8355
ার্থী	-8356
▁trou	-8357
▁আসনে	-8358
▁কেবল	-8359
গ্রামে	-8360
▁choice	-8361
▁সংবাদের	-8362
col	-8363
ছাই	-8364
▁ঘিরে	-8365
astern	-8366
▁শিরোন	-8367
▁planning	-8368
৩৮	-8369
roid	-8370
▁Vis	-8371
▁Spec	-8372
▁bran	-8373
▁দলকে	-8374
vision	-8375
▁apply	-8376
▁advice	-8377
▁দিনাজপুর	-8378
▁hit	-8379
▁Lake	-8380
▁coal	-8381
▁looks	-8382
▁মর্গে	-8383
▁সকলের	-8384
বাই	-8385
িউল	-8386
ান্তি	-8387
▁meat	-8388
▁দেবেন	-8389
▁encourage	-8390
▁ময়নাতদন্ত	-8391
resp	-8392
▁hur	-8393
▁রুম	-8394
মারের	-8395
▁লক্ষ্মী	-8396
za	-8397
▁ফাঁস	-8398
▁পরবর্ত	-8399
▁পারিবার	-8400
Ch	-8401
টো	-8402
ূন্য	-8403
▁eggs	-8404
িস্টার	-8405
▁বিধান	-8406
▁স্পোর্টস	-8407
▁previously	-8408
▁alternative	-8409
কুল	-8410
▁Sum	-8411
▁seeds	-8412
▁Virgin	-8413
▁industrial	-8414
াগড়া	-8415
▁ঘূর্ণ	-8416
▁excess	-8417
▁চরিত্রে	-8418
olesterol	-8419
দেশে	-8420
▁renew	-8421
▁শরীরের	-8422
▁Florida	-8423
▁reserved	-8424
▁challenges	-8425
▁কমপ্লেক্সে	-8426
▁চুরি	-8427
▁লিটন	-8428
▁সংকট	-8429
▁Google	-8430
গণ	-8431
ota	-8432
▁Gr	-8433
▁ঋণ	-8434
▁কোথাও	-8435
▁served	-8436
▁ধারাবাহিক	-8437
ager	-8438
ণ্ডে	-8439
▁Carol	-8440
▁lived	-8441
▁forces	-8442
▁continued	-8443
▁opportunities	-8444
▁km	-8445
িলার	-8446
▁Fol	-8447
▁যথা	-8448
▁ওসমান	-8449
▁ডাকাত	-8450
▁ডিএসই	-8451
▁Social	-8452
▁প্রতিবেশ	-8453
▁অস্থ	-8454
▁index	-8455
▁অ্যাক	-8456
▁island	-8457
▁Pal	-8458
▁অভিষ	-8459
▁paint	-8460
▁risks	-8461
ressive	-8462
▁Histor	-8463
▁bodies	-8464
▁আগামীকাল	-8465
▁হে	-8466
▁laws	-8467
▁পাতা	-8468
▁বিরাট	-8469
▁easier	-8470
ক্রিয়	-8471
▁ধর্মীয়	-8472
▁majority	-8473
▁combination	-8474
কত	-8475
ধ্যেই	-8476
▁Cath	-8477
▁শাখা	-8478
▁noted	-8479
▁প্রিম	-8480
News	-8481
▁মিডিয়ায়	-8482
▁campaign	-8483
▁মুহূর্তে	-8484
▁buildings	-8485
EL	-8486
ফে	-8487
hab	-8488
▁মাগ	-8489
▁Hear	-8490
▁কমিউ	-8491
AM	-8492
▁acqu	-8493
▁চাহিদ	-8494
▁colleagues	-8495
AD	-8496
▁pick	-8497
▁attract	-8498
ষণ	-8499
sec	-8500
▁ju	-8501
▁Know	-8502
▁Next	-8503
▁সরিয়ে	-8504
▁নেতারা	-8505
▁প্রকৌশলী	-8506
▁dangerous	-8507
lim	-8508
▁cry	-8509
▁die	-8510
▁Paul	-8511
▁পাহাড়	-8512
▁ইরানের	-8513
▁believed	-8514
▁observed	-8515
▁emergency	-8516
মূলক	-8517
▁max	-8518
▁mut	-8519
▁sect	-8520
▁Women	-8521
▁adapt	-8522
▁drink	-8523
▁forward	-8524
▁message	-8525
▁perfect	-8526
▁এরশ	-8527
▁মনি	-8528
▁১৯৭	-8529
▁fing	-8530
▁rule	-8531
▁মেহে	-8532
▁ধাক্কা	-8533
▁আর্জেন্ট	-8534
০৮	-8535
▁অত	-8536
rane	-8537
▁alg	-8538
যন্ত্র	-8539
▁আহসান	-8540
▁উইকেটে	-8541
▁NO	-8542
▁Old	-8543
▁library	-8544
▁Scientists	-8545
৪৩	-8546
pat	-8547
ব্ল	-8548
বাড়ি	-8549
asion	-8550
▁অর্জ	-8551
▁happen	-8552
▁সাধারন	-8553
▁কার্যালয়	-8554
ux	-8555
ইয়া	-8556
▁Pen	-8557
▁west	-8558
▁grade	-8559
▁বিশাল	-8560
▁deaths	-8561
▁মহাপরি	-8562
▁মিথ্যা	-8563
▁samples	-8564
▁Japanese	-8565
▁মোস্তফা	-8566
▁সার্বিক	-8567
▁স্কুলের	-8568
▁সন্তানের	-8569
৪১	-8570
▁চাম	-8571
▁moved	-8572
▁পেছনে	-8573
inating	-8574
▁anyone	-8575
▁রাশিয়া	-8576
▁changing	-8577
▁electrical	-8578
্রিক	-8579
▁Sen	-8580
▁কবি	-8581
▁গুজ	-8582
ading	-8583
▁Office	-8584
▁marine	-8585
▁mobile	-8586
▁ছিনতাই	-8587
▁doctors	-8588
▁সুপ্রিম	-8589
▁পরিষ্কার	-8590
.|	-8591
unt	-8592
▁ঝুল	-8593
▁vary	-8594
▁পাচার	-8595
▁বিজিবি	-8596
▁obesity	-8597
▁promote	-8598
▁reducing	-8599
▁immediately	-8600
▁organizations	-8601
কেও	-8602
iders	-8603
▁নোটি	-8604
▁জানাতে	-8605
▁স্টেডিয়ামে	-8606
িটিশ	-8607
▁Any	-8608
▁Ser	-8609
▁বাজেট	-8610
▁সারাদেশে	-8611
সুর	-8612
rael	-8613
▁Out	-8614
▁stem	-8615
▁ত্রি	-8616
▁দুজন	-8617
▁চারটি	-8618
▁tested	-8619
▁আহবায়ক	-8620
▁performed	-8621
▁distribution	-8622
াদা	-8623
cking	-8624
▁Life	-8625
▁Make	-8626
▁weak	-8627
▁ইউনিট	-8628
▁George	-8629
▁ডিগ্রি	-8630
DF	-8631
itors	-8632
▁সংলগ্ন	-8633
িংস	-8634
▁||	-8635
▁৮০	-8636
্নাত	-8637
▁ভোগ	-8638
▁মৌলভ	-8639
▁পরিণত	-8640
▁ব্রাহ্মণবাড়	-8641
৪৮	-8642
▁চিঠি	-8643
▁thick	-8644
▁অ্যাল	-8645
▁capacity	-8646
▁discovery	-8647
িথ	-8648
aid	-8649
alax	-8650
ctic	-8651
▁announ	-8652
▁giving	-8653
▁helped	-8654
বারে	-8655
▁win	-8656
▁mostly	-8657
▁ফিরিয়ে	-8658
▁যানবাহ	-8659
▁কারাদণ্ড	-8660
unk	-8661
mark	-8662
িবির	-8663
▁cru	-8664
▁তালে	-8665
▁কমেছে	-8666
▁context	-8667
▁তাপমাত্রা	-8668
▁৩২	-8669
▁ইনিং	-8670
▁জেরে	-8671
▁ভূমি	-8672
▁bound	-8673
▁দেখার	-8674
▁অ্যাকা	-8675
▁nothing	-8676
▁কোম্পান	-8677
৩৭	-8678
▁নুস	-8679
▁২০১৪	-8680
itz	-8681
▁gall	-8682
▁ইনিংস	-8683
▁inform	-8684
▁কের	-8685
▁Down	-8686
▁হচ্ছেন	-8687
▁ইউনিয়নে	-8688
▁Columbia	-8689
▁পরই	-8690
▁Study	-8691
▁files	-8692
▁fully	-8693
▁বিকল্প	-8694
▁discover	-8695
ye	-8696
arta	-8697
র্শক	-8698
iment	-8699
▁copy	-8700
▁deal	-8701
▁নিজেই	-8702
▁ভবনের	-8703
ributed	-8704
▁jud	-8705
ensus	-8706
▁spent	-8707
▁রাজনীত	-8708
▁ব্রিটিশ	-8709
▁decisions	-8710
amps	-8711
▁aim	-8712
▁আমদ	-8713
▁বাবু	-8714
ediatric	-8715
▁presence	-8716
িঝ	-8717
nam	-8718
▁গানের	-8719
▁সংস্করণ	-8720
▁অস্ট্রেলিয়া	-8721
berg	-8722
idin	-8723
▁গেম	-8724
▁legal	-8725
▁জাকির	-8726
▁শামীম	-8727
▁volume	-8728
▁মিলিয়ে	-8729
▁বিশ্ববিদ্যালয়ে	-8730
▁পুড়ে	-8731
▁নদীতে	-8732
▁Ast	-8733
▁Have	-8734
িত্তিক	-8735
শৃঙ্খলা	-8736
দ্বন্দ্ব	-8737
▁becoming	-8738
▁awareness	-8739
RI	-8740
▁!	-8741
ael	-8742
gypt	-8743
▁Rad	-8744
▁Book	-8745
▁ভ্রম	-8746
▁আলোচিত	-8747
▁আহ্বায়ক	-8748
▁কর্তব্য	-8749
▁indicate	-8750
▁literature	-8751
ুনে	-8752
▁পেস	-8753
▁Engine	-8754
▁church	-8755
htm	-8756
টিল	-8757
▁পো	-8758
rupt	-8759
▁রাই	-8760
েম্বার	-8761
▁দুর্ব	-8762
▁বাড়িয়ে	-8763
▁সঞ্চাল	-8764
▁স্ত্রীর	-8765
▁Agricult	-8766
ইয়	-8767
▁Top	-8768
▁mel	-8769
▁মুন	-8770
▁Latin	-8771
▁girls	-8772
▁করতেন	-8773
▁টিকিট	-8774
▁sports	-8775
▁replace	-8776
▁উদ্বোধনী	-8777
▁Resources	-8778
▁challenge	-8779
ভে	-8780
ias	-8781
▁আঁ	-8782
▁টার	-8783
▁স্বজন	-8784
rations	-8785
ocr	-8786
▁৩৮	-8787
▁বোমা	-8788
▁killed	-8789
▁Central	-8790
▁officials	-8791
চু	-8792
anging	-8793
▁নেতাদের	-8794
▁রঙ	-8795
char	-8796
▁Ben	-8797
order	-8798
▁জাহিদ	-8799
▁সমর্থন	-8800
▁actions	-8801
▁পরবর্তীতে	-8802
▁কার্যালয়ের	-8803
েইন	-8804
▁Je	-8805
▁pu	-8806
wood	-8807
▁Sea	-8808
▁Wed	-8809
▁Mass	-8810
ession	-8811
porary	-8812
▁polic	-8813
▁learned	-8814
▁instance	-8815
▁৪৮	-8816
▁king	-8817
▁কম্পিউ	-8818
▁পড়েছেন	-8819
▁frequently	-8820
▁Oh	-8821
▁সেক	-8822
▁east	-8823
▁ছেলের	-8824
▁classes	-8825
▁studied	-8826
▁প্রফেসর	-8827
rm	-8828
এনও	-8829
ষেধ	-8830
ছাত্রী	-8831
▁coord	-8832
▁অবরোধ	-8833
▁পুকুর	-8834
▁divers	-8835
▁ঊ	-8836
জুর	-8837
▁Ro	-8838
▁জানালেন	-8839
▁syndrome	-8840
্তায়	-8841
cious	-8842
orage	-8843
▁প্লে	-8844
▁widely	-8845
▁তুরস্ক	-8846
▁চেয়ারপার	-8847
iring	-8848
▁mamm	-8849
▁তোলা	-8850
▁fruits	-8851
▁প্রতিবন্ধ	-8852
দর	-8853
োলে	-8854
ধিকার	-8855
▁salt	-8856
▁বিএস	-8857
▁hyper	-8858
▁exactly	-8859
do	-8860
apes	-8861
ball	-8862
▁তাজ	-8863
▁নগদ	-8864
ework	-8865
▁elim	-8866
▁song	-8867
▁Natural	-8868
▁সপ্তাহের	-8869
eal	-8870
▁অধিবেশ	-8871
▁conflic	-8872
ামত	-8873
ares	-8874
▁vul	-8875
▁পৃথক	-8876
▁মাথা	-8877
▁round	-8878
▁affects	-8879
gal	-8880
▁Mal	-8881
▁Pop	-8882
▁gave	-8883
▁vill	-8884
▁পল্ল	-8885
▁cycle	-8886
▁অজ্ঞাত	-8887
রাস	-8888
▁Global	-8889
▁consult	-8890
edom	-8891
iled	-8892
▁ধন্য	-8893
▁হোটেল	-8894
▁সরকারী	-8895
▁install	-8896
▁মহাপরিচালক	-8897
BC	-8898
▁Met	-8899
press	-8900
▁Test	-8901
▁শক্তি	-8902
▁carried	-8903
▁components	-8904
cip	-8905
▁মিন	-8906
▁layer	-8907
▁metal	-8908
▁output	-8909
▁meeting	-8910
▁প্রথমবারের	-8911
ারির	-8912
▁sav	-8913
▁আসন	-8914
▁কবর	-8915
▁আনার	-8916
raction	-8917
▁discussion	-8918
াদান	-8919
▁গরু	-8920
▁Israel	-8921
▁income	-8922
▁lesson	-8923
▁prepar	-8924
▁ওয়েস্ট	-8925
▁balance	-8926
ীম	-8927
▁Free	-8928
▁goals	-8929
▁moist	-8930
▁পুলিশকে	-8931
▁clinical	-8932
▁prevention	-8933
ৎকার	-8934
tered	-8935
▁Egypt	-8936
▁novel	-8937
▁পছন্দ	-8938
▁Nature	-8939
▁western	-8940
▁মসজিদের	-8941
▁চট্টগ্রামে	-8942
বিক	-8943
▁ডিম	-8944
active	-8945
▁আসন্ন	-8946
▁তারেক	-8947
▁এলাকাবাসী	-8948
৩৩	-8949
▁Mark	-8950
▁দূরে	-8951
▁মেসি	-8952
iology	-8953
▁legisl	-8954
▁mention	-8955
▁photograph	-8956
HO	-8957
তনে	-8958
বছর	-8959
onic	-8960
▁খবরে	-8961
example	-8962
▁pieces	-8963
▁যাত্রা	-8964
▁যুবলীগ	-8965
▁millions	-8966
▁recorded	-8967
▁characteristics	-8968
৪৭	-8969
▁রয়	-8970
াজের	-8971
▁Keep	-8972
▁serve	-8973
▁flight	-8974
ortunately	-8975
▁দিয়েছিলেন	-8976
II	-8977
বণ	-8978
▁চোর	-8979
ville	-8980
▁জবাব	-8981
▁লাইন	-8982
▁শর্ত	-8983
▁ভার্চ	-8984
▁মুন্স	-8985
▁emphas	-8986
▁আশঙ্কা	-8987
▁particles	-8988
চনায়	-8989
▁den	-8990
▁বস্ত	-8991
▁trend	-8992
▁wrong	-8993
unction	-8994
▁begins	-8995
▁সম্পাদ	-8996
গ্ধ	-8997
▁Ap	-8998
▁নাগ	-8999
▁ঢুকে	-9000
▁আশ্রয়	-9001
▁যোগ্য	-9002
▁diagnosed	-9003
নেস	-9004
akers	-9005
▁অ্যাম	-9006
▁insects	-9007
বুল	-9008
▁thr	-9009
্যন্ত	-9010
▁List	-9011
▁Guide	-9012
▁inflamm	-9013
▁Encyclopedia	-9014
::	-9015
tical	-9016
▁phen	-9017
▁চাঁপ	-9018
▁speech	-9019
▁Climate	-9020
▁মৃত্যুতে	-9021
▁resulting	-9022
▁ভ্রাম্যমাণ	-9023
▁চুল	-9024
▁জ্ঞ	-9025
▁ধারা	-9026
▁Views	-9027
▁joint	-9028
▁জড়িয়ে	-9029
▁statement	-9030
▁Fe	-9031
cipl	-9032
▁pip	-9033
rolog	-9034
▁ইত্য	-9035
▁পূরণ	-9036
িক্যাল	-9037
▁letters	-9038
▁অপেক্ষা	-9039
▁আলোচনায়	-9040
▁contract	-9041
li	-9042
arp	-9043
care	-9044
▁divid	-9045
▁units	-9046
▁এজন্য	-9047
▁তৈরির	-9048
▁টেস্টে	-9049
▁advanced	-9050
▁কোয়ারেন্ট	-9051
▁পারিবারিক	-9052
রন	-9053
▁fever	-9054
▁sexual	-9055
▁মঞ্জুর	-9056
▁numerous	-9057
▁fine	-9058
▁দায়ে	-9059
▁ready	-9060
▁worth	-9061
▁asthma	-9062
▁কয়েকদিন	-9063
কাশ	-9064
কর্মী	-9065
▁task	-9066
ডাঙ্গা	-9067
▁Color	-9068
▁topics	-9069
▁পরিদর্শক	-9070
oty	-9071
otic	-9072
▁তাৎ	-9073
▁বন্দর	-9074
▁expert	-9075
▁failure	-9076
▁নরেন্দ্র	-9077
▁পারভ	-9078
▁slightly	-9079
তলা	-9080
iling	-9081
▁doll	-9082
▁Class	-9083
▁কালাম	-9084
▁তিনজন	-9085
▁invent	-9086
▁কমান্ডার	-9087
▁তালুকদার	-9088
▁procedure	-9089
▁curriculum	-9090
▁কর্তৃপক্ষের	-9091
lers	-9092
acing	-9093
▁একবার	-9094
▁stroke	-9095
▁কর্মীদের	-9096
৩৯	-9097
▁ইভ	-9098
▁dyn	-9099
▁মেঘ	-9100
▁রাব	-9101
olved	-9102
▁Both	-9103
▁qual	-9104
▁আপনাকে	-9105
▁Studies	-9106
▁comments	-9107
▁tiny	-9108
▁মুন্	-9109
▁ইস্যু	-9110
▁ধন্যবাদ	-9111
▁সেন্টার	-9112
▁continues	-9113
▁পরিস্থিতির	-9114
লাল	-9115
▁উপায়	-9116
▁influen	-9117
▁properly	-9118
▁collected	-9119
▁মৌলভীবাজার	-9120
▁নন	-9121
▁শব্দ	-9122
illing	-9123
▁ইফতার	-9124
▁faster	-9125
▁conclud	-9126
▁Archives	-9127
▁languages	-9128
▁মিস	-9129
▁বদলে	-9130
▁আসছেন	-9131
▁destroy	-9132
▁pal	-9133
▁বজায়	-9134
▁সংশোধ	-9135
▁হারুন	-9136
▁Common	-9137
▁concern	-9138
▁Previous	-9139
▁transfer	-9140
▁হান	-9141
▁race	-9142
▁situ	-9143
▁মোশার	-9144
▁explains	-9145
▁completed	-9146
▁primarily	-9147
▁worldwide	-9148
রো	-9149
▁৩৯	-9150
▁Like	-9151
▁phil	-9152
▁থাকছে	-9153
▁নিয়েই	-9154
▁Robert	-9155
▁colors	-9156
▁format	-9157
▁সীমান্তে	-9158
▁জিজ্ঞাসাবাদ	-9159
৩৬	-9160
▁cere	-9161
▁লঞ্চ	-9162
▁Greek	-9163
▁price	-9164
▁তুলতে	-9165
▁খন্দকার	-9166
▁চ্যানেল	-9167
▁antibiot	-9168
তিনি	-9169
▁sick	-9170
▁গাইবান	-9171
▁পাঠিয়ে	-9172
▁যেকোনো	-9173
▁detailed	-9174
▁cholesterol	-9175
▁experiences	-9176
▁AN	-9177
▁শপথ	-9178
othes	-9179
▁সাইফ	-9180
▁cardi	-9181
▁excell	-9182
▁যন্ত্র	-9183
▁পদত্যাগ	-9184
vin	-9185
▁নষ্ট	-9186
▁জঙ্গি	-9187
▁ভেতরে	-9188
▁মন্দির	-9189
▁পয়েন্টে	-9190
জিটিভ	-9191
▁toxic	-9192
▁sounds	-9193
▁strugg	-9194
▁দ্বারা	-9195
▁রাস্তার	-9196
▁ব্যবধানে	-9197
▁সমালোচনা	-9198
▁কলা	-9199
▁জনে	-9200
▁synt	-9201
▁রুহুল	-9202
atically	-9203
▁nutrition	-9204
BD	-9205
ষ্টার	-9206
▁dust	-9207
▁White	-9208
▁বিদায়	-9209
▁গণতন্ত্র	-9210
তক	-9211
হাদ	-9212
▁দফায়	-9213
▁হামিদ	-9214
▁কর্মকর্তাদের	-9215
zhe	-9216
ulin	-9217
▁esc	-9218
▁crops	-9219
শী	-9220
ালির	-9221
▁Ill	-9222
▁Mem	-9223
পাত্র	-9224
বার্তা	-9225
শিল্পী	-9226
▁looked	-9227
▁অভিষেক	-9228
▁creation	-9229
▁medication	-9230
এমপি	-9231
▁পর্দ	-9232
▁youth	-9233
▁শ্বাস	-9234
▁কিভাবে	-9235
▁Administ	-9236
hak	-9237
িয়াক	-9238
▁Jes	-9239
▁ship	-9240
▁মানে	-9241
▁turned	-9242
▁প্রকৃত	-9243
▁showing	-9244
▁ঘূর্ণিঝ	-9245
mas	-9246
ধুম	-9247
সারণ	-9248
ার্থে	-9249
▁পূজা	-9250
teries	-9251
▁তদন্তের	-9252
▁হাজারের	-9253
▁measured	-9254
▁·	-9255
▁দাফ	-9256
▁ওরফে	-9257
েম্বরে	-9258
▁Louis	-9259
▁কিছুই	-9260
▁moment	-9261
▁visible	-9262
▁referred	-9263
▁বিশ্বকাপে	-9264
aks	-9265
anta	-9266
▁সেম	-9267
িদর্শক	-9268
▁brown	-9269
▁ব্যার	-9270
▁সংযোগ	-9271
▁Academy	-9272
▁বিজ্ঞপ্তি	-9273
িকেট	-9274
সংখ্য	-9275
▁nerv	-9276
▁শোনা	-9277
ascular	-9278
▁describe	-9279
ava	-9280
▁clim	-9281
▁ফোনে	-9282
▁সত্যি	-9283
▁স্টেশন	-9284
▁মুম্বাই	-9285
াকের	-9286
force	-9287
osoph	-9288
▁onto	-9289
▁প্রো	-9290
▁shell	-9291
▁চার্জ	-9292
▁ঝুঁকি	-9293
▁সংগীত	-9294
▁অন্তর্	-9295
▁সার্ভিসের	-9296
arb	-9297
ডেন	-9298
▁core	-9299
▁park	-9300
▁aware	-9301
▁কুপিয়ে	-9302
▁চাঁদপুর	-9303
▁Ev	-9304
cium	-9305
unte	-9306
ander	-9307
▁Teac	-9308
▁পরের	-9309
▁Middle	-9310
▁actual	-9311
▁wonder	-9312
▁অফিসের	-9313
▁ইতিমধ্যে	-9314
োনালদ	-9315
▁ধ্বংস	-9316
▁museum	-9317
▁happens	-9318
▁extensive	-9319
▁instruction	-9320
৩৪	-9321
▁lic	-9322
▁টাকায়	-9323
▁পজিটিভ	-9324
িডি	-9325
▁পুঁ	-9326
▁ঈদুল	-9327
normal	-9328
▁fluid	-9329
▁সার্জন	-9330
▁Learning	-9331
▁আন্দোলনের	-9332
▁containing	-9333
▁অ্যাকাউন্ট	-9334
net	-9335
▁হাফ	-9336
omach	-9337
▁কুড়ি	-9338
▁বাসা	-9339
্রিস্ট	-9340
▁বগুড়া	-9341
▁tradition	-9342
▁ট্রাম্পের	-9343
▁নির্দিষ্ট	-9344
rum	-9345
vis	-9346
▁৩৪	-9347
▁গাঁ	-9348
asive	-9349
poses	-9350
▁farmers	-9351
gov	-9352
med	-9353
েশনে	-9354
▁Hen	-9355
▁Sal	-9356
▁গুণ	-9357
▁ধরেই	-9358
▁লাগে	-9359
▁রাজ্যে	-9360
▁sustainable	-9361
▁শী	-9362
▁ভিড়	-9363
▁Step	-9364
▁pret	-9365
▁scen	-9366
▁solid	-9367
▁ত্যাগ	-9368
anguage	-9369
▁অঞ্চলের	-9370
▁internal	-9371
▁pictures	-9372
▁অর্থনীতি	-9373
▁সংবাদদাতা	-9374
কুম	-9375
▁Mr	-9376
▁ভর	-9377
ails	-9378
ুকের	-9379
▁শিখ	-9380
▁উত্তেজ	-9381
▁কারখান	-9382
▁মিলনায়	-9383
▁confirm	-9384
▁initial	-9385
▁ফিলিস্ত	-9386
াপ্রতিষ্ঠ	-9387
▁ইন্টারনেট	-9388
▁Commission	-9389
▁যুক্তরাষ্ট্রে	-9390
RE	-9391
mp	-9392
▁বী	-9393
olds	-9394
াদুর	-9395
earch	-9396
হাজার	-9397
▁ওয়াল	-9398
▁ধীরে	-9399
▁liver	-9400
▁আহম্ম	-9401
▁Republic	-9402
▁involves	-9403
▁আনুষ্ঠানিক	-9404
ভেল	-9405
▁sem	-9406
▁গলা	-9407
▁flat	-9408
াইনবাব	-9409
▁অবস্থার	-9410
▁প্রতিরোধে	-9411
▁resistance	-9412
াতেই	-9413
ামার	-9414
uable	-9415
▁Well	-9416
▁ডুবে	-9417
▁motor	-9418
▁জাহান	-9419
▁উদ্দেশে	-9420
▁Director	-9421
▁intended	-9422
▁স্	-9423
▁অফিসে	-9424
▁দুর্দ	-9425
▁camera	-9426
▁station	-9427
▁একসঙ্গে	-9428
▁proteins	-9429
▁মুখপাত্র	-9430
▁connection	-9431
▁monitoring	-9432
▁ঐতিহ	-9433
▁input	-9434
▁setting	-9435
▁নির্মিত	-9436
ML	-9437
▁Mil	-9438
▁ডোনাল্ড	-9439
▁দিচ্ছেন	-9440
▁Sciences	-9441
▁অধিদপ্তর	-9442
▁উন্নয়নের	-9443
inf	-9444
কেই	-9445
বিআই	-9446
▁agg	-9447
▁sen	-9448
▁vot	-9449
▁কালো	-9450
▁ক্ষমতায়	-9451
▁concepts	-9452
▁nutrients	-9453
কাবে	-9454
▁aspects	-9455
▁ম্যানেজার	-9456
▁ভিত	-9457
▁শাকিব	-9458
▁Forest	-9459
▁liquid	-9460
▁যেভাবে	-9461
▁বিমানবন্দরে	-9462
▁দমন	-9463
▁রেস	-9464
▁রোড	-9465
▁Only	-9466
▁mice	-9467
▁আদর্শ	-9468
▁সিঙ্গ	-9469
শালা	-9470
োগান	-9471
স্টার	-9472
▁অল্প	-9473
▁বিকাশ	-9474
▁শাস্তি	-9475
▁বক্তারা	-9476
▁protected	-9477
aker	-9478
igen	-9479
েডার	-9480
▁ব্যয়	-9481
তিক্রম	-9482
▁supported	-9483
BN	-9484
বিল	-9485
rian	-9486
▁Data	-9487
▁জটিল	-9488
▁Alzhe	-9489
▁concerns	-9490
▁distinct	-9491
▁prepared	-9492
▁প্রত্যক্ষ	-9493
och	-9494
▁Fre	-9495
▁জেলে	-9496
▁rough	-9497
▁পাশের	-9498
▁বান্দ	-9499
▁battle	-9500
▁শুরুতে	-9501
▁documents	-9502
পদ	-9503
angered	-9504
▁conver	-9505
▁Virginia	-9506
৫৯	-9507
▁Id	-9508
▁কক্ষে	-9509
▁কারণেই	-9510
▁বিপরীতে	-9511
▁computers	-9512
▁instrument	-9513
bal	-9514
ours	-9515
▁ble	-9516
attle	-9517
▁maps	-9518
▁জুটি	-9519
▁height	-9520
▁কর্তৃক	-9521
▁পিছিয়ে	-9522
▁himself	-9523
▁আলহাজ্ব	-9524
▁খ্রিস্ট	-9525
▁incorpor	-9526
▁ধরণের	-9527
▁সমাজের	-9528
▁ফাইনালে	-9529
▁hundreds	-9530
▁হয়েছিলেন	-9531
▁প্রিমিয়ার	-9532
▁প্রতিদ্বন্দ্ব	-9533
৫২	-9534
▁sac	-9535
▁পির	-9536
▁রিস	-9537
state	-9538
▁বলেছে	-9539
▁রেজাউল	-9540
▁forests	-9541
▁magnetic	-9542
▁solutions	-9543
তিতে	-9544
▁pric	-9545
▁বলেই	-9546
গুলোকে	-9547
▁assum	-9548
▁হিসাব	-9549
▁vulner	-9550
▁subjects	-9551
▁প্রতিযোগিতা	-9552
▁dro	-9553
▁Mond	-9554
▁ইলিশ	-9555
▁বাঁধ	-9556
▁floor	-9557
▁ব্যান	-9558
▁hearing	-9559
ড্ড	-9560
▁তু	-9561
▁হাক	-9562
▁defic	-9563
▁kinds	-9564
▁credit	-9565
▁vehicle	-9566
▁প্রাক্ত	-9567
▁improved	-9568
▁অস্ট্রেলিয়ার	-9569
ফর্ম	-9570
▁quar	-9571
▁ইচ্ছ	-9572
▁কাগজ	-9573
▁দৃষ্ট	-9574
▁অপেক্ষ	-9575
▁মোকাবে	-9576
▁impacts	-9577
▁ব্রাজিল	-9578
CE	-9579
ংসা	-9580
ুমান	-9581
▁খাল	-9582
▁পেলেন	-9583
pective	-9584
ভিত্তিক	-9585
▁Thomas	-9586
▁দিবাগত	-9587
৫৬	-9588
দারের	-9589
acters	-9590
াস্ত্র	-9591
▁label	-9592
▁কলকাতার	-9593
▁reaction	-9594
▁determined	-9595
▁catch	-9596
▁রাতের	-9597
▁potentially	-9598
dd	-9599
IDS	-9600
আমরা	-9601
ellig	-9602
▁প্রাক	-9603
▁প্রচুর	-9604
▁প্রত্যাহার	-9605
hop	-9606
olk	-9607
েটে	-9608
▁Lar	-9609
▁হিম	-9610
▁চৌধুরীর	-9611
▁বাজারের	-9612
▁contribute	-9613
শান	-9614
ঞ্চে	-9615
ান্ট	-9616
▁fear	-9617
▁নায়িকা	-9618
▁পার্টি	-9619
▁বিজেপির	-9620
▁assessment	-9621
▁biological	-9622
ania	-9623
onds	-9624
▁গর্	-9625
arrow	-9626
▁দাখিল	-9627
▁সমন্বয়	-9628
▁সিরিজে	-9629
▁আব্দুল্লাহ	-9630
তল	-9631
▁ইসর	-9632
▁ঠেক	-9633
▁সালা	-9634
▁পর্যবে	-9635
▁প্রয়োগ	-9636
▁উদ্দেশ্য	-9637
raw	-9638
বরণ	-9639
য়েত	-9640
▁ord	-9641
iable	-9642
খালীর	-9643
▁Fact	-9644
▁diam	-9645
▁opin	-9646
▁বিবাহ	-9647
ventional	-9648
▁occurred	-9649
▁Alzheimer	-9650
▁greenhouse	-9651
সুল	-9652
ault	-9653
ড়িতে	-9654
▁din	-9655
▁অবন	-9656
▁Page	-9657
▁Agency	-9658
▁counter	-9659
▁muscles	-9660
▁combined	-9661
▁অভিযোগের	-9662
▁residents	-9663
IL	-9664
ঠিত	-9665
িকর	-9666
▁হর	-9667
fall	-9668
▁Dem	-9669
▁পিস	-9670
▁হতো	-9671
cling	-9672
ক্রমে	-9673
▁Land	-9674
▁jobs	-9675
▁আবাস	-9676
▁জামায়	-9677
ুয়াল	-9678
▁tim	-9679
িপূর্ণ	-9680
▁অঞ্চলে	-9681
▁প্রিয়া	-9682
▁profession	-9683
▁?	-9684
ona	-9685
▁Care	-9686
▁grown	-9687
▁window	-9688
▁Reference	-9689
পের	-9690
লিক	-9691
▁লিও	-9692
▁হেড	-9693
▁জুড়ে	-9694
change	-9695
▁Those	-9696
▁galax	-9697
aria	-9698
ত্রী	-9699
▁Smith	-9700
uration	-9701
▁ঘণ্টার	-9702
▁Stat	-9703
▁কন্ট	-9704
▁পড়ার	-9705
▁বেঁধে	-9706
▁assist	-9707
▁প্রাক্তন	-9708
▁agricultural	-9709
ছুর	-9710
্বার	-9711
▁Jer	-9712
▁Ter	-9713
▁মনো	-9714
▁brief	-9715
▁বুঝতে	-9716
▁territ	-9717
▁পাচ্ছে	-9718
elescope	-9719
▁বার্সেল	-9720
▁স্মার্টফোন	-9721
▁রও	-9722
▁শরি	-9723
▁View	-9724
▁ইউনিভ	-9725
▁Author	-9726
▁dioxide	-9727
▁technical	-9728
▁Laboratory	-9729
▁প্রতিষ্ঠাতা	-9730
gl	-9731
শু	-9732
পাট	-9733
▁মূ	-9734
▁ign	-9735
▁pig	-9736
heast	-9737
▁Back	-9738
▁decl	-9739
▁trib	-9740
▁বিজয়ী	-9741
▁spirit	-9742
ognitive	-9743
▁smoking	-9744
▁আবেদনের	-9745
▁independent	-9746
হর	-9747
োকন	-9748
িজের	-9749
▁সাংসদ	-9750
▁১১টায়	-9751
▁আমদানি	-9752
ferences	-9753
▁involve	-9754
▁Comments	-9755
▁চাঁপাইনবাব	-9756
▁পশ্চিমবঙ্গ	-9757
▁surrounding	-9758
▁বেরিয়ে	-9759
▁stomach	-9760
▁Ret	-9761
▁spl	-9762
▁মতি	-9763
▁Long	-9764
▁তল্লা	-9765
▁স্বামীর	-9766
▁laboratory	-9767
icks	-9768
ৃদ্ধ	-9769
itter	-9770
▁cook	-9771
▁পেলে	-9772
ওয়ার্ড	-9773
▁Current	-9774
▁ঘূর্ণিঝড়	-9775
▁originally	-9776
ilit	-9777
osqu	-9778
শাসন	-9779
▁তালা	-9780
▁Family	-9781
▁double	-9782
▁fundam	-9783
▁string	-9784
▁রোনালদ	-9785
▁সংস্কার	-9786
▁contrast	-9787
▁beautiful	-9788
▁শ্রমিকদের	-9789
▁experiments	-9790
▁দম	-9791
▁Ext	-9792
▁leaf	-9793
▁এসএম	-9794
▁harvest	-9795
োহী	-9796
িপ্ত	-9797
▁রাখে	-9798
▁grand	-9799
▁হুমায়	-9800
▁যাওয়ায়	-9801
▁storage	-9802
▁নারীদের	-9803
সিম	-9804
▁লেগে	-9805
weight	-9806
▁রাউন্ড	-9807
ান্ত্রিক	-9808
▁Britain	-9809
▁univers	-9810
▁Prevention	-9811
৫৭	-9812
▁অম	-9813
irds	-9814
▁Mac	-9815
▁লুক	-9816
প্রতি	-9817
▁phone	-9818
▁গাজীপুর	-9819
▁মহামারি	-9820
▁অটোর	-9821
▁Psych	-9822
▁এসেছেন	-9823
▁Through	-9824
▁নির্মাতা	-9825
ংখ	-9826
▁Tur	-9827
▁mild	-9828
▁Franc	-9829
▁রহস্য	-9830
▁দূরত্ব	-9831
”.	-9832
isp	-9833
ader	-9834
clus	-9835
▁দেহ	-9836
▁রুবেল	-9837
▁১১টার	-9838
▁Rights	-9839
▁Dictionary	-9840
ss	-9841
তাম	-9842
লাইন	-9843
▁Camp	-9844
▁গলায়	-9845
▁রযাবের	-9846
▁practical	-9847
▁মিলনায়তনে	-9848
CC	-9849
ING	-9850
ফ্র	-9851
▁sort	-9852
▁উদ্দ	-9853
▁পঠিত	-9854
▁গাড়ির	-9855
▁Access	-9856
▁fossil	-9857
▁wanted	-9858
▁সুলতানা	-9859
৫৩	-9860
দূত	-9861
▁sod	-9862
▁গরম	-9863
plant	-9864
verty	-9865
পাশের	-9866
▁Check	-9867
▁Exper	-9868
▁multi	-9869
▁smoke	-9870
বাংলাদেশ	-9871
▁poverty	-9872
▁দুর্যোগ	-9873
▁রাশিয়ার	-9874
▁Catholic	-9875
▁citizens	-9876
▁processing	-9877
ায়া	-9878
▁cm	-9879
cest	-9880
rich	-9881
▁arg	-9882
চ্ছেদ	-9883
▁aren	-9884
▁উজ্জ	-9885
▁ভোরে	-9886
▁হেরে	-9887
▁stret	-9888
▁ফাইনাল	-9889
▁মাদরাস	-9890
▁দুর্বৃত্ত	-9891
▁সংক্রমণের	-9892
AP	-9893
৪৯	-9894
কাঠ	-9895
▁fly	-9896
▁ওমর	-9897
▁Writ	-9898
▁ইসরা	-9899
▁লাইফ	-9900
▁খাগড়া	-9901
▁জ্বাল	-9902
▁অনেকের	-9903
▁morning	-9904
▁vessels	-9905
▁কর্মীরা	-9906
▁depending	-9907
▁characters	-9908
▁principles	-9909
▁শিক্ষাপ্রতিষ্ঠ	-9910
He	-9911
্লো	-9912
▁তল	-9913
▁৯০	-9914
ীতির	-9915
umber	-9916
▁অভিব	-9917
▁Monday	-9918
▁অভিভাব	-9919
▁মোল্লা	-9920
▁traffic	-9921
▁manufacture	-9922
▁requirements	-9923
৪৪	-9924
ras	-9925
নিং	-9926
ীবন	-9927
▁রণ	-9928
▁Div	-9929
▁তুম	-9930
▁খুশি	-9931
▁roots	-9932
▁আকর্ষ	-9933
▁ভাইরাসে	-9934
▁operations	-9935
▁সেনাবাহিনীর	-9936
পরে	-9937
▁বরং	-9938
▁doub	-9939
▁কাঁচ	-9940
▁Before	-9941
▁inject	-9942
▁কর্তব্যরত	-9943
▁definition	-9944
ny	-9945
▁Cy	-9946
াকিব	-9947
▁ওজন	-9948
▁ভবনে	-9949
▁signal	-9950
▁সংযুক্ত	-9951
ev	-9952
▁তর	-9953
▁Wik	-9954
▁অথচ	-9955
▁isol	-9956
▁ভাষা	-9957
▁আপনারা	-9958
▁নির্ভর	-9959
▁ক্রিকেটে	-9960
৫৮	-9961
free	-9962
last	-9963
tion	-9964
▁কোহ	-9965
▁Ohio	-9966
▁কানা	-9967
▁ডেকে	-9968
▁Follow	-9969
▁centuries	-9970
▁Government	-9971
▁comprehensive	-9972
▁ple	-9973
▁চোখে	-9974
▁facts	-9975
▁পার্ব	-9976
▁যাবেন	-9977
▁driving	-9978
▁policies	-9979
িলি	-9980
▁Cre	-9981
▁সিম	-9982
ishes	-9983
▁shel	-9984
▁নেতার	-9985
▁রিয়াল	-9986
▁Source	-9987
▁explan	-9988
▁notice	-9989
▁স্পষ্ট	-9990
▁keeping	-9991
▁গিয়েছিল	-9992
▁academic	-9993
▁IS	-9994
িকান	-9995
▁End	-9996
▁Nov	-9997
▁buy	-9998
উল্লাহ	-9999
▁plate	-10000
▁prefer	-10001
▁মেহেদী	-10002
▁decline	-10003
▁অগ্নিকা	-10004
alog	-10005
▁জাগ	-10006
▁হিজ	-10007
utive	-10008
▁Main	-10009
▁Thus	-10010
▁oppos	-10011
▁সংরক্ষ	-10012
▁largely	-10013
▁playing	-10014
▁childhood	-10015
আল	-10016
ixt	-10017
obe	-10018
▁AD	-10019
▁টন	-10020
aser	-10021
oper	-10022
work	-10023
▁Ann	-10024
▁Saf	-10025
▁Mont	-10026
▁court	-10027
▁heard	-10028
▁title	-10029
▁ছাড়াই	-10030
▁lifest	-10031
standing	-10032
▁normally	-10033
▁operating	-10034
বিন	-10035
▁ঘন	-10036
eties	-10037
▁kept	-10038
ishing	-10039
াবাদের	-10040
িস্টেম	-10041
▁dedic	-10042
aturally	-10043
▁reached	-10044
▁পরিবারকে	-10045
▁এক্সপ্রেস	-10046
▁Australian	-10047
▁efficiency	-10048
যথ	-10049
bing	-10050
cules	-10051
গতি	-10052
রুখ	-10053
▁du	-10054
uels	-10055
▁Pan	-10056
▁sed	-10057
iance	-10058
▁disapp	-10059
▁উপাচার্য	-10060
▁suggested	-10061
▁ইংল্যান্ডের	-10062
▁ময়নাতদন্তের	-10063
ভূমি	-10064
▁Haw	-10065
▁Lim	-10066
▁Design	-10067
▁আরেকটি	-10068
▁formation	-10069
▁কর্মসূচির	-10070
▁৪৯	-10071
▁emp	-10072
▁সূর	-10073
বিরোধী	-10074
▁twice	-10075
▁আতঙ্ক	-10076
▁গার্ড	-10077
▁বাছাই	-10078
ড়যন্ত্র	-10079
▁belief	-10080
▁portion	-10081
▁ওয়ার্ল্ড	-10082
শুর	-10083
▁fix	-10084
▁kit	-10085
▁জুম	-10086
▁খেতে	-10087
inations	-10088
▁foreign	-10089
▁পাচ্ছেন	-10090
▁বিনামূল	-10091
BS	-10092
▁haz	-10093
▁nit	-10094
▁unf	-10095
▁ঢাক	-10096
▁Georg	-10097
▁volcan	-10098
▁aid	-10099
▁frag	-10100
▁অনিয়	-10101
▁বরাদ্দ	-10102
▁মহাসড়কের	-10103
If	-10104
ij	-10105
born	-10106
পুরি	-10107
▁বাম	-10108
celer	-10109
rates	-10110
▁জাহাজ	-10111
▁সালাম	-10112
কেন্দ্র	-10113
▁babies	-10114
▁survive	-10115
▁painting	-10116
bo	-10117
পিট	-10118
▁Bur	-10119
▁teen	-10120
▁উল্ট	-10121
▁কখনও	-10122
▁cloth	-10123
▁perman	-10124
▁Special	-10125
▁ইত্যাদি	-10126
anges	-10127
▁আপাত	-10128
▁minor	-10129
▁কলেজে	-10130
▁career	-10131
▁পৃথিবীর	-10132
ena	-10133
uted	-10134
দানের	-10135
▁Prov	-10136
▁veter	-10137
▁পদ্মা	-10138
▁ঐতিহ্য	-10139
▁ডেঙ্গু	-10140
▁কাশ্মীর	-10141
▁ব্যাপার	-10142
▁সিনেমায়	-10143
▁produces	-10144
▁আমেরিকার	-10145
▁প্রকাশ্যে	-10146
েগ	-10147
place	-10148
▁Chic	-10149
▁Supp	-10150
▁ইংরে	-10151
▁Where	-10152
▁ইউটিউ	-10153
▁পৌরসভা	-10154
▁Carolina	-10155
▁Sam	-10156
▁নিঃ	-10157
icate	-10158
▁করবো	-10159
unched	-10160
▁গ্রহণের	-10161
▁হত্যাকা	-10162
▁বলেছিলেন	-10163
▁মাদ্রাসা	-10164
▁connected	-10165
OS	-10166
▁তে	-10167
▁hem	-10168
ested	-10169
▁cars	-10170
্যাক্স	-10171
ডিসি	-10172
▁লেখক	-10173
▁vital	-10174
▁খাওয়া	-10175
▁জন্যই	-10176
াত্ত	-10177
▁তাড়	-10178
▁send	-10179
▁অপার	-10180
▁সুরক্ষা	-10181
▁accurate	-10182
▁reduction	-10183
▁উড়	-10184
▁bow	-10185
▁দফা	-10186
abits	-10187
osquit	-10188
▁listed	-10189
▁played	-10190
▁consumers	-10191
▁ইল	-10192
udden	-10193
▁Good	-10194
▁susp	-10195
▁গুগল	-10196
▁যথাযথ	-10197
▁unknown	-10198
▁Canadian	-10199
▁ষড়যন্ত্র	-10200
াহিম	-10201
িসের	-10202
▁crop	-10203
▁elev	-10204
▁পিএস	-10205
▁ক্যাপ	-10206
▁বিপ্ল	-10207
▁বুদ্ধ	-10208
lements	-10209
▁periods	-10210
▁ইন্টারন	-10211
▁ব্যবহৃত	-10212
▁Bet	-10213
▁Que	-10214
▁বাড়তে	-10215
▁poison	-10216
▁চাহিদা	-10217
▁বন্দ্য	-10218
▁Michael	-10219
▁Breaking	-10220
▁phenomen	-10221
US	-10222
nic	-10223
সুমে	-10224
▁Nor	-10225
▁nav	-10226
▁পাথ	-10227
▁peace	-10228
▁Conservation	-10229
uit	-10230
ছান	-10231
াবর	-10232
ধুলা	-10233
▁৫০০	-10234
▁মারধর	-10235
▁mainly	-10236
▁ক্যারিয়ার	-10237
▁সহযোগিতায়	-10238
mic	-10239
▁aqu	-10240
▁bud	-10241
yroid	-10242
▁Work	-10243
▁soci	-10244
cience	-10245
ার্সের	-10246
▁Group	-10247
▁নেত্র	-10248
▁আব্দুস	-10249
▁calcium	-10250
▁obvious	-10251
▁মীর	-10252
ীকৃতি	-10253
▁গঠিত	-10254
▁দম্প	-10255
▁সাড়া	-10256
চ্ছিলেন	-10257
▁আহতদের	-10258
▁পর্যটক	-10259
▁পর্যায়ের	-10260
▁advantage	-10261
zy	-10262
pal	-10263
▁Ken	-10264
▁বোর	-10265
▁Tues	-10266
▁raise	-10267
▁motion	-10268
▁অনুশীল	-10269
▁clearly	-10270
▁landscape	-10271
পিং	-10272
▁flex	-10273
▁ইয়াস	-10274
nesday	-10275
▁দপ্তর	-10276
▁রাজ্জ	-10277
▁massive	-10278
▁ছি	-10279
াবেন	-10280
field	-10281
▁Media	-10282
▁ফ্লাইট	-10283
▁মানবিক	-10284
▁frequency	-10285
দৌ	-10286
ঘাতী	-10287
ম্বরে	-10288
▁drop	-10289
▁কারো	-10290
▁মর্য	-10291
▁ফেডার	-10292
▁ভ্যান	-10293
▁মুস্ত	-10294
▁স্বাগত	-10295
▁মাশরাফি	-10296
▁সিস্টেম	-10297
▁allowing	-10298
▁provider	-10299
কান	-10300
চাই	-10301
মাস	-10302
ম্য	-10303
▁পরও	-10304
গুলির	-10305
▁band	-10306
▁waves	-10307
▁ক্লিন	-10308
▁পলাতক	-10309
▁Native	-10310
▁intake	-10311
▁প্রেমের	-10312
▁appeared	-10313
▁ইঞ্জিনিয়ার	-10314
ফু	-10315
add	-10316
াজনক	-10317
▁Jul	-10318
▁syn	-10319
ৃত্তি	-10320
▁phase	-10321
▁সমিতি	-10322
▁পর্যটন	-10323
▁drought	-10324
▁otherwise	-10325
▁রোহিঙ্গাদের	-10326
rob	-10327
সাং	-10328
ুকু	-10329
ুরী	-10330
▁যথ	-10331
ক্তা	-10332
▁Who	-10333
▁tun	-10334
orter	-10335
pping	-10336
▁Conf	-10337
▁spend	-10338
▁পানির	-10339
▁হাকিম	-10340
▁attacks	-10341
▁walking	-10342
▁পরিচালনায়	-10343
▁ফয়	-10344
▁হয	-10345
বাসী	-10346
▁নেপ	-10347
▁depth	-10348
▁views	-10349
▁Second	-10350
▁আটককৃত	-10351
▁বিপর্য	-10352
▁মিলিয়ন	-10353
▁স্কুলে	-10354
▁injuries	-10355
▁returned	-10356
▁জাতিসংঘের	-10357
▁Management	-10358
▁জজ	-10359
▁নক	-10360
rier	-10361
▁Orig	-10362
▁আপিল	-10363
▁কারা	-10364
▁পতাকা	-10365
▁adjust	-10366
▁neighbor	-10367
▁violence	-10368
▁টেলিভিশন	-10369
▁facilities	-10370
শের	-10371
িসা	-10372
▁kn	-10373
▁৪১	-10374
bert	-10375
▁Str	-10376
▁শিক	-10377
▁Gard	-10378
▁vast	-10379
▁চলতে	-10380
▁kidney	-10381
▁সিলেটে	-10382
▁Charles	-10383
▁Nations	-10384
▁প্রচারণ	-10385
▁excellent	-10386
xi	-10387
ola	-10388
বাচ	-10389
asks	-10390
going	-10391
▁roll	-10392
▁শূন্য	-10393
▁কামরুল	-10394
▁বার্ষিক	-10395
ভী	-10396
৫৪	-10397
ণায়	-10398
শ্ব	-10399
azar	-10400
▁Mag	-10401
বিন্দ	-10402
▁Quest	-10403
▁somew	-10404
▁গেলেও	-10405
▁Federal	-10406
▁Further	-10407
ال	-10408
asp	-10409
েতু	-10410
▁Ber	-10411
▁দান	-10412
▁সৌর	-10413
▁Chem	-10414
▁rocks	-10415
▁দোকানে	-10416
▁বন্দুক	-10417
▁agriculture	-10418
▁consequences	-10419
ether	-10420
hetic	-10421
▁netw	-10422
▁খ্যাত	-10423
▁হাওলা	-10424
▁Friday	-10425
▁astronom	-10426
▁regional	-10427
▁সাম্প্রতিক	-10428
৪৬	-10429
▁তাস	-10430
▁adding	-10431
▁Instead	-10432
▁choices	-10433
▁focused	-10434
▁উন্নয়নে	-10435
▁selected	-10436
মহ	-10437
ামিন	-10438
▁লিড	-10439
▁সের	-10440
fered	-10441
হারের	-10442
▁ভোটের	-10443
▁শাহাদ	-10444
▁দুর্দান্ত	-10445
▁ব্যবহারের	-10446
▁বিনামূল্যে	-10447
UC	-10448
মো	-10449
▁PC	-10450
▁শৈ	-10451
▁neu	-10452
▁Sund	-10453
▁Take	-10454
স্থানে	-10455
▁কাপুর	-10456
▁পক্ষের	-10457
▁প্রাইভ	-10458
▁Tuesday	-10459
▁familiar	-10460
লস	-10461
▁৪২	-10462
হাসিক	-10463
▁tumor	-10464
▁অবনতি	-10465
ription	-10466
▁অসংখ্য	-10467
▁explained	-10468
▁expression	-10469
র্দ	-10470
▁Ox	-10471
▁সায়	-10472
▁sweet	-10473
▁আপাতত	-10474
▁আহবান	-10475
ructure	-10476
▁পুনরায়	-10477
▁সবকিছু	-10478
▁প্রাঙ্গ	-10479
▁district	-10480
▁diversity	-10481
▁procedures	-10482
▁Sa	-10483
aska	-10484
▁ban	-10485
heric	-10486
▁অবসর	-10487
▁দুঃখ	-10488
▁রাজি	-10489
▁Plant	-10490
▁compl	-10491
▁grant	-10492
▁immun	-10493
▁উল্লাহ	-10494
▁ডেস্কঃ	-10495
▁রেখেছে	-10496
▁helpful	-10497
▁প্রশংসা	-10498
মতো	-10499
reci	-10500
▁Heart	-10501
▁নিচ্ছে	-10502
▁transform	-10503
ya	-10504
ভবনে	-10505
faces	-10506
▁Jesus	-10507
▁Johns	-10508
▁bones	-10509
▁করেনি	-10510
▁মেশিন	-10511
▁manage	-10512
▁Windows	-10513
▁enhance	-10514
▁typical	-10515
▁Wildlife	-10516
▁greatest	-10517
▁purposes	-10518
▁guidelines	-10519
ka	-10520
leg	-10521
াদু	-10522
▁তম	-10523
▁pil	-10524
▁দুধ	-10525
▁দোষ	-10526
ছাত্র	-10527
▁পটুয়া	-10528
iveness	-10529
▁মাটিতে	-10530
▁সমাবেশে	-10531
▁studying	-10532
▁রাষ্ট্রদূত	-10533
LA	-10534
uls	-10535
ড্র	-10536
কেরা	-10537
▁grav	-10538
▁seek	-10539
▁তৃণমূ	-10540
▁শীর্ষে	-10541
▁প্রিন্ট	-10542
লক	-10543
well	-10544
▁Det	-10545
ঞ্চিত	-10546
▁Dhak	-10547
▁vent	-10548
▁sequence	-10549
onia	-10550
ওয়ের	-10551
োজনে	-10552
্বির	-10553
▁Del	-10554
ester	-10555
▁Sign	-10556
▁ওভার	-10557
▁নম্বরে	-10558
▁Wednesday	-10559
▁experienced	-10560
ত্তর	-10561
urance	-10562
▁দূতাব	-10563
▁পঞ্চম	-10564
চ্ছিন্ন	-10565
▁launch	-10566
▁raised	-10567
▁শাহরুখ	-10568
▁apparent	-10569
▁mountain	-10570
iodiversity	-10571
মেন	-10572
▁টান	-10573
▁বেস	-10574
▁ইব্র	-10575
▁বক্স	-10576
▁সদ্য	-10577
▁জুয়েল	-10578
▁শুধুম	-10579
▁লাগিয়ে	-10580
▁rapidly	-10581
▁contamin	-10582
▁valuable	-10583
▁বাংলাদেশকে	-10584
গড়	-10585
eor	-10586
pre	-10587
াড়ী	-10588
▁ইট	-10589
riage	-10590
▁shared	-10591
▁closely	-10592
▁corresp	-10593
▁fishing	-10594
▁শুধুমাত্র	-10595
▁inh	-10596
▁ধোন	-10597
▁শিগ	-10598
There	-10599
▁tail	-10600
ipedia	-10601
▁স্টোর	-10602
▁Hospital	-10603
▁consists	-10604
▁describes	-10605
▁অ্যাসোসিয়ে	-10606
ker	-10607
icon	-10608
orms	-10609
পরিব	-10610
মান্য	-10611
▁pump	-10612
▁rail	-10613
▁depos	-10614
▁থেকেও	-10615
▁readers	-10616
▁renewable	-10617
▁স্বেচ্ছাসেবক	-10618
ধাব	-10619
িজি	-10620
▁Bo	-10621
down	-10622
long	-10623
rant	-10624
▁ath	-10625
ব্লিউ	-10626
▁edge	-10627
▁therm	-10628
▁বাবুল	-10629
▁বাসের	-10630
▁implic	-10631
▁যুবককে	-10632
▁divided	-10633
▁electronic	-10634
ga	-10635
pass	-10636
▁lik	-10637
▁শ্ব	-10638
▁Jews	-10639
▁ইন্স	-10640
▁decided	-10641
▁volunte	-10642
▁producing	-10643
bad	-10644
টিক	-10645
▁কয়	-10646
▁দাফন	-10647
▁fewer	-10648
▁meant	-10649
▁teens	-10650
▁touch	-10651
▁আবারো	-10652
▁নরসিং	-10653
▁slowly	-10654
▁তত্ত্ব	-10655
▁বৃষ্টির	-10656
▁সমস্যার	-10657
▁সুপারিশ	-10658
▁Services	-10659
▁calories	-10660
▁বেশিরভাগ	-10661
▁inflammation	-10662
.]	-10663
icial	-10664
ুল্লাহ	-10665
▁Power	-10666
ception	-10667
▁lessons	-10668
▁প্রজন্ম	-10669
▁Language	-10670
▁পুরোপুরি	-10671
পূ	-10672
▁Dig	-10673
▁Nav	-10674
▁disp	-10675
▁mort	-10676
▁আগেও	-10677
▁সাময়	-10678
▁saying	-10679
▁comfort	-10680
▁finally	-10681
▁Southern	-10682
▁প্রদর্শন	-10683
▁regularly	-10684
▁স্বাক্ষরিত	-10685
▁specifically	-10686
▁IN	-10687
▁Kh	-10688
ুরির	-10689
▁ফরম	-10690
▁Wood	-10691
▁এটাই	-10692
▁master	-10693
▁হোসাইন	-10694
▁feeling	-10695
▁করছিলেন	-10696
▁উপস্থিতি	-10697
▁প্রতিক্র	-10698
roat	-10699
▁মালে	-10700
গ্রামের	-10701
▁offered	-10702
osc	-10703
▁ভুগ	-10704
▁lose	-10705
▁unus	-10706
▁আকবর	-10707
▁নন্দ	-10708
▁দর্শক	-10709
▁বেঁচে	-10710
▁মুদ্র	-10711
▁taught	-10712
▁উপসর্গ	-10713
▁ফুটবলার	-10714
▁ঘটনাস্থলেই	-10715
win	-10716
▁Mo	-10717
▁aer	-10718
▁fif	-10719
▁কাব	-10720
eline	-10721
▁shut	-10722
ressed	-10723
▁horse	-10724
▁আগুনে	-10725
▁মৌসুমে	-10726
▁হ্যান্ড	-10727
▁agencies	-10728
▁proposed	-10729
▁tropical	-10730
vironments	-10731
▁molecules	-10732
▁চেয়ারপারসন	-10733
▁নির্যাতনের	-10734
ded	-10735
nel	-10736
ods	-10737
▁পাখ	-10738
eters	-10739
▁একুশ	-10740
ursday	-10741
▁calls	-10742
▁chief	-10743
▁এসএসসি	-10744
▁শীর্ষক	-10745
▁regarding	-10746
▁satellite	-10747
করণ	-10748
শিপ	-10749
ওয়াল	-10750
▁ran	-10751
▁মেল	-10752
▁legs	-10753
▁সাগর	-10754
ঞ্চলিক	-10755
▁বাগের	-10756
▁Survey	-10757
▁charge	-10758
▁marked	-10759
▁secret	-10760
▁updated	-10761
▁যানবাহন	-10762
▁scientist	-10763
▁Type	-10764
▁ক্লাস	-10765
▁সংসদে	-10766
▁strategy	-10767
▁শনাক্তের	-10768
▁sensitive	-10769
ees	-10770
▁ov	-10771
▁৪৭	-10772
▁ডাঃ	-10773
▁রিক	-10774
▁শরীফ	-10775
শিক্ষা	-10776
েন্সের	-10777
▁এভাবে	-10778
▁সেগুলো	-10779
▁স্প্যান	-10780
ভির	-10781
াতন	-10782
▁Sil	-10783
▁Sol	-10784
▁swim	-10785
isation	-10786
▁শিগগির	-10787
▁সেখানেই	-10788
স্বাস্থ্য	-10789
▁relationships	-10790
্যক	-10791
▁Ir	-10792
▁Sym	-10793
▁sets	-10794
▁ইলেক	-10795
▁voice	-10796
▁রায়ের	-10797
▁Martin	-10798
▁decade	-10799
▁অভ্যন্ত	-10800
▁ঐতিহাসিক	-10801
▁কম্পিউটার	-10802
টস	-10803
▁rul	-10804
▁রাঙ	-10805
▁সাঈ	-10806
▁বহিষ	-10807
▁orbit	-10808
▁wealth	-10809
▁সাফল্য	-10810
▁universe	-10811
▁Administration	-10812
olf	-10813
ত্থ	-10814
ীনে	-10815
osen	-10816
rete	-10817
িফোর	-10818
▁fle	-10819
▁ফজল	-10820
▁বরাত	-10821
▁answers	-10822
▁prepare	-10823
▁শিক্ষাব	-10824
▁survival	-10825
cher	-10826
▁Lab	-10827
▁বুল	-10828
oster	-10829
▁অবদান	-10830
aughter	-10831
▁Though	-10832
▁digest	-10833
▁ইনিংসে	-10834
▁গৃহবধূ	-10835
▁সন্ধান	-10836
▁sharing	-10837
▁Northern	-10838
abul	-10839
igan	-10840
বিডি	-10841
▁nor	-10842
কালের	-10843
▁দুর্গ	-10844
▁Econom	-10845
▁Search	-10846
▁Valley	-10847
▁খেলাধুলা	-10848
▁naturally	-10849
▁governments	-10850
৫১	-10851
োপল	-10852
▁তত	-10853
▁গেই	-10854
▁nine	-10855
▁হতাশ	-10856
▁Early	-10857
▁জিনিস	-10858
▁বন্যা	-10859
▁ভিত্তি	-10860
▁শফিকুল	-10861
▁earthqu	-10862
▁অ্যান্ট	-10863
▁ট্রাস্ট	-10864
▁screening	-10865
জাম	-10866
▁Ask	-10867
▁cos	-10868
ritis	-10869
▁পরপর	-10870
▁রপ্ত	-10871
▁সোনা	-10872
▁ভাষায়	-10873
▁আক্রমণ	-10874
▁diverse	-10875
▁signals	-10876
HA	-10877
ৈর	-10878
▁Arab	-10879
▁ডাউন	-10880
▁ancest	-10881
▁habits	-10882
▁photos	-10883
▁সংবর্ধ	-10884
▁funding	-10885
▁বলিউডের	-10886
▁operation	-10887
ait	-10888
▁৪৬	-10889
দণ্ড	-10890
রক্ষণ	-10891
▁জানি	-10892
▁ধরতে	-10893
▁leads	-10894
▁১০টায়	-10895
▁কমিউনি	-10896
▁রোগীদের	-10897
▁straight	-10898
▁কুমিল্লার	-10899
▁ব্যক্তিকে	-10900
▁কর্মকর্তার	-10901
▁মশ	-10902
▁৫৬	-10903
ধর্ষ	-10904
াইনে	-10905
▁লেগ	-10906
Americ	-10907
াবিলায়	-10908
▁stone	-10909
▁ক্ষোভ	-10910
▁লাগবে	-10911
▁সহিংস	-10912
▁Commit	-10913
▁starts	-10914
▁উত্তোল	-10915
▁আঞ্চলিক	-10916
▁বৃদ্ধির	-10917
▁Atlantic	-10918
▁প্রতিনিধ	-10919
▁নেতাকর্মীরা	-10920
পথে	-10921
সাগ	-10922
সাল	-10923
▁সবসময়	-10924
▁refers	-10925
▁সেনাবাহিনী	-10926
▁পণ	-10927
▁সশ	-10928
ario	-10929
lets	-10930
াহীর	-10931
▁ভিট	-10932
▁wear	-10933
▁সমান	-10934
▁Henry	-10935
▁Solar	-10936
▁leader	-10937
▁করেননি	-10938
▁পরিশোধ	-10939
▁বাড়ানো	-10940
▁depends	-10941
▁প্রাইভেট	-10942
▁estimates	-10943
▁আইনশৃঙ্খলা	-10944
illa	-10945
াপোল	-10946
azine	-10947
▁epid	-10948
▁কেমন	-10949
▁ভর্ত	-10950
▁অঞ্চল	-10951
▁Heritage	-10952
▁interpret	-10953
▁responsibility	-10954
inn	-10955
zen	-10956
burg	-10957
▁sla	-10958
▁oral	-10959
▁কর্ণ	-10960
▁ভেবে	-10961
▁photo	-10962
▁prices	-10963
পরিদর্শক	-10964
▁Chicago	-10965
▁harmful	-10966
▁mosquit	-10967
▁মাস্টার	-10968
▁হেফাজতে	-10969
▁possibly	-10970
▁লকডাউনের	-10971
bu	-10972
কন	-10973
▁Cap	-10974
▁Tit	-10975
▁dim	-10976
▁বহন	-10977
▁arms	-10978
▁diss	-10979
▁fill	-10980
▁lect	-10981
▁ইয়াব	-10982
▁হযরত	-10983
দ্রব্য	-10984
▁ফার্ম	-10985
▁বোলিং	-10986
▁younger	-10987
▁গাইবান্	-10988
▁সরকারকে	-10989
▁decrease	-10990
▁vehicles	-10991
দীর	-10992
▁plat	-10993
▁মাটি	-10994
▁cards	-10995
▁metab	-10996
▁বৈশাখ	-10997
▁মন্ডল	-10998
igation	-10999
▁belong	-11000
▁fertil	-11001
▁দরিদ্র	-11002
▁Contact	-11003
▁প্রতিশ্র	-11004
▁effectively	-11005
ini	-11006
zed	-11007
▁bot	-11008
▁rub	-11009
etics	-11010
চেঞ্জ	-11011
▁গায়ে	-11012
▁উদ্যো	-11013
▁pounds	-11014
▁freedom	-11015
▁routine	-11016
▁Thursday	-11017
▁সেঞ্চুরি	-11018
▁যাত্রীদের	-11019
kin	-11020
iest	-11021
বাচক	-11022
olars	-11023
▁Sand	-11024
▁রোধে	-11025
▁মেয়েকে	-11026
▁launched	-11027
▁ক্রিকেটের	-11028
ca	-11029
▁DO	-11030
iced	-11031
ndom	-11032
ipped	-11033
▁tall	-11034
▁চীনা	-11035
▁county	-11036
▁মান্নান	-11037
▁Jo	-11038
▁তথা	-11039
erals	-11040
▁mist	-11041
▁লিগের	-11042
▁কমপক্ষে	-11043
▁কর্মশালা	-11044
▁বিবেচনায়	-11045
▁cognitive	-11046
▁ফেব্রুয়ারী	-11047
▁institutions	-11048
IST	-11049
েবল	-11050
্বাব	-11051
কেটের	-11052
▁Live	-11053
▁একের	-11054
▁হাজী	-11055
▁মিটার	-11056
▁pretty	-11057
▁কাটিয়ে	-11058
▁বিশ্লে	-11059
▁Richard	-11060
▁মোকাবিলায়	-11061
CS	-11062
EP	-11063
টিজ	-11064
▁মধু	-11065
▁Four	-11066
▁abund	-11067
▁বিপিএ	-11068
▁forced	-11069
▁গুলিতে	-11070
▁ক্যান্স	-11071
▁টাঙ্গাইল	-11072
▁lifestyle	-11073
▁researcher	-11074
▁আসাদুজ্জামান	-11075
Sh	-11076
চন	-11077
্যব	-11078
ান্য	-11079
▁দাশ	-11080
▁ল্যা	-11081
োগ্রাম	-11082
▁কোহলি	-11083
▁মৃতদেহ	-11084
▁চিহ্নিত	-11085
aur	-11086
top	-11087
িন্স	-11088
িম্প	-11089
▁১৯৮	-11090
▁lens	-11091
▁ভোলা	-11092
▁nerve	-11093
▁stick	-11094
▁কারনে	-11095
▁পেসার	-11096
▁মানবা	-11097
▁সুষ্ঠ	-11098
resents	-11099
▁agency	-11100
▁circum	-11101
▁বিসিবি	-11102
▁শিরোপা	-11103
▁Network	-11104
▁মুসলমান	-11105
▁উদ্দিনের	-11106
▁approaches	-11107
▁মিয়ানমারের	-11108
uke	-11109
▁Dan	-11110
▁neck	-11111
▁আনিস	-11112
ifying	-11113
▁Among	-11114
▁narrow	-11115
▁সমৃদ্ধ	-11116
▁electron	-11117
দু	-11118
ria	-11119
sey	-11120
ণীয়	-11121
flow	-11122
এসপি	-11123
▁cart	-11124
▁cert	-11125
▁অন্ধ	-11126
▁বয়সে	-11127
▁মিলন	-11128
▁এশিয়া	-11129
▁nations	-11130
▁সাহিত্য	-11131
▁component	-11132
▁Sat	-11133
▁কর্ন	-11134
▁পরেই	-11135
▁আত্মীয়	-11136
▁দৃষ্টি	-11137
▁সংরক্ষণ	-11138
▁ন্যাশনাল	-11139
▁recognized	-11140
▁কক্সবাজারের	-11141
hi	-11142
ভাস	-11143
▁Ec	-11144
▁ভিক	-11145
▁ওয়াশ	-11146
▁টাইম	-11147
▁বর্ধ	-11148
▁ক্ষমা	-11149
▁গাছের	-11150
▁ব্যুর	-11151
▁stored	-11152
▁অনুপ্র	-11153
▁leaving	-11154
▁obtained	-11155
▁remained	-11156
▁উত্তেজনা	-11157
▁Sometimes	-11158
▁emotional	-11159
জো	-11160
▁Sl	-11161
▁নী	-11162
▁Cat	-11163
▁USA	-11164
▁Whe	-11165
▁Yet	-11166
▁সাদা	-11167
▁উত্তরা	-11168
▁অভিজ্ঞতা	-11169
▁শ্রীলঙ্কার	-11170
▁শিক্ষামন্ত্রী	-11171
nut	-11172
▁tow	-11173
▁মিঠ	-11174
▁দাবী	-11175
▁সুজন	-11176
▁Creat	-11177
▁chrom	-11178
▁tells	-11179
▁settle	-11180
▁শিশুকে	-11181
▁relevant	-11182
▁breathing	-11183
▁চক্রবর্তী	-11184
▁''	-11185
▁অড	-11186
▁coff	-11187
▁worse	-11188
▁এরশাদ	-11189
▁ingred	-11190
▁পাবলিক	-11191
▁মাহফিল	-11192
▁introduction	-11193
▁বাঘ	-11194
▁Less	-11195
▁wire	-11196
মধ্যেই	-11197
▁Coast	-11198
▁মেহের	-11199
▁মাত্রা	-11200
▁আমেরিকা	-11201
▁রেখেছেন	-11202
▁ওয়েবসাইট	-11203
▁দিনব্যাপী	-11204
▁controlled	-11205
▁instruments	-11206
২০২০	-11207
▁Nut	-11208
▁Syl	-11209
▁কাত	-11210
▁Gold	-11211
▁রমজান	-11212
▁সেকেন্ড	-11213
▁ফাউন্ডেশনের	-11214
▁environments	-11215
্টর	-11216
osph	-11217
▁আসর	-11218
▁Cult	-11219
▁wave	-11220
▁আচরণ	-11221
▁১০টার	-11222
▁বিদেশে	-11223
▁fundamental	-11224
▁মল	-11225
▁THE	-11226
বিধান	-11227
ান্দি	-11228
▁Kids	-11229
▁Math	-11230
▁আলোক	-11231
▁কনফার	-11232
▁আবাসিক	-11233
▁ঊর্ধ্ব	-11234
▁পিটিয়ে	-11235
▁recognize	-11236
▁conventional	-11237
হুম	-11238
with	-11239
word	-11240
ব্যা	-11241
▁fib	-11242
▁pun	-11243
▁হাউ	-11244
agers	-11245
▁tube	-11246
▁বার্	-11247
▁ভুয়া	-11248
▁মজুম	-11249
▁কোথায়	-11250
▁ঘন্টা	-11251
▁ফিচার	-11252
▁নিবন্ধ	-11253
▁পাসপোর্ট	-11254
▁organisms	-11255
▁appearance	-11256
▁represents	-11257
▁increasingly	-11258
,'	-11259
টেড	-11260
▁দেল	-11261
▁নীলফ	-11262
▁advoc	-11263
▁suffer	-11264
▁historic	-11265
▁Christmas	-11266
Al	-11267
oyal	-11268
▁Obs	-11269
ক্রেট	-11270
▁push	-11271
▁আইনি	-11272
▁আশঙ্ক	-11273
▁server	-11274
▁ঘোষণার	-11275
▁পদ্ধতি	-11276
▁talking	-11277
েপ	-11278
bra	-11279
মনির	-11280
সিসি	-11281
▁voc	-11282
▁Start	-11283
▁archae	-11284
▁accompl	-11285
▁advance	-11286
▁সংস্কৃতি	-11287
▁ছাত্রদলের	-11288
▁department	-11289
CT	-11290
ION	-11291
▁Face	-11292
▁লিওন	-11293
▁Liter	-11294
▁option	-11295
▁অর্থবছ	-11296
▁প্রতীক	-11297
▁coastal	-11298
▁viruses	-11299
▁physician	-11300
▁ফাউন্ডেশন	-11301
▁শিম	-11302
নিষ্ঠ	-11303
▁Inte	-11304
ourney	-11305
▁অধীনে	-11306
▁সদরের	-11307
▁প্রজ্ঞ	-11308
▁জিম্বাব	-11309
▁মাইক্রো	-11310
mes	-11311
মোহ	-11312
ache	-11313
▁এলে	-11314
▁তাক	-11315
▁Such	-11316
▁bank	-11317
▁সেতুম	-11318
▁broken	-11319
▁sudden	-11320
▁নুসরাত	-11321
▁স্ত্রীকে	-11322
▁concerned	-11323
▁খল	-11324
▁lake	-11325
▁দত্ত	-11326
োপলিটন	-11327
▁জানেন	-11328
▁sector	-11329
▁artists	-11330
▁cancers	-11331
▁edition	-11332
▁domestic	-11333
▁revealed	-11334
▁certainly	-11335
▁নিরাপত্তার	-11336
▁observations	-11337
tr	-11338
ora	-11339
াদী	-11340
What	-11341
▁থাম	-11342
▁Jose	-11343
▁chest	-11344
▁extent	-11345
▁eastern	-11346
▁abnormal	-11347
▁expensive	-11348
▁অজ	-11349
▁অর	-11350
tles	-11351
▁দের	-11352
▁myth	-11353
▁prem	-11354
▁নায়ক	-11355
▁Board	-11356
▁owners	-11357
▁শহিদুল	-11358
▁Channel	-11359
▁reality	-11360
▁ক্যামের	-11361
▁এক্সচেঞ্জ	-11362
UN	-11363
oke	-11364
▁SO	-11365
▁ইরান	-11366
▁মোতায়	-11367
▁বাড়াতে	-11368
▁kilomet	-11369
▁রাজশাহীর	-11370
অন	-11371
html	-11372
inic	-11373
▁tal	-11374
▁dial	-11375
▁উপরে	-11376
▁চুয়া	-11377
▁নেবে	-11378
▁মোদি	-11379
ilding	-11380
▁ফিল্ম	-11381
▁Safety	-11382
▁pestic	-11383
▁substance	-11384
▁percentage	-11385
yd	-11386
ষা	-11387
cel	-11388
hand	-11389
▁Jud	-11390
▁bio	-11391
▁পিক	-11392
িকাংশ	-11393
▁giant	-11394
▁বিদ্র	-11395
▁autism	-11396
▁infect	-11397
▁random	-11398
▁feeding	-11399
▁রাষ্ট্রীয়	-11400
▁মুন্সীগঞ্জ	-11401
▁ইন্টারন্যাশনাল	-11402
মন্ড	-11403
asure	-11404
azing	-11405
সংযোগ	-11406
▁মহেশ	-11407
▁clust	-11408
▁walls	-11409
▁seeing	-11410
▁পার্শ্ব	-11411
gs	-11412
ii	-11413
ফট	-11414
ন্নাথ	-11415
বাসীর	-11416
▁load	-11417
▁সূচক	-11418
▁ideal	-11419
▁rural	-11420
▁পারফর	-11421
▁বোলার	-11422
▁filled	-11423
▁বারবার	-11424
▁সিএনজি	-11425
▁Colorado	-11426
▁ভবিষ্যতে	-11427
▁আওয়ামীলীগ	-11428
▁supplement	-11429
▁ওর	-11430
atidin	-11431
যাত্রা	-11432
▁ভাইয়ের	-11433
▁সুলতান	-11434
▁ইতিহাসে	-11435
▁চিত্রনায়	-11436
▁স্বাধীনতার	-11437
তাস	-11438
gans	-11439
▁EPA	-11440
orses	-11441
খাস্ত	-11442
▁Fort	-11443
▁array	-11444
▁tooth	-11445
▁অ্যাট	-11446
▁জনকন্ঠ	-11447
▁মানবাধিকার	-11448
▁প্রত্যক্ষদর্শ	-11449
▁আড়	-11450
▁মৃ	-11451
▁৪৩	-11452
▁mer	-11453
▁আছি	-11454
▁জ্য	-11455
▁হোয়	-11456
বিদ্ধ	-11457
▁উঠতে	-11458
▁জাফর	-11459
প্রধান	-11460
▁sides	-11461
▁পেট্র	-11462
▁বন্ধের	-11463
▁Company	-11464
▁figures	-11465
▁managed	-11466
▁মন্ত্রিস	-11467
▁contained	-11468
▁generated	-11469
▁programming	-11470
TS	-11471
োরা	-11472
▁৫৫	-11473
▁Key	-11474
▁ভয়ে	-11475
▁Kore	-11476
▁nurs	-11477
▁মোদী	-11478
▁party	-11479
▁meters	-11480
▁উন্নতি	-11481
▁physics	-11482
▁ইলেকট্র	-11483
MS	-11484
নাব	-11485
▁ডল	-11486
সম্ম	-11487
▁শরণ	-11488
▁কাপড়	-11489
▁ছুটে	-11490
stream	-11491
রাউন্ড	-11492
▁ঘোষিত	-11493
▁Sunday	-11494
▁আশ্বাস	-11495
▁Chapter	-11496
▁অধিকাংশ	-11497
▁দিয়েছিল	-11498
▁নির্দেশে	-11499
▁নেতাকর্মীদের	-11500
উপ	-11501
ato	-11502
▁Cr	-11503
othe	-11504
▁seg	-11505
াবাদী	-11506
▁Vict	-11507
▁তৎপর	-11508
▁হকের	-11509
েন্টের	-11510
▁Change	-11511
▁সক্রিয়	-11512
▁সাইকেল	-11513
▁locations	-11514
▁concentration	-11515
roc	-11516
▁তহ	-11517
▁জহির	-11518
▁লিগে	-11519
▁স্টক	-11520
তামূলক	-11521
▁acceler	-11522
▁ইয়াবাসহ	-11523
▁ধাক্কায়	-11524
mentation	-11525
▁শাহজালাল	-11526
▁ডিপ	-11527
ament	-11528
কারের	-11529
▁Conn	-11530
▁একদিনে	-11531
▁courses	-11532
▁drawing	-11533
▁household	-11534
AA	-11535
ada	-11536
্তে	-11537
▁তৌ	-11538
▁ধন	-11539
hips	-11540
রাতে	-11541
্লিক	-11542
▁Rob	-11543
ামারী	-11544
▁একথা	-11545
▁করেও	-11546
▁বলার	-11547
▁lands	-11548
▁lists	-11549
▁দেখেন	-11550
▁ভুক্ত	-11551
thritis	-11552
▁Comput	-11553
▁বাড়ানোর	-11554
▁compounds	-11555
▁movements	-11556
ua	-11557
▁গে	-11558
alle	-11559
kins	-11560
পন্থ	-11561
idden	-11562
বন্দি	-11563
▁pros	-11564
▁sche	-11565
▁whom	-11566
▁সঞ্জ	-11567
itness	-11568
rating	-11569
▁couple	-11570
▁stages	-11571
▁দিল্লি	-11572
▁appoint	-11573
▁biggest	-11574
▁brother	-11575
▁intellig	-11576
▁কুষ্টিয়া	-11577
▁remaining	-11578
▁interactive	-11579
▁সেতুমন্ত্রী	-11580
▁৭৫	-11581
▁era	-11582
্বস্ত	-11583
▁cats	-11584
▁জমির	-11585
▁আইপিএল	-11586
▁insulin	-11587
▁conflict	-11588
▁ভালোবাসা	-11589
▁Agriculture	-11590
war	-11591
mary	-11592
েটের	-11593
▁বসত	-11594
anged	-11595
▁util	-11596
▁colour	-11597
▁contem	-11598
▁ইনস্টা	-11599
exp	-11600
rors	-11601
শ্রী	-11602
▁san	-11603
▁Moon	-11604
▁Scot	-11605
▁shall	-11606
▁truth	-11607
▁পুরনো	-11608
▁covers	-11609
▁maximum	-11610
▁highlight	-11611
rep	-11612
ুনি	-11613
▁কিড	-11614
▁Mill	-11615
▁nose	-11616
▁wine	-11617
▁রীতি	-11618
▁remind	-11619
▁রেলওয়ে	-11620
▁examine	-11621
▁মিনিটের	-11622
▁ব্যারিস্টার	-11623
▁মেট্রোপলিটন	-11624
▁Tor	-11625
▁পেন	-11626
hered	-11627
under	-11628
▁fort	-11629
▁অপারে	-11630
▁নিয়েও	-11631
▁হাফিজ	-11632
▁পারছেন	-11633
▁distingu	-11634
▁generate	-11635
▁organized	-11636
▁গিয়েছিলেন	-11637
▁খ্রিস্টাব্দ	-11638
zil	-11639
anda	-11640
part	-11641
শান্ত	-11642
▁fract	-11643
▁paras	-11644
▁ইউএনও	-11645
▁নোটিশ	-11646
▁ব্রিট	-11647
▁অনেকটা	-11648
▁ওপেনার	-11649
▁Download	-11650
▁প্রার্থীর	-11651
▁আনুষ্ঠানিকভাবে	-11652
ছার	-11653
▁টপ	-11654
▁নড়	-11655
acco	-11656
ুলিয়া	-11657
▁lots	-11658
▁১০টি	-11659
▁২০১৩	-11660
struct	-11661
▁অপহরণ	-11662
▁তোলার	-11663
▁দুবাই	-11664
▁রবিউল	-11665
▁পত্রিকা	-11666
▁আফ্রিকার	-11667
▁Committee	-11668
▁indicates	-11669
্টন	-11670
arks	-11671
▁জয়ী	-11672
level	-11673
stein	-11674
▁রেজা	-11675
orough	-11676
▁lungs	-11677
▁সংসার	-11678
▁derived	-11679
▁স্বীকৃতি	-11680
▁blow	-11681
▁শাহর	-11682
▁Print	-11683
▁Young	-11684
▁আরবের	-11685
▁অক্সিজ	-11686
▁বাঙালি	-11687
▁biology	-11688
▁infants	-11689
▁ওয়ার্ডে	-11690
▁supplies	-11691
▁ক্যামেরা	-11692
ঘরে	-11693
adel	-11694
ঢাকা	-11695
▁phr	-11696
▁কমল	-11697
▁২টি	-11698
alian	-11699
▁ফিরতে	-11700
▁মিরপুর	-11701
▁hormone	-11702
▁substant	-11703
rite	-11704
umin	-11705
পরিষ	-11706
▁জয়ন	-11707
▁হোটে	-11708
▁compr	-11709
▁জগন্নাথ	-11710
▁চিকিৎসকরা	-11711
▁প্রতিযোগিতায়	-11712
"।	-11713
টিস	-11714
inet	-11715
mail	-11716
▁মিম	-11717
which	-11718
▁abuse	-11719
▁train	-11720
▁জমিতে	-11721
▁অটোরিক	-11722
▁মাননীয়	-11723
▁সুষ্ঠু	-11724
▁রেজিস্ট্র	-11725
▁ব্যক্তিদের	-11726
ইসি	-11727
ময়ে	-11728
hist	-11729
াবের	-11730
▁trial	-11731
▁যাচাই	-11732
▁সামান্য	-11733
হু	-11734
yth	-11735
▁৭২	-11736
gent	-11737
phone	-11738
▁shot	-11739
িনিষেধ	-11740
▁Court	-11741
▁১২টার	-11742
ossible	-11743
▁micros	-11744
▁একজনের	-11745
▁printed	-11746
ক্ল	-11747
বাজ	-11748
▁flo	-11749
xiety	-11750
▁আইসি	-11751
▁হতাহ	-11752
▁Satur	-11753
▁entry	-11754
▁error	-11755
▁উদ্দীন	-11756
▁পাঁচটি	-11757
▁সুরক্ষ	-11758
▁equival	-11759
▁কারখানা	-11760
▁যাচ্ছিল	-11761
তান্ত্রিক	-11762
▁প্রতিনিধিঃ	-11763
▁বিমানবন্দর	-11764
kes	-11765
▁জখ	-11766
াফিক	-11767
▁অপু	-11768
istan	-11769
▁ডিবি	-11770
▁Peter	-11771
▁স্বাগ	-11772
ication	-11773
▁খাওয়ার	-11774
▁টেকনাফ	-11775
▁সচিবাল	-11776
▁battery	-11777
▁follows	-11778
▁বাসিন্দ	-11779
▁attached	-11780
▁প্রয়োজনে	-11781
▁medicines	-11782
ouds	-11783
▁যথে	-11784
ograp	-11785
ptions	-11786
▁Frank	-11787
▁Pract	-11788
▁apart	-11789
▁প্যার	-11790
▁assemb	-11791
▁manner	-11792
▁pregnant	-11793
▁সিঙ্গাপুর	-11794
▁measurements	-11795
▁successfully	-11796
NS	-11797
▁ax	-11798
হেতু	-11799
▁Adv	-11800
▁pull	-11801
▁বিনা	-11802
▁গানটি	-11803
▁houses	-11804
▁দেখানো	-11805
sts	-11806
ককে	-11807
umps	-11808
▁lin	-11809
▁mac	-11810
comes	-11811
▁boys	-11812
▁nest	-11813
▁অক্ষ	-11814
▁ক্ষয়	-11815
▁ঝুঁক	-11816
stract	-11817
▁রাব্ব	-11818
inction	-11819
▁burning	-11820
▁অভিনন্দন	-11821
▁ভূমিকম্প	-11822
▁শ্রীলঙ্কা	-11823
পিএম	-11824
হাটে	-11825
▁মোর	-11826
using	-11827
বিজ্ঞ	-11828
▁পলাশ	-11829
▁মেজর	-11830
▁immig	-11831
▁উইন্ড	-11832
▁দেশীয়	-11833
▁সকলকে	-11834
▁Russia	-11835
▁rising	-11836
▁precise	-11837
▁মেয়েদের	-11838
▁শিক্ষকদের	-11839
▁মোস্তাফিজুর	-11840
vi	-11841
ston	-11842
▁ডেপ	-11843
icide	-11844
inity	-11845
▁গোষ্ঠ	-11846
▁সহজেই	-11847
▁Treatment	-11848
▁professionals	-11849
▁৪৪	-11850
road	-11851
▁CDC	-11852
▁গোস	-11853
▁ডান	-11854
▁পাইল	-11855
▁শ্রম	-11856
▁ট্রাই	-11857
▁পোর্ট	-11858
▁Despite	-11859
▁despite	-11860
▁বিধিনিষেধ	-11861
mia	-11862
▁৫৭	-11863
▁Att	-11864
▁lov	-11865
▁আলি	-11866
▁Brown	-11867
▁রাহুল	-11868
▁শ্রাব	-11869
▁Explore	-11870
▁পাঠানোর	-11871
▁অলরাউন্ড	-11872
▁শফ	-11873
rays	-11874
▁আজম	-11875
▁আরোপ	-11876
▁করলো	-11877
▁জসিম	-11878
▁পড়াশ	-11879
▁regul	-11880
▁sheet	-11881
▁ভ্রমণ	-11882
▁সেমিন	-11883
ivation	-11884
▁stimul	-11885
▁তদন্তে	-11886
▁capable	-11887
▁অপরদিকে	-11888
▁টেস্টের	-11889
▁তাৎক্ষণ	-11890
▁breeding	-11891
ett	-11892
্রমে	-11893
▁মোজ	-11894
▁poet	-11895
▁কারও	-11896
▁বন্য	-11897
▁tried	-11898
▁Species	-11899
▁রাজ্জাক	-11900
▁Pratidin	-11901
▁sentence	-11902
▁secondary	-11903
▁বিদ্যালয়ে	-11904
▁resolution	-11905
▁revolution	-11906
▁situations	-11907
▁spacecraft	-11908
▁publication	-11909
Ar	-11910
sen	-11911
টেক	-11912
্টি	-11913
olve	-11914
িল্ল	-11915
▁ইন্দ	-11916
▁নিত্য	-11917
▁উপস্থাপন	-11918
▁ইতিমধ্যেই	-11919
▁নির্মাণের	-11920
▁অর্থমন্ত্রী	-11921
▁ধা	-11922
ulty	-11923
▁শাস	-11924
lines	-11925
ureau	-11926
র্ডার	-11927
▁প্রচে	-11928
▁হালকা	-11929
▁mothers	-11930
▁selection	-11931
▁শেয়ারবাজার	-11932
itt	-11933
ারক	-11934
বাদী	-11935
র্মা	-11936
▁পাপ	-11937
orrow	-11938
stone	-11939
▁Call	-11940
▁Word	-11941
▁কথায়	-11942
▁যাবত	-11943
abulary	-11944
▁butter	-11945
▁respir	-11946
▁হাবিবুর	-11947
লত	-11948
lan	-11949
oln	-11950
দ্য	-11951
▁ফে	-11952
eria	-11953
ucose	-11954
called	-11955
osophy	-11956
পরিচালক	-11957
▁Arctic	-11958
▁column	-11959
▁কর্মকা	-11960
▁হোটেলে	-11961
▁persons	-11962
▁dedicated	-11963
যান	-11964
হত্ত	-11965
ালার	-11966
▁closed	-11967
▁intest	-11968
▁rivers	-11969
▁chapter	-11970
▁vulnerable	-11971
airy	-11972
কমিশ	-11973
ৃহীত	-11974
▁suc	-11975
▁pair	-11976
ocking	-11977
▁drain	-11978
▁closer	-11979
▁regist	-11980
▁যথেষ্ট	-11981
▁মামলাটি	-11982
▁discussed	-11983
▁recommendations	-11984
.-	-11985
ami	-11986
bur	-11987
mun	-11988
uous	-11989
ঘাতে	-11990
▁uns	-11991
▁কিনে	-11992
▁গুলো	-11993
▁cough	-11994
▁দুইজন	-11995
▁বাড়তি	-11996
▁প্রেমিক	-11997
পন	-11998
নাজ	-11999
▁ডেল	-12000
েন্টে	-12001
▁neut	-12002
▁বিধি	-12003
▁মেরে	-12004
ercury	-12005
▁turns	-12006
▁দক্ষি	-12007
▁ফেরদৌ	-12008
▁appreci	-12009
▁religion	-12010
▁correspond	-12011
▁মাদকদ্রব্য	-12012
▁antibiotics	-12013
▁participate	-12014
ফিল	-12015
▁IP	-12016
▁Po	-12017
▁৫২	-12018
চনার	-12019
ৃষ্ট	-12020
▁tro	-12021
▁৩০০	-12022
▁Alex	-12023
▁ফ্রি	-12024
▁নেবেন	-12025
▁adoles	-12026
▁Georgia	-12027
▁নিবন্ধন	-12028
▁দুর্ঘটনার	-12029
?"	-12030
▁Tem	-12031
▁fro	-12032
▁lib	-12033
▁dream	-12034
▁minim	-12035
▁ঈশ্বর	-12036
▁মরহুম	-12037
▁রাকিব	-12038
▁সরঞ্জ	-12039
▁গ্রামী	-12040
▁বিবিসি	-12041
▁অনুসারে	-12042
▁happened	-12043
▁দায়িত্বে	-12044
▁orb	-12045
▁wel	-12046
▁ঝাল	-12047
▁সোস	-12048
▁ওয়ার	-12049
জিবাজার	-12050
▁remote	-12051
▁প্রয়াত	-12052
▁ফিরেছেন	-12053
▁recovery	-12054
▁photographs	-12055
▁জা	-12056
band	-12057
onal	-12058
ম্বে	-12059
orous	-12060
▁যিনি	-12061
icking	-12062
▁Scott	-12063
▁taste	-12064
▁অত্যা	-12065
▁deliver	-12066
▁ট্রেনের	-12067
roduction	-12068
▁identity	-12069
▁মিয়ানমার	-12070
▁রাজধানীতে	-12071
রাই	-12072
▁কূ	-12073
▁চিঠ	-12074
▁Lord	-12075
▁peak	-12076
▁gather	-12077
▁estimate	-12078
▁সাতক্ষীর	-12079
athy	-12080
▁টের	-12081
▁পীর	-12082
▁Fire	-12083
▁ক্রয়	-12084
▁smart	-12085
▁এনামুল	-12086
▁ক্রাইম	-12087
▁প্রজাত	-12088
▁ইউনিটের	-12089
ifications	-12090
▁প্রতিপক্ষ	-12091
▁করপোরেশনের	-12092
isk	-12093
ডাক	-12094
বিষয়	-12095
ansas	-12096
▁Fund	-12097
▁cris	-12098
▁একদল	-12099
▁ফেরি	-12100
কর্মচার	-12101
▁অলিম্প	-12102
▁মনোনীত	-12103
▁সঙ্গীত	-12104
▁মজুমদার	-12105
▁thousand	-12106
▁নোয়াখালী	-12107
▁announced	-12108
▁improving	-12109
ম্	-12110
such	-12111
▁Mad	-12112
▁Try	-12113
▁জনস	-12114
াকারী	-12115
▁Rock	-12116
▁Rome	-12117
▁meal	-12118
▁ফেলা	-12119
▁সৌরভ	-12120
▁টিকার	-12121
▁Street	-12122
▁handle	-12123
▁reserv	-12124
▁অধিদফত	-12125
▁আমিনুল	-12126
▁নিন্দা	-12127
▁greatly	-12128
▁আহম্মেদ	-12129
▁প্রতিশ্রুতি	-12130
▁presentation	-12131
no	-12132
▁খত	-12133
যোগে	-12134
▁Army	-12135
▁Meth	-12136
▁spok	-12137
▁খাতে	-12138
▁Image	-12139
▁tasks	-12140
▁organs	-12141
▁remark	-12142
▁cultures	-12143
▁মারাত্মক	-12144
▁carefully	-12145
▁সুনামগঞ্জ	-12146
িউর	-12147
▁af	-12148
▁Asian	-12149
▁acres	-12150
▁chain	-12151
▁ন্যায়	-12152
▁শাহীন	-12153
▁adopted	-12154
▁subsequ	-12155
▁Protection	-12156
Ph	-12157
জমিন	-12158
▁টিউ	-12159
angle	-12160
▁fasc	-12161
▁hole	-12162
▁বজ্র	-12163
▁সভার	-12164
ancing	-12165
▁chick	-12166
▁বরাবর	-12167
▁দিয়েছি	-12168
▁Therefore	-12169
▁মাদ্রাসার	-12170
▁নিউজিল্যান্ডের	-12171
UT	-12172
ওয়াত	-12173
▁জখম	-12174
▁ফিট	-12175
point	-12176
মঙ্গল	-12177
্যালো	-12178
▁Pers	-12179
▁মণ্ড	-12180
▁button	-12181
▁coffee	-12182
▁creates	-12183
▁favorite	-12184
▁অপেক্ষায়	-12185
▁generations	-12186
rd	-12187
▁আউ	-12188
▁তোল	-12189
ented	-12190
▁tons	-12191
▁দ্বি	-12192
incoln	-12193
▁acids	-12194
▁sight	-12195
▁এগুলো	-12196
▁অনুসন্	-12197
▁immediate	-12198
▁reactions	-12199
▁description	-12200
েসে	-12201
▁ভূঁ	-12202
▁সাঁ	-12203
ifies	-12204
▁Italy	-12205
▁award	-12206
▁gender	-12207
▁stands	-12208
▁উদ্বেগ	-12209
▁বিসিএস	-12210
▁Diabetes	-12211
▁সম্পর্কিত	-12212
▁অন্তর্ভুক্ত	-12213
থি	-12214
riz	-12215
ভায়	-12216
▁সল	-12217
▁৫৯	-12218
▁৬৫	-12219
izer	-12220
omoy	-12221
outs	-12222
▁gar	-12223
reland	-12224
ান্ডের	-12225
ুয়েন্ট	-12226
▁পল্লী	-12227
▁সাধারণত	-12228
▁newspaper	-12229
▁sufficient	-12230
▁participation	-12231
▁transportation	-12232
oted	-12233
ষ্টম	-12234
▁নিশ	-12235
▁রিফ	-12236
ctive	-12237
▁ধাপে	-12238
▁Paper	-12239
▁ahead	-12240
▁pharm	-12241
▁ডিভাই	-12242
▁তাছাড়া	-12243
▁constit	-12244
▁ইসলামিক	-12245
▁বিক্রির	-12246
▁ভিটামিন	-12247
▁permanent	-12248
You	-12249
ির্	-12250
▁৭১	-12251
umes	-12252
টিয়া	-12253
▁ped	-12254
rants	-12255
াপাড়া	-12256
▁neur	-12257
▁আসরে	-12258
▁দরজা	-12259
health	-12260
ওয়্যার	-12261
▁সৃষ্ট	-12262
▁Ireland	-12263
▁আলোচনার	-12264
▁বহিষ্কার	-12265
▁প্রার্থীদের	-12266
ুতে	-12267
▁OF	-12268
NEWS	-12269
▁Cam	-12270
▁বয়ে	-12271
▁Zeal	-12272
▁কিংব	-12273
▁ভেতর	-12274
▁মিউজ	-12275
▁horiz	-12276
▁ক্যান	-12277
▁ক্যাল	-12278
▁পাবনা	-12279
▁রান্না	-12280
▁minimum	-12281
▁আল্লাহর	-12282
▁District	-12283
rastructure	-12284
▁assistance	-12285
▁endangered	-12286
▁substances	-12287
▁গণমাধ্যমকে	-12288
▁collections	-12289
pur	-12290
phia	-12291
▁unc	-12292
▁জনতা	-12293
apping	-12294
▁budget	-12295
▁crisis	-12296
▁outbre	-12297
▁ওয়াশিং	-12298
▁ঠেকাতে	-12299
▁পণ্যের	-12300
▁রায়হান	-12301
▁opening	-12302
▁প্রোগ্রাম	-12303
LE	-12304
েমে	-12305
ীর্ণ	-12306
▁cub	-12307
▁jump	-12308
▁weap	-12309
cribed	-12310
▁cloud	-12311
▁outer	-12312
▁Thanks	-12313
▁reader	-12314
▁unlike	-12315
▁ব্যুরো	-12316
▁Russian	-12317
▁ব্যাটার	-12318
ovascular	-12319
▁ভার্চুয়াল	-12320
ধন	-12321
ূন	-12322
▁খো	-12323
▁ডিফ	-12324
▁দুন	-12325
olute	-12326
▁পৌনে	-12327
▁সেতুর	-12328
▁Brazil	-12329
▁বৃহত্ত	-12330
▁islands	-12331
▁planets	-12332
▁বিবেচনা	-12333
▁Saturday	-12334
▁কিংবদন্ত	-12335
▁ব্র্যান্ড	-12336
▁সঞ্চালনায়	-12337
ুড	-12338
bar	-12339
fit	-12340
▁MS	-12341
ding	-12342
iana	-12343
ymph	-12344
▁Dou	-12345
▁কাহ	-12346
▁plays	-12347
▁পার্ক	-12348
▁বেঞ্চ	-12349
▁Update	-12350
▁opened	-12351
▁persist	-12352
▁অস্থায়ী	-12353
▁ঝিনাইদহ	-12354
▁শিগগিরই	-12355
▁সহায়তায়	-12356
▁অবস্থানে	-12357
▁mechanism	-12358
▁Bd	-12359
ন্তী	-12360
▁Sing	-12361
▁cast	-12362
▁pron	-12363
▁দলটির	-12364
▁decide	-12365
▁unless	-12366
▁নারীকে	-12367
▁কোর্টের	-12368
▁modified	-12369
▁visitors	-12370
▁perspective	-12371
▁কৌশল	-12372
▁medium	-12373
▁nearby	-12374
▁throat	-12375
▁গাড়িতে	-12376
▁অন্যদের	-12377
▁variable	-12378
▁তত্ত্বাব	-12379
ione	-12380
সভায়	-12381
▁হাউজ	-12382
▁মুরাদ	-12383
▁formal	-12384
▁ডেপুটি	-12385
▁Zealand	-12386
▁মধ্যপ্র	-12387
▁তৃণমূলের	-12388
▁Engineering	-12389
RC	-12390
সমূ	-12391
▁উখ	-12392
▁তাও	-12393
▁বসু	-12394
ামাটি	-12395
▁pool	-12396
▁পড়লে	-12397
▁কুকুর	-12398
▁ভাঙচুর	-12399
adelphia	-12400
▁Eastern	-12401
struction	-12402
▁Facebook	-12403
▁অস্বীকার	-12404
▁suffering	-12405
▁বিশ্বব্যাপী	-12406
▁বন্দ্যোপাধ্যায়	-12407
ylv	-12408
▁AP	-12409
ন্না	-12410
্লাম	-12411
▁ডেম	-12412
▁নোট	-12413
কারীর	-12414
▁বিগত	-12415
▁উৎসাহ	-12416
▁নেটওয়	-12417
▁রাতেই	-12418
▁preval	-12419
▁অংশগ্রহ	-12420
▁পূর্বাভ	-12421
▁creative	-12422
▁demonstrate	-12423
ডির	-12424
ভবন	-12425
▁নাঈ	-12426
pread	-12427
▁Star	-12428
▁আতিক	-12429
▁হৃদয়	-12430
▁Bible	-12431
▁কাস্ট	-12432
▁পিরোজ	-12433
▁layers	-12434
▁সাময়িক	-12435
▁trouble	-12436
▁ট্রাকের	-12437
▁extended	-12438
▁sections	-12439
▁সংবর্ধনা	-12440
য়েড	-12441
▁আবে	-12442
▁আর্	-12443
▁লিখে	-12444
▁নিউইয়	-12445
▁external	-12446
▁সেন্টারে	-12447
▁mentioned	-12448
▁পুঁজিবাজার	-12449
.'	-12450
দির	-12451
etts	-12452
জেলা	-12453
▁Mel	-12454
▁wid	-12455
ceans	-12456
িটিতে	-12457
▁Card	-12458
▁Hall	-12459
asters	-12460
খালীতে	-12461
▁Paris	-12462
▁delay	-12463
▁toler	-12464
▁proport	-12465
▁আশরাফুল	-12466
▁সরঞ্জাম	-12467
▁প্রত্যাশা	-12468
lam	-12469
গাছ	-12470
িরো	-12471
yles	-12472
আরসি	-12473
দিয়া	-12474
▁কায়	-12475
▁শুক	-12476
▁হের	-12477
▁টেলি	-12478
▁বেছে	-12479
▁adequ	-12480
▁স্যাম	-12481
▁extract	-12482
▁মোশাররফ	-12483
▁Community	-12484
▁behaviors	-12485
▁প্রাকৃতিক	-12486
▁instructions	-12487
▁মুক্তিযুদ্ধের	-12488
eli	-12489
▁Mer	-12490
▁mit	-12491
▁আলে	-12492
▁ঈদে	-12493
etime	-12494
দায়িক	-12495
▁হানি	-12496
ustain	-12497
▁Photo	-12498
▁faith	-12499
▁পেয়েছি	-12500
▁মোতায়েন	-12501
▁involving	-12502
▁university	-12503
▁৯৯	-12504
পতির	-12505
বর্ণ	-12506
▁III	-12507
▁ডাল	-12508
▁হরি	-12509
oston	-12510
▁চলেছেন	-12511
▁unusual	-12512
▁frequent	-12513
▁পার্বত্য	-12514
▁equivalent	-12515
▁foundation	-12516
▁communicate	-12517
ঝো	-12518
েমনি	-12519
▁Men	-12520
▁এলো	-12521
▁item	-12522
▁গোলা	-12523
▁আসছিল	-12524
▁করছিল	-12525
▁শাহিন	-12526
▁cutting	-12527
▁নিচ্ছেন	-12528
▁সংগৃহীত	-12529
▁aircraft	-12530
▁purchase	-12531
▁supports	-12532
▁Standards	-12533
▁বিচ্ছিন্ন	-12534
▁গ্রেফতারকৃত	-12535
▁Philadelphia	-12536
▁Ca	-12537
eper	-12538
চ্যু	-12539
▁Est	-12540
▁ছুঁ	-12541
ত্বরে	-12542
▁carb	-12543
▁অনুষ	-12544
▁পাড়া	-12545
▁রোগে	-12546
িয়েছেন	-12547
▁Enter	-12548
▁brows	-12549
▁স্ক্র	-12550
▁intense	-12551
▁বাঁচাতে	-12552
▁মেম্বার	-12553
িউন	-12554
ague	-12555
stood	-12556
▁Head	-12557
▁প্রভ	-12558
▁solve	-12559
clusion	-12560
▁Secret	-12561
▁enable	-12562
▁dollars	-12563
▁শ্রেষ্ঠ	-12564
▁প্রদেশের	-12565
▁ভুক্তভোগ	-12566
▁অধিদফতরের	-12567
▁conference	-12568
▁represented	-12569
ups	-12570
নাম	-12571
▁alt	-12572
▁খায়	-12573
▁চেন	-12574
▁৫টি	-12575
▁runs	-12576
▁খেলায়	-12577
▁artist	-12578
▁আইসোলে	-12579
▁পূর্বে	-12580
▁বরখাস্ত	-12581
▁মানববন্ধ	-12582
▁কংগ্রেসের	-12583
▁মোহ	-12584
endar	-12585
ঙ্গিত	-12586
▁Week	-12587
▁crow	-12588
▁felt	-12589
▁flower	-12590
▁উপলক্ষ	-12591
▁journey	-12592
▁nervous	-12593
▁warning	-12594
▁Division	-12595
oom	-12596
ums	-12597
গুণ	-12598
স্ম	-12599
otal	-12600
ুব্ধ	-12601
▁Unf	-12602
▁কুয়	-12603
▁bear	-12604
▁মতোই	-12605
▁হারে	-12606
▁boost	-12607
▁plane	-12608
▁yield	-12609
▁debate	-12610
▁ইসরায়ে	-12611
▁দুজনের	-12612
▁সামনের	-12613
▁তুরস্কের	-12614
▁প্রতিবন্ধী	-12615
▁প্রাথমিকভাবে	-12616
IM	-12617
যোগী	-12618
▁Lin	-12619
▁রেফ	-12620
itals	-12621
otton	-12622
▁খোকন	-12623
▁সাইট	-12624
▁১০টা	-12625
▁bread	-12626
▁gases	-12627
▁inner	-12628
▁অ্যান	-12629
▁ইংলিশ	-12630
▁উদযাপ	-12631
▁limits	-12632
▁thread	-12633
▁চাঞ্চল	-12634
▁replaced	-12635
▁preventing	-12636
rot	-12637
াকু	-12638
vard	-12639
আমার	-12640
▁হয়র	-12641
▁Leave	-12642
▁সোহাগ	-12643
▁editor	-12644
▁জিয়াউর	-12645
▁everyday	-12646
)-	-12647
rid	-12648
lymp	-12649
ouri	-12650
scrib	-12651
▁memb	-12652
▁rice	-12653
▁surve	-12654
▁মালেক	-12655
ificial	-12656
▁এমনটাই	-12657
▁হচ্ছিল	-12658
▁density	-12659
idespread	-12660
▁achieved	-12661
▁লিমিটেডের	-12662
▁Pu	-12663
বৃদ্ধ	-12664
▁crew	-12665
▁wasn	-12666
▁knows	-12667
▁সাহেব	-12668
▁বিএসএফ	-12669
▁মুন্সি	-12670
▁সেজন্য	-12671
▁Lincoln	-12672
▁কৃষকদের	-12673
▁ডাউনলোড	-12674
▁facility	-12675
▁finished	-12676
▁standing	-12677
▁অলরাউন্ডার	-12678
কতা	-12679
▁sin	-12680
▁sou	-12681
▁tea	-12682
▁জেন	-12683
osion	-12684
িফাইন	-12685
▁Jeff	-12686
▁Pass	-12687
isters	-12688
luding	-12689
▁breath	-12690
▁candid	-12691
▁তারিখে	-12692
ক্ষেত্রে	-12693
▁founded	-12694
▁বার্তায়	-12695
▁রোনালদো	-12696
▁ক্যাম্পের	-12697
▁হাইকোর্টের	-12698
▁প্রতিষ্ঠানে	-12699
▁সাক্ষাৎকারে	-12700
▁ru	-12701
▁Age	-12702
▁Ven	-12703
▁tut	-12704
uracy	-12705
▁অবাক	-12706
itudes	-12707
▁Boston	-12708
▁defect	-12709
▁papers	-12710
▁ইন্ডিয়া	-12711
▁তল্লাশি	-12712
▁examined	-12713
▁moisture	-12714
▁ইন্ডাস্ট	-12715
▁গ্রাহকদের	-12716
জনে	-12717
নাল	-12718
২০২১	-12719
▁খাঁ	-12720
regon	-12721
▁Budd	-12722
▁ইউসু	-12723
▁গ্রী	-12724
▁জাতি	-12725
▁Works	-12726
▁cited	-12727
▁আখতার	-12728
▁শিবির	-12729
▁স্নাত	-12730
▁afford	-12731
▁Michigan	-12732
▁occasion	-12733
▁বাগেরহাট	-12734
▁স্বাগতিক	-12735
▁composition	-12736
As	-12737
রোগ	-12738
▁হই	-12739
পিএস	-12740
বপুর	-12741
eenth	-12742
▁এমনই	-12743
▁হেলা	-12744
rovers	-12745
▁Ident	-12746
▁Super	-12747
▁fiber	-12748
▁panel	-12749
▁blocks	-12750
▁প্রকার	-12751
▁হোয়াইট	-12752
▁সেমিফাইন	-12753
▁disabilities	-12754
den	-12755
জিত	-12756
▁৭৮	-12757
ette	-12758
▁mur	-12759
▁মাথ	-12760
▁Form	-12761
▁ধরেন	-12762
▁পাথর	-12763
▁ময়না	-12764
ricane	-12765
▁Micro	-12766
▁match	-12767
igenous	-12768
▁Victor	-12769
▁আইসিসি	-12770
▁tissues	-12771
▁ইব্রাহিম	-12772
▁মানুষদের	-12773
পো	-12774
▁ঢে	-12775
inant	-12776
▁fung	-12777
▁join	-12778
▁paid	-12779
olkata	-12780
▁recon	-12781
▁উপাদান	-12782
▁repeated	-12783
▁শাহজাহান	-12784
▁Newspaper	-12785
ih	-12786
নকে	-12787
▁TO	-12788
neum	-12789
▁পদক	-12790
▁বৈধ	-12791
igure	-12792
▁Does	-12793
▁Open	-12794
▁trip	-12795
▁চলছিল	-12796
▁চাওয়া	-12797
▁চারজন	-12798
▁distur	-12799
▁posted	-12800
▁capture	-12801
▁cooking	-12802
▁নিযুক্ত	-12803
▁শিক্ষার্থীর	-12804
An	-12805
edu	-12806
mal	-12807
▁৫৮	-12808
পাশে	-12809
াড়ায়	-12810
ittle	-12811
ার্জি	-12812
▁diag	-12813
▁বোতল	-12814
alysis	-12815
চ্ছন্ন	-12816
▁দিবসে	-12817
▁ম্যাক	-12818
ylvania	-12819
▁হাওলাদার	-12820
▁existence	-12821
▁প্রতিরক্ষা	-12822
▁mathematics	-12823
▁Bir	-12824
liest	-12825
▁fell	-12826
▁চলাচ	-12827
▁দায়ী	-12828
ighter	-12829
▁fuels	-12830
▁grain	-12831
▁tract	-12832
▁Oregon	-12833
▁যেহেতু	-12834
▁হবিগঞ্জ	-12835
▁reviewed	-12836
▁প্রতিবেশী	-12837
orph	-12838
▁gro	-12839
orith	-12840
▁Mult	-12841
▁adds	-12842
▁gone	-12843
▁plus	-12844
▁অনুপ	-12845
▁আগাম	-12846
▁stuff	-12847
▁ইউক্র	-12848
▁উপভোগ	-12849
▁চালান	-12850
▁জয়পুর	-12851
▁ধার্য	-12852
▁নাগাদ	-12853
▁চত্বরে	-12854
▁স্বল্প	-12855
▁crucial	-12856
▁seconds	-12857
▁অর্থনীত	-12858
▁literacy	-12859
▁surfaces	-12860
▁businesses	-12861
▁প্রেক্ষিতে	-12862
▁ব্যবসায়ীরা	-12863
আজ	-12864
eck	-12865
urt	-12866
▁pp	-12867
mers	-12868
ওয়াজ	-12869
achus	-12870
▁Arts	-12871
▁Year	-12872
▁firm	-12873
▁lies	-12874
▁অমিত	-12875
▁মঞ্চ	-12876
▁Three	-12877
▁wants	-12878
▁খতিয়ে	-12879
▁তেমনি	-12880
▁athlet	-12881
▁ঘন্টায়	-12882
▁centers	-12883
▁খাবারের	-12884
▁diameter	-12885
▁অবৈধভাবে	-12886
▁সম্ভাব্য	-12887
▁surprised	-12888
▁গণমাধ্যমে	-12889
▁যাত্রীবাহী	-12890
▁ব্যবসায়ীদের	-12891
▁manufacturing	-12892
েয়	-12893
াসি	-12894
otes	-12895
ucky	-12896
▁Big	-12897
▁ছিট	-12898
aired	-12899
iated	-12900
▁Help	-12901
▁army	-12902
atever	-12903
ourage	-12904
▁goods	-12905
▁জ্ঞান	-12906
▁দুইটি	-12907
▁ধানের	-12908
▁ধারায়	-12909
▁females	-12910
▁ক্ষুদ্র	-12911
▁মন্ত্রি	-12912
▁clothing	-12913
▁platform	-12914
OL	-12915
▁Wall	-12916
▁কক্ষ	-12917
ুদ্দিন	-12918
▁Spain	-12919
▁জন্যে	-12920
▁fisher	-12921
▁secure	-12922
▁পুলিশে	-12923
▁Station	-12924
▁argument	-12925
▁hydrogen	-12926
▁possibility	-12927
ba	-12928
কায়	-12929
▁Pot	-12930
▁Vit	-12931
▁eld	-12932
words	-12933
কেলের	-12934
▁debt	-12935
▁gram	-12936
▁wait	-12937
▁তরফে	-12938
▁চোখের	-12939
▁focuses	-12940
▁difficulty	-12941
▁association	-12942
জিও	-12943
তলী	-12944
মূখ	-12945
▁Rh	-12946
▁fr	-12947
spec	-12948
▁রয়ট	-12949
abled	-12950
iform	-12951
▁হ্যা	-12952
▁অভিনে	-12953
▁নিলেন	-12954
▁Assess	-12955
▁orange	-12956
▁আগ্রহী	-12957
▁দুর্বল	-12958
▁glucose	-12959
▁আফ্রিকা	-12960
▁machines	-12961
▁কমিউনিটি	-12962
▁implementation	-12963
দিব	-12964
aked	-12965
ella	-12966
ীপুর	-12967
▁মাধ	-12968
পরিষদ	-12969
পুলিশ	-12970
orders	-12971
▁আলমের	-12972
▁কিনতে	-12973
▁দ্বীপ	-12974
▁clouds	-12975
▁define	-12976
▁rarely	-12977
▁পাল্টা	-12978
▁damaged	-12979
▁মহাসড়কে	-12980
▁sunlight	-12981
nce	-12982
বিধ	-12983
গরের	-12984
মারী	-12985
▁Bab	-12986
ivery	-12987
▁তখনই	-12988
rowing	-12989
▁robot	-12990
▁সংক্ষ	-12991
▁claims	-12992
▁microb	-12993
▁বিপ্লব	-12994
▁Finally	-12995
▁Johnson	-12996
▁discipl	-12997
▁scholars	-12998
▁ছাত্রীকে	-12999
▁বিশ্বজুড়ে	-13000
HD	-13001
anc	-13002
aph	-13003
▁ال	-13004
opic	-13005
▁Sar	-13006
▁যাই	-13007
▁লতি	-13008
rades	-13009
▁সংখ্যক	-13010
▁গ্রামীণ	-13011
▁thoughts	-13012
▁copyright	-13013
▁Unfortunately	-13014
IR	-13015
ালীন	-13016
▁সনদ	-13017
▁grew	-13018
▁পড়ছে	-13019
▁বিপদ	-13020
▁লাইভ	-13021
▁সাঈদ	-13022
ঞ্চলের	-13023
্যাপ্ত	-13024
▁cryst	-13025
▁males	-13026
▁পর্বে	-13027
▁ব্যথা	-13028
▁ব্রেক	-13029
▁lights	-13030
▁স্মারক	-13031
▁ফরিদপুর	-13032
▁সিরাজুল	-13033
▁accounts	-13034
▁fighting	-13035
▁biodiversity	-13036
▁ইজ	-13037
▁সই	-13038
bean	-13039
্তার	-13040
▁Ver	-13041
▁টেব	-13042
ক্ষিণ	-13043
▁আসিফ	-13044
▁holes	-13045
▁tight	-13046
▁রাঙ্গ	-13047
▁facilit	-13048
▁networks	-13049
▁উন্মুক্ত	-13050
▁দর্শকদের	-13051
ey	-13052
পশ	-13053
ঙ্ঘ	-13054
ভারত	-13055
▁eru	-13056
▁সাউ	-13057
▁feat	-13058
▁knew	-13059
▁volt	-13060
▁wish	-13061
▁simpl	-13062
▁horses	-13063
▁tumors	-13064
▁ইঙ্গিত	-13065
▁ঝুলন্ত	-13066
▁শ্বশুর	-13067
▁justice	-13068
▁accident	-13069
▁presents	-13070
▁সম্মাননা	-13071
▁widespread	-13072
▁architecture	-13073
ঈন	-13074
কীয়	-13075
ells	-13076
টুকু	-13077
▁একর	-13078
ubble	-13079
শিয়ার	-13080
bridge	-13081
ipping	-13082
▁Grand	-13083
▁mixed	-13084
▁আনসার	-13085
▁সূর্য	-13086
▁প্রবাহ	-13087
▁মুসল্ল	-13088
▁Centers	-13089
▁anxiety	-13090
▁exhibit	-13091
▁feelings	-13092
▁associate	-13093
▁integrated	-13094
ীড়	-13095
ুড়	-13096
hea	-13097
alse	-13098
pted	-13099
িশীল	-13100
▁কিউ	-13101
▁চোট	-13102
abric	-13103
▁wife	-13104
tering	-13105
▁finds	-13106
▁honor	-13107
▁গ্রহন	-13108
▁দেশকে	-13109
▁নার্স	-13110
▁internet	-13111
ডা	-13112
oga	-13113
▁৬৮	-13114
বিএস	-13115
ম্মদ	-13116
▁১টি	-13117
▁৩টি	-13118
inson	-13119
▁pure	-13120
▁Olymp	-13121
▁blind	-13122
▁ইউনাই	-13123
▁Joseph	-13124
▁ethnic	-13125
▁infant	-13126
▁plenty	-13127
▁entirely	-13128
▁exciting	-13129
▁hypothes	-13130
▁opposite	-13131
▁suitable	-13132
▁বিতর্কিত	-13133
▁engineers	-13134
▁সম্পর্কের	-13135
৬০	-13136
”,	-13137
COM	-13138
শেদ	-13139
্কর	-13140
▁CD	-13141
▁ফট	-13142
anes	-13143
▁ধাম	-13144
▁লোহ	-13145
▁সফট	-13146
riend	-13147
তদন্ত	-13148
▁বিনি	-13149
▁Obama	-13150
▁প্রবল	-13151
ম্যান্স	-13152
▁joined	-13153
▁Reading	-13154
▁roughly	-13155
▁virtual	-13156
▁ত্রিপুর	-13157
▁বিখ্যাত	-13158
▁accuracy	-13159
▁complications	-13160
fl	-13161
াদে	-13162
▁AS	-13163
▁৬৭	-13164
acts	-13165
▁Equ	-13166
▁চকর	-13167
▁ঢুক	-13168
▁মহল	-13169
▁শাও	-13170
scale	-13171
▁Fish	-13172
▁ভোটে	-13173
▁accum	-13174
▁angle	-13175
▁winds	-13176
▁মেসির	-13177
▁শর্মা	-13178
▁drinks	-13179
▁writer	-13180
▁কৃষকের	-13181
▁গুঞ্জন	-13182
▁অপরাজিত	-13183
▁Symptoms	-13184
▁installed	-13185
▁collaboration	-13186
pet	-13187
াতক	-13188
নির্	-13189
produ	-13190
▁Gulf	-13191
▁reef	-13192
▁prove	-13193
▁লক্ষণ	-13194
▁সার্ব	-13195
▁Centre	-13196
▁Indust	-13197
▁propos	-13198
▁ভক্তদের	-13199
achusetts	-13200
▁Collection	-13201
▁পরিবর্তনের	-13202
▁প্রেসক্লাব	-13203
দম	-13204
nee	-13205
ude	-13206
hyth	-13207
িউডে	-13208
▁fet	-13209
▁pray	-13210
▁putting	-13211
▁disaster	-13212
▁সংঘর্ষের	-13213
▁administr	-13214
▁explanation	-13215
▁রব	-13216
▁৫১	-13217
▁ছাপ	-13218
▁নাচ	-13219
oping	-13220
ফোর্ড	-13221
▁Bank	-13222
▁জ্বর	-13223
▁লম্ব	-13224
▁ভেঙ্গে	-13225
▁creatures	-13226
▁মোকাবেলায়	-13227
▁Revolution	-13228
▁infrastructure	-13229
অপর	-13230
irty	-13231
্কৃত	-13232
▁Mot	-13233
▁Tom	-13234
organ	-13235
throp	-13236
পরিবহন	-13237
▁bangla	-13238
▁minute	-13239
▁মাদারী	-13240
▁চালানোর	-13241
▁Missouri	-13242
▁Organization	-13243
▁fed	-13244
ভিডিও	-13245
▁Hand	-13246
▁rein	-13247
▁দৌলত	-13248
▁Blood	-13249
▁Penns	-13250
▁satis	-13251
▁attend	-13252
▁পাওয়ায়	-13253
▁যাচ্ছি	-13254
▁দিল্লির	-13255
▁Francisc	-13256
▁Maryland	-13257
▁measurement	-13258
▁তথ্যমন্ত্রী	-13259
▁মুক্তিযোদ্ধ	-13260
টপ	-13261
writ	-13262
▁Did	-13263
▁pra	-13264
ানিতে	-13265
ামপুর	-13266
▁আইএস	-13267
▁জনাব	-13268
▁falls	-13269
▁flash	-13270
▁usage	-13271
▁নাসিম	-13272
▁বাড়বে	-13273
▁dinosa	-13274
▁গ্রন্থ	-13275
▁সৌন্দর	-13276
American	-13277
▁Italian	-13278
▁আন্তরিক	-13279
▁সাব্বির	-13280
▁captured	-13281
▁detected	-13282
▁habitats	-13283
▁minerals	-13284
▁molecular	-13285
▁consistent	-13286
▁supporting	-13287
▁vocabulary	-13288
▁`	-13289
awn	-13290
nal	-13291
▁গভ	-13292
▁বৌ	-13293
thal	-13294
▁pit	-13295
▁একক	-13296
▁পুত	-13297
▁ফিত	-13298
▁aged	-13299
▁arts	-13300
▁ring	-13301
▁scan	-13302
ুমানিক	-13303
▁drawn	-13304
▁কমাতে	-13305
▁border	-13306
▁funded	-13307
▁police	-13308
▁accessible	-13309
▁statistics	-13310
▁ইনস্টিটিউট	-13311
▁স্থানীয়দের	-13312
ুলি	-13313
সেবা	-13314
োয়াল	-13315
ellect	-13316
▁irrit	-13317
▁ships	-13318
▁surge	-13319
▁সোসাই	-13320
▁বক্তৃত	-13321
রুজ্জামান	-13322
বস	-13323
quar	-13324
▁Beh	-13325
▁tob	-13326
▁Docu	-13327
▁Gall	-13328
▁ট্যা	-13329
▁রাজু	-13330
reated	-13331
জ্জীবন	-13332
▁অন্তর	-13333
▁thanks	-13334
▁imaging	-13335
▁তালেবান	-13336
▁বিমানের	-13337
▁consumer	-13338
▁উপস্থিতিতে	-13339
▁regulations	-13340
রীণ	-13341
য়েম	-13342
▁Ut	-13343
irus	-13344
utch	-13345
্রাট	-13346
▁Eth	-13347
▁Ice	-13348
▁দাগ	-13349
ailed	-13350
dered	-13351
ricts	-13352
▁acts	-13353
▁zero	-13354
▁কমান	-13355
▁stock	-13356
▁ক্লিক	-13357
▁পাঞ্জ	-13358
ocation	-13359
▁Portal	-13360
▁centre	-13361
▁curren	-13362
▁কৃতজ্ঞ	-13363
ki	-13364
ভেন	-13365
▁৬৪	-13366
oids	-13367
reed	-13368
▁pup	-13369
▁নাক	-13370
▁Exam	-13371
▁bath	-13372
▁চলার	-13373
▁দণ্ড	-13374
▁বাঁশ	-13375
▁frame	-13376
▁steel	-13377
▁হেলিক	-13378
▁transp	-13379
▁ছাড়িয়ে	-13380
▁Comment	-13381
▁ছাত্রীর	-13382
▁controls	-13383
▁responses	-13384
▁গুলিবিদ্ধ	-13385
▁চিকিৎসকের	-13386
▁television	-13387
▁Massachusetts	-13388
ঘু	-13389
ার্গ	-13390
▁অসম	-13391
inois	-13392
▁রাজা	-13393
uality	-13394
▁আইনগত	-13395
▁ফোনের	-13396
▁সমাপ্ত	-13397
▁opinion	-13398
▁village	-13399
▁ব্যাটাল	-13400
▁Material	-13401
▁marriage	-13402
▁ecosystems	-13403
irt	-13404
uma	-13405
▁আছ	-13406
▁আবর	-13407
▁aims	-13408
▁drag	-13409
▁flag	-13410
▁seat	-13411
▁subs	-13412
▁vote	-13413
▁পায়ে	-13414
▁৯টার	-13415
▁রিজভী	-13416
▁sodium	-13417
▁আয়োজনের	-13418
▁আনুমানিক	-13419
▁কালীগঞ্জ	-13420
▁শ্রমিকরা	-13421
▁mortality	-13422
▁গ্রেফতারের	-13423
gr	-13424
▁HT	-13425
▁মাজ	-13426
▁রযা	-13427
▁সেব	-13428
hesis	-13429
দ্দীন	-13430
▁Swed	-13431
▁decor	-13432
▁কমিয়ে	-13433
▁Amader	-13434
▁licens	-13435
▁দেলোয়ার	-13436
▁destroyed	-13437
▁সংক্ষিপ্ত	-13438
occ	-13439
কেত	-13440
র্চা	-13441
▁Bus	-13442
▁Leg	-13443
▁Near	-13444
▁door	-13445
▁shad	-13446
▁মাইল	-13447
▁সাজা	-13448
▁সানি	-13449
▁Marine	-13450
▁issued	-13451
▁রাজস্ব	-13452
ibilities	-13453
▁ইনস্টিটিউ	-13454
▁নাগরিকদের	-13455
▁competition	-13456
▁চলচ্চিত্রের	-13457
()	-13458
IA	-13459
▁ঔ	-13460
ita	-13461
▁৫৪	-13462
body	-13463
▁PDF	-13464
▁চাচ	-13465
▁ভারী	-13466
▁শত্র	-13467
▁দেখুন	-13468
▁senior	-13469
▁অনুসরণ	-13470
▁উৎসবের	-13471
▁ক্ষেপণ	-13472
▁নেত্রী	-13473
▁Several	-13474
▁ভিডিওতে	-13475
▁speaking	-13476
▁অক্সিজেন	-13477
dis	-13478
teen	-13479
াবাজ	-13480
ৃতির	-13481
▁রুপ	-13482
েত্রে	-13483
▁Init	-13484
▁মহাক	-13485
▁সমঝো	-13486
ডব্লিউ	-13487
▁ইউসুফ	-13488
▁ট্যাব	-13489
▁ব্যাক	-13490
▁রোগের	-13491
tenance	-13492
▁নেইমার	-13493
▁Harvard	-13494
▁request	-13495
▁windows	-13496
▁contents	-13497
▁moderate	-13498
▁পদ্ধতিতে	-13499
▁mechanisms	-13500
▁recognition	-13501
▁Pennsylvania	-13502
kh	-13503
▁খস	-13504
....	-13505
সাথে	-13506
▁fer	-13507
ushed	-13508
ল্পনা	-13509
▁Avoid	-13510
▁Local	-13511
▁corpor	-13512
▁exists	-13513
▁পরিপ্র	-13514
ployment	-13515
কর্মীদের	-13516
▁housing	-13517
▁serving	-13518
▁মার্কেট	-13519
▁পর্যাপ্ত	-13520
▁সংরক্ষিত	-13521
▁controvers	-13522
▁ক্ষেপণাস্ত্র	-13523
দীপ	-13524
arsh	-13525
indu	-13526
▁AND	-13527
▁Low	-13528
▁কিম	-13529
▁Bill	-13530
▁adap	-13531
▁beet	-13532
▁turb	-13533
▁ওপেন	-13534
▁গেলো	-13535
earing	-13536
▁inhib	-13537
▁laser	-13538
▁ফিরোজ	-13539
বীন্দ্র	-13540
▁discrim	-13541
▁tobacco	-13542
▁বেনাপোল	-13543
▁Illinois	-13544
▁messages	-13545
▁soldiers	-13546
▁thorough	-13547
▁বার্ষিকী	-13548
▁confirmed	-13549
▁দুর্নীতির	-13550
খে	-13551
্ধব	-13552
erly	-13553
▁ইসম	-13554
▁জোন	-13555
▁মেহ	-13556
▁স্থল	-13557
▁holds	-13558
▁therap	-13559
▁অপরাধে	-13560
▁accepted	-13561
▁exchange	-13562
▁invasive	-13563
▁authority	-13564
▁telescope	-13565
EF	-13566
ieve	-13567
oric	-13568
amins	-13569
▁Fair	-13570
▁spin	-13571
▁আয়ের	-13572
▁তারই	-13573
▁ভিসা	-13574
▁মালাম	-13575
▁caught	-13576
▁ত্বকের	-13577
▁পর্যায়	-13578
▁ক্ষয়ক্ষ	-13579
▁প্রকৌশল	-13580
▁সদস্যকে	-13581
▁পারফরম্যান্স	-13582
▁টুর্নামেন্টের	-13583
প্প	-13584
বিত	-13585
ামো	-13586
▁ফিফ	-13587
▁Hill	-13588
▁Level	-13589
▁উপকার	-13590
▁ল্যাব	-13591
িউদ্দিন	-13592
▁Origin	-13593
▁shapes	-13594
▁শিশুটির	-13595
▁Wikipedia	-13596
▁astronaut	-13597
▁যাবজ্জীবন	-13598
▁Constitution	-13599
sb	-13600
▁@	-13601
iox	-13602
মেলা	-13603
▁কড়া	-13604
▁biom	-13605
▁কবীর	-13606
▁বুকে	-13607
idance	-13608
িল্লাহ	-13609
▁moves	-13610
▁polar	-13611
▁truly	-13612
▁ভিতরে	-13613
▁সীমিত	-13614
▁holiday	-13615
▁শিরোনাম	-13616
▁treating	-13617
▁commission	-13618
▁surprising	-13619
▁legislation	-13620
▁supplements	-13621
মল	-13622
াশা	-13623
িয়ত	-13624
▁AL	-13625
▁ছড়	-13626
▁Jun	-13627
▁Corn	-13628
▁টেকন	-13629
▁রিপন	-13630
▁sharp	-13631
▁ব্যাগ	-13632
▁স্যান	-13633
▁সাইবার	-13634
▁arrived	-13635
▁mineral	-13636
▁অসাধারণ	-13637
▁কোরিয়ার	-13638
▁সংগ্রাম	-13639
▁হুমায়ুন	-13640
▁করপোরেশন	-13641
▁চাঞ্চল্য	-13642
▁behaviour	-13643
▁দুর্বৃত্তরা	-13644
▁transmission	-13645
েহে	-13646
then	-13647
বিএন	-13648
মুখী	-13649
▁ছুর	-13650
দায়ের	-13651
বিষয়ক	-13652
িসিআই	-13653
▁গুজব	-13654
পশ্চিম	-13655
▁inher	-13656
▁meteor	-13657
প্রযুক্ত	-13658
▁restrict	-13659
▁educators	-13660
▁উপলক্ষ্যে	-13661
▁বিদ্যুতের	-13662
▁পরিপ্রেক্ষিতে	-13663
জল	-13664
হতি	-13665
▁ঘা	-13666
▁শি	-13667
▁Den	-13668
▁টহল	-13669
▁newly	-13670
▁ইচ্ছা	-13671
▁এবারও	-13672
▁জলবায়	-13673
▁insert	-13674
▁চক্রের	-13675
ibraries	-13676
▁musical	-13677
▁প্রিন্স	-13678
▁vaccines	-13679
▁exercises	-13680
▁principal	-13681
▁বাস্তবায়নে	-13682
▁মফ	-13683
▁Gre	-13684
▁বুক	-13685
riers	-13686
▁bind	-13687
▁verb	-13688
▁ওয়াজ	-13689
▁জবান	-13690
▁যানজ	-13691
▁সোয়া	-13692
ফ্রন্ট	-13693
েন্ডার	-13694
▁manip	-13695
▁মেলার	-13696
▁হাফেজ	-13697
পর্যায়ে	-13698
▁বগুড়ার	-13699
▁স্ট্যাট	-13700
▁algorith	-13701
▁category	-13702
▁ক্যাম্পে	-13703
▁expressed	-13704
▁প্রযুক্তির	-13705
▁সিদ্ধান্তের	-13706
ocy	-13707
pir	-13708
য়ান	-13709
▁Pet	-13710
▁Ref	-13711
▁নয়া	-13712
▁৪টি	-13713
▁Play	-13714
▁Tool	-13715
▁Defin	-13716
▁valid	-13717
▁ব্রিফ	-13718
▁finger	-13719
▁compare	-13720
▁planting	-13721
▁allergies	-13722
▁chemistry	-13723
▁interests	-13724
▁দৃষ্টান্ত	-13725
▁investment	-13726
Des	-13727
ফির	-13728
oned	-13729
▁fats	-13730
▁মোড়ে	-13731
▁২০১২	-13732
forest	-13733
icians	-13734
iosity	-13735
▁Sports	-13736
▁grains	-13737
▁সত্ত্ব	-13738
▁মহামারী	-13739
▁সমস্যায়	-13740
▁ঐক্যবদ্ধ	-13741
অব	-13742
▁ঘো	-13743
▁২য়	-13744
াদির	-13745
িদার	-13746
ব্যুন	-13747
াগুলো	-13748
lights	-13749
▁roads	-13750
▁দিয়েই	-13751
▁মাঠের	-13752
▁brings	-13753
▁দুদকের	-13754
▁বাইডেন	-13755
▁ট্রাফিক	-13756
▁daughter	-13757
▁descript	-13758
▁পরিবর্তে	-13759
▁Historical	-13760
▁respiratory	-13761
'.	-13762
ুচ	-13763
▁টস	-13764
্টিফ	-13765
▁তবু	-13766
borne	-13767
▁Vide	-13768
যুদ্ধে	-13769
▁towns	-13770
▁করিয়ে	-13771
▁জার্ন	-13772
▁রোহিত	-13773
▁expans	-13774
▁smooth	-13775
▁strain	-13776
▁জানাজা	-13777
▁পরিসংখ	-13778
▁farming	-13779
▁অনেকটাই	-13780
▁পরিবহনের	-13781
▁impossible	-13782
বার্	-13783
মালা	-13784
সনের	-13785
green	-13786
ঙ্গার	-13787
▁Prof	-13788
▁দলটি	-13789
ivered	-13790
▁Hawai	-13791
▁grows	-13792
▁পরিমা	-13793
▁পাইলট	-13794
▁মিশ্র	-13795
▁হানিফ	-13796
কমিশনার	-13797
▁Article	-13798
▁একেবারে	-13799
▁প্রতিষ্ঠিত	-13800
▁connections	-13801
▁distributed	-13802
▁improvement	-13803
▁ধারাবাহিকতায়	-13804
▁প্রতিষ্ঠানটি	-13805
▁administration	-13806
RA	-13807
ঙ্কের	-13808
▁Full	-13809
▁ইতাল	-13810
▁শোভা	-13811
▁সবজি	-13812
▁হোয়া	-13813
িতিশীল	-13814
▁এরপরই	-13815
▁stable	-13816
▁পারভেজ	-13817
▁বাস্তব	-13818
▁married	-13819
▁turning	-13820
▁সূত্রের	-13821
▁absolute	-13822
▁ওয়েবসাইটে	-13823
▁leadership	-13824
▁প্রতিক্রিয়া	-13825
▁…	-13826
হাত	-13827
▁mm	-13828
▁৬৬	-13829
orld	-13830
racy	-13831
িয়েল	-13832
▁Log	-13833
▁cav	-13834
▁অবল	-13835
adder	-13836
▁ends	-13837
▁অবিল	-13838
▁অভাব	-13839
▁আলাপ	-13840
▁কতটা	-13841
▁trust	-13842
▁circle	-13843
▁engage	-13844
▁recept	-13845
▁প্রমূখ	-13846
▁গবেষণায়	-13847
▁receiving	-13848
▁transmitted	-13849
ano	-13850
car	-13851
▁CH	-13852
▁লড়	-13853
খ্যা	-13854
▁সুম	-13855
ীক্ষা	-13856
▁ইন্ত	-13857
▁পড়বে	-13858
▁পয়সা	-13859
▁অবহিত	-13860
▁একুশে	-13861
▁জামান	-13862
▁একজনকে	-13863
▁কলকাতায়	-13864
▁covering	-13865
▁evaluate	-13866
▁reliable	-13867
▁বৃষ্টিপাত	-13868
IP	-13869
লান	-13870
bour	-13871
ঙ্কর	-13872
ানিক	-13873
োষ্ঠ	-13874
▁Cox	-13875
▁বোধ	-13876
▁সাফ	-13877
▁৮টা	-13878
elled	-13879
ingly	-13880
▁Viet	-13881
▁cord	-13882
ixture	-13883
িস্তার	-13884
▁অনন্য	-13885
▁Sylhet	-13886
▁failed	-13887
▁listen	-13888
▁signed	-13889
▁কর্মসং	-13890
▁trained	-13891
▁আশপাশের	-13892
▁approved	-13893
▁প্রদানের	-13894
▁মহামারির	-13895
▁underlying	-13896
▁necessarily	-13897
ডিস	-13898
▁Mu	-13899
They	-13900
▁এরা	-13901
▁যাক	-13902
▁crim	-13903
▁pets	-13904
▁করতেই	-13905
▁কোরআন	-13906
▁হাতের	-13907
▁promin	-13908
▁Kolkata	-13909
▁beneficial	-13910
▁ট্রাইব্যুন	-13911
▁cardiovascular	-13912
Un	-13913
uty	-13914
াইড	-13915
alls	-13916
র্মে	-13917
▁mere	-13918
▁reci	-13919
▁এক্ষ	-13920
▁fatty	-13921
▁marks	-13922
▁ratio	-13923
▁গোলের	-13924
▁পরিষে	-13925
▁সফরের	-13926
▁Bureau	-13927
▁bigger	-13928
▁fourth	-13929
▁heating	-13930
▁delivery	-13931
▁preserve	-13932
▁ইন্ডিয়ান	-13933
▁সমর্থকদের	-13934
▁নারায়ণগঞ্জের	-13935
▁ব্রাহ্মণবাড়িয়া	-13936
Re	-13937
▁AT	-13938
http	-13939
্বের	-13940
▁উইল	-13941
▁রেহ	-13942
▁লুট	-13943
▁হুস	-13944
▁৯টা	-13945
irect	-13946
▁cure	-13947
▁হেলাল	-13948
▁relief	-13949
▁আসামির	-13950
▁ইংরেজি	-13951
▁যোগদান	-13952
▁chromos	-13953
▁compound	-13954
een	-13955
রূপ	-13956
▁Bul	-13957
▁শুল	-13958
eless	-13959
প্রেম	-13960
▁Site	-13961
▁zone	-13962
▁দুদক	-13963
▁atoms	-13964
▁noise	-13965
▁পৃষ্ঠ	-13966
▁Select	-13967
▁cattle	-13968
▁পরাজিত	-13969
▁dramatic	-13970
▁understood	-13971
▁পরিসংখ্যান	-13972
▁authorities	-13973
but	-13974
▁৭৬	-13975
▁amb	-13976
▁ডির	-13977
rooms	-13978
▁ইউএস	-13979
▁ফুটে	-13980
▁১৪২৮	-13981
charge	-13982
ivated	-13983
▁dates	-13984
▁আবদুর	-13985
▁oldest	-13986
▁phosph	-13987
▁reform	-13988
▁repair	-13989
▁পালনের	-13990
▁ফেরদৌস	-13991
▁players	-13992
▁মৃত্যুবরণ	-13993
দুদ	-13994
▁ছো	-13995
iate	-13996
র্পণ	-13997
▁raw	-13998
▁rid	-13999
▁ইয়া	-14000
▁ভেন	-14001
▁মুফ	-14002
পাড়ায়	-14003
▁Blue	-14004
▁rely	-14005
▁stre	-14006
▁মিলা	-14007
▁Field	-14008
▁skill	-14009
▁জাপান	-14010
▁স্টার	-14011
▁গ্রাহক	-14012
▁শেরপুর	-14013
outheast	-14014
▁amazing	-14015
▁circuit	-14016
▁উজ্জ্বল	-14017
▁প্ল্যাট	-14018
▁evaluation	-14019
রিন	-14020
chen	-14021
▁Emp	-14022
▁boy	-14023
▁net	-14024
▁মোস	-14025
▁আইডি	-14026
▁ভুলে	-14027
▁সিআই	-14028
▁aster	-14029
▁পার্থ	-14030
▁মার্ক	-14031
▁chosen	-14032
▁panels	-14033
▁Biology	-14034
▁টুইটারে	-14035
▁Scotland	-14036
▁outcomes	-14037
▁spectrum	-14038
▁recycling	-14039
▁আফগানিস্তানের	-14040
.;	-14041
how	-14042
িমূল	-14043
▁Non	-14044
▁পাত	-14045
▁AIDS	-14046
▁roof	-14047
গাঁওয়ে	-14048
▁খাতের	-14049
▁রণবীর	-14050
▁desert	-14051
▁নেত্রক	-14052
▁প্রশংস	-14053
▁শুরুতেই	-14054
▁স্পিকার	-14055
▁branches	-14056
▁অবিলম্বে	-14057
▁অনুসন্ধান	-14058
▁সম্প্রচার	-14059
▁encouraged	-14060
▁permission	-14061
▁phenomenon	-14062
▁মানববন্ধনে	-14063
▁মন্ত্রিপরিষদ	-14064
যা	-14065
ংয়ের	-14066
▁gun	-14067
▁গেট	-14068
▁৪০০	-14069
অ্যাপ	-14070
▁Text	-14071
▁shop	-14072
▁ফাইল	-14073
▁৮টার	-14074
▁Light	-14075
▁ক্রিস	-14076
▁লাখের	-14077
▁facing	-14078
▁storms	-14079
▁session	-14080
▁মালামাল	-14081
▁ম্যাচটি	-14082
▁territory	-14083
▁protecting	-14084
▁constructed	-14085
rox	-14086
sun	-14087
apse	-14088
স্বর	-14089
াইয়া	-14090
▁tip	-14091
▁গুঁ	-14092
োপসাগ	-14093
▁জোটের	-14094
▁মতামত	-14095
▁যাতায়	-14096
▁হাছান	-14097
▁oceans	-14098
▁planned	-14099
▁গোবিন্দ	-14100
▁মুশফিকুর	-14101
▁রবীন্দ্র	-14102
▁interface	-14103
▁comparison	-14104
▁কর্পোরেশনের	-14105
▁implications	-14106
box	-14107
fts	-14108
osh	-14109
rin	-14110
োহর	-14111
্রো	-14112
▁BC	-14113
bell	-14114
▁কবে	-14115
▁দশম	-14116
▁নবম	-14117
▁রুশ	-14118
▁Tech	-14119
▁Royal	-14120
▁স্বপন	-14121
▁Observ	-14122
▁conven	-14123
▁unable	-14124
▁কাছাকা	-14125
ার্থীদের	-14126
▁ongoing	-14127
▁উত্তোলন	-14128
▁ক্ষমতাস	-14129
▁চালাচ্ছে	-14130
▁প্রযোজনা	-14131
▁ফ্রান্সের	-14132
▁ultimately	-14133
▁বিশেষজ্ঞরা	-14134
▁preparation	-14135
)|	-14136
rav	-14137
নেতা	-14138
্নাই	-14139
▁ske	-14140
▁Drug	-14141
▁চাপা	-14142
▁প্রাচ	-14143
▁স্পেশ	-14144
▁Alaska	-14145
▁trends	-14146
▁Indones	-14147
▁electro	-14148
▁নিহতদের	-14149
▁সেক্রেট	-14150
▁threatened	-14151
▁অভ্যন্তরীণ	-14152
▁identifying	-14153
▁সম্প্রদায়ের	-14154
▁demonstrated	-14155
sm	-14156
▁↑	-14157
ima	-14158
িংক	-14159
তিকর	-14160
সেরা	-14161
▁Gal	-14162
▁ঢেউ	-14163
▁করতো	-14164
▁বাসে	-14165
গুলিতে	-14166
▁Never	-14167
▁সেবার	-14168
essions	-14169
itivity	-14170
▁sensor	-14171
▁গণধর্ষ	-14172
ventions	-14173
▁ইস্যুতে	-14174
▁বিচারের	-14175
▁bullying	-14176
▁nitrogen	-14177
▁একইসঙ্গে	-14178
▁কাছাকাছি	-14179
▁খাগড়াছড়ি	-14180
▁mathematical	-14181
df	-14182
har	-14183
জিৎ	-14184
▁rh	-14185
▁যু	-14186
ংকার	-14187
▁আজকে	-14188
▁মাংস	-14189
▁Watch	-14190
▁spots	-14191
▁জরুরী	-14192
▁পাঠান	-14193
▁রাশেদ	-14194
▁রিয়াদ	-14195
▁Effect	-14196
▁হায়দার	-14197
▁চুক্তির	-14198
▁কর্মচারী	-14199
▁agreement	-14200
▁প্রশাসনিক	-14201
ibl	-14202
ube	-14203
xts	-14204
টেই	-14205
▁নৈ	-14206
▁শয	-14207
এনএস	-14208
্বুল	-14209
▁Die	-14210
▁Way	-14211
▁cup	-14212
▁rig	-14213
▁মোল	-14214
▁রতন	-14215
▁হরত	-14216
ষ্টায়	-14217
▁epis	-14218
▁rect	-14219
▁এরকম	-14220
▁গ্যা	-14221
▁লাইস	-14222
▁fires	-14223
▁worst	-14224
▁পারলে	-14225
century	-14226
▁Astron	-14227
▁জিয়াকে	-14228
▁দ্রব্য	-14229
▁বিনিময়	-14230
▁লড়াইয়ে	-14231
▁gravity	-14232
▁জাপানের	-14233
▁সতর্কতা	-14234
▁illnesses	-14235
▁pediatric	-14236
era	-14237
ংকর	-14238
পিকে	-14239
▁ton	-14240
ostic	-14241
▁রঙের	-14242
ashion	-14243
▁breed	-14244
▁mouse	-14245
▁param	-14246
▁videos	-14247
▁পর্দায়	-14248
▁drivers	-14249
▁entered	-14250
▁স্পিনার	-14251
▁bringing	-14252
▁strongly	-14253
▁যুক্তরাজ্য	-14254
َا	-14255
▁Set	-14256
▁মেন	-14257
igned	-14258
▁আমান	-14259
▁খুঁজ	-14260
issipp	-14261
▁meals	-14262
▁prohib	-14263
▁ঘনিষ্ঠ	-14264
▁রক্ষায়	-14265
▁সংগ্রহের	-14266
▁delivered	-14267
▁আবদুল্লাহ	-14268
▁ঠাকুরগাঁও	-14269
রোজ	-14270
োভন	-14271
য়েট	-14272
ymes	-14273
আইজি	-14274
র্কে	-14275
▁এএফ	-14276
▁চমক	-14277
▁নিপ	-14278
▁সেট	-14279
print	-14280
অপরাহ	-14281
িনিউজ	-14282
▁bang	-14283
▁hosp	-14284
▁mand	-14285
▁plot	-14286
▁রশীদ	-14287
rolled	-14288
▁sched	-14289
▁theme	-14290
▁কেনার	-14291
▁গঠনের	-14292
▁মাদ্র	-14293
▁তারকার	-14294
▁mammals	-14295
▁পার্লাম	-14296
▁division	-14297
▁resulted	-14298
▁ভোটগ্রহণ	-14299
▁categories	-14300
▁initiative	-14301
▁নেতৃত্বাধীন	-14302
owa	-14303
শাহ	-14304
ৃক্ত	-14305
▁হুঁ	-14306
acent	-14307
িশনের	-14308
▁hero	-14309
▁নাঈম	-14310
▁brush	-14311
certain	-14312
▁trials	-14313
▁ইউটিউব	-14314
▁বন্যার	-14315
▁সশস্ত্র	-14316
▁indicated	-14317
▁গাজীপুরের	-14318
▁exhibition	-14319
▁innovative	-14320
▁জানিয়েছিলেন	-14321
▁ক্রিকেটারদের	-14322
▁puzz	-14323
shaped	-14324
stances	-14325
▁ভূঁইয়া	-14326
▁missing	-14327
▁অপারেশন	-14328
▁টুয়েন্ট	-14329
▁বৈশ্বিক	-14330
operation	-14331
▁graduate	-14332
QL	-14333
োরে	-14334
▁Ok	-14335
▁Pur	-14336
▁অবস	-14337
▁জালাল	-14338
▁শুল্ক	-14339
▁elected	-14340
▁realize	-14341
▁পরিমাণে	-14342
▁resident	-14343
▁সিদ্দিকী	-14344
▁বঙ্গোপসাগ	-14345
িকিউ	-14346
▁Tim	-14347
▁ফকির	-14348
ounter	-14349
▁আন্তঃ	-14350
▁তরুণী	-14351
▁বিরাজ	-14352
▁রাখুন	-14353
western	-14354
▁Indians	-14355
▁evolved	-14356
▁সংবাদটি	-14357
▁concrete	-14358
▁spending	-14359
▁বিধ্বস্ত	-14360
HS	-14361
ভিন	-14362
ুড়ি	-14363
▁কট	-14364
▁দা	-14365
▁৫৩	-14366
hire	-14367
oral	-14368
▁নাশ	-14369
berry	-14370
েন্সি	-14371
▁পাড়ি	-14372
▁Story	-14373
▁fatal	-14374
▁weigh	-14375
▁উড়িয়ে	-14376
▁খেলবে	-14377
▁মেলায়	-14378
▁রাজীব	-14379
▁রেডিও	-14380
▁সুরমা	-14381
▁ভাস্কর	-14382
lastname	-14383
▁Popular	-14384
▁রহমানকে	-14385
▁শাস্তির	-14386
▁আন্দোলনে	-14387
▁স্বতন্ত্র	-14388
▁ব্যবসায়ীকে	-14389
▁interactions	-14390
MI	-14391
তু	-14392
হাল	-14393
umer	-14394
▁কুল	-14395
▁জয়ে	-14396
▁ille	-14397
▁আর্ম	-14398
▁juice	-14399
▁indeed	-14400
▁writes	-14401
▁পাঠিয়েছে	-14402
▁transition	-14403
গন	-14404
arn	-14405
▁দাপ	-14406
▁বীজ	-14407
amics	-14408
▁Prop	-14409
▁চীনে	-14410
▁জামে	-14411
▁মনের	-14412
▁shift	-14413
▁বৃক্ষ	-14414
▁Comple	-14415
▁extend	-14416
▁fabric	-14417
▁দিবসের	-14418
▁মুম্বই	-14419
▁হোয়াটস	-14420
▁Century	-14421
▁adolesc	-14422
▁succeed	-14423
▁thyroid	-14424
▁এইচএসসি	-14425
▁হাসানের	-14426
▁bleeding	-14427
▁carrying	-14428
▁detection	-14429
▁artificial	-14430
▁Ma	-14431
▁mg	-14432
wing	-14433
▁Mah	-14434
▁pin	-14435
▁rab	-14436
▁vac	-14437
▁ছুট	-14438
▁বিচ	-14439
▁ভিজ	-14440
Health	-14441
iscons	-14442
itting	-14443
▁coral	-14444
▁scene	-14445
▁কাতার	-14446
▁ক্রেত	-14447
▁ফরহাদ	-14448
▁লম্বা	-14449
▁লেখেন	-14450
▁cotton	-14451
▁danger	-14452
▁pollut	-14453
▁Twitter	-14454
▁Physical	-14455
▁Francisco	-14456
▁intellect	-14457
▁intensity	-14458
▁Mississipp	-14459
▁protective	-14460
▁বার্সেলোনা	-14461
▁institution	-14462
PL	-14463
ani	-14464
বৃহ	-14465
▁AR	-14466
▁৭৭	-14467
gien	-14468
ulpt	-14469
▁Ham	-14470
▁Tre	-14471
▁gat	-14472
▁জেস	-14473
▁পুষ	-14474
স্টিক	-14475
▁উত্থ	-14476
▁খালা	-14477
▁নবাব	-14478
▁মাতৃ	-14479
ometer	-14480
▁Dhaka	-14481
▁neuro	-14482
▁worry	-14483
▁কনস্ট	-14484
▁ডেভেল	-14485
▁বেকার	-14486
▁Policy	-14487
▁strict	-14488
▁paralle	-14489
▁voltage	-14490
▁swelling	-14491
▁আসামিদের	-14492
▁রূপান্তর	-14493
▁এক্ষেত্রে	-14494
▁বাংলাদেশী	-14495
▁Conference	-14496
▁earthquake	-14497
▁overweight	-14498
▁মৃত্যুদণ্ড	-14499
una	-14500
elly	-14501
ুনার	-14502
▁Rom	-14503
▁তোফ	-14504
▁ফাত	-14505
class	-14506
র্কের	-14507
▁এখনই	-14508
তিনিধি	-14509
▁Force	-14510
▁diarr	-14511
▁উৎসবে	-14512
▁চাকমা	-14513
▁হার্ট	-14514
isconsin	-14515
▁engines	-14516
▁প্রভাবে	-14517
▁earliest	-14518
▁reaching	-14519
▁somewhat	-14520
▁struggle	-14521
▁Pediatric	-14522
▁mountains	-14523
▁maintained	-14524
Our	-14525
▁মও	-14526
ohyd	-14527
unar	-14528
কেয়া	-14529
রিতে	-14530
▁Sup	-14531
▁enorm	-14532
▁urine	-14533
▁জোরদার	-14534
▁Student	-14535
▁কর্মহীন	-14536
▁লালমনির	-14537
▁শিক্ষার	-14538
▁সচেতনতা	-14539
▁inspired	-14540
▁ecological	-14541
po	-14542
For	-14543
▁FA	-14544
▁বক	-14545
বেলা	-14546
▁দফত	-14547
arant	-14548
▁Mean	-14549
▁prev	-14550
▁Santa	-14551
▁embry	-14552
▁ended	-14553
▁সেদিন	-14554
▁silver	-14555
▁viewed	-14556
▁ছুরিকা	-14557
▁পর্যালো	-14558
▁election	-14559
▁মাহমুদুল	-14560
▁variation	-14561
ইট	-14562
abb	-14563
▁দো	-14564
asty	-14565
soft	-14566
দানে	-14567
প্লে	-14568
ুদের	-14569
▁Look	-14570
▁rose	-14571
▁অধ্য	-14572
▁কেড়ে	-14573
▁মোহন	-14574
আমাদের	-14575
▁Cross	-14576
▁Small	-14577
▁aband	-14578
▁movie	-14579
▁মঞ্চে	-14580
▁মিরাজ	-14581
▁undert	-14582
▁দক্ষতা	-14583
▁অ্যাকশন	-14584
▁সাকিবের	-14585
▁versions	-14586
ographical	-14587
▁Nutrition	-14588
▁measuring	-14589
▁রাজশাহীতে	-14590
CD	-14591
ঃস	-14592
▁ID	-14593
gers	-14594
িপুর	-14595
▁ফিন	-14596
oples	-14597
▁Area	-14598
▁উঠছে	-14599
▁রুটে	-14600
mentia	-14601
▁pneum	-14602
▁দুলাল	-14603
▁পরদিন	-14604
▁জলবায়ু	-14605
▁ভর্তির	-14606
▁মাহফুজ	-14607
▁মিষ্টি	-14608
▁witness	-14609
▁ফেসবুকের	-14610
▁বিস্ফোরণ	-14611
▁excessive	-14612
▁প্রতিযোগিতার	-14613
oca	-14614
▁gap	-14615
▁নবী	-14616
▁বলি	-14617
eting	-14618
▁BdST	-14619
▁decla	-14620
▁নৌকার	-14621
comfort	-14622
▁Action	-14623
▁corner	-14624
▁troops	-14625
▁সম্মিল	-14626
▁স্বস্ত	-14627
▁protocol	-14628
▁ইন্ডাস্ট্র	-14629
▁আফগানিস্তান	-14630
EO	-14631
Ex	-14632
Le	-14633
াইক	-14634
▁Ins	-14635
▁sew	-14636
▁আরা	-14637
▁জমে	-14638
িয়াকে	-14639
▁Kent	-14640
▁আরাফ	-14641
▁২০১১	-14642
▁beans	-14643
▁dairy	-14644
▁dense	-14645
▁আওয়ার	-14646
▁উন্মো	-14647
▁চ্যান	-14648
▁নাহিদ	-14649
ুয়ারিতে	-14650
▁Editor	-14651
▁Oxford	-14652
▁advent	-14653
▁reveal	-14654
▁চালিয়েছে	-14655
▁হারিয়েছে	-14656
▁একপর্যায়ে	-14657
▁স্থানান্তর	-14658
▁interaction	-14659
▁partnership	-14660
sue	-14661
▁Map	-14662
▁বদল	-14663
rared	-14664
▁Ariz	-14665
▁NEWS	-14666
▁disk	-14667
▁dose	-14668
▁furn	-14669
▁grid	-14670
▁আর্ট	-14671
▁ওয়াস	-14672
▁কন্ঠ	-14673
▁গ্লো	-14674
▁তৈরী	-14675
▁ফেনী	-14676
▁route	-14677
▁wings	-14678
▁এড়াতে	-14679
▁devast	-14680
▁fairly	-14681
▁intern	-14682
▁interv	-14683
▁ইউনিটে	-14684
▁ইসমাইল	-14685
▁মহাকাশ	-14686
▁সম্রাট	-14687
▁holding	-14688
▁threats	-14689
▁অনুশীলন	-14690
▁হোসেনকে	-14691
▁Remember	-14692
▁adequate	-14693
▁offering	-14694
▁সম্পৃক্ত	-14695
▁varieties	-14696
▁গাইবান্ধা	-14697
▁ব্রাজিলের	-14698
▁identification	-14699
EA	-14700
rh	-14701
door	-14702
from	-14703
▁Los	-14704
▁mir	-14705
▁ভাত	-14706
while	-14707
মিনুল	-14708
▁tank	-14709
▁Antar	-14710
▁নোবেল	-14711
▁analys	-14712
▁flying	-14713
▁grades	-14714
▁prison	-14715
▁ছেলেকে	-14716
▁বৈঠকের	-14717
▁counsel	-14718
▁quarter	-14719
▁reduces	-14720
▁এসোসিয়ে	-14721
▁ব্যাক্ত	-14722
▁supposed	-14723
▁প্রার্থনা	-14724
▁লক্ষ্মীপুর	-14725
▁examination	-14726
▁পশ্চিমবঙ্গের	-14727
বয়	-14728
iat	-14729
▁Neu	-14730
▁জাজ	-14731
▁ঝাঁ	-14732
▁শ্ল	-14733
▁হেন	-14734
▁rays	-14735
▁sell	-14736
▁ব্লক	-14737
▁হাসি	-14738
▁guess	-14739
▁wheel	-14740
▁শারমিন	-14741
▁ইসলামকে	-14742
▁শ্রেণীর	-14743
▁watching	-14744
▁কিছুক্ষণ	-14745
▁হুঁশিয়ার	-14746
▁আশঙ্কাজনক	-14747
▁directions	-14748
How	-14749
লাস	-14750
শাস	-14751
bles	-14752
onym	-14753
zone	-14754
▁Sov	-14755
▁খোঁ	-14756
▁টেন	-14757
▁সেলস	-14758
▁happy	-14759
▁relax	-14760
▁আকারে	-14761
▁কৃষ্ণ	-14762
▁ঘরোয়া	-14763
ার্সিটি	-14764
▁দেখাতে	-14765
▁প্রদীপ	-14766
▁বাংলায়	-14767
▁মনিরুল	-14768
▁partner	-14769
▁recover	-14770
▁suscept	-14771
▁স্লোগান	-14772
▁composed	-14773
▁Wisconsin	-14774
▁সম্মেলনের	-14775
▁সিরাজগঞ্জ	-14776
▁recommends	-14777
▁complicated	-14778
▁bees	-14779
▁noun	-14780
▁কালি	-14781
▁ব্রিজ	-14782
itative	-14783
▁scores	-14784
▁ইসরাইল	-14785
▁বর্ষের	-14786
▁সম্মুখ	-14787
▁Teacher	-14788
▁স্যানিট	-14789
▁interview	-14790
▁principle	-14791
▁contemporary	-14792
UCN	-14793
▁od	-14794
▁৮৮	-14795
lete	-14796
eries	-14797
▁prey	-14798
▁রওনা	-14799
icious	-14800
▁Books	-14801
▁flows	-14802
▁lakes	-14803
▁উপকূল	-14804
▁Kansas	-14805
▁serves	-14806
▁Islands	-14807
▁গৃহবধূর	-14808
▁পরিবারে	-14809
▁প্রেক্ষ	-14810
▁calendar	-14811
▁ক্ষমতাসীন	-14812
কলা	-14813
েমা	-14814
▁অগ	-14815
live	-14816
জনিত	-14817
ডিয়া	-14818
২০১৯	-14819
▁জুল	-14820
▁earn	-14821
▁জায়ে	-14822
▁ধরার	-14823
▁Think	-14824
▁aging	-14825
▁wound	-14826
▁Unlike	-14827
▁escape	-14828
▁চলাকালে	-14829
▁settings	-14830
▁websites	-14831
▁পত্রিকার	-14832
▁disability	-14833
▁পাকিস্তানি	-14834
রাও	-14835
ধর্ম	-14836
▁girl	-14837
▁Index	-14838
▁chair	-14839
▁chart	-14840
▁spons	-14841
▁sport	-14842
▁খুনের	-14843
▁পরপরই	-14844
▁বিতরন	-14845
________	-14846
ির্দিষ্ট	-14847
▁forming	-14848
▁theories	-14849
▁happening	-14850
▁kilometers	-14851
▁ময়মনসিংহের	-14852
▁neighborhood	-14853
َّ	-14854
uts	-14855
▁বশ	-14856
usal	-14857
টিসি	-14858
দারি	-14859
▁Mid	-14860
▁pou	-14861
▁নাছ	-14862
▁২৫০	-14863
▁আকার	-14864
▁রিয়াজ	-14865
▁Confed	-14866
▁acknow	-14867
▁ডায়াবে	-14868
▁মিশিয়ে	-14869
▁observe	-14870
▁পরিশ্রম	-14871
▁স্থাপনা	-14872
itionally	-14873
▁guidance	-14874
▁কারখানায়	-14875
▁সিনেমাটি	-14876
▁স্বার্থে	-14877
▁celebrate	-14878
hyd	-14879
াসীর	-14880
▁fav	-14881
▁অটো	-14882
▁কেক	-14883
নিম্ন	-14884
াদুর্	-14885
▁Diet	-14886
▁Nile	-14887
▁তুমি	-14888
▁Month	-14889
▁পরমাণ	-14890
▁বয়সের	-14891
▁মাসুম	-14892
▁Number	-14893
▁stated	-14894
▁এশিয়ার	-14895
otherapy	-14896
▁Limited	-14897
▁trigger	-14898
▁দেশজুড়ে	-14899
▁stations	-14900
▁আমন্ত্রণ	-14901
▁নীলফামারী	-14902
▁উল্লেখযোগ্য	-14903
▁concentrations	-14904
্মা	-14905
ship	-14906
▁Hor	-14907
▁আনে	-14908
ioxid	-14909
▁কালে	-14910
▁পিসি	-14911
▁শাসন	-14912
▁maybe	-14913
▁usual	-14914
▁asking	-14915
▁proven	-14916
▁twenty	-14917
▁ওসমানী	-14918
▁সুবর্ণ	-14919
▁Parents	-14920
▁calling	-14921
▁এয়ারলাই	-14922
▁ট্রান্স	-14923
▁পেঁয়াজের	-14924
▁সংক্রমিত	-14925
▁affecting	-14926
▁কার্যক্রমের	-14927
▁মাহমুদউল্লাহ	-14928
pm	-14929
নগরে	-14930
ীদুল	-14931
▁Pain	-14932
▁panc	-14933
▁নিলে	-14934
▁Music	-14935
▁গান্ধ	-14936
▁মিত্র	-14937
▁Little	-14938
▁forget	-14939
▁অভিনীত	-14940
▁আরিফুল	-14941
▁মিউজিক	-14942
▁প্যানেল	-14943
▁রিমান্ডে	-14944
▁occurring	-14945
▁নোয়াখালীর	-14946
▁elementary	-14947
▁healthcare	-14948
▁industries	-14949
▁পর্যবেক্ষণ	-14950
▁destruction	-14951
ইও	-14952
But	-14953
▁Ur	-14954
fast	-14955
▁Lib	-14956
▁চিফ	-14957
erior	-14958
িমূলক	-14959
েশ্বর	-14960
▁খালি	-14961
making	-14962
াম্মেল	-14963
্রান্ত	-14964
▁texts	-14965
▁বুলেট	-14966
▁স্মিথ	-14967
▁সত্ত্বেও	-14968
▁exception	-14969
▁Convention	-14970
oir	-14971
oto	-14972
খবর	-14973
ঢ্য	-14974
ফতর	-14975
াংশ	-14976
neys	-14977
▁চেত	-14978
ধ্যার	-14979
▁incl	-14980
▁পরীম	-14981
coming	-14982
▁খালেদ	-14983
▁চিৎকার	-14984
▁ডিভাইস	-14985
▁Digital	-14986
▁consume	-14987
▁সার্টিফ	-14988
▁ব্যাখ্যা	-14989
?”	-14990
EE	-14991
pty	-14992
লীর	-14993
ডিবি	-14994
ifier	-14995
বিহীন	-14996
▁caps	-14997
▁টঙ্গ	-14998
▁বেড়া	-14999
▁মস্ত	-15000
▁হবার	-15001
▁imper	-15002
▁ছিটকে	-15003
▁ছিলাম	-15004
▁পিতার	-15005
▁combat	-15006
▁config	-15007
▁মহামার	-15008
▁যুদ্ধে	-15009
▁Physics	-15010
▁careful	-15011
▁parties	-15012
▁সংবিধান	-15013
নির্বাচিত	-15014
▁interpre	-15015
▁concluded	-15016
▁variables	-15017
▁Assessment	-15018
].	-15019
ENT	-15020
দিক	-15021
▁Dar	-15022
▁সোপ	-15023
▁৬টি	-15024
পেক্ষ	-15025
ার্সন	-15026
িন্টু	-15027
▁Coll	-15028
▁Emer	-15029
▁hybr	-15030
▁nice	-15031
▁কোহল	-15032
▁সিসি	-15033
▁overl	-15034
▁stead	-15035
▁মোকাব	-15036
▁hazard	-15037
▁কন্ট্র	-15038
▁passing	-15039
▁চেয়েছেন	-15040
▁লকডাউনে	-15041
▁audience	-15042
▁heritage	-15043
▁জ্বালানি	-15044
▁Mississippi	-15045
দাদ	-15046
▁Lo	-15047
▁গল	-15048
ায়নে	-15049
্বিত	-15050
▁bag	-15051
▁hus	-15052
icals	-15053
যুদ্ধ	-15054
▁boat	-15055
▁কাজল	-15056
▁সমাপ	-15057
▁aimed	-15058
▁optim	-15059
▁চুরির	-15060
▁আগুনের	-15061
▁স্কোয়া	-15062
chnology	-15063
▁অতিক্রম	-15064
▁নিয়োগের	-15065
including	-15066
▁districts	-15067
▁ingredients	-15068
▁maintenance	-15069
▁observation	-15070
তোয়	-15071
▁৭৩	-15072
মানে	-15073
ার্ভ	-15074
▁Pas	-15075
▁গুন	-15076
বোর্ড	-15077
▁Oper	-15078
▁chap	-15079
▁mode	-15080
▁আবিষ	-15081
ferent	-15082
▁Model	-15083
▁acute	-15084
▁মুকুল	-15085
lishing	-15086
raining	-15087
▁Contin	-15088
▁advert	-15089
▁module	-15090
▁ইন্তেক	-15091
▁প্রাণী	-15092
▁বিজনেস	-15093
▁dietary	-15094
▁falling	-15095
▁পরিবেশন	-15096
▁সুশান্ত	-15097
▁Teachers	-15098
▁feedback	-15099
▁specified	-15100
▁নেতাকর্মী	-15101
▁≣	-15102
tesy	-15103
▁Ess	-15104
▁মিউ	-15105
▁কঙ্গ	-15106
▁জোড়া	-15107
বাড়িয়া	-15108
▁Clean	-15109
▁faces	-15110
▁lymph	-15111
▁ম্যাগ	-15112
▁হাসিন	-15113
যোগাযোগ	-15114
▁ধানমন্ড	-15115
▁পরিষেবা	-15116
▁ভিত্তিক	-15117
▁annually	-15118
▁প্রশাসকের	-15119
▁টাঙ্গাইলের	-15120
▁maintaining	-15121
")	-15122
ugg	-15123
০০০	-15124
abil	-15125
্তুগ	-15126
২০১৮	-15127
▁কাই	-15128
otype	-15129
rical	-15130
▁cham	-15131
▁ছক্ক	-15132
▁নজরে	-15133
▁হাঁট	-15134
▁hepat	-15135
▁সেক্ট	-15136
▁depart	-15137
▁যশোরের	-15138
▁ভিডিওটি	-15139
▁সরেজমিন	-15140
▁Clinical	-15141
▁influenza	-15142
▁পাকিস্তানে	-15143
▁exploration	-15144
▁শান্তিপূর্ণ	-15145
ady	-15146
পাক	-15147
বোধ	-15148
▁অং	-15149
▁জৈ	-15150
▁০০	-15151
atal	-15152
ঙ্কে	-15153
োজিত	-15154
▁Hom	-15155
▁vom	-15156
ত্রীর	-15157
▁Farm	-15158
▁বেশী	-15159
▁রফিক	-15160
▁সঙ্ক	-15161
▁explo	-15162
▁false	-15163
▁অষ্টম	-15164
▁কাটার	-15165
▁Proble	-15166
▁Spring	-15167
▁bridge	-15168
▁lowest	-15169
▁script	-15170
▁ক্লাবে	-15171
▁পর্তুগ	-15172
▁বিক্রয়	-15173
▁সংসদীয়	-15174
▁Arizona	-15175
▁chances	-15176
▁anywhere	-15177
▁develops	-15178
▁শিক্ষকের	-15179
▁bacterial	-15180
▁সম্প্রসারণ	-15181
PV	-15182
tic	-15183
য়েদ	-15184
▁কৌ	-15185
▁৬৯	-15186
foot	-15187
rize	-15188
ায়েত	-15189
▁Hur	-15190
▁NOT	-15191
▁নাব	-15192
▁dent	-15193
▁oste	-15194
▁surg	-15195
▁বাড়ী	-15196
▁ব্রা	-15197
▁ব্লা	-15198
▁হেলথ	-15199
▁crime	-15200
▁ট্রেড	-15201
ishment	-15202
▁কিশোরী	-15203
▁Kingdom	-15204
▁Schools	-15205
▁উপস্থাপ	-15206
▁লাইসেন্স	-15207
▁পূর্ণাঙ্গ	-15208
▁mechanical	-15209
▁pesticides	-15210
▁মনোনয়নপত্র	-15211
▁investigation	-15212
▁%	-15213
▁চক	-15214
oven	-15215
play	-15216
টিআই	-15217
শালী	-15218
abeth	-15219
being	-15220
াকালে	-15221
▁শহিদ	-15222
ranean	-15223
নেত্রী	-15224
▁pione	-15225
▁আস্থা	-15226
▁কারিগ	-15227
▁সার্জ	-15228
ocratic	-15229
▁phones	-15230
▁দেওয়ায়	-15231
▁বলিউডে	-15232
▁হৃদরোগ	-15233
▁sensors	-15234
▁আহমেদের	-15235
▁নামাজের	-15236
▁isolated	-15237
▁সচিবালয়ে	-15238
▁wonderful	-15239
▁ক্যান্সার	-15240
▁প্রাণঘাতী	-15241
▁atmospheric	-15242
▁Max	-15243
▁কাস	-15244
▁নিম	-15245
aming	-15246
▁alph	-15247
▁conj	-15248
▁deer	-15249
▁gast	-15250
▁দামে	-15251
▁ষষ্ঠ	-15252
angbad	-15253
▁wheat	-15254
idering	-15255
▁street	-15256
▁দম্পতি	-15257
▁landing	-15258
▁দেখেছেন	-15259
▁gradually	-15260
▁প্রিয়াঙ্কা	-15261
▁ইশ	-15262
গুনা	-15263
▁Cir	-15264
▁Nob	-15265
▁lie	-15266
▁ভাং	-15267
ঙ্গাল	-15268
▁conv	-15269
nesota	-15270
পমেন্ট	-15271
প্রকাশ	-15272
▁পিছনে	-15273
▁সরদার	-15274
▁agreed	-15275
▁বন্দরে	-15276
▁Working	-15277
▁victims	-15278
▁অভিনয়ের	-15279
▁দপ্তরের	-15280
▁দোকানের	-15281
▁বিনিময়ে	-15282
▁asteroid	-15283
▁coverage	-15284
▁displays	-15285
▁incidence	-15286
▁challenging	-15287
TV	-15288
lah	-15289
িজা	-15290
▁৯৮	-15291
east	-15292
▁Gar	-15293
books	-15294
শ্বাস	-15295
▁Prem	-15296
▁shed	-15297
▁সেসব	-15298
ersion	-15299
ometry	-15300
▁pilot	-15301
▁স্কোর	-15302
▁প্রতিন	-15303
▁shorter	-15304
▁criteria	-15305
▁সম্মিলিত	-15306
▁employees	-15307
▁তালিকাভুক্ত	-15308
▁চেয়ারম্যানের	-15309
PR	-15310
UL	-15311
পাস	-15312
▁McC	-15313
▁wat	-15314
inder	-15315
দ্বীপ	-15316
হাসের	-15317
▁Iowa	-15318
▁frog	-15319
▁gray	-15320
▁নবীন	-15321
▁লতিফ	-15322
▁admin	-15323
▁soils	-15324
▁এতদিন	-15325
▁errors	-15326
▁এজেন্ট	-15327
▁Product	-15328
▁arrange	-15329
▁operate	-15330
▁চেন্নাই	-15331
▁relation	-15332
▁প্রচারণা	-15333
▁paintings	-15334
▁vegetation	-15335
▁translation	-15336
▁গণতান্ত্রিক	-15337
▁significance	-15338
▁Er	-15339
▁কপ	-15340
ঘাটে	-15341
ব্যব	-15342
▁তীর	-15343
▁ভাট	-15344
▁fold	-15345
▁ment	-15346
▁ওঠার	-15347
▁ওপরে	-15348
▁গানে	-15349
▁দফতর	-15350
▁algae	-15351
▁fixed	-15352
▁pairs	-15353
▁ঘোষনা	-15354
▁সিনহা	-15355
ilation	-15356
▁কোরবান	-15357
▁শহীদুল	-15358
▁dealing	-15359
▁অধিবেশন	-15360
▁ইউরোপীয়	-15361
▁এডভোকেট	-15362
▁প্রমাণিত	-15363
▁decreased	-15364
▁সর্বনিম্ন	-15365
▁aggressive	-15366
MO	-15367
TH	-15368
ali	-15369
tra	-15370
▁bd	-15371
্লাল	-15372
▁জেম	-15373
haust	-15374
ogram	-15375
▁sulf	-15376
▁styles	-15377
▁আব্বাস	-15378
▁ফেলেছে	-15379
▁এরমধ্যে	-15380
▁পরিবেশে	-15381
▁particle	-15382
▁printing	-15383
▁Minnesota	-15384
▁firstname	-15385
▁processed	-15386
▁চলচ্চিত্রে	-15387
▁চিকিৎসকদের	-15388
MA	-15389
ুফ	-15390
নাট	-15391
লাব	-15392
emia	-15393
liam	-15394
ogue	-15395
বিসি	-15396
▁PhD	-15397
▁Sus	-15398
▁অনূ	-15399
▁রফত	-15400
enger	-15401
▁Eliz	-15402
▁USDA	-15403
▁herb	-15404
▁কমলা	-15405
▁খোলার	-15406
▁তাহের	-15407
▁নবজাত	-15408
▁ফোর্স	-15409
▁লিভার	-15410
[...]
