<unk>	0
<s>	0
</s>	0
<pad>	0
<|user|>	0
<|assistant|>	0
<|end|>	0
<|system|>	0
<|pad|>	0
<|sep|>	0
<|cls|>	0
<|mask|>	0
<0x00>	0
<0x01>	0
<0x02>	0
<0x03>	0
<0x04>	0
<0x05>	0
<0x06>	0
<0x07>	0
<0x08>	0
<0x09>	0
<0x0A>	0
<0x0B>	0
<0x0C>	0
<0x0D>	0
<0x0E>	0
<0x0F>	0
<0x10>	0
<0x11>	0
<0x12>	0
<0x13>	0
<0x14>	0
<0x15>	0
<0x16>	0
<0x17>	0
<0x18>	0
<0x19>	0
<0x1A>	0
<0x1B>	0
<0x1C>	0
<0x1D>	0
<0x1E>	0
<0x1F>	0
<0x20>	0
<0x21>	0
<0x22>	0
<0x23>	0
<0x24>	0
<0x25>	0
<0x26>	0
<0x27>	0
<0x28>	0
<0x29>	0
<0x2A>	0
<0x2B>	0
<0x2C>	0
<0x2D>	0
<0x2E>	0
<0x2F>	0
<0x30>	0
<0x31>	0
<0x32>	0
<0x33>	0
<0x34>	0
<0x35>	0
<0x36>	0
<0x37>	0
<0x38>	0
<0x39>	0
<0x3A>	0
<0x3B>	0
<0x3C>	0
<0x3D>	0
<0x3E>	0
<0x3F>	0
<0x40>	0
<0x41>	0
<0x42>	0
<0x43>	0
<0x44>	0
<0x45>	0
<0x46>	0
<0x47>	0
<0x48>	0
<0x49>	0
<0x4A>	0
<0x4B>	0
<0x4C>	0
<0x4D>	0
<0x4E>	0
<0x4F>	0
<0x50>	0
<0x51>	0
<0x52>	0
<0x53>	0
<0x54>	0
<0x55>	0
<0x56>	0
<0x57>	0
<0x58>	0
<0x59>	0
<0x5A>	0
<0x5B>	0
<0x5C>	0
<0x5D>	0
<0x5E>	0
<0x5F>	0
<0x60>	0
<0x61>	0
<0x62>	0
<0x63>	0
<0x64>	0
<0x65>	0
<0x66>	0
<0x67>	0
<0x68>	0
<0x69>	0
<0x6A>	0
<0x6B>	0
<0x6C>	0
<0x6D>	0
<0x6E>	0
<0x6F>	0
<0x70>	0
<0x71>	0
<0x72>	0
<0x73>	0
<0x74>	0
<0x75>	0
<0x76>	0
<0x77>	0
<0x78>	0
<0x79>	0
<0x7A>	0
<0x7B>	0
<0x7C>	0
<0x7D>	0
<0x7E>	0
<0x7F>	0
<0x80>	0
<0x81>	0
<0x82>	0
<0x83>	0
<0x84>	0
<0x85>	0
<0x86>	0
<0x87>	0
<0x88>	0
<0x89>	0
<0x8A>	0
<0x8B>	0
<0x8C>	0
<0x8D>	0
<0x8E>	0
<0x8F>	0
<0x90>	0
<0x91>	0
<0x92>	0
<0x93>	0
<0x94>	0
<0x95>	0
<0x96>	0
<0x97>	0
<0x98>	0
<0x99>	0
<0x9A>	0
<0x9B>	0
<0x9C>	0
<0x9D>	0
<0x9E>	0
<0x9F>	0
<0xA0>	0
<0xA1>	0
<0xA2>	0
<0xA3>	0
<0xA4>	0
<0xA5>	0
<0xA6>	0
<0xA7>	0
<0xA8>	0
<0xA9>	0
<0xAA>	0
<0xAB>	0
<0xAC>	0
<0xAD>	0
<0xAE>	0
<0xAF>	0
<0xB0>	0
<0xB1>	0
<0xB2>	0
<0xB3>	0
<0xB4>	0
<0xB5>	0
<0xB6>	0
<0xB7>	0
<0xB8>	0
<0xB9>	0
<0xBA>	0
<0xBB>	0
<0xBC>	0
<0xBD>	0
<0xBE>	0
<0xBF>	0
<0xC0>	0
<0xC1>	0
<0xC2>	0
<0xC3>	0
<0xC4>	0
<0xC5>	0
<0xC6>	0
<0xC7>	0
<0xC8>	0
<0xC9>	0
<0xCA>	0
<0xCB>	0
<0xCC>	0
<0xCD>	0
<0xCE>	0
<0xCF>	0
<0xD0>	0
<0xD1>	0
<0xD2>	0
<0xD3>	0
<0xD4>	0
<0xD5>	0
<0xD6>	0
<0xD7>	0
<0xD8>	0
<0xD9>	0
<0xDA>	0
<0xDB>	0
<0xDC>	0
<0xDD>	0
<0xDE>	0
<0xDF>	0
<0xE0>	0
<0xE1>	0
<0xE2>	0
<0xE3>	0
<0xE4>	0
<0xE5>	0
<0xE6>	0
<0xE7>	0
<0xE8>	0
<0xE9>	0
<0xEA>	0
<0xEB>	0
<0xEC>	0
<0xED>	0
<0xEE>	0
<0xEF>	0
<0xF0>	0
<0xF1>	0
<0xF2>	0
<0xF3>	0
<0xF4>	0
<0xF5>	0
<0xF6>	0
<0xF7>	0
<0xF8>	0
<0xF9>	0
<0xFA>	0
<0xFB>	0
<0xFC>	0
<0xFD>	0
<0xFE>	0
<0xFF>	0
,	-3.44803
.	-3.81122
▁the	-3.88685
।	-3.8984
▁	-4.15133
s	-4.34594
▁of	-4.3733
▁and	-4.48217
▁to	-4.60957
▁a	-4.80826
▁in	-4.89466
-	-4.93916
ের	-5.13766
0	-5.14329
1	-5.20607
র	-5.28927
▁is	-5.32401
:	-5.3545
▁(	-5.4408
2	-5.44144
'	-5.53556
▁that	-5.61361
▁ও	-5.62466
)	-5.64434
▁for	-5.67447
ে	-5.75377
▁The	-5.79889
▁are	-5.90183
▁on	-5.99134
▁-	-5.99711
▁with	-6.00769
▁করে	-6.02322
▁as	-6.08847
▁or	-6.11072
▁be	-6.14965
9	-6.15827
▁এ	-6.16116
ing	-6.17021
▁থেকে	-6.19518
▁by	-6.20292
কে	-6.22495
▁it	-6.27522
▁from	-6.27679
3	-6.27827
▁করা	-6.31288
5	-6.32737
▁হয়েছে	-6.34487
4	-6.34767
ed	-6.39899
▁হয়	-6.42349
▁এই	-6.43555
▁at	-6.45426
8	-6.45832
▁you	-6.47727
▁can	-6.49295
▁have	-6.49496
▁না	-6.50059
▁was	-6.53127
ই	-6.53514
▁an	-6.54591
’	-6.55371
6	-6.59592
▁তিনি	-6.60531
▁'	-6.61425
▁this	-6.63032
▁এবং	-6.63529
▁"	-6.64179
7	-6.64723
t	-6.65353
ও	-6.65721
▁not	-6.75606
d	-6.76788
▁এক	-6.77279
▁হবে	-6.79248
▁।	-6.80286
▁নিয়ে	-6.8191
▁তার	-6.81984
▁বলেন	-6.82597
▁more	-6.83221
▁your	-6.8366
▁জন্য	-6.85327
▁their	-6.85353
▁will	-6.87595
▁A	-6.88992
য়	-6.929
▁they	-6.93979
▁একটি	-6.95199
▁has	-6.95225
▁করেন	-6.95271
▁which	-6.96173
/	-6.9663
?	-6.97071
তে	-6.98291
▁In	-7.04567
ly	-7.07481
▁about	-7.10655
▁করতে	-7.11318
▁এর	-7.12384
টি	-7.13284
;	-7.1405
▁সময়	-7.14574
▁one	-7.14758
ন	-7.15789
e	-7.17437
▁I	-7.18008
▁also	-7.19387
▁but	-7.20417
er	-7.20481
রা	-7.21197
▁মধ্যে	-7.21495
▁were	-7.22059
▁পর	-7.22731
▁other	-7.23169
▁হয়ে	-7.23561
▁This	-7.26931
▁“	-7.27003
▁বলে	-7.27283
y	-7.28045
▁may	-7.28286
▁all	-7.29012
▁সঙ্গে	-7.29279
▁we	-7.30154
▁:	-7.30349
▁than	-7.31668
▁জন	-7.33474
▁পুলিশ	-7.3536
▁জানান	-7.35411
সহ	-7.35594
দের	-7.36292
▁আর	-7.36491
▁It	-7.36907
"	-7.37225
▁–	-7.39227
া	-7.39884
▁তাদের	-7.3993
▁who	-7.42181
▁হাজার	-7.43631
▁করেছে	-7.44237
স	-7.44425
▁people	-7.47569
▁been	-7.47731
▁যায়	-7.4834
▁when	-7.48867
▁into	-7.49102
▁বাংলাদেশ	-7.50656
al	-7.51007
▁করেছেন	-7.51723
ি	-7.51803
▁its	-7.52171
!	-7.52222
▁তবে	-7.52553
▁দিয়ে	-7.53013
▁গত	-7.54804
▁his	-7.55184
▁শুরু	-7.56004
▁out	-7.5648
▁কথা	-7.56535
▁up	-7.5667
▁time	-7.5686
▁these	-7.57325
▁use	-7.58203
▁some	-7.58584
a	-7.5958
ক	-7.60022
▁most	-7.60879
▁he	-7.62048
S	-7.62273
▁যে	-7.63393
▁so	-7.63717
▁ওই	-7.64822
es	-7.65083
▁উপজেলা	-7.65116
▁হচ্ছে	-7.66161
▁new	-7.66207
▁দুই	-7.66343
▁them	-7.66363
ী	-7.67327
▁used	-7.67755
▁first	-7.68203
▁our	-7.68294
▁such	-7.6849
▁if	-7.68834
▁do	-7.69198
▁how	-7.7003
▁ইসলাম	-7.70165
▁তারা	-7.70419
▁নতুন	-7.70513
▁বা	-7.70616
▁বিভিন্ন	-7.70764
▁জেলা	-7.71317
▁করার	-7.72155
▁রয়েছে	-7.7219
▁মো	-7.72326
▁over	-7.73501
▁said	-7.73636
).	-7.73913
▁আগে	-7.74265
ল	-7.74395
▁water	-7.74528
▁there	-7.74586
re	-7.74816
▁ছিলেন	-7.75309
▁আজ	-7.75545
▁many	-7.76098
▁what	-7.76638
▁two	-7.78316
n	-7.78676
th	-7.78939
▁only	-7.79459
▁would	-7.79772
▁had	-7.80377
▁কাজ	-7.81009
▁টাকা	-7.81188
▁সম্পাদক	-7.81207
▁তা	-7.81311
▁years	-7.81689
▁পর্যন্ত	-7.81693
▁১	-7.82672
▁প্রথম	-7.82732
ম	-7.82998
▁|	-7.83112
▁হোসেন	-7.83468
▁হিসেবে	-7.84316
▁ঢাকা	-7.84704
▁বছর	-7.85068
),	-7.85397
▁রহমান	-7.85559
▁like	-7.85904
in	-7.86007
▁উপজেলার	-7.86267
▁C	-7.86447
▁তাকে	-7.86666
▁কিন্তু	-7.87195
▁১০	-7.87231
▁গেছে	-7.87666
▁আরও	-7.87749
▁সেই	-7.88242
▁২	-7.8911
com	-7.89396
▁করোনা	-7.89906
▁through	-7.90852
▁S	-7.9106
▁জাতীয়	-7.91443
▁দিন	-7.91596
▁প্রধান	-7.9208
▁information	-7.93553
r	-7.93593
▁If	-7.94001
▁no	-7.94279
▁আমরা	-7.94699
▁help	-7.94772
▁ছিল	-7.95366
▁make	-7.95392
▁দেখা	-7.96107
▁৩	-7.96124
▁খবর	-7.97445
▁children	-7.97617
▁any	-7.97891
or	-7.98169
▁পারে	-7.98202
▁কোনো	-7.98917
▁জানা	-7.99196
▁দেশের	-7.99392
▁well	-7.99632
▁৫	-7.99767
▁সাথে	-7.99871
▁পরে	-8.00309
না	-8.00569
▁শেখ	-8.00711
▁দিকে	-8.01149
▁সভাপতি	-8.01672
▁বিরুদ্ধে	-8.01684
▁could	-8.01784
▁সে	-8.02332
▁আমাদের	-8.02338
▁between	-8.03163
▁work	-8.03458
▁should	-8.03921
▁মে	-8.04002
▁সব	-8.04127
▁For	-8.04183
▁এখন	-8.04376
▁study	-8.04907
▁found	-8.06425
▁সাধারণ	-8.06464
m	-8.06691
▁শেষ	-8.06999
▁২০২০	-8.07026
▁প্রকাশ	-8.07333
▁৪	-8.08131
▁তথ্য	-8.08729
▁হতে	-8.08908
▁উদ্ধার	-8.09141
▁where	-8.09376
▁লাখ	-8.09396
▁২০২১	-8.09879
▁দেওয়া	-8.10192
▁year	-8.11175
▁সরকার	-8.11535
▁students	-8.11696
▁কাছে	-8.1177
▁health	-8.12571
▁কর্মকর্তা	-8.1278
▁বেশি	-8.12858
▁কিছু	-8.13306
▁সদস্য	-8.13421
▁মাধ্যমে	-8.13445
ব	-8.13509
▁বুধবার	-8.13757
ers	-8.1382
▁because	-8.14778
o	-8.15186
▁high	-8.15798
▁U	-8.1585
i	-8.1589
▁after	-8.16337
▁অভিযোগ	-8.16691
”	-8.1705
▁সোমবার	-8.17368
▁world	-8.17462
▁those	-8.18207
▁মঙ্গলবার	-8.18232
▁each	-8.18482
▁very	-8.18512
▁হাসপাতালে	-8.18632
▁চেয়ারম্যান	-8.18719
▁বৃহস্পতিবার	-8.19114
ত	-8.19155
▁way	-8.19256
,"	-8.19493
▁B	-8.19728
."	-8.19755
শ	-8.19923
▁আমি	-8.19981
▁need	-8.20048
g	-8.20185
▁just	-8.20473
▁মৃত্যু	-8.20559
▁অনেক	-8.20596
▁নিহত	-8.21466
▁during	-8.2148
▁কারণে	-8.21919
▁১২	-8.22244
▁News	-8.2225
▁আটক	-8.22466
▁research	-8.22783
▁E	-8.22821
▁University	-8.22855
▁ছেলে	-8.23162
▁নয়	-8.2321
▁get	-8.23376
▁৬	-8.2357
▁নেই	-8.23967
▁সংবাদ	-8.24013
▁এলাকায়	-8.24062
তা	-8.24146
▁২০১৯	-8.24171
▁আওয়ামী	-8.24318
▁২৪	-8.24482
▁D	-8.24864
▁system	-8.24947
বি	-8.24963
▁তিন	-8.25149
▁শনিবার	-8.25456
]	-8.25505
▁then	-8.25631
▁উপস্থিত	-8.25664
▁প্রকাশিত	-8.26029
▁even	-8.26126
▁প্রধানমন্ত্রী	-8.263
▁অনুষ্ঠিত	-8.26331
▁দেন	-8.26344
▁different	-8.26373
▁much	-8.2656
▁They	-8.27066
▁To	-8.27318
▁প্রায়	-8.27351
▁বিষয়ে	-8.27415
▁বড়	-8.27515
▁ডেস্ক	-8.27746
▁১১	-8.2795
টা	-8.28473
▁life	-8.28543
ation	-8.28545
▁He	-8.28707
পুর	-8.28877
▁important	-8.28989
A	-8.2918
▁see	-8.29288
▁আছে	-8.29422
▁re	-8.30068
▁নাম	-8.30152
▁দেশে	-8.3036
c	-8.30423
ic	-8.30544
▁৭	-8.30821
▁আমার	-8.30895
▁part	-8.31278
▁শুক্রবার	-8.31472
▁disease	-8.316
▁এমন	-8.31905
▁জানিয়েছেন	-8.31963
▁But	-8.32075
▁New	-8.32453
▁২০	-8.32602
▁Home	-8.32672
▁দল	-8.32812
▁using	-8.32833
▁হয়েছেন	-8.33067
।'	-8.33634
▁being	-8.33836
ার	-8.33882
▁আ	-8.34394
%	-8.34586
নি	-8.34697
▁ঘোষণা	-8.34904
▁made	-8.34907
▁নিশ্চিত	-8.35029
▁food	-8.35605
C	-8.35618
▁You	-8.35633
▁আক্রান্ত	-8.35915
▁before	-8.35963
▁We	-8.36191
▁স্বাস্থ্য	-8.36199
▁ধরে	-8.36751
▁data	-8.36889
▁গ্রামের	-8.36919
▁long	-8.37236
▁প্রতি	-8.37453
▁সকাল	-8.37504
▁বছরের	-8.37783
▁day	-8.37844
ো	-8.37867
জ	-8.37986
▁১৫	-8.38
▁তাই	-8.38258
▁১৯	-8.38316
▁এবার	-8.38673
▁৮	-8.38817
▁থানার	-8.38854
▁অ	-8.39041
▁বিশেষ	-8.39082
▁নিউজ	-8.39184
▁দিতে	-8.39217
▁যাবে	-8.39233
▁করছে	-8.39253
▁মামলা	-8.39309
▁same	-8.39414
▁এতে	-8.3951
▁দলের	-8.39705
▁হলে	-8.3978
▁বাংলাদেশের	-8.39795
▁often	-8.39862
▁মানুষ	-8.40055
▁[	-8.40277
▁মা	-8.40457
▁around	-8.40569
▁body	-8.40569
▁number	-8.40761
▁কোন	-8.40771
▁What	-8.40815
▁ঘটনা	-8.40816
▁দাবি	-8.41325
D	-8.41385
▁কোটি	-8.41466
▁জুন	-8.41535
on	-8.41556
▁বন্ধ	-8.41631
▁take	-8.42112
▁বলা	-8.42262
▁খান	-8.42532
▁আগামী	-8.42549
▁says	-8.42596
an	-8.42698
▁T	-8.4279
▁both	-8.42887
▁G	-8.42943
▁অক্টোবর	-8.43054
▁P	-8.43074
▁সেপ্টেম্বর	-8.43386
▁blood	-8.43411
▁her	-8.43729
▁আল	-8.43976
▁called	-8.44184
▁ঘটনায়	-8.44218
▁সহ	-8.44219
us	-8.44521
▁দেয়া	-8.44543
▁including	-8.44689
▁আরো	-8.44767
ion	-8.44833
▁three	-8.44887
▁American	-8.45143
▁There	-8.4521
l	-8.4542
▁now	-8.45645
▁under	-8.45736
▁মার্চ	-8.45831
ভাবে	-8.46029
.”	-8.46106
▁M	-8.46213
▁স্থানীয়	-8.46317
▁পাওয়া	-8.46853
▁school	-8.46854
▁As	-8.4706
—	-8.47274
▁যা	-8.47525
▁মতো	-8.48022
▁জুলাই	-8.48153
(	-8.48269
▁de	-8.48438
▁সাবেক	-8.48821
▁সদর	-8.48918
▁মানুষের	-8.49066
▁good	-8.4921
k	-8.4924
▁আহত	-8.49245
▁risk	-8.49286
▁energy	-8.49447
▁ছবি	-8.49483
▁child	-8.49871
to	-8.50271
▁৯	-8.50514
▁small	-8.50567
▁while	-8.50652
ve	-8.50777
▁একজন	-8.51167
এ	-8.51872
▁back	-8.51985
ট	-8.52332
▁When	-8.52595
▁percent	-8.52696
▁এপ্রিল	-8.53009
প	-8.53094
▁টি	-8.53111
▁নামে	-8.53164
▁known	-8.53212
▁কি	-8.53306
▁বিষয়টি	-8.53466
▁know	-8.53566
দ	-8.53592
▁১৪	-8.54072
▁National	-8.54357
▁দু	-8.54418
▁These	-8.54606
▁তাঁর	-8.54727
▁species	-8.54804
▁আলী	-8.54872
▁নভেম্বর	-8.54899
▁আপডেট	-8.55181
▁ইউনিয়নের	-8.55217
▁us	-8.55551
▁পুলিশের	-8.55562
▁গিয়ে	-8.55616
▁এসব	-8.5562
িং	-8.55651
▁F	-8.55692
▁সামনে	-8.55943
মা	-8.56035
▁সালে	-8.56127
▁বি	-8.56397
▁সকালে	-8.56639
▁হক	-8.56804
▁human	-8.5775
▁include	-8.57895
িত	-8.58069
▁দেশ	-8.58101
▁রাতে	-8.58223
▁un	-8.58468
▁তৈরি	-8.5899
▁area	-8.59386
p	-8.59696
▁আন্তর্জাতিক	-8.59815
▁জনের	-8.59856
The	-8.59969
B	-8.60022
▁সংখ্যা	-8.60094
ঃ	-8.60109
able	-8.60445
▁পড়ে	-8.6047
en	-8.60529
▁গ্রেফতার	-8.60536
▁ভারতের	-8.60564
▁find	-8.60681
▁হওয়ার	-8.60923
▁অংশ	-8.61126
ুল	-8.61436
▁রাত	-8.61471
▁ব্যবস্থা	-8.61675
ll	-8.61744
▁জানুয়ারি	-8.6231
b	-8.6232
▁করছেন	-8.62363
▁লীগের	-8.62414
▁সেখানে	-8.62448
▁শিক্ষা	-8.62835
▁শেষে	-8.62851
▁K	-8.63544
▁দিয়েছেন	-8.63713
▁সরকারি	-8.63714
▁—	-8.63778
▁change	-8.63951
F	-8.64027
▁বলেছেন	-8.64143
▁United	-8.6416
▁নেতা	-8.64236
▁এলাকার	-8.64248
১	-8.64472
▁নারী	-8.64832
the	-8.6488
▁per	-8.64994
▁এম	-8.65061
▁একই	-8.65567
▁large	-8.65573
I	-8.65627
▁হাসান	-8.65627
▁যাচ্ছে	-8.65668
▁আলম	-8.65681
▁common	-8.65843
▁cancer	-8.65861
▁বাড়ি	-8.65895
▁১৩	-8.65995
▁state	-8.66051
▁মোঃ	-8.66121
গুলো	-8.66371
▁১৮	-8.66397
▁বেশ	-8.66414
▁ড	-8.6647
▁does	-8.66516
▁own	-8.66614
▁down	-8.66697
|	-8.67361
▁women	-8.67362
▁less	-8.67523
▁দিয়েছে	-8.67754
▁মনে	-8.68084
st	-8.68217
▁And	-8.68277
▁নির্বাচন	-8.68379
▁২০১৮	-8.68444
▁still	-8.68555
▁১৬	-8.68602
▁মারা	-8.68714
▁সিদ্ধান্ত	-8.68782
▁আগস্ট	-8.68985
▁H	-8.68992
||	-8.69042
▁power	-8.691
▁এরপর	-8.69332
▁থাকে	-8.69492
▁example	-8.69664
▁early	-8.69818
▁পরীক্ষা	-8.69963
কা	-8.69996
▁এটি	-8.70008
▁বাংলা	-8.70365
▁নিজের	-8.70399
▁cause	-8.70437
▁১৭	-8.70469
▁দ্বিতীয়	-8.7047
▁কে	-8.70708
▁ডিসেম্বর	-8.70709
▁মোহাম্মদ	-8.70798
▁must	-8.70948
▁তুলে	-8.71262
▁every	-8.7129
▁হাতে	-8.71435
▁হলো	-8.71463
▁form	-8.71509
▁অনুষ্ঠানে	-8.71552
▁she	-8.71822
▁পেয়ে	-8.71999
▁/	-8.72102
,”	-8.72114
▁কলেজ	-8.7236
▁চৌধুরী	-8.72369
▁ভালো	-8.72754
▁সালের	-8.72779
▁জানিয়েছে	-8.72806
▁here	-8.72926
▁my	-8.73351
▁R	-8.73491
▁উদ্দিন	-8.73538
▁last	-8.73741
জি	-8.7392
ity	-8.73975
▁ওপর	-8.74211
▁পরিবারের	-8.74215
▁home	-8.74236
লা	-8.74243
▁right	-8.7436
▁কম	-8.74438
▁থাকা	-8.74565
x	-8.74737
▁যান	-8.75112
▁development	-8.75193
▁off	-8.75248
▁might	-8.75325
▁history	-8.75405
▁হন	-8.75471
▁available	-8.75507
▁দেয়	-8.75511
▁light	-8.75534
▁ফলে	-8.75586
man	-8.75852
▁চার	-8.75884
▁N	-8.7602
▁স	-8.76075
▁States	-8.7609
▁চেষ্টা	-8.76461
▁few	-8.76589
▁ভর্তি	-8.76684
▁group	-8.76968
▁প্রতিনিধি	-8.771
▁মোট	-8.77184
▁treatment	-8.77535
▁গতকাল	-8.77662
▁Dr	-8.77674
▁সরকারের	-8.77703
▁২১	-8.77993
▁৩০	-8.78005
লি	-8.78049
▁go	-8.78114
▁public	-8.7831
▁&	-8.78354
▁দক্ষিণ	-8.78388
▁cells	-8.78684
সি	-8.788
ু	-8.78825
P	-8.78971
▁সাড়ে	-8.79209
▁মৃত	-8.79329
▁don	-8.79428
▁family	-8.79499
▁থানায়	-8.79577
▁ব্যবহার	-8.79661
▁So	-8.79696
▁করবে	-8.79717
▁place	-8.79926
▁process	-8.79956
ive	-8.8021
▁অভিযান	-8.80431
▁আবেদন	-8.80854
▁ই	-8.80885
▁অবস্থায়	-8.81335
▁L	-8.81369
▁within	-8.81553
▁better	-8.81588
▁পরিচালক	-8.81658
ফ	-8.81799
▁program	-8.81846
▁heart	-8.81857
▁areas	-8.81901
▁researchers	-8.81964
▁এছাড়া	-8.82228
▁বিতরণ	-8.8236
▁provide	-8.82471
▁২৫	-8.82694
▁আহমেদ	-8.82753
ছে	-8.8298
▁ঘটে	-8.83118
লে	-8.83247
▁age	-8.8327
▁উপ	-8.83277
T	-8.83349
le	-8.83408
▁million	-8.83611
▁another	-8.83632
▁কেউ	-8.8387
▁করবেন	-8.83882
▁নির্বাহী	-8.83957
▁থাকবে	-8.84063
▁without	-8.84448
▁নিতে	-8.84528
▁চলছে	-8.84609
▁বক্তব্য	-8.84736
▁become	-8.84851
▁রোববার	-8.84916
▁name	-8.84924
সা	-8.85021
▁উত্তর	-8.85181
▁O	-8.85249
▁হত্যা	-8.85283
▁কারণ	-8.8538
▁পাশাপাশি	-8.85532
▁অফিসার	-8.85768
▁set	-8.85826
▁--	-8.85848
▁জেলার	-8.8606
▁several	-8.86427
▁learn	-8.86583
▁test	-8.86674
▁ডা	-8.86765
ড	-8.86797
▁শিশু	-8.86804
▁আলোচনা	-8.86851
▁ধরনের	-8.86902
২	-8.86903
্য	-8.8705
▁নি	-8.87145
▁বিএনপি	-8.87165
▁ভারত	-8.87477
▁problems	-8.87706
▁বিভাগের	-8.87751
▁Re	-8.87766
▁ম	-8.88051
▁এসময়	-8.88166
▁দুপুরে	-8.88408
▁ফেব্রুয়ারি	-8.88461
▁মাঝে	-8.88487
▁best	-8.88525
▁W	-8.88657
▁২২	-8.88704
▁শতাংশ	-8.88752
it	-8.88768
▁আদালত	-8.88793
▁হয়েছিল	-8.88842
▁জয়	-8.88855
য়ে	-8.88908
▁An	-8.88933
▁look	-8.88985
▁অন্য	-8.89035
ia	-8.8931
▁type	-8.89366
▁রবিবার	-8.89371
W	-8.89728
▁care	-8.89759
ry	-8.8976
িক	-8.89777
ঁ	-8.89918
G	-8.90109
▁end	-8.90149
▁think	-8.90203
▁One	-8.90469
▁ভারতীয়	-8.90511
▁By	-8.90512
▁ক্রিকেট	-8.90697
▁p	-8.90828
▁too	-8.90997
▁এদিকে	-8.91054
▁natural	-8.91055
▁levels	-8.91272
▁book	-8.91324
▁want	-8.91981
▁project	-8.92007
▁বার	-8.92034
▁কমিটির	-8.92098
▁low	-8.92103
▁person	-8.92378
H	-8.92471
▁How	-8.92523
ment	-8.9262
তম	-8.92688
টির	-8.92942
▁However	-8.92997
▁শিক্ষক	-8.93023
▁হয়নি	-8.93031
▁usually	-8.931
▁All	-8.93242
is	-8.93362
▁থেকেই	-8.93449
এর	-8.93578
▁সু	-8.93654
গ	-8.93687
▁বিএনপির	-8.93781
▁জানানো	-8.9389
▁আব্দুল	-8.93931
▁রান	-8.94125
▁সিলেট	-8.94301
▁following	-8.94503
▁Some	-8.94532
▁অনলাইন	-8.94714
▁স্ত্রী	-8.94722
▁possible	-8.94816
▁since	-8.94977
▁local	-8.9513
▁ম্যাচ	-8.95233
K	-8.95332
▁great	-8.95351
▁$	-8.9544
▁যদি	-8.95522
f	-8.95633
▁air	-8.95689
▁আইন	-8.95783
▁times	-8.95938
▁কেন্দ্রীয়	-8.95966
▁দিনের	-8.96032
১৯	-8.96118
▁ইউনিয়ন	-8.96167
▁জানায়	-8.96309
▁ছাড়া	-8.96395
N	-8.965
h	-8.96642
▁support	-8.96656
▁able	-8.96873
▁বিশ্ব	-8.96925
▁control	-8.97193
▁brain	-8.97257
▁social	-8.97346
▁likely	-8.97591
▁বাড়িতে	-8.97619
▁অপরাহ্ণ	-8.97666
▁J	-8.97697
▁site	-8.97883
▁did	-8.97906
M	-8.97915
জন	-8.97971
▁নেওয়া	-8.98043
▁হওয়া	-8.98154
and	-8.98335
▁government	-8.98395
▁Health	-8.98527
▁report	-8.98695
ate	-8.98836
▁অতিথি	-8.98917
▁ঘটনার	-8.99078
...	-8.99147
▁level	-8.99274
▁among	-8.99306
▁means	-8.99345
▁সি	-8.99398
▁Earth	-8.99407
▁চট্টগ্রাম	-8.9943
▁সড়ক	-8.99675
▁say	-8.9981
as	-8.99833
▁plant	-8.99834
▁দৈনিক	-8.99895
▁সকল	-8.99901
▁পালন	-8.99961
▁ম্যাচে	-9.0002
▁দুটি	-9.0008
হ	-9.00241
▁order	-9.00331
▁মেডিকেল	-9.0036
▁২৩	-9.00378
▁অন্যান্য	-9.00605
L	-9.0069
▁science	-9.00943
▁সভায়	-9.01088
ism	-9.01192
▁রাখা	-9.01304
▁non	-9.01339
▁ভিডিও	-9.01346
▁four	-9.01467
co	-9.01513
▁এসে	-9.01733
▁today	-9.01775
▁days	-9.01811
▁মাদক	-9.01847
▁মার্কিন	-9.01943
▁পা	-9.02026
▁চলে	-9.02054
▁সুযোগ	-9.02116
–	-9.02133
▁based	-9.02153
▁দায়িত্ব	-9.02528
▁যেতে	-9.02583
▁রেখে	-9.02623
il	-9.02749
▁results	-9.02796
রি	-9.0282
▁little	-9.02879
▁symptoms	-9.02944
▁সময়ে	-9.03265
▁মামলার	-9.03469
▁মাস	-9.03642
▁মাঠে	-9.0365
E	-9.0369
▁against	-9.03955
▁problem	-9.03965
▁একটা	-9.04132
▁বঙ্গবন্ধু	-9.04189
▁খুব	-9.04467
▁ক	-9.04518
▁হল	-9.04678
▁পাঁচ	-9.0483
▁learning	-9.04965
ং	-9.05193
ar	-9.0521
▁come	-9.05256
▁until	-9.0529
▁plants	-9.05474
▁অনুযায়ী	-9.05492
ness	-9.05525
▁On	-9.05548
▁গ্রহণ	-9.05561
▁At	-9.05771
▁উপলক্ষে	-9.05934
▁বিশ্ববিদ্যালয়ের	-9.06117
ist	-9.06274
▁May	-9.06276
▁মিয়া	-9.06286
▁World	-9.06339
▁point	-9.06386
▁প্রেসিডেন্ট	-9.06626
▁উপর	-9.067
▁করোনায়	-9.06723
▁ভোট	-9.06858
▁রায়	-9.06973
▁making	-9.07091
▁education	-9.07271
ুর	-9.07295
▁পক্ষ	-9.07697
▁given	-9.0788
▁লাশ	-9.08023
▁article	-9.08184
▁তখন	-9.08211
▁সামাজিক	-9.0828
na	-9.08306
▁নির্বাচনে	-9.08353
▁country	-9.08445
▁read	-9.08469
▁অব	-9.08767
▁space	-9.08782
▁আবার	-9.08865
▁result	-9.08953
▁লীগ	-9.0909
▁skin	-9.09093
▁থানা	-9.09172
▁যাওয়ার	-9.09372
▁সুপার	-9.09375
▁medical	-9.09452
য়া	-9.09592
▁উদ্বোধন	-9.09597
▁শুধু	-9.09669
▁increase	-9.09684
up	-9.09722
▁young	-9.10078
▁words	-9.10141
▁develop	-9.10157
▁অতিরিক্ত	-9.10205
▁প্রদান	-9.10222
ভ	-9.10227
▁এগিয়ে	-9.10252
▁century	-9.10304
▁technology	-9.10335
▁পাশে	-9.10393
▁That	-9.10613
▁প্র	-9.1063
▁major	-9.10637
▁পরিষদের	-9.10666
▁অর্থ	-9.10734
▁me	-9.10772
▁তদন্ত	-9.10843
▁conditions	-9.10858
▁এটা	-9.10924
▁সংসদ	-9.11111
el	-9.11136
▁রাজধানীর	-9.11156
▁মামলায়	-9.11288
বা	-9.11503
২০	-9.1153
▁climate	-9.11589
▁free	-9.11608
ine	-9.11715
ton	-9.11747
▁সবচেয়ে	-9.11765
▁পারেন	-9.11815
▁next	-9.11837
আ	-9.12033
at	-9.12139
▁সম্প্রতি	-9.12208
▁show	-9.12247
ির	-9.12255
▁Science	-9.12329
পি	-9.12336
▁সভা	-9.12418
▁land	-9.12433
▁least	-9.12592
▁গ্রেপ্তার	-9.12665
▁scientists	-9.1276
▁War	-9.12989
▁»	-9.13006
▁him	-9.13016
▁population	-9.13253
তি	-9.13301
▁according	-9.13359
▁current	-9.13377
▁শনাক্ত	-9.13404
▁full	-9.13415
▁second	-9.13435
▁surface	-9.13515
▁বের	-9.13532
▁community	-9.13672
▁২৬	-9.13739
▁St	-9.13832
▁আপনার	-9.14036
▁create	-9.14064
▁মেয়র	-9.14121
▁lower	-9.14154
▁patients	-9.14351
▁নানা	-9.14427
▁বর্তমানে	-9.1456
▁higher	-9.14574
জা	-9.14605
▁c	-9.14708
▁হলেন	-9.14708
▁দাম	-9.1473
▁across	-9.14961
▁ছাত্র	-9.15041
▁keep	-9.15043
▁things	-9.1507
▁বিয়ে	-9.15079
▁Do	-9.15145
▁কোনও	-9.15292
▁প্রাথমিক	-9.15446
▁দায়ের	-9.15473
▁published	-9.15536
▁others	-9.15573
▁along	-9.15603
▁lead	-9.1573
বে	-9.15849
▁সচিব	-9.15941
▁পাঠানো	-9.15986
▁course	-9.16015
▁above	-9.1606
um	-9.16068
▁আদালতে	-9.16156
▁২৮	-9.16172
▁আয়োজন	-9.16259
▁Center	-9.16298
▁language	-9.16377
▁together	-9.16423
▁করি	-9.16448
▁করলে	-9.16491
▁team	-9.1653
▁নির্দেশ	-9.16568
▁কুমার	-9.16602
▁America	-9.16674
চ	-9.16734
am	-9.16884
▁দেখে	-9.17202
▁হাসিনা	-9.1722
ণ	-9.17333
▁দেখতে	-9.17346
▁পানি	-9.17391
▁resources	-9.17555
▁No	-9.17567
▁তো	-9.17606
▁far	-9.17607
৩	-9.17656
O	-9.17733
▁উন্নয়ন	-9.17753
ies	-9.1787
▁২৭	-9.17891
▁changes	-9.17893
▁fact	-9.17897
▁পরিবার	-9.17919
▁আসে	-9.18064
▁থাকতে	-9.18106
▁হামলা	-9.18131
▁future	-9.18244
▁English	-9.1825
কার	-9.1827
de	-9.18508
▁later	-9.18697
লো	-9.1876
▁give	-9.18805
▁left	-9.18851
▁away	-9.19048
▁studies	-9.19116
▁environment	-9.19167
▁দেওয়ার	-9.19237
ডি	-9.19245
▁চালিয়ে	-9.19289
▁case	-9.19331
▁জীবন	-9.19386
▁নেয়া	-9.19425
▁কয়েক	-9.19638
▁অবস্থান	-9.19762
▁past	-9.19822
▁সাংবাদিক	-9.19892
িয়া	-9.19935
▁সূত্রে	-9.20365
মি	-9.20549
ian	-9.20621
▁gas	-9.20642
▁মন্তব্য	-9.20713
▁activity	-9.20716
▁range	-9.20805
▁বেগম	-9.2081
▁যাওয়া	-9.20869
▁Research	-9.20928
▁প্রার্থী	-9.21119
▁ব্যাপারে	-9.21252
▁বাংলাদেশে	-9.21256
▁রাখেন	-9.21324
▁men	-9.21486
▁করোনার	-9.21538
▁something	-9.21542
▁অধ্যাপক	-9.21573
▁North	-9.21667
▁countries	-9.21678
▁বিপক্ষে	-9.21751
▁দ্রুত	-9.21761
▁আগুন	-9.21762
▁why	-9.21782
ary	-9.21801
▁সমস্যা	-9.21801
▁সংস্থা	-9.21874
▁especially	-9.21981
ne	-9.22029
age	-9.22074
নে	-9.2211
▁এলাকা	-9.22181
▁page	-9.22214
▁ক্ষেত্রে	-9.22334
▁white	-9.22362
▁pressure	-9.22379
▁enough	-9.22512
স্ট	-9.22512
▁developed	-9.22521
▁word	-9.22542
ty	-9.22555
▁side	-9.22559
▁মাত্র	-9.22569
▁মন্ত্রী	-9.22611
lo	-9.22722
ul	-9.22785
▁systems	-9.22802
v	-9.22868
ling	-9.22904
▁চিকিৎসা	-9.22946
▁e	-9.22956
▁online	-9.23088
▁নিজ	-9.2311
▁paper	-9.23122
▁working	-9.23165
ra	-9.23229
▁সহকারী	-9.23268
▁due	-9.23275
▁হলেও	-9.23339
▁sea	-9.23369
▁কেন্দ্র	-9.23448
▁computer	-9.23461
▁reduce	-9.23657
েই	-9.23676
▁five	-9.23771
▁এস	-9.23796
▁live	-9.23804
▁বাজার	-9.23847
▁access	-9.2392
▁b	-9.23942
▁present	-9.23946
▁ব্যাংক	-9.24164
▁source	-9.24169
▁doctor	-9.24207
উ	-9.24232
▁cases	-9.24306
▁ডি	-9.24309
▁যারা	-9.24456
▁animals	-9.24484
ant	-9.24591
▁ছোট	-9.2465
▁বাস	-9.24839
▁মোবাইল	-9.25025
▁short	-9.25224
▁ago	-9.25346
▁key	-9.25368
▁amount	-9.25443
▁২০১৭	-9.25619
▁prevent	-9.25628
▁activities	-9.25664
▁physical	-9.2572
▁মুক্তি	-9.25726
দা	-9.25747
তার	-9.25768
▁start	-9.25781
▁Most	-9.25946
▁শহরের	-9.25987
ড়	-9.26027
V	-9.26167
▁নম্বর	-9.26338
▁কী	-9.26344
▁সিটি	-9.26363
▁সর্বোচ্চ	-9.26422
rs	-9.26436
▁গেছেন	-9.26518
▁রাখতে	-9.26625
://	-9.26644
▁period	-9.26668
▁similar	-9.26736
▁হার	-9.26822
▁School	-9.26874
▁line	-9.26936
▁রয়েছেন	-9.27043
ent	-9.27077
et	-9.27226
পাড়া	-9.27241
tic	-9.27403
▁sure	-9.27403
_	-9.27416
▁types	-9.27449
▁More	-9.27483
▁পরিচালনা	-9.27573
▁কা	-9.27585
▁black	-9.27655
▁কমিটি	-9.27676
ous	-9.27688
ur	-9.2772
▁near	-9.27735
▁চেয়ে	-9.27921
▁weight	-9.27986
z	-9.28179
▁specific	-9.28253
▁নামের	-9.28274
org	-9.28314
▁স্কুল	-9.28383
▁যোগ	-9.28385
▁size	-9.284
▁pre	-9.28518
▁hard	-9.28554
▁বিশ্বের	-9.2859
▁fish	-9.28677
▁অভিনয়	-9.28704
▁design	-9.28713
▁field	-9.28725
▁effects	-9.28725
▁hand	-9.28737
▁old	-9.28802
▁image	-9.28899
▁সৌদি	-9.28932
▁জানতে	-9.28941
▁While	-9.28991
▁understand	-9.28998
▁story	-9.29031
▁‘	-9.29081
ting	-9.29123
▁আছেন	-9.29133
▁below	-9.29159
▁পথে	-9.29169
টার	-9.29201
▁whether	-9.29209
▁যখন	-9.29254
▁খেলা	-9.29288
▁যার	-9.29296
▁কার্যক্রম	-9.2938
▁বাবা	-9.29387
▁>	-9.29436
▁parents	-9.29468
▁material	-9.29532
▁৫০	-9.29612
▁টাকার	-9.29728
▁নিজস্ব	-9.29819
▁Department	-9.29838
▁news	-9.29854
▁After	-9.29866
▁যোগাযোগ	-9.29911
▁co	-9.29981
▁গ্রামে	-9.30011
▁শেয়ার	-9.30312
ce	-9.30334
▁করুন	-9.30344
▁products	-9.30432
▁healthy	-9.3055
est	-9.30612
▁State	-9.30666
▁always	-9.30759
▁V	-9.30788
▁impact	-9.30888
▁উচ্চ	-9.30926
▁oil	-9.30948
▁হাত	-9.30994
▁যেন	-9.31065
▁Institute	-9.31137
▁cell	-9.31213
▁Your	-9.31287
▁নিরাপত্তা	-9.31309
▁•	-9.31399
▁আবু	-9.31455
ch	-9.31506
বার	-9.31538
▁স্থানে	-9.31593
▁ঠিক	-9.31601
য়ের	-9.31646
▁থাকার	-9.3169
▁রি	-9.31697
▁ভাই	-9.3171
▁পরিষদ	-9.31808
▁real	-9.31833
▁ways	-9.31939
▁put	-9.31944
▁created	-9.32081
▁আসা	-9.32086
▁পিএম	-9.32117
R	-9.32176
▁এসেছে	-9.32189
▁open	-9.32201
▁প্রমুখ	-9.3221
▁ভারপ্রাপ্ত	-9.32267
▁provides	-9.32278
▁South	-9.32286
▁certain	-9.32354
▁পরিস্থিতি	-9.32394
৪	-9.32418
▁সম্পর্কে	-9.32419
son	-9.32487
▁শাহ	-9.32519
▁প্রতিষ্ঠান	-9.32615
▁months	-9.32735
▁man	-9.32841
▁বে	-9.32916
▁With	-9.33009
os	-9.33092
৫	-9.33163
▁week	-9.3329
▁টিকা	-9.33409
▁pain	-9.33538
▁খালেদা	-9.33597
▁global	-9.3375
কারী	-9.33829
)।	-9.34011
▁needs	-9.34036
▁জি	-9.34219
▁having	-9.34227
▁সেবা	-9.34228
▁অভিযোগে	-9.34264
ষ	-9.34288
me	-9.34317
▁বাজারে	-9.34345
▁দিবস	-9.34442
▁done	-9.34469
▁সারা	-9.34591
▁সভাপতিত্বে	-9.34652
▁f	-9.34689
w	-9.3479
▁মু	-9.34824
▁ফিরে	-9.34898
▁Many	-9.34979
▁জানিয়ে	-9.35064
▁general	-9.35225
▁বিভাগ	-9.35275
▁আহমদ	-9.35369
▁growth	-9.35393
▁national	-9.35552
ভি	-9.35736
▁দেশটির	-9.35951
▁পারবেন	-9.35954
▁seen	-9.3599
▁half	-9.36007
▁head	-9.36103
▁however	-9.36182
ীয়	-9.36222
▁really	-9.36236
▁দিনে	-9.36238
▁কাদের	-9.3633
থ	-9.36345
▁going	-9.36357
▁ঘটনাস্থলে	-9.36393
▁আশা	-9.36447
▁চাই	-9.36479
▁কেন	-9.36795
▁various	-9.36808
▁John	-9.36821
▁মহিলা	-9.3692
▁মেয়ে	-9.36923
▁student	-9.36975
▁rights	-9.36991
id	-9.37015
▁ওসি	-9.37093
▁De	-9.37096
▁সম্ভব	-9.37118
ড়া	-9.37135
▁questions	-9.37172
▁kids	-9.37193
▁region	-9.37256
▁function	-9.37274
ma	-9.37309
▁rate	-9.37378
u	-9.37409
▁shows	-9.37484
▁আই	-9.37485
▁বেড়ে	-9.37606
▁living	-9.37628
▁X	-9.37637
▁lot	-9.37798
▁বিক্রি	-9.3785
▁অধিনায়ক	-9.3793
▁production	-9.37958
▁*	-9.37962
▁পরিকল্পনা	-9.38143
▁already	-9.38185
▁became	-9.38185
▁further	-9.38185
▁সা	-9.38191
▁experience	-9.38288
▁তাহলে	-9.38348
▁পি	-9.38466
▁২৯	-9.38536
▁অভিনেত্রী	-9.38549
▁আসছে	-9.38588
no	-9.38592
৩০	-9.38597
ta	-9.38604
▁ঘরে	-9.38743
▁তৃতীয়	-9.3883
▁গেলে	-9.39006
▁মৃত্যুর	-9.39055
▁death	-9.39256
▁never	-9.39295
▁reading	-9.3933
▁makes	-9.3945
▁environmental	-9.39522
▁related	-9.39523
▁আপনি	-9.39663
▁taken	-9.3969
ir	-9.39713
▁role	-9.39724
পা	-9.39777
▁play	-9.39807
▁উল্লেখ	-9.40025
▁materials	-9.40092
▁city	-9.40171
▁text	-9.40227
▁ইউপি	-9.40235
▁Bangla	-9.40252
▁class	-9.40252
▁single	-9.40333
▁অপরাহ্ন	-9.40345
▁evidence	-9.4037
▁ঘণ্টায়	-9.40438
▁এখনও	-9.40537
▁contact	-9.40537
▁কু	-9.40602
▁নিজেদের	-9.40681
▁red	-9.40695
▁post	-9.40796
মান	-9.40804
▁ব	-9.40811
▁সুস্থ	-9.40838
▁York	-9.40872
ized	-9.40876
▁associated	-9.4095
▁মাসের	-9.40954
▁মিনিটে	-9.40971
▁condition	-9.40981
▁view	-9.40993
▁main	-9.41028
ন্ত	-9.41036
▁war	-9.4108
▁addition	-9.41098
ol	-9.41173
খ	-9.41279
▁শ	-9.41287
▁La	-9.41309
▁মডেল	-9.41337
▁allow	-9.4139
land	-9.41397
▁simple	-9.41447
▁ঢাকার	-9.41461
▁skills	-9.41536
▁বিশ্ববিদ্যালয়	-9.4195
▁বিকেলে	-9.41951
▁d	-9.42176
▁২০২২	-9.42241
▁solar	-9.4228
▁quality	-9.42355
▁আগের	-9.42511
▁recent	-9.42573
▁উইকেট	-9.4263
te	-9.42639
▁শিক্ষার্থীদের	-9.42747
▁June	-9.42871
▁জনপ্রিয়	-9.42896
▁caused	-9.43054
▁groups	-9.43073
▁সবাই	-9.4327
▁টেস্ট	-9.4328
▁either	-9.43337
▁বর্তমান	-9.43372
▁heat	-9.43483
▁once	-9.43488
▁increased	-9.43492
▁আহ্বান	-9.43547
▁রাজনৈতিক	-9.43657
be	-9.43719
▁পৌর	-9.43728
▁effect	-9.43743
▁average	-9.43747
▁ফোন	-9.43775
▁ফল	-9.43781
▁She	-9.43786
▁http	-9.43856
▁চা	-9.43878
▁জারি	-9.43879
la	-9.43979
▁বিমান	-9.44001
▁উদ্যোগে	-9.44143
▁potential	-9.44284
▁নেন	-9.44288
ro	-9.44288
▁মুখে	-9.44302
▁produce	-9.44345
▁সেরা	-9.44374
▁রাজশাহী	-9.4446
▁building	-9.44731
▁করছি	-9.4475
▁রিপোর্ট	-9.44754
▁programs	-9.44768
▁হাসপাতাল	-9.4489
▁হওয়ায়	-9.44891
▁প্রস্তুতি	-9.44989
▁বিষয়	-9.45016
▁পূর্ব	-9.45066
▁বল	-9.45086
▁মধ্য	-9.45201
▁দুপুর	-9.45252
J	-9.45347
▁স্বামী	-9.45432
▁বাইরে	-9.45572
▁individual	-9.45601
▁প্রধানমন্ত্রীর	-9.45626
▁শিকার	-9.45704
ছেন	-9.45721
▁সৃষ্টি	-9.45852
ance	-9.4598
▁top	-9.46072
▁hours	-9.46096
▁list	-9.46104
▁actually	-9.46104
▁From	-9.4618
▁হাসপাতালের	-9.46183
▁সূত্র	-9.4627
se	-9.46331
un	-9.46384
▁উপজেলায়	-9.46542
▁thought	-9.46611
▁March	-9.46656
রে	-9.46752
▁চালু	-9.46873
▁মেনে	-9.46918
▁রেকর্ড	-9.47006
▁গেল	-9.47012
▁উ	-9.47057
▁sub	-9.47079
▁পুরস্কার	-9.47096
▁চলতি	-9.47097
im	-9.47203
▁special	-9.47315
▁চিকিৎসক	-9.47329
ated	-9.47399
▁সংক্রমণ	-9.47493
ter	-9.47528
▁eye	-9.47568
▁নিয়েছে	-9.47585
নো	-9.47586
▁am	-9.47589
ish	-9.47593
We	-9.47601
▁color	-9.47676
▁soil	-9.47689
▁issues	-9.4778
▁ground	-9.4784
▁feet	-9.47871
▁US	-9.47956
▁Co	-9.47999
▁জন্ম	-9.48001
▁আবুল	-9.48142
▁Be	-9.48374
▁value	-9.48378
▁পক্ষে	-9.48384
▁needed	-9.48405
ha	-9.48455
▁=	-9.48477
২৪	-9.48498
▁বিক্ষোভ	-9.48534
▁diabetes	-9.48554
▁developing	-9.48658
▁আগেই	-9.4873
▁মাসে	-9.48799
▁ব্যক্তি	-9.488
▁factors	-9.48852
▁designed	-9.4887
১০	-9.48993
▁feel	-9.49011
▁sun	-9.4906
▁বিষয়ক	-9.49115
▁California	-9.49148
নের	-9.49202
▁loss	-9.49265
▁though	-9.49426
▁মহানগর	-9.49531
▁পড়েছে	-9.49537
▁clear	-9.4954
▁প	-9.4955
মে	-9.49599
▁knowledge	-9.49611
▁সাংবাদিকদের	-9.49618
▁মাহমুদ	-9.4962
▁question	-9.49622
▁পড়া	-9.49648
▁term	-9.49692
▁significant	-9.49871
▁animal	-9.49898
▁সবার	-9.49932
▁বিয়ের	-9.49958
▁বেলা	-9.50021
▁খাদ্য	-9.50181
▁ব্যবসায়ী	-9.50183
▁includes	-9.50315
সে	-9.50337
▁works	-9.50383
ায়	-9.50767
▁নেতৃত্বে	-9.50832
▁call	-9.50844
কি	-9.50927
▁dis	-9.50966
▁economic	-9.5097
▁green	-9.51092
▁six	-9.51113
▁হারিয়ে	-9.51132
▁parts	-9.51219
▁প্রতিবেদক	-9.5122
▁method	-9.51252
য়ার	-9.51284
ating	-9.51298
▁কমিশনার	-9.51354
স্থ	-9.51365
▁গুলি	-9.51372
▁বার্তা	-9.51445
▁সেটা	-9.51487
▁বিশ্বাস	-9.51563
▁provided	-9.51699
▁temperature	-9.51715
▁normal	-9.51743
▁foods	-9.51795
▁পান	-9.51826
▁পোস্ট	-9.51987
▁কৃষি	-9.51995
▁এমপি	-9.52157
ni	-9.52291
▁damage	-9.52295
▁অবস্থা	-9.52318
▁West	-9.52452
▁July	-9.5247
ad	-9.52494
▁Other	-9.52503
▁সম্পর্ক	-9.52549
▁৩১	-9.52566
হা	-9.52595
▁effective	-9.52602
▁Here	-9.52716
▁যুগ্ম	-9.52831
▁infection	-9.52913
▁Although	-9.52956
▁কাজে	-9.5296
▁visit	-9.53039
▁understanding	-9.53051
▁content	-9.53086
▁জনকে	-9.5312
▁কাছ	-9.5324
▁came	-9.53246
▁plan	-9.53284
▁সিনিয়র	-9.53287
িয়ে	-9.53319
▁diet	-9.53362
▁গান	-9.53372
▁অন্যতম	-9.53425
▁protect	-9.53432
▁whole	-9.53438
▁শিক্ষার্থী	-9.53442
▁সম্মেলনে	-9.53511
based	-9.53572
▁states	-9.53607
▁করলেন	-9.53612
ci	-9.5365
▁মন্ত্রণালয়ের	-9.53675
অ	-9.53691
▁রহমানের	-9.53735
ছি	-9.5375
▁ছড়িয়ে	-9.53813
▁মূল	-9.53858
▁খাবার	-9.53866
▁ability	-9.539
▁নির্বাচিত	-9.53955
▁অ্যা	-9.53987
▁প্রযুক্তি	-9.54004
▁গোল	-9.54041
▁মত	-9.54195
Y	-9.54228
▁model	-9.5426
▁improve	-9.54294
২৫	-9.54396
▁পদে	-9.54397
▁গুরুত্বপূর্ণ	-9.54434
▁নিয়োগ	-9.54441
▁বাড়ির	-9.54519
▁According	-9.54574
▁গ্রাম	-9.54593
▁ধরা	-9.54606
▁উঠে	-9.5475
▁causes	-9.54776
▁প্রশ্ন	-9.54854
▁schools	-9.54894
▁NASA	-9.54955
ally	-9.54992
▁almost	-9.55077
ted	-9.55086
▁কয়েকটি	-9.55089
▁পরিবর্তন	-9.55166
▁সংগ্রহ	-9.55215
১২	-9.55374
▁carbon	-9.55433
▁law	-9.55532
▁জেনারেল	-9.5556
▁এখনো	-9.55568
▁cost	-9.55602
লেন	-9.55632
▁PM	-9.55662
▁considered	-9.55676
▁দেয়ার	-9.55693
▁প্রবেশ	-9.55707
▁গড়ে	-9.55756
▁হত্যার	-9.56008
▁যায়নি	-9.56035
▁modern	-9.56155
াল	-9.56228
▁particular	-9.56356
▁বাংলাদেশি	-9.56425
ie	-9.56484
▁taking	-9.56521
▁run	-9.56555
▁শ্রমিক	-9.56569
▁প্রশাসন	-9.56599
▁basic	-9.56626
one	-9.56703
▁করেছিলেন	-9.56723
▁নেমে	-9.56762
▁প্রয়োজন	-9.56821
▁ছেড়ে	-9.56822
▁সহায়তা	-9.56865
▁লা	-9.56962
▁কামাল	-9.56987
▁থাকায়	-9.57005
▁build	-9.57197
▁produced	-9.57304
কো	-9.57312
▁Con	-9.57365
▁eat	-9.57397
▁পর্যায়ে	-9.57436
▁মরদেহ	-9.57483
▁উল্লেখ্য	-9.57488
▁spread	-9.5761
▁rather	-9.5767
▁দীর্ঘ	-9.5772
▁variety	-9.57768
▁বিচার	-9.57788
▁পয়েন্ট	-9.57808
▁comes	-9.57818
▁built	-9.5782
৬	-9.58027
▁নমুনা	-9.58166
৭	-9.58217
www	-9.58243
▁২০১৬	-9.58357
▁ভিত্তিতে	-9.5841
▁complete	-9.58436
▁author	-9.5854
▁পরীক্ষার	-9.58549
ical	-9.58726
কম	-9.58744
▁রযাব	-9.58775
▁আক্তার	-9.58929
১৮	-9.58981
▁পায়	-9.59056
▁ঢাকায়	-9.59175
▁practice	-9.59207
▁April	-9.59221
▁throughout	-9.59244
▁website	-9.59403
▁sometimes	-9.59503
▁longer	-9.59518
▁God	-9.5954
▁আসামি	-9.59614
▁নিয়ন্ত্রণ	-9.59617
▁began	-9.59618
১১	-9.59698
দিন	-9.59717
▁সর্বশেষ	-9.59925
▁হামলার	-9.60034
▁issue	-9.60036
▁প্রাণ	-9.60041
▁সাত	-9.6006
▁occur	-9.60075
▁আবদুল	-9.60128
▁share	-9.60218
▁close	-9.60333
▁January	-9.60408
▁ফেসবুক	-9.60414
▁writing	-9.60425
▁ছাত্রলীগের	-9.60432
০০	-9.60508
▁ever	-9.60551
▁সাকিব	-9.6059
▁exercise	-9.60609
▁art	-9.60696
▁late	-9.60712
▁required	-9.60779
▁গাড়ি	-9.60788
li	-9.60878
▁সদস্যরা	-9.60938
ইন	-9.60973
▁grow	-9.61143
▁video	-9.61415
▁মুখ	-9.61437
প্র	-9.61446
ph	-9.61726
▁এখানে	-9.61732
▁yet	-9.61823
▁করেছি	-9.61891
▁scientific	-9.62008
▁See	-9.62019
▁History	-9.62078
▁প্রতিদিন	-9.62095
▁তারকা	-9.62187
▁কলেজের	-9.62249
কৃত	-9.62273
▁তারিখ	-9.62418
▁সময়ের	-9.62466
▁Day	-9.62583
▁অস্ত্র	-9.62587
▁৪০	-9.6261
▁ice	-9.62625
৮	-9.62685
▁ঘটেছে	-9.62733
▁প্রশাসক	-9.62835
▁ভারতে	-9.62837
▁car	-9.62876
▁sources	-9.6292
▁মন্ত্রণালয়	-9.62971
▁total	-9.63008
▁determine	-9.63056
▁ধর্ষণ	-9.63077
▁series	-9.63121
▁চান	-9.63145
▁idea	-9.63152
▁tree	-9.63232
ful	-9.63247
শি	-9.63365
▁ফের	-9.63404
২২	-9.63417
▁শহীদ	-9.63417
▁মালিক	-9.63518
গা	-9.63523
▁কর্তৃপক্ষ	-9.63578
U	-9.63582
▁জমা	-9.63583
less	-9.63617
▁daily	-9.63643
▁growing	-9.63653
▁Al	-9.63725
▁uses	-9.63828
▁September	-9.63884
▁সম্পন্ন	-9.64013
▁flu	-9.64032
▁took	-9.64056
▁জেলায়	-9.64056
▁River	-9.64069
▁দাবিতে	-9.6427
▁m	-9.64289
▁again	-9.64311
▁Mar	-9.64725
১৪	-9.64796
▁নির্দেশনা	-9.648
▁sense	-9.64813
▁লক্ষ্য	-9.64943
▁ছবির	-9.64999
আর	-9.65062
▁যুক্তরাষ্ট্রের	-9.65065
▁easy	-9.65074
▁shown	-9.6509
▁con	-9.65202
▁involved	-9.6521
▁ছয়	-9.653
mo	-9.65316
▁images	-9.65332
▁প্রতিবেদন	-9.65357
▁adults	-9.6537
▁themselves	-9.65395
▁রাখার	-9.65395
▁lives	-9.65414
▁কবির	-9.65464
▁বলেও	-9.65507
▁self	-9.6552
▁পুরো	-9.65606
▁শীর্ষ	-9.65623
▁পরবর্তী	-9.65657
▁ধর্ম	-9.65674
সের	-9.65752
It	-9.65762
▁x	-9.65841
▁training	-9.65878
রু	-9.66078
▁সংগঠন	-9.66091
▁Read	-9.66133
▁আয়োজিত	-9.66201
৯	-9.66207
ca	-9.6624
▁অফিস	-9.66243
▁diseases	-9.66252
▁move	-9.66271
▁জে	-9.66281
ীর	-9.66333
▁Education	-9.66342
▁difficult	-9.66393
▁miles	-9.6641
▁মুক্তিযোদ্ধা	-9.66571
▁added	-9.66617
▁কো	-9.66691
▁services	-9.66708
▁safety	-9.66751
▁করোনাভাইরাস	-9.66901
▁August	-9.66951
▁ফেলে	-9.66956
১৫	-9.67095
▁International	-9.67287
▁কেজি	-9.67291
▁tools	-9.67359
▁অনুষ্ঠান	-9.67392
ac	-9.67431
▁প্রচার	-9.67467
▁weather	-9.67476
▁County	-9.6752
▁ঈদ	-9.67523
▁cannot	-9.67572
▁itself	-9.67697
▁members	-9.67705
▁October	-9.67801
▁শহর	-9.67806
▁sleep	-9.67844
▁management	-9.67889
▁turn	-9.679
▁পণ্য	-9.67905
▁service	-9.67975
▁try	-9.67978
▁sugar	-9.67999
▁industry	-9.68108
গুলোতে	-9.68123
ak	-9.68139
টে	-9.68198
year	-9.68218
▁অ্যান্ড	-9.68235
▁আনা	-9.68245
▁greater	-9.68482
▁যুবক	-9.68545
▁check	-9.68559
▁নিয়মিত	-9.68563
▁reported	-9.68631
▁pm	-9.68716
▁books	-9.68795
্	-9.68848
▁doesn	-9.68885
এম	-9.69016
▁events	-9.69033
▁পেতে	-9.69056
▁step	-9.69123
ts	-9.69271
▁numbers	-9.69329
▁subject	-9.69391
▁ভাবে	-9.6941
ri	-9.69431
j	-9.69481
om	-9.69531
▁সন্ধ্যায়	-9.6957
▁music	-9.69644
▁হিসাবে	-9.69689
▁summer	-9.69719
▁approach	-9.69739
▁Europe	-9.69902
▁complex	-9.69925
▁necessary	-9.70053
▁getting	-9.70205
▁ইন	-9.70251
▁কর্মসূচি	-9.7032
▁Daily	-9.70337
▁দলে	-9.70392
ওসি	-9.70413
শা	-9.70498
▁teachers	-9.70521
▁পাকিস্তান	-9.70524
কালে	-9.70562
ization	-9.70588
▁সন্তান	-9.70613
রো	-9.70697
▁probably	-9.70728
▁প্রকাশের	-9.70734
ology	-9.70739
▁nature	-9.70769
▁tests	-9.70877
▁written	-9.70887
▁যদিও	-9.70945
▁led	-9.70981
▁continue	-9.70983
▁চায়	-9.71073
▁বলতে	-9.7109
▁political	-9.71109
▁December	-9.71152
▁আমাকে	-9.71256
২৩	-9.71258
▁collection	-9.7133
▁জায়গা	-9.71367
ler	-9.71392
▁wind	-9.71428
▁মিনিট	-9.71514
ig	-9.71529
▁personal	-9.71542
▁ফুটবল	-9.71572
▁নির্মাণ	-9.71591
▁First	-9.71679
▁থাকেন	-9.71681
▁night	-9.71684
▁::	-9.71706
▁Mo	-9.71879
▁Our	-9.72012
▁যেখানে	-9.72036
▁fire	-9.72088
▁mean	-9.72119
▁পেয়েছেন	-9.72191
▁বিনোদন	-9.72215
▁তিনটি	-9.72228
▁big	-9.72258
▁inside	-9.72302
▁প্রেস	-9.72387
▁strong	-9.72501
▁believe	-9.72542
গুলোর	-9.72595
▁সংগঠনের	-9.72661
ge	-9.72692
দি	-9.72696
▁লেখা	-9.72761
▁included	-9.72797
▁ধান	-9.72804
মু	-9.72825
▁সম্মেলন	-9.72834
▁নেওয়ার	-9.72871
▁structure	-9.72888
ard	-9.72906
▁face	-9.72908
ner	-9.72935
▁kind	-9.72948
▁নিয়েছেন	-9.73026
▁তাতে	-9.73062
▁পরামর্শ	-9.73135
▁এছাড়াও	-9.73159
▁original	-9.73205
▁গিয়েছে	-9.73216
▁পার	-9.73224
▁আদালতের	-9.73361
▁জরিমানা	-9.7339
ah	-9.73461
নার	-9.73554
▁African	-9.73578
গত	-9.7365
▁চিকিৎসাধীন	-9.73652
▁দশমিক	-9.73772
▁লাল	-9.73834
▁standard	-9.73843
▁বৃদ্ধি	-9.73843
▁কমিশন	-9.73875
▁February	-9.73899
line	-9.74002
▁লোকজন	-9.74076
▁পালিয়ে	-9.74122
০	-9.74123
▁জরুরি	-9.74176
▁British	-9.74177
▁আওয়ামীলীগ	-9.74179
▁sites	-9.74258
ite	-9.74292
▁focus	-9.74339
▁কোভিড	-9.74374
▁প্রতিমন্ত্রী	-9.74404
▁আইনজীবী	-9.74409
▁baby	-9.7447
▁His	-9.74478
র্	-9.74479
▁দলীয়	-9.74536
▁cold	-9.74553
▁European	-9.74561
▁cut	-9.74567
▁গুরুতর	-9.74586
▁analysis	-9.74596
▁নেয়	-9.74605
▁nearly	-9.74662
der	-9.74689
▁অনেকেই	-9.74691
১৭	-9.7472
▁pro	-9.74731
▁হা	-9.74764
▁বাকি	-9.74765
▁wide	-9.74841
▁দোয়া	-9.74848
▁forms	-9.74849
টিতে	-9.75
▁looking	-9.75007
দার	-9.75111
▁Washington	-9.75119
con	-9.75156
▁অব্যাহত	-9.75223
▁avoid	-9.75318
▁আন্দোলন	-9.75368
▁money	-9.75412
▁পেয়েছে	-9.75433
▁বৈঠক	-9.75559
▁popular	-9.75574
▁রোগী	-9.75627
২১	-9.75634
ions	-9.75681
▁search	-9.75748
▁এদিন	-9.75825
▁takes	-9.75825
▁যাতে	-9.75866
▁Medicine	-9.75887
▁ট্রাক	-9.75998
▁পরিবহন	-9.7602
▁methods	-9.76039
▁bacteria	-9.76184
▁Americans	-9.76225
▁humans	-9.76248
▁thing	-9.76311
▁Medical	-9.76332
▁রিপোর্টার	-9.76334
▁চন্দ্র	-9.76339
▁খুলনা	-9.76372
▁object	-9.76381
▁families	-9.76423
▁Now	-9.7643
▁বিরোধী	-9.76452
news	-9.76471
▁Use	-9.76492
▁বোর্ড	-9.76556
▁সংশ্লিষ্ট	-9.76584
▁birds	-9.76584
ছ	-9.7668
▁upon	-9.76684
▁জা	-9.76713
▁যাত্রী	-9.7676
▁রংপুর	-9.76761
▁action	-9.76783
▁outside	-9.76822
▁center	-9.7684
▁November	-9.76866
▁চলাচল	-9.76909
▁বেড়েছে	-9.76984
▁সুবিধা	-9.77007
▁file	-9.7702
ছিল	-9.77027
▁স্টাফ	-9.77083
▁active	-9.77094
▁ব্যাপক	-9.77178
▁পাকিস্তানের	-9.77223
▁জড়িত	-9.77322
▁terms	-9.77459
কু	-9.77489
▁benefits	-9.77497
▁বছরে	-9.77575
▁উদ্যোগ	-9.77577
▁helps	-9.77586
▁ধারণা	-9.77668
▁trees	-9.77779
▁anti	-9.77876
▁স্বাভাবিক	-9.77877
▁অভিনেতা	-9.7788
▁লক্ষ	-9.77913
▁পদক্ষেপ	-9.77929
▁treat	-9.77974
▁safe	-9.77977
▁Go	-9.77993
▁আদেশ	-9.78009
time	-9.78095
▁অধিকার	-9.78128
▁প্রস্তাব	-9.78207
▁ধর্ষণের	-9.78246
mer	-9.78281
▁ঘণ্টা	-9.78308
▁dry	-9.78379
ন্ড	-9.78405
তো	-9.78414
▁কণ্ঠ	-9.78445
like	-9.78529
▁business	-9.78551
▁লোক	-9.78673
▁ছবিতে	-9.78679
▁মি	-9.787
গুলি	-9.78742
▁meaning	-9.78803
▁During	-9.78823
▁sound	-9.78826
▁দিলেন	-9.78856
po	-9.7887
▁Bo	-9.78872
▁winter	-9.78887
▁behavior	-9.78907
▁করায়	-9.78944
▁address	-9.78975
▁contains	-9.78986
▁রানে	-9.78999
▁exposure	-9.79003
শে	-9.79014
▁instead	-9.79062
▁larger	-9.79078
▁Museum	-9.79089
▁ভুল	-9.79194
▁largest	-9.79209
▁বয়সী	-9.79218
▁affect	-9.7922
▁অর্জন	-9.79242
▁জামিন	-9.79267
▁communities	-9.79335
ence	-9.79386
▁China	-9.79402
▁ঘর	-9.79452
▁ইসলামের	-9.79457
▁প্রতিটি	-9.79476
▁পাওয়ার	-9.79566
▁অন্তত	-9.79586
▁birth	-9.79601
▁eating	-9.79607
▁add	-9.79679
This	-9.79686
▁অপরাধ	-9.79834
▁রাজ	-9.79862
▁fall	-9.79925
ভা	-9.79928
per	-9.80022
▁ত	-9.8005
▁Pro	-9.80109
▁প্রথমে	-9.80126
▁নৌকা	-9.80165
▁answer	-9.80184
▁কার্যালয়ে	-9.802
▁month	-9.80218
▁virus	-9.80252
নগর	-9.8026
do	-9.80315
▁পরিমাণ	-9.80336
▁থাকলে	-9.80385
▁weeks	-9.8039
▁attention	-9.80422
lin	-9.80443
▁ভেঙে	-9.80449
▁সমিতির	-9.80453
▁বৈঠকে	-9.80606
▁Since	-9.80644
▁আসার	-9.80692
▁আসতে	-9.80704
ti	-9.80729
▁India	-9.80739
▁San	-9.80767
ial	-9.80773
▁Na	-9.80787
▁Water	-9.80931
▁findings	-9.80955
▁Act	-9.80988
▁পরিবেশ	-9.80991
১৬	-9.81006
▁minutes	-9.8102
▁মন	-9.81113
▁বিচারপতি	-9.81138
▁বিকেল	-9.8116
▁federal	-9.81199
▁ভাইস	-9.81216
▁মাস্ক	-9.81236
tra	-9.81243
▁বসে	-9.81244
▁©	-9.81246
▁অপর	-9.81268
▁বন	-9.81319
▁reason	-9.81336
২৮	-9.81342
▁বিজ্ঞপ্তিতে	-9.81441
▁generally	-9.81458
▁বয়স	-9.81588
▁Africa	-9.81592
▁লি	-9.81602
▁জায়গায়	-9.81621
▁বিদ্যুৎ	-9.81672
go	-9.81689
▁পরিচয়	-9.81761
▁contain	-9.81776
▁বাহিনীর	-9.81828
▁mass	-9.81932
▁Children	-9.81958
▁third	-9.82025
▁house	-9.82029
▁খেলতে	-9.82054
▁রানের	-9.82062
▁উঠেছে	-9.82086
▁rest	-9.82107
▁interest	-9.82132
▁গভীর	-9.82144
▁entire	-9.82186
▁etc	-9.82195
▁তাঁকে	-9.82207
▁born	-9.82208
৫০	-9.82255
=	-9.82279
▁Online	-9.82294
▁শিল্প	-9.82307
▁রোহিঙ্গা	-9.82324
▁love	-9.82332
by	-9.82396
▁Association	-9.82397
ize	-9.82511
▁জাতির	-9.82518
▁দীর্ঘদিন	-9.82519
▁individuals	-9.82536
▁leading	-9.8255
▁length	-9.8256
▁একাধিক	-9.82578
▁objects	-9.82617
▁position	-9.82618
▁সেনা	-9.82629
▁Also	-9.82658
▁compared	-9.82691
▁appear	-9.82723
▁Bangladesh	-9.82753
▁link	-9.82782
▁matter	-9.82844
▁খ	-9.82866
▁particularly	-9.82875
▁international	-9.8295
▁সৈয়দ	-9.83018
▁older	-9.83037
▁ব্যাংকের	-9.83049
▁ভাগ	-9.8305
হি	-9.83075
▁অনুমোদন	-9.83098
oc	-9.83108
▁serious	-9.83142
▁সেটি	-9.8318
▁বরিশাল	-9.83237
▁দোকান	-9.83257
▁require	-9.83345
▁professor	-9.83418
ship	-9.83433
▁বিদ্যালয়ের	-9.83533
▁unique	-9.83552
▁হাসিনার	-9.83567
ga	-9.83683
▁Le	-9.83732
▁সমাজ	-9.83757
▁মানববন্ধন	-9.83767
৪০	-9.8378
In	-9.83785
min	-9.83801
▁code	-9.83831
▁মহাসচিব	-9.83868
▁সাংগঠনিক	-9.83879
▁Canada	-9.83934
েও	-9.83976
▁কক্সবাজার	-9.84038
▁শোক	-9.84069
▁নির্বাচনের	-9.84102
▁আসনের	-9.84106
▁Web	-9.84119
▁বাসায়	-9.84134
▁০৯	-9.84171
▁যেমন	-9.84277
১৩	-9.84322
▁severe	-9.84365
▁রাজ্য	-9.84482
ৌ	-9.84518
▁Each	-9.84532
▁লক্ষ্যে	-9.84719
▁doing	-9.84758
▁প্রশাসনের	-9.84773
▁easily	-9.84774
▁স্থানীয়রা	-9.84819
▁চালক	-9.84869
▁ম্যাচের	-9.84916
▁Today	-9.84959
▁মাছ	-9.8497
▁tell	-9.85012
▁ভাল	-9.85039
শন	-9.85045
▁বেসরকারি	-9.85116
▁media	-9.85192
▁ফি	-9.85212
▁simply	-9.8523
▁web	-9.85259
ley	-9.85287
▁#	-9.85304
▁বাদ	-9.85307
▁শা	-9.85342
▁সিনেমা	-9.85389
ষ্ট	-9.85396
▁culture	-9.85586
ang	-9.85603
▁President	-9.85607
▁mind	-9.85645
▁quickly	-9.85733
▁company	-9.85754
da	-9.85759
▁বই	-9.85772
কাল	-9.85784
▁তালিকা	-9.8583
▁বাহিনী	-9.85931
▁...	-9.86
▁People	-9.86002
▁begin	-9.86048
▁ইনচার্জ	-9.86083
▁let	-9.86132
▁অভিযুক্ত	-9.86151
গঞ্জ	-9.8616
▁discovered	-9.86172
▁ensure	-9.86186
▁poor	-9.86187
red	-9.86207
▁চাইলে	-9.86254
স্ত	-9.8629
▁যুক্ত	-9.86395
▁recently	-9.86411
▁নিন	-9.86439
▁section	-9.86531
▁follow	-9.86645
▁movement	-9.86671
ড়ি	-9.86713
▁হোম	-9.86742
▁গঠন	-9.86742
▁সহযোগিতা	-9.86871
▁তাঁদের	-9.8688
▁সিরিজ	-9.86906
▁নেতৃত্ব	-9.86926
▁true	-9.86955
em	-9.87077
▁প্রতিবাদ	-9.8715
ছিলেন	-9.87202
▁মুখোমুখি	-9.87208
▁additional	-9.87249
▁কাজের	-9.87257
▁product	-9.87277
▁লকডাউন	-9.87321
▁fuel	-9.87378
য	-9.8739
▁থাকলেও	-9.87413
▁located	-9.87429
২৬	-9.8743
▁ideas	-9.8744
▁হ	-9.8746
▁স্বপ্ন	-9.87463
▁ভাইরাস	-9.87483
▁পৌরসভার	-9.87521
▁clean	-9.87523
▁City	-9.87536
▁map	-9.87566
মূলক	-9.87569
▁rates	-9.87614
এস	-9.87618
▁record	-9.87636
▁পৌঁছে	-9.87679
▁মধ্যেই	-9.87691
▁বাসিন্দা	-9.8771
op	-9.87732
▁About	-9.87777
▁বিজেপি	-9.87785
জে	-9.8779
▁flow	-9.87807
▁ফায়ার	-9.87839
▁টিম	-9.87887
▁অন্যদিকে	-9.87948
িন	-9.87955
▁অবৈধ	-9.87961
▁ডলার	-9.88047
▁পারবে	-9.88057
▁deep	-9.88069
▁behind	-9.88078
▁response	-9.88211
▁কয়েকজন	-9.88226
লার	-9.88277
▁সংক্রান্ত	-9.8829
▁কোচ	-9.88378
▁কমে	-9.88429
▁যাচ্ছেন	-9.88631
৩৫	-9.88654
▁primary	-9.88684
▁Because	-9.88714
▁স্থান	-9.88829
led	-9.89007
▁front	-9.89031
▁please	-9.89034
▁hot	-9.89103
▁চলচ্চিত্র	-9.89128
▁করিম	-9.89169
▁পরি	-9.89231
▁চুক্তি	-9.89286
▁positive	-9.89325
>	-9.89388
▁প্রতিবেদনে	-9.8941
term	-9.89429
▁ফুল	-9.89433
মো	-9.89456
▁কিংবা	-9.89502
▁teaching	-9.89581
▁German	-9.89604
▁আয়োজনে	-9.89617
▁পথ	-9.89711
out	-9.89771
▁beginning	-9.89776
ka	-9.8978
▁genetic	-9.89798
▁জিয়ার	-9.89901
▁Why	-9.89926
ow	-9.89927
▁রে	-9.89934
্যা	-9.89979
▁মাথায়	-9.90108
▁central	-9.9016
▁Great	-9.90172
▁difference	-9.90181
▁জো	-9.90277
নী	-9.90285
ফা	-9.90299
লু	-9.90309
ৎ	-9.90433
▁waste	-9.9045
▁Published	-9.90497
▁ancient	-9.90526
▁consider	-9.90639
▁সাহায্য	-9.90654
▁protection	-9.90662
▁Space	-9.90672
ক্স	-9.90682
▁দুর্ঘটনা	-9.90738
▁জল	-9.90752
▁দেব	-9.90798
▁মান	-9.90803
▁ওয়া	-9.90805
▁ডে	-9.9087
▁অনুরোধ	-9.90872
▁someone	-9.90874
▁ইকবাল	-9.9094
▁দেবে	-9.91018
▁আসেন	-9.91101
▁ভূমিকা	-9.91122
▁Park	-9.91155
▁allows	-9.9116
▁points	-9.9116
▁French	-9.91219
▁chemical	-9.91224
▁act	-9.91257
▁নিয়ন্ত্রণে	-9.91308
▁features	-9.91316
▁account	-9.9133
▁n	-9.91333
▁উচিত	-9.91357
▁কারাগারে	-9.91423
he	-9.91513
▁আম	-9.91513
▁বিভাগে	-9.91566
▁emissions	-9.91632
▁আওতায়	-9.91642
▁planet	-9.91661
▁DNA	-9.91697
▁পদ	-9.91723
▁Not	-9.91741
▁ঈদের	-9.91796
▁তারপর	-9.91832
▁লাভ	-9.91895
▁হুমকি	-9.91896
▁ক্ষমতা	-9.91897
name	-9.91906
▁established	-9.91916
▁গো	-9.91917
ুন	-9.91929
▁আসলে	-9.91949
ists	-9.91964
ium	-9.91975
▁MD	-9.92014
▁leaves	-9.92015
▁Ma	-9.92048
▁শুনানি	-9.92085
▁আর্থিক	-9.92125
▁কাজী	-9.92137
▁Last	-9.92192
▁লে	-9.92194
▁বহু	-9.92288
▁স্	-9.92293
▁আরব	-9.92356
ut	-9.92376
▁প্রকল্প	-9.92401
▁চীন	-9.92445
▁গোপন	-9.92467
▁ওবায়দুল	-9.92473
▁traditional	-9.92477
▁শুভ	-9.92483
▁বাতিল	-9.9253
পে	-9.92553
▁পবিত্র	-9.92603
▁আবারও	-9.92699
▁useful	-9.9273
▁ট্রাম্প	-9.92762
▁speed	-9.92819
▁King	-9.92821
di	-9.9283
▁nation	-9.92854
▁started	-9.92872
▁performance	-9.92948
▁billion	-9.9297
old	-9.93014
▁efforts	-9.93057
▁কাউন্সিলর	-9.93065
▁Of	-9.93081
▁হঠাৎ	-9.93106
▁write	-9.93109
▁বিজ্ঞান	-9.93118
▁event	-9.93132
▁মহা	-9.9315
▁কেটে	-9.93153
▁patient	-9.93208
▁কর্মী	-9.93223
▁বিস্তারিত	-9.93235
▁stop	-9.93247
for	-9.93289
▁কঠোর	-9.93368
▁জমি	-9.93459
▁bring	-9.93472
▁Journal	-9.93533
▁HIV	-9.93534
▁Sun	-9.93602
fe	-9.9364
▁তরুণ	-9.9365
▁রাজধানী	-9.937
▁supply	-9.93744
▁গবেষণা	-9.93752
▁Sa	-9.93765
▁meet	-9.9382
▁tend	-9.93904
▁ডাক	-9.93913
▁critical	-9.93973
▁তেল	-9.94018
▁সন্ধ্যা	-9.94046
ap	-9.94059
ভার	-9.94073
▁although	-9.94205
▁দিক	-9.94223
ুজ্জামান	-9.94237
▁ফারুক	-9.94249
▁সবাইকে	-9.94302
▁g	-9.94313
tro	-9.94337
▁আব্দুর	-9.94383
▁প্রশিক্ষণ	-9.94401
ise	-9.94418
▁পূর্বাহ্ণ	-9.9445
▁কোম্পানি	-9.94469
▁protein	-9.94515
▁মূল্য	-9.94528
▁Can	-9.94528
▁north	-9.94541
▁lack	-9.94549
▁held	-9.94599
▁পিতা	-9.94602
▁॥	-9.94606
▁পরিদর্শন	-9.94642
▁সাল	-9.94651
▁স্ব	-9.9466
▁south	-9.94681
▁directly	-9.94684
২৭	-9.94702
ors	-9.94715
চি	-9.94718
রী	-9.9474
▁Society	-9.94745
▁উপহার	-9.94759
▁করোনাভাইরাসের	-9.94815
▁occurs	-9.94835
▁season	-9.94865
ত্ব	-9.94879
▁force	-9.94897
▁এন	-9.94928
▁Students	-9.94961
▁দিলে	-9.94961
▁spring	-9.94963
▁শরীরে	-9.94981
▁চীনের	-9.94991
▁inter	-9.95005
▁নুরুল	-9.95016
▁প্রয়োজনীয়	-9.95022
▁রোগ	-9.95031
▁গল্প	-9.95187
▁College	-9.95249
ex	-9.95273
▁blue	-9.9529
▁projects	-9.95369
▁fruit	-9.9538
▁।।	-9.95384
▁সম্ভাবনা	-9.95404
▁টানা	-9.95442
▁identify	-9.95473
টোয়েন্টি	-9.9553
of	-9.95633
mon	-9.95711
▁মুজিবুর	-9.95763
▁সংস্থার	-9.95778
ক্ষ	-9.95784
▁stress	-9.95866
pe	-9.9594
▁i	-9.96018
▁জিয়া	-9.96033
▁পাবেন	-9.96115
▁direct	-9.96135
▁তালিকায়	-9.96155
▁শিক্ষার্থীরা	-9.96186
X	-9.96211
▁অনেকে	-9.96264
▁যুব	-9.96283
▁highly	-9.9634
▁নজরুল	-9.96347
ba	-9.96473
▁বিশ্বকাপ	-9.96479
▁মিছিল	-9.96525
▁চাল	-9.96529
▁Texas	-9.96629
▁earth	-9.96652
▁শারীরিক	-9.96681
যা	-9.96739
▁Y	-9.96761
▁al	-9.96786
▁ভাড়া	-9.96836
▁star	-9.96836
io	-9.96841
▁সদস্যদের	-9.96879
তেই	-9.9688
▁medicine	-9.9689
▁এরই	-9.9689
ip	-9.96891
ho	-9.96902
ron	-9.96905
▁multiple	-9.96926
pt	-9.97003
ূ	-9.97005
▁lines	-9.97162
▁চ	-9.97229
▁ময়মনসিংহ	-9.97237
▁quite	-9.97301
▁currently	-9.97412
▁receive	-9.97429
▁theory	-9.97451
।"	-9.9746
▁My	-9.97483
▁drug	-9.97565
▁আয়	-9.97567
▁প্রচ্ছদ	-9.97585
▁পার্টির	-9.97604
▁পরীক্ষায়	-9.97641
▁হামলায়	-9.97655
▁mouth	-9.97686
▁দূর	-9.97701
▁testing	-9.97702
▁Please	-9.97751
▁সামগ্রী	-9.97764
ative	-9.97842
▁date	-9.97846
▁fat	-9.97862
▁উদযাপন	-9.97881
:||	-9.97891
nd	-9.97902
▁গা	-9.97964
েল	-9.98031
▁চূড়ান্ত	-9.98104
▁drugs	-9.98126
▁Or	-9.98156
▁ছাত্রলীগ	-9.98192
▁ব্যবসা	-9.9822
▁নুর	-9.98226
▁affected	-9.98229
▁acid	-9.98276
▁software	-9.98328
▁ক্লাব	-9.98366
▁ocean	-9.98407
▁সার্ভিস	-9.98407
▁আজকের	-9.9843
▁Even	-9.98444
▁বলছে	-9.98496
▁Once	-9.98505
iv	-9.98527
▁policy	-9.98549
▁network	-9.98555
▁গোলাম	-9.9857
▁চলবে	-9.98665
▁তৃণমূল	-9.98682
▁ব্যাট	-9.98703
men	-9.98765
▁অভিযানে	-9.9877
▁Internet	-9.98776
▁society	-9.98849
▁মির্জা	-9.98907
▁নির্যাতন	-9.98921
▁ask	-9.98992
▁Ra	-9.99007
▁খেলার	-9.99071
▁England	-9.99076
▁হাই	-9.99137
▁mission	-9.99141
▁wood	-9.99144
▁খুবই	-9.99148
whose	-9.99175
▁যুক্তরাষ্ট্র	-9.99177
পার	-9.99185
▁remains	-9.99244
▁প্রবাসী	-9.99281
▁smaller	-9.99324
▁মুসলিম	-9.99381
▁গ	-9.99391
▁বাধা	-9.99433
▁picture	-9.99447
▁eyes	-9.99463
হার	-9.99466
▁নদী	-9.99502
▁hands	-9.99514
▁middle	-9.99525
গণ	-9.99544
২৯	-9.99658
▁সপ্তাহ	-9.99698
গো	-9.99764
▁teacher	-9.99805
▁চলমান	-9.99829
▁game	-9.99839
▁বঙ্গবন্ধুর	-9.99858
চে	-9.99868
▁প্রক্রিয়া	-9.99882
▁মানুষকে	-9.99892
▁attack	-9.99893
▁একটু	-9.99899
▁ছাড়াও	-9.99961
▁died	-9.99991
▁goal	-10.0001
▁আলো	-10.001
sh	-10.0012
▁নিজেকে	-10.0019
▁শুভেচ্ছা	-10.0021
▁High	-10.0024
▁আলীর	-10.0025
▁Z	-10.0026
▁market	-10.0026
▁চুরি	-10.0037
▁Is	-10.0037
ৈ	-10.0049
▁রাজনীতি	-10.0051
▁জনগণের	-10.0052
▁আলমগীর	-10.0059
▁অসুস্থ	-10.006
▁নিহতের	-10.0063
▁private	-10.0064
▁আমিন	-10.0065
▁responsible	-10.0066
▁শ্রদ্ধা	-10.0066
▁সফর	-10.0072
▁sign	-10.0073
▁বাড়ছে	-10.0074
▁Note	-10.0087
▁নাগরিক	-10.0088
▁told	-10.01
▁দাস	-10.0102
▁পূর্বাহ্ন	-10.0104
▁lost	-10.0106
▁Australia	-10.0111
▁success	-10.0113
▁মাধ্যমিক	-10.0114
é	-10.0115
▁Food	-10.0128
▁পুরুষ	-10.0132
▁Project	-10.0135
▁measure	-10.0139
▁৬০	-10.0144
▁কেন্দ্রে	-10.0147
▁Service	-10.0153
▁সোশ্যাল	-10.0158
▁ডেইলি	-10.0158
▁David	-10.0163
জার	-10.0168
▁ভ্যাকসিন	-10.0169
▁bad	-10.017
ps	-10.0176
▁professional	-10.0178
▁নূর	-10.0185
▁member	-10.0188
▁শাখার	-10.0201
▁dog	-10.0212
▁Sea	-10.0215
ure	-10.0217
▁appropriate	-10.0222
▁আনন্দ	-10.0233
▁return	-10.0233
▁base	-10.0235
▁native	-10.0241
▁dark	-10.0243
টো	-10.0243
▁ভাইরাল	-10.0243
সু	-10.0253
day	-10.0255
▁Over	-10.0261
▁কিছুটা	-10.0262
▁radiation	-10.0266
▁বলছেন	-10.0268
▁applications	-10.0269
▁user	-10.0273
▁পুত্র	-10.0274
▁ডিজিটাল	-10.0275
▁tool	-10.0276
▁Library	-10.0279
▁নিষেধাজ্ঞা	-10.0286
wa	-10.0292
▁reach	-10.0304
ab	-10.0306
ম্প	-10.031
▁০৮	-10.0317
▁typically	-10.0317
▁expected	-10.0317
▁application	-10.0318
▁regular	-10.032
):	-10.0323
▁table	-10.0323
▁ত্রাণ	-10.0329
▁সামরিক	-10.0329
▁techniques	-10.033
▁লেনদেন	-10.033
▁+	-10.0331
▁memory	-10.0336
▁named	-10.0343
ning	-10.0343
▁বীর	-10.0345
▁version	-10.0349
▁আট	-10.0352
les	-10.0356
▁seems	-10.0356
▁দিচ্ছে	-10.0357
▁essential	-10.0358
▁রক্ষা	-10.0369
▁review	-10.0374
▁offer	-10.0374
▁increasing	-10.0375
°	-10.0376
▁resource	-10.0381
▁breast	-10.0383
▁কিলোমিটার	-10.0391
▁location	-10.0399
মন্ত্রী	-10.0399
▁সোহেল	-10.0407
▁জেনে	-10.041
▁সপ্তাহে	-10.0411
▁ক্ষতি	-10.0412
so	-10.0413
▁mother	-10.0413
▁পু	-10.0413
▁বাদী	-10.0413
▁fast	-10.042
▁Pre	-10.0426
▁কালের	-10.0431
▁কল	-10.0436
▁tissue	-10.0461
▁পোশাক	-10.0463
▁hair	-10.0463
▁trade	-10.0464
▁Press	-10.0473
▁ন	-10.0474
▁বিকাল	-10.0475
▁received	-10.0475
▁ম্যাজিস্ট্রেট	-10.0478
▁shape	-10.0482
▁hope	-10.0482
ck	-10.0483
▁কর্ম	-10.0485
▁সেলিম	-10.0487
▁হোসেনের	-10.0489
▁স্থগিত	-10.0494
সভাপতি	-10.0502
▁অনুমতি	-10.0502
▁Information	-10.0504
▁পশ্চিম	-10.0506
▁নেয়ার	-10.0506
▁নিয়ম	-10.0508
▁কৃষক	-10.0508
▁wild	-10.0513
▁৩৫	-10.0514
side	-10.0514
▁guide	-10.0515
▁standards	-10.0518
▁খুলে	-10.0522
▁forest	-10.0532
▁শান্তি	-10.0534
▁unit	-10.0534
▁খোলা	-10.0538
▁suggests	-10.054
▁offers	-10.0542
▁articles	-10.0545
▁বন্ধু	-10.0548
▁surgery	-10.0551
ten	-10.0553
▁হে	-10.0555
বো	-10.0557
▁কুমিল্লা	-10.0564
▁ভা	-10.0568
▁email	-10.0575
ile	-10.0575
▁II	-10.0582
▁গোয়েন্দা	-10.0582
▁নেতৃবৃন্দ	-10.0582
▁importance	-10.0582
▁gives	-10.0583
▁শত	-10.0584
▁০১	-10.0586
▁General	-10.0591
▁Ka	-10.0592
▁ten	-10.0597
▁temperatures	-10.0602
▁soon	-10.0605
▁town	-10.0605
▁এবারের	-10.0605
▁bird	-10.0612
▁Me	-10.0614
▁তাদেরকে	-10.0614
act	-10.0615
▁host	-10.0623
০১	-10.0624
▁commonly	-10.0624
ping	-10.0625
▁রশিদ	-10.0629
▁উৎসব	-10.0631
▁Car	-10.0632
▁রা	-10.0634
▁Bengali	-10.064
▁শহরে	-10.0641
▁তামিম	-10.0647
▁মাওলানা	-10.0655
ke	-10.0656
▁benefit	-10.066
▁আক্রান্তের	-10.0664
▁তাঁরা	-10.0666
ran	-10.0668
ill	-10.067
▁devices	-10.0673
▁সংঘর্ষে	-10.0675
▁সাতক্ষীরা	-10.0676
▁মিয়ার	-10.0676
সার	-10.0681
▁journal	-10.0685
▁দ্য	-10.0687
▁প্রতিবাদে	-10.0692
▁২০১৫	-10.0699
▁talk	-10.0699
▁করেছিল	-10.0701
▁oxygen	-10.0703
▁চাপ	-10.0706
mi	-10.0707
▁Latest	-10.0714
▁bit	-10.0717
▁cover	-10.0718
ring	-10.072
net	-10.072
▁কল্যাণ	-10.0722
▁elements	-10.0725
▁পারেনি	-10.0728
▁মিডিয়া	-10.0731
▁scale	-10.0732
▁Program	-10.0737
▁উন্নত	-10.0739
▁v	-10.0739
▁কিনা	-10.0745
▁pay	-10.0748
▁places	-10.0754
▁ঘটনাটি	-10.0763
▁stay	-10.0764
▁গোলে	-10.0764
▁সতর্ক	-10.0768
▁চলেছে	-10.0773
▁১০০	-10.0775
▁mid	-10.0776
▁rise	-10.0779
▁educational	-10.0787
▁Then	-10.0792
▁earlier	-10.0793
▁rich	-10.0794
▁খানের	-10.0797
৪৫	-10.0803
▁করোনাভাইরাসে	-10.0806
▁দিনাজপুর	-10.0808
▁ইমরান	-10.0809
use	-10.0811
▁বৃষ্টি	-10.0812
০৯	-10.0821
▁ভ	-10.0822
▁চিকিৎসার	-10.0823
▁ঘরের	-10.0825
▁ক্রীড়া	-10.0825
▁immune	-10.0826
▁খেলে	-10.0828
▁travel	-10.0834
▁save	-10.084
▁নামাজ	-10.0843
▁won	-10.0848
▁goes	-10.0854
▁স্বীকার	-10.0859
ন্দ	-10.086
▁ক্রিকেটার	-10.0862
▁মামুন	-10.0863
▁requires	-10.0868
ড়ে	-10.0873
েশন	-10.0884
▁ব্যক্তির	-10.0892
▁vision	-10.0892
▁Roman	-10.0899
▁stories	-10.09
দ্ধ	-10.0906
ier	-10.0911
চার	-10.092
্স	-10.0922
▁কলকাতা	-10.0927
▁BD	-10.0929
▁পাবে	-10.0935
▁কার্যকর	-10.0936
▁প্রকল্পের	-10.0938
▁Li	-10.094
▁অবশ্য	-10.0944
▁limited	-10.0945
ান	-10.0946
▁Green	-10.0948
▁reports	-10.0954
▁job	-10.0956
▁বোর্ডের	-10.0965
▁conservation	-10.0967
চা	-10.0972
▁di	-10.0974
▁cultural	-10.0976
▁যাত্রা	-10.0977
▁বিজয়	-10.098
▁জয়ের	-10.0982
▁released	-10.0988
▁East	-10.0995
que	-10.0995
▁হাজির	-10.1
▁বিদ্যালয়	-10.1002
▁লিখেছেন	-10.1009
▁কার্ড	-10.1009
▁দুর্ঘটনায়	-10.1012
▁signs	-10.1015
▁টা	-10.1018
ওয়া	-10.1018
▁প্রতিষ্ঠানের	-10.1024
▁ব্যক্তিগত	-10.1024
▁প্রভাব	-10.1031
▁device	-10.1031
▁classroom	-10.1032
▁appears	-10.1035
ator	-10.104
▁processes	-10.1043
৩২	-10.1047
▁toward	-10.1048
▁release	-10.1048
▁এত	-10.105
উল	-10.1052
▁en	-10.1053
ফি	-10.1054
▁Energy	-10.1059
ger	-10.1059
▁সরবরাহ	-10.1059
den	-10.1061
ft	-10.1068
ster	-10.107
▁decision	-10.1074
▁deal	-10.1074
▁values	-10.1079
▁মুক্ত	-10.108
▁সিরিজের	-10.1082
▁click	-10.1084
▁Lo	-10.1091
▁খরচ	-10.1092
▁ভয়াবহ	-10.1097
▁বিদায়	-10.1101
▁got	-10.111
▁director	-10.1112
▁Pa	-10.1126
tion	-10.1133
▁আলাদা	-10.1135
▁Indian	-10.1139
▁আত্মহত্যা	-10.1143
espite	-10.1144
▁পাতা	-10.1147
izing	-10.1147
দু	-10.1148
▁brought	-10.1152
▁অসহায়	-10.1152
▁ঋণ	-10.116
▁মমতা	-10.1166
▁survey	-10.1169
▁ডট	-10.1171
▁অনু	-10.1172
▁চাকরি	-10.1178
▁রেল	-10.1181
▁multi	-10.1185
▁জীবনের	-10.1195
▁mental	-10.1196
▁সীমান্ত	-10.1203
▁Ar	-10.1205
▁প্রশ্নের	-10.1205
▁ফখরুল	-10.1211
▁moving	-10.1211
▁asked	-10.1213
▁নং	-10.1214
▁historical	-10.1214
▁providing	-10.122
▁হু	-10.1222
▁explore	-10.1226
▁Mexico	-10.1233
▁ওয়ার্ড	-10.1237
▁equipment	-10.1237
▁Development	-10.1237
খা	-10.125
▁প্রসঙ্গে	-10.1252
▁হোক	-10.1256
tu	-10.1258
▁sent	-10.1259
▁Click	-10.1261
▁সফল	-10.1262
▁fun	-10.1263
▁interesting	-10.1265
▁El	-10.1265
▁কাটা	-10.1273
বেন	-10.128
▁path	-10.1286
▁rare	-10.1289
▁room	-10.1294
▁বিল	-10.1296
▁আইনে	-10.1302
ত্ত	-10.1304
▁বক্তব্যে	-10.1305
▁previous	-10.1306
▁মাঠ	-10.1307
▁Public	-10.1311
▁military	-10.1314
▁বিশিষ্ট	-10.1316
▁শি	-10.1317
▁moon	-10.1317
▁river	-10.1319
▁উদ্দেশ্যে	-10.1321
▁নিখোঁজ	-10.1325
▁eight	-10.1326
▁প্রতিরোধ	-10.1327
▁প্রস্তুত	-10.1329
▁অতিথির	-10.1329
▁send	-10.133
▁remember	-10.1332
▁electricity	-10.1333
▁disorder	-10.1333
▁degrees	-10.1335
▁দি	-10.134
▁slow	-10.1343
if	-10.1349
ray	-10.135
▁Using	-10.1351
আই	-10.1352
▁display	-10.1361
▁অংশগ্রহণ	-10.1361
▁টাইমস	-10.1365
…	-10.1366
▁gene	-10.1366
▁thus	-10.1366
▁House	-10.1373
▁শিল্পী	-10.1374
▁infections	-10.1376
▁পালিত	-10.1377
▁নদীর	-10.1383
▁experts	-10.1385
▁progress	-10.1385
▁construction	-10.1385
▁রাসেল	-10.1386
▁আসবে	-10.139
▁স্বাধীনতা	-10.1391
▁Technology	-10.1392
▁suggest	-10.1398
▁trying	-10.1399
▁নগরীর	-10.1402
▁square	-10.1403
▁চালায়	-10.1405
ities	-10.1408
▁ঘুরে	-10.141
▁therapy	-10.1413
▁showed	-10.142
▁দাঁড়িয়েছে	-10.142
▁costs	-10.1422
▁সফরে	-10.1426
▁k	-10.1427
▁France	-10.1427
দী	-10.1431
au	-10.1432
▁জবাবে	-10.1432
▁গণ	-10.1436
▁creating	-10.1436
▁details	-10.1437
▁thinking	-10.1438
▁overall	-10.1439
ice	-10.144
▁রোগীর	-10.1441
লাম	-10.1445
▁কন্যা	-10.1448
▁ওয়ানডে	-10.145
▁মায়ের	-10.1451
ide	-10.1455
▁ওষুধ	-10.1456
▁sample	-10.1456
▁দিল	-10.1459
▁জাহাঙ্গীর	-10.1461
▁names	-10.1472
▁বিভাগীয়	-10.1473
▁ফলাফল	-10.1474
▁Man	-10.1476
▁অধ্যক্ষ	-10.148
▁অথবা	-10.148
▁successful	-10.1481
we	-10.1491
▁went	-10.1492
▁Find	-10.1495
▁ইয়াবা	-10.1498
▁রাস্তা	-10.1498
▁formed	-10.15
▁vaccine	-10.1501
▁বেতন	-10.1507
বাড়ি	-10.1508
va	-10.1511
▁seven	-10.1512
▁নিরাপদ	-10.1521
▁Ca	-10.1524
▁Their	-10.1526
▁আঘাত	-10.1531
▁adult	-10.1536
▁Don	-10.154
মার	-10.155
ward	-10.155
▁identified	-10.155
▁micro	-10.1556
▁আনোয়ার	-10.156
▁কর	-10.1561
▁Human	-10.1576
▁হিন্দু	-10.1577
▁কর্মকর্তারা	-10.158
▁পড়েন	-10.1581
▁ভাষা	-10.1584
▁companies	-10.1585
▁গুরুত্ব	-10.1586
কর	-10.1586
lu	-10.1587
▁ফেসবুকে	-10.1587
▁এমনকি	-10.159
িম	-10.1596
বল	-10.1598
▁০৭	-10.1598
*	-10.1605
▁ফ	-10.161
ability	-10.1611
▁সর্ব	-10.1612
▁William	-10.1614
▁খুন	-10.1614
bo	-10.1614
▁hold	-10.1615
▁জব্দ	-10.1621
▁চর	-10.1627
▁খাতুন	-10.163
▁অবশেষে	-10.163
▁fields	-10.1636
▁শিশুর	-10.1639
▁extra	-10.1641
ec	-10.1649
▁নারীর	-10.1651
▁নাকি	-10.1651
▁chance	-10.1654
▁সম্পূর্ণ	-10.1664
▁rock	-10.1665
▁plastic	-10.167
▁Environmental	-10.1671
বান	-10.1676
Com	-10.168
▁ইমাম	-10.1684
▁রাস্তায়	-10.1684
হীন	-10.1688
▁Su	-10.1689
ধ	-10.169
▁wrote	-10.1692
▁Black	-10.1698
েন	-10.1698
▁bio	-10.1699
▁effort	-10.1699
▁বিচারক	-10.1706
▁মনোনয়ন	-10.171
way	-10.171
▁beyond	-10.171
▁সহযোগী	-10.1711
▁patterns	-10.1712
▁feed	-10.1713
▁remain	-10.1715
▁seem	-10.1718
vo	-10.173
▁alcohol	-10.1731
sion	-10.1733
▁ইউ	-10.1742
▁rain	-10.1747
▁www	-10.175
▁যৌন	-10.1751
্ব	-10.1752
▁equal	-10.1763
▁নিষিদ্ধ	-10.1764
▁basis	-10.1765
▁এশিয়া	-10.1768
▁Researchers	-10.1772
▁piece	-10.178
▁placed	-10.1783
▁character	-10.1784
ডা	-10.1786
সন	-10.1786
▁Mars	-10.1789
▁শক্তিশালী	-10.1792
fer	-10.1792
▁সুমন	-10.1796
▁মোটরসাইকেল	-10.1798
▁পারি	-10.18
▁পৃথিবী	-10.1807
▁opportunity	-10.181
▁organic	-10.1811
▁বাবু	-10.1813
▁দুর্নীতি	-10.1818
▁pages	-10.1819
▁সরাসরি	-10.1819
▁enjoy	-10.182
▁যেসব	-10.1822
শু	-10.1823
▁রাম	-10.1823
▁০৪	-10.1823
▁মসজিদ	-10.1824
▁ফা	-10.1828
▁workers	-10.1832
▁আজাদ	-10.1834
▁users	-10.1834
▁Ex	-10.1837
▁অর্থাৎ	-10.1837
▁বিবৃতিতে	-10.184
▁final	-10.1841
▁thousands	-10.1846
০২	-10.1848
▁followed	-10.185
াস	-10.1851
▁এদের	-10.1854
▁isn	-10.1856
▁এসআই	-10.1863
▁চতুর্থ	-10.1864
▁আইনের	-10.1864
▁প্রমাণ	-10.1867
▁Ha	-10.1871
▁Ba	-10.1871
▁stage	-10.1872
▁বিডি	-10.1872
▁পড়তে	-10.1874
এফ	-10.1878
▁রাষ্ট্রপতি	-10.1881
▁পে	-10.1881
▁correct	-10.1882
▁নির্ধারণ	-10.1883
▁০৫	-10.1886
our	-10.1886
▁Time	-10.189
▁choose	-10.1892
▁combination	-10.1892
▁bar	-10.1893
▁treated	-10.1898
▁upper	-10.19
▁solution	-10.1911
▁examples	-10.1913
▁শো	-10.1913
ঞ্জ	-10.1914
▁আদায়	-10.1917
▁নিচে	-10.1922
);	-10.1926
sa	-10.1931
▁০৬	-10.1934
▁সহজ	-10.1935
▁সঠিক	-10.1935
▁পারেননি	-10.1935
▁কামনা	-10.1939
▁ভি	-10.194
▁জানুয়ারী	-10.1947
▁plans	-10.1947
▁Sp	-10.1948
▁জ	-10.1949
▁digital	-10.1951
▁শুটিং	-10.1954
▁টিভি	-10.1954
".	-10.1956
▁London	-10.1957
▁cross	-10.1957
▁সংকট	-10.196
▁ইসলামী	-10.1971
▁perform	-10.1974
০৫	-10.1975
▁ছাত্রী	-10.1976
▁সুন্দর	-10.1982
▁latest	-10.1987
ze	-10.1988
▁commercial	-10.1991
▁ব্যবস্থাপনা	-10.1992
▁বিদেশি	-10.1992
▁ছবিটি	-10.1992
hi	-10.1993
▁property	-10.1994
▁relatively	-10.1998
▁foot	-10.2002
▁০৩	-10.2003
▁জোর	-10.2005
৩১	-10.2006
▁বিন	-10.2007
▁রানা	-10.2008
▁steps	-10.2008
▁remove	-10.2009
▁হস্তান্তর	-10.2011
▁সাহা	-10.2013
▁শিশুদের	-10.2017
▁records	-10.2022
▁CO	-10.2027
▁দর	-10.203
▁অবশ্যই	-10.2033
▁ছিলো	-10.2037
▁anything	-10.2039
▁দা	-10.204
▁bone	-10.204
▁একাদশ	-10.2041
▁meat	-10.2043
▁running	-10.2049
@	-10.2049
ইউ	-10.2055
িতে	-10.2065
▁ট্রেন	-10.2067
▁সারাদেশে	-10.207
▁ফেরার	-10.2071
▁ছুটি	-10.2071
▁থাকবেন	-10.2074
▁Art	-10.2075
▁bottom	-10.2075
▁সমাবেশ	-10.2076
uc	-10.2083
▁Congress	-10.2085
▁সিং	-10.2086
▁উৎপাদন	-10.2086
▁উভয়	-10.2087
▁গাছ	-10.2088
িয়ার	-10.2089
▁via	-10.2093
▁বিশ্বে	-10.2097
▁চালানো	-10.2102
▁ডটকম	-10.2103
▁Chinese	-10.2104
▁tips	-10.2108
▁organization	-10.2126
০৭	-10.2128
▁অনুষ্ঠানের	-10.2131
▁অধিদপ্তরের	-10.2132
▁everyone	-10.2135
▁college	-10.2136
▁সাংস্কৃতিক	-10.2139
▁topic	-10.214
ving	-10.2141
▁প্রতিষ্ঠা	-10.2145
ber	-10.2146
▁একমাত্র	-10.2147
king	-10.2148
▁regions	-10.2148
▁তীব্র	-10.2149
▁distance	-10.2155
▁প্রিয়	-10.2156
▁Ga	-10.2157
ন্ট	-10.2158
und	-10.2166
পো	-10.2166
▁শতাধিক	-10.217
▁Council	-10.2179
▁গ্রুপ	-10.2183
▁বিপুল	-10.2189
তলা	-10.2191
▁reduced	-10.2191
▁super	-10.2203
লী	-10.2203
▁math	-10.2205
▁চিন্তা	-10.221
kin	-10.2212
sis	-10.2212
▁maintain	-10.2218
ect	-10.2222
▁Un	-10.2226
টাই	-10.223
▁purpose	-10.223
▁স্বাস্থ্যবিধি	-10.2236
+	-10.2237
▁০২	-10.2238
▁teach	-10.2238
▁যশোর	-10.224
▁বাংলার	-10.225
০৬	-10.2255
▁Two	-10.2256
▁ধারা	-10.2257
▁father	-10.2258
si	-10.2259
▁muscle	-10.2259
▁পরিস্থিতিতে	-10.2261
▁সিলেটের	-10.2261
▁অত্যন্ত	-10.2264
▁didn	-10.2274
▁chronic	-10.2274
antho	-10.2275
▁শোনা	-10.2279
টু	-10.2284
▁cool	-10.2287
▁credit	-10.2288
▁comment	-10.2288
▁সমস্ত	-10.2294
▁সালমান	-10.2296
ped	-10.2298
▁রকম	-10.2301
▁যত	-10.2301
▁atmosphere	-10.2302
▁coming	-10.2307
▁salt	-10.2307
▁et	-10.2308
▁increases	-10.2309
০৪	-10.2312
▁আরেক	-10.2313
▁Foundation	-10.2313
▁female	-10.2317
▁স্থায়ী	-10.2319
▁leave	-10.2319
▁চিঠি	-10.2319
▁পরিচিত	-10.2321
এন	-10.2322
▁links	-10.2323
৫৫	-10.2324
▁degree	-10.2326
▁ওঠে	-10.2327
▁Red	-10.2327
▁highest	-10.2329
▁document	-10.2329
▁বোমা	-10.233
▁উপদেষ্টা	-10.2331
▁অর্থনৈতিক	-10.2331
▁garden	-10.2332
▁কেন্দ্রের	-10.2334
▁মেলা	-10.2337
▁negative	-10.2337
▁Posted	-10.2347
ple	-10.2347
▁নির্ধারিত	-10.2349
▁এনে	-10.235
▁disorders	-10.2358
জু	-10.2359
▁Se	-10.2359
▁southern	-10.236
▁Learn	-10.2361
▁hour	-10.2363
▁practices	-10.2364
▁ল	-10.2368
▁passed	-10.2374
▁আবহাওয়া	-10.2376
▁differences	-10.2377
▁Another	-10.2379
▁habitat	-10.2385
nt	-10.239
▁influence	-10.2393
▁pregnancy	-10.2398
ana	-10.2402
▁son	-10.2402
▁Professor	-10.2408
▁figure	-10.2408
▁সেখান	-10.2411
▁draw	-10.2411
▁সিনেমার	-10.2415
▁rules	-10.2416
▁যুবলীগের	-10.2417
আমি	-10.2417
▁authors	-10.2425
bi	-10.2427
▁instance	-10.2427
ot	-10.2432
▁functions	-10.2435
▁demand	-10.2435
▁কঠিন	-10.2437
▁vegetables	-10.2439
▁Union	-10.2439
▁দেশটিতে	-10.2443
▁ব্যা	-10.2443
মন	-10.2448
▁AM	-10.2451
▁দারুণ	-10.2452
▁৭০	-10.2452
▁মূলত	-10.2452
▁করল	-10.2453
▁road	-10.2456
▁drive	-10.246
Z	-10.2466
▁Di	-10.2466
▁সন্ত্রাসী	-10.2467
▁snow	-10.2467
▁items	-10.2472
▁হয়তো	-10.2473
▁alone	-10.2477
ম্ব	-10.2478
end	-10.248
ai	-10.2482
▁Air	-10.2483
▁System	-10.2483
▁Western	-10.2485
▁প্রসঙ্গত	-10.2486
▁জেল	-10.2487
▁সত্যতা	-10.2488
▁মাসুদ	-10.2489
▁নাজমুল	-10.2495
▁মতে	-10.25
▁রূপ	-10.2503
▁yellow	-10.2505
▁মুখ্যমন্ত্রী	-10.2509
▁চি	-10.2511
▁ওভারে	-10.2514
▁la	-10.252
▁Fe	-10.2521
related	-10.2524
gar	-10.2526
tor	-10.2527
▁presented	-10.253
▁তাপমাত্রা	-10.2534
▁fear	-10.2534
▁এএম	-10.2539
নং	-10.2539
▁টু	-10.2541
▁woman	-10.2543
▁ইউনিট	-10.2544
▁Pacific	-10.2546
yl	-10.2549
শী	-10.2549
মেন্ট	-10.255
▁pattern	-10.2552
▁warm	-10.2553
▁famous	-10.2553
▁properties	-10.2553
▁powerful	-10.2557
▁মিলে	-10.2562
▁Copyright	-10.2569
▁estimated	-10.2569
ag	-10.2573
ham	-10.2575
▁iron	-10.2576
▁পাস	-10.2577
▁Ocean	-10.258
▁fight	-10.2582
ub	-10.2583
▁Vi	-10.2586
▁আটকে	-10.2588
▁concept	-10.2595
▁মসজিদে	-10.2595
০৩	-10.2597
▁TV	-10.2599
▁models	-10.2599
ঙ্গা	-10.26
od	-10.26
▁চিত্র	-10.2601
▁described	-10.2601
▁fresh	-10.2602
▁Control	-10.2608
▁stars	-10.261
▁খারাপ	-10.2612
▁এল	-10.2615
মুক্ত	-10.262
ob	-10.262
▁cent	-10.2621
▁meeting	-10.2621
▁মুহূর্তে	-10.2622
▁Island	-10.2623
▁hit	-10.2629
▁applied	-10.2632
▁reference	-10.2634
▁becomes	-10.2636
▁diagnosis	-10.2642
▁northern	-10.2642
ach	-10.2643
▁causing	-10.2646
▁পানিতে	-10.2647
▁changed	-10.265
▁নায়িকা	-10.2651
▁teeth	-10.2651
০৮	-10.2652
▁১০টা	-10.2652
▁r	-10.2653
▁Make	-10.2661
▁friends	-10.2661
▁প্রেরণ	-10.2662
▁tax	-10.2671
▁দেড়	-10.2673
বাংলা	-10.2678
ens	-10.2682
▁গোটা	-10.2685
▁Sch	-10.2685
▁চাষ	-10.2688
▁measures	-10.2688
▁Jewish	-10.2689
▁প্রকৌশলী	-10.269
▁finding	-10.2691
▁রাজ্যের	-10.2692
▁শক্তি	-10.2694
▁বললেন	-10.2696
▁লড়াই	-10.2698
▁চোখ	-10.27
▁break	-10.2701
▁জিতে	-10.2702
লের	-10.2703
▁male	-10.2705
ns	-10.2709
▁covered	-10.2711
▁উক্ত	-10.2723
▁proper	-10.2724
▁স্মৃতি	-10.2727
▁economy	-10.2731
▁James	-10.2731
▁আউট	-10.2734
▁Date	-10.2737
▁financial	-10.2741
▁অ্যাডভোকেট	-10.2741
▁annual	-10.2742
▁অর্থনীতি	-10.2748
▁বাস্তবায়ন	-10.2748
▁fit	-10.275
▁milk	-10.2751
▁গ্রুপের	-10.2756
▁লিটন	-10.2761
▁decades	-10.2764
▁কারা	-10.2765
▁approximately	-10.2767
▁সম্পদ	-10.2767
▁পড়ুন	-10.2769
▁factor	-10.2769
▁pollution	-10.277
েক	-10.2771
▁context	-10.2771
▁রাষ্ট্র	-10.2772
▁শ্রেণির	-10.2772
▁Ro	-10.2778
▁Free	-10.2782
▁experiment	-10.2783
▁explain	-10.2785
স্	-10.2792
▁worked	-10.2796
▁পেছনে	-10.28
▁সিভিল	-10.2801
▁বাণিজ্য	-10.2804
▁কাল	-10.2806
▁করেই	-10.2807
▁Post	-10.2811
▁flight	-10.2811
water	-10.2812
▁Per	-10.2813
▁বন্দর	-10.2815
▁মিয়ানমার	-10.282
▁security	-10.282
▁radio	-10.2822
▁enter	-10.2824
নু	-10.2825
▁store	-10.2825
▁pet	-10.2828
▁En	-10.2841
▁die	-10.2841
port	-10.2844
▁চট্টগ্রামের	-10.2844
▁ঘটনাস্থল	-10.2845
▁Asia	-10.2853
res	-10.2854
▁separate	-10.2861
▁মুক্তির	-10.2862
▁গ্যাস	-10.2869
qui	-10.2869
▁Robert	-10.2871
▁সেতু	-10.2875
▁ভাইরাসের	-10.2875
▁ফেরত	-10.2875
▁৪৫	-10.2875
▁ভোর	-10.2875
▁দরকার	-10.2881
▁সড়কে	-10.2881
ina	-10.2888
▁vitamin	-10.2888
▁exposed	-10.2891
▁Life	-10.2893
▁root	-10.2893
▁ভবন	-10.2898
▁genes	-10.2898
▁consumption	-10.2901
▁Church	-10.2901
▁everything	-10.2901
▁populations	-10.2904
▁wall	-10.2904
▁দেখিয়ে	-10.291
পু	-10.2911
▁Spanish	-10.2911
▁injury	-10.2911
▁ভিন্ন	-10.2912
tin	-10.2917
▁হাইকোর্ট	-10.292
▁মুহাম্মদ	-10.2921
▁নে	-10.2923
▁conducted	-10.2923
▁inches	-10.2923
▁Report	-10.2927
▁grade	-10.2927
▁স্টেডিয়ামে	-10.2931
▁capital	-10.2935
▁ডোজ	-10.2936
▁completely	-10.2939
▁পদত্যাগ	-10.2941
gg	-10.2943
বাদ	-10.2943
▁situation	-10.2956
▁খুঁজে	-10.2956
▁কীভাবে	-10.2958
▁staff	-10.2962
ণ্ড	-10.2962
▁কিছুদিন	-10.2962
▁note	-10.2964
ren	-10.2965
▁সবুজ	-10.2966
▁photo	-10.2966
তু	-10.2966
▁জঙ্গি	-10.2974
▁স্থাপন	-10.2982
▁Japan	-10.2982
বাজার	-10.2983
mp	-10.2984
▁generation	-10.2987
▁নগর	-10.2988
▁কারাদণ্ড	-10.2989
৩৮	-10.299
▁therefore	-10.2993
▁existing	-10.2993
▁রহিম	-10.2998
▁style	-10.2998
▁ওয়ার্ডের	-10.3001
▁huge	-10.3004
ological	-10.3004
▁participants	-10.3007
▁extremely	-10.3011
▁George	-10.3013
▁nuclear	-10.3013
▁লিখিত	-10.3014
▁ঝুঁকি	-10.3023
▁আসামী	-10.3023
▁Germany	-10.3023
▁yourself	-10.3026
▁পদ্মা	-10.303
ep	-10.3032
ey	-10.3032
িকা	-10.3038
খালী	-10.3038
ble	-10.3038
▁Disease	-10.3039
বাস	-10.3041
ঠ	-10.3049
▁অপেক্ষা	-10.3055
sta	-10.3058
▁relationship	-10.307
▁race	-10.3077
গ্রাম	-10.3087
▁chemicals	-10.3091
▁চরম	-10.3093
▁Just	-10.31
her	-10.3109
▁illness	-10.3112
টিকে	-10.3112
▁কাউকে	-10.3121
▁মিজানুর	-10.3127
ন্স	-10.3132
▁options	-10.3133
▁allowed	-10.3135
▁<	-10.3136
▁জেরে	-10.3136
▁blog	-10.3136
▁মোস্তফা	-10.3137
▁Civil	-10.3137
▁পরিচালিত	-10.3137
▁পাঠ	-10.3138
▁Guide	-10.3139
har	-10.3144
gen	-10.3145
▁করব	-10.3145
▁আনতে	-10.3147
▁বিকালে	-10.3149
see	-10.3153
▁মেডিক্যাল	-10.3157
▁এন্ড	-10.3164
▁ঘিরে	-10.3168
▁wildlife	-10.3168
▁অবস্থিত	-10.3168
▁UK	-10.3168
ell	-10.3172
ification	-10.3172
▁আশ্রয়	-10.3178
▁হোটেল	-10.3178
গু	-10.3179
▁target	-10.318
q	-10.3185
▁কিশোর	-10.3186
work	-10.3194
▁communication	-10.3194
vi	-10.3195
▁Bar	-10.3195
▁Cancer	-10.3199
▁সড়কের	-10.32
▁চোখে	-10.3203
▁রফিকুল	-10.3205
▁distribution	-10.3206
▁technologies	-10.3209
lic	-10.3211
ৃ	-10.3212
▁film	-10.3216
▁visual	-10.322
▁direction	-10.3223
ong	-10.3231
▁শাখা	-10.3232
েজ	-10.3234
▁expect	-10.3234
▁সম	-10.3238
hose	-10.3238
▁Lake	-10.324
▁ক্লাবের	-10.3249
▁বর	-10.325
▁machine	-10.3255
দে	-10.3264
▁বাবার	-10.3271
রাজ	-10.3278
▁খেয়ে	-10.3283
▁background	-10.3283
▁কষ্ট	-10.3284
▁মাধ্যম	-10.3286
▁শুরুর	-10.3287
▁heavy	-10.3293
▁database	-10.3302
▁করলেও	-10.3304
▁আপনাদের	-10.3304
all	-10.3305
মত	-10.3306
▁নারায়ণগঞ্জ	-10.3308
▁কবি	-10.3309
more	-10.3312
ible	-10.3325
ার্স	-10.3326
▁তুলনায়	-10.3327
▁বলিউড	-10.3331
▁depression	-10.3335
▁স্পোর্টস	-10.3335
▁যুদ্ধ	-10.3337
ging	-10.3342
▁dogs	-10.3342
▁promote	-10.3344
ations	-10.3349
▁ডিগ্রি	-10.3356
▁মতবিনিময়	-10.3356
▁Gu	-10.336
▁saw	-10.3362
▁Ph	-10.3367
▁আমদানি	-10.3367
▁Inc	-10.3367
▁আশঙ্কা	-10.3368
▁drinking	-10.3376
নিউজ	-10.3379
▁glass	-10.3383
ঙ	-10.3389
▁stroke	-10.3394
ver	-10.3394
▁letter	-10.3402
▁শ্রী	-10.3402
ক্ত	-10.3404
▁interested	-10.3405
▁ইতোমধ্যে	-10.3406
▁technique	-10.3408
▁kalerk	-10.341
▁eventually	-10.341
▁বাসা	-10.3412
▁medications	-10.3413
▁Bay	-10.3416
▁infected	-10.3417
eg	-10.3417
▁Greek	-10.3421
br	-10.3424
ru	-10.3426
▁অনলাইনে	-10.3431
▁significantly	-10.344
▁মর্গে	-10.3442
▁খেলোয়াড়	-10.3443
▁walk	-10.3443
▁Have	-10.3445
qua	-10.3452
▁নির্বাচনী	-10.3456
▁engineering	-10.3457
▁strength	-10.3457
▁যাদের	-10.3461
▁ব্যাটসম্যান	-10.3463
▁ধ	-10.3463
▁চরিত্রে	-10.347
itis	-10.3472
▁cities	-10.3475
▁Times	-10.3475
গামী	-10.3475
▁reasons	-10.3478
▁কত	-10.3478
ko	-10.3479
ric	-10.3486
পররাষ্ট্রমন্ত্রী	-10.3491
let	-10.3493
▁office	-10.3493
▁বঙ্গাব্দ	-10.3495
বী	-10.3497
ud	-10.35
৩৭	-10.3501
করণ	-10.3503
▁আধুনিক	-10.3506
▁নির্মাতা	-10.3506
▁জীবনে	-10.3506
cy	-10.3506
▁cat	-10.3508
▁carry	-10.3509
▁আগামীকাল	-10.3512
▁চুল	-10.3513
▁strategies	-10.3517
▁সংস্করণ	-10.3517
light	-10.352
মিন	-10.352
▁Updated	-10.352
▁layer	-10.352
▁মাথা	-10.3523
▁linked	-10.3523
▁choice	-10.3531
▁সীমান্তে	-10.3535
▁religious	-10.3538
▁seed	-10.354
▁income	-10.3548
▁Healthwise	-10.3549
▁শামীম	-10.3549
▁electrical	-10.355
▁warming	-10.3551
ea	-10.3558
▁starting	-10.3559
▁encourage	-10.3561
▁কেবল	-10.3563
▁ages	-10.3566
▁perhaps	-10.3568
▁প্রেসক্লাবের	-10.3568
▁introduced	-10.3569
▁পেরে	-10.357
AL	-10.3573
▁Paul	-10.3575
▁se	-10.3577
▁সক্ষম	-10.3579
▁screen	-10.358
▁status	-10.358
নিয়া	-10.3582
▁চ্যাম্পিয়ন	-10.3586
▁মেসি	-10.3587
▁coast	-10.3589
ুয়া	-10.3595
▁সাইফুল	-10.3599
▁গেলেন	-10.3603
▁advice	-10.3603
▁flowers	-10.3605
▁defined	-10.3605
▁কোম্পানির	-10.3607
▁সো	-10.3609
▁সার্বিক	-10.3614
▁কর্মরত	-10.3614
▁alternative	-10.3616
▁recommended	-10.3616
▁৩২	-10.3622
▁urban	-10.3623
▁forward	-10.3623
োর	-10.3624
▁কমিশনের	-10.3625
▁board	-10.3626
▁signal	-10.3626
▁removed	-10.3627
ries	-10.3637
▁ত্যাগ	-10.3642
▁liquid	-10.3646
▁তালুকদার	-10.3646
▁আহসান	-10.3647
mm	-10.3647
▁towards	-10.3651
▁amounts	-10.3654
▁কমপ্লেক্সে	-10.3662
▁সম্মান	-10.3663
▁আসনে	-10.3665
▁exist	-10.3665
▁বিজ্ঞপ্তি	-10.3665
▁বিশাল	-10.3665
থা	-10.3671
▁এলাকাবাসী	-10.3673
▁apply	-10.3676
▁block	-10.3678
▁planning	-10.368
▁ধাক্কা	-10.368
▁notes	-10.3682
▁Review	-10.3685
▁কয়েকদিন	-10.3686
▁নাই	-10.3687
ব্য	-10.3693
▁dead	-10.3694
▁সমর্থন	-10.37
▁smoke	-10.37
ose	-10.37
▁gets	-10.3706
৪৮	-10.3708
▁Ko	-10.3712
▁ময়নাতদন্ত	-10.3712
▁দৃশ্য	-10.3714
▁sky	-10.3718
ified	-10.3719
▁যুবকের	-10.372
▁Florida	-10.3723
▁ear	-10.3724
▁টায়	-10.3729
▁রাশিয়া	-10.3732
▁৮০	-10.3734
▁দেবেন	-10.3735
▁ক্ষতিগ্রস্ত	-10.3739
▁পাল	-10.374
▁Google	-10.374
▁টাঙ্গাইল	-10.3749
rd	-10.3749
▁ছ	-10.3749
▁print	-10.3753
▁previously	-10.3756
▁একে	-10.3756
▁failure	-10.3756
ks	-10.3757
▁broad	-10.376
▁সদস্যের	-10.3762
▁Office	-10.3767
▁Social	-10.3768
▁respect	-10.3768
▁বিশ্বকাপের	-10.3769
▁অ্যাপ	-10.3771
▁Po	-10.3772
▁ইন্টারনেট	-10.3773
▁watch	-10.3777
▁Ta	-10.3777
▁reserved	-10.3781
▁Study	-10.3786
▁জু	-10.3786
▁rule	-10.3788
রাম	-10.3788
▁homes	-10.379
▁marine	-10.379
▁ca	-10.3791
▁বিজিবি	-10.38
▁কোথাও	-10.38
▁km	-10.3801
▁দমন	-10.3801
▁ভূ	-10.3802
গার	-10.3805
▁fine	-10.3805
▁sp	-10.3805
▁drink	-10.3806
pa	-10.3806
▁সমালোচনা	-10.3808
▁aid	-10.3809
▁served	-10.3811
▁opportunities	-10.3811
▁helping	-10.3816
▁message	-10.3816
▁park	-10.3823
▁industrial	-10.383
৪৩	-10.3832
▁else	-10.3834
▁বিরাট	-10.3834
▁continued	-10.3834
▁Jan	-10.3834
▁ভিড়	-10.384
▁Director	-10.3841
▁island	-10.3842
▁games	-10.3844
▁bodies	-10.3845
▁পারিবারিক	-10.3845
লিয়া	-10.3847
▁রক্ত	-10.3848
ন্ন	-10.3848
▁easier	-10.3856
fi	-10.3857
▁index	-10.3862
val	-10.3866
▁ধর্মীয়	-10.3869
▁structures	-10.3869
▁majority	-10.3873
▁lived	-10.3875
▁সরিয়ে	-10.3881
▁কার্যালয়	-10.3885
▁দলকে	-10.3885
gi	-10.3886
▁seeds	-10.3886
▁extreme	-10.3887
▁চ্যানেল	-10.3887
▁সংসদের	-10.3889
▁অ্যাড	-10.3893
▁জন্মদিন	-10.3895
▁নেতারা	-10.3895
▁Columbia	-10.3895
▁মুজিব	-10.3896
▁দাঁড়িয়ে	-10.3898
▁Women	-10.39
ever	-10.3902
▁মিডিয়ায়	-10.3903
▁challenges	-10.3903
▁শরীরের	-10.3904
bar	-10.3906
▁পূজা	-10.3907
▁storm	-10.3908
▁UN	-10.3908
▁নব	-10.3909
▁চাহিদা	-10.3912
▁মেয়াদ	-10.392
▁মাহবুব	-10.392
▁balance	-10.3923
bit	-10.3923
▁সুরক্ষা	-10.3925
▁colleagues	-10.3926
▁happen	-10.3932
▁court	-10.3933
▁Part	-10.3934
▁dangerous	-10.3934
▁ঘোষ	-10.3944
bb	-10.3944
▁Source	-10.3945
▁emergency	-10.3945
▁সাধারন	-10.3946
▁সকলের	-10.3949
▁observed	-10.3951
▁consist	-10.3952
ung	-10.3955
▁Next	-10.3959
▁eggs	-10.3962
▁stem	-10.3963
▁clinical	-10.3964
▁believed	-10.3968
▁সংঘর্ষ	-10.3968
▁speech	-10.3968
▁ডাক্তার	-10.397
▁Dec	-10.3971
▁চারটি	-10.3972
৩৩	-10.3972
▁Natural	-10.3976
▁mobile	-10.3977
▁নাসির	-10.3978
▁অস্ট্রেলিয়া	-10.3978
▁ex	-10.3982
▁ফাঁস	-10.3983
off	-10.3987
৩৯	-10.3989
av	-10.399
রফে	-10.3992
▁ইরানের	-10.3993
▁library	-10.3999
▁Japanese	-10.4002
▁west	-10.4002
▁sex	-10.4003
▁surrounding	-10.4005
back	-10.4006
▁civil	-10.4016
▁সং	-10.4017
▁treatments	-10.4018
▁hear	-10.402
▁মহাপরিচালক	-10.4024
▁Scientists	-10.4026
তী	-10.4031
▁উইকেটে	-10.4033
▁তোলা	-10.4033
set	-10.4037
▁রো	-10.4038
▁forces	-10.4039
▁Ho	-10.4042
▁anyone	-10.4043
▁পরিষ্কার	-10.4047
দেশ	-10.4048
▁কংগ্রেস	-10.4052
▁changing	-10.4056
▁জাহিদ	-10.4057
▁obesity	-10.4058
▁reducing	-10.4059
▁pass	-10.4059
▁moved	-10.406
▁হামিদ	-10.406
াম	-10.406
▁খাওয়া	-10.4062
▁immediately	-10.4063
▁download	-10.4065
▁টেস্টে	-10.4066
▁সংলগ্ন	-10.4068
ny	-10.4069
▁Her	-10.4069
▁syndrome	-10.4069
▁ফিরিয়ে	-10.407
▁খোঁজ	-10.4074
▁রিয়াল	-10.4074
▁volume	-10.4079
chi	-10.4081
▁limit	-10.4082
▁আমির	-10.4083
▁আহবায়ক	-10.4089
▁ঝড়	-10.4091
৪২	-10.4094
▁press	-10.4099
▁challenge	-10.4101
▁গরু	-10.4101
▁নগদ	-10.4104
▁লাগে	-10.4104
ons	-10.4105
▁ব্যস্ত	-10.4112
▁performed	-10.4113
▁vi	-10.4114
াই	-10.4116
▁decline	-10.4116
Re	-10.4121
▁charge	-10.4124
▁metal	-10.4131
▁laws	-10.4135
▁capacity	-10.4138
▁bi	-10.4139
এই	-10.4143
▁Q	-10.4146
▁পরিণত	-10.4148
▁দখল	-10.4149
▁electric	-10.415
▁discovery	-10.4152
▁ঐ	-10.4157
▁উদ্বোধনী	-10.4162
▁giving	-10.4168
▁জানাতে	-10.4169
▁সন্তানের	-10.4169
▁tested	-10.417
▁সংবাদের	-10.4172
▁মেশিন	-10.4172
ture	-10.4174
▁কমেছে	-10.4175
▁আকাশ	-10.4178
▁samples	-10.418
▁indicate	-10.4182
▁legal	-10.4184
▁nothing	-10.4184
▁একবার	-10.4193
ick	-10.4195
▁২০১৪	-10.4201
▁ব্যর্থ	-10.4201
▁কখনো	-10.4205
▁Global	-10.4206
▁দূরে	-10.4206
▁টেলিভিশন	-10.4209
▁Book	-10.4214
▁organizations	-10.4215
ade	-10.4216
▁presence	-10.4218
▁আহ্বায়ক	-10.4223
▁buildings	-10.4224
▁Reference	-10.4227
▁president	-10.4229
▁motor	-10.423
▁বিকল্প	-10.4231
▁মিলিয়ে	-10.4233
▁পুড়ে	-10.4242
▁fever	-10.4242
▁internal	-10.4246
example	-10.4247
▁স্কুলের	-10.4248
▁টার	-10.4253
▁ব্রিটিশ	-10.4253
▁spent	-10.4254
▁phase	-10.4256
▁নিজেই	-10.4257
▁ভয়	-10.4258
▁ভেতরে	-10.4269
▁ইতিহাস	-10.4272
▁east	-10.4272
tri	-10.4274
▁জাকির	-10.4276
ya	-10.4277
▁সচেতন	-10.4278
▁looks	-10.4278
ven	-10.428
▁ভূমি	-10.428
ঙ্ক	-10.4281
▁ক্যা	-10.4284
▁শাস্তি	-10.4284
▁price	-10.4288
েট	-10.4295
৩৬	-10.4299
ফে	-10.43
▁mostly	-10.4301
গে	-10.4306
▁টিকিট	-10.4311
▁awareness	-10.4312
▁gain	-10.4314
▁নদীতে	-10.4316
▁becoming	-10.432
▁ইউনিয়নে	-10.4322
qu	-10.4322
▁আলোচিত	-10.4322
▁literature	-10.4323
৩৪	-10.4324
স্ক	-10.4325
uff	-10.4329
mb	-10.4329
▁church	-10.433
▁Get	-10.4334
▁ইনিংস	-10.4335
▁বিশ্ববিদ্যালয়ে	-10.4337
za	-10.4338
▁fully	-10.434
▁corn	-10.4344
▁helped	-10.4345
বু	-10.4346
▁দুজন	-10.4347
▁ভবনের	-10.4351
কেও	-10.4354
▁বদলে	-10.4355
▁command	-10.4362
▁নামক	-10.4364
▁Central	-10.4364
ভিত্তিক	-10.4365
▁deaths	-10.437
▁খুশি	-10.437
েস	-10.4374
ins	-10.4377
▁battle	-10.4377
▁চ্যালেঞ্জ	-10.4381
▁প্রফেসর	-10.4381
রণ	-10.4382
প্রাপ্ত	-10.4385
▁মহান	-10.4392
▁killed	-10.4394
pur	-10.4396
istic	-10.44
pos	-10.4402
▁White	-10.4402
ঙ্গ	-10.4404
▁bright	-10.4408
▁cycle	-10.4408
▁সূচক	-10.4411
▁Resources	-10.4412
▁ফর	-10.4414
▁পরবর্তীতে	-10.4414
▁sports	-10.4418
▁girls	-10.4419
▁তেমন	-10.442
▁অতি	-10.4422
▁floor	-10.4427
ms	-10.4429
▁voice	-10.4431
▁decisions	-10.4431
▁নেতাদের	-10.4431
৪৭	-10.4432
▁frequently	-10.4434
▁সার	-10.4438
ff	-10.444
▁studied	-10.444
▁copy	-10.4441
▁গানের	-10.4445
▁ball	-10.4446
▁অবরোধ	-10.4452
▁পড়েছেন	-10.4453
▁classes	-10.4454
▁অভিষেক	-10.4464
▁doctors	-10.4465
▁creation	-10.4465
▁৩৩	-10.4466
▁বো	-10.4466
▁কক্ষে	-10.4469
▁বাজেট	-10.4471
▁core	-10.4474
▁জানালেন	-10.4474
▁discussion	-10.448
▁evolution	-10.4482
ডে	-10.4484
▁আসন	-10.4484
পূর্ণ	-10.4486
▁অধিদপ্তর	-10.4488
dy	-10.449
▁widely	-10.4493
▁learned	-10.4497
ভূমি	-10.4498
▁কমান্ডার	-10.4499
▁lesson	-10.4503
▁exactly	-10.4504
▁১২টা	-10.4505
▁officials	-10.4506
বির	-10.4506
▁প্রতিরোধে	-10.4508
লীগের	-10.4508
▁পূর্ণ	-10.4513
▁asthma	-10.4513
▁পার্টি	-10.4518
ক্ষণ	-10.4518
▁coal	-10.4518
▁Are	-10.452
▁orbit	-10.4521
▁চেয়ারপারসন	-10.4523
▁তুলতে	-10.4525
▁বু	-10.4529
য়ান	-10.453
illa	-10.4531
▁serve	-10.4531
▁কুষ্টিয়া	-10.4533
▁মৎস্য	-10.4535
▁পৃথক	-10.4535
▁gave	-10.4535
▁noted	-10.4537
৫৯	-10.4538
▁বাড়িয়ে	-10.4541
বিরোধী	-10.4545
▁লিগ	-10.4549
▁phone	-10.4549
▁৩৬	-10.4551
▁কন	-10.4552
▁পেঁয়াজ	-10.456
▁নিউ	-10.4562
▁কার্যালয়ের	-10.4564
▁কার	-10.4574
▁হি	-10.4575
▁মেয়ের	-10.4577
▁carried	-10.4583
▁reduction	-10.4583
▁পছন্দ	-10.4584
▁করতেন	-10.4584
▁পরই	-10.459
▁technical	-10.459
▁গণমাধ্যম	-10.4591
▁output	-10.4598
▁ব্যবধানে	-10.4601
▁lab	-10.4601
▁অবদান	-10.4602
▁prevention	-10.4602
▁সরকারী	-10.4605
▁এক্স	-10.4611
▁প্রথমবারের	-10.462
▁যুবলীগ	-10.462
part	-10.4621
▁হারুন	-10.4621
▁novel	-10.4633
স্ব	-10.4633
▁ওয়েস্ট	-10.4634
▁ঢুকে	-10.4636
fish	-10.4637
▁স্ত্রীর	-10.4639
▁প্রতিযোগিতা	-10.4643
▁Nature	-10.4643
▁ধারণ	-10.4646
▁তিনজন	-10.4654
▁statement	-10.4655
▁আসন্ন	-10.4655
▁task	-10.4655
▁ones	-10.4659
▁represent	-10.466
▁ক্লাস	-10.4661
▁actions	-10.4661
▁joint	-10.4662
can	-10.4666
▁western	-10.4668
▁সংবাদমাধ্যম	-10.4669
oma	-10.4669
▁তারেক	-10.4672
▁বোন	-10.4673
▁format	-10.4677
▁চট্টগ্রামে	-10.4677
▁components	-10.4678
▁লঞ্চ	-10.4679
▁সার্জন	-10.468
▁সপ্তাহের	-10.4681
▁কম্পিউটার	-10.4684
▁ওয়েব	-10.4685
▁beautiful	-10.4691
▁brown	-10.4692
▁সত্য	-10.4692
▁fruits	-10.4701
▁দিয়েছিলেন	-10.4702
▁Encyclopedia	-10.4703
▁রুবেল	-10.4703
▁লেগে	-10.4705
▁recorded	-10.4709
▁catch	-10.471
IC	-10.4711
▁বিশ্বকাপে	-10.4714
▁এজন্য	-10.4715
▁wrong	-10.4715
▁পরিদর্শক	-10.4721
▁stand	-10.4724
▁official	-10.4724
gov	-10.4725
▁risks	-10.4725
▁Ni	-10.4728
▁files	-10.4732
▁thin	-10.4735
▁colour	-10.4735
▁characteristics	-10.4737
▁বেঁধে	-10.474
▁পয়েন্টে	-10.4742
▁লিমিটেড	-10.4742
▁procedure	-10.4745
▁Climate	-10.4747
▁diagnosed	-10.475
▁ভ্রাম্যমাণ	-10.4752
▁Pi	-10.4756
▁প্রেম	-10.476
▁particles	-10.4762
পুরে	-10.4765
▁Like	-10.4766
▁যৌথ	-10.4774
▁academic	-10.4776
▁মসজিদের	-10.4783
▁দায়ে	-10.4786
▁উপায়	-10.4786
▁affects	-10.4786
প্রতি	-10.4788
▁ready	-10.4791
▁হচ্ছেন	-10.4792
▁predict	-10.4792
▁আনার	-10.4793
▁হবেন	-10.4794
▁concern	-10.4794
bu	-10.4794
▁দেখার	-10.4796
▁জড়িয়ে	-10.4797
▁উপাচার্য	-10.4797
▁প্রত্যেক	-10.4802
▁attempt	-10.4803
▁moment	-10.4804
press	-10.4806
▁advanced	-10.4807
▁সেন্টার	-10.481
৫২	-10.4811
▁numerous	-10.4813
▁box	-10.4814
▁practical	-10.4825
ned	-10.4827
▁insects	-10.4827
▁নিকট	-10.4827
▁মৃত্যুতে	-10.4829
▁solid	-10.4832
▁কালো	-10.4832
▁রু	-10.4832
▁goals	-10.4837
▁আলোচনায়	-10.4837
▁resulting	-10.4848
▁নরেন্দ্র	-10.485
▁দ্বারা	-10.485
▁pieces	-10.4852
over	-10.4856
▁নন	-10.4859
এল	-10.4865
▁slightly	-10.4865
▁Both	-10.4866
▁কালাম	-10.487
▁Catholic	-10.4874
▁curriculum	-10.4874
US	-10.4876
▁সংস্কৃতি	-10.4885
▁আপনাকে	-10.4887
car	-10.4889
▁formation	-10.4891
ding	-10.4892
▁Views	-10.4893
▁৮টা	-10.4894
ee	-10.4895
▁শরীফ	-10.4897
▁Studies	-10.4899
▁ইত্যাদি	-10.4899
▁ধন্যবাদ	-10.4899
▁বজায়	-10.4899
▁faster	-10.49
▁Data	-10.4902
▁অফ	-10.4903
৫৬	-10.4907
▁গরম	-10.4908
পত্র	-10.4909
কর্মী	-10.4913
▁tiny	-10.4914
▁থাকছে	-10.4914
▁টন	-10.4916
▁ম্যানেজার	-10.4917
▁বগুড়া	-10.4923
▁বরাদ্দ	-10.4924
▁লেখক	-10.4924
▁সাংসদ	-10.4924
▁lo	-10.4924
▁বসবাস	-10.4926
▁discuss	-10.4928
.|	-10.493
not	-10.4932
▁properly	-10.4934
▁respond	-10.4936
▁ইফতার	-10.4936
▁Middle	-10.4936
▁biological	-10.4936
▁collected	-10.4937
ib	-10.4939
▁enable	-10.494
SS	-10.494
pro	-10.494
▁ধীরে	-10.4941
▁letters	-10.495
▁শপথ	-10.495
tan	-10.4953
▁begins	-10.4954
ক্র	-10.4957
▁describe	-10.4958
▁Latin	-10.4959
▁Archives	-10.4961
বাংলাদেশ	-10.4962
▁কর্মীদের	-10.4965
▁quick	-10.4965
▁বিজয়ী	-10.4966
▁জুটি	-10.4971
▁Let	-10.4971
▁Previous	-10.4973
▁primarily	-10.4973
▁worldwide	-10.4975
▁যেকোনো	-10.4975
▁medication	-10.4982
▁height	-10.4986
▁ম্যা	-10.4986
▁খন্দকার	-10.4998
▁কুপিয়ে	-10.4998
▁units	-10.5
▁ভ্রমণ	-10.5
▁completed	-10.5005
▁পুলিশকে	-10.5008
▁topics	-10.5008
▁সুনামগঞ্জ	-10.501
▁cholesterol	-10.5011
▁কর্তৃপক্ষের	-10.5013
▁ভোলা	-10.5014
উদ্দিন	-10.5016
▁Lu	-10.502
▁স্টেশন	-10.5021
▁detailed	-10.5024
▁আসছেন	-10.5026
dic	-10.503
▁সুর	-10.5031
৪১	-10.5032
▁আত্ম	-10.5033
▁farm	-10.5037
▁নষ্ট	-10.5038
sen	-10.5041
▁||	-10.5044
▁রাজ্যে	-10.5044
▁রুহুল	-10.5046
▁drought	-10.5048
ene	-10.5056
▁মিল	-10.5057
▁শব্দ	-10.5058
▁track	-10.5059
ris	-10.5061
▁ডেঙ্গু	-10.5061
▁comments	-10.5067
▁খবরে	-10.5069
▁prior	-10.5071
▁liver	-10.5074
▁বর্ষ	-10.5078
▁পরিস্থিতির	-10.508
my	-10.5081
▁Sha	-10.5082
ug	-10.5082
▁Plan	-10.5085
▁Group	-10.5094
▁দফায়	-10.5095
▁Bengal	-10.5096
▁সমাধান	-10.5097
▁সুপ্রিম	-10.5098
▁যুক্তরাষ্ট্রে	-10.5099
▁dust	-10.5102
tain	-10.5103
ual	-10.5106
▁রাস্তার	-10.5108
▁মানব	-10.5109
▁পূরণ	-10.5114
▁কিভাবে	-10.5115
▁achieve	-10.5119
lar	-10.5119
▁onto	-10.5122
▁ধ্বংস	-10.5124
free	-10.5124
▁বাধ্য	-10.5125
cent	-10.5128
sha	-10.5131
rin	-10.5131
▁explains	-10.5134
▁fluid	-10.5137
▁suffer	-10.5137
▁তৈরির	-10.5141
▁Government	-10.5142
ারি	-10.5143
▁চাঁদপুর	-10.5145
▁দশ	-10.5146
▁উত্তেজনা	-10.5149
▁চক্রবর্তী	-10.5149
nic	-10.5151
▁শু	-10.5152
▁ঘূর্ণিঝড়	-10.5153
▁কর্মকর্তাদের	-10.5155
RE	-10.5156
▁পিছিয়ে	-10.5158
▁ইংল্যান্ড	-10.5158
cho	-10.516
▁সাদা	-10.5161
▁আপিল	-10.5162
▁সুলতানা	-10.5163
▁সংবাদদাতা	-10.5164
▁referred	-10.5167
▁measured	-10.5168
▁Academy	-10.5174
▁turned	-10.5175
▁হেফাজতে	-10.5175
▁visible	-10.5178
▁manage	-10.5179
▁স্বরাষ্ট্র	-10.5182
ius	-10.5183
▁হাসি	-10.5184
▁উদ্দেশে	-10.5187
▁Commission	-10.5187
▁leg	-10.5188
▁মানসিক	-10.5189
▁origin	-10.5191
▁looked	-10.5195
▁বৈ	-10.5195
▁continues	-10.5195
৫৩	-10.5196
▁সংযোগ	-10.5198
▁camera	-10.5202
▁বরাত	-10.5204
▁·	-10.5206
▁gold	-10.5208
▁সিরিজে	-10.521
▁spend	-10.5218
ably	-10.5219
▁showing	-10.5221
▁Virginia	-10.5222
▁crops	-10.5223
▁ইতিমধ্যে	-10.5224
▁পজিটিভ	-10.5225
▁actual	-10.523
▁;	-10.5235
▁কারো	-10.524
▁অফিসে	-10.524
▁রাজা	-10.524
▁পাই	-10.5244
বাড়ী	-10.5252
▁সেঞ্চুরি	-10.5257
োয়া	-10.5259
▁মিথ্যা	-10.5261
▁আব্দু	-10.5262
▁resistance	-10.5264
▁সেগুলো	-10.5264
▁Law	-10.5264
▁connection	-10.5266
▁অভিজ্ঞতা	-10.5266
IS	-10.5271
▁aware	-10.5272
▁mark	-10.5273
▁reflect	-10.5274
▁সংরক্ষণ	-10.5276
▁ঈদুল	-10.5281
▁যেভাবে	-10.5281
মের	-10.5283
▁মাশরাফি	-10.5284
tal	-10.5285
▁নির্দিষ্ট	-10.5285
▁মাল	-10.5286
mar	-10.5286
▁Learning	-10.5292
▁৩৭	-10.5294
▁setting	-10.5298
▁ফোনে	-10.5299
৪৯	-10.53
▁hearing	-10.53
▁shift	-10.5304
▁মহামারি	-10.5313
▁সার্ভিসের	-10.5313
▁Mr	-10.5313
▁Cha	-10.5314
▁sounds	-10.5314
▁পতাকা	-10.5315
lan	-10.5315
▁রেজাউল	-10.5315
▁sustainable	-10.5316
▁initial	-10.532
▁কিছুই	-10.532
▁Australian	-10.533
▁farmers	-10.5331
ল্যান্ড	-10.5336
▁containing	-10.5337
▁মাত্রা	-10.5338
দ্র	-10.534
▁contrast	-10.5341
▁nutrition	-10.5344
৫৭	-10.5347
▁প্রত্যাহার	-10.5347
৫৮	-10.5348
▁colors	-10.5348
▁Land	-10.5348
▁ho	-10.5349
▁খেলাধুলা	-10.5351
▁Dis	-10.5352
▁millions	-10.5354
wood	-10.5356
▁youth	-10.5362
▁বিরোধ	-10.5362
▁happens	-10.5365
ker	-10.5366
▁Well	-10.5368
সব	-10.537
ম্যান	-10.5376
▁দাফন	-10.538
▁মুখপাত্র	-10.538
▁ডুবে	-10.538
▁intended	-10.5382
▁ভোটার	-10.5383
▁Photo	-10.5384
tes	-10.5387
▁magnetic	-10.5389
▁টাকায়	-10.5389
last	-10.539
▁একসঙ্গে	-10.5393
▁বিদেশ	-10.5393
▁ট্রাম্পের	-10.5397
▁৩৪	-10.5398
▁নির্মিত	-10.5406
নায়	-10.5408
▁experiences	-10.541
▁জাতি	-10.5412
▁monitoring	-10.5413
▁ডোনাল্ড	-10.5419
▁hospital	-10.5419
ath	-10.5424
▁অঞ্চলের	-10.5426
▁তদন্তের	-10.5428
▁Ch	-10.5431
▁আন্দোলনের	-10.5431
▁languages	-10.5431
▁অফিসের	-10.5432
▁involves	-10.5433
ised	-10.5434
▁নীতি	-10.5434
▁বোঝা	-10.5434
▁বিমানবন্দরে	-10.5437
▁সোনার	-10.5438
▁Canadian	-10.5439
▁ধরেই	-10.5443
আমরা	-10.5444
▁greenhouse	-10.5445
▁বুঝতে	-10.5448
াত	-10.5449
▁crop	-10.545
▁দিচ্ছেন	-10.545
▁শে	-10.5456
▁শাকিব	-10.5458
▁মোল্লা	-10.5458
▁ছাড়	-10.5459
▁রাজি	-10.5463
▁input	-10.5463
▁আদর্শ	-10.5471
▁মন্ডল	-10.5471
▁Mc	-10.5472
▁নজর	-10.5472
▁mice	-10.5473
▁speak	-10.5479
▁ক্ষমতায়	-10.5481
্র	-10.5482
▁অঞ্চলে	-10.5484
▁অল্প	-10.5484
▁বক্তারা	-10.5487
▁nutrients	-10.5487
board	-10.5494
▁motion	-10.5498
▁double	-10.5499
▁vehicle	-10.55
চর	-10.5501
জো	-10.5506
vis	-10.5507
▁Only	-10.5508
▁Alzheimer	-10.551
▁aspects	-10.5512
▁অবস্থার	-10.5514
ja	-10.5517
এক	-10.552
▁৪৮	-10.5522
▁বিপরীতে	-10.5528
▁par	-10.5529
▁protected	-10.5529
▁দাখিল	-10.553
▁প্রিমিয়ার	-10.5536
▁বেরিয়ে	-10.5538
▁reaction	-10.5542
ন্দা	-10.5542
▁Christ	-10.5546
su	-10.5548
▁lose	-10.555
▁pictures	-10.555
▁himself	-10.555
▁grass	-10.555
▁monitor	-10.5552
▁element	-10.5553
▁contribute	-10.5555
▁Bi	-10.5556
▁em	-10.5559
▁Page	-10.5561
▁কর্তৃক	-10.5563
▁perfect	-10.5565
▁soft	-10.5572
▁server	-10.5572
▁স্মার্টফোন	-10.5572
▁নিয়েই	-10.5575
▁ফাইনালে	-10.5576
▁supported	-10.5578
▁ধরণের	-10.5582
াধীন	-10.5588
▁former	-10.559
▁Hu	-10.5591
▁survive	-10.5591
▁হয়েছিলেন	-10.5593
▁assessment	-10.5594
▁w	-10.5595
ঞ্চ	-10.5597
▁parent	-10.5598
ata	-10.5599
▁মাদ্রাসা	-10.5602
েন্স	-10.5603
▁concepts	-10.5603
▁হেরে	-10.5605
▁সারাদেশ	-10.5607
▁অন	-10.5607
কারীদের	-10.5609
▁উন্নতি	-10.5611
▁Bur	-10.5614
▁ইলিশ	-10.5617
িল	-10.5619
az	-10.5619
▁বলেছে	-10.5621
▁Thomas	-10.5626
▁round	-10.5627
▁proteins	-10.5628
▁দিবাগত	-10.5642
▁৯০	-10.5643
mail	-10.5645
▁concerns	-10.5649
▁detect	-10.5649
ov	-10.5652
▁Pe	-10.5661
▁improved	-10.5661
vent	-10.5661
ানো	-10.5663
▁পেলেন	-10.5665
▁জামাল	-10.5672
হাজ্ব	-10.5672
▁ঘুম	-10.5673
▁২০০	-10.5675
স্তা	-10.5677
▁জনে	-10.5681
▁recommend	-10.5682
▁অস্ট্রেলিয়ার	-10.5689
▁window	-10.5689
▁দান	-10.5689
▁পররাষ্ট্র	-10.5689
▁hundreds	-10.569
▁ideal	-10.569
▁pick	-10.5691
par	-10.5695
▁উন্নয়নের	-10.5695
▁প্রচুর	-10.5696
▁এফ	-10.5696
▁Check	-10.5697
▁পো	-10.5699
▁documents	-10.5703
▁পেলে	-10.5703
▁কারণেই	-10.5706
▁potentially	-10.5708
▁determined	-10.5709
▁Take	-10.5712
▁সমাজের	-10.5716
▁আল্লাহ	-10.572
▁wear	-10.5722
▁জাল	-10.5724
▁flat	-10.5724
[	-10.5726
▁প্রতিষ্ঠাতা	-10.5729
তেও	-10.5732
▁আব্দুল্লাহ	-10.5736
▁শুরুতে	-10.5737
▁stream	-10.574
RA	-10.5743
জাত	-10.5744
▁নুসরাত	-10.5749
▁প্রাক্তন	-10.5749
▁প্রয়োগ	-10.575
▁কলকাতার	-10.5751
▁spot	-10.5752
ES	-10.5755
▁লাইন	-10.576
▁মেহেদী	-10.5763
▁occurred	-10.5764
▁মঞ্জুর	-10.5764
▁আরিফ	-10.5769
▁solutions	-10.5776
▁agricultural	-10.5776
▁Agency	-10.5776
▁পাচ্ছে	-10.5781
▁combined	-10.5781
▁পাশের	-10.579
▁Charles	-10.579
▁tail	-10.5791
▁হতো	-10.5792
▁View	-10.5793
▁শরীর	-10.5795
▁৩৮	-10.5798
▁গুগল	-10.5799
gue	-10.5803
pre	-10.5805
▁forests	-10.5806
▁residents	-10.5809
hy	-10.5812
৪৪	-10.5815
house	-10.5815
▁শিরোপা	-10.5817
ায়ন	-10.5818
ew	-10.582
▁maps	-10.582
▁সেনাবাহিনী	-10.5821
▁বিজেপির	-10.5824
ki	-10.5824
▁ফ্লাইট	-10.5826
▁ship	-10.583
▁dioxide	-10.583
▁comprehensive	-10.5844
▁morning	-10.5844
ঘাট	-10.5847
▁Change	-10.5848
▁independent	-10.5849
▁grown	-10.585
ious	-10.585
read	-10.5851
ans	-10.5855
৫৪	-10.5856
▁সোনা	-10.586
হু	-10.5861
▁arm	-10.5864
▁পদ্ধতি	-10.5867
▁রাখে	-10.5873
▁nine	-10.5875
▁রবি	-10.5875
mes	-10.5876
▁রোড	-10.5877
▁buy	-10.5878
▁string	-10.5879
sc	-10.5881
▁স্বাগত	-10.5884
▁Laboratory	-10.5885
▁Old	-10.5885
▁সবকিছু	-10.5886
▁generate	-10.5888
▁sequence	-10.5893
▁smoking	-10.5898
লীগ	-10.5903
▁১১টায়	-10.5905
▁চেক	-10.5905
▁মিলন	-10.5907
▁engine	-10.5908
▁কোর্ট	-10.591
▁subjects	-10.5911
▁মিলনায়তনে	-10.5912
▁Da	-10.592
বর	-10.5921
▁সভাপতিত্ব	-10.5921
▁stomach	-10.5926
▁kinds	-10.5928
▁রেজা	-10.5932
dis	-10.5934
▁পৌরসভা	-10.5934
িতা	-10.5939
▁laboratory	-10.594
▁গাজীপুর	-10.5946
field	-10.5947
▁ফাইনাল	-10.5949
▁sort	-10.5949
▁feature	-10.5952
▁recognize	-10.5955
▁min	-10.5957
▁প্রশংসা	-10.5957
▁ঘণ্টার	-10.5957
▁muscles	-10.596
পর	-10.5961
▁Sciences	-10.5961
▁Language	-10.5962
▁জুড়ে	-10.5962
▁fossil	-10.5962
▁মনি	-10.5964
▁সমিতি	-10.5966
▁Family	-10.5967
▁উপসর্গ	-10.5967
▁গায়ে	-10.5967
▁ভোরে	-10.597
fa	-10.597
sp	-10.5971
ole	-10.5972
▁জামায়াত	-10.5973
▁originally	-10.5974
▁jobs	-10.5974
▁king	-10.5978
▁fundamental	-10.5981
▁storage	-10.5981
▁Monday	-10.5981
▁দুধ	-10.5982
▁সাড়া	-10.5984
▁শ্রমিকদের	-10.5985
▁Media	-10.5985
Ma	-10.5987
osis	-10.5987
▁fair	-10.5987
eth	-10.5989
▁জাতিসংঘ	-10.5991
▁আগ্রহ	-10.5992
▁Britain	-10.5994
▁Comments	-10.5995
ল্ড	-10.5995
▁ওজন	-10.5995
ER	-10.5996
▁শুনে	-10.5997
▁ট	-10.5998
▁ঝ	-10.5999
▁বলেই	-10.6001
▁পড়ার	-10.6002
▁দৃষ্টি	-10.6002
▁রিমান্ড	-10.6002
▁definition	-10.6003
▁লু	-10.6004
▁ড্র	-10.6005
▁launch	-10.6005
▁wine	-10.6008
▁drop	-10.6009
▁Prevention	-10.6009
▁leaf	-10.6009
▁প্রকাশ্যে	-10.601
▁শান্ত	-10.6011
▁উপস্থিতি	-10.6014
▁গড়	-10.6016
বৃন্দ	-10.6016
ica	-10.602
▁ভে	-10.6022
জির	-10.6027
▁sexual	-10.6027
ther	-10.6028
▁mis	-10.6029
▁efficient	-10.6029
▁যাওয়ায়	-10.6034
▁চৌধুরীর	-10.6035
ik	-10.6036
▁Richard	-10.6036
স্টার	-10.6038
▁নারীদের	-10.6039
▁computers	-10.604
▁পাক	-10.6041
▁Long	-10.6046
▁পর্যটন	-10.605
▁নোটিশ	-10.605
ছা	-10.605
▁mild	-10.6051
han	-10.6052
▁দূরত্ব	-10.6052
▁সাগর	-10.6057
▁হিসাব	-10.6057
▁intake	-10.606
▁renewable	-10.6062
▁খু	-10.6062
▁Dictionary	-10.6064
▁হাট	-10.6065
▁এসেছেন	-10.6067
▁দপ্তর	-10.607
▁স্বামীর	-10.6074
▁connect	-10.6076
▁আপনারা	-10.6076
▁খেতে	-10.6078
▁ইরান	-10.6081
্ন	-10.6083
py	-10.6085
▁গলায়	-10.6087
▁religion	-10.6091
▁পঠিত	-10.6091
berg	-10.6094
▁১১টার	-10.6098
cul	-10.6099
▁impacts	-10.61
▁Heart	-10.6104
▁poverty	-10.6105
▁cm	-10.6106
▁vital	-10.6106
▁দুর্যোগ	-10.6107
▁sand	-10.611
রাও	-10.6112
▁বাজারের	-10.6113
HA	-10.6117
▁List	-10.6117
▁Fa	-10.6118
▁Rights	-10.6119
▁মাদরাসা	-10.6119
▁touch	-10.6124
▁ভাইরাসে	-10.6126
▁কর্মীরা	-10.6127
শিক্ষাপ্রতিষ্ঠান	-10.6128
▁Christian	-10.6129
▁নাটক	-10.613
▁Any	-10.6131
▁কোহলি	-10.6131
▁Network	-10.6133
▁এসএসসি	-10.6134
▁জনগণ	-10.6134
ময়	-10.6135
▁seat	-10.6139
▁শূন্য	-10.6143
▁experiments	-10.6144
rn	-10.6146
▁রাষ্ট্রদূত	-10.6147
▁ডেকে	-10.6148
▁worth	-10.6148
▁depending	-10.615
▁ফুট	-10.6151
ভো	-10.6152
▁মনির	-10.6156
▁Common	-10.6157
▁ব্যয়	-10.616
গুলির	-10.616
▁সংগ্রাম	-10.6164
টের	-10.6164
▁পরিবারকে	-10.6165
▁৩৯	-10.6165
▁মার	-10.6167
▁রাশিয়ার	-10.617
▁title	-10.6173
▁কর্তব্যরত	-10.6175
bd	-10.6176
▁বরং	-10.6179
▁wanted	-10.6181
▁আরেকটি	-10.6183
▁Before	-10.6184
▁ডিবি	-10.6184
▁মান্নান	-10.6185
▁fly	-10.6185
▁মারধর	-10.6187
▁বাবুল	-10.6187
#	-10.6187
▁মিলিয়ন	-10.6189
▁সংযুক্ত	-10.619
▁requirements	-10.619
কেই	-10.6196
▁যাবেন	-10.6197
▁bill	-10.6198
▁transport	-10.6199
▁ভবনে	-10.62
▁রিট	-10.6201
▁vessels	-10.6201
▁অবনতি	-10.6203
▁Carolina	-10.6203
▁অথচ	-10.6203
▁principles	-10.6206
▁সেনাবাহিনীর	-10.6214
▁campaign	-10.6216
▁centuries	-10.6217
▁Ohio	-10.6217
▁relative	-10.6222
মী	-10.6224
▁Com	-10.6226
▁Si	-10.6226
ify	-10.6228
&	-10.623
▁গাড়ির	-10.623
▁driving	-10.6232
▁policies	-10.6232
▁abuse	-10.6232
▁portion	-10.6232
▁সুজন	-10.6233
▁processing	-10.6234
▁গতি	-10.6235
▁মাহফিল	-10.6236
hu	-10.6238
▁রযাবের	-10.6242
cus	-10.6243
িস	-10.6246
▁স্পষ্ট	-10.6246
▁array	-10.6246
▁দফা	-10.6251
ough	-10.6252
৪৬	-10.6257
▁সাফল্য	-10.6258
ox	-10.6263
ুল্লাহ	-10.6266
▁vote	-10.6267
▁debate	-10.6274
If	-10.6274
▁operations	-10.6275
▁childhood	-10.6275
▁আলি	-10.6276
▁যানবাহন	-10.6286
▁trans	-10.6287
▁Survey	-10.6288
▁mo	-10.6288
▁operating	-10.6288
▁couple	-10.6291
▁prepare	-10.6291
▁stick	-10.6296
▁heard	-10.63
▁এক্সপ্রেস	-10.6302
▁kept	-10.6303
▁Author	-10.6304
▁সংক্রমণের	-10.6304
▁card	-10.6305
but	-10.6306
▁ঝিনাইদহ	-10.6307
▁painting	-10.631
▁efficiency	-10.6313
ছিলাম	-10.6313
nes	-10.6314
▁normally	-10.6314
ces	-10.6315
sy	-10.6315
▁lifestyle	-10.6318
▁Ri	-10.6319
▁Thus	-10.6319
তন	-10.6319
▁সাইকেল	-10.633
▁landscape	-10.6331
▁reached	-10.6332
▁electronic	-10.6333
َ	-10.6333
▁characters	-10.6333
lip	-10.6333
▁largely	-10.6335
▁conduct	-10.6336
▁Add	-10.6341
▁enhance	-10.6342
▁গিয়েছিল	-10.6342
▁career	-10.6344
▁Hospital	-10.6345
▁Design	-10.6345
▁playing	-10.6346
▁unknown	-10.6346
▁নিজে	-10.6351
ID	-10.6356
▁suggested	-10.6358
▁ভবিষ্যতে	-10.6358
▁twice	-10.6359
▁হোসাইন	-10.6359
▁ছেলের	-10.636
▁সালাম	-10.6362
▁keeping	-10.6362
ng	-10.6364
▁ছাড়াই	-10.6365
▁roots	-10.6367
▁টেকনাফ	-10.6367
▁foreign	-10.6374
▁station	-10.6375
▁massive	-10.6377
▁Native	-10.6378
দান	-10.638
▁আগুনে	-10.6383
▁সান	-10.6384
mor	-10.6388
▁Michael	-10.6388
▁তথা	-10.6389
▁ব্রাহ্মণবাড়িয়া	-10.6393
েরা	-10.6395
▁আন	-10.6397
int	-10.6398
▁trouble	-10.6402
▁বাড়তে	-10.6402
▁fill	-10.6404
▁ক্রিকেটে	-10.6404
▁ইংল্যান্ডের	-10.6408
che	-10.6409
▁Mi	-10.6413
▁চলতে	-10.6413
▁babies	-10.6417
▁Mary	-10.6422
▁জবাব	-10.6423
▁bank	-10.6429
▁sc	-10.643
▁গুণ	-10.6431
ok	-10.6433
▁Who	-10.6434
▁met	-10.6434
▁জানি	-10.6436
▁কখনও	-10.6436
▁Am	-10.6438
বাহী	-10.6442
▁বয়সে	-10.6446
▁অঙ্গ	-10.6447
▁exhibit	-10.6449
সো	-10.6454
▁কাপ	-10.646
RI	-10.6463
▁claim	-10.6464
zi	-10.6469
▁মহাসড়কের	-10.647
▁Its	-10.647
▁পাচ্ছেন	-10.6471
▁Cor	-10.6474
▁কর্মসূচির	-10.6474
▁বিনামূল্যে	-10.6474
▁কলেজে	-10.6475
সী	-10.6477
▁করবো	-10.6478
▁সিনেমায়	-10.6482
কালীন	-10.6483
ত্র	-10.6484
▁Where	-10.6485
য়াল	-10.6487
হাট	-10.6494
▁chain	-10.6494
▁রাতের	-10.6495
▁স্বাধীন	-10.6496
▁হাজারের	-10.6502
▁বলেছিলেন	-10.6504
▁advantage	-10.6506
▁connected	-10.6506
low	-10.6507
▁জাহান	-10.6508
▁raise	-10.6509
▁threat	-10.6509
▁accurate	-10.6509
▁আমেরিকার	-10.651
▁Ad	-10.6511
▁আমেরিকা	-10.6517
াব	-10.6517
▁আহবান	-10.6518
mark	-10.6518
িও	-10.6518
ঘ	-10.6523
uch	-10.6531
top	-10.6532
িজ	-10.6534
▁বিনিয়োগ	-10.6545
▁assist	-10.6545
▁honor	-10.6547
▁edition	-10.6549
▁ওয়েবসাইট	-10.6551
▁নৌ	-10.6554
▁দরজা	-10.656
▁মোদি	-10.6561
▁ইচ্ছা	-10.6563
▁মানবিক	-10.6564
▁Good	-10.6568
▁নায়ক	-10.6569
▁Forest	-10.6573
বের	-10.6576
▁Federal	-10.6576
▁ব্যবহৃত	-10.6576
▁Under	-10.6577
▁৪২	-10.6578
▁Keep	-10.6585
গান	-10.6585
▁screening	-10.659
▁পলাতক	-10.6591
তায়	-10.6592
▁Breaking	-10.6595
▁button	-10.6596
▁হ্যা	-10.6596
▁ব্যাটিং	-10.6597
▁emotional	-10.66
ay	-10.6601
▁listed	-10.6602
▁provider	-10.6602
▁played	-10.6605
▁Conservation	-10.6606
▁৪১	-10.6609
▁Men	-10.6611
▁Search	-10.6612
▁Bio	-10.6613
র্থ	-10.6621
ville	-10.6624
গি	-10.6624
▁হো	-10.6629
▁calcium	-10.6635
▁প্রিন্ট	-10.6635
▁peak	-10.6635
▁consumers	-10.6636
▁অভিযোগের	-10.6636
▁সাজা	-10.6637
▁leaders	-10.6638
▁regional	-10.664
▁সহযোগিতায়	-10.6642
▁mainly	-10.665
হে	-10.665
▁হেড	-10.6656
▁mountain	-10.6657
▁ফরিদপুর	-10.6658
▁foundation	-10.6663
ments	-10.6663
well	-10.6664
▁বন্দ্যোপাধ্যায়	-10.6664
▁Friday	-10.6664
▁freedom	-10.6665
",	-10.6667
▁kidney	-10.6669
pp	-10.6672
▁জজ	-10.6676
▁সিস্টেম	-10.6679
▁গঠিত	-10.6683
▁kill	-10.6685
▁মাস্টার	-10.6686
▁ছা	-10.6686
▁clearly	-10.6691
▁মীর	-10.6692
▁অটো	-10.67
▁আহতদের	-10.6705
▁ভালোবাসা	-10.6705
▁Though	-10.6709
ane	-10.671
▁frequency	-10.6715
▁নিবন্ধন	-10.6716
mas	-10.6717
▁নিউজিল্যান্ড	-10.6718
▁edge	-10.6722
▁Tuesday	-10.6723
▁excellent	-10.6723
▁রাজ্জাক	-10.6723
hal	-10.6731
▁শীর্ষে	-10.6733
▁শ্রীলঙ্কা	-10.6736
▁আচরণ	-10.6738
্ল	-10.674
▁otherwise	-10.674
▁adapt	-10.6741
▁অভি	-10.6745
▁বিনা	-10.6745
▁stock	-10.6747
▁master	-10.6749
▁fl	-10.6749
দুল	-10.6752
▁শিক্ষামন্ত্রী	-10.6752
▁হাকিম	-10.6753
▁রোহিঙ্গাদের	-10.6753
▁giant	-10.6753
▁ত্রি	-10.6754
▁l	-10.6758
▁percentage	-10.6758
▁pen	-10.6759
▁appeared	-10.6762
▁symbol	-10.6763
▁দেহ	-10.6764
▁মিটার	-10.6767
▁জোট	-10.6767
▁injuries	-10.6768
▁Management	-10.6768
▁vast	-10.6768
▁এইচ	-10.6772
▁ভ্যান	-10.6781
▁গ্রহণের	-10.6782
▁walking	-10.6782
▁Wednesday	-10.6783
▁facilities	-10.6783
▁taste	-10.6784
▁Martin	-10.6785
▁app	-10.6789
▁tumor	-10.6789
▁Los	-10.6789
▁নেতার	-10.6791
▁expression	-10.6791
▁violence	-10.6792
▁পরিচালনায়	-10.6793
▁returned	-10.68
▁প্রেমের	-10.6801
▁district	-10.6804
েন্ট	-10.6806
▁prepared	-10.6809
▁depth	-10.681
graph	-10.681
▁মধু	-10.6813
▁কামরুল	-10.6813
▁ক্ষমা	-10.6813
হান	-10.6814
▁Every	-10.6814
▁পর্যায়ের	-10.6818
▁hundred	-10.6819
▁খা	-10.6826
▁handle	-10.6829
র্ন	-10.6829
৫১	-10.683
▁জাতিসংঘের	-10.6832
▁নম্বরে	-10.6833
▁labor	-10.6834
▁horse	-10.6835
ীন	-10.6842
▁Child	-10.6842
▁agriculture	-10.6843
hand	-10.6843
▁waves	-10.6843
স্প	-10.6848
▁সাব	-10.6852
▁জের	-10.6853
pi	-10.6855
▁সমান	-10.6855
রিক	-10.6856
▁Plant	-10.6857
▁Nations	-10.6859
▁ক্যামেরা	-10.6861
▁পঞ্চম	-10.6861
▁অসংখ্য	-10.6862
▁waters	-10.6863
▁সাম্প্রতিক	-10.6863
▁মর্যাদা	-10.6867
▁cars	-10.6869
▁উদ্দেশ্য	-10.6872
▁Ben	-10.6873
▁Instead	-10.6875
▁ফ্রি	-10.6875
▁গেলেও	-10.6877
ল্লা	-10.6879
tz	-10.688
▁consequences	-10.6881
▁aren	-10.6881
▁Peter	-10.6881
▁contract	-10.6882
▁tea	-10.6883
med	-10.6885
▁familiar	-10.6888
▁দুর্দান্ত	-10.6888
▁selected	-10.6889
▁ক্রয়	-10.6889
▁স্কুলে	-10.6891
▁মাটি	-10.6891
▁produces	-10.6895
▁saying	-10.6895
▁দোকানে	-10.6899
্যু	-10.6904
▁seek	-10.6904
▁Star	-10.6905
▁পল্লী	-10.6905
টন	-10.6907
▁stone	-10.691
▁focused	-10.6915
▁tri	-10.6924
▁Du	-10.6924
▁Environment	-10.6929
▁আপাতত	-10.6933
▁পুনরায়	-10.6933
▁জাফর	-10.6933
▁diversity	-10.6933
▁burn	-10.6935
▁পেসার	-10.6935
▁হাজী	-10.6936
▁সিলেটে	-10.6939
▁এলে	-10.694
▁বিদেশে	-10.6941
▁explained	-10.6943
unt	-10.6945
uk	-10.6946
▁ইং	-10.6947
▁আক্রমণ	-10.6947
লিন	-10.6948
▁রেখেছে	-10.6948
▁নিচ্ছে	-10.695
▁ch	-10.6953
There	-10.6956
শো	-10.6957
mit	-10.6959
▁গু	-10.6959
▁valuable	-10.6963
বার্তা	-10.6965
ches	-10.6967
cha	-10.6968
▁ডেস্কঃ	-10.6969
▁adding	-10.6973
fin	-10.6974
▁Jesus	-10.6979
▁Wildlife	-10.6979
▁guidelines	-10.6979
▁greatest	-10.6984
▁helpful	-10.6985
▁মানিক	-10.6988
▁choices	-10.6989
▁অজ্ঞাত	-10.6994
▁সমাবেশে	-10.6994
eng	-10.6996
▁era	-10.6998
▁typical	-10.6998
ino	-10.6999
ইল	-10.7003
▁THE	-10.7003
▁উন্নয়নে	-10.7005
▁attacks	-10.7008
▁traffic	-10.7009
^	-10.7009
▁join	-10.7011
▁পিস	-10.7012
ED	-10.7013
নোর	-10.7015
▁পানির	-10.7016
▁নীল	-10.7017
▁lay	-10.7018
▁চাওয়া	-10.7018
ঠা	-10.7022
▁হাওলাদার	-10.7024
▁জুয়েল	-10.7024
▁জেলে	-10.7025
▁মাটিতে	-10.7025
▁Windows	-10.7028
▁facts	-10.7029
▁উল্লাহ	-10.7029
▁বাম	-10.703
▁Paper	-10.7032
▁load	-10.7034
ett	-10.7035
▁যুক্তরাজ্য	-10.7035
▁দ	-10.7035
▁Tri	-10.7037
cl	-10.7038
▁Dhaka	-10.704
৬০	-10.704
▁chief	-10.7041
dia	-10.7044
▁conflict	-10.7049
▁universe	-10.7055
▁শাহরুখ	-10.7055
▁বন্যা	-10.7059
▁tall	-10.7059
এইচ	-10.706
▁rocks	-10.7061
▁decade	-10.7065
▁raised	-10.7067
▁ঘন্টা	-10.7067
▁inflammation	-10.707
▁লাগিয়ে	-10.707
▁একদিন	-10.7071
▁rapidly	-10.7078
▁ইনিংসে	-10.7081
▁experienced	-10.7083
▁মাহি	-10.7083
▁নিম্ন	-10.7085
▁lung	-10.7086
▁বিসিবি	-10.7086
rr	-10.7086
▁শুধুমাত্র	-10.7086
▁graduate	-10.7089
ear	-10.709
▁h	-10.7093
LE	-10.7094
▁procedures	-10.7094
▁যুবককে	-10.7096
ani	-10.7097
▁Court	-10.7101
▁Southern	-10.7102
▁periods	-10.7103
▁মেরে	-10.7103
AS	-10.7106
▁sold	-10.7109
▁closely	-10.7111
▁Ja	-10.7113
▁পরও	-10.7115
র্ক	-10.7116
▁সিএনজি	-10.7116
▁প্রতিরক্ষা	-10.7117
▁shared	-10.712
▁সংসার	-10.7121
▁ঐতিহাসিক	-10.7121
▁constant	-10.7123
▁obtain	-10.7131
সমূহ	-10.7135
রিয়া	-10.7137
▁divided	-10.7139
▁প্রতীক	-10.7143
▁ঐক্য	-10.7147
▁বেঁচে	-10.7147
▁সুপারিশ	-10.7148
▁satellite	-10.7151
▁Type	-10.7151
▁feeling	-10.7151
শিয়া	-10.7153
▁decided	-10.7158
▁বেশিরভাগ	-10.7163
▁introduction	-10.7163
▁neck	-10.7164
▁Math	-10.7165
▁Jews	-10.717
িস্ট	-10.7172
▁fishing	-10.7173
▁০	-10.7174
▁আবারো	-10.7175
▁slowly	-10.7178
▁পুরোপুরি	-10.7178
▁শফিকুল	-10.7179
▁mu	-10.7182
▁ডিম	-10.7184
▁জন্যই	-10.7184
EN	-10.7185
▁purposes	-10.7187
▁গলা	-10.7188
type	-10.7189
▁অপু	-10.7191
▁calories	-10.7193
▁scientist	-10.7195
▁স্বাক্ষরিত	-10.7196
▁চির	-10.7197
▁bones	-10.7197
▁specifically	-10.7197
▁producing	-10.7198
▁discover	-10.7201
▁Ru	-10.7205
▁উদ্দীন	-10.7206
▁finally	-10.7209
▁ডাকাত	-10.721
▁regularly	-10.7211
lum	-10.7212
▁Wood	-10.7212
▁করছিলেন	-10.7213
▁fewer	-10.7215
pic	-10.7219
▁৫০০	-10.722
▁collect	-10.7222
▁teens	-10.7225
▁ভোটের	-10.7225
▁উল	-10.7227
▁appearance	-10.7227
ola	-10.7233
▁মৌসুমে	-10.7234
▁বলি	-10.7235
র্ত	-10.7235
▁log	-10.7239
▁taught	-10.7241
ِ	-10.7241
▁আকবর	-10.7241
▁select	-10.7244
ore	-10.7246
▁Ask	-10.7247
▁views	-10.7247
▁Wi	-10.7248
▁জাহাজ	-10.7248
▁agencies	-10.7256
▁tropical	-10.7256
▁আইনশৃঙ্খলা	-10.7257
▁offered	-10.7258
▁বৃষ্টির	-10.7259
▁proposed	-10.7259
রত	-10.726
▁describes	-10.7261
cro	-10.7263
▁ঝুল	-10.7264
▁পার্ক	-10.7266
▁Ge	-10.7269
▁ধরতে	-10.7272
▁শাহজালাল	-10.7272
▁ইন্টারন্যাশনাল	-10.7272
▁Valley	-10.7272
▁প্রত্যাশা	-10.7273
পাত	-10.7273
▁Trans	-10.7273
▁অপহরণ	-10.7276
▁pot	-10.7282
▁regarding	-10.7282
▁ক্যাম্প	-10.7284
▁কাপড়	-10.7286
AR	-10.7287
ory	-10.7291
▁updated	-10.7293
▁studying	-10.7293
▁conventional	-10.7295
dent	-10.73
▁পর্ব	-10.7301
▁ব্যবহারের	-10.7302
গ্রা	-10.7303
▁strategy	-10.7303
▁Help	-10.7304
িংয়ের	-10.7305
▁marked	-10.7308
▁pair	-10.7309
কুল	-10.7314
▁Nov	-10.7316
▁এটাই	-10.7318
▁instrument	-10.7319
▁Chapter	-10.7319
▁Treatment	-10.732
▁বাঙালি	-10.7321
▁molecules	-10.7322
▁Israel	-10.7325
▁warning	-10.7328
▁চীনা	-10.7329
▁আছি	-10.733
▁ডাঃ	-10.7331
▁detail	-10.7333
▁sensitive	-10.7334
html	-10.7336
▁flag	-10.7336
ient	-10.7336
▁establish	-10.734
▁Live	-10.7342
▁paint	-10.7345
▁centre	-10.7345
রাত	-10.7346
▁প্রতিবেশী	-10.735
▁lessons	-10.735
▁কেমন	-10.7354
▁মামলাটি	-10.7355
▁ma	-10.7356
▁ফুটবলার	-10.7358
▁প্রতিবন্ধী	-10.7363
▁হাবিব	-10.7365
▁বাড়ানো	-10.7365
▁Administration	-10.7366
▁sh	-10.7367
▁গানটি	-10.7368
ae	-10.7369
দ্য	-10.7371
▁ফেব্রুয়ারী	-10.7373
MS	-10.7375
ants	-10.7378
▁নির্যাতনের	-10.738
▁কারখানা	-10.7381
▁convert	-10.7382
▁survival	-10.7382
▁লাগবে	-10.7382
দিয়া	-10.7382
▁Tu	-10.7384
AP	-10.7388
▁অঞ্চল	-10.7389
▁সমস্যার	-10.7391
ari	-10.7392
▁সরে	-10.7393
▁Gi	-10.7394
▁টুর্নামেন্ট	-10.7397
▁সংসদে	-10.7397
▁sharing	-10.7398
▁Northern	-10.7399
▁readers	-10.7403
form	-10.7403
▁notice	-10.7406
ress	-10.7408
▁আপ	-10.7409
▁vary	-10.7414
▁composition	-10.7414
▁operation	-10.7415
log	-10.7416
▁Services	-10.7424
▁counter	-10.7426
▁Mon	-10.7426
▁leader	-10.7428
▁Thursday	-10.743
▁diverse	-10.7432
▁Mark	-10.7433
▁Back	-10.7433
▁Early	-10.7433
▁decrease	-10.7433
▁o	-10.7434
ভে	-10.7438
▁বাসের	-10.744
▁নেতাকর্মীরা	-10.7442
▁গাজী	-10.7442
ase	-10.7444
▁Power	-10.7446
▁মহামারী	-10.7446
▁legs	-10.7448
▁manner	-10.7449
▁আগেও	-10.7449
▁রোধে	-10.7452
▁একদিনে	-10.7454
▁সেখানেই	-10.7457
aw	-10.7457
▁colon	-10.7459
▁হোটেলে	-10.7461
▁আঞ্চলিক	-10.7462
▁বাংলাদেশকে	-10.7462
▁ভাষায়	-10.7463
▁সাহিত্য	-10.7464
▁naturally	-10.7467
▁বিষ	-10.7469
ডিসি	-10.747
▁দাবী	-10.747
▁করেনি	-10.747
▁funding	-10.747
ste	-10.7471
ণী	-10.7472
▁পক্ষের	-10.7472
▁শীর্ষক	-10.7473
▁ঘ	-10.7475
mal	-10.7475
▁ইউনিভার্সিটি	-10.7478
▁ফিচার	-10.7479
pl	-10.748
▁৪৯	-10.7484
▁bo	-10.7491
েশ	-10.7493
▁ক্ষোভ	-10.7494
▁Atlantic	-10.7494
▁রোগীদের	-10.7495
▁কিনে	-10.7495
▁toxic	-10.7496
▁১০টায়	-10.7497
ctor	-10.7502
▁photos	-10.7504
▁Mac	-10.7504
▁express	-10.7507
▁friend	-10.7509
▁এভাবে	-10.751
▁Brown	-10.751
▁narrow	-10.751
▁সমুদ্র	-10.751
▁Board	-10.7511
▁বোলিং	-10.7511
cer	-10.7517
▁পরিশোধ	-10.752
শীল	-10.7521
▁আজিজ	-10.7524
বাহ	-10.7524
▁wave	-10.7525
▁পড়লে	-10.7525
▁Henry	-10.7526
▁রাহুল	-10.7526
▁মালেক	-10.7527
▁harmful	-10.7527
▁replace	-10.7528
▁Solar	-10.7528
▁bangla	-10.7532
▁relationships	-10.7533
▁মোড়	-10.7533
▁habits	-10.7537
▁Chicago	-10.7542
▁Heritage	-10.7542
▁responsibility	-10.7542
▁উঠতে	-10.7542
▁আসাদুজ্জামান	-10.7542
▁স্বেচ্ছাসেবক	-10.7543
▁অর্থমন্ত্রী	-10.7552
▁পত্রিকা	-10.7552
nch	-10.7553
▁ব্যক্তিকে	-10.7555
▁ভেবে	-10.7559
▁extensive	-10.7565
▁rapid	-10.7566
▁possibly	-10.7568
▁হযরত	-10.7574
CC	-10.7574
▁সাঈদ	-10.7574
▁nerve	-10.7575
sk	-10.7576
▁কুমিল্লার	-10.7579
▁বলিউডের	-10.7581
▁মেয়েকে	-10.7583
▁প্রাপ্ত	-10.7585
▁tube	-10.7591
মাল	-10.7595
▁ro	-10.7596
▁শনাক্তের	-10.7597
▁Contact	-10.76
▁দরিদ্র	-10.7603
▁আবাসিক	-10.7606
OS	-10.7607
বাসী	-10.7609
জনের	-10.7609
রাই	-10.7609
▁younger	-10.7613
▁ভিসা	-10.7616
▁effectively	-10.7619
▁Te	-10.7621
ভুক্ত	-10.7621
▁cap	-10.7623
▁যাত্রীদের	-10.7623
▁component	-10.7624
ঘর	-10.7627
▁refers	-10.7628
▁ফাউন্ডেশন	-10.7629
▁করেননি	-10.7629
▁signals	-10.7635
▁estimates	-10.7638
▁Georgia	-10.7639
▁সদ্য	-10.7641
▁launched	-10.7642
▁pounds	-10.7643
app	-10.7644
▁county	-10.7645
▁ফে	-10.7646
▁depends	-10.7648
▁বৃদ্ধির	-10.765
▁researcher	-10.7651
▁Hill	-10.7654
▁cognitive	-10.7655
জুড়ে	-10.7658
▁স্বীকৃতি	-10.766
▁সরকারকে	-10.7661
▁যোগদান	-10.7661
▁বিকাশ	-10.7662
▁বিবেচনায়	-10.7664
▁pretty	-10.7671
▁nose	-10.7675
▁মোকাবিলায়	-10.7677
▁আসর	-10.768
প্ত	-10.7681
long	-10.7687
▁agency	-10.7688
▁গাঁজা	-10.7688
শান	-10.7693
▁সাম	-10.7694
▁রায়ের	-10.7694
What	-10.7695
SA	-10.7695
পন	-10.7695
▁Up	-10.7697
▁রস	-10.7698
▁এরশাদ	-10.7698
▁Call	-10.7698
▁পরের	-10.7702
▁মৃতদেহ	-10.7704
▁চিহ্নিত	-10.7705
▁request	-10.7705
▁institutions	-10.7708
▁purchase	-10.7709
মুখী	-10.7714
▁কারনে	-10.7714
▁answers	-10.7714
▁forced	-10.7714
▁calls	-10.7715
▁ওয়ার্ল্ড	-10.7715
২০২০	-10.7716
গুলোকে	-10.7718
▁resolution	-10.7718
▁বিবিসি	-10.772
▁রায়হান	-10.7722
▁arms	-10.7722
▁Ne	-10.7724
ency	-10.7727
▁লকডাউনের	-10.7732
▁পশ্চিমবঙ্গ	-10.7733
▁vehicles	-10.7733
▁approaches	-10.7734
▁মানবাধিকার	-10.7737
▁কমিউনিটি	-10.7737
▁ব্যথা	-10.7737
▁Among	-10.7737
▁prices	-10.7737
▁cards	-10.7738
▁sick	-10.7742
▁worse	-10.7748
▁বিধি	-10.7749
▁Tech	-10.7749
শত	-10.775
▁ক্যান্সার	-10.7753
মুল	-10.7754
▁রমজান	-10.7755
ev	-10.776
▁নির্দেশে	-10.7765
▁কমপক্ষ	-10.7766
▁Pri	-10.7766
▁সন্দেহ	-10.7767
▁Start	-10.7768
▁পাবলিক	-10.777
▁চাঁদ	-10.7771
▁কান	-10.7771
cur	-10.7771
িয়ান	-10.7772
▁citizens	-10.7774
▁উপস্থাপন	-10.7776
▁কাটিয়ে	-10.7781
▁recognized	-10.7783
▁লিগের	-10.7785
▁leaving	-10.7786
▁টুইট	-10.7787
▁Sometimes	-10.7787
▁ভুয়া	-10.7788
▁lake	-10.7789
▁সিরাজগঞ্জ	-10.779
▁sentence	-10.7791
▁ন্যাশনাল	-10.7795
gu	-10.7795
▁জানেন	-10.7802
▁Leave	-10.7803
▁obtained	-10.7804
▁stored	-10.7805
▁দিল্লি	-10.7805
▁Pat	-10.781
cal	-10.7811
▁remained	-10.7816
াদ	-10.7818
▁relevant	-10.7819
▁ব্যুরো	-10.7819
েড	-10.782
▁Jo	-10.7821
▁Yet	-10.7824
▁custom	-10.7825
▁জোন	-10.7827
▁im	-10.7829
ates	-10.7833
ians	-10.7834
▁গুলিতে	-10.7834
▁breathing	-10.7839
▁department	-10.784
▁museum	-10.784
▁label	-10.7845
ttle	-10.7847
▁দর্শক	-10.7857
▁physician	-10.7857
▁শ্রীলঙ্কার	-10.7859
▁Chi	-10.7861
▁তম	-10.7865
▁রেখেছেন	-10.7865
▁কর্মচারী	-10.7866
▁শিশুকে	-10.7867
▁sweet	-10.7869
▁সেকেন্ড	-10.7869
▁Christmas	-10.7869
▁মৌ	-10.7872
▁দিনব্যাপী	-10.7874
▁আস	-10.7876
▁bed	-10.7876
dge	-10.7879
▁na	-10.7879
yn	-10.7881
▁কাট	-10.7882
SE	-10.7883
▁controlled	-10.7885
▁Ver	-10.7885
▁পাশ	-10.7885
▁gl	-10.7886
▁দত্ত	-10.7886
▁এয়ার	-10.7887
▁জানাজা	-10.789
book	-10.7891
▁sector	-10.7891
▁প্রদর্শন	-10.7891
▁opening	-10.7893
▁feeding	-10.7896
News	-10.7897
টিক	-10.7899
▁পিটিয়ে	-10.7902
ওয়ার	-10.7902
▁ওপেনার	-10.7905
level	-10.7905
▁সন্ধান	-10.7907
▁বক্স	-10.7907
▁গাছের	-10.7911
সাধারণ	-10.7913
▁!	-10.7916
ean	-10.7919
▁senior	-10.7919
▁কোথায়	-10.7919
hr	-10.7921
oo	-10.7922
▁Care	-10.7923
war	-10.7924
▁selection	-10.7925
▁৭৫	-10.7927
▁tract	-10.7928
▁ফাউন্ডেশনের	-10.7929
▁দেখেন	-10.793
▁৪৩	-10.7931
▁Sunday	-10.7937
▁increasingly	-10.7937
ING	-10.7938
▁wire	-10.7939
▁পাসপোর্ট	-10.7939
সিক	-10.7941
▁investment	-10.7941
▁historic	-10.7944
▁কক্সবাজারের	-10.7948
▁স্বাক্ষর	-10.795
ake	-10.795
▁tradition	-10.7952
▁Channel	-10.7952
▁অবসর	-10.7952
▁organisms	-10.7957
▁৫৫	-10.7961
▁বাড়াতে	-10.7963
▁মজুমদার	-10.7969
▁সতর্কতা	-10.7969
▁USA	-10.7969
▁বার্ষিক	-10.7972
serv	-10.7973
uck	-10.7974
▁substance	-10.7975
▁wish	-10.7982
▁ব্রাজিল	-10.7982
▁নোট	-10.7984
▁struggle	-10.7986
▁extent	-10.7986
▁sit	-10.7986
▁instruments	-10.7988
scale	-10.7989
▁option	-10.7991
▁capture	-10.7992
▁mode	-10.7992
▁coastal	-10.7994
▁talking	-10.7995
্যান্ট	-10.7996
▁আইনি	-10.7997
▁স্ত্রীকে	-10.7999
▁viruses	-10.7999
▁ভাব	-10.8
EP	-10.8002
bin	-10.8002
▁ছাত্রদলের	-10.8004
▁interactive	-10.8004
দল	-10.8004
ria	-10.8006
▁neuro	-10.8008
▁অধীনে	-10.8008
▁ইতিহাসে	-10.8008
▁Update	-10.8008
▁Asian	-10.8011
▁সংগীত	-10.8014
are	-10.802
▁অর্থবছরে	-10.802
▁broken	-10.8021
▁দে	-10.8022
▁Anti	-10.8025
▁thick	-10.8026
▁supplement	-10.8027
▁Such	-10.8027
▁oral	-10.8031
ave	-10.8035
▁গৃহ	-10.8036
▁সেতুমন্ত্রী	-10.8038
▁পরেই	-10.804
▁ধর	-10.8041
▁concerned	-10.8042
▁brief	-10.8045
▁revealed	-10.8048
কেন্দ্র	-10.805
▁নেবে	-10.8052
▁expensive	-10.8053
▁বালু	-10.8056
du	-10.8056
▁nations	-10.8058
▁depend	-10.8061
▁ক্রিকেটের	-10.8063
▁Image	-10.8065
▁ফিল্ম	-10.807
▁আতঙ্ক	-10.8073
▁certainly	-10.8074
▁decide	-10.8077
▁examine	-10.8077
▁reality	-10.8078
▁starts	-10.808
লেও	-10.8081
American	-10.8084
▁বিস্তার	-10.8085
▁বাইডেন	-10.8087
▁laser	-10.8089
▁নয়া	-10.8091
▁হজ	-10.8092
▁চে	-10.8093
র্ণ	-10.8094
▁হাস	-10.8094
▁Kids	-10.8097
▁represents	-10.8098
PA	-10.8099
▁sa	-10.8101
put	-10.8102
▁Safety	-10.8105
▁ছুটে	-10.8105
▁স্টক	-10.8109
▁মোদী	-10.8113
গ্র	-10.8115
Q	-10.8116
াতে	-10.8116
art	-10.8118
▁Committee	-10.8121
▁communicate	-10.8121
▁conference	-10.8121
▁autism	-10.8121
▁Lord	-10.8122
▁জ্বর	-10.8122
▁রাষ্ট্রীয়	-10.8123
▁eastern	-10.8124
▁leads	-10.8125
▁concentration	-10.813
▁৭২	-10.8131
বন	-10.8133
যুক্ত	-10.8133
▁Moon	-10.8134
▁একথা	-10.8134
▁পাট	-10.8136
▁observations	-10.8137
▁গ্রহন	-10.8138
সির	-10.8138
▁Colorado	-10.8138
▁প্রতিশ্রুতি	-10.8139
ue	-10.8139
▁except	-10.8141
ls	-10.8142
▁y	-10.8143
▁নির্	-10.8143
▁উপরে	-10.8144
▁tells	-10.815
▁artists	-10.8151
মুখ	-10.8152
▁principal	-10.8155
▁rural	-10.8156
struct	-10.8159
wi	-10.816
▁সাইট	-10.816
▁লিগে	-10.8161
কান	-10.8161
▁বারবার	-10.8162
▁household	-10.8167
▁এগুলো	-10.817
াইল	-10.8171
▁Company	-10.8173
▁insulin	-10.8173
▁secret	-10.8174
▁মৌলভীবাজার	-10.8176
▁রবিউল	-10.8176
তৃ	-10.8178
▁ভাইয়ের	-10.8179
▁উদ্দিনের	-10.8181
ama	-10.8181
▁governments	-10.8181
▁nor	-10.8182
▁ওয়ার্ডে	-10.8183
▁প্লে	-10.8184
▁বেনাপোল	-10.8186
▁li	-10.8188
▁টপ	-10.8189
▁port	-10.819
▁Garden	-10.819
matic	-10.8191
▁Work	-10.8191
▁মানে	-10.8192
▁Ab	-10.8192
▁জনকন্ঠ	-10.8193
▁শাহীন	-10.8194
▁তালা	-10.8194
দ্ব	-10.8196
▁Comp	-10.8198
▁বিশেষজ্ঞ	-10.82
▁drawing	-10.8201
ji	-10.8207
▁programming	-10.8208
▁ব্য	-10.8212
▁filled	-10.8213
এসআই	-10.8215
▁হৃদয়	-10.8218
▁ratio	-10.8218
▁জ্ঞান	-10.8219
▁generated	-10.8222
▁managed	-10.8223
▁খ্রিস্টাব্দ	-10.8224
▁daughter	-10.8224
▁আশ্বাস	-10.8225
▁৪৪	-10.8226
▁sets	-10.8226
▁নিন্দা	-10.8226
IST	-10.8226
gra	-10.8227
▁EPA	-10.8234
▁ভেতর	-10.8236
▁অধিকাংশ	-10.8241
▁gender	-10.8242
▁প্রো	-10.8242
▁নেতাকর্মীদের	-10.8248
▁জয়ী	-10.825
▁contained	-10.8252
▁Br	-10.8255
▁Bank	-10.8256
OR	-10.8256
▁physics	-10.8257
▁party	-10.8258
▁সক্রিয়	-10.8259
▁sharp	-10.8259
▁boost	-10.8259
▁সানি	-10.826
কল	-10.8261
যে	-10.8265
▁আইপিএল	-10.8268
▁মদ	-10.8269
He	-10.827
▁পাখি	-10.8272
▁স্বাধীনতার	-10.8274
air	-10.8274
ন্ধ	-10.8274
▁মেট্রোপলিটন	-10.8276
▁agree	-10.8277
▁ঘোষিত	-10.8281
▁participate	-10.8282
▁Russian	-10.8282
bel	-10.8283
▁coral	-10.8283
▁whom	-10.8285
▁পেল	-10.8285
called	-10.8286
▁রাজশাহীর	-10.8287
▁ইয়াবাসহ	-10.8289
▁পূর্বে	-10.8289
▁ধাক্কায়	-10.8291
▁ফিরতে	-10.8293
ets	-10.8294
▁রান্না	-10.8294
▁সংবর্ধনা	-10.8295
▁Print	-10.8296
iz	-10.8296
▁meters	-10.8297
র্গ	-10.8297
▁রিয়াদ	-10.8299
▁চোর	-10.8306
▁অর	-10.8308
▁সুলতান	-10.8308
▁কর্মকর্তার	-10.8309
which	-10.831
SC	-10.8311
বাজ	-10.8311
▁repair	-10.8312
▁favorite	-10.8312
▁১০টি	-10.8318
stone	-10.8318
ডার	-10.832
▁সকলকে	-10.8326
▁biggest	-10.8328
▁অভিনন্দন	-10.8328
▁Agriculture	-10.8328
▁পুরনো	-10.8328
▁আরা	-10.833
str	-10.8332
▁দুইজন	-10.8344
▁অপারেশন	-10.8344
▁দক্ষতা	-10.8345
▁Street	-10.8345
▁রেলওয়ে	-10.8348
▁সবজি	-10.8354
▁walls	-10.8358
▁trial	-10.836
▁থেকেও	-10.8361
▁গুজব	-10.8363
▁খোকন	-10.8363
▁বাড়ানোর	-10.8367
▁Fish	-10.8367
PS	-10.8368
▁remaining	-10.8369
▁moderate	-10.8369
MA	-10.8373
খে	-10.8373
▁hormone	-10.8374
rid	-10.8375
তুল	-10.8379
▁ব্যারিস্টার	-10.838
▁truth	-10.838
▁maximum	-10.8381
▁plot	-10.8383
ষ্ঠ	-10.8385
কী	-10.8388
গাঁও	-10.8389
▁refer	-10.839
▁Will	-10.8391
ণা	-10.8391
▁স্বর্ণ	-10.8392
▁seeing	-10.8402
হর	-10.8403
▁বাঁ	-10.8406
▁imp	-10.8406
▁compounds	-10.8409
▁ঘন	-10.841
▁si	-10.8411
▁Map	-10.8412
▁shot	-10.8415
▁হাফিজ	-10.8415
▁কাগজ	-10.8415
▁ক্রাইম	-10.8415
াবাদ	-10.8417
▁অ্যাকাউন্ট	-10.8418
▁গিয়েছিলেন	-10.8421
▁organized	-10.8423
ram	-10.8424
▁অনেকটা	-10.8425
rim	-10.8426
vin	-10.8426
▁গণতন্ত্র	-10.8427
rich	-10.8429
down	-10.8433
▁আহম্মেদ	-10.8433
▁exchange	-10.8433
▁আনুষ্ঠানিকভাবে	-10.8435
▁পাঁচটি	-10.8437
▁ফেলা	-10.8437
▁কাউন্সিল	-10.8437
▁figures	-10.8438
▁মিরপুর	-10.8441
▁সেন	-10.8444
বীর	-10.8449
▁Download	-10.845
▁journey	-10.8451
▁মোতায়েন	-10.8451
▁serving	-10.8451
▁breath	-10.8452
ack	-10.8455
▁ওমর	-10.8455
▁২০১৩	-10.8457
ming	-10.8459
▁pe	-10.846
▁প্রয়োজনে	-10.8468
▁মেম্বার	-10.8469
och	-10.8472
▁error	-10.8473
point	-10.8477
▁শর্ত	-10.8477
▁ওভার	-10.8479
such	-10.848
দাতা	-10.8484
▁harm	-10.8484
▁prove	-10.8484
▁ta	-10.8485
▁supplies	-10.8486
▁অক্সিজেন	-10.8486
▁derived	-10.8488
times	-10.8488
▁Young	-10.8489
rate	-10.8491
▁সচেতনতা	-10.8493
▁বিমানবন্দর	-10.8493
▁চিকিৎসকরা	-10.8497
▁আফ্রিকার	-10.8499
▁angle	-10.85
▁দেখানো	-10.8502
▁উদ্বেগ	-10.8503
▁ব্যাগ	-10.8507
▁বিপ্লব	-10.851
▁লাইফ	-10.8511
▁ইউএনও	-10.8511
▁Second	-10.8513
▁environments	-10.8519
▁differ	-10.852
▁biology	-10.8524
▁জমির	-10.853
▁Ti	-10.8531
বছর	-10.8531
ators	-10.8531
▁প্রতিযোগিতায়	-10.8536
▁সিনহা	-10.854
▁মাননীয়	-10.854
▁locations	-10.8544
▁পারছেন	-10.8552
▁Mu	-10.8554
▁প্রাণী	-10.8554
COM	-10.8557
▁throat	-10.8557
▁মেজর	-10.8557
▁সামান্য	-10.8557
▁যাচাই	-10.8557
▁cats	-10.8562
▁বাঁধ	-10.8563
▁সোয়া	-10.8564
▁ব্যক্তিদের	-10.8564
▁তোলার	-10.8565
▁ঘোষণার	-10.8568
cle	-10.8569
ken	-10.8571
▁Fi	-10.8571
▁transfer	-10.8574
▁external	-10.8575
▁orange	-10.8575
▁stages	-10.8576
▁Through	-10.8576
রুম	-10.8582
▁মন্দির	-10.8585
▁জমিতে	-10.8586
▁মার্কেট	-10.8586
AM	-10.8588
▁solve	-10.859
▁construct	-10.8591
ট্র	-10.8591
ery	-10.8592
▁remote	-10.8593
▁entry	-10.8593
▁infants	-10.8597
An	-10.8597
ock	-10.8598
▁printed	-10.8602
▁instruction	-10.8602
▁চাপা	-10.8604
▁প্রতিনিধিঃ	-10.8607
▁battery	-10.861
▁জখম	-10.861
▁তল্লাশি	-10.861
▁ময়না	-10.8611
bed	-10.8611
▁lungs	-10.8617
▁attached	-10.8617
মাস	-10.8618
▁Feb	-10.8618
▁যাবত	-10.8619
▁একুশে	-10.862
্ম	-10.8622
▁২টি	-10.8624
▁insect	-10.8628
ُ	-10.8628
▁pregnant	-10.8628
▁Site	-10.8634
▁সদরের	-10.8634
ানোর	-10.8637
ুক	-10.8637
▁Russia	-10.864
▁সুরমা	-10.864
▁successfully	-10.8646
®	-10.8646
▁spacecraft	-10.8647
▁indicates	-10.8649
▁Ac	-10.8653
▁movements	-10.8653
ষা	-10.8657
▁meal	-10.8658
aries	-10.8659
ুত	-10.8659
ON	-10.8659
▁pi	-10.866
bra	-10.8661
▁expert	-10.8662
▁column	-10.8662
▁publication	-10.8664
▁Organization	-10.8664
▁rising	-10.8665
▁Special	-10.8665
▁outer	-10.8666
▁টেক	-10.8666
▁৬৫	-10.8671
▁burning	-10.8671
▁Bill	-10.8672
▁syn	-10.8674
▁sheet	-10.8674
▁আরবের	-10.8679
▁covers	-10.868
▁conversation	-10.8682
▁District	-10.8682
▁creative	-10.8683
▁মোস্তাফিজুর	-10.8683
পাল	-10.869
▁খাওয়ার	-10.8691
▁দেশীয়	-10.8691
লাই	-10.8693
▁meant	-10.8693
▁দায়	-10.8694
nce	-10.8694
ura	-10.8696
▁wait	-10.8698
▁Sal	-10.8699
ا	-10.8708
▁বিবেচনা	-10.8709
head	-10.8709
▁count	-10.8709
▁বোতল	-10.8709
▁মেয়েদের	-10.8711
▁সহজেই	-10.8711
▁যাচ্ছিল	-10.8713
আপ	-10.8713
▁App	-10.8716
▁প্যা	-10.8717
ties	-10.8718
▁বিধিনিষেধ	-10.8719
▁cutting	-10.8721
▁জামাত	-10.8722
▁প্রকার	-10.8725
▁শিক্ষকদের	-10.8727
▁Paris	-10.8727
▁জনক	-10.8735
▁chapter	-10.8735
▁অপরদিকে	-10.8737
▁measurements	-10.8739
▁আগ্রহী	-10.8741
▁খাগড়াছড়ি	-10.8744
?"	-10.8748
▁পরা	-10.8754
▁debt	-10.8755
▁জসিম	-10.8755
▁capable	-10.8757
▁boys	-10.8758
▁করলো	-10.8761
র্ট	-10.8763
▁CDC	-10.8763
▁৫২	-10.8764
▁Har	-10.8766
ীদের	-10.8769
▁Pan	-10.877
bl	-10.8773
▁Pratidin	-10.8773
▁Species	-10.8773
▁comparison	-10.8773
▁অটোরিকশা	-10.8773
▁Word	-10.8773
▁হালকা	-10.8774
lia	-10.8778
pri	-10.8778
▁নিরাপত্তার	-10.8779
▁secondary	-10.8779
▁শিরোনাম	-10.878
▁শহিদুল	-10.8783
▁Ke	-10.8785
jo	-10.8786
ধর	-10.8789
▁বাড়তি	-10.8791
▁রিজভী	-10.8791
▁বিদ্যালয়ে	-10.8792
▁আনসার	-10.8792
▁breeding	-10.8793
▁tried	-10.8794
▁কারও	-10.8794
▁দিয়েছিল	-10.8799
বিল	-10.88
▁একা	-10.88
▁গ্র	-10.8801
NS	-10.8809
RC	-10.8811
▁ইতিমধ্যেই	-10.8812
▁মিনিটের	-10.8816
▁routine	-10.8819
▁হকের	-10.8821
সম	-10.8827
▁অনুসারে	-10.8828
▁হাবিবুর	-10.8829
▁তদন্তে	-10.8831
▁রেড	-10.8831
AT	-10.8833
▁Open	-10.8834
খান	-10.8834
▁চোট	-10.8837
$	-10.8837
For	-10.8839
▁implement	-10.8841
▁আরোপ	-10.8843
▁শেয়ারবাজার	-10.8843
▁dedicated	-10.8846
▁গুঞ্জন	-10.8846
▁Arctic	-10.8846
▁প্রার্থীর	-10.8849
▁আমিনুল	-10.8849
eo	-10.8857
lon	-10.8859
▁মর	-10.8864
▁vulnerable	-10.8864
▁এনামুল	-10.8865
▁partnership	-10.8865
▁Rome	-10.8866
You	-10.8869
lit	-10.8869
▁compare	-10.8871
▁estimate	-10.8872
EC	-10.8873
▁peace	-10.8876
▁৭১	-10.8876
▁আড়াই	-10.8879
▁আশরাফুল	-10.8882
▁sides	-10.8882
▁যথেষ্ট	-10.8883
▁আশরাফ	-10.8883
▁নেত্রী	-10.8886
▁বলার	-10.8892
▁marriage	-10.8894
ella	-10.8894
▁closer	-10.8896
ন্ডার	-10.8896
▁নোয়াখালী	-10.8897
▁বন্ধের	-10.8901
▁প্রয়াত	-10.8901
▁border	-10.8902
▁আফ্রিকা	-10.8906
▁ধাপে	-10.8907
▁discussed	-10.8907
▁closed	-10.8909
▁রাজু	-10.891
To	-10.8913
▁সিরাজ	-10.8915
▁মোটর	-10.8917
▁Light	-10.8917
▁pump	-10.8918
▁recommendations	-10.8919
▁মাদকদ্রব্য	-10.892
▁thousand	-10.892
rt	-10.8921
▁lists	-10.8921
▁medicines	-10.8928
row	-10.893
উর	-10.8931
with	-10.8931
▁হাওয়া	-10.8933
▁presentation	-10.8934
▁যথাযথ	-10.8935
▁দায়িত্বে	-10.8937
▁ban	-10.8937
▁উপাদান	-10.8938
▁দিয়েছি	-10.8942
▁Oct	-10.8944
ax	-10.8946
▁প্রতিপক্ষ	-10.8955
▁dream	-10.8957
▁equivalent	-10.8957
▁মরহুম	-10.8957
▁Newspaper	-10.8957
▁খতিয়	-10.8957
amp	-10.8959
▁verb	-10.8962
▁follows	-10.8963
▁ফরিদ	-10.8963
▁Hall	-10.8965
▁bridge	-10.897
ded	-10.8971
টেন	-10.8971
oid	-10.8975
▁চালান	-10.8975
â	-10.8975
▁coffee	-10.8975
▁ভিটামিন	-10.8975
▁interface	-10.8976
▁সুখ	-10.8976
▁মাংস	-10.8977
▁নেতাকর্মী	-10.8977
▁trip	-10.8977
▁ডাল	-10.8979
zo	-10.898
▁recovery	-10.8981
▁ফিরেছেন	-10.8981
▁antibiotics	-10.8982
▁কলা	-10.8983
onic	-10.8983
▁happened	-10.8984
▁lu	-10.899
▁identity	-10.8994
▁যিনি	-10.8994
▁courses	-10.8995
▁corner	-10.8996
ইট	-10.8998
▁নির্মাণের	-10.8999
▁hyper	-10.9002
▁situations	-10.9005
▁professionals	-10.9006
▁ষড়যন্ত্র	-10.9009
▁নেবেন	-10.901
▁অলরাউন্ডার	-10.9012
▁সৌরভ	-10.9013
▁খাতে	-10.9014
▁reader	-10.9014
▁আইডি	-10.9015
▁আইসিসি	-10.9015
▁hole	-10.9017
জান	-10.9019
▁houses	-10.902
▁শেরপুর	-10.9021
▁পাঠানোর	-10.9022
▁listen	-10.9022
ঢাকা	-10.9023
▁lots	-10.9023
▁Name	-10.9026
▁Marine	-10.9027
য়েল	-10.9027
▁plate	-10.903
বাগ	-10.9031
nu	-10.9031
▁প্রাকৃতিক	-10.9031
▁ফেরদৌস	-10.9031
▁মনোনীত	-10.9031
▁রাজধানীতে	-10.9032
▁আত্মীয়	-10.9032
▁Protection	-10.9032
▁description	-10.9033
▁চু	-10.904
▁ওয়ান	-10.9044
▁ভার্চুয়াল	-10.9044
▁পয়সা	-10.9047
▁improving	-10.905
▁প্যানেল	-10.905
▁juice	-10.905
▁announced	-10.9052
▁বিবাহ	-10.9053
ou	-10.9054
▁agreement	-10.9055
tru	-10.9057
▁organ	-10.9058
চ্ছ	-10.9058
▁ব্যাপার	-10.906
দুর	-10.9062
ese	-10.9065
▁domestic	-10.9068
▁photographs	-10.9068
▁assess	-10.9068
▁Saturday	-10.9068
”.	-10.907
▁টেস্টের	-10.9071
IA	-10.9074
জেন	-10.9078
▁newspaper	-10.9083
সং	-10.9085
বিদ	-10.9085
▁করপোরেশনের	-10.9087
▁জনতা	-10.9087
▁মারাত্মক	-10.9087
▁Try	-10.909
▁দায়ী	-10.9092
▁Army	-10.9092
▁carefully	-10.9095
▁মিস	-10.9096
▁পাবনা	-10.91
▁পেশ	-10.9101
▁কথায়	-10.9101
নাল	-10.9102
▁ঠেকাতে	-10.9106
▁gr	-10.9107
▁acres	-10.9108
▁টাইম	-10.9109
লস	-10.9109
▁village	-10.911
ites	-10.9113
▁graph	-10.9113
▁adopted	-10.9117
জনক	-10.9118
বাদী	-10.9119
▁Therefore	-10.9125
▁asteroid	-10.9125
▁flash	-10.9126
▁সিদ্দিকী	-10.9128
▁greatly	-10.9128
▁দুর্ঘটনার	-10.9129
▁দ্বীপ	-10.913
▁preserve	-10.9132
▁এসএম	-10.9132
▁stands	-10.9135
▁ইন্ডিয়া	-10.9136
▁package	-10.9139
▁অপ	-10.9141
▁ট্রেনের	-10.9142
▁শর্মা	-10.9142
▁পাল্টা	-10.9147
▁cloud	-10.9148
▁quarter	-10.9149
▁implementation	-10.9149
▁Bible	-10.9149
ern	-10.915
▁অবস্থানে	-10.915
টেক	-10.9151
▁তারিখে	-10.9152
বক	-10.9152
▁immediate	-10.9154
ele	-10.9156
▁ইংরেজি	-10.9157
▁নিয়েও	-10.9157
▁rec	-10.9161
▁অপেক্ষায়	-10.9162
▁পলাশ	-10.9162
▁Italy	-10.9163
নীয়	-10.9176
▁সন্ত্রাস	-10.9178
▁Pu	-10.9179
▁লো	-10.918
▁স্টার	-10.9181
▁Diabetes	-10.9182
▁shall	-10.9182
▁অন্তর্ভুক্ত	-10.9182
▁হয়রানি	-10.9183
▁ইউনিটের	-10.9183
▁expand	-10.9183
▁cancers	-10.9185
▁Gr	-10.9187
▁সম্পর্কিত	-10.9189
▁permanent	-10.9192
▁কবিতা	-10.9192
▁চত্বরে	-10.9194
pot	-10.9195
▁Age	-10.9196
▁nano	-10.9199
▁নিউজিল্যান্ডের	-10.92
▁participation	-10.9201
▁preparation	-10.9201
▁কোরআন	-10.9201
▁desert	-10.9201
▁পদক	-10.9202
▁থা	-10.9204
▁transportation	-10.9204
▁mechanism	-10.9205
▁filter	-10.9205
▁ha	-10.9206
▁অনুসন্ধান	-10.9207
tech	-10.9208
ign	-10.921
▁রাঙামাটি	-10.9213
▁frame	-10.9213
▁frequent	-10.9213
গী	-10.9213
▁মাদ্রাসার	-10.9216
বর্তী	-10.9218
▁organs	-10.9219
▁একজনের	-10.9219
▁বার্ষিকী	-10.922
▁Ireland	-10.922
▁Division	-10.922
▁তাছাড়া	-10.922
▁perspective	-10.9225
▁ডিএসই	-10.9227
lands	-10.9229
▁ইসলামিক	-10.923
▁৪৭	-10.923
▁suffering	-10.9232
▁ব্রা	-10.9233
▁wet	-10.9233
▁বহিষ্কার	-10.9239
state	-10.924
▁আনুষ্ঠানিক	-10.9241
▁সাধারণত	-10.9243
uring	-10.9243
▁variable	-10.9244
▁fiber	-10.9244
▁ভক্ত	-10.9244
▁Fort	-10.925
▁পটুয়াখালী	-10.9253
▁বুকে	-10.9255
▁abnormal	-10.9257
▁minimum	-10.9258
▁straight	-10.9258
▁division	-10.9258
▁শাহজাহান	-10.9258
▁হচ্ছিল	-10.9258
▁assistance	-10.9259
▁endangered	-10.9259
▁আসরে	-10.926
▁লন্ডন	-10.9261
▁টে	-10.9262
▁৪৬	-10.9262
ita	-10.9268
")	-10.9269
▁গণমাধ্যমকে	-10.9271
▁প্রার্থীদের	-10.9274
▁mothers	-10.9274
▁crisis	-10.9277
▁budget	-10.9277
▁প্রোগ্রাম	-10.9277
▁হারে	-10.9278
hen	-10.9279
▁পেয়েছি	-10.9281
বহ	-10.9283
▁firm	-10.9284
view	-10.9284
▁জান	-10.9285
tur	-10.929
টায়	-10.9292
▁demonstrate	-10.9293
ski	-10.9293
▁আল্লাহর	-10.9293
▁সাক্ষাৎকারে	-10.9296
▁স্লোগান	-10.9296
rod	-10.9296
ges	-10.9298
▁ahead	-10.9306
dr	-10.9306
▁বয়ে	-10.9308
ek	-10.931
▁earn	-10.9311
▁Cal	-10.9311
No	-10.9313
▁মিশন	-10.9314
▁সংস্কার	-10.9314
▁রাউন্ড	-10.9316
▁সঞ্চালনায়	-10.9318
ন্ডা	-10.9319
▁চার্জ	-10.9325
▁টিকার	-10.9327
()	-10.9332
▁tasks	-10.9334
▁পাথর	-10.9337
▁শিগগিরই	-10.9338
▁flower	-10.9342
▁associate	-10.9342
▁turns	-10.9342
▁rivers	-10.9343
ala	-10.9346
▁হ্যান্ড	-10.9349
▁reactions	-10.9349
▁পৌন	-10.9353
জের	-10.9353
▁সেজন্য	-10.9354
▁modified	-10.9354
▁unless	-10.9361
▁চিনি	-10.9363
wing	-10.9364
%)	-10.9365
▁Louis	-10.9368
▁কুড়িগ্রাম	-10.937
non	-10.937
known	-10.937
og	-10.9371
▁সহায়তায়	-10.9373
▁Zealand	-10.9373
▁medium	-10.9373
▁architecture	-10.9373
▁aircraft	-10.9374
▁রিপন	-10.9374
▁nearby	-10.9376
পুরের	-10.9376
▁খেল	-10.9377
▁formula	-10.9379
pers	-10.9382
▁artist	-10.9382
▁visitors	-10.9384
▁generations	-10.9385
▁নারীকে	-10.9387
▁মঙ্গল	-10.9392
▁behaviour	-10.9392
▁অপরাজিত	-10.9392
▁ডেপুটি	-10.9392
▁পার্বত্য	-10.9392
▁Facebook	-10.9392
▁করিয়ে	-10.9393
▁Engineering	-10.9396
▁Station	-10.9398
▁বাঁচাতে	-10.9403
▁tons	-10.9403
▁substances	-10.9405
▁invest	-10.9406
াহ	-10.9408
লাইন	-10.9408
▁cord	-10.9409
▁অস্বীকার	-10.9412
▁ভাঙচুর	-10.9412
▁বিশ্বব্যাপী	-10.9412
▁সেতুর	-10.9413
পথ	-10.9413
▁Eastern	-10.9413
ভাই	-10.9416
▁সিসি	-10.9417
▁opened	-10.9417
shi	-10.9418
▁partners	-10.9418
▁ঈদে	-10.9419
▁দলটির	-10.942
▁বিগত	-10.9422
▁অন্যদের	-10.9422
▁খাল	-10.9423
▁পাড়া	-10.9423
গন	-10.9424
PR	-10.9429
AN	-10.943
▁inner	-10.9432
▁গাড়িতে	-10.9433
রান	-10.9434
ez	-10.9434
▁কিছুক্ষণ	-10.9436
▁সভার	-10.9436
ঝ	-10.9437
▁transition	-10.9439
▁ইট	-10.944
zz	-10.9445
▁Egypt	-10.9445
▁নার্স	-10.9446
পুলিশ	-10.945
▁চাকমা	-10.9451
ography	-10.9452
▁ডাউনলোড	-10.9454
lly	-10.9454
▁mix	-10.9454
▁rely	-10.9455
নাথ	-10.9456
▁বেঞ্চ	-10.9457
▁বিক্রির	-10.9459
▁আগ	-10.9459
▁Inter	-10.946
▁cultures	-10.9461
▁grain	-10.9463
▁কোর্টের	-10.9464
▁মহ	-10.9465
▁extended	-10.9466
▁Smith	-10.947
▁OF	-10.9471
য়ন	-10.9472
rum	-10.9472
▁সেন্টারে	-10.9473
আমার	-10.9473
▁para	-10.9481
পের	-10.9481
▁mentioned	-10.9483
▁পণ্যের	-10.9484
pon	-10.9485
▁Force	-10.9487
▁লিখে	-10.9488
▁Min	-10.9489
▁competition	-10.949
▁diameter	-10.949
শার	-10.9491
rus	-10.9491
▁কৃষকের	-10.9492
▁acids	-10.9494
দো	-10.9494
▁dance	-10.9495
▁interact	-10.9497
▁Lincoln	-10.9498
▁ফেরি	-10.9498
print	-10.95
▁লক্ষণ	-10.9502
▁Test	-10.9502
gin	-10.9502
▁egg	-10.9502
▁৫৬	-10.9503
ute	-10.9503
á	-10.9503
▁programme	-10.9506
ject	-10.9509
▁Community	-10.9509
▁Philadelphia	-10.9509
▁মোশাররফ	-10.9509
▁উখিয়া	-10.9509
▁pilot	-10.9509
▁নাঈম	-10.951
iff	-10.9511
▁item	-10.9512
যোগ্য	-10.9512
pr	-10.9514
নির	-10.9515
▁roll	-10.9516
▁বেছে	-10.9517
▁সবসময়	-10.9517
▁gra	-10.9524
▁নরসিংদী	-10.9524
cr	-10.9525
▁university	-10.9529
▁felt	-10.9529
▁tr	-10.9533
▁রোগে	-10.9535
▁রোনালদো	-10.9535
▁yield	-10.9538
grade	-10.9539
▁involving	-10.9539
▁unusual	-10.954
▁চরিত্র	-10.9542
▁তৃণমূলের	-10.9545
াক	-10.9547
ারের	-10.9547
▁nervous	-10.9548
▁স্পিকার	-10.9548
TH	-10.9553
দেশের	-10.9555
▁Ve	-10.9555
most	-10.9557
cc	-10.9559
lam	-10.9559
▁plane	-10.9565
▁ব্র	-10.9565
▁net	-10.9566
অ্যা	-10.9568
▁সংগৃহীত	-10.9568
▁intense	-10.9568
▁অপরাধে	-10.9569
▁III	-10.957
▁Va	-10.9571
▁Sylhet	-10.9572
▁চলেছেন	-10.9572
▁islands	-10.9573
ক্ল	-10.9574
ope	-10.9574
tter	-10.9574
din	-10.9575
▁গ্রেফতারকৃত	-10.9575
▁মুক্তিযুদ্ধের	-10.9576
▁প্রচারণা	-10.9578
▁disk	-10.9582
▁৩০০	-10.9587
▁নিচ্ছেন	-10.9587
▁সাহেব	-10.9588
▁নেটওয়ার্ক	-10.9588
Ch	-10.9588
▁ন্যায়	-10.9592
ford	-10.9592
▁justice	-10.9594
ix	-10.9596
▁রাতেই	-10.9598
▁panel	-10.9599
ink	-10.96
▁song	-10.9604
▁তরফে	-10.9605
vers	-10.9606
▁শ্রেষ্ঠ	-10.9608
▁করপোরেশন	-10.9608
▁apart	-10.9608
▁introduce	-10.9613
▁জিজ্ঞাসাবাদ	-10.9615
উন	-10.9623
▁Sam	-10.9625
▁Select	-10.9626
▁crucial	-10.9627
▁বরখাস্ত	-10.9627
▁ভূঁইয়া	-10.9627
▁দীপিকা	-10.9628
▁prefer	-10.9629
<	-10.9629
▁rice	-10.9631
▁represented	-10.9635
▁পশু	-10.9639
▁আলোচনার	-10.9641
▁তু	-10.9641
▁বিক্রেতা	-10.9644
▁Fire	-10.9645
▁দুঃখ	-10.9646
িট	-10.9646
যোগ	-10.9648
▁instructions	-10.9651
▁push	-10.9651
▁অধিদফতরের	-10.9652
▁৫টা	-10.9653
২০২১	-10.9653
▁noise	-10.9657
▁ভাগ্য	-10.966
fl	-10.9662
▁Standards	-10.9664
▁dollars	-10.9664
▁গেট	-10.9665
▁Pass	-10.9666
▁সঙ্গী	-10.9666
▁ডিভাইস	-10.9667
▁ধর্ষক	-10.9667
▁thread	-10.9667
▁মিষ্টি	-10.9667
▁Col	-10.9669
▁একদল	-10.967
িনা	-10.967
▁প্রদেশের	-10.9672
▁কড়া	-10.9675
▁planets	-10.9676
▁কর্মশালা	-10.9677
▁argument	-10.9678
ইয়া	-10.9679
▁গেম	-10.9679
▁প্রাথমিকভাবে	-10.968
মাত্র	-10.9682
▁Head	-10.9683
▁শিব	-10.9684
logy	-10.9685
রুল	-10.9685
▁কিডনি	-10.9687
▁ইংলিশ	-10.9687
▁পর্বে	-10.9688
▁bread	-10.9688
▁আসছিল	-10.9689
▁layers	-10.969
▁খেলায়	-10.969
▁চলা	-10.9694
িদের	-10.9697
▁collections	-10.9698
▁replaced	-10.9701
িশ	-10.9705
▁তৈরী	-10.9707
▁সোহাগ	-10.9707
▁ফাঁড়ি	-10.9707
▁opposite	-10.9707
▁weak	-10.9707
▁অনুদান	-10.9708
▁Spring	-10.9708
▁curve	-10.971
▁everyday	-10.9711
▁তথ্যমন্ত্রী	-10.9711
gon	-10.9715
▁gases	-10.9715
▁তুরস্কের	-10.972
oth	-10.9722
ফুল	-10.9722
দ্দ	-10.9725
▁বন্দি	-10.9725
▁collaboration	-10.9727
▁তহবিল	-10.9727
▁smooth	-10.9727
▁এইচএসসি	-10.9727
▁Historical	-10.973
▁কংগ্রেসের	-10.973
▁মোড়ে	-10.9731
▁নবী	-10.9732
▁৫টি	-10.9732
▁রং	-10.9732
▁চারজন	-10.9738
▁এমনটাই	-10.9741
▁exact	-10.9742
▁deliver	-10.9743
▁zero	-10.9744
▁achieved	-10.9745
▁density	-10.9746
▁facility	-10.9747
▁Italian	-10.9747
▁crew	-10.9748
lock	-10.9749
▁evaluation	-10.9758
▁finished	-10.9759
dd	-10.976
▁খালি	-10.976
▁কৃষকদের	-10.9763
▁ম্যাচটি	-10.9765
▁ট্রাস্ট	-10.9766
▁বাছাই	-10.9766
ash	-10.9766
▁audience	-10.9767
▁television	-10.9767
▁copyright	-10.9767
▁Boston	-10.9768
tract	-10.9768
▁বিএসএফ	-10.9769
▁দুজনের	-10.977
▁Action	-10.977
▁সম্মাননা	-10.977
▁du	-10.9773
BD	-10.9775
▁wealth	-10.978
▁ভু	-10.9781
▁দুইটি	-10.9783
▁lift	-10.9783
bal	-10.9786
▁দাশ	-10.9787
▁ইঞ্জিন	-10.9787
ر	-10.9787
▁ক্লিক	-10.9787
▁moisture	-10.9787
▁plain	-10.9788
▁অবাক	-10.9788
▁গ্রাহক	-10.979
▁examination	-10.9791
ada	-10.9792
▁গ্রাহকদের	-10.9794
▁persons	-10.9795
▁কোরিয়া	-10.98
▁preventing	-10.9803
▁hydro	-10.9806
▁Number	-10.9806
▁Michigan	-10.9807
▁adequate	-10.9807
চু	-10.9808
▁examined	-10.9809
▁chest	-10.9809
▁জিয়াউ	-10.9809
▁বার্তায়	-10.981
▁Big	-10.9811
▁cited	-10.9811
▁band	-10.9812
▁সাই	-10.9812
▁চলছিল	-10.9814
▁mono	-10.9816
▁লক্ষ্মীপুর	-10.982
▁exhibition	-10.982
IN	-10.9821
▁লিমিটেডের	-10.9824
▁রাশেদ	-10.9826
▁disabilities	-10.9828
▁Centre	-10.9828
▁police	-10.9828
▁ইঙ্গিত	-10.9828
▁standing	-10.9828
CE	-10.9828
▁স্বপন	-10.9828
▁match	-10.9829
pan	-10.983
স্বাস্থ্যমন্ত্রী	-10.983
▁sight	-10.9833
▁distinct	-10.9835
▁sections	-10.9836
ju	-10.984
▁ইরাক	-10.984
cher	-10.984
▁মতোই	-10.9843
ologist	-10.9848
▁ইব্রাহিম	-10.9848
▁shock	-10.9848
▁secure	-10.9849
▁হবিগঞ্জ	-10.9849
bor	-10.9849
তদন্ত	-10.9853
position	-10.9853
ل	-10.9853
▁Year	-10.9856
▁adjust	-10.9857
▁achievement	-10.9858
▁ধরেন	-10.9865
▁নির্ভর	-10.9866
▁translation	-10.9868
▁সচিবালয়ে	-10.9868
▁paid	-10.9869
▁script	-10.9869
▁partner	-10.987
▁mine	-10.9873
▁Wa	-10.9875
▁plus	-10.9875
▁অধিক	-10.9882
▁পাঠিয়ে	-10.9885
▁ভুক্তভোগী	-10.9888
▁ধার্য	-10.9888
▁Local	-10.9889
▁existence	-10.9889
জ্জ	-10.989
▁নিযুক্ত	-10.989
iness	-10.989
▁পায়ে	-10.9894
▁Coast	-10.9895
▁ডান	-10.9896
▁passage	-10.9896
rry	-10.9896
▁ক্যাম্পের	-10.9897
▁পরিবেশন	-10.9898
শ্রী	-10.9899
▁হাল	-10.9901
▁প্রতিষ্ঠানে	-10.9903
▁association	-10.9903
▁cooking	-10.9903
▁Does	-10.9905
▁মহাসড়কে	-10.9908
▁mathematics	-10.9909
বুল	-10.991
ili	-10.9911
▁দো	-10.9912
▁creates	-10.9913
▁limits	-10.9914
▁ব্যবসায়ীরা	-10.9918
▁হাইকোর্টের	-10.9919
▁behaviors	-10.9927
▁Oregon	-10.9929
▁ইউসুফ	-10.9929
▁নাগাদ	-10.9929
র্দ	-10.993
▁যেহেতু	-10.993
▁মানুষদের	-10.9932
▁কৃষ্ণ	-10.9933
▁define	-10.9933
▁দিবসে	-10.9936
▁exam	-10.9939
▁কমিয়ে	-10.9942
▁planting	-10.9943
▁শ্রম	-10.9944
▁strip	-10.9946
▁literacy	-10.995
▁প্রেক্ষিতে	-10.995
▁stuff	-10.995
▁sum	-10.995
▁Three	-10.995
▁কিনতে	-10.995
▁উপভোগ	-10.9951
▁Ter	-10.9958
▁প্রযোজনা	-10.996
▁gone	-10.9961
▁প্রিয়াঙ্কা	-10.9962
▁businesses	-10.9966
▁plays	-10.9966
▁posted	-10.9969
▁সম্ভাব্য	-10.997
▁manufacturing	-10.997
▁যাত্রীবাহী	-10.9971
▁অভাব	-10.9975
▁অবৈধভাবে	-10.9977
▁surprised	-10.9978
▁clothing	-10.998
▁তেমনি	-10.9981
▁army	-10.9981
▁ঘন্টায়	-10.9983
▁পারলে	-10.9983
▁গণমাধ্যমে	-10.9984
▁Fair	-10.9985
▁tip	-10.9986
▁bear	-10.9989
ott	-10.999
▁ক্ষুদ্র	-10.9991
▁platform	-10.9991
▁আফগান	-10.9991
▁হানিফ	-10.9991
▁hydrogen	-10.9991
▁প্রবল	-10.9993
▁সত্যি	-10.9995
▁ব্যবসায়ীদের	-10.9999
বিশ্ব	-10.9999
▁reviewed	-11.0001
্ট	-11.0001
▁Republic	-11.0002
▁অনেকের	-11.0002
▁প্রতিক্রিয়া	-11.0003
▁অমিত	-11.0003
▁ওয়েবসাইটে	-11.0005
কারি	-11.0005
▁মিরাজ	-11.0007
▁flood	-11.0008
▁ill	-11.001
▁possibility	-11.0011
▁করেও	-11.0012
▁ধারায়	-11.0012
▁Spain	-11.0012
▁ফাইল	-11.0013
টুকু	-11.0014
▁Blue	-11.0017
▁দলটি	-11.0019
▁দেবী	-11.0024
▁ecosystem	-11.0027
▁infant	-11.0027
pen	-11.0028
বদ্ধ	-11.0029
োল	-11.003
▁পুকুর	-11.003
▁Obama	-11.0032
▁স্থানান্তর	-11.0032
▁৫১	-11.0033
ধে	-11.0034
ular	-11.0037
ST	-11.0037
▁এমনই	-11.0038
লির	-11.0041
▁glucose	-11.0041
mod	-11.0043
▁focuses	-11.0049
▁Reading	-11.005
▁ইউটিউব	-11.0051
▁Bra	-11.0052
▁জিনিস	-11.0052
▁infrastructure	-11.0053
▁rose	-11.0057
▁difficulty	-11.0058
▁camp	-11.006
▁celebrate	-11.0062
▁obvious	-11.0065
▁নিলেন	-11.0066
▁blocks	-11.0067
▁দুদক	-11.0067
▁blow	-11.0067
vert	-11.0068
ম্ম	-11.007
▁বিতর্ক	-11.0071
▁pose	-11.0071
▁৬৪	-11.0073
▁magazine	-11.0073
▁founded	-11.0074
▁sunlight	-11.0075
▁পড়ছে	-11.0076
▁Johnson	-11.0078
▁Cat	-11.0078
▁কিশোরগঞ্জ	-11.0078
▁evaluate	-11.0082
▁শিবগঞ্জ	-11.0086
▁PC	-11.0086
▁সিনেমাটি	-11.0087
▁বৃদ্ধ	-11.0092
▁rarely	-11.0094
▁অনুসরণ	-11.0094
ball	-11.0095
▁bond	-11.0095
▁ba	-11.0096
▁বিশ্বজুড়ে	-11.0096
▁Finally	-11.0096
ographic	-11.0105
▁বার্সেলোনা	-11.0106
▁ছায়া	-11.0107
▁৫৪	-11.0107
EL	-11.0107
ET	-11.0111
▁রয়টার্স	-11.0115
▁accept	-11.0116
▁সিরাজুল	-11.0117
▁বাংলাদেশী	-11.0118
▁Unfortunately	-11.012
▁wasn	-11.012
room	-11.0123
▁cor	-11.0123
▁damaged	-11.0124
des	-11.0124
lat	-11.0127
▁নাচ	-11.0127
▁Place	-11.013
▁রুটে	-11.0135
ret	-11.0135
▁biodiversity	-11.0136
▁wife	-11.0136
▁পাইলট	-11.0136
▁ob	-11.0136
▁trail	-11.0136
▁grew	-11.0136
পূর্ব	-11.0136
▁সরদার	-11.0136
ome	-11.0136
▁করছিল	-11.0138
▁সংখ্যক	-11.0139
মির	-11.0139
▁ছাত্রীকে	-11.014
▁ফরম	-11.0141
▁তাল	-11.0141
▁Hol	-11.0142
▁বিধানসভা	-11.0143
ওয়ে	-11.0144
▁pop	-11.015
CH	-11.0152
▁ইউক্রেন	-11.0156
▁উন্মুক্ত	-11.0156
▁slide	-11.0157
▁lies	-11.0158
▁ইয়া	-11.0158
▁runs	-11.0158
▁ফোর্স	-11.0159
▁তালেবান	-11.0161
arch	-11.0163
▁দর্শকদের	-11.0164
▁মেসির	-11.0166
▁writer	-11.0166
Le	-11.0167
নিক	-11.0167
▁ভোগ	-11.0168
িয়	-11.0169
▁Key	-11.0169
LA	-11.0169
▁Sho	-11.017
▁formal	-11.0171
▁usage	-11.0171
▁cure	-11.0173
▁আসিফ	-11.0174
mus	-11.0175
▁Collection	-11.0175
▁কাপুর	-11.0176
▁জামালপুর	-11.0176
▁Economic	-11.0177
▁widespread	-11.0177
▁silver	-11.0177
▁transmission	-11.0178
▁knew	-11.0178
▁roof	-11.0178
▁ভোটগ্রহণ	-11.0178
ā	-11.0179
▁internet	-11.0179
las	-11.0179
▁jump	-11.018
▁fighting	-11.018
▁tissues	-11.0181
▁তুল	-11.0181
mun	-11.0186
▁train	-11.0187
life	-11.0191
▁প্রেসক্লাব	-11.0192
▁extend	-11.0193
▁তখনই	-11.0194
▁সিম	-11.0196
▁explanation	-11.0196
▁disaster	-11.0196
▁scene	-11.0197
▁anxiety	-11.0198
▁মন্ত্রিপরিষদ	-11.0198
▁বাচ্চু	-11.0198
▁Sta	-11.0199
▁স্মরণ	-11.0199
▁পাচার	-11.0201
▁লিড	-11.0203
▁integrated	-11.0204
pat	-11.0208
▁দেশকে	-11.0209
ভিডিও	-11.021
▁ভিতরে	-11.0214
▁এড	-11.0216
▁mixed	-11.0216
▁steel	-11.0219
▁নেট	-11.022
▁Has	-11.0224
▁খাবারের	-11.0225
▁লাইভ	-11.0226
▁বিচ্ছিন্ন	-11.0228
কশন	-11.0229
▁বাঁধা	-11.0231
▁bomb	-11.0231
▁প্রকৃত	-11.0231
দিকে	-11.0232
▁clouds	-11.0236
CA	-11.024
▁exciting	-11.024
▁plenty	-11.024
▁আস্থা	-11.0241
▁Joseph	-11.0241
▁suitable	-11.0242
▁বিতর্কিত	-11.0242
▁Grand	-11.0247
▁involve	-11.0247
▁যাচ্ছি	-11.0248
gal	-11.0249
▁প্রতিষ্ঠানটি	-11.0249
পরিদর্শক	-11.025
▁virtual	-11.0253
▁পত্র	-11.0255
sky	-11.0255
▁j	-11.0255
▁Ku	-11.0261
▁accuracy	-11.0261
▁আমন্ত্রণ	-11.0261
▁Missouri	-11.0262
▁অ্যাকশন	-11.0262
▁বিখ্যাত	-11.0263
▁measurement	-11.0263
teen	-11.0264
▁রানী	-11.0266
▁roughly	-11.0267
▁entirely	-11.0269
▁Aug	-11.027
▁females	-11.0271
▁প্রা	-11.0272
▁Em	-11.0275
▁বাচ্চা	-11.0276
▁claims	-11.028
ْ	-11.0281
▁Arts	-11.0282
▁Symptoms	-11.0283
▁পরিষেবা	-11.0283
▁Field	-11.0283
▁complications	-11.0283
▁minute	-11.0284
▁permission	-11.0284
▁joined	-11.0284
▁cur	-11.0286
▁৫৯	-11.0287
▁confirm	-11.0287
▁wonder	-11.0294
born	-11.0294
▁installed	-11.0295
SD	-11.0297
ination	-11.0297
▁offering	-11.0297
▁উদ্যোক্তা	-11.0297
▁Sw	-11.0303
▁holes	-11.0304
▁প্রার্থনা	-11.0304
▁মতামত	-11.0304
▁ওয়াশিংটন	-11.0304
▁Gulf	-11.0305
▁pan	-11.0305
▁যাই	-11.0306
▁machines	-11.0309
▁ভক্তদের	-11.0311
tis	-11.0312
পতি	-11.0312
শক্তি	-11.0314
ফু	-11.0315
gy	-11.0315
▁রপ্তানি	-11.0318
▁পাহাড়	-11.0319
▁engineers	-11.0319
▁Ed	-11.032
CO	-11.0325
▁Alaska	-11.0325
▁টহল	-11.0325
▁কমাতে	-11.0327
▁fuels	-11.033
gent	-11.033
▁putting	-11.033
পাড়ার	-11.033
▁জামান	-11.034
▁মঞ্চে	-11.034
▁ইনস্টিটিউট	-11.0341
ess	-11.0341
▁door	-11.0345
▁ইউনাইটেড	-11.0346
▁combat	-11.0346
▁ভেঙ্গে	-11.0346
▁Convention	-11.0347
▁হেলাল	-11.0347
▁আকারে	-11.0347
▁Shi	-11.0347
▁consumer	-11.0349
▁মুন	-11.0351
▁মোকাবেলায়	-11.0352
▁grid	-11.0352
▁শিক্ষার্থীর	-11.0353
▁tumors	-11.0359
class	-11.0361
uri	-11.0361
ulate	-11.0362
mat	-11.0363
▁horses	-11.0367
▁কোরবানি	-11.0368
▁বিতরন	-11.0368
sum	-11.0368
▁advance	-11.037
বার্ষিকী	-11.037
▁engage	-11.0375
▁feelings	-11.0375
▁৩টি	-11.0376
ini	-11.0379
MO	-11.0379
hood	-11.0379
char	-11.0379
fully	-11.038
▁জনাব	-11.0381
spir	-11.0384
▁absorb	-11.0385
▁adds	-11.0386
▁অনুশীলন	-11.0386
▁Ly	-11.0388
▁artificial	-11.0389
▁বাড়বে	-11.0389
▁সাব্বির	-11.0389
▁pp	-11.0389
▁ত্রিপুরা	-11.0389
aff	-11.039
▁একাডেমি	-11.039
▁Maryland	-11.039
▁জোরদার	-11.039
▁Comment	-11.0391
ids	-11.0391
▁শীত	-11.0398
▁creatures	-11.0402
▁Blood	-11.0404
▁consistent	-11.0404
nc	-11.0407
▁vocabulary	-11.041
▁সৌন্দর্য	-11.041
▁opinion	-11.0411
▁Saint	-11.0411
▁males	-11.0413
▁পাকা	-11.0416
▁sell	-11.0421
▁কানাডা	-11.0422
▁centers	-11.0423
▁নড়াইল	-11.0424
▁Gar	-11.0425
▁captured	-11.0425
▁ঘাট	-11.0425
▁molecular	-11.0426
▁Full	-11.0427
▁Did	-11.0427
ense	-11.0427
▁সই	-11.0428
▁ইস	-11.0431
▁Pennsylvania	-11.0432
▁মাদারীপুর	-11.0432
▁বীজ	-11.0432
▁accessible	-11.0434
▁কাশ্মীর	-11.0437
fold	-11.0437
▁detected	-11.0437
▁aim	-11.0439
made	-11.0446
▁statistics	-11.0449
▁অগ্রগতি	-11.0453
▁housing	-11.0454
▁Gen	-11.0454
▁দিল্লির	-11.0455
▁Portal	-11.0459
eb	-11.046
ফাই	-11.0463
▁Vol	-11.0463
cut	-11.0465
▁১টি	-11.0466
dar	-11.0471
▁নাসিম	-11.0472
▁drawn	-11.0473
▁শাসন	-11.0475
▁imaging	-11.0475
▁চৌ	-11.0476
জী	-11.0478
▁কৌশল	-11.048
▁shell	-11.0481
ঙ্গি	-11.0482
▁funded	-11.0482
জিত	-11.0482
phy	-11.0482
▁চালানোর	-11.0485
▁geo	-11.0487
▁নওগাঁ	-11.0489
▁ecological	-11.0497
ডাঙ্গা	-11.0497
▁টুইটারে	-11.0497
ump	-11.0497
▁ভিত্তি	-11.05
▁বরাবর	-11.0504
van	-11.0504
▁ব্লক	-11.0507
▁সিংহ	-11.0507
▁ভোটে	-11.0508
▁ছাড়িয়ে	-11.0512
▁ছাত্রীর	-11.0513
▁আধা	-11.0513
▁উপস্থিতিতে	-11.0514
▁আকার	-11.0516
▁স্থানীয়দের	-11.0516
▁সুষ্ঠু	-11.0516
▁পাওয়ায়	-11.0518
মানের	-11.0518
▁Massachusetts	-11.0518
▁mathematical	-11.0518
▁গুলিবিদ্ধ	-11.0518
▁হুমায়ুন	-11.0518
▁উঠছে	-11.0518
▁লতিফ	-11.0518
▁profile	-11.0518
▁moral	-11.0519
▁observation	-11.052
▁নিজাম	-11.0521
▁networks	-11.0522
place	-11.0523
▁তাও	-11.0524
yo	-11.0525
▁accounts	-11.0525
▁papers	-11.0527
▁drinks	-11.0531
▁minerals	-11.0536
ich	-11.0539
▁administration	-11.054
▁পড়াশোনা	-11.054
▁judge	-11.054
▁লম্বা	-11.054
▁regulations	-11.0541
▁Music	-11.0542
▁circle	-11.0542
▁supports	-11.0543
▁আইনগত	-11.0545
lab	-11.0547
▁thanks	-11.0549
▁invasive	-11.055
গল	-11.0551
▁Par	-11.0552
▁তরুণী	-11.0552
NEWS	-11.0554
▁Large	-11.0556
▁branch	-11.0557
DA	-11.0558
▁মুম্বাই	-11.0559
▁আনুমানিক	-11.0562
▁বিপর্যয়	-11.0562
▁mortality	-11.0562
▁বৃষ্টিপাত	-11.0562
▁sodium	-11.0562
▁পরিবর্তনের	-11.0564
ines	-11.0568
বাই	-11.0569
▁সংঘর্ষের	-11.0571
don	-11.0574
▁covering	-11.0574
▁বাসে	-11.0575
▁Mag	-11.0575
▁চলার	-11.0577
ara	-11.0577
▁Dan	-11.0578
▁supporting	-11.0578
isation	-11.0579
▁প্রেমিক	-11.058
▁তি	-11.0581
▁Out	-11.0581
▁আলু	-11.0581
▁poly	-11.0583
▁Amader	-11.0583
থি	-11.0583
▁দেলোয়ার	-11.0583
▁সংক্ষিপ্ত	-11.0583
▁telescope	-11.0586
লাল	-11.0588
▁Han	-11.0588
▁Fund	-11.0592
▁নেইমার	-11.0597
▁destroyed	-11.0598
gas	-11.0602
▁চক্র	-11.0602
▁সাক্ষাৎ	-11.0604
▁শ্রমিকরা	-11.0605
▁recognition	-11.0605
▁tobacco	-11.0605
▁Constitution	-11.0605
ডো	-11.0606
▁রাজস্ব	-11.0606
▁pull	-11.0612
চ্ছে	-11.0613
ছড়ি	-11.0613
▁holding	-11.0613
▁delay	-11.0613
ivity	-11.0616
▁ভিডিওতে	-11.0618
ware	-11.0618
▁৯টার	-11.0621
▁নাগরিকদের	-11.0623
http	-11.0624
▁ক্যাম্পে	-11.0625
র্ম	-11.0625
spec	-11.0626
▁Visit	-11.0627
▁Several	-11.0627
▁দেখুন	-11.0627
▁জ্বালানি	-11.063
ীতে	-11.0631
▁ভারী	-11.0632
▁smart	-11.0633
▁consume	-11.0633
ধি	-11.0634
nate	-11.0639
▁গেলো	-11.064
ula	-11.064
▁ভাতা	-11.0646
▁Harvard	-11.0649
▁সমঝোতা	-11.0649
▁ঝালকাঠি	-11.0649
dra	-11.065
▁sail	-11.0651
ডিবি	-11.0651
▁সম্	-11.0651
▁Model	-11.0651
▁holiday	-11.0653
▁Avoid	-11.0654
▁issued	-11.0655
▁ডিজাইন	-11.0655
কল্প	-11.0657
▁জনপ্রিয়তা	-11.0658
▁Port	-11.0658
▁boat	-11.0659
▁হাফেজ	-11.0661
els	-11.0667
▁ships	-11.0668
test	-11.067
pping	-11.067
▁ক্ষেপণাস্ত্র	-11.0671
▁পর্যাপ্ত	-11.0671
▁যাবজ্জীবন	-11.0671
▁সংবিধান	-11.0671
▁সংরক্ষিত	-11.0671
▁ট্রাফিক	-11.0671
▁tooth	-11.0675
▁ecosystems	-11.0676
▁পদ্ধতিতে	-11.0678
▁বিক্রয়	-11.068
▁মৃত্যুদণ্ড	-11.068
▁speaking	-11.0681
ুদ্দিন	-11.0681
box	-11.0681
rup	-11.0685
▁আলমের	-11.0687
▁প্রদর্শনী	-11.0689
▁Bu	-11.069
▁Rock	-11.0692
▁excess	-11.0692
▁mineral	-11.0693
▁Illinois	-11.0693
▁genome	-11.0693
▁ফিরোজ	-11.0693
link	-11.0697
▁aims	-11.0698
▁habitats	-11.0701
▁CD	-11.0702
ঘাত	-11.0705
▁চুয়াডাঙ্গা	-11.0705
▁confirmed	-11.071
▁aged	-11.071
▁সাফ	-11.0713
▁mi	-11.0714
▁সরঞ্জাম	-11.0715
▁legislation	-11.0715
▁সাক্ষী	-11.0716
▁excessive	-11.0717
▁Ten	-11.0717
len	-11.0718
র্ষ	-11.0719
▁authority	-11.0722
▁comet	-11.0723
▁PDF	-11.0725
ক্ষু	-11.0727
▁বললে	-11.0729
ন্ডি	-11.073
▁ring	-11.0732
▁accepted	-11.0733
▁স্থাপনা	-11.0733
▁thoughts	-11.0735
▁caught	-11.0737
▁পারফরম্যান্স	-11.0737
▁মিউজিক	-11.0737
▁রশীদ	-11.0737
▁soldiers	-11.0739
▁হই	-11.0739
▁খো	-11.0741
▁তুরস্ক	-11.0745
▁স্বার্থে	-11.0746
▁রযালি	-11.0747
▁meta	-11.0748
lines	-11.075
▁AND	-11.0752
▁উত্তরা	-11.0754
»	-11.0758
▁রনি	-11.0758
▁Wikipedia	-11.0759
▁innovation	-11.0759
▁সীমিত	-11.0759
▁মালামাল	-11.076
▁টস	-11.076
▁আরোহী	-11.0761
▁কবীর	-11.0761
▁Level	-11.0762
tus	-11.0763
▁বিনিময়	-11.0767
▁গুলো	-11.0768
▁ফু	-11.0769
জনিত	-11.077
▁switch	-11.0771
পরিচালক	-11.0779
▁Kolkata	-11.0782
▁হেলিকপ্টার	-11.0782
▁truly	-11.0782
▁Che	-11.0783
▁কবর	-11.0784
▁polar	-11.0785
▁রুপি	-11.0786
▁musical	-11.0791
▁সম্পর্কের	-11.0794
elect	-11.0795
AD	-11.0796
▁জালাল	-11.0796
▁mechanisms	-11.0798
▁dense	-11.08
ফার	-11.08
▁সঙ্গীত	-11.0801
▁pack	-11.0801
▁শিশুটির	-11.0803
▁lands	-11.0804
▁surfaces	-11.0804
▁উপলক্ষ্যে	-11.0804
▁সাইবার	-11.0805
▁crack	-11.0805
▁winds	-11.0805
▁seconds	-11.0805
▁ত্বকের	-11.0805
▁বিমানের	-11.0805
▁stable	-11.0806
▁Top	-11.0806
▁domain	-11.0806
▁দুর্বৃত্তরা	-11.0807
▁মুক্তিযুদ্ধ	-11.0807
▁অসাধারণ	-11.0807
▁দামে	-11.0809
▁arrived	-11.0813
▁দুর্নীতির	-11.0817
্টার	-11.0826
▁পরিপ্রেক্ষিতে	-11.0826
▁রূপান্তর	-11.0827
▁ফিতর	-11.0827
▁চাঁপাইনবাবগঞ্জ	-11.0829
▁বাগেরহাট	-11.0834
▁উৎসবের	-11.0834
বিষয়ক	-11.0838
▁চলচ্চিত্রের	-11.084
▁যাক	-11.0844
▁representation	-11.0845
rk	-11.0851
▁strain	-11.0852
▁বিদ্যুতের	-11.0853
tv	-11.0853
▁''	-11.0854
▁educators	-11.0855
▁টুর্নামেন্টের	-11.0857
now	-11.0858
▁treating	-11.0859
▁কোরিয়ার	-11.086
▁improvement	-11.0861
▁windows	-11.0862
▁সমৃদ্ধ	-11.0865
▁falls	-11.0865
▁বাগান	-11.0865
▁চিকিৎসকের	-11.0867
rib	-11.0872
▁বাস্তবায়নে	-11.0873
▁রতন	-11.0874
▁ধন	-11.0879
▁Nor	-11.088
▁rocket	-11.0881
▁category	-11.0882
cu	-11.0883
তির	-11.0883
▁Tra	-11.0883
▁রোগের	-11.0888
rac	-11.0889
▁ডিএমপি	-11.0889
▁CA	-11.089
▁cast	-11.0893
▁aggressive	-11.0894
▁allergies	-11.0894
▁split	-11.0894
▁expressed	-11.0894
ইং	-11.0895
▁Four	-11.0895
vel	-11.0897
▁যোগ্যতা	-11.0899
TA	-11.0901
▁উত্তোলন	-11.0902
lib	-11.0904
▁জোড়া	-11.0905
right	-11.0905
▁realize	-11.0908
▁বন্দরে	-11.0908
▁চক্রের	-11.0909
▁acts	-11.0911
▁ভিডিওটি	-11.0912
▁গার্ড	-11.0914
▁Nutrition	-11.0916
▁পরিবর্তে	-11.0916
▁সংলাপ	-11.0916
▁যানজট	-11.0916
▁Sports	-11.0916
▁ঐক্যবদ্ধ	-11.0916
▁উজ্জ্বল	-11.0916
বিজ্ঞান	-11.0918
▁Step	-11.0919
▁IN	-11.0926
▁Way	-11.0927
▁২০১২	-11.0927
▁skill	-11.0928
í	-11.0928
▁ফোনের	-11.0931
▁Article	-11.0931
▁টের	-11.0931
▁আয়ের	-11.0931
▁exists	-11.0934
▁Watch	-11.0935
শের	-11.0938
▁পর্যবেক্ষণ	-11.0939
▁respiratory	-11.0939
▁responses	-11.0939
`	-11.094
▁Show	-11.0941
▁দম্পতি	-11.0941
▁Sub	-11.0942
De	-11.0942
▁chemistry	-11.0946
▁একেবারে	-11.0947
▁trick	-11.0948
▁beat	-11.0949
bro	-11.0951
▁messages	-11.0951
▁str	-11.0952
▁supplements	-11.0952
▁সেদিন	-11.0952
▁MA	-11.0953
▁আইএস	-11.0958
▁presents	-11.096
ক্রি	-11.096
▁RE	-11.096
▁impossible	-11.0961
▁জলবায়ু	-11.0961
▁প্রতিষ্ঠিত	-11.0961
▁হায়দার	-11.0961
▁রোহিত	-11.0961
▁বগুড়ার	-11.0963
▁হাউজ	-11.0964
▁Mil	-11.097
gan	-11.0972
IP	-11.0976
▁অ্যাপল	-11.0978
▁নিল	-11.0979
▁Video	-11.0979
▁সমস্যায়	-11.098
▁tape	-11.0981
▁arch	-11.0983
▁imagine	-11.0984
▁voltage	-11.0984
▁doubt	-11.0984
▁নোবেল	-11.0984
▁৪টি	-11.0984
▁leadership	-11.0985
▁সদস্যকে	-11.0985
▁অনেকটাই	-11.0987
▁ধারাবাহিকতায়	-11.0988
▁Royal	-11.0988
▁distributed	-11.0988
▁arts	-11.0988
making	-11.0988
▁গি	-11.0997
▁farming	-11.1
▁মেলার	-11.1001
▁circuit	-11.1002
▁দুদকের	-11.1003
▁zone	-11.1006
▁fan	-11.1006
▁পারভেজ	-11.1007
▁prison	-11.1007
▁married	-11.1007
gram	-11.1007
▁বাই	-11.1008
rist	-11.1011
বিন	-11.1013
▁কতটা	-11.1013
▁compound	-11.1015
del	-11.1016
▁ভুলে	-11.1021
শ্র	-11.1021
They	-11.1023
▁বিধান	-11.1023
ali	-11.1024
ধা	-11.1024
ক্ট	-11.1025
▁আজম	-11.1028
▁receiving	-11.1029
▁Bureau	-11.103
▁প্রমূখ	-11.103
▁transmitted	-11.103
▁কুয়েত	-11.103
▁ফ্রান্স	-11.1032
author	-11.1032
▁রুশ	-11.1033
oph	-11.1038
▁wants	-11.104
▁holds	-11.1041
▁এবারও	-11.1041
নেট	-11.1042
াজ	-11.1043
▁Look	-11.1044
▁Mor	-11.1045
▁পড়বে	-11.1045
▁পরীক্ষার্থী	-11.1046
▁observe	-11.1049
▁Centers	-11.1049
▁অনন্য	-11.105
▁reliable	-11.1052
▁ইসমাইল	-11.1052
▁অবহিত	-11.1053
র্জ	-11.1054
mount	-11.1054
জনকে	-11.1058
▁Jun	-11.1059
▁ব্যক্ত	-11.106
▁গবেষণায়	-11.1061
▁রিমান্ডে	-11.1063
▁পিছনে	-11.1064
▁ল্যা	-11.1065
▁মানববন্ধনে	-11.1065
▁তত	-11.1065
▁grains	-11.1066
amine	-11.1068
▁৫৩	-11.1068
▁turning	-11.1071
▁রাজবাড়ী	-11.1071
▁বহন	-11.1072
লায়	-11.1072
▁trust	-11.1074
▁beneficial	-11.1075
▁necessarily	-11.1075
▁knee	-11.1075
▁underlying	-11.1075
▁চালিয়েছে	-11.1077
রিন	-11.1078
▁কলকাতায়	-11.1079
▁নিত্য	-11.1081
)|	-11.1081
▁Rh	-11.1082
্যাল	-11.1084
▁failed	-11.1086
Ex	-11.1087
▁বানিয়ে	-11.1088
▁ডিসি	-11.1088
▁approved	-11.1093
▁আশপাশের	-11.1097
▁spirit	-11.1098
▁ট্রাইব্যুনাল	-11.1098
▁shelter	-11.1098
▁vertical	-11.1098
▁cardiovascular	-11.1098
▁মুরাদ	-11.1098
▁loose	-11.11
▁কোটা	-11.1102
yan	-11.1103
▁স্পিনার	-11.1106
▁সমন্বয়	-11.1109
বোধ	-11.1109
▁newly	-11.1109
▁escape	-11.111
gr	-11.1111
▁beam	-11.1111
▁গুলশান	-11.1111
▁reform	-11.1112
▁প্রযুক্তির	-11.1112
BS	-11.1114
▁দশম	-11.1115
▁পাঁচজন	-11.1116
র্শ	-11.1117
▁৯টা	-11.1118
▁দেখি	-11.1121
▁অলিম্পিক	-11.1121
▁ব্যাটালিয়ন	-11.1121
▁Edward	-11.1121
▁pa	-11.1122
▁bigger	-11.1123
ধারী	-11.1123
▁fatty	-11.1124
▁signed	-11.1125
▁ইউএস	-11.1125
▁কাম	-11.1126
▁সমর্থকদের	-11.1127
▁আয়োজনের	-11.1127
radi	-11.1127
▁delivery	-11.1129
ন্না	-11.113
▁relation	-11.113
▁বিশ	-11.1131
▁trained	-11.1135
shaped	-11.1136
▁৫৭	-11.1136
rie	-11.1139
▁অধিবেশন	-11.1144
tun	-11.1145
▁relief	-11.1145
▁মৃত্যুবরণ	-11.1145
▁জামে	-11.1146
▁manual	-11.1146
MP	-11.1146
▁shapes	-11.1147
▁Sc	-11.1147
▁robot	-11.1152
CD	-11.1153
▁মাতা	-11.1154
▁জয়ে	-11.1154
▁session	-11.1154
▁fourth	-11.1155
▁ব্যাটিংয়ে	-11.1156
▁পাঠান	-11.1157
▁raw	-11.1161
arian	-11.1162
▁@	-11.1164
▁একক	-11.1166
▁ধোনি	-11.1166
িয়াল	-11.1166
▁dramatic	-11.1167
▁understood	-11.1167
▁অবিলম্বে	-11.1167
▁পরিসংখ্যান	-11.1167
▁পরাজিত	-11.1167
▁cattle	-11.1168
burg	-11.1169
▁authorities	-11.1169
▁জাপান	-11.1171
▁route	-11.1171
▁এরপরই	-11.1173
▁reward	-11.1174
▁সেল	-11.1175
▁vaccines	-11.118
▁roads	-11.1183
▁পুলিশে	-11.1183
▁২য়	-11.1184
▁একজনকে	-11.1186
▁পরিবহনের	-11.1187
▁স্ট্যাটাস	-11.119
▁ট্রফি	-11.119
▁sensor	-11.1194
▁Cell	-11.1196
▁oldest	-11.1196
▁১৪২৮	-11.1198
▁gun	-11.1198
▁auto	-11.1198
IL	-11.1204
ef	-11.1204
▁Van	-11.1206
▁মহামারির	-11.1209
ংক	-11.121
কন	-11.121
▁phenomenon	-11.1214
▁amazing	-11.1214
ati	-11.1214
▁ফরহাদ	-11.1214
▁mouse	-11.1214
▁connections	-11.1215
িকে	-11.1216
▁Cross	-11.1217
▁সনদ	-11.1218
▁cup	-11.1221
কারীরা	-11.1223
৭০	-11.1225
mann	-11.1227
▁আবদুর	-11.123
রূপ	-11.1234
▁বুক	-11.1235
tar	-11.1235
▁atoms	-11.1235
▁Scotland	-11.1237
▁recycling	-11.1237
▁spectrum	-11.1237
▁হাছান	-11.1237
▁gift	-11.1237
▁strange	-11.1237
▁Biology	-11.1238
▁অল	-11.1239
▁দুলাল	-11.1239
▁shade	-11.1239
▁chosen	-11.124
▁শ্রেণি	-11.1243
▁গ্রামবাসী	-11.1244
path	-11.1248
As	-11.125
▁ইস্যুতে	-11.1252
▁গে	-11.1253
▁consult	-11.1256
▁heating	-11.1258
▁রণবীর	-11.126
▁contents	-11.1261
AC	-11.1261
▁loop	-11.1262
▁coin	-11.1264
▁গ্রেফতারের	-11.1264
▁Drug	-11.1265
▁branches	-11.1265
century	-11.1267
▁gum	-11.1269
▁Ju	-11.1271
▁প্রি	-11.1271
নেতা	-11.1272
▁sore	-11.1272
্বরাষ্ট্রমন্ত্রী	-11.1273
ides	-11.1273
wer	-11.1274
▁নারায়ণগঞ্জের	-11.1274
চিত্র	-11.1275
OP	-11.1275
key	-11.1283
▁territory	-11.1283
▁কর্মসংস্থান	-11.1283
▁জয়পুরহাট	-11.1283
▁forecast	-11.1284
▁kit	-11.1285
▁encouraged	-11.1285
িটি	-11.1286
▁harvest	-11.1286
▁PA	-11.1296
▁breed	-11.1299
SH	-11.1299
Con	-11.13
▁শুরুতেই	-11.1303
▁facing	-11.1304
▁বিপদ	-11.1304
mu	-11.1304
▁Ob	-11.1305
▁constructed	-11.1305
ক্রম	-11.1305
ld	-11.1306
▁implications	-11.1307
▁মুশফিকুর	-11.1308
▁planned	-11.1308
▁Radio	-11.1309
▁players	-11.131
▁settlement	-11.131
mate	-11.1312
▁knows	-11.1313
▁কিশোরী	-11.1314
▁fats	-11.1315
▁সাপ	-11.1316
োপ	-11.1316
pm	-11.1318
▁investigate	-11.1319
▁নেত্রকোনা	-11.132
▁moves	-11.1322
▁চালাচ্ছে	-11.1323
▁আফগানিস্তানের	-11.1324
▁বোলার	-11.1325
▁outcomes	-11.1326
▁Santa	-11.1327
sch	-11.133
▁অভ্যন্তরীণ	-11.133
▁কাছাকাছি	-11.133
▁মুকুল	-11.1332
wo	-11.1332
▁recover	-11.1333
rit	-11.1333
▁ultimately	-11.1335
▁কাজল	-11.1338
rated	-11.1338
▁কবে	-11.1339
▁ongoing	-11.134
town	-11.1341
ku	-11.1342
ডিপি	-11.1342
▁tour	-11.1342
▁প্রযোজক	-11.1342
▁Current	-11.1342
▁পাড়ি	-11.1345
▁বিশেষজ্ঞরা	-11.1347
▁AIDS	-11.1351
▁unable	-11.1354
▁Indonesia	-11.1354
▁sediment	-11.1354
▁যমুনা	-11.1354
▁স্বল্প	-11.1354
৮০	-11.1354
▁Bre	-11.1355
▁marks	-11.1355
▁brings	-11.1355
SI	-11.1356
▁কোর্স	-11.1358
▁কর্পোরেশনের	-11.1358
▁interests	-11.1359
▁ইস্যু	-11.1362
▁নবম	-11.1362
▁threatened	-11.1362
▁Wall	-11.1363
▁mill	-11.1365
▁exception	-11.1367
▁initiative	-11.1367
সাই	-11.1372
▁আসামির	-11.1373
▁demonstrated	-11.1374
▁MS	-11.1375
SP	-11.1376
সিন	-11.1377
▁লড়াইয়ে	-11.1377
▁একইসঙ্গে	-11.1377
▁ব্যাখ্যা	-11.1377
▁nitrogen	-11.1378
▁রিফাত	-11.1378
▁↑	-11.1378
▁খাতের	-11.1378
▁সম্প্রদায়ের	-11.1382
র্ড	-11.1383
ধু	-11.1384
▁da	-11.1384
م	-11.1386
▁protecting	-11.1387
▁মঞ্চ	-11.1387
▁ne	-11.1388
মতি	-11.1389
▁panels	-11.1389
▁eliminate	-11.139
▁চিন	-11.139
▁বান্দরবান	-11.1393
▁গ্যা	-11.1394
▁ঠাকুরগাঁও	-11.1395
অব	-11.14
▁pets	-11.1401
▁জোটের	-11.1401
▁worst	-11.1401
▁জরুরী	-11.1401
▁বৈশ্বিক	-11.1401
▁Physical	-11.1401
▁শুল্ক	-11.1401
▁defend	-11.1401
চ্ছা	-11.1402
▁ওপেন	-11.1402
▁বাণিজ্যিক	-11.1405
▁প্রশাসনিক	-11.1408
মায়	-11.1414
বিহীন	-11.1414
▁ফ্রান্সের	-11.1417
▁bullying	-11.1418
ণের	-11.142
▁আজকে	-11.142
▁identifying	-11.1422
▁dynamic	-11.1423
▁কিংবদন্তি	-11.1425
▁exercises	-11.1426
▁য	-11.143
▁নিলে	-11.1431
▁trends	-11.1432
atory	-11.1434
▁Definition	-11.1434
▁গবেষক	-11.1434
তর	-11.1436
▁illnesses	-11.1436
▁রহস্য	-11.1439
মেয়ে	-11.1439
▁ভাবনা	-11.1439
▁হুদা	-11.144
▁কার্য	-11.1443
▁gravity	-11.1443
▁Conference	-11.1449
▁calendar	-11.1449
▁spiritual	-11.1449
▁…	-11.1449
▁পর্দায়	-11.1454
কান্দি	-11.1454
▁এরকম	-11.1459
▁Zoo	-11.146
list	-11.1461
▁le	-11.1462
▁দিয়েই	-11.1462
▁মাগুরা	-11.1463
dor	-11.1467
▁জিয়াকে	-11.1468
IT	-11.1469
ভিন	-11.147
ged	-11.1471
▁নিহতদের	-11.1472
▁Policy	-11.1472
▁exploration	-11.1472
▁হরতাল	-11.1472
▁ঘনিষ্ঠ	-11.1472
▁steam	-11.1473
▁আবদুল্লাহ	-11.1473
she	-11.1473
ফল	-11.1476
▁ইম	-11.1476
▁detection	-11.1478
বারের	-11.1483
▁strongly	-11.1484
CS	-11.1484
▁diagnose	-11.1485
▁মুর	-11.1485
▁entered	-11.1488
mul	-11.1491
▁delivered	-11.1492
ney	-11.1493
▁lights	-11.1493
▁সিদ্দিক	-11.1496
▁আবরার	-11.1496
tive	-11.1497
▁শঙ্কা	-11.1497
▁categories	-11.1497
কান্দা	-11.1499
▁রঙের	-11.1501
০০০	-11.1501
▁জাপানের	-11.1501
▁browser	-11.1502
▁owners	-11.1502
▁রক্ষায়	-11.1502
▁প্রভাবে	-11.1505
▁ওঠা	-11.1505
ora	-11.1505
▁BC	-11.1507
যান	-11.1509
▁cha	-11.1514
▁সাদ	-11.1515
খু	-11.1517
▁বেড়া	-11.1518
▁bringing	-11.1519
▁একের	-11.152
▁প্রদানের	-11.152
▁celebration	-11.152
▁innovative	-11.152
▁mechanical	-11.152
▁সশস্ত্র	-11.152
▁লবণ	-11.152
▁রচনা	-11.1521
▁ফকির	-11.1521
▁সুন্দরবন	-11.1521
▁মাঠের	-11.1522
▁গোপালগঞ্জ	-11.1523
▁জানিয়েছিলেন	-11.1523
দিনের	-11.1524
allowing	-11.1524
▁swelling	-11.1526
▁দাগ	-11.1531
Our	-11.1538
▁ক্রিকেটারদের	-11.1539
ston	-11.1542
▁কাতার	-11.1542
era	-11.1542
▁ঠাকুর	-11.1544
▁indicated	-11.1544
▁concrete	-11.1544
▁win	-11.1546
▁rid	-11.1547
▁সম্পাদনা	-11.1552
▁mammals	-11.1554
▁গোলের	-11.1556
▁missing	-11.1556
▁storms	-11.1556
▁রাজস্থান	-11.1557
▁Gold	-11.1559
▁danger	-11.1559
▁কেনার	-11.1559
▁gap	-11.1563
▁উই	-11.1563
ique	-11.1563
▁drivers	-11.1564
▁পরিমাণে	-11.1564
▁grows	-11.1565
▁যাতায়াত	-11.1568
▁cheese	-11.1568
▁cotton	-11.1568
▁পঞ্চগড়	-11.1568
▁temple	-11.1568
▁elected	-11.1568
▁framework	-11.1569
▁সিদ্ধান্তের	-11.1569
▁বনানী	-11.1569
▁যত্ন	-11.1569
▁archive	-11.157
ব্র	-11.1574
পদ	-11.1575
▁চুক্তির	-11.1579
▁মালয়েশিয়া	-11.158
▁সাময়িক	-11.1581
মোট	-11.1583
▁earthquake	-11.1584
▁খেলবে	-11.1586
▁Talk	-11.1586
lem	-11.1589
▁controls	-11.1592
▁clock	-11.1592
▁Assessment	-11.1593
▁fault	-11.1593
▁রাখুন	-11.1593
▁Know	-11.1593
▁পতন	-11.1594
▁evolved	-11.1597
▁Building	-11.16
▁বাইক	-11.1602
▁dates	-11.1603
▁বেশী	-11.1603
ros	-11.1604
▁minor	-11.1605
So	-11.1607
▁variation	-11.1609
▁movie	-11.1609
▁এলো	-11.1611
▁লন্ডনে	-11.1613
ages	-11.1614
▁কর্মসূচী	-11.1614
▁বিধ্বস্ত	-11.1615
▁লাইসেন্স	-11.1616
▁Popular	-11.1617
▁বিচ্ছেদ	-11.1617
▁রাজীব	-11.1617
▁রেডিও	-11.1617
▁স্বতন্ত্র	-11.1617
▁উড়িয়ে	-11.1617
▁Remember	-11.1617
দেব	-11.1617
▁Story	-11.1619
▁commitment	-11.1619
▁mm	-11.1624
CL	-11.1625
▁resulted	-11.1626
▁Fra	-11.1628
▁সাইফ	-11.1629
▁spots	-11.1629
গঞ্জে	-11.1631
▁স্বাদ	-11.1632
▁spending	-11.1632
▁wonderful	-11.1635
▁mg	-11.1635
▁পাঠিয়েছে	-11.1635
▁Im	-11.1639
▁Student	-11.1641
▁indeed	-11.1642
▁meals	-11.1645
▁মেলায়	-11.1645
▁ধু	-11.1646
omy	-11.1649
▁খ্যাত	-11.165
ye	-11.1651
▁গাজীপুরের	-11.1652
▁ফো	-11.1653
▁মেহেরপুর	-11.1654
▁thyroid	-11.1654
আমাদের	-11.1654
▁relate	-11.1656
bid	-11.1657
▁election	-11.1658
▁বিচারের	-11.166
আজ	-11.166
▁৭৩	-11.1661
▁সংবাদটি	-11.1664
▁Century	-11.1665
▁Twitter	-11.1665
▁dairy	-11.1665
▁শয্যা	-11.1665
▁mixture	-11.1665
▁সূত্রের	-11.1666
▁dose	-11.1666
▁proportion	-11.1667
▁Point	-11.1667
▁bleeding	-11.1668
some	-11.1669
cat	-11.1671
lie	-11.1671
TE	-11.1672
▁বেল	-11.1672
▁protective	-11.1673
▁ব্যবসায়ীকে	-11.1675
▁goods	-11.1675
cap	-11.1676
▁analyze	-11.1678
▁fabric	-11.1679
▁audio	-11.1682
য়ো	-11.1684
▁নাট্য	-11.1685
▁নাহিদ	-11.1686
▁৪টা	-11.1686
dding	-11.1687
ement	-11.1688
▁Area	-11.1689
▁Mississippi	-11.1689
▁লেখেন	-11.1689
▁সম্পত্তি	-11.1689
▁গণধর্ষণ	-11.1689
▁Francisco	-11.169
▁spray	-11.1693
lets	-11.1693
nn	-11.1694
▁হার্ট	-11.1695
▁সেট	-11.1695
TS	-11.1696
▁fell	-11.1697
▁ওসমানী	-11.1699
▁এক্ষেত্রে	-11.1699
▁trials	-11.1699
▁গুন	-11.17
▁Create	-11.1702
▁assume	-11.1702
▁ফেনী	-11.1703
▁জমে	-11.1704
▁কার্	-11.1705
▁আন্দোলনে	-11.1707
ন্য	-11.171
▁জন্যে	-11.171
verse	-11.1711
▁carrying	-11.1712
EM	-11.1713
▁intensity	-11.1713
িরা	-11.1713
▁parallel	-11.1714
▁worry	-11.1714
▁নিবেদন	-11.1714
▁Small	-11.1714
▁smell	-11.1714
▁পরিশ্রম	-11.1714
▁lens	-11.1714
▁শাহিন	-11.1715
▁overweight	-11.1716
▁এরমধ্যে	-11.1717
▁alert	-11.1717
▁মনিরুল	-11.1717
▁গাইবান্ধা	-11.1717
▁পালনের	-11.1717
▁rover	-11.1718
পথে	-11.1718
▁সৈকত	-11.1719
▁reveal	-11.1719
▁শাস্তির	-11.1722
▁আব	-11.1723
TI	-11.1728
▁লিখ	-11.1728
▁গঠনের	-11.1732
▁te	-11.1733
▁interaction	-11.1735
ologists	-11.1736
▁oceans	-11.1736
▁শৃঙ্খলা	-11.1738
▁earliest	-11.1738
▁identification	-11.1738
▁সফটওয়্যার	-11.1738
▁vector	-11.1738
▁somewhat	-11.1741
▁Section	-11.1741
▁recording	-11.1741
▁সূর্য	-11.1742
from	-11.1744
▁আসামিদের	-11.1744
▁interactions	-11.1745
▁finds	-11.1745
▁wound	-11.1746
▁বিস্ফোরণ	-11.1746
সিএ	-11.1746
▁সেবার	-11.1747
▁আর্জেন্টিনা	-11.1748
▁চীনে	-11.1753
▁ফসল	-11.1754
▁বৈশাখ	-11.1754
▁sufficient	-11.1754
▁faith	-11.1756
ঈ	-11.1756
ছু	-11.1758
ধার	-11.1758
▁আরিফুল	-11.176
▁urine	-11.1763
▁কিংস	-11.1763
▁৬৮	-11.1764
▁বুলবুল	-11.1764
▁কর্মহীন	-11.1765
ইসি	-11.1765
▁সংগ্রহের	-11.1766
meter	-11.1766
▁inspired	-11.1768
▁ধারাবাহিক	-11.1768
Pa	-11.1769
▁ক্যাম্পাসে	-11.177
ening	-11.1771
▁bus	-11.1772
▁Nile	-11.1773
▁tank	-11.1775
▁schedule	-11.1776
▁আওয়ার	-11.1779
active	-11.178
▁maintained	-11.1781
▁বিরাজ	-11.1783
rig	-11.1785
▁প্ল্যাটফর্ম	-11.1787
▁চামড়া	-11.1787
▁লালমনিরহাট	-11.1787
▁Computer	-11.1787
▁আফগানিস্তান	-11.1788
▁অভিভাবক	-11.179
▁রাজশাহীতে	-11.1791
mel	-11.1794
▁Mal	-11.1795
▁৭৮	-11.1798
nal	-11.1799
লেই	-11.1801
ংস	-11.1803
quest	-11.1804
▁reaching	-11.1804
ude	-11.1804
bird	-11.1805
▁উৎসবে	-11.1806
rm	-11.1806
▁principle	-11.1807
▁আখ	-11.1811
▁পাকিস্তানি	-11.1811
▁measuring	-11.1812
▁ডিরেক্টর	-11.1812
▁Mount	-11.1813
▁রুপ	-11.1816
▁destroy	-11.1824
▁van	-11.1824
▁প্রদীপ	-11.1827
▁তারই	-11.1831
▁হলুদ	-11.1836
▁অধিবেশনে	-11.1837
নিউজ২৪	-11.1839
▁prey	-11.1839
▁reverse	-11.184
▁মেট্রো	-11.1841
▁এজেন্ট	-11.1844
▁vol	-11.1844
স্টা	-11.1846
াঙ্গ	-11.1846
face	-11.185
▁পরদিন	-11.185
oon	-11.1855
▁attribute	-11.1858
iti	-11.1858
▁BdST	-11.1861
▁hurricane	-11.1861
▁পর্যালোচনা	-11.1861
▁মূর্তি	-11.1861
▁উচ্ছেদ	-11.1861
▁extension	-11.1861
▁স্পেশাল	-11.1861
▁একপর্যায়ে	-11.1864
▁রোজ	-11.1869
ুদ	-11.1871
▁২০১১	-11.1873
রহাট	-11.1874
▁span	-11.1876
fr	-11.1882
ction	-11.1882
▁girl	-11.1882
▁interview	-11.1882
▁happening	-11.1883
মূল্য	-11.1883
▁trend	-11.1883
▁পরিবারে	-11.1884
▁viewed	-11.1884
▁সম্রাট	-11.1886
▁Oxford	-11.1886
▁এড়াতে	-11.1886
▁হারিয়েছে	-11.1887
▁পর্যটক	-11.1887
▁ঘরোয়া	-11.1887
ache	-11.1887
সেন	-11.1888
oke	-11.1892
Pro	-11.1892
য়েট	-11.1897
ush	-11.1898
▁Teacher	-11.19
umb	-11.1905
▁beans	-11.1905
▁উৎস	-11.1908
▁troops	-11.1908
▁ethnic	-11.1909
▁varieties	-11.1911
▁রওনা	-11.1911
বান্ধব	-11.1911
▁স্কোর	-11.1912
২০১৯	-11.1914
▁করতেই	-11.1918
▁শাকিল	-11.1918
mato	-11.1919
▁Ber	-11.1921
▁award	-11.1924
▁desire	-11.1924
St	-11.1925
▁fairly	-11.1926
সূত্র	-11.193
▁belief	-11.1932
▁enormous	-11.1936
▁শারমিন	-11.1936
RO	-11.1936
tta	-11.1936
বিডি	-11.1936
▁Mass	-11.1936
▁guess	-11.1936
ridge	-11.1936
▁ঘোষনা	-11.1937
▁supposed	-11.1939
▁ব্যাটারি	-11.1939
▁Think	-11.194
▁প্রতিযোগিতার	-11.1941
ফের	-11.1941
িব	-11.1942
ME	-11.1943
▁শ্রীপুর	-11.1944
জম	-11.1944
▁ইউনিটে	-11.1946
▁gray	-11.1949
▁relations	-11.195
▁দেখাতে	-11.1951
▁Low	-11.1951
▁ঠিকানা	-11.1952
▁strengthen	-11.1953
▁landing	-11.1954
range	-11.1956
▁সম্প্রচার	-11.1957
▁aspect	-11.1958
▁প্রাইভেট	-11.196
▁দেরি	-11.1961
▁Practice	-11.1961
▁diagram	-11.1961
▁stimulate	-11.1961
▁আশঙ্কাজনক	-11.1961
▁তুমি	-11.1962
▁sport	-11.1963
▁Indians	-11.1966
শ্ব	-11.197
▁ইউনি	-11.197
▁engines	-11.197
▁চর্চা	-11.1971
▁টাইগার	-11.1971
▁সহিংসতা	-11.1972
even	-11.1972
▁flying	-11.1973
▁nice	-11.1974
IR	-11.1982
কিউ	-11.1982
▁hi	-11.1983
▁বুঝে	-11.1983
ক্রমে	-11.1984
▁Count	-11.1984
▁Wisconsin	-11.1986
▁composed	-11.1986
▁happy	-11.1986
▁fellow	-11.1986
▁complicated	-11.1987
▁৫৮	-11.1987
রায়	-11.1987
?”	-11.1989
ক্যা	-11.1991
▁ক্যারিয়ার	-11.1991
ৎস	-11.1991
▁trigger	-11.1992
eu	-11.1996
▁committee	-11.1998
▁শ্রেণীর	-11.1998
▁comp	-11.2003
▁wings	-11.2005
▁watching	-11.2009
▁migration	-11.2009
প্রতিদ্বন্দ্বিতা	-11.2011
▁contemporary	-11.2011
▁epidemic	-11.2011
▁universal	-11.2011
▁ক্ষমতাসীন	-11.2011
▁সমাপনী	-11.2011
▁lymph	-11.2011
▁ফ্ল্যাট	-11.2011
▁সংকেত	-11.2011
▁permit	-11.2013
morph	-11.2015
▁ব্রাজিলের	-11.2017
▁২৫০	-11.2017
্টি	-11.2022
▁বিনিময়ে	-11.2027
▁বিসিএস	-11.203
▁পড়	-11.203
▁ব্রিজ	-11.203
▁noun	-11.2031
▁Kansas	-11.2036
▁চেম্বার	-11.2036
▁থেমে	-11.2037
▁Win	-11.2038
▁লুক	-11.2039
wn	-11.204
▁কক্ষ	-11.204
▁আনে	-11.2043
tre	-11.2043
▁তৎপরতা	-11.2047
ভেন	-11.2048
▁মুদ্রা	-11.2049
▁হাতের	-11.2049
por	-11.2051
▁Unit	-11.2052
▁fires	-11.2054
▁videos	-11.2057
▁investigation	-11.206
চক	-11.206
post	-11.206
▁গৃহবধূর	-11.2061
▁ঐতিহ্য	-11.2061
sized	-11.2061
▁abstract	-11.2062
▁মিশিয়ে	-11.2062
▁বিজনেস	-11.2062
▁স্বস্তি	-11.2062
▁চলাকালে	-11.2062
▁export	-11.2062
▁feedback	-11.2062
EA	-11.2063
Shomoy	-11.2063
খানা	-11.2063
▁Unlike	-11.2063
▁তাহের	-11.2063
মিত	-11.2063
▁disability	-11.2064
লিশ	-11.2067
যো	-11.2067
েন্দ্র	-11.207
▁register	-11.207
▁mountains	-11.2073
▁এখনই	-11.2075
fall	-11.2076
▁রহমানকে	-11.2076
▁গড়া	-11.2081
াকে	-11.2081
foot	-11.2082
ending	-11.2083
▁ended	-11.2084
▁নকল	-11.2085
▁Index	-11.2087
▁neighborhood	-11.2087
▁kilometers	-11.2087
▁finger	-11.2087
▁Little	-11.2087
▁theories	-11.2088
bon	-11.2089
▁sister	-11.2089
▁writes	-11.2091
▁নো	-11.2091
▁rays	-11.2093
▁পেট	-11.2093
▁পরপরই	-11.2096
▁দিবসের	-11.2097
af	-11.2097
▁সাকিবের	-11.2099
▁মুশফিক	-11.2103
▁ওয়াল	-11.2103
▁বাংলায়	-11.2106
▁Digital	-11.2111
▁স্মার্ট	-11.2112
▁guidance	-11.2112
▁incidence	-11.2112
▁influenza	-11.2112
▁vaccination	-11.2112
▁Clean	-11.2112
edu	-11.2113
▁মোমেন	-11.2113
▁মাসুম	-11.2116
fo	-11.2117
▁cough	-11.2119
▁NEWS	-11.2119
▁transform	-11.2122
cin	-11.2123
ইয়ে	-11.2128
NA	-11.2128
▁কারখানায়	-11.2128
▁কাঠ	-11.2132
▁threats	-11.2134
▁favor	-11.2134
But	-11.2136
▁হরি	-11.2136
SU	-11.2137
▁twenty	-11.2138
▁পরমাণু	-11.2138
▁ব্যাক্তি	-11.2138
▁উল্লেখযোগ্য	-11.2139
▁দেশজুড়ে	-11.2141
▁scores	-11.2141
▁পত্রিকার	-11.2141
ural	-11.2142
▁Road	-11.2142
vit	-11.2144
product	-11.2144
▁Limited	-11.2145
kar	-11.2146
▁Month	-11.2148
▁চালাতে	-11.215
▁magnitude	-11.2152
▁আসল	-11.2152
▁ka	-11.2155
wan	-11.2156
▁সমর্থক	-11.2156
▁usual	-11.2159
ost	-11.2159
including	-11.2161
ult	-11.2162
▁Soviet	-11.2163
▁সংক্রমিত	-11.2163
▁welcome	-11.2163
▁broadcast	-11.2163
▁মাহমুদউল্লাহ	-11.2164
▁অভিনীত	-11.2164
৬৫	-11.2167
▁আসাদ	-11.2169
▁বেন	-11.2169
▁proven	-11.217
▁খালেদ	-11.2176
▁craft	-11.2177
▁semi	-11.2177
▁nest	-11.218
▁Nu	-11.2182
▁পালা	-11.2183
acy	-11.2183
oli	-11.2184
UN	-11.2185
BA	-11.2186
▁crime	-11.2188
▁intervention	-11.2189
▁destruction	-11.2189
▁heritage	-11.2189
▁industries	-11.2189
▁খাত	-11.2189
▁এরা	-11.219
▁Pur	-11.219
▁elementary	-11.2191
▁Queen	-11.2191
▁healthcare	-11.2191
▁মিত্র	-11.2191
▁ডু	-11.2197
ুম	-11.2199
▁৪০০	-11.2202
▁maybe	-11.2204
▁occurring	-11.2207
▁চলচ্চিত্রে	-11.2209
▁module	-11.2214
▁স্মিথ	-11.2214
▁কনস্টেবল	-11.2214
▁সত্ত্বেও	-11.2214
▁transplant	-11.2215
ena	-11.2215
▁মনোনয়নপত্র	-11.2215
▁mar	-11.2216
▁জনপ্রতিনিধি	-11.2216
▁photograph	-11.2218
Di	-11.2218
lim	-11.2218
▁ছেলেকে	-11.2218
▁চিফ	-11.2219
ভাগ	-11.222
▁সেসব	-11.2221
পক্ষের	-11.2222
▁টুইটার	-11.2222
▁versions	-11.2224
▁forget	-11.2224
▁নাটোর	-11.2226
▁Java	-11.2226
▁street	-11.2227
wide	-11.2228
Without	-11.2228
▁mention	-11.2228
▁ছিনতাই	-11.2229
▁IP	-11.2229
ান্ত	-11.2229
▁recommends	-11.223
নির্	-11.223
▁হত	-11.2232
borne	-11.2234
▁Jul	-11.2234
▁Parents	-11.2237
▁scan	-11.2239
▁হানা	-11.2239
▁puzzle	-11.224
▁ছিটকে	-11.224
পন্থী	-11.224
▁Vitamin	-11.224
▁অনুষদ	-11.224
▁নীতিমালা	-11.224
▁Iowa	-11.2241
▁দেখলে	-11.2241
rat	-11.2241
২০১৮	-11.2243
rick	-11.2244
▁chicken	-11.2244
▁repeat	-11.225
▁affecting	-11.225
▁লোকসভা	-11.2253
▁calling	-11.2254
▁divide	-11.2255
▁চিৎকার	-11.2257
▁ফোনটি	-11.2257
▁খুনের	-11.2258
pped	-11.2259
▁নোয়াখালীর	-11.2259
▁grades	-11.226
sti	-11.2262
VI	-11.2262
ami	-11.2263
▁Physics	-11.2266
▁illegal	-11.2266
▁false	-11.2266
▁radical	-11.2266
▁পাঞ্জাব	-11.2266
▁মার্ক	-11.2266
▁বিলিয়ন	-11.2266
▁Text	-11.2267
বাল	-11.2271
▁হবার	-11.2271
▁ফেসবুকের	-11.2271
▁সংবাদপত্র	-11.2271
▁সেবন	-11.2272
▁Table	-11.2272
▁directions	-11.2274
▁Access	-11.2275
▁Clinical	-11.2276
▁Books	-11.2276
▁concluded	-11.2277
▁ends	-11.2279
▁Color	-11.2279
▁যুদ্ধে	-11.2279
ইড	-11.2282
▁চমক	-11.2283
▁parties	-11.2285
▁stated	-11.2286
▁careful	-11.2289
▁পেঁয়াজের	-11.229
▁hybrid	-11.2292
▁অষ্টম	-11.2292
▁গণতান্ত্রিক	-11.2292
▁acute	-11.2292
▁flavor	-11.2292
▁Battle	-11.2292
▁হাইওয়ে	-11.2292
▁৮৫	-11.2293
▁prime	-11.2298
▁Cur	-11.2299
▁asking	-11.23
CP	-11.23
জয়	-11.23
▁চেয়েছেন	-11.2301
▁এমএ	-11.2311
জীবন	-11.2311
▁serves	-11.2312
itz	-11.2312
▁settings	-11.2318
▁maintenance	-11.2318
▁ট্রলার	-11.2318
▁scheme	-11.2318
▁অতিক্রম	-11.2318
▁সুশান্ত	-11.2318
▁clay	-11.2318
▁ভয়ে	-11.2319
▁গাড়িটি	-11.2323
▁Non	-11.2324
▁সৌ	-11.2326
▁৭টা	-11.2326
য়াজ	-11.2328
sym	-11.2328
▁dealing	-11.233
▁সমন্বয়ে	-11.2331
▁concentrations	-11.2331
▁aimed	-11.2339
▁passing	-11.234
▁মার্	-11.234
▁Lee	-11.2342
▁mirror	-11.2344
▁ইন্তেকাল	-11.2344
▁rash	-11.2344
▁specified	-11.2346
▁কারিগরি	-11.2349
▁dietary	-11.2349
▁Sand	-11.235
ইস	-11.2352
aging	-11.2353
▁ধরার	-11.2356
▁grant	-11.2357
▁ম্যান	-11.2357
▁৬টি	-11.236
zy	-11.236
that	-11.2365
▁stations	-11.2369
▁রাকিব	-11.2369
≣	-11.237
▁Arizona	-11.237
▁জবানবন্দি	-11.237
▁ধানমন্ডি	-11.237
▁হেলথ	-11.237
▁Islands	-11.237
▁দফতর	-11.237
▁Kingdom	-11.237
▁দেওয়ান	-11.2373
india	-11.2376
সময়	-11.2378
ধারা	-11.2379
▁attract	-11.2383
▁ভর	-11.2387
▁নয়ন	-11.2387
▁bag	-11.2389
▁ল্যাবে	-11.2391
▁ingredients	-11.2391
ক্সি	-11.2391
▁যন্ত্র	-11.2392
▁annually	-11.2392
▁উৎসাহ	-11.2394
▁বৈঠকের	-11.2395
▁wheat	-11.2396
▁row	-11.2396
je	-11.2397
▁Risk	-11.24
▁Tr	-11.2401
গুলিতে	-11.2401
▁নাইট	-11.2405
▁bacterial	-11.2407
▁পোস্টে	-11.241
▁promise	-11.241
▁হাসানের	-11.2411
গর	-11.2411
ীত	-11.2411
▁পরিবেশে	-11.2412
tting	-11.2413
▁ওসমান	-11.2413
গড়	-11.2415
▁Tom	-11.2416
being	-11.2417
▁মনো	-11.2417
▁ইউরো	-11.2417
▁aging	-11.2419
▁Micro	-11.2421
▁হোয়াইট	-11.2422
▁exploit	-11.2422
▁fraction	-11.2422
▁removal	-11.2422
▁টার্গেট	-11.2422
tch	-11.2422
▁অর্ধেক	-11.2423
▁সম্প্রসারণ	-11.2423
▁anywhere	-11.2424
BC	-11.2425
▁সৌম্য	-11.2427
▁maintaining	-11.2427
▁সংসদীয়	-11.2429
▁lowest	-11.2431
▁এতদিন	-11.2431
▁falling	-11.2432
▁lakes	-11.2434
▁NA	-11.2436
▁attend	-11.2436
▁operate	-11.244
GE	-11.2441
▁variables	-11.2441
▁নজরে	-11.2442
▁তদন্তকারী	-11.2442
▁অধিদফতর	-11.2442
▁Real	-11.2443
dict	-11.2443
▁মেহ	-11.2444
▁আত	-11.2445
▁Revolution	-11.2448
▁atmospheric	-11.2448
▁prescription	-11.2448
▁surgical	-11.2448
▁পূর্ণাঙ্গ	-11.2448
UR	-11.2449
▁hip	-11.2451
▁পিতার	-11.2451
CI	-11.2451
▁chart	-11.2452
▁exc	-11.2453
▁শিক্ষার	-11.2455
▁editor	-11.2456
▁forming	-11.2456
▁ভর্তির	-11.2458
▁পাঠক	-11.246
live	-11.2461
een	-11.2462
▁প্রচেষ্টা	-11.2465
মাই	-11.2465
▁জগতে	-11.2465
▁লকডাউনে	-11.2469
▁বয়সের	-11.247
▁ব্যবসায়	-11.2471
▁Brazil	-11.2472
acre	-11.2473
▁collision	-11.2474
▁প্রাণঘাতী	-11.2474
▁সর্বনিম্ন	-11.2474
▁pioneer	-11.2474
▁intestine	-11.2475
▁পড়ুয়া	-11.2475
▁৩টা	-11.2477
Co	-11.2477
স্ত্রী	-11.2478
▁coverage	-11.2478
▁isolated	-11.2478
হো	-11.2479
▁Teachers	-11.248
▁assistant	-11.248
▁গৃহবধূ	-11.2481
▁boy	-11.2481
▁Hi	-11.2482
▁spin	-11.2484
ীম	-11.2486
organ	-11.249
▁ক্যাম্পাস	-11.2493
▁হোসেনকে	-11.2494
পরি	-11.2494
▁বলিউডে	-11.2499
জল	-11.2499
▁বদলি	-11.2501
▁defense	-11.2501
▁dementia	-11.2501
▁expansion	-11.2501
▁বিশ্লেষণ	-11.2501
▁pulse	-11.2501
▁Consider	-11.2501
▁ষষ্ঠ	-11.2501
▁Clark	-11.2501
▁ST	-11.2501
▁ক্লাবে	-11.2503
▁gradually	-11.2504
mil	-11.2505
tha	-11.2505
▁Lesson	-11.2507
বেলা	-11.2508
temp	-11.2509
▁কেক	-11.2509
▁দেখেছেন	-11.251
▁particle	-11.2512
▁painful	-11.2513
্রি	-11.2516
▁conclude	-11.2516
▁১৫০	-11.2517
▁pesticides	-11.2518
▁বাড়ী	-11.2519
▁সম্মেলনের	-11.2521
▁flows	-11.2522
▁রব	-11.2522
▁ফেরেন	-11.2522
▁printing	-11.2525
▁ত্বক	-11.2526
▁Ty	-11.2526
▁challenging	-11.2527
▁powder	-11.2527
▁কন্ট্রোল	-11.2527
▁গান্ধী	-11.2527
▁চেন্নাই	-11.2527
▁প্রতিবছর	-11.2531
▁Cook	-11.2532
▁পাকিস্তানে	-11.2533
▁সায়	-11.2533
▁specialist	-11.2538
▁deer	-11.2539
▁districts	-11.2543
date	-11.2545
▁agreed	-11.2545
▁মনের	-11.2547
▁দুবাই	-11.2548
▁৬৭	-11.2551
দর	-11.2551
▁৭৬	-11.2551
▁কাটার	-11.2553
▁জার্নাল	-11.2554
▁Minnesota	-11.2554
▁algae	-11.2554
▁criteria	-11.2554
▁significance	-11.2554
▁সম্মিলিত	-11.2554
▁তালিকাভুক্ত	-11.2555
green	-11.2557
▁পেরিয়ে	-11.2557
▁ইসলামকে	-11.2557
প্রধান	-11.2558
▁Standard	-11.2559
▁ছিলাম	-11.2559
▁Working	-11.256
▁lifetime	-11.2561
▁Ste	-11.2562
▁সংশোধন	-11.2563
▁grand	-11.2563
▁Fu	-11.2565
LD	-11.2566
▁hu	-11.2566
lau	-11.2566
than	-11.2568
▁random	-11.2571
▁দূতাবাস	-11.2575
FL	-11.2576
▁মিয়ানমারে	-11.2578
▁মেঘনা	-11.2578
▁vegetation	-11.258
▁চামচ	-11.258
▁পরীমনি	-11.258
▁হস্তক্ষেপ	-11.258
▁নজরদারি	-11.2581
▁কর্নেল	-11.2581
▁লাখের	-11.2582
When	-11.2585
▁vessel	-11.2585
▁fertilizer	-11.2587
▁মাই	-11.2589
▁seal	-11.2589
eck	-11.259
▁শহিদ	-11.2593
EX	-11.2595
rian	-11.2595
▁EU	-11.2596
▁বাঁশ	-11.2596
▁employees	-11.2597
▁Week	-11.2603
▁কার্যক্রমের	-11.2603
▁যশোরের	-11.2603
▁অস্থায়ী	-11.2605
▁এডভোকেট	-11.2607
▁মঈন	-11.2607
▁গণপরিবহন	-11.2607
▁ইউরোপীয়	-11.2608
card	-11.2608
▁shorter	-11.2609
▁Fri	-11.261
▁অস	-11.261
▁নাটকটি	-11.2611
▁interior	-11.2612
▁poem	-11.2612
▁বাগ	-11.2613
▁প্রমাণিত	-11.2613
▁নাম্বার	-11.2613
▁সৈয়দপুর	-11.2614
▁bath	-11.2617
▁সন্	-11.2618
▁fixed	-11.2621
▁sensors	-11.2621
▁adaptation	-11.2625
▁scar	-11.2625
নামা	-11.2626
▁decreased	-11.2626
▁রঙ	-11.2631
▁ফেলেছে	-11.2633
▁Support	-11.2634
▁criminal	-11.2634
▁prominent	-11.2634
▁আব্বাস	-11.2634
▁আরাফাত	-11.2634
লিং	-11.2635
▁খামার	-11.2637
▁cleaning	-11.2637
▁নিয়োগের	-11.2639
▁মহাসড়ক	-11.2643
▁প্রশাসকের	-11.2645
▁victims	-11.265
page	-11.2652
▁কুকুর	-11.2654
গুন	-11.2658
ert	-11.2658
get	-11.2658
ux	-11.2659
▁শিক্ষকের	-11.266
▁৬৬	-11.266
▁galaxies	-11.2661
▁টুয়েন্টিফোর	-11.2661
▁ঐতিহ্যবাহী	-11.2661
▁চেতনা	-11.2661
▁USDA	-11.2661
La	-11.2663
▁নেপাল	-11.2664
▁ওঠার	-11.2664
▁Ban	-11.2665
▁PhD	-11.2666
mission	-11.2667
▁দপ্তরের	-11.2667
ony	-11.2669
▁ভিত্তিক	-11.267
▁ফ্যা	-11.2671
▁Cu	-11.2672
▁চিকিৎসকদের	-11.2672
take	-11.2674
▁গ্রে	-11.2676
▁cable	-11.2677
hem	-11.2682
▁মাদ্রিদ	-11.2683
▁রুল	-11.2683
রকম	-11.2685
▁এনজিও	-11.2688
▁সিকদার	-11.2688
▁Frank	-11.2688
▁committed	-11.2688
▁losing	-11.2688
col	-11.269
▁brother	-11.2694
জাতীয়	-11.2694
ম্যা	-11.2695
▁comprise	-11.2695
ym	-11.2699
▁রফিক	-11.2699
ale	-11.27
▁যোগ্য	-11.2701
▁দেওয়ায়	-11.2704
▁consideration	-11.2704
▁ভেসে	-11.2708
▁কফি	-11.2708
▁react	-11.2709
▁জয়া	-11.2709
▁দেশটি	-11.271
▁কর্পোরেশন	-11.271
বাসীর	-11.2711
▁Census	-11.2714
▁জ্যেষ্ঠ	-11.2714
▁শরণার্থী	-11.2714
▁অপসারণ	-11.2714
▁beauty	-11.2715
▁শাহাদাত	-11.2715
▁ট্যাবলেট	-11.2715
▁ইলিয়াস	-11.2715
▁অ্যাওয়ার্ড	-11.2715
▁ভাস্কর্য	-11.2715
▁copper	-11.2715
▁latter	-11.2715
▁তাড়া	-11.2719
▁Materials	-11.2719
▁Follow	-11.2721
▁characteristic	-11.2722
▁টেনে	-11.2722
▁habit	-11.2723
▁websites	-11.2723
▁killing	-11.2726
এনএ	-11.2728
berry	-11.2732
▁fed	-11.2734
▁Set	-11.274
▁কুরআন	-11.2742
▁নবজাতক	-11.2742
তিন	-11.2742
▁ধাওয়া	-11.2747
▁fascinating	-11.2749
▁interpretation	-11.275
▁optical	-11.2753
ন্দি	-11.2754
▁Kar	-11.2754
▁অর্ডার	-11.2755
atur	-11.2756
▁col	-11.2757
▁saving	-11.2758
▁পারছে	-11.276
▁phones	-11.2763
▁Para	-11.2764
▁allergic	-11.2769
▁batteries	-11.2769
▁এজাহার	-11.2769
▁সঞ্জয়	-11.2769
▁odd	-11.277
▁extract	-11.277
▁সাজে	-11.277
▁Weather	-11.2771
▁FDA	-11.2771
aka	-11.2772
▁বসানো	-11.2773
▁লিওনে	-11.2775
চট্টগ্রাম	-11.2775
▁শের	-11.2775
▁করানো	-11.2776
▁errors	-11.2776
▁continent	-11.2777
▁বাড়া	-11.2777
▁ফেলতে	-11.2781
▁interpret	-11.2784
cker	-11.2784
▁retain	-11.2785
▁ফেরা	-11.2785
▁উপকরণ	-11.2786
পাতা	-11.2789
উস	-11.2791
via	-11.2791
▁ac	-11.2792
বেদ	-11.2793
▁bees	-11.2793
▁আকর্ষণ	-11.2795
ano	-11.2795
▁politics	-11.2796
▁Andrew	-11.2796
▁chamber	-11.2796
▁আহ	-11.2796
▁Secretary	-11.2796
▁breaking	-11.2796
চালক	-11.2798
▁জানে	-11.2798
▁pitch	-11.2802
▁bite	-11.2803
▁Brain	-11.2805
▁chances	-11.2805
▁ঘা	-11.2807
▁শরিফ	-11.2809
▁Description	-11.2809
▁consumed	-11.281
ddle	-11.2813
▁driver	-11.2814
▁৬টা	-11.2816
▁towns	-11.2816
▁জানাচ্ছি	-11.2816
▁valid	-11.2818
▁শীতের	-11.2818
ved	-11.2822
▁proposal	-11.2823
▁Electronic	-11.2823
▁আবেগ	-11.2823
▁rainfall	-11.2823
▁shallow	-11.2824
▁hurt	-11.2824
▁paintings	-11.2824
SM	-11.2825
▁উত্তরে	-11.2826
▁গানে	-11.2827
▁pairs	-11.2828
▁overview	-11.2829
▁processed	-11.283
▁বড়ুয়া	-11.283
ras	-11.283
▁assigned	-11.283
▁আন্তরিক	-11.283
▁Based	-11.2832
▁খোলার	-11.2833
▁prompt	-11.2834
hor	-11.2834
▁owner	-11.2835
▁ছুটির	-11.2836
▁দেশগুলোর	-11.2838
▁ঘো	-11.284
▁cave	-11.284
▁কেনা	-11.2843
▁বগুড়ায়	-11.2845
মেন	-11.2846
▁ব্র্যান্ড	-11.2846
▁displayed	-11.2848
▁bloom	-11.285
▁শোভাযাত্রা	-11.285
▁৬১	-11.2851
কায়	-11.2851
▁Need	-11.2851
▁Edition	-11.2852
table	-11.2853
রামপুর	-11.2853
▁hatch	-11.2854
▁০০	-11.2855
▁খেলেছেন	-11.2856
Ro	-11.2859
bert	-11.2862
▁হাউস	-11.2863
▁ইতালি	-11.2863
▁streams	-11.2863
▁দোকানের	-11.2864
hour	-11.2864
▁sole	-11.2867
▁DC	-11.2867
▁সুস্থতা	-11.2867
▁শিরোনামে	-11.2868
▁ইন্ডিজ	-11.2874
▁Farm	-11.2876
▁Arch	-11.2877
▁astronomers	-11.2877
▁emphasis	-11.2878
▁galaxy	-11.2878
▁প্রতিনিয়ত	-11.2878
▁neither	-11.2878
▁reduces	-11.288
▁declared	-11.2882
▁theme	-11.2882
▁ঘুষ	-11.2885
টিয়া	-11.2886
▁ছোট্ট	-11.2886
পাড়ায়	-11.2888
▁দায়রা	-11.289
▁গোষ্ঠী	-11.289
▁analyzed	-11.2891
জিয়া	-11.2896
▁অংশে	-11.2896
▁Jr	-11.2898
বস	-11.2899
bot	-11.2899
▁পায়নি	-11.29
▁Code	-11.2902
▁correctly	-11.2903
ü	-11.2905
▁diarrhea	-11.2905
▁hepatitis	-11.2905
▁monument	-11.2905
▁উল্টো	-11.2905
▁ফয়সাল	-11.2905
▁সাম্প্রদায়িক	-11.2905
▁Volume	-11.2905
▁শাহরিয়ার	-11.2905
▁মাইক্রোবাস	-11.2906
▁প্রাণহানি	-11.2906
▁revolution	-11.2906
▁Questions	-11.2907
▁বোধ	-11.2907
▁characterized	-11.291
▁epi	-11.2911
cycl	-11.2911
▁নাগরিকত্ব	-11.2911
▁শ্রমিকের	-11.2912
▁Yu	-11.2912
▁বাণী	-11.2914
▁alive	-11.2915
▁কুল	-11.2915
▁employed	-11.2919
▁Sir	-11.2919
▁৬৩	-11.2919
cell	-11.292
▁ফ্ল	-11.2921
▁disrupt	-11.2921
▁displays	-11.2924
▁ছয়জন	-11.2927
▁আলোর	-11.2929
ানী	-11.2929
▁fur	-11.293
▁Cap	-11.2932
▁Empire	-11.2933
▁continuing	-11.2933
▁malaria	-11.2933
▁গোসল	-11.2933
▁discharge	-11.2933
pdf	-11.2933
▁সমবায়	-11.2933
ট্রি	-11.2933
▁philosophy	-11.2934
▁ফটো	-11.2934
▁সেখানকার	-11.2937
__	-11.2938
▁চিঠিতে	-11.2939
▁adopt	-11.294
▁stronger	-11.2941
▁encounter	-11.2944
▁gathered	-11.2948
▁কার্যকরী	-11.2948
▁সত্যিই	-11.2952
▁অভিনয়ের	-11.2954
▁brush	-11.2955
far	-11.2956
▁intellectual	-11.296
▁psychological	-11.296
▁seasonal	-11.2961
▁info	-11.2961
▁stopped	-11.2962
▁Somoy	-11.2962
▁dozen	-11.2963
▁functional	-11.2965
wel	-11.2966
▁faces	-11.2966
ars	-11.2968
Be	-11.2974
▁Related	-11.2975
বর্ষ	-11.2975
OW	-11.2975
তলী	-11.2975
ডু	-11.2976
▁employment	-11.2978
ারে	-11.2981
▁এতো	-11.2981
▁Tips	-11.2984
▁Tur	-11.2984
▁buried	-11.2988
▁পঞ্চায়েত	-11.2988
▁সার্কেল	-11.2988
▁cream	-11.2989
▁tough	-11.299
ঙ্কা	-11.2991
▁trap	-11.2991
▁সন্দেহে	-11.2991
▁Ki	-11.2994
▁মিডিয়ার	-11.2994
▁বৃত্তি	-11.2995
▁এশিয়ান	-11.2996
▁installation	-11.2997
▁suffered	-11.2997
▁melt	-11.2998
▁হয়েছি	-11.2998
atter	-11.2999
▁নাটকে	-11.3
▁Wal	-11.3
ility	-11.3001
▁আলোকে	-11.3004
▁চকরিয়া	-11.3006
▁confidence	-11.3007
▁facilitate	-11.3008
▁তলা	-11.3008
cri	-11.3013
▁আমলে	-11.3013
স্থান	-11.3013
▁implemented	-11.3013
▁পছন্দের	-11.3013
MC	-11.3014
▁প্রার্থীরা	-11.3016
▁executive	-11.3016
▁remarkable	-11.3016
▁Daniel	-11.3016
▁ড্রোন	-11.3016
▁mature	-11.3017
▁leak	-11.3017
▁ভূমিকম্প	-11.3019
▁আকাশে	-11.3019
▁poet	-11.302
▁পেটে	-11.302
body	-11.3023
▁sin	-11.3024
igh	-11.3025
▁টান	-11.3027
▁প্রতিদিনের	-11.3027
▁arise	-11.3027
▁বিরতি	-11.3028
▁Publication	-11.3029
▁taxes	-11.303
▁Qua	-11.3032
▁চাকরির	-11.3033
▁texts	-11.3035
▁remind	-11.3035
▁Diet	-11.3037
▁অনিয়ম	-11.3039
▁Play	-11.3042
এমপি	-11.3044
▁Modern	-11.3044
▁প্রভাবশালী	-11.3044
▁obese	-11.3044
▁নাজিম	-11.3045
▁Boy	-11.3047
▁trace	-11.3047
▁funds	-11.3048
▁বর্ষা	-11.3049
ছবি	-11.3049
▁বিরল	-11.305
IM	-11.305
▁shaped	-11.3051
▁১৪২৭	-11.3051
▁pipe	-11.3053
▁Sign	-11.3053
ানু	-11.3053
eh	-11.3056
▁pin	-11.3058
▁circumstances	-11.306
▁মাকে	-11.3061
▁স্পেন	-11.3065
virus	-11.3066
▁সাহায্যে	-11.3067
▁ভিউ	-11.3069
▁কামরুজ্জামান	-11.3072
▁viral	-11.3072
▁brand	-11.3072
▁মনিরুজ্জামান	-11.3073
▁উইন্ডোজ	-11.3073
▁mold	-11.3075
সুর	-11.3076
▁Eye	-11.3076
▁কাশি	-11.3076
▁Fo	-11.3076
▁জনপ্রশাসন	-11.3076
▁ব্যান্ড	-11.308
▁victim	-11.3083
▁essay	-11.3083
▁finish	-11.3084
▁বেড়াতে	-11.3084
▁জিজ্ঞাসাবাদের	-11.3086
lig	-11.3087
▁শুনতে	-11.3088
▁pure	-11.3089
▁জিন	-11.3093
▁পুকুরে	-11.3098
▁হোয়াটসঅ্যাপ	-11.31
▁lunch	-11.31
▁রফতানি	-11.31
▁দিবসটি	-11.3101
▁Wales	-11.3105
▁reveals	-11.3107
▁লেগেছে	-11.3107
RT	-11.3109
PI	-11.3109
পুরুষ	-11.3111
▁disappear	-11.3111
▁gained	-11.3111
টেল	-11.3112
▁খুলনার	-11.3113
▁shore	-11.3114
▁দেহে	-11.3115
▁Resource	-11.3117
▁NY	-11.3117
▁IUCN	-11.3117
▁registered	-11.3118
▁stores	-11.3119
▁রাই	-11.312
▁৬২	-11.3121
cra	-11.3123
▁ছাই	-11.3124
▁valley	-11.3128
▁কার্তিক	-11.3128
▁ইঞ্জিনিয়ার	-11.3128
▁কবরস্থানে	-11.3129
▁Often	-11.3129
▁মানা	-11.3132
dri	-11.3133
▁campus	-11.3133
▁variations	-11.3137
DI	-11.314
▁phrase	-11.314
▁workshop	-11.3141
ালি	-11.3141
▁আড়	-11.3141
খি	-11.3145
▁ল্যাব	-11.315
▁ears	-11.3153
HS	-11.3155
▁আহমেদের	-11.3155
▁সীমা	-11.3155
▁experimental	-11.3155
▁kid	-11.3156
▁স্নাতক	-11.3156
▁Elizabeth	-11.3156
▁default	-11.3156
▁প্রাদুর্ভাব	-11.3156
▁লঙ্ঘন	-11.3156
▁contributions	-11.3156
▁flexible	-11.3156
▁কাগজপত্র	-11.3156
▁Auto	-11.3156
▁আটককৃত	-11.3157
▁কনফারেন্স	-11.3158
▁adapted	-11.3159
যোগে	-11.3162
ads	-11.3162
▁আসামিকে	-11.3163
তাম	-11.3163
▁farms	-11.3163
▁স্যা	-11.3163
ক্ক	-11.3167
▁tower	-11.3167
▁অধিকারী	-11.3167
▁Wind	-11.3168
▁Scientific	-11.317
▁শরিফুল	-11.3171
▁Introduction	-11.3172
াংশ	-11.3173
kh	-11.3173
▁ph	-11.3175
Al	-11.3177
▁মহল	-11.3177
▁প্রাঙ্গণে	-11.3179
lex	-11.318
▁Ce	-11.318
▁রুমে	-11.3183
▁ইঞ্চি	-11.3184
▁Cambridge	-11.3184
▁Muslim	-11.3184
▁টঙ্গী	-11.3184
▁ইতিহাসের	-11.3186
▁হুঁশিয়ারি	-11.3186
▁laid	-11.3191
▁পেশায়	-11.3192
stra	-11.3193
rag	-11.3193
▁~	-11.3195
▁union	-11.3195
ন্টি	-11.3195
ters	-11.3197
▁ব্যক্তিত্ব	-11.3198
▁basin	-11.3199
▁Ham	-11.3199
▁hunting	-11.3202
▁মোকাবিলা	-11.3203
bre	-11.3204
▁রাখ	-11.3204
▁neurons	-11.3207
lt	-11.3208
ن	-11.3208
▁ব্লগ	-11.3209
▁Scott	-11.3212
▁exhaust	-11.3213
▁allergy	-11.3213
▁silicon	-11.3213
▁সাউথ	-11.3213
▁হ্রাস	-11.3213
▁elsewhere	-11.3213
▁মোবাইলে	-11.3213
▁রকেট	-11.3213
▁জলিল	-11.3214
▁spill	-11.3214
rack	-11.3216
এসসি	-11.3217
▁মালা	-11.3219
▁স্যার	-11.3223
▁gardens	-11.3224
OT	-11.3226
▁পাননি	-11.3227
▁গেমস	-11.3229
▁styles	-11.3229
▁পরেও	-11.3232
▁vitamins	-11.3232
▁পোস্টার	-11.3235
▁profit	-11.3241
newsbd	-11.3241
▁সাক্ষাত	-11.3241
▁appreciate	-11.3241
▁hidden	-11.3241
▁veterinarian	-11.3241
▁insurance	-11.3241
▁literary	-11.3241
▁snack	-11.3241
▁ম্যানেজমেন্ট	-11.3241
▁থানাধীন	-11.3241
▁dental	-11.3241
▁fin	-11.3241
▁শাসক	-11.3242
▁আগষ্ট	-11.3242
▁অনশন	-11.3242
▁কান্না	-11.3242
ট্ট	-11.3243
omic	-11.3244
pin	-11.3245
▁আকতার	-11.3245
▁জানাই	-11.3252
কণ্ঠ	-11.3255
TV	-11.3256
▁recall	-11.3257
ডেন্ট	-11.3258
▁mining	-11.3258
▁Tel	-11.3258
▁apparent	-11.3261
itt	-11.3264
নাম	-11.3265
ero	-11.3265
সিস	-11.3267
▁রাজনীতিতে	-11.3268
▁প্যারিস	-11.3269
▁সূচনা	-11.3269
▁Diego	-11.327
▁automatically	-11.327
▁Short	-11.327
▁athletes	-11.327
▁bottle	-11.3273
▁উন্মোচন	-11.3273
▁Super	-11.3273
▁antibodies	-11.3274
▁অভাবে	-11.3274
▁cooling	-11.3275
▁spinal	-11.3276
▁positions	-11.3276
▁বরিশালে	-11.3277
trop	-11.3279
▁whatever	-11.328
▁digit	-11.3281
inch	-11.3282
▁ভাষণ	-11.3282
পাড়	-11.3282
▁হালিম	-11.3285
ক্রা	-11.3285
▁Explore	-11.3285
িফ	-11.3287
▁emerge	-11.3288
▁রোডের	-11.3288
ii	-11.3291
ways	-11.3291
▁স্টোর	-11.3292
flow	-11.3295
▁fatal	-11.3298
▁Credit	-11.3298
▁ভ্রাম্যমান	-11.3298
▁মোজাম্মেল	-11.3298
▁আবেদীন	-11.3298
▁সেন্ট	-11.33
▁বয়স্ক	-11.33
▁উপযুক্ত	-11.33
▁প্রকৌশল	-11.3301
▁extinction	-11.3303
▁মুন্সিগঞ্জ	-11.3305
▁প্রতিপক্ষের	-11.3305
ট্রা	-11.3307
▁ফজলে	-11.3309
hon	-11.3309
▁Mountain	-11.3313
▁Prof	-11.3315
য়েন	-11.3317
▁পার্শ্ববর্ত	-11.3317
chan	-11.3317
avi	-11.3318
সান	-11.332
▁addresses	-11.3321
▁সর	-11.3322
sel	-11.3322
CR	-11.3322
▁পিরোজপুর	-11.3325
▁ওপরে	-11.3326
▁অনূর্ধ্ব	-11.3327
▁মহিউদ্দিন	-11.3327
▁চল	-11.3327
▁Mat	-11.3327
▁শামসুল	-11.3327
▁অমান্য	-11.3328
▁Senate	-11.3328
▁perception	-11.3328
োস	-11.3331
▁বলেছি	-11.3331
▁দীপু	-11.3331
▁directed	-11.3334
▁শিক্ষার্থীকে	-11.3335
▁Animal	-11.3342
ote	-11.3345
▁Best	-11.3346
lash	-11.335
ভারত	-11.3351
▁বিট	-11.3355
eri	-11.3355
▁HTML	-11.3355
▁promoting	-11.3355
▁আপলোড	-11.3355
rel	-11.3356
▁origins	-11.3357
pod	-11.3359
হিদ	-11.336
▁effectiveness	-11.3363
equ	-11.3363
▁তোমার	-11.3363
▁বঞ্চিত	-11.3364
▁Apple	-11.3366
lag	-11.3366
▁নানান	-11.3367
▁Lab	-11.3368
▁soils	-11.3368
▁ভাট	-11.337
▁regulate	-11.3373
▁surprise	-11.3373
সিলেট	-11.3373
▁Thanks	-11.3374
▁কোয়ারেন্টাইনে	-11.3376
▁cook	-11.3376
▁বৈধ	-11.3377
▁savings	-11.3378
▁acquired	-11.3378
▁File	-11.3378
▁ফেল	-11.3379
AA	-11.338
▁knowing	-11.3381
▁Schools	-11.3383
▁customers	-11.3384
▁Mexican	-11.3384
▁ইতিবাচক	-11.3384
▁Business	-11.3384
▁generator	-11.3384
▁chair	-11.3384
▁পুড়িয়ে	-11.3384
▁arteries	-11.3385
▁Minister	-11.3385
▁hardware	-11.3385
▁আপন	-11.3386
ark	-11.3386
▁deeper	-11.3387
▁bears	-11.3388
▁মন্দিরে	-11.3389
▁demonstration	-11.3392
▁personality	-11.3393
▁নওগাঁর	-11.3394
▁স্বর্ণের	-11.3394
space	-11.3394
▁জার্মান	-11.3395
▁su	-11.3395
▁wash	-11.3395
▁বিস্ফোরণে	-11.3399
ীরা	-11.34
fu	-11.3401
▁বস	-11.3402
▁বিবৃতি	-11.3403
▁Hav	-11.3405
▁ডলারের	-11.3405
▁Stra	-11.3406
▁প্রজন্মের	-11.3407
▁বর্ণ	-11.3407
bad	-11.3409
▁লুট	-11.341
▁দক্ষ	-11.341
▁ছাড়ার	-11.3412
▁Pra	-11.3412
▁ভাঙন	-11.3413
▁তাণ্ডব	-11.3413
▁ঘাতক	-11.3413
▁ছাত্রদল	-11.3414
▁[.]	-11.3414
▁Systems	-11.3418
▁পুরুষের	-11.3418
▁comm	-11.3418
nel	-11.3419
▁Still	-11.3419
▁exceed	-11.3421
▁পারছি	-11.3426
▁মাছের	-11.3427
▁আলিয়া	-11.3435
▁বেকার	-11.3436
▁কোর	-11.3439
▁বরণ	-11.3439
▁পুষ্টি	-11.3442
▁husband	-11.3442
▁দিলীপ	-11.3442
▁মুফতি	-11.3442
▁সোপর্দ	-11.3442
▁Should	-11.3442
▁Navy	-11.3443
▁Gas	-11.3443
late	-11.3445
াবে	-11.3447
▁Reader	-11.3449
▁টাইগারদের	-11.3449
▁Rep	-11.3451
▁injection	-11.3452
▁আটকা	-11.3454
▁ইউরোপের	-11.346
pu	-11.346
▁১১টা	-11.3462
শিপ	-11.3462
ith	-11.3465
▁proof	-11.3466
▁mosquito	-11.3466
▁objective	-11.3466
load	-11.3467
▁Provide	-11.3467
▁পৌঁছেছে	-11.3468
▁informed	-11.3469
▁ধর্মের	-11.3469
ক্ষী	-11.3471
▁রহমত	-11.3471
▁temporary	-11.3471
▁ওয়ালটন	-11.3471
▁স্প্যান	-11.3472
▁সাদেক	-11.3473
▁জয়নাল	-11.3473
▁violent	-11.3473
▁CH	-11.3475
▁ম্যাক	-11.3476
কথা	-11.3476
▁dec	-11.3478
▁considerable	-11.3479
▁মুখ্য	-11.3479
▁কথাও	-11.3481
▁player	-11.3482
▁ভূমিকায়	-11.3484
▁AD	-11.3484
▁ভঙ্গ	-11.3488
▁একেবারেই	-11.349
▁seeking	-11.349
▁রাজনীতির	-11.349
elli	-11.3496
▁তারপরও	-11.3496
▁বাসার	-11.3499
▁harder	-11.35
▁ফেলার	-11.35
▁Statistics	-11.35
▁Writing	-11.35
▁জুনিয়র	-11.35
ava	-11.35
▁সঙ্কট	-11.35
▁plug	-11.3501
মহা	-11.3501
▁সাভার	-11.3501
▁কাঁচা	-11.3501
These	-11.3502
▁সহকারি	-11.3504
▁বার্ন	-11.3504
▁shop	-11.3504
fici	-11.351
▁কন্ঠ	-11.3512
▁কোম্পানিটির	-11.3512
▁ছয়টি	-11.3512
▁install	-11.3513
▁সারি	-11.3514
▁সন্ধ্যার	-11.3514
▁Hand	-11.3515
াপ	-11.3515
ব্যবস্থা	-11.3517
▁evening	-11.3519
▁ranging	-11.352
▁নিয়েছিলেন	-11.352
▁অসুস্থতা	-11.3523
▁wheel	-11.3523
▁হলেই	-11.3526
বায়	-11.3529
▁উঠবে	-11.353
▁password	-11.353
▁আকরাম	-11.353
▁ফোরাম	-11.353
▁artery	-11.3531
▁Carl	-11.3534
▁believes	-11.3536
হেল	-11.3536
▁targets	-11.3537
কর্মীদের	-11.3537
ended	-11.3538
ভাবেই	-11.3543
▁নিবন্ধ	-11.3544
কর্মীরা	-11.3547
Po	-11.3547
▁arrive	-11.3547
ঞ্জি	-11.3549
করোনা	-11.3549
▁প্রায়ই	-11.3552
▁ব্যাংকিং	-11.3553
▁মহড়া	-11.3553
▁চিকিৎসায়	-11.3553
ভোগ	-11.3554
িয়ায়	-11.3555
▁যেকোন	-11.3557
▁independence	-11.3559
▁বাঁচতে	-11.3559
▁বেসামরিক	-11.3559
▁প্লাস্টিক	-11.3559
▁বৌদ্ধ	-11.3559
▁চলাকালীন	-11.3559
▁quiet	-11.3559
▁চাপে	-11.3559
ডিএ	-11.356
নুর	-11.3561
▁planted	-11.3561
জ্জা	-11.3562
▁develops	-11.3565
▁Gene	-11.3567
কান্ত	-11.3569
বাব	-11.357
▁begun	-11.3573
▁Mel	-11.3574
্তা	-11.3575
▁reporting	-11.3576
▁রোজা	-11.3577
▁pool	-11.3578
about	-11.358
▁rank	-11.3581
▁contributed	-11.3584
▁বসা	-11.3586
▁Whether	-11.3588
▁diagnostic	-11.3588
▁ঔষধ	-11.3588
▁টেকনোলজি	-11.3588
▁দৃঢ়	-11.3588
▁Op	-11.3588
▁মহাকাশ	-11.3588
▁নূরুল	-11.3589
▁প্রিন্স	-11.359
▁tubes	-11.359
▁সেরে	-11.3591
▁মণ্ডল	-11.3596
hin	-11.3599
▁Jim	-11.36
▁জগন্নাথপুর	-11.3602
▁প্রত্যাহারের	-11.3604
▁constantly	-11.3604
▁সংস্থাটি	-11.3608
word	-11.3608
পশ্চিম	-11.3608
▁ছিন	-11.3609
▁tab	-11.361
▁অফার	-11.361
▁Following	-11.3611
▁পারব	-11.3612
▁প্রবাসীদের	-11.3613
▁বিহার	-11.3614
▁Further	-11.3617
ö	-11.3618
▁Irish	-11.3618
▁আসুন	-11.3619
▁organize	-11.3619
▁আরবে	-11.3621
til	-11.3622
ল্ট	-11.3623
▁influenced	-11.3623
PO	-11.3625
▁opposed	-11.3627
▁Bell	-11.3628
▁স্বামীকে	-11.3628
▁নাটোরের	-11.3629
▁করত	-11.3631
▁probe	-11.3633
▁celebrated	-11.3634
সচিব	-11.3636
atic	-11.3637
▁হাইকোর্টে	-11.3637
▁লিংক	-11.3639
▁gather	-11.364
▁পরিচালনার	-11.3641
উল্লাহ	-11.3641
▁স্বপ্নের	-11.3641
▁বাবর	-11.3642
▁belt	-11.3643
প্রিয়	-11.3645
▁distinguish	-11.3647
▁মিজান	-11.3647
▁Jupiter	-11.3647
▁Security	-11.3647
▁dictionary	-11.3647
▁ডায়াবেটিস	-11.3647
▁debris	-11.3647
▁tutorial	-11.3648
▁poetry	-11.3649
▁belong	-11.3649
▁whereas	-11.3652
ব্রত	-11.3656
▁বার্সা	-11.3657
pit	-11.3657
▁indigenous	-11.3659
▁বস্তা	-11.366
েশ্বর	-11.3661
▁ধনী	-11.3663
রহ	-11.3665
▁cluster	-11.3667
দিক	-11.3672
▁hospitals	-11.3673
ড্র	-11.3673
▁যুগ	-11.3675
▁volunteers	-11.3676
▁জম্মু	-11.3677
▁প্রতিদ্বন্দ্বী	-11.3677
▁raising	-11.3677
▁copies	-11.3677
▁Val	-11.3677
পিএস	-11.3678
▁জটিলতা	-11.368
▁Class	-11.3681
▁linear	-11.3681
গ্রহ	-11.3682
IF	-11.3683
▁ওয়ার্ক	-11.3684
পেশার	-11.3685
▁hormones	-11.3687
▁অনা	-11.3688
▁controlling	-11.3688
াদি	-11.3689
▁Ser	-11.3691
▁জনতার	-11.3691
▁কমপ্লেক্সের	-11.3692
▁স্টেট	-11.3693
▁McC	-11.3693
▁incorporate	-11.3694
খো	-11.3701
▁নারীরা	-11.3702
দেশে	-11.3702
ode	-11.3704
▁আইসিসির	-11.3706
▁prostate	-11.3706
▁structural	-11.3707
▁পরোয়ানা	-11.3707
▁overcome	-11.3707
▁ব্যাংকে	-11.3711
▁বাঘ	-11.3711
কন্যা	-11.3712
▁চাকা	-11.3713
▁৭৪	-11.3714
law	-11.3715
▁২০০৯	-11.3717
▁হট	-11.3719
lement	-11.3721
▁manufacturers	-11.3721
▁exp	-11.3723
school	-11.3726
▁টুর্নামেন্টে	-11.3727
▁outbreak	-11.373
▁অগ্নিকাণ্ডের	-11.373
▁গম	-11.373
ire	-11.3735
▁arthritis	-11.3737
▁intelligence	-11.3737
▁নিয়োজিত	-11.3737
▁swimming	-11.3737
▁songs	-11.3737
▁গ্লোবাল	-11.3737
▁বিরোধিতা	-11.3737
▁Dutch	-11.3737
▁শতভাগ	-11.3737
▁অ্যাসোসিয়েশন	-11.3738
▁matters	-11.3738
▁varies	-11.3738
itive	-11.3738
▁বিধায়ক	-11.374
▁haven	-11.374
▁Basic	-11.374
fat	-11.3742
▁প্রজ্ঞাপন	-11.3742
▁অনুভূতি	-11.3743
power	-11.3744
▁Figure	-11.3744
বাবা	-11.3746
▁guard	-11.3748
▁ইমন	-11.3749
equi	-11.3752
মস	-11.3753
▁suggestions	-11.3755
▁সংকটে	-11.3755
▁precise	-11.3758
▁ran	-11.3759
হাজার	-11.3761
▁loved	-11.3761
▁Trade	-11.3763
ফর	-11.3764
▁`	-11.3765
▁আত্মহত্যার	-11.3765
▁invention	-11.3766
▁relieve	-11.3766
▁Culture	-11.3767
▁Hebrew	-11.3767
▁Perhaps	-11.3767
▁portrait	-11.3767
▁ধর্মঘট	-11.3767
▁মাঝারি	-11.3767
▁থাকুন	-11.3767
▁Voice	-11.3767
▁আইফোন	-11.3767
▁মিলবে	-11.3769
পিপি	-11.3769
▁কৃতজ্ঞতা	-11.3769
▁elderly	-11.377
▁constitute	-11.377
▁ইসি	-11.377
▁Holy	-11.3772
▁Down	-11.3774
▁আবদু	-11.3776
▁communications	-11.3776
▁infectious	-11.3779
▁Turn	-11.378
সিটি	-11.378
▁প্রান্তিক	-11.378
▁bin	-11.378
ila	-11.3781
▁বাঁচা	-11.3781
▁pointed	-11.3783
▁none	-11.3786
▁abilities	-11.3787
Sa	-11.3788
যাত্রা	-11.3789
▁দিল্লিতে	-11.3791
▁তাপস	-11.3791
unk	-11.3791
▁waiting	-11.3791
▁দুর্বল	-11.3792
▁সপ্তম	-11.3793
▁markets	-11.3793
▁gland	-11.3794
▁comfort	-11.3795
▁fatigue	-11.3797
▁সাপ্তাহিক	-11.3797
▁চট্টোপাধ্যায়	-11.3797
▁জন্মগ্রহণ	-11.3797
▁বহাল	-11.3797
▁Angeles	-11.3799
▁পাঠায়	-11.3799
▁প্রথমবার	-11.3799
▁evolutionary	-11.3799
▁mood	-11.38
▁বাসভবনে	-11.3801
বিএ	-11.3801
▁fluids	-11.3802
▁বাদশা	-11.3805
▁sw	-11.3807
▁গরুর	-11.3809
▁Share	-11.3809
▁households	-11.3811
▁জার্সি	-11.3812
▁lighting	-11.3814
▁৯৫	-11.3815
ীকে	-11.3817
met	-11.3818
▁ঢাবি	-11.3818
▁আয়োজক	-11.3818
▁রূপগঞ্জ	-11.3818
▁সকলেই	-11.3818
▁drain	-11.3819
▁প্রতিষ্ঠানটির	-11.3819
▁contaminated	-11.3821
▁ease	-11.3822
▁slaves	-11.3822
নীর	-11.3823
▁ক্যাম্পেইন	-11.3825
▁চারা	-11.3825
▁কুলাউড়া	-11.3827
▁ভাংচুর	-11.3827
▁সার্টিফিকেট	-11.3827
▁adverse	-11.3827
▁beach	-11.3827
▁পূর্ববর্তী	-11.3828
▁underground	-11.3828
▁warmer	-11.3829
▁listening	-11.3831
▁ঘাটে	-11.3833
▁সহসভাপতি	-11.3835
▁scrap	-11.3836
▁প্রবাস	-11.3841
▁preserved	-11.3845
▁Accessed	-11.3846
▁সেমিফাইনালে	-11.3853
▁সহজে	-11.3856
care	-11.3856
▁predators	-11.3856
▁chocolate	-11.3857
▁কাশেম	-11.3857
▁রিটার্ন	-11.3857
▁বিদ্রোহী	-11.3858
▁essentially	-11.3859
▁ছিনতাইকারী	-11.3859
▁lie	-11.3861
▁দিনটি	-11.3862
▁hero	-11.3863
▁op	-11.3864
ي	-11.3867
▁বাতিলের	-11.3868
্থা	-11.3868
▁sizes	-11.3869
▁Korea	-11.3872
ain	-11.3872
▁cons	-11.3875
▁চেয়ারম্যানের	-11.3877
▁disc	-11.388
নীতি	-11.388
"?	-11.3882
east	-11.3882
তন্ত্র	-11.3883
TER	-11.3883
▁হত্যাকাণ্ডের	-11.3884
▁nutrient	-11.3887
▁conversion	-11.3888
▁টাওয়ার	-11.3888
▁civilization	-11.3889
লেট	-11.3891
▁occasionally	-11.3892
▁spreading	-11.3894
▁নিয়েছি	-11.3895
▁prop	-11.3898
▁প্রকাশিতঃ	-11.3899
▁pink	-11.39
its	-11.3901
টাও	-11.3902
▁আসেনি	-11.3902
▁returns	-11.3903
▁loud	-11.3903
▁৯টায়	-11.3903
▁bound	-11.3904
ঝু	-11.3905
▁তুলেছেন	-11.3905
anda	-11.3906
▁Linux	-11.3906
ban	-11.3906
▁subsequent	-11.3909
▁যাত্রীরা	-11.391
▁traits	-11.3912
▁ঠাকুরগাঁওয়ে	-11.3913
▁expanded	-11.3914
জুর	-11.3916
এসপি	-11.3917
▁Within	-11.3918
▁অপরিবর্তিত	-11.3918
▁পুরাতন	-11.3918
▁শ্রাবন্তী	-11.3918
▁সেক্রেটারি	-11.3918
▁implant	-11.3918
▁জায়েদ	-11.3918
▁Furthermore	-11.3918
▁payment	-11.3919
▁comfortable	-11.392
▁sitting	-11.392
স্থল	-11.3921
সিসি	-11.3924
▁alter	-11.3926
▁মেধা	-11.3928
▁রাখবে	-11.393
▁minimize	-11.3931
সুম	-11.3931
run	-11.3931
▁Son	-11.3933
▁bra	-11.3936
quality	-11.3938
▁মামা	-11.3941
▁Pen	-11.3945
▁রযা	-11.3945
▁forth	-11.3946
▁rhythm	-11.3946
▁আজহার	-11.3947
▁prevalence	-11.3948
▁heavily	-11.3948
▁মল্লিক	-11.3948
▁জহিরুল	-11.395
▁দুনিয়া	-11.3951
▁entering	-11.3951
band	-11.3951
▁Barta	-11.3955
▁settled	-11.3956
shire	-11.3957
▁যশোরে	-11.3959
▁agents	-11.3964
▁engaged	-11.3965
▁cuts	-11.3971
▁বইটি	-11.3971
osa	-11.3972
▁vegetable	-11.3973
▁নিউইয়র্ক	-11.3975
ওয়াল	-11.3975
And	-11.3977
▁mail	-11.3978
▁ourselves	-11.3979
▁ঊর্ধ্বতন	-11.3979
▁দ্রব্য	-11.3979
▁compost	-11.3979
▁আছ	-11.3979
য়েজ	-11.398
▁converted	-11.398
▁classified	-11.3981
▁বাস্তবায়নের	-11.3983
▁surgeon	-11.3986
▁eruption	-11.3987
▁কাউন্সিলের	-11.3989
▁২০১০	-11.3995
▁IST	-11.3995
সেল	-11.3995
▁resistant	-11.3996
কাজ	-11.3996
▁tick	-11.3997
▁জনগণকে	-11.3997
▁insert	-11.3997
▁tap	-11.3998
▁৮৮	-11.4
▁গতিতে	-11.4001
▁continuous	-11.4001
কুর	-11.4003
▁directory	-11.4004
▁স্টেশনে	-11.4005
▁করতো	-11.4006
িনী	-11.4006
▁পৃথিবীতে	-11.4007
দ্বার	-11.4007
▁নির্দেশনায়	-11.4007
▁চিহ্ন	-11.4007
▁Develop	-11.4008
▁তাজ	-11.4008
গাছ	-11.4009
▁census	-11.4009
▁exploring	-11.4009
▁অস্ত্রোপচার	-11.4009
▁আবিষ্কার	-11.4009
▁প্রকোপ	-11.4009
▁kitchen	-11.401
▁পরাজয়	-11.4011
▁ফ্যান	-11.4011
OD	-11.4014
vir	-11.4014
▁মানিকগঞ্জ	-11.4014
▁pale	-11.4017
▁অভিযানের	-11.4017
▁আসরের	-11.4018
▁ছবিটির	-11.4018
▁End	-11.4018
ণ্য	-11.402
pet	-11.4022
▁attempts	-11.4024
▁কক্সবাজারে	-11.4028
স্তান	-11.4029
▁সার্	-11.4033
▁কেননা	-11.4035
ado	-11.4035
▁নগরের	-11.4036
▁Editor	-11.404
▁deficiency	-11.404
▁resemble	-11.404
▁distant	-11.404
▁রাফি	-11.4041
▁নথি	-11.4041
▁খালেক	-11.4041
UT	-11.4042
▁mask	-11.4043
িমা	-11.4044
▁রিয়া	-11.4048
▁সেমিনার	-11.4048
▁প্রতারণা	-11.4051
▁একাডেমির	-11.4051
▁লাগানো	-11.4053
▁passes	-11.4054
▁Leading	-11.4054
▁suspect	-11.4054
▁Jud	-11.4056
▁সঙ্গেই	-11.4059
▁reaches	-11.4059
▁বর্ণনা	-11.4061
eastern	-11.4061
▁bull	-11.4062
▁হতাশা	-11.4064
▁molecule	-11.4064
▁হত্যাকাণ্ড	-11.4065
worth	-11.4066
ace	-11.4066
▁ইতালির	-11.4066
ম্পা	-11.407
▁পেট্রোল	-11.4071
▁Creek	-11.4071
▁removing	-11.4071
▁ডেভিড	-11.4071
▁ভট্টাচার্য	-11.4071
▁মহারাষ্ট্র	-11.4071
dom	-11.4071
▁vomiting	-11.4074
▁Far	-11.4076
▁বাশার	-11.4079
পী	-11.4079
lob	-11.4079
▁ন্যা	-11.4081
▁predicted	-11.4082
▁আগাম	-11.4082
▁safely	-11.4083
gro	-11.4084
hop	-11.4084
▁suit	-11.4084
specific	-11.4085
▁fo	-11.4088
coming	-11.4088
also	-11.4089
▁Staff	-11.409
▁Sil	-11.4092
দূর	-11.4092
▁critic	-11.4092
round	-11.4093
ching	-11.4093
▁substantial	-11.4094
▁regard	-11.4097
EE	-11.4097
▁দূর্ঘটনা	-11.4099
▁Premier	-11.4102
▁ISBN	-11.4102
▁draft	-11.4102
▁ফরাসি	-11.4102
▁Answer	-11.4102
▁fix	-11.4102
▁আশুলিয়া	-11.4102
কট	-11.4102
▁কর্মকর্তাকে	-11.4103
▁বেশকিছু	-11.4103
▁কারাগার	-11.4104
▁Mer	-11.4106
▁priority	-11.4106
▁বিজ্ঞানীরা	-11.4111
▁vs	-11.4112
▁টাইগাররা	-11.4112
bdnews	-11.4113
▁saved	-11.4114
▁বন্ধুত্ব	-11.4115
▁আইসিটি	-11.4115
lev	-11.4117
▁Found	-11.4118
▁৭৭	-11.412
▁রায়ে	-11.4121
▁Eng	-11.4124
▁representing	-11.4125
▁AP	-11.4127
▁nurse	-11.4128
ette	-11.4132
▁১২টায়	-11.4132
▁অ্যাম্বুলেন্স	-11.4133
▁মোনাজাত	-11.4133
▁সাজ্জাদ	-11.4133
▁সিআইডি	-11.4134
▁আখতার	-11.4134
▁discrimination	-11.4134
▁digestive	-11.4134
pel	-11.4136
burn	-11.4137
▁Sh	-11.4137
▁sal	-11.4139
▁শিবির	-11.4139
▁ফজলুল	-11.4139
▁এএসআই	-11.414
▁statistical	-11.4142
▁স্বজনরা	-11.4143
▁বাদল	-11.4143
▁কারাদন্ড	-11.4145
lac	-11.4147
▁এড়িয়ে	-11.4148
▁score	-11.4151
▁আলাপ	-11.4151
▁৬৯	-11.4154
uni	-11.4155
▁ছক্কা	-11.4155
▁Grade	-11.4156
▁UV	-11.4156
▁প্রদেশে	-11.4157
উজ	-11.4158
▁outdoor	-11.4158
▁nutritional	-11.4161
▁ID	-11.4162
▁banks	-11.4162
▁IV	-11.4162
▁জল্পনা	-11.4164
▁Microsoft	-11.4164
▁sustainability	-11.4165
▁honey	-11.4165
▁উৎ	-11.4165
▁কমপ্লেক্স	-11.4166
rant	-11.4166
NI	-11.4166
▁hopes	-11.4168
mic	-11.4169
ালী	-11.417
▁ভালোভাবে	-11.4171
▁তেলের	-11.4172
▁wouldn	-11.4174
▁Healthy	-11.4179
▁রোধ	-11.418
মেইল	-11.4181
▁insight	-11.4182
▁Yes	-11.4184
▁নেশা	-11.4186
সঙ্গ	-11.4186
ky	-11.4187
▁Later	-11.4188
used	-11.4188
▁ইউরোপ	-11.4188
▁শুন	-11.4188
▁কিশোরীকে	-11.4191
▁সন্ত্রাসীরা	-11.4191
▁ট্রা	-11.4191
▁কৃষকরা	-11.4193
▁faced	-11.4195
▁Mediterranean	-11.4195
▁প্রণয়ন	-11.4196
▁রযালী	-11.4196
▁Scout	-11.4196
▁uniform	-11.4196
▁gear	-11.4197
▁জনসংযোগ	-11.4198
▁Dev	-11.4198
▁রেখেই	-11.4198
েবল	-11.4199
▁container	-11.42
ষে	-11.4201
PE	-11.4202
gel	-11.4202
মনি	-11.4204
▁কালীগঞ্জ	-11.4207
FO	-11.4209
▁দেয়ায়	-11.421
▁parks	-11.4212
▁Tell	-11.4213
oh	-11.4213
মতো	-11.4214
▁translate	-11.4216
বন্দী	-11.4216
▁Being	-11.4216
▁ADHD	-11.4218
▁গর্ভ	-11.4219
▁Bal	-11.4221
▁থাকছেন	-11.4221
▁সাজানো	-11.4225
▁ইঞ্জিনিয়ারিং	-11.4226
▁Jersey	-11.4227
▁anniversary	-11.4227
▁উল্টে	-11.4227
▁Trust	-11.4227
▁tongue	-11.4227
▁পথচারী	-11.4227
▁তথ্যের	-11.4227
▁macro	-11.4227
▁মেধাবী	-11.4227
▁লজ্জা	-11.4227
science	-11.4227
▁ফ্যাশন	-11.4227
▁livestock	-11.4227
মারি	-11.4228
▁নিক্ষেপ	-11.4228
▁গাজা	-11.4228
▁emotions	-11.4229
▁বিশ্বনাথ	-11.4229
বড়	-11.423
▁দখলে	-11.4231
ড়ী	-11.4231
▁বিদ্যা	-11.4232
▁blind	-11.4233
▁accident	-11.4233
াচ্ছে	-11.4233
▁এসেছিলেন	-11.4234
▁স্বা	-11.4234
cel	-11.4235
▁keeps	-11.4236
▁শ্বশুর	-11.4236
▁পদের	-11.4237
৯০	-11.4238
tail	-11.4239
▁পুজো	-11.424
▁Tro	-11.424
▁খেলোয়াড়দের	-11.4245
▁কেড়ে	-11.4247
▁কালে	-11.4248
▁pit	-11.4252
utter	-11.4252
▁relax	-11.4254
্রো	-11.4255
▁Sound	-11.4255
▁equation	-11.4256
▁বাসটি	-11.4258
▁empty	-11.4258
▁beneath	-11.4258
▁দাঁড়াতে	-11.4258
▁heal	-11.426
▁ধুয়ে	-11.426
ত্রা	-11.4262
▁prescribed	-11.4263
▁sciences	-11.4264
itch	-11.4266
ন্দ্র	-11.4266
▁৯৮	-11.4266
▁পাত্র	-11.4266
▁কর্মসূচিতে	-11.4267
▁ব্যাক	-11.4267
▁glands	-11.4268
সকে	-11.4269
বাড়িয়া	-11.4269
▁ইন্ডিয়ান	-11.427
▁পিএসজি	-11.4271
▁inch	-11.4272
▁ju	-11.4274
▁founder	-11.4276
▁ডিস	-11.4282
▁improvements	-11.4283
";	-11.4284
▁বসিয়ে	-11.4285
।[	-11.4286
▁shed	-11.4288
▁equally	-11.4288
▁fifth	-11.4289
ising	-11.4289
▁বাধ্যতামূলক	-11.429
▁Supreme	-11.429
▁availability	-11.429
▁অপারেটর	-11.429
▁ত্রুটি	-11.429
▁নেগেটিভ	-11.429
▁ল্যাপটপ	-11.429
▁শওকত	-11.429
▁বিপাকে	-11.429
▁দুর্ভোগ	-11.429
▁Title	-11.429
র্ধ	-11.4291
VA	-11.4291
▁scholars	-11.4291
▁সূত্রপাত	-11.4291
▁Making	-11.4291
▁যাচ্ছিলেন	-11.4293
▁pigment	-11.4293
▁fingers	-11.4294
▁separated	-11.4294
▁nuts	-11.4295
▁teams	-11.4296
▁sheets	-11.4298
▁Egyptian	-11.4299
▁designs	-11.43
▁কিম	-11.4303
▁তোলে	-11.4304
▁জালে	-11.4304
vil	-11.4304
▁Mountains	-11.4305
▁বদল	-11.4307
উড	-11.4307
৫টি	-11.4311
▁ভিপি	-11.4311
BI	-11.4311
এসএস	-11.4311
▁SA	-11.4311
▁addressed	-11.4312
▁cheap	-11.4314
▁Vo	-11.4314
▁মাসিক	-11.4316
tens	-11.4317
্লা	-11.4318
▁ধাপ	-11.4318
hab	-11.4319
▁রিয়াজ	-11.432
▁yard	-11.4321
ল্লি	-11.4321
▁Ontario	-11.4321
▁mercury	-11.4321
▁shadow	-11.4321
▁Lewis	-11.4321
▁উত্তরপ্রদেশ	-11.4321
▁Louisiana	-11.4322
▁প্রবণতা	-11.4322
▁devote	-11.4322
▁রীতিমতো	-11.4322
▁considering	-11.4322
▁মূল্যায়ন	-11.4323
▁দেশব্যাপী	-11.4323
▁ভোক্তা	-11.4323
▁restoration	-11.4323
rays	-11.4323
doc	-11.4324
এসডি	-11.4324
তিনি	-11.4325
▁আদা	-11.4326
▁Path	-11.4328
▁mal	-11.4328
▁কুমিল্লায়	-11.4329
▁developmental	-11.433
▁Dog	-11.4331
য়েড	-11.4331
▁সুদ	-11.4332
▁Currently	-11.4333
▁rub	-11.4334
▁ডাকা	-11.4334
ফোর	-11.4338
▁উদ্ধারের	-11.4341
ied	-11.4342
ারী	-11.4342
▁জানার	-11.4344
▁sudden	-11.4345
▁swim	-11.4346
▁heads	-11.4346
ima	-11.4347
দহ	-11.4352
dimensional	-11.4353
▁menu	-11.4353
▁susceptible	-11.4353
▁পিএনএস	-11.4353
▁Wild	-11.4353
▁দাঁত	-11.4353
▁Cho	-11.4353
▁আপত্তি	-11.4354
▁প্রদক্ষিণ	-11.4354
bidesh	-11.4354
যু	-11.4355
▁ভারতকে	-11.4356
▁ইচ্ছে	-11.4356
▁Mother	-11.4357
mph	-11.436
উই	-11.4361
▁dating	-11.4361
How	-11.4362
▁গণমাধ্যমের	-11.4364
▁friendly	-11.4365
▁objectives	-11.4366
জ্ঞা	-11.4366
▁possess	-11.4367
বিন্দু	-11.4367
▁শট	-11.4367
▁spine	-11.4368
▁Line	-11.4369
▁দেশি	-11.437
cit	-11.4374
▁জরিপ	-11.4376
▁behavioral	-11.4379
▁নদ	-11.438
▁তাৎক্ষণিক	-11.4381
▁afford	-11.4383
nne	-11.4383
▁প্রান্তে	-11.4384
▁RNA	-11.4384
▁ক্যাচ	-11.4384
▁অবতরণ	-11.4385
▁স্যামসাং	-11.4385
▁psychology	-11.4385
▁মারুফ	-11.4385
▁মনসুর	-11.4386
▁অবসান	-11.4386
ণে	-11.4386
OM	-11.4387
▁লিটার	-11.439
কর্ম	-11.439
▁দর্শন	-11.4391
▁পশ্চিমবঙ্গে	-11.4393
▁visited	-11.44
▁শক্ত	-11.4401
▁সমালোচনার	-11.4403
▁বোনের	-11.4405
you	-11.4406
▁Arm	-11.4408
▁টাঙ্গাইলে	-11.4411
▁dam	-11.4411
▁compete	-11.4412
▁TO	-11.4415
▁trauma	-11.4416
▁experiencing	-11.4417
▁globe	-11.4417
determining	-11.4417
▁animation	-11.4417
▁seemed	-11.4417
▁Future	-11.4417
▁দাঁড়াল	-11.4418
তারা	-11.4419
barta	-11.4419
▁Ana	-11.442
দাহ	-11.4423
▁licensed	-11.4425
▁থাকি	-11.4428
▁ফার	-11.4429
▁repeated	-11.4429
DD	-11.443
▁solving	-11.4431
fusion	-11.4432
▁কাজটি	-11.4432
▁commission	-11.4433
▁বারের	-11.4435
▁হর	-11.4437
vid	-11.4438
▁সাহস	-11.4438
▁fiction	-11.4438
▁weapons	-11.4439
▁grave	-11.4441
▁sentences	-11.4442
কোর	-11.4444
▁ক্রেতা	-11.4445
▁আজও	-11.4445
▁লাইট	-11.4445
▁কোপা	-11.4445
▁diets	-11.4448
▁membrane	-11.4449
▁contribution	-11.4449
▁অভিনব	-11.4449
▁racial	-11.4449
▁boundaries	-11.4449
▁অভ্যাস	-11.4449
▁আড্ডা	-11.445
Do	-11.445
▁ছড়া	-11.445
▁দেয়নি	-11.4451
▁losses	-11.4451
▁pal	-11.4453
Un	-11.4453
▁ডিসেম্বরে	-11.4456
▁ওয়াহিদ	-11.4457
rog	-11.4462
▁মামুনুল	-11.4462
TC	-11.4463
▁prayer	-11.4463
▁শ্যাম	-11.4465
▁>>	-11.4465
কাত	-11.4466
▁colored	-11.4467
▁বসু	-11.4467
▁focusing	-11.4467
▁আইসোলেশনে	-11.4468
hum	-11.4468
ফিক	-11.447
মারী	-11.4472
uction	-11.4472
▁সেশন	-11.4473
▁আসামিরা	-11.4476
cia	-11.4477
pper	-11.4477
gene	-11.4478
▁Ann	-11.448
▁shut	-11.4481
▁Observatory	-11.4481
▁hypothesis	-11.4481
▁pneumonia	-11.4481
▁তাসকিন	-11.4481
▁টেলিযোগাযোগ	-11.4481
▁crater	-11.4481
▁নাটকের	-11.4482
▁মিলাদ	-11.4482
▁BanglaNews	-11.4483
def	-11.4483
▁প্রত্যক্ষদর্শী	-11.4484
▁Ap	-11.4487
▁Blog	-11.4487
্যান্ড	-11.4487
তৎকালীন	-11.4488
লতা	-11.4488
ক্ষা	-11.4489
▁Nazi	-11.449
খানেক	-11.449
▁Cut	-11.449
▁বন্যার	-11.4491
▁physically	-11.4492
টিং	-11.4493
▁healthier	-11.4493
▁উদ	-11.4493
▁OS	-11.4494
জ্ঞ	-11.4495
▁এটিএম	-11.4495
এমসি	-11.4498
otic	-11.4499
▁কোম্পানী	-11.45
▁নেতাকে	-11.4502
sur	-11.4503
▁ভিসি	-11.4504
ম্বর	-11.4504
ather	-11.4506
ক্রান্ত	-11.4506
▁ট্রেনে	-11.4507
ান্তর	-11.4508
▁করো	-11.4508
দেশিক	-11.451
▁abundant	-11.4513
▁substitute	-11.4513
▁নিরপেক্ষ	-11.4513
▁প্রবৃদ্ধি	-11.4513
▁শ্বাসকষ্ট	-11.4513
▁বচ্চন	-11.4513
▁মাইক্রোসফট	-11.4513
▁তানভীর	-11.4513
বুর	-11.4513
▁ঈশ্বরদী	-11.4514
▁Which	-11.4514
lus	-11.4514
▁প্যাকেট	-11.4514
▁volunteer	-11.4514
▁dramatically	-11.4514
▁ধারালো	-11.4517
▁বরগুনা	-11.4518
\	-11.4518
▁Sep	-11.452
▁painted	-11.4521
▁পর্বের	-11.4523
▁fashion	-11.4523
▁আক্রান্তদের	-11.4524
▁brains	-11.4528
tag	-11.4531
▁wearing	-11.4532
▁স্বার্থ	-11.4534
▁spelling	-11.4534
▁concerning	-11.4536
rium	-11.4537
▁ইন্টার	-11.4543
▁canal	-11.4543
▁মোহন	-11.4544
lot	-11.4545
কাটা	-11.4545
▁Words	-11.4545
▁CBN	-11.4546
▁reproductive	-11.4546
▁চিত্রনায়িকা	-11.4546
▁ভবিষ্যৎ	-11.4546
▁কবলে	-11.4546
▁ব্ল্যাক	-11.4546
▁jaw	-11.4552
▁moist	-11.4552
পুকুর	-11.4552
▁productive	-11.4553
friendly	-11.4554
▁lawn	-11.4554
▁সার্চ	-11.4555
▁alarm	-11.4558
▁পুন	-11.4558
▁Regional	-11.4559
▁rear	-11.4559
▁হিট	-11.456
yard	-11.4564
▁দাবীতে	-11.4565
কৃ	-11.4565
▁Kit	-11.4566
▁ti	-11.4567
▁অভিজ্ঞ	-11.4567
▁calculate	-11.4567
win	-11.4567
▁deadly	-11.4571
▁অ্যান্টি	-11.4571
▁একাদশে	-11.4573
▁বাড়ার	-11.4574
▁Right	-11.4574
cious	-11.4574
▁update	-11.4575
▁myth	-11.4578
▁Put	-11.4578
▁universities	-11.4578
▁কঙ্গনা	-11.4578
▁রিকশা	-11.4578
▁কাঁদ	-11.4578
▁citation	-11.4578
▁গেইল	-11.4579
▁অন্ধকার	-11.4579
▁kick	-11.458
▁counties	-11.458
▁শোকের	-11.4581
▁শাওন	-11.4582
PL	-11.4583
কিন	-11.4583
▁গাই	-11.4583
বঙ্গবন্ধু	-11.4584
▁নকশা	-11.4584
▁difficulties	-11.4584
▁পেজে	-11.4585
উদ্দীন	-11.4585
▁প্রজন্ম	-11.4585
▁মন্ত্রণালয়ে	-11.4586
▁Master	-11.4587
ুড়	-11.459
▁চুলের	-11.4592
▁mat	-11.4593
ষ্টা	-11.4599
▁মায়া	-11.4599
▁গ্রিন	-11.46
▁classic	-11.4601
▁মশা	-11.4605
▁নিয়ন্ত্রক	-11.4611
▁প্রবীণ	-11.4611
▁বর্ণাঢ্য	-11.4611
▁বিশ্রাম	-11.4611
▁ইনস্টাগ্রামে	-11.4612
▁dropped	-11.4612
▁অনুষ্ঠানটি	-11.4612
▁সুপারস্টার	-11.4614
▁fu	-11.4615
টিভ	-11.4615
▁সন্তানদের	-11.4615
َّ	-11.4615
▁Ya	-11.462
▁writers	-11.4621
▁যেটা	-11.4622
▁স্টেশনের	-11.4622
প্রা	-11.4623
লান	-11.4624
▁virtually	-11.4624
▁আজিজুল	-11.4624
▁যুবদল	-11.4625
▁জন্মদিনে	-11.4626
▁SE	-11.4629
▁কোড	-11.463
▁meteor	-11.4631
▁বিপরীত	-11.4632
▁joints	-11.4633
▁bore	-11.4634
just	-11.4634
NC	-11.4634
▁কপি	-11.4637
▁নেপালের	-11.4639
▁magnet	-11.464
স্বরূপ	-11.4641
▁মানের	-11.4641
▁emerging	-11.4644
▁পিস্তল	-11.4644
▁genus	-11.4644
▁আলাউদ্দিন	-11.4644
▁foster	-11.4644
শ্রম	-11.4644
▁submit	-11.4644
▁Nation	-11.4645
▁Express	-11.4645
▁spoken	-11.4647
▁featured	-11.4647
▁thermal	-11.465
্লি	-11.465
▁কারখানার	-11.465
▁রামু	-11.4651
সন্তান	-11.4651
▁Ze	-11.4653
arm	-11.4654
▁পড়ল	-11.4654
▁গবেষকরা	-11.4654
▁আশ	-11.4655
Th	-11.4656
▁driven	-11.4656
হাম	-11.4656
▁বিরত	-11.4657
বাজারে	-11.4658
রোধ	-11.466
▁হতাহতের	-11.466
▁জটিল	-11.4662
▁margin	-11.4662
tim	-11.4662
শিক্ষা	-11.4663
ille	-11.4664
tel	-11.4666
▁Historic	-11.4671
▁architect	-11.4676
▁Educational	-11.4677
▁খালাস	-11.4677
▁Return	-11.4678
▁slavery	-11.4678
▁নেমেছে	-11.4678
▁শফিউল	-11.468
▁ডিজি	-11.468
HO	-11.468
▁৮২	-11.468
▁recycled	-11.4682
▁sensitivity	-11.4682
▁Additionally	-11.4684
▁হতাশ	-11.4684
▁Team	-11.4685
▁clo	-11.4688
▁palm	-11.4689
▁ক্ষতির	-11.4691
▁দীপ	-11.4693
▁quote	-11.4702
▁ab	-11.4702
▁গুড়	-11.4705
▁crash	-11.4705
mile	-11.4705
▁কোচিং	-11.4707
▁Looking	-11.4707
▁producers	-11.4707
▁হেফাজত	-11.4707
ত্তা	-11.4709
▁convey	-11.4709
▁ordinary	-11.4709
▁ক্ষতিগ্রস্থ	-11.4709
▁horizontal	-11.471
▁বইমেলা	-11.471
▁চেয়ার	-11.471
▁মেট্রিক	-11.4711
▁province	-11.4713
▁conclusion	-11.4713
▁channel	-11.4713
▁enzyme	-11.4713
hol	-11.4713
▁মুসলমানদের	-11.4714
connect	-11.4716
bri	-11.4719
▁সক্ষমতা	-11.4719
▁appeal	-11.4721
▁doses	-11.4722
▁bulbs	-11.4724
▁ক্ষয়ক্ষতি	-11.4724
▁ওইদিন	-11.4725
▁৩টায়	-11.4728
▁sessions	-11.4728
▁traditions	-11.4731
▁healing	-11.4732
▁ইনজুরি	-11.4733
▁চাপায়	-11.4733
▁দিচ্ছি	-11.4734
▁সাগরে	-11.4734
▁৮টায়	-11.4739
▁আইপিএলের	-11.474
সম্মত	-11.474
▁মহি	-11.4741
▁Amazon	-11.4742
▁Curiosity	-11.4742
▁abundance	-11.4742
▁simulation	-11.4742
▁স্যাটেলাইট	-11.4742
▁সেলসিয়াস	-11.4742
▁ইয়াসমিন	-11.4742
▁সাবধান	-11.4742
▁tele	-11.4743
▁জিজ্ঞাসাবাদে	-11.4746
▁ভাঙ্গা	-11.4746
▁খবরের	-11.4749
ception	-11.475
▁apparently	-11.4752
▁eaten	-11.4755
▁যুক্তি	-11.4756
▁খানকে	-11.4756
▁spell	-11.4757
▁willing	-11.4759
▁peer	-11.476
▁বাড়ে	-11.476
▁highlights	-11.4762
▁বালিকা	-11.4762
▁মৌসুমী	-11.4763
▁lecture	-11.4763
▁শিশুটিকে	-11.4766
▁গ্রন্থ	-11.4767
cover	-11.477
ষ্টি	-11.4771
▁মাহফুজ	-11.4774
▁বেলাল	-11.4775
▁methane	-11.4775
▁হান্নান	-11.4775
▁relating	-11.4775
ider	-11.4776
▁নাশকতা	-11.4776
▁pl	-11.4776
▁describing	-11.4776
▁Luther	-11.4776
▁surveys	-11.4776
▁হিরো	-11.4783
▁দুটো	-11.4784
▁জিম্বাবুয়ে	-11.4784
▁Cla	-11.4786
▁hunt	-11.4786
▁মুছে	-11.4788
▁ঢেউ	-11.4789
▁dress	-11.479
▁আইপিএলে	-11.4792
▁আদ	-11.4796
mpl	-11.4799
var	-11.48
্নি	-11.48
play	-11.48
lb	-11.48
Deshe	-11.4802
▁embryo	-11.4802
▁মন্ত্রীর	-11.4803
্যান	-11.4803
rad	-11.4804
▁sink	-11.4804
▁সমাপ্ত	-11.4807
▁২টা	-11.4807
▁অস্বাভাবিক	-11.4809
▁ঝামেলা	-11.4809
▁computing	-11.4809
▁salmon	-11.4809
▁finance	-11.4809
▁protest	-11.4809
▁আগমন	-11.4812
▁restore	-11.4812
▁একাধিকবার	-11.4814
▁এসেছিল	-11.4814
জুল	-11.4817
step	-11.4818
▁মতিন	-11.4818
বিস্তারিত	-11.4818
Bangla	-11.4818
▁হামলাকারী	-11.4818
ancy	-11.4818
▁throw	-11.4819
mber	-11.4819
▁differently	-11.4819
▁বৃদ্ধা	-11.4823
▁import	-11.4824
▁যুদ্ধের	-11.4827
োন	-11.4828
▁Pla	-11.483
স্ত্র	-11.4831
▁surprising	-11.4833
anta	-11.4835
▁বন্ধুদের	-11.4835
▁১২টি	-11.4836
▁Card	-11.4838
▁astronauts	-11.484
▁breaks	-11.484
▁CT	-11.484
▁circulation	-11.4842
▁faculty	-11.4842
▁রেজিস্ট্রার	-11.4842
▁হাওর	-11.4844
▁slave	-11.4846
▁Matt	-11.4847
vy	-11.4847
▁meter	-11.4848
▁এসপি	-11.4849
েটর	-11.4849
▁metals	-11.485
bul	-11.4852
▁সুন্দরী	-11.4853
▁আফ	-11.4853
▁একসময়	-11.4857
্রা	-11.4858
▁মৃত্যুকালে	-11.4859
stein	-11.4861
▁bush	-11.4865
৮টি	-11.4868
বিক	-11.487
[...]
