<unk>	0
<s>	0
</s>	0
<pad>	0
<|user|>	0
<|assistant|>	0
<|end|>	0
<|system|>	0
<|pad|>	0
<|sep|>	0
<|cls|>	0
<|mask|>	0
<0x00>	0
<0x01>	0
<0x02>	0
<0x03>	0
<0x04>	0
<0x05>	0
<0x06>	0
<0x07>	0
<0x08>	0
<0x09>	0
<0x0A>	0
<0x0B>	0
<0x0C>	0
<0x0D>	0
<0x0E>	0
<0x0F>	0
<0x10>	0
<0x11>	0
<0x12>	0
<0x13>	0
<0x14>	0
<0x15>	0
<0x16>	0
<0x17>	0
<0x18>	0
<0x19>	0
<0x1A>	0
<0x1B>	0
<0x1C>	0
<0x1D>	0
<0x1E>	0
<0x1F>	0
<0x20>	0
<0x21>	0
<0x22>	0
<0x23>	0
<0x24>	0
<0x25>	0
<0x26>	0
<0x27>	0
<0x28>	0
<0x29>	0
<0x2A>	0
<0x2B>	0
<0x2C>	0
<0x2D>	0
<0x2E>	0
<0x2F>	0
<0x30>	0
<0x31>	0
<0x32>	0
<0x33>	0
<0x34>	0
<0x35>	0
<0x36>	0
<0x37>	0
<0x38>	0
<0x39>	0
<0x3A>	0
<0x3B>	0
<0x3C>	0
<0x3D>	0
<0x3E>	0
<0x3F>	0
<0x40>	0
<0x41>	0
<0x42>	0
<0x43>	0
<0x44>	0
<0x45>	0
<0x46>	0
<0x47>	0
<0x48>	0
<0x49>	0
<0x4A>	0
<0x4B>	0
<0x4C>	0
<0x4D>	0
<0x4E>	0
<0x4F>	0
<0x50>	0
<0x51>	0
<0x52>	0
<0x53>	0
<0x54>	0
<0x55>	0
<0x56>	0
<0x57>	0
<0x58>	0
<0x59>	0
<0x5A>	0
<0x5B>	0
<0x5C>	0
<0x5D>	0
<0x5E>	0
<0x5F>	0
<0x60>	0
<0x61>	0
<0x62>	0
<0x63>	0
<0x64>	0
<0x65>	0
<0x66>	0
<0x67>	0
<0x68>	0
<0x69>	0
<0x6A>	0
<0x6B>	0
<0x6C>	0
<0x6D>	0
<0x6E>	0
<0x6F>	0
<0x70>	0
<0x71>	0
<0x72>	0
<0x73>	0
<0x74>	0
<0x75>	0
<0x76>	0
<0x77>	0
<0x78>	0
<0x79>	0
<0x7A>	0
<0x7B>	0
<0x7C>	0
<0x7D>	0
<0x7E>	0
<0x7F>	0
<0x80>	0
<0x81>	0
<0x82>	0
<0x83>	0
<0x84>	0
<0x85>	0
<0x86>	0
<0x87>	0
<0x88>	0
<0x89>	0
<0x8A>	0
<0x8B>	0
<0x8C>	0
<0x8D>	0
<0x8E>	0
<0x8F>	0
<0x90>	0
<0x91>	0
<0x92>	0
<0x93>	0
<0x94>	0
<0x95>	0
<0x96>	0
<0x97>	0
<0x98>	0
<0x99>	0
<0x9A>	0
<0x9B>	0
<0x9C>	0
<0x9D>	0
<0x9E>	0
<0x9F>	0
<0xA0>	0
<0xA1>	0
<0xA2>	0
<0xA3>	0
<0xA4>	0
<0xA5>	0
<0xA6>	0
<0xA7>	0
<0xA8>	0
<0xA9>	0
<0xAA>	0
<0xAB>	0
<0xAC>	0
<0xAD>	0
<0xAE>	0
<0xAF>	0
<0xB0>	0
<0xB1>	0
<0xB2>	0
<0xB3>	0
<0xB4>	0
<0xB5>	0
<0xB6>	0
<0xB7>	0
<0xB8>	0
<0xB9>	0
<0xBA>	0
<0xBB>	0
<0xBC>	0
<0xBD>	0
<0xBE>	0
<0xBF>	0
<0xC0>	0
<0xC1>	0
<0xC2>	0
<0xC3>	0
<0xC4>	0
<0xC5>	0
<0xC6>	0
<0xC7>	0
<0xC8>	0
<0xC9>	0
<0xCA>	0
<0xCB>	0
<0xCC>	0
<0xCD>	0
<0xCE>	0
<0xCF>	0
<0xD0>	0
<0xD1>	0
<0xD2>	0
<0xD3>	0
<0xD4>	0
<0xD5>	0
<0xD6>	0
<0xD7>	0
<0xD8>	0
<0xD9>	0
<0xDA>	0
<0xDB>	0
<0xDC>	0
<0xDD>	0
<0xDE>	0
<0xDF>	0
<0xE0>	0
<0xE1>	0
<0xE2>	0
<0xE3>	0
<0xE4>	0
<0xE5>	0
<0xE6>	0
<0xE7>	0
<0xE8>	0
<0xE9>	0
<0xEA>	0
<0xEB>	0
<0xEC>	0
<0xED>	0
<0xEE>	0
<0xEF>	0
<0xF0>	0
<0xF1>	0
<0xF2>	0
<0xF3>	0
<0xF4>	0
<0xF5>	0
<0xF6>	0
<0xF7>	0
<0xF8>	0
<0xF9>	0
<0xFA>	0
<0xFB>	0
<0xFC>	0
<0xFD>	0
<0xFE>	0
<0xFF>	0
,	-3.40841
.	-3.77247
▁the	-3.84817
।	-3.85981
▁	-4.22653
▁of	-4.33379
▁and	-4.4426
▁to	-4.57275
s	-4.62271
▁a	-4.78569
▁in	-4.87011
-	-4.90073
0	-5.10372
1	-5.1665
▁is	-5.28514
ের	-5.28709
:	-5.31583
র	-5.39208
2	-5.40186
▁(	-5.40367
'	-5.50201
▁that	-5.57404
▁ও	-5.60033
)	-5.60154
▁for	-5.63982
▁The	-5.76175
▁are	-5.86219
▁on	-5.95392
▁-	-5.95413
▁with	-5.96819
▁করে	-5.98552
▁as	-6.0441
▁or	-6.07375
9	-6.11869
▁be	-6.13229
ে	-6.15358
▁থেকে	-6.15593
▁এ	-6.16119
▁by	-6.16624
▁from	-6.23721
3	-6.23869
▁it	-6.23976
5	-6.2878
▁করা	-6.28839
4	-6.3081
▁হয়েছে	-6.30879
কে	-6.36127
▁হয়	-6.38588
▁এই	-6.39962
▁at	-6.41627
8	-6.41875
▁you	-6.43821
ing	-6.4511
▁have	-6.45548
▁can	-6.46259
▁was	-6.49775
▁না	-6.50432
’	-6.51414
▁an	-6.52394
6	-6.55635
▁'	-6.57114
▁তিনি	-6.57515
▁this	-6.59196
▁এবং	-6.59572
▁"	-6.60159
7	-6.60766
ই	-6.7203
▁not	-6.72719
ও	-6.73724
▁।	-6.74436
▁এক	-6.75033
▁হবে	-6.75593
▁নিয়ে	-6.78
▁তার	-6.78147
▁বলেন	-6.79003
▁more	-6.79257
▁your	-6.79753
▁their	-6.81329
▁জন্য	-6.81504
▁will	-6.83683
ed	-6.85097
t	-6.85265
▁they	-6.8953
▁একটি	-6.91221
▁করেন	-6.91259
▁has	-6.91274
▁which	-6.92213
/	-6.92901
?	-6.93951
▁A	-6.95889
▁In	-7.04003
▁about	-7.06696
▁করতে	-7.07409
▁এর	-7.08502
;	-7.10175
▁one	-7.1127
▁সময়	-7.11351
▁also	-7.15428
d	-7.15524
▁but	-7.16591
▁মধ্যে	-7.17551
▁I	-7.18602
▁were	-7.18787
▁other	-7.19502
য়	-7.197
▁হয়ে	-7.20723
▁This	-7.22958
▁“	-7.2304
▁পর	-7.23063
▁বলে	-7.24095
তে	-7.24268
▁may	-7.24328
▁সঙ্গে	-7.25358
▁:	-7.25631
▁all	-7.26567
▁than	-7.27709
▁we	-7.28839
▁পুলিশ	-7.31943
▁জানান	-7.32028
▁It	-7.33261
"	-7.34753
▁–	-7.35248
▁জন	-7.35312
▁আর	-7.35401
▁তাদের	-7.35993
সহ	-7.37049
▁who	-7.3883
টি	-7.3968
▁হাজার	-7.39748
▁করেছে	-7.40284
▁been	-7.43756
e	-7.44469
▁যায়	-7.44548
▁people	-7.44676
▁when	-7.44909
▁into	-7.45077
▁its	-7.47151
▁বাংলাদেশ	-7.4747
▁করেছেন	-7.47724
▁তবে	-7.48593
▁দিয়ে	-7.50573
▁গত	-7.51426
▁his	-7.51496
▁শুরু	-7.52121
ly	-7.52714
!	-7.52796
▁these	-7.53223
▁time	-7.53953
▁কথা	-7.54508
▁use	-7.55196
▁up	-7.5524
▁out	-7.55655
▁some	-7.55715
▁most	-7.56935
দের	-7.58884
▁he	-7.60607
▁ওই	-7.60664
▁উপজেলা	-7.61229
ন	-7.62023
▁যে	-7.62134
▁them	-7.62176
▁হচ্ছে	-7.62234
▁দুই	-7.62292
▁used	-7.63711
▁first	-7.64244
▁our	-7.64268
রা	-7.64347
▁new	-7.64368
▁such	-7.64528
er	-7.64608
▁so	-7.64814
▁if	-7.64826
▁how	-7.66068
▁তারা	-7.67058
▁ইসলাম	-7.67221
▁নতুন	-7.6732
▁do	-7.67857
▁জেলা	-7.67878
▁করার	-7.6797
▁বিভিন্ন	-7.68146
▁রয়েছে	-7.68261
▁said	-7.69678
▁there	-7.70224
▁আগে	-7.70384
y	-7.7094
).	-7.71101
▁ছিলেন	-7.71283
▁মো	-7.71822
▁আজ	-7.71909
▁many	-7.72143
▁what	-7.72956
▁water	-7.73014
S	-7.73106
▁over	-7.74241
▁two	-7.7436
া	-7.74869
▁only	-7.75315
▁would	-7.75828
a	-7.76335
▁had	-7.76399
ি	-7.76712
▁years	-7.7751
▁পর্যন্ত	-7.77735
▁সম্পাদক	-7.77786
▁টাকা	-7.78145
▁|	-7.79107
স	-7.79418
▁প্রথম	-7.79829
▁কাজ	-7.80179
▁হোসেন	-7.80838
▁রহমান	-7.81706
▁হিসেবে	-7.81718
▁ঢাকা	-7.82245
▁উপজেলার	-7.82249
),	-7.82561
▁তাকে	-7.82665
▁কিন্তু	-7.83236
▁like	-7.83417
▁বছর	-7.83465
▁বা	-7.8366
▁গেছে	-7.83736
▁আরও	-7.83786
▁তা	-7.8432
▁সেই	-7.854
▁করোনা	-7.8601
▁through	-7.86895
▁১০	-7.87114
▁জাতীয়	-7.883
▁২	-7.88564
▁প্রধান	-7.88962
▁information	-7.89593
▁If	-7.90028
▁দিন	-7.90604
▁help	-7.91214
▁ছিল	-7.91277
com	-7.91694
▁আমরা	-7.91877
▁make	-7.9323
th	-7.93539
▁children	-7.93658
▁খবর	-7.93681
▁পারে	-7.94272
▁no	-7.94627
▁৩	-7.94799
ী	-7.94886
▁দেখা	-7.95241
▁দেশের	-7.95323
▁any	-7.95392
▁১	-7.95757
▁well	-7.96498
al	-7.96502
re	-7.96618
▁পরে	-7.968
▁কোনো	-7.96896
▁সাথে	-7.97217
▁বিরুদ্ধে	-7.97726
▁সভাপতি	-7.97747
▁could	-7.97843
▁জানা	-7.98318
▁দিকে	-7.98577
▁৫	-7.99018
▁between	-7.99205
▁work	-8.00413
▁আমাদের	-8.00437
▁এখন	-8.0046
▁শেখ	-8.00525
▁should	-8.00566
▁study	-8.00999
▁সাধারণ	-8.02478
▁সব	-8.02521
▁For	-8.02765
▁২০২০	-8.0306
▁শেষ	-8.04376
▁সে	-8.04481
▁found	-8.04765
▁হতে	-8.04962
▁২০২১	-8.05915
es	-8.05922
▁লাখ	-8.06232
▁where	-8.06326
▁৪	-8.0649
▁তথ্য	-8.06637
ক	-8.06923
▁দেওয়া	-8.07337
▁students	-8.0765
▁কাছে	-8.07793
▁প্রকাশ	-8.07829
▁মে	-8.0868
▁সরকার	-8.09122
▁উদ্ধার	-8.0918
▁year	-8.09271
▁health	-8.09513
▁বুধবার	-8.09797
▁কর্মকর্তা	-8.09834
▁বেশি	-8.10541
▁because	-8.1082
▁কিছু	-8.10991
▁মাধ্যমে	-8.11508
▁সদস্য	-8.12101
▁high	-8.12432
▁অভিযোগ	-8.12925
ল	-8.12933
n	-8.12954
▁after	-8.1315
▁সোমবার	-8.13407
▁world	-8.13501
”	-8.13712
▁those	-8.14261
▁মঙ্গলবার	-8.14271
in	-8.14424
▁each	-8.14504
▁very	-8.14537
▁হাসপাতালে	-8.14688
▁C	-8.14742
▁চেয়ারম্যান	-8.14837
▁বৃহস্পতিবার	-8.15154
▁way	-8.15536
,"	-8.15717
▁আমি	-8.16125
▁need	-8.16451
."	-8.1662
▁মৃত্যু	-8.17482
▁during	-8.17522
▁নিহত	-8.17599
▁কারণে	-8.17927
▁just	-8.18358
▁অনেক	-8.18575
▁S	-8.1884
▁University	-8.18896
▁News	-8.19109
▁get	-8.197
▁নেই	-8.19996
▁আটক	-8.2008
▁এলাকায়	-8.20095
▁২০১৯	-8.20208
▁research	-8.20258
▁আওয়ামী	-8.20341
▁then	-8.20818
▁৬	-8.20893
▁ছেলে	-8.21138
▁শনিবার	-8.21495
▁উপস্থিত	-8.21789
▁প্রকাশিত	-8.22071
▁২৪	-8.22332
▁অনুষ্ঠিত	-8.22374
▁প্রধানমন্ত্রী	-8.22412
▁much	-8.22611
▁system	-8.22755
▁They	-8.22826
▁different	-8.22847
▁দেন	-8.22849
▁নয়	-8.22912
▁১২	-8.2326
▁প্রায়	-8.23426
▁even	-8.23478
▁সংবাদ	-8.23776
▁ডেস্ক	-8.2379
▁life	-8.24559
▁U	-8.24594
▁তিন	-8.24896
▁important	-8.25061
]	-8.25098
▁আছে	-8.2548
▁বড়	-8.25784
r	-8.26631
▁বিষয়ে	-8.26902
▁আমার	-8.26914
or	-8.27114
▁see	-8.27494
▁শুক্রবার	-8.27511
▁part	-8.27549
▁জানিয়েছেন	-8.27986
▁But	-8.28111
▁দেশে	-8.28358
▁using	-8.2882
▁হয়েছেন	-8.28894
▁disease	-8.29325
▁New	-8.29475
▁নাম	-8.29671
▁He	-8.29735
▁এমন	-8.29997
▁১১	-8.30459
▁৭	-8.30553
▁To	-8.30741
▁Home	-8.30744
m	-8.30848
▁made	-8.30927
▁You	-8.31683
▁food	-8.31944
▁before	-8.32004
▁আক্রান্ত	-8.3205
▁নিশ্চিত	-8.32084
▁being	-8.32657
▁ঘোষণা	-8.32836
▁গ্রামের	-8.32937
▁long	-8.33267
।'	-8.33298
▁বছরের	-8.33671
▁দল	-8.34064
▁ধরে	-8.34428
ম	-8.34601
▁data	-8.34689
▁থানার	-8.34873
▁বিশেষ	-8.35142
▁২০	-8.35181
▁যাবে	-8.35307
▁করছে	-8.35327
▁এতে	-8.35351
▁same	-8.35456
▁তাই	-8.35555
▁দলের	-8.35601
▁বাংলাদেশের	-8.35602
▁day	-8.35613
▁মামলা	-8.35708
▁often	-8.35826
▁হলে	-8.35891
▁৮	-8.36318
▁body	-8.3659
▁around	-8.36617
▁[	-8.36626
▁সকাল	-8.36658
▁What	-8.36847
▁স্বাস্থ্য	-8.37096
▁ঘটনা	-8.37546
▁B	-8.37658
%	-8.37832
▁মানুষ	-8.37982
▁এবার	-8.38312
▁বলা	-8.38316
▁বন্ধ	-8.38369
▁We	-8.38405
▁take	-8.38441
▁says	-8.38466
▁আগামী	-8.38598
▁number	-8.38601
▁খান	-8.38803
▁দিতে	-8.39314
▁নিউজ	-8.39532
▁কোন	-8.39852
▁১৫	-8.39874
▁D	-8.39945
▁her	-8.40111
▁called	-8.40191
▁ঘটনায়	-8.40225
▁জুন	-8.40589
▁both	-8.4067
▁including	-8.40715
▁কোটি	-8.40717
▁three	-8.40928
▁প্রতি	-8.41042
▁blood	-8.411
▁There	-8.41119
▁দেয়া	-8.41203
▁দাবি	-8.4129
▁আরো	-8.41311
▁American	-8.41441
▁অক্টোবর	-8.41613
▁now	-8.41633
i	-8.41927
▁সেপ্টেম্বর	-8.42087
o	-8.42177
.”	-8.42252
▁স্থানীয়	-8.42395
▁পাওয়া	-8.4296
▁school	-8.43195
▁As	-8.43388
—	-8.43427
▁মতো	-8.44045
▁E	-8.44249
▁জুলাই	-8.44275
(	-8.44408
▁under	-8.44819
▁সাবেক	-8.44861
না	-8.44976
▁আল	-8.45225
▁মার্চ	-8.45356
▁যা	-8.45361
▁energy	-8.45486
▁সদর	-8.45549
▁সহ	-8.46244
▁good	-8.4655
▁child	-8.46564
▁while	-8.46665
▁মানুষের	-8.46935
ers	-8.4708
▁একজন	-8.47292
▁small	-8.47303
▁risk	-8.47582
▁আহত	-8.47764
A	-8.48442
▁When	-8.4863
▁৯	-8.48813
▁known	-8.49222
▁ছবি	-8.49248
▁percent	-8.49855
▁know	-8.49951
▁নামে	-8.50375
▁National	-8.50397
▁These	-8.50583
▁তাঁর	-8.50797
▁species	-8.50863
▁ইউনিয়নের	-8.51198
▁আপডেট	-8.51222
▁পুলিশের	-8.51327
D	-8.51447
▁এপ্রিল	-8.51539
▁বিষয়টি	-8.51634
▁মা	-8.51765
▁এসব	-8.51819
▁সালে	-8.52199
▁গিয়ে	-8.5259
C	-8.53298
▁us	-8.5332
▁সকালে	-8.54125
▁রাতে	-8.54249
▁include	-8.54277
পুর	-8.54291
▁১৯	-8.54609
▁সামনে	-8.548
▁back	-8.54859
▁তৈরি	-8.55099
▁জনের	-8.55464
টা	-8.55493
ব	-8.55628
▁area	-8.5564
▁আন্তর্জাতিক	-8.55854
▁T	-8.55927
The	-8.56137
▁আলী	-8.56188
▁human	-8.56205
▁ভারতের	-8.56513
▁দেশ	-8.56754
▁কি	-8.56761
▁হওয়ার	-8.56931
▁নভেম্বর	-8.57014
▁find	-8.57208
▁হক	-8.57485
▁পড়ে	-8.57535
▁লীগের	-8.58348
▁করছেন	-8.58363
▁রাত	-8.58378
▁গ্রেফতার	-8.58633
▁শেষে	-8.58718
▁১৪	-8.58863
g	-8.59178
▁—	-8.59691
▁টি	-8.59696
▁দিয়েছেন	-8.59722
▁সরকারি	-8.59739
▁বলেছেন	-8.60172
▁United	-8.60195
▁এলাকার	-8.60253
▁change	-8.60315
▁ব্যবস্থা	-8.60538
▁সেখানে	-8.60737
▁জানুয়ারি	-8.6077
▁নারী	-8.60972
▁অংশ	-8.61574
▁large	-8.61645
▁নেতা	-8.61737
▁যাচ্ছে	-8.61754
▁বাড়ি	-8.61764
c	-8.61835
▁মোঃ	-8.62149
▁cancer	-8.62189
▁আ	-8.62204
▁state	-8.62409
▁বেশ	-8.62497
▁একই	-8.62523
▁does	-8.62526
▁own	-8.62779
▁দু	-8.62938
▁common	-8.63117
▁women	-8.63416
|	-8.63419
▁less	-8.63445
▁দিয়েছে	-8.63806
▁মনে	-8.64106
▁২০১৮	-8.64478
শ	-8.64564
▁still	-8.64598
▁নির্বাচন	-8.64632
▁শিক্ষা	-8.65141
▁down	-8.65412
▁সংখ্যা	-8.65462
▁থাকে	-8.65543
▁১৮	-8.6573
▁হাসান	-8.65812
▁early	-8.6588
▁example	-8.65989
▁পরীক্ষা	-8.66079
▁আলম	-8.66105
||	-8.66462
▁দ্বিতীয়	-8.66522
▁বাংলা	-8.66781
▁cause	-8.66833
▁মোহাম্মদ	-8.66874
▁ডিসেম্বর	-8.66964
▁সিদ্ধান্ত	-8.67093
▁এম	-8.6721
▁every	-8.67344
▁M	-8.67389
▁হলো	-8.675
▁/	-8.67514
▁অনুষ্ঠানে	-8.67599
ve	-8.67653
▁And	-8.67705
▁ড	-8.67798
▁মারা	-8.67871
▁নিজের	-8.68028
▁এরপর	-8.68063
▁আগস্ট	-8.68202
,”	-8.68338
▁must	-8.68493
▁কলেজ	-8.68584
▁এটি	-8.68625
▁সালের	-8.68722
▁পেয়ে	-8.68824
▁জানিয়েছে	-8.68873
▁per	-8.6903
▁P	-8.69247
on	-8.6935
▁হাতে	-8.69457
▁form	-8.69497
ত	-8.70047
▁পরিবারের	-8.70193
▁তুলে	-8.7025
▁থাকা	-8.70365
▁ওপর	-8.70375
▁১৬	-8.70449
▁right	-8.70688
▁power	-8.70763
▁চৌধুরী	-8.71206
বি	-8.71216
▁might	-8.71368
▁history	-8.71447
▁হন	-8.7146
▁১৩	-8.71521
▁available	-8.71533
▁দেয়	-8.7164
▁States	-8.71954
▁যান	-8.72013
▁re	-8.72062
▁উদ্দিন	-8.72092
▁here	-8.72106
▁off	-8.72485
▁চেষ্টা	-8.72578
▁ভালো	-8.72592
to	-8.72627
▁few	-8.72659
▁ভর্তি	-8.72771
এ	-8.72782
▁my	-8.73051
the	-8.73114
▁প্রতিনিধি	-8.73189
১	-8.732
▁she	-8.73279
▁১৭	-8.73442
তা	-8.7351
▁সরকারের	-8.73596
▁মোট	-8.7371
▁গতকাল	-8.73724
▁treatment	-8.73863
▁ফলে	-8.73977
▁&	-8.74379
▁cells	-8.74545
ো	-8.74805
▁সাড়ে	-8.7525
▁group	-8.75441
▁৩০	-8.75527
▁family	-8.75539
▁থানায়	-8.75602
▁light	-8.75635
▁last	-8.75755
▁করবে	-8.75771
▁development	-8.75847
▁ব্যবহার	-8.7589
▁place	-8.76241
▁কম	-8.76589
ll	-8.77098
▁don	-8.771
▁public	-8.77314
▁অবস্থায়	-8.77366
▁within	-8.77439
▁areas	-8.77505
▁২১	-8.77579
▁process	-8.7758
▁better	-8.77621
I	-8.77842
▁heart	-8.77905
ic	-8.77924
▁researchers	-8.77947
▁অভিযান	-8.77955
▁home	-8.78073
▁এছাড়া	-8.78277
▁provide	-8.78868
▁age	-8.79011
▁কে	-8.79063
▁চার	-8.79085
▁ঘটে	-8.79177
ুল	-8.79288
▁Dr	-8.79628
▁another	-8.79686
ভাবে	-8.7975
l	-8.79864
▁করবেন	-8.79886
▁কেউ	-8.79931
▁million	-8.79949
▁নির্বাহী	-8.8001
▁দক্ষিণ	-8.80035
▁program	-8.8009
▁থাকবে	-8.80141
▁মৃত	-8.80321
▁বিতরণ	-8.80374
▁without	-8.80459
▁নিতে	-8.80514
▁চলছে	-8.80648
▁রোববার	-8.80955
▁বক্তব্য	-8.8096
▁become	-8.81195
জ	-8.812
▁অ	-8.8126
▁হত্যা	-8.81425
▁কারণ	-8.81514
▁২৫	-8.81541
▁পাশাপাশি	-8.81584
▁জেলার	-8.81949
▁পরিচালক	-8.81969
িত	-8.81999
▁set	-8.82014
▁go	-8.82078
▁G	-8.82366
▁--	-8.82377
▁several	-8.8247
▁আহমেদ	-8.82482
▁ধরনের	-8.82911
▁আলোচনা	-8.83001
▁বিএনপি	-8.83242
গুলো	-8.8335
▁So	-8.83454
▁problems	-8.83489
▁test	-8.8349
▁বিভাগের	-8.83726
ার	-8.83776
▁name	-8.84204
▁এসময়	-8.84231
▁শিশু	-8.84338
▁দুপুরে	-8.84457
▁ফেব্রুয়ারি	-8.8452
▁মাঝে	-8.84529
▁হয়েছিল	-8.84865
▁শতাংশ	-8.84874
▁আদালত	-8.8502
▁best	-8.85303
▁রবিবার	-8.8541
▁look	-8.85465
▁অফিসার	-8.8591
▁learn	-8.85921
▁One	-8.86479
▁type	-8.86484
▁too	-8.86514
▁care	-8.8655
▁ভারত	-8.86591
us	-8.86658
en	-8.86716
▁আবেদন	-8.86883
▁ক্রিকেট	-8.86963
▁levels	-8.87031
▁By	-8.8704
▁natural	-8.87083
▁এদিকে	-8.87114
ঃ	-8.87378
নি	-8.87427
▁An	-8.87485
▁২২	-8.87615
▁কমিটির	-8.88115
▁অন্য	-8.88165
▁want	-8.88381
▁ডা	-8.88402
▁ভারতীয়	-8.88432
▁উত্তর	-8.88556
▁book	-8.8856
▁How	-8.88561
▁end	-8.88644
▁person	-8.88727
▁বি	-8.88823
▁হয়নি	-8.88961
▁However	-8.89037
▁L	-8.89115
▁থেকেই	-8.89118
▁usually	-8.89131
p	-8.89764
▁বিএনপির	-8.89806
▁জানানো	-8.89939
▁আব্দুল	-8.89959
▁low	-8.90446
▁সিলেট	-8.90518
▁following	-8.90525
▁স্ত্রী	-8.90767
▁times	-8.90787
▁possible	-8.90868
▁All	-8.90934
▁since	-8.91035
িং	-8.9124
▁H	-8.91278
▁$	-8.914
▁great	-8.91451
▁air	-8.9147
▁যদি	-8.9157
▁দিনের	-8.9173
▁able	-8.91974
▁কেন্দ্রীয়	-8.92007
▁Some	-8.92023
▁রান	-8.92045
▁de	-8.92138
▁জানায়	-8.92297
▁ইউনিয়ন	-8.92397
x	-8.92709
▁শিক্ষক	-8.92787
▁F	-8.92896
এর	-8.9299
▁K	-8.93018
▁think	-8.93041
▁local	-8.93264
▁brain	-8.93527
▁likely	-8.93538
▁বাড়িতে	-8.93636
▁অপরাহ্ণ	-8.93702
▁project	-8.93998
▁অনলাইন	-8.94146
b	-8.94238
▁হওয়া	-8.94271
▁site	-8.94296
১৯	-8.94312
▁control	-8.94354
▁did	-8.94482
▁Health	-8.94585
▁ঘটনার	-8.95027
▁means	-8.95226
▁among	-8.95348
▁level	-8.95605
▁বার	-8.95623
▁চট্টগ্রাম	-8.95646
▁support	-8.95649
▁government	-8.95914
▁দৈনিক	-8.95933
▁দুটি	-8.96057
▁Earth	-8.96085
▁সকল	-8.9613
▁পালন	-8.96143
▁say	-8.96154
▁ছাড়া	-8.96176
▁R	-8.96195
▁জয়	-8.96509
▁নেওয়া	-8.9668
st	-8.96791
▁২৩	-8.96863
▁social	-8.97044
▁সভায়	-8.97071
▁science	-8.97228
▁days	-8.97247
▁রাখা	-8.97345
an	-8.97458
▁four	-8.97486
▁today	-8.97765
▁এসে	-8.97776
▁ভিডিও	-8.97965
▁মার্কিন	-8.97985
▁উপ	-8.98084
▁based	-8.98114
▁ম্যাচ	-8.98126
▁সুযোগ	-8.98266
–	-8.98286
▁results	-8.98534
২	-8.98599
▁রেখে	-8.98709
▁ম্যাচে	-8.9878
▁little	-8.9894
▁symptoms	-8.98965
able	-8.98972
▁আইন	-8.99101
▁মামলার	-8.99415
▁চলে	-8.99439
▁অতিথি	-8.99567
ation	-8.99683
▁মাঠে	-8.99695
▁report	-8.99858
▁সড়ক	-8.99961
▁against	-8.99995
▁একটা	-9.00095
▁দায়িত্ব	-9.00212
▁problem	-9.00331
▁অন্যান্য	-9.0038
▁খুব	-9.00544
▁plant	-9.00771
▁learning	-9.00935
▁plants	-9.01144
k	-9.01217
▁মেডিকেল	-9.01242
man	-9.01274
▁সময়ে	-9.01324
▁until	-9.01331
▁অনুযায়ী	-9.01535
▁non	-9.01557
▁come	-9.01719
▁order	-9.01809
▁উপলক্ষে	-9.01977
▁বিশ্ববিদ্যালয়ের	-9.02091
▁যেতে	-9.02107
▁un	-9.02171
▁On	-9.02334
▁করোনায়	-9.02691
▁প্রেসিডেন্ট	-9.02759
▁মাদক	-9.02842
B	-9.03049
▁making	-9.03119
▁education	-9.03322
▁J	-9.03518
▁হল	-9.03614
▁মাস	-9.03695
▁মিয়া	-9.03889
▁given	-9.03912
...	-9.03958
▁পাঁচ	-9.04013
▁লাশ	-9.04152
▁নির্বাচনে	-9.04253
▁World	-9.04262
মা	-9.0443
P	-9.04463
▁article	-9.04503
▁country	-9.04519
দ	-9.04604
▁সামাজিক	-9.04896
▁আবার	-9.0494
▁বিশ্ব	-9.04976
▁space	-9.05113
▁থানা	-9.05305
▁যাওয়ার	-9.05369
▁skin	-9.055
▁medical	-9.05521
▁N	-9.05657
▁পক্ষ	-9.05817
▁words	-9.06017
▁বঙ্গবন্ধু	-9.06022
▁increase	-9.06079
▁young	-9.06157
▁অতিরিক্ত	-9.06245
▁century	-9.06332
▁technology	-9.06376
▁পাশে	-9.06412
▁পরিষদের	-9.06639
▁That	-9.06642
▁conditions	-9.06643
▁গ্রহণ	-9.06656
▁major	-9.06685
▁স	-9.06984
▁May	-9.07023
▁তদন্ত	-9.07071
▁রাজধানীর	-9.07176
▁সুপার	-9.07201
▁result	-9.07221
▁point	-9.07243
▁মামলায়	-9.07283
▁সংসদ	-9.07363
▁তখন	-9.07413
▁climate	-9.07629
▁উপর	-9.07685
▁ভোট	-9.07715
▁পারেন	-9.07747
▁সবচেয়ে	-9.07806
▁next	-9.07891
ion	-9.08201
▁সম্প্রতি	-9.08248
টির	-9.08459
▁এগিয়ে	-9.08569
▁least	-9.08635
▁Science	-9.08669
▁scientists	-9.08739
প	-9.08962
▁him	-9.09031
▁»	-9.09032
▁show	-9.0928
and	-9.09305
F	-9.0949
▁full	-9.09516
▁develop	-9.09526
▁শনাক্ত	-9.09536
▁others	-9.09595
▁population	-9.09596
▁২৬	-9.09689
▁community	-9.09724
▁second	-9.0973
▁শুধু	-9.09816
▁সভা	-9.09823
▁surface	-9.0983
▁উদ্বোধন	-9.09867
▁প্রদান	-9.09931
▁আপনার	-9.10044
▁At	-9.10192
▁O	-9.10238
▁patients	-9.10253
▁এটা	-9.10318
▁নানা	-9.10331
▁create	-9.10457
▁বর্তমানে	-9.10503
▁higher	-9.10546
▁হলেন	-9.10687
▁বের	-9.10722
কা	-9.1076
▁things	-9.10946
▁across	-9.11001
▁দায়ের	-9.1147
▁অব	-9.11473
▁keep	-9.11479
▁প্রাথমিক	-9.1149
ity	-9.11495
▁published	-9.11553
▁along	-9.11612
▁land	-9.1181
▁গ্রেপ্তার	-9.11833
▁রায়	-9.11889
▁পাঠানো	-9.12076
▁above	-9.12101
▁আদালতে	-9.12104
▁লীগ	-9.12127
▁lead	-9.12127
▁free	-9.12292
▁according	-9.123
▁course	-9.12354
▁together	-9.12481
▁আয়োজন	-9.12486
▁কোনও	-9.12513
▁করলে	-9.12558
▁Center	-9.12638
▁language	-9.12718
▁team	-9.12862
▁অর্থ	-9.12946
▁বিয়ে	-9.12996
▁২৮	-9.13091
▁ই	-9.13266
▁হাসিনা	-9.13346
▁me	-9.13351
ট	-9.13355
▁দেখতে	-9.13388
▁changes	-9.1341
▁resources	-9.13468
▁উন্নয়ন	-9.13988
▁নির্দেশ	-9.14086
▁আসে	-9.14105
▁সচিব	-9.14132
▁p	-9.14241
▁future	-9.14287
▁English	-9.14287
▁W	-9.14464
▁far	-9.14698
▁হামলা	-9.14737
▁later	-9.14745
▁read	-9.14756
▁left	-9.14861
▁দেখে	-9.14964
▁away	-9.14981
▁পানি	-9.15085
▁দেওয়ার	-9.15125
▁give	-9.15149
▁studies	-9.15159
▁environment	-9.15528
▁case	-9.15652
▁দাম	-9.15706
▁current	-9.15805
T	-9.16098
▁fact	-9.1628
▁সূত্রে	-9.16419
▁activity	-9.16719
▁পরিবার	-9.16758
▁বেগম	-9.1694
▁থাকতে	-9.16946
▁America	-9.16958
▁Research	-9.16976
▁যাওয়া	-9.16981
▁মেয়র	-9.16991
২০	-9.17032
▁range	-9.17098
▁প্রার্থী	-9.17218
▁ব্যাপারে	-9.17254
▁রাখেন	-9.17339
▁করোনার	-9.17372
লা	-9.17386
▁something	-9.17582
▁অধ্যাপক	-9.17625
▁২৭	-9.17715
▁countries	-9.1772
▁বিপক্ষে	-9.17792
▁why	-9.17852
▁men	-9.17975
▁আগুন	-9.18001
▁systems	-9.18004
▁especially	-9.18017
▁করি	-9.18047
▁চালিয়ে	-9.18086
▁ক্ষেত্রে	-9.18397
▁নেয়া	-9.18406
▁কুমার	-9.18468
▁developed	-9.18487
▁lower	-9.18489
▁page	-9.18507
▁enough	-9.18554
▁word	-9.18906
▁চিকিৎসা	-9.19002
ness	-9.19041
▁working	-9.19088
▁online	-9.19093
is	-9.19169
▁due	-9.19282
▁নিজ	-9.1929
▁সহকারী	-9.19292
▁হলেও	-9.19356
▁paper	-9.19441
N	-9.19629
▁five	-9.19797
▁সমস্যা	-9.1994
▁cases	-9.20027
▁reduce	-9.20049
▁gas	-9.20051
▁দ্রুত	-9.20062
▁animals	-9.20289
িক	-9.20324
▁অবস্থান	-9.20384
▁side	-9.20402
▁যারা	-9.20447
▁source	-9.20477
▁doctor	-9.20582
▁North	-9.20679
▁বাংলাদেশে	-9.2072
▁past	-9.20927
H	-9.21151
▁ago	-9.21159
▁সংস্থা	-9.21248
▁২০১৭	-9.2165
▁activities	-9.21706
▁amount	-9.21721
▁physical	-9.21774
▁computer	-9.21777
▁তো	-9.21787
▁শহরের	-9.21912
▁Most	-9.21974
▁কয়েক	-9.22055
তম	-9.2222
▁কী	-9.2222
▁এলাকা	-9.22244
▁গেছেন	-9.22446
▁সর্বোচ্চ	-9.22475
▁নম্বর	-9.2257
▁War	-9.22634
▁রাখতে	-9.22652
://	-9.22688
▁ছোট	-9.22725
▁pressure	-9.22802
▁মন্তব্য	-9.22806
▁বাজার	-9.22836
▁রয়েছেন	-9.22952
▁মন্ত্রী	-9.23019
▁types	-9.2302
▁সাংবাদিক	-9.23084
▁মাত্র	-9.23107
E	-9.23173
▁School	-9.2321
▁white	-9.23304
▁More	-9.23391
▁St	-9.23631
▁পরিচালনা	-9.23688
▁period	-9.23909
▁নামের	-9.23925
▁live	-9.24083
ু	-9.24178
▁specific	-9.24412
▁বিশ্বের	-9.24427
▁effects	-9.24504
▁স্কুল	-9.24617
▁access	-9.24724
▁old	-9.24754
▁near	-9.24815
_	-9.24832
▁ছাত্র	-9.24891
▁field	-9.24981
▁While	-9.25028
h	-9.25063
▁আছেন	-9.25088
▁below	-9.25221
▁whether	-9.2525
▁image	-9.25251
▁>	-9.25282
▁যার	-9.2531
▁যখন	-9.2533
▁বাবা	-9.25398
▁parents	-9.25414
ং	-9.25497
▁টাকার	-9.25535
▁কার্যক্রম	-9.25605
▁৫০	-9.25654
▁মোবাইল	-9.25743
▁material	-9.25863
▁নিজস্ব	-9.25877
▁Department	-9.2588
▁size	-9.25891
▁news	-9.25906
▁যোগাযোগ	-9.2603
▁গ্রামে	-9.26063
▁products	-9.26355
▁No	-9.26375
as	-9.26382
▁করুন	-9.26386
▁‘	-9.26407
▁যোগ	-9.26445
▁story	-9.26489
লি	-9.265
▁healthy	-9.26511
▁চেয়ে	-9.26741
▁always	-9.26801
▁যেন	-9.26953
▁ways	-9.26959
▁State	-9.27007
▁start	-9.27161
▁oil	-9.27257
▁understand	-9.27341
M	-9.27408
▁•	-9.27437
▁পা	-9.27448
▁cell	-9.27493
▁design	-9.2754
ist	-9.27607
▁থাকার	-9.27646
▁provides	-9.27819
▁কেন্দ্র	-9.27877
▁পরিষদ	-9.28037
▁Do	-9.28053
▁sure	-9.28059
▁created	-9.28067
▁কমিটি	-9.28098
▁জানতে	-9.28098
▁মুক্তি	-9.28107
▁পিএম	-9.28121
▁put	-9.28157
▁After	-9.28181
▁প্রমুখ	-9.28251
▁এসেছে	-9.28252
▁present	-9.28287
▁ভারপ্রাপ্ত	-9.28303
▁short	-9.28369
▁সম্পর্কে	-9.28415
le	-9.285
▁পরিস্থিতি	-9.28515
ism	-9.28523
▁সিটি	-9.28546
▁months	-9.28587
▁Your	-9.28598
K	-9.28603
▁আবু	-9.28654
▁আসা	-9.28668
▁weight	-9.2869
সা	-9.2896
▁With	-9.29134
▁needs	-9.29135
▁প্রতিষ্ঠান	-9.2925
▁key	-9.29528
org	-9.29545
L	-9.29573
▁South	-9.29611
▁খালেদা	-9.2962
▁week	-9.29657
▁ঠিক	-9.29664
▁ম	-9.29687
▁prevent	-9.29692
▁স্থানে	-9.29897
▁similar	-9.29954
▁অভিযোগে	-9.30011
▁fish	-9.30159
▁বাজারে	-9.30231
▁অভিনয়	-9.30244
▁having	-9.30269
ুর	-9.30355
▁এস	-9.30441
▁done	-9.30453
▁man	-9.30453
▁বাস	-9.30586
▁নিরাপত্তা	-9.30656
▁হাত	-9.30657
▁সভাপতিত্বে	-9.30662
▁দিবস	-9.30668
▁Many	-9.31001
ফ	-9.3107
▁certain	-9.31076
▁জীবন	-9.31177
▁ব্যাংক	-9.31332
▁আহমদ	-9.31412
▁growth	-9.31426
▁বিভাগ	-9.31515
▁global	-9.31623
৩	-9.31698
▁পথে	-9.31729
▁black	-9.31891
▁open	-9.31905
▁পারবেন	-9.31957
▁দেশটির	-9.31981
▁seen	-9.31985
▁however	-9.32222
▁really	-9.32229
▁ঘটনাস্থলে	-9.3225
▁going	-9.32263
▁কাদের	-9.32419
▁rights	-9.32464
▁টিকা	-9.32505
জি	-9.32813
▁ওসি	-9.32825
▁various	-9.3285
)।	-9.3291
▁questions	-9.32915
▁impact	-9.32928
▁মেয়ে	-9.32948
▁shows	-9.3313
▁line	-9.33167
▁হার	-9.33196
▁kids	-9.33212
▁student	-9.33327
▁উচ্চ	-9.33408
▁ফিরে	-9.33524
▁general	-9.33573
▁region	-9.33581
▁function	-9.33637
▁বেড়ে	-9.33651
▁living	-9.33666
▁pain	-9.33676
▁*	-9.33855
▁বিক্রি	-9.33857
য়ে	-9.33883
▁hand	-9.34029
▁production	-9.34032
▁ভাই	-9.34069
▁half	-9.34138
▁makes	-9.3417
▁already	-9.34227
▁further	-9.34227
▁became	-9.34233
it	-9.34326
ছে	-9.34331
▁তাহলে	-9.34392
▁জানিয়ে	-9.34443
f	-9.34454
▁আসছে	-9.34663
▁experience	-9.3467
▁সৌদি	-9.34685
▁তৃতীয়	-9.34905
▁sea	-9.34943
সি	-9.34947
▁মৃত্যুর	-9.35071
ia	-9.35119
▁Institute	-9.35221
▁never	-9.35337
▁rate	-9.35363
▁সম্ভব	-9.3539
▁related	-9.35455
▁environmental	-9.35571
▁death	-9.35598
জন	-9.35663
▁taken	-9.35702
▁materials	-9.35795
▁hard	-9.35957
▁role	-9.36058
▁উল্লেখ	-9.36077
▁সেবা	-9.36116
▁city	-9.36157
▁২৯	-9.36204
▁national	-9.36269
▁ইউপি	-9.3629
▁single	-9.36375
▁অপরাহ্ন	-9.36378
▁evidence	-9.36413
▁ঘণ্টায়	-9.36463
▁খেলা	-9.36488
▁এখনও	-9.36542
▁contact	-9.36603
▁নিজেদের	-9.36722
▁মাসের	-9.36851
▁Bangla	-9.36884
▁associated	-9.36981
▁red	-9.36996
▁সুস্থ	-9.37057
▁শেয়ার	-9.37074
▁addition	-9.37131
▁ঢাকার	-9.37236
▁skills	-9.37506
▁class	-9.3752
▁simple	-9.37522
▁play	-9.37592
▁lot	-9.37608
▁কেন	-9.37731
▁দিনে	-9.37815
ড	-9.37873
▁বিকেলে	-9.37885
▁ঘরে	-9.37934
▁e	-9.37967
▁বিশ্ববিদ্যালয়	-9.3818
▁অভিনেত্রী	-9.38213
▁নি	-9.38239
▁আগের	-9.38268
▁২০২২	-9.38277
▁main	-9.38323
▁quality	-9.38331
▁solar	-9.38356
▁groups	-9.38487
G	-9.38506
▁recent	-9.3864
▁York	-9.38745
▁শিক্ষার্থীদের	-9.38831
▁গেলে	-9.38898
▁উইকেট	-9.38906
▁June	-9.38906
▁caused	-9.39049
ian	-9.39049
▁আপনি	-9.39062
▁জনপ্রিয়	-9.39244
W	-9.39283
▁সবাই	-9.39357
▁either	-9.39373
▁once	-9.39407
▁increased	-9.39484
R	-9.39495
▁বর্তমান	-9.39537
ঁ	-9.3956
▁আহ্বান	-9.3959
▁V	-9.39782
▁average	-9.39785
▁পৌর	-9.3979
▁http	-9.39877
▁real	-9.4
▁মডেল	-9.40019
▁effect	-9.40095
▁টেস্ট	-9.40123
▁programs	-9.40206
▁সারা	-9.40209
▁নেন	-9.40312
▁মুখে	-9.40319
▁potential	-9.40369
▁রাজশাহী	-9.40563
▁produce	-9.40692
৩০	-9.40864
▁হওয়ায়	-9.40894
▁অধিনায়ক	-9.40934
▁রিপোর্ট	-9.40934
▁সি	-9.40944
▁building	-9.41007
▁মিনিটে	-9.4117
▁আশা	-9.412
▁দুপুর	-9.4146
▁ডি	-9.41481
▁প্রধানমন্ত্রীর	-9.41506
▁স্বামী	-9.41553
▁ফোন	-9.41619
▁শিকার	-9.41668
▁condition	-9.41683
▁text	-9.41912
▁হাসপাতালের	-9.41944
লে	-9.41958
▁individual	-9.4198
▁hours	-9.41996
▁রাজনৈতিক	-9.4202
▁জারি	-9.42108
▁actually	-9.42154
▁From	-9.42214
▁চাই	-9.42341
▁সু	-9.42389
▁উপজেলায়	-9.42442
▁list	-9.42445
▁মহিলা	-9.42593
▁top	-9.4265
▁March	-9.42684
▁John	-9.42708
৫	-9.42872
গ	-9.4293
▁চালু	-9.42958
▁উদ্যোগে	-9.42983
▁প্রস্তুতি	-9.43059
▁চলতি	-9.43178
পাড়া	-9.43357
▁special	-9.4338
▁চিকিৎসক	-9.43492
▁issues	-9.43552
▁শাহ	-9.43572
▁নিয়েছে	-9.43572
up	-9.43627
We	-9.43842
▁head	-9.43869
▁feet	-9.43941
▁soil	-9.43992
▁ground	-9.4412
▁আবুল	-9.44163
▁পক্ষে	-9.4424
▁needed	-9.44263
▁সৃষ্টি	-9.44483
ভ	-9.44503
▁diabetes	-9.44592
▁developing	-9.44618
▁আগেই	-9.44632
▁করছি	-9.44651
na	-9.44669
▁reading	-9.44682
▁মাসে	-9.44703
▁factors	-9.44743
▁value	-9.44755
▁designed	-9.44899
▁ব্যক্তি	-9.44921
▁California	-9.45189
▁works	-9.45277
▁loss	-9.45281
▁বিষয়ক	-9.45304
৪	-9.45377
▁বিষয়	-9.45443
▁though	-9.45491
▁পড়েছে	-9.45594
▁includes	-9.45594
▁সাংবাদিকদের	-9.45642
▁রেকর্ড	-9.45746
O	-9.45809
▁বিয়ের	-9.45909
▁significant	-9.4594
▁বিমান	-9.45981
▁বেলা	-9.45984
▁গেল	-9.46025
▁view	-9.46068
▁সূত্র	-9.46152
▁পরিকল্পনা	-9.46228
▁parts	-9.46254
▁animal	-9.46283
্য	-9.46306
▁ব্যবসায়ী	-9.46333
▁হাসপাতাল	-9.46363
▁পুরস্কার	-9.46442
▁allow	-9.46464
▁thought	-9.46513
▁বাইরে	-9.46751
▁heat	-9.4676
▁সেরা	-9.4681
▁foods	-9.46856
▁sun	-9.47153
co	-9.47252
▁প্রতিবেদক	-9.47267
ton	-9.47268
বা	-9.47352
১০	-9.47385
▁মেনে	-9.47604
▁provided	-9.47668
▁post	-9.4773
▁temperature	-9.48061
▁call	-9.48363
▁knowledge	-9.48421
▁অবস্থা	-9.48428
▁পড়া	-9.48435
▁কাজে	-9.48439
▁West	-9.48456
▁July	-9.4849
▁effective	-9.48602
▁৩১	-9.48715
▁জনকে	-9.48717
▁সম্পর্ক	-9.48739
২৪	-9.48818
▁Here	-9.48839
▁Other	-9.4889
▁যুগ্ম	-9.48901
▁states	-9.48917
▁war	-9.48925
▁Although	-9.48993
▁সংক্রমণ	-9.49007
▁She	-9.49019
▁understanding	-9.49024
▁পান	-9.49084
el	-9.49108
কার	-9.49244
▁infection	-9.49257
▁সিনিয়র	-9.49327
▁রহমানের	-9.49348
▁বার্তা	-9.49398
▁হারিয়ে	-9.49398
▁content	-9.49419
▁whole	-9.49428
▁অন্যতম	-9.4946
িয়া	-9.49475
▁শিক্ষার্থী	-9.49489
▁visit	-9.49502
▁সম্মেলনে	-9.49513
▁question	-9.49524
▁ability	-9.49569
▁করলেন	-9.49611
▁মন্ত্রণালয়ের	-9.49636
▁plan	-9.49665
▁diet	-9.49689
based	-9.49713
▁মাহমুদ	-9.49719
▁কাছ	-9.49798
▁ছড়িয়ে	-9.49818
▁normal	-9.49924
▁নির্বাচিত	-9.49992
▁কৃষি	-9.50014
▁schools	-9.50047
▁method	-9.50081
▁causes	-9.50114
বে	-9.50132
V	-9.50146
ive	-9.50364
▁পদে	-9.50371
▁গুরুত্বপূর্ণ	-9.50473
▁বাড়ির	-9.50528
▁According	-9.50614
▁improve	-9.50697
হ	-9.50719
▁X	-9.50731
রি	-9.50833
▁=	-9.50923
ণ	-9.50928
▁NASA	-9.50993
▁সবার	-9.51026
▁বিক্ষোভ	-9.51096
▁কয়েকটি	-9.51102
▁pre	-9.51108
▁almost	-9.51119
▁পূর্ব	-9.512
▁নেতৃত্বে	-9.51233
▁পরিবর্তন	-9.51309
▁সংগ্রহ	-9.51338
▁carbon	-9.51392
ry	-9.51446
▁দেয়ার	-9.51557
▁PM	-9.51574
▁এখনো	-9.51578
▁জেনারেল	-9.51616
▁considered	-9.5167
▁এমপি	-9.51707
▁color	-9.51758
▁cost	-9.51937
▁ধরা	-9.51937
▁eye	-9.51939
▁হত্যার	-9.51953
▁যায়নি	-9.52005
am	-9.52018
▁modern	-9.52193
▁particular	-9.52429
▁সেটা	-9.52439
▁came	-9.52491
▁taking	-9.525
▁মূল	-9.52588
▁ফল	-9.52605
▁করেছিলেন	-9.52711
um	-9.52733
▁প্রশাসন	-9.52734
▁থাকায়	-9.52994
▁প্রয়োজন	-9.52996
▁সহায়তা	-9.52998
▁green	-9.5301
▁c	-9.53129
▁বিশ্বাস	-9.53149
▁US	-9.53149
▁খাদ্য	-9.53165
▁কমিশনার	-9.5325
▁protect	-9.53255
▁Re	-9.53325
▁comes	-9.5334
▁produced	-9.53357
▁পর্যায়ে	-9.53461
▁উল্লেখ্য	-9.53523
▁মরদেহ	-9.53546
▁rather	-9.53741
▁দীর্ঘ	-9.53761
▁feel	-9.53768
▁variety	-9.53811
১২	-9.53823
▁প্রযুক্তি	-9.53825
▁built	-9.53859
▁eat	-9.53861
▁পয়েন্ট	-9.53988
▁গড়ে	-9.54251
▁মধ্য	-9.54337
▁২০১৬	-9.54394
www	-9.54396
▁পরীক্ষার	-9.54469
▁ভিত্তিতে	-9.54472
▁complete	-9.5454
▁গান	-9.54555
২৫	-9.54675
▁damage	-9.54804
▁author	-9.54863
▁রযাব	-9.54883
▁term	-9.54909
বার	-9.55045
▁ঢাকায়	-9.55078
▁পায়	-9.55106
▁law	-9.55173
v	-9.5518
▁April	-9.55255
▁throughout	-9.55277
▁longer	-9.55472
▁God	-9.55566
▁sometimes	-9.55589
▁practice	-9.55589
▁began	-9.55648
▁website	-9.55747
▁আসামি	-9.55774
▁খাবার	-9.55822
▁সর্বশেষ	-9.55986
▁হামলার	-9.55998
ment	-9.5602
▁আবদুল	-9.56147
▁মহানগর	-9.56255
▁issue	-9.56387
▁সাত	-9.56402
▁close	-9.56417
▁ছাত্রলীগের	-9.56418
▁occur	-9.56425
▁January	-9.56445
▁ever	-9.56457
▁ফেসবুক	-9.5664
▁six	-9.56721
▁required	-9.56809
▁সদস্যরা	-9.5684
▁গাড়ি	-9.5689
▁গ্রাম	-9.56917
▁exercise	-9.56953
▁late	-9.56959
▁ছেড়ে	-9.57075
কম	-9.57112
▁বল	-9.57295
▁প্রশ্ন	-9.57305
১৮	-9.57411
▁সময়ের	-9.57438
▁uses	-9.57474
▁grow	-9.57615
▁এখানে	-9.57791
▁video	-9.578
▁উঠে	-9.57861
▁yet	-9.57863
▁ক	-9.57911
ling	-9.5795
▁জন্ম	-9.57972
▁co	-9.5804
▁scientific	-9.58049
▁কলেজের	-9.58076
▁History	-9.58118
▁নমুনা	-9.5825
▁গুলি	-9.58263
▁প্রতিদিন	-9.58277
য়ের	-9.58342
▁sources	-9.58513
ীয়	-9.58568
▁করেছি	-9.58617
▁model	-9.58624
▁ভারতে	-9.5863
▁তারিখ	-9.58636
▁ঘটেছে	-9.58762
▁Be	-9.58767
at	-9.5882
১১	-9.58858
▁চান	-9.58895
▁প্রশাসক	-9.58959
▁total	-9.58982
▁মন্ত্রণালয়	-9.59156
▁series	-9.59163
▁নিয়োগ	-9.59175
▁am	-9.59299
▁গোল	-9.59566
▁tree	-9.59573
▁growing	-9.59635
▁idea	-9.59681
▁নেমে	-9.59722
▁কর্তৃপক্ষ	-9.59726
▁daily	-9.59728
▁September	-9.59921
▁জেলায়	-9.59934
▁সম্পন্ন	-9.59979
▁took	-9.60032
ate	-9.60051
▁দাবিতে	-9.60234
লো	-9.60359
▁again	-9.60392
▁কামাল	-9.60408
ary	-9.6059
▁পোস্ট	-9.60662
▁ছবির	-9.6083
২২	-9.60845
▁নির্দেশনা	-9.60851
▁নিয়ন্ত্রণ	-9.60906
▁images	-9.6093
▁lives	-9.60936
▁যুক্তরাষ্ট্রের	-9.61004
▁ice	-9.6106
▁run	-9.61066
▁diseases	-9.6109
▁shown	-9.61113
▁মত	-9.61148
▁easy	-9.61158
▁adults	-9.61227
▁involved	-9.61243
▁রাখার	-9.61341
▁আক্তার	-9.61342
z	-9.61346
rs	-9.61423
▁বলেও	-9.61431
▁themselves	-9.61437
▁economic	-9.61715
▁ছয়	-9.6179
▁See	-9.61901
টার	-9.61952
▁training	-9.6197
▁শহীদ	-9.62069
▁সংগঠন	-9.62176
▁আয়োজিত	-9.62244
▁শ্রমিক	-9.62371
▁Education	-9.62402
▁miles	-9.62402
▁services	-9.62449
▁difficult	-9.62473
▁অফিস	-9.6253
জা	-9.6254
▁added	-9.62603
▁move	-9.62695
▁safety	-9.62823
▁art	-9.62863
ies	-9.62937
▁basic	-9.62941
▁মুখ	-9.62986
▁করোনাভাইরাস	-9.63121
▁কবির	-9.63128
▁tools	-9.63155
▁তারকা	-9.63157
▁River	-9.63172
১৪	-9.63224
It	-9.63227
▁অস্ত্র	-9.63336
▁International	-9.63365
▁সাকিব	-9.63388
দা	-9.63405
▁weather	-9.63507
▁members	-9.6353
▁County	-9.63556
▁cannot	-9.63602
▁itself	-9.63726
ar	-9.63755
▁spread	-9.63767
▁clear	-9.63781
no	-9.63787
▁October	-9.63838
▁management	-9.63925
▁পণ্য	-9.63933
▁x	-9.63966
▁self	-9.63976
▁industry	-9.64151
▁try	-9.64188
▁numbers	-9.64232
েই	-9.64248
▁অ্যান্ড	-9.64256
▁লক্ষ্য	-9.64258
▁turn	-9.64299
▁service	-9.64317
▁বাংলাদেশি	-9.64369
et	-9.64397
▁greater	-9.6447
▁নিয়মিত	-9.64602
▁reported	-9.64619
▁pm	-9.64692
▁sub	-9.64727
▁books	-9.64782
▁events	-9.64822
▁পি	-9.64871
▁doesn	-9.64886
▁ধর্ষণ	-9.64889
▁শীর্ষ	-9.6504
▁পেতে	-9.65074
▁writing	-9.65097
▁পরবর্তী	-9.65313
▁পুরো	-9.65386
তার	-9.65401
▁সন্ধ্যায়	-9.65595
▁বিচার	-9.65627
▁share	-9.65649
▁হিসাবে	-9.6565
▁music	-9.65684
ির	-9.65737
ne	-9.65744
▁summer	-9.65806
▁দলে	-9.65948
▁complex	-9.65973
▁Europe	-9.65988
u	-9.66032
▁car	-9.66042
▁necessary	-9.66096
▁প্রবেশ	-9.66099
▁tests	-9.66202
▁getting	-9.66228
▁প্রকাশের	-9.66303
▁teachers	-9.6633
▁Daily	-9.66375
▁কর্মসূচি	-9.6643
▁জি	-9.66479
▁led	-9.66483
মি	-9.66533
ডি	-9.66684
▁sleep	-9.66759
▁অনুষ্ঠান	-9.66776
▁probably	-9.66796
▁nature	-9.66804
▁written	-9.66923
▁Day	-9.66958
▁যদিও	-9.66967
▁December	-9.67189
▁Read	-9.6719
de	-9.67198
ওসি	-9.67204
▁ভাবে	-9.67292
▁আমাকে	-9.67293
▁continue	-9.67362
▁থাকেন	-9.67661
▁collection	-9.67672
▁wind	-9.67708
▁First	-9.67715
▁build	-9.67757
▁নির্মাণ	-9.67786
ch	-9.67898
▁সন্তান	-9.67909
▁::	-9.67961
▁Our	-9.67997
▁মিনিট	-9.68042
▁inside	-9.68054
▁যেখানে	-9.68096
কারী	-9.68166
▁determine	-9.68167
▁পেয়েছেন	-9.68199
▁তিনটি	-9.68208
▁big	-9.68234
▁বিনোদন	-9.68264
পি	-9.68311
▁৪০	-9.68361
▁ফেলে	-9.68376
▁সংগঠনের	-9.68618
▁strong	-9.68652
আ	-9.6866
▁included	-9.68724
▁নেওয়ার	-9.68785
▁কেজি	-9.68797
▁আই	-9.68977
▁তাতে	-9.68981
▁নিয়েছেন	-9.68989
▁সম্মেলন	-9.69078
▁আদালতের	-9.6913
▁এছাড়াও	-9.69177
নে	-9.69217
▁structure	-9.69264
▁original	-9.69265
▁গিয়েছে	-9.69267
▁প্রতিবেদন	-9.69324
▁ধান	-9.69382
▁sense	-9.69551
▁আনা	-9.69573
▁মালিক	-9.69613
▁sites	-9.69637
▁African	-9.69642
৬	-9.69647
▁ফের	-9.69681
il	-9.69688
▁চিকিৎসাধীন	-9.69695
▁দশমিক	-9.69813
▁forms	-9.69935
▁February	-9.69936
০০	-9.70006
▁বৃদ্ধি	-9.70008
▁পাকিস্তান	-9.70061
▁standard	-9.70188
▁জরুরি	-9.70236
▁British	-9.70242
▁লোকজন	-9.70243
▁আওয়ামীলীগ	-9.70304
▁কোভিড	-9.70398
▁চায়	-9.70403
▁মুক্তিযোদ্ধা	-9.70422
▁b	-9.70442
▁দলীয়	-9.70492
▁baby	-9.70543
▁focus	-9.70551
▁গুরুতর	-9.70629
▁analysis	-9.70634
▁nearly	-9.70656
▁অনেকেই	-9.70698
▁August	-9.70708
▁takes	-9.70722
▁চা	-9.70842
▁নেয়	-9.70852
▁flu	-9.70854
১৫	-9.70862
▁looking	-9.70921
▁দোয়া	-9.70932
▁His	-9.71049
▁Washington	-9.71157
▁humans	-9.71239
▁Americans	-9.71244
▁বলতে	-9.71327
▁অব্যাহত	-9.71336
▁যুবক	-9.71339
য়া	-9.71388
▁mean	-9.71409
▁money	-9.71454
▁পেয়েছে	-9.71488
ন্ত	-9.71496
▁ধর্ম	-9.71595
w	-9.71615
▁popular	-9.71621
▁methods	-9.71661
▁face	-9.71694
▁ঈদ	-9.71703
▁বৈঠক	-9.71816
▁যাতে	-9.71828
উ	-9.71836
▁এদিন	-9.71855
▁helps	-9.71872
▁Medicine	-9.71929
ta	-9.71933
▁bacteria	-9.7219
▁Now	-9.72192
▁Medical	-9.72368
▁খুলনা	-9.72478
▁families	-9.72482
▁birds	-9.72509
চ	-9.72583
▁thing	-9.72646
▁upon	-9.72673
▁বোর্ড	-9.7274
▁believe	-9.72744
▁object	-9.72785
▁outside	-9.72843
▁November	-9.72903
▁action	-9.72941
▁terms	-9.72988
▁kind	-9.72998
▁রংপুর	-9.73008
▁বেড়েছে	-9.73018
▁active	-9.73049
year	-9.73061
▁স্টাফ	-9.73125
▁পাকিস্তানের	-9.7315
▁check	-9.73186
▁step	-9.73206
▁ব্যাপক	-9.73227
▁approach	-9.73251
১৭	-9.7327
▁benefits	-9.7327
▁জড়িত	-9.73375
নো	-9.73435
▁trees	-9.73467
▁political	-9.73474
▁জমা	-9.73547
২১	-9.73583
▁ধারণা	-9.73679
▁অভিনেতা	-9.73988
▁স্বাভাবিক	-9.7403
▁ধর্ষণের	-9.74191
▁করায়	-9.74207
▁d	-9.74219
▁অধিকার	-9.7423
ul	-9.7427
▁বাকি	-9.74358
ma	-9.74467
▁personal	-9.74534
রে	-9.74537
▁পালিয়ে	-9.74625
▁business	-9.74651
▁ছবিতে	-9.74662
▁contains	-9.74704
ent	-9.74716
▁ইসলামের	-9.7482
▁During	-9.7485
▁দিলেন	-9.74867
▁winter	-9.74883
গুলি	-9.74912
os	-9.75028
▁m	-9.75038
ভি	-9.75056
▁প্রথমে	-9.75065
▁instead	-9.75071
▁wide	-9.75084
▁larger	-9.75089
ally	-9.75091
▁ট্রাক	-9.75123
▁Museum	-9.75131
▁sound	-9.75154
▁address	-9.75177
▁De	-9.75226
▁behavior	-9.75261
▁largest	-9.75277
▁ঘর	-9.75351
te	-9.75352
▁communities	-9.75377
▁লেখা	-9.75382
▁প্রতিটি	-9.75425
J	-9.75449
▁ফুটবল	-9.75463
▁China	-9.75476
▁পাওয়ার	-9.75478
▁জামিন	-9.75495
▁eating	-9.75507
▁রোগী	-9.7556
▁অন্তত	-9.75626
This	-9.75836
ra	-9.75937
▁weeks	-9.75944
▁Use	-9.75984
৭	-9.76125
▁অপরাধ	-9.76138
▁জায়গা	-9.7614
▁virus	-9.76163
▁কার্যালয়ে	-9.76231
▁জরিমানা	-9.7631
▁avoid	-9.76326
▁রিপোর্টার	-9.76375
▁প্র	-9.76403
ine	-9.76415
▁থাকলে	-9.76416
▁file	-9.76445
▁attention	-9.76462
▁সমিতির	-9.76474
▁ভেঙে	-9.76492
▁পরিমাণ	-9.76493
▁আসার	-9.76573
▁বৈঠকে	-9.76575
▁ঘণ্টা	-9.76583
▁month	-9.76585
▁প্রতিমন্ত্রী	-9.76592
▁answer	-9.76627
▁Since	-9.76682
▁findings	-9.76802
▁আইনজীবী	-9.76823
▁India	-9.76826
▁সংশ্লিষ্ট	-9.76918
▁minutes	-9.76971
▁পরিবহন	-9.77049
তি	-9.77068
▁পরামর্শ	-9.77235
▁subject	-9.77258
▁©	-9.77281
▁ভাইস	-9.77288
age	-9.77297
৮	-9.77327
▁বিকেল	-9.77364
▁শ	-9.77437
▁generally	-9.7745
▁বিজ্ঞপ্তিতে	-9.77467
▁চলাচল	-9.77506
one	-9.77617
▁জায়গায়	-9.77631
▁প্রেস	-9.77651
▁শহর	-9.77656
▁Africa	-9.77667
▁বাহিনীর	-9.77697
▁reason	-9.77708
পা	-9.77708
২৮	-9.77731
▁লক্ষ	-9.77743
▁রানের	-9.77807
news	-9.77845
▁পরিচয়	-9.77876
▁ভুল	-9.77945
▁Children	-9.77996
▁নৌকা	-9.78031
▁fire	-9.78057
▁খেলতে	-9.78079
la	-9.7812
▁individuals	-9.78137
▁উঠেছে	-9.78148
▁third	-9.78172
▁তাঁকে	-9.7825
▁Online	-9.78324
▁objects	-9.78335
▁safe	-9.78351
▁অর্জন	-9.78404
▁Association	-9.78452
▁etc	-9.78489
▁মাস্ক	-9.78494
ষ	-9.7852
▁জাতির	-9.78531
▁European	-9.78538
▁leading	-9.78555
▁interest	-9.78577
▁সা	-9.7862
▁একাধিক	-9.78626
▁দীর্ঘদিন	-9.78639
গুলোর	-9.78658
▁বিদ্যুৎ	-9.78699
▁compared	-9.78716
▁Also	-9.78728
me	-9.78754
▁বয়স	-9.78759
▁Bangladesh	-9.78797
land	-9.7882
▁ব্যাংকের	-9.78842
▁fall	-9.78854
▁প্রস্তাব	-9.78857
▁particularly	-9.78875
like	-9.78912
২৩	-9.78964
অ	-9.79012
▁international	-9.79023
▁older	-9.79035
▁night	-9.79043
▁appear	-9.79181
▁matter	-9.79186
▁serious	-9.79215
▁born	-9.79412
▁rest	-9.79437
▁বরিশাল	-9.79457
▁professor	-9.79461
▁বিদ্যালয়ের	-9.79496
▁house	-9.79512
▁হাসিনার	-9.79513
কৃত	-9.79633
▁require	-9.7974
▁বয়সী	-9.79785
▁add	-9.79786
ized	-9.79805
▁cut	-9.79853
▁নির্বাচনের	-9.79856
▁মহাসচিব	-9.79906
▁সাংগঠনিক	-9.79912
▁মানববন্ধন	-9.79945
ant	-9.79972
▁Canada	-9.80023
▁আসনের	-9.80051
▁০৯	-9.80089
▁বাসায়	-9.80154
▁কক্সবাজার	-9.80259
▁sugar	-9.80289
▁doing	-9.80324
১৬	-9.80373
▁যেমন	-9.80392
▁Water	-9.80396
▁severe	-9.80438
▁লাল	-9.80445
▁লক্ষ্যে	-9.80517
▁ম্যাচের	-9.80541
▁center	-9.80588
▁Each	-9.80606
▁প্রশাসনের	-9.80708
▁স্থানীয়রা	-9.80755
▁easily	-9.80817
▁চন্দ্র	-9.80883
▁Act	-9.80906
▁Today	-9.80992
▁cold	-9.81027
▁contain	-9.81063
▁search	-9.81093
ছেন	-9.81147
▁রানে	-9.81163
▁বসে	-9.81248
▁simply	-9.81273
▁tell	-9.81319
less	-9.81426
▁রি	-9.81509
▁মু	-9.81565
▁President	-9.81646
Y	-9.81708
▁অনুমোদন	-9.81727
▁যাত্রী	-9.81736
▁entire	-9.81737
▁quickly	-9.81755
▁তালিকা	-9.81774
▁company	-9.81796
▁affect	-9.81823
▁উদ্যোগ	-9.81842
▁culture	-9.8191
▁People	-9.82032
▁#	-9.82066
▁ইনচার্জ	-9.82125
=	-9.82169
▁বছরে	-9.82171
▁discovered	-9.82176
▁mass	-9.82323
▁সেনা	-9.82358
▁যুক্ত	-9.82372
▁begin	-9.82388
▁recently	-9.82406
▁কাজের	-9.82497
▁সিনেমা	-9.82542
▁section	-9.82819
▁তাঁদের	-9.82922
▁San	-9.82942
▁সহযোগিতা	-9.82985
▁movement	-9.8301
▁গঠন	-9.83016
▁true	-9.83072
▁বিরোধী	-9.83077
▁ideas	-9.83092
▁rates	-9.83109
▁follow	-9.83171
▁সিরিজ	-9.83228
▁মুখোমুখি	-9.83251
▁federal	-9.83263
▁additional	-9.83307
▁product	-9.83362
▁link	-9.83363
▁কমিশন	-9.83368
▁মধ্যেই	-9.83381
▁থাকলেও	-9.83445
▁located	-9.83465
▁আদেশ	-9.83524
▁পৌরসভার	-9.8354
▁লকডাউন	-9.83573
▁City	-9.83574
▁কণ্ঠ	-9.83613
▁পৌঁছে	-9.83669
▁পদক্ষেপ	-9.83746
▁ভাইরাস	-9.83757
▁Web	-9.83779
▁বাসিন্দা	-9.83796
▁unique	-9.838
▁About	-9.83812
▁map	-9.83849
▁টিম	-9.83869
▁অন্যদিকে	-9.83989
িয়ে	-9.8399
▁অবৈধ	-9.84007
id	-9.84118
▁behind	-9.8412
▁কা	-9.84128
▁পারবে	-9.84136
▁record	-9.84151
lo	-9.84268
▁সংক্রান্ত	-9.84317
▁যাচ্ছেন	-9.84521
▁নিন	-9.84575
▁response	-9.846
▁রোহিঙ্গা	-9.84683
▁primary	-9.84747
▁Because	-9.8475
▁web	-9.84757
▁আসতে	-9.84763
▁exposure	-9.84867
▁position	-9.84918
▁কোচ	-9.85173
গুলোতে	-9.85332
▁চুক্তি	-9.85426
▁ফায়ার	-9.8547
▁আয়োজনে	-9.85488
▁ইন	-9.85494
▁কিংবা	-9.85542
▁teaching	-9.8561
▁বাদ	-9.85613
▁...	-9.85654
▁সুবিধা	-9.85669
▁beginning	-9.85817
▁ভাল	-9.85945
▁Why	-9.85954
১৩	-9.85973
ie	-9.86016
▁চলচ্চিত্র	-9.8602
▁মাথায়	-9.86135
২৬	-9.86154
▁central	-9.86175
▁birth	-9.86222
▁Great	-9.86235
▁আন্দোলন	-9.86308
▁বই	-9.86337
▁বাহিনী	-9.86382
▁points	-9.86398
▁কু	-9.8643
▁প্রাণ	-9.86444
▁সৈয়দ	-9.86514
▁difference	-9.86527
▁Published	-9.86541
▁বিচারপতি	-9.86562
▁ancient	-9.86569
▁allows	-9.86581
▁দেবে	-9.86642
▁protection	-9.86672
▁Space	-9.86712
▁প্রতিবাদ	-9.8683
▁বেসরকারি	-9.86831
▁চালক	-9.86845
▁dry	-9.86896
▁someone	-9.86902
▁সাহায্য	-9.86928
▁ভূমিকা	-9.87171
▁features	-9.87202
▁French	-9.87324
▁কারাগারে	-9.87346
▁উচিত	-9.87399
▁বিভাগে	-9.8744
im	-9.87467
এম	-9.87468
tic	-9.87615
▁emissions	-9.87625
ce	-9.8766
▁স্থান	-9.87664
▁ঈদের	-9.8767
▁আওতায়	-9.87681
▁DNA	-9.87701
▁leaves	-9.87833
▁MD	-9.87849
ড়	-9.87868
৪০	-9.87891
▁planet	-9.87998
▁established	-9.88011
▁কাজী	-9.88015
▁প্রতিবেদনে	-9.88119
▁দোকান	-9.88147
▁শুনানি	-9.88149
৩৫	-9.88155
ur	-9.88165
▁গভীর	-9.88173
▁মাছ	-9.88195
▁poor	-9.88282
▁নেতৃত্ব	-9.88318
▁তারপর	-9.88407
কি	-9.88501
▁traditional	-9.88538
▁ওবায়দুল	-9.88544
▁King	-9.88564
▁প্রচার	-9.88609
▁আরব	-9.88624
▁পবিত্র	-9.88641
▁বাতিল	-9.88649
▁চাইলে	-9.88701
▁গোপন	-9.88702
▁আবারও	-9.88719
▁রাজ্য	-9.88782
▁started	-9.88784
টিতে	-9.88814
▁mind	-9.88815
ty	-9.88839
▁efforts	-9.88859
▁La	-9.88942
▁ট্রাম্প	-9.88942
▁কর্মী	-9.88945
▁উ	-9.88982
▁performance	-9.88984
▁fuel	-9.88992
▁শোক	-9.89015
▁Of	-9.8903
▁speed	-9.89153
▁হঠাৎ	-9.89165
▁কেটে	-9.89217
▁media	-9.8925
▁বিস্তারিত	-9.89253
▁event	-9.8934
▁billion	-9.89362
▁write	-9.89395
▁কঠোর	-9.89448
▁বিজেপি	-9.89453
▁পথ	-9.89456
▁patient	-9.89475
▁Journal	-9.89571
▁nation	-9.8959
▁HIV	-9.89618
▁stop	-9.89684
▁supply	-9.89787
▁রাজধানী	-9.89806
▁flow	-9.89834
▁bring	-9.89863
▁meaning	-9.89913
U	-9.89919
▁critical	-9.90024
▁সন্ধ্যা	-9.90055
▁although	-9.9024
▁ভাগ	-9.90263
▁সবাইকে	-9.90308
▁ফারুক	-9.90356
▁genetic	-9.90359
▁তেল	-9.90382
▁আব্দুর	-9.90397
স্থ	-9.90417
▁projects	-9.90422
▁দিক	-9.90429
▁occurs	-9.90446
▁পূর্বাহ্ণ	-9.90488
▁মন	-9.90537
▁held	-9.90549
▁front	-9.90558
▁length	-9.90581
▁॥	-9.90633
▁পিতা	-9.90663
▁directly	-9.90691
▁lack	-9.90705
▁করোনাভাইরাসের	-9.90708
▁Society	-9.90787
▁উপহার	-9.90796
▁protein	-9.90808
▁পরিদর্শন	-9.90824
▁চীনের	-9.90898
▁Students	-9.90907
▁পরিবেশ	-9.90926
▁হোম	-9.9094
▁force	-9.90971
▁নুরুল	-9.90987
▁ensure	-9.91014
▁শরীরে	-9.91021
স্ট	-9.91066
▁season	-9.911
▁প্রয়োজনীয়	-9.91168
▁College	-9.91316
▁Co	-9.91406
ir	-9.91416
▁সম্ভাবনা	-9.91454
▁identify	-9.91567
টোয়েন্টি	-9.91586
▁নিয়ন্ত্রণে	-9.91599
▁fruit	-9.91607
▁useful	-9.91612
▁সংস্থার	-9.91684
০	-9.91705
▁অনেকে	-9.91764
▁মুজিবুর	-9.91803
▁ডলার	-9.91808
▁stress	-9.91982
son	-9.92036
▁জিয়ার	-9.92073
▁পাবেন	-9.92114
▁lines	-9.92132
▁Not	-9.92142
▁তালিকায়	-9.92171
▁highly	-9.92195
▁শিক্ষার্থীরা	-9.92244
▁আর্থিক	-9.92293
▁নজরুল	-9.92425
whose	-9.92437
▁লাভ	-9.9244
▁এরই	-9.925
▁আসেন	-9.92517
▁hot	-9.92577
▁Is	-9.92595
▁Last	-9.92601
▁প্রকল্প	-9.9261
In	-9.92636
▁earth	-9.92693
▁Texas	-9.92699
▁শারীরিক	-9.9273
▁মিছিল	-9.92759
▁বিশ্বকাপ	-9.92773
▁শুভ	-9.92818
▁সদস্যদের	-9.92849
২৭	-9.92879
▁love	-9.92956
▁multiple	-9.92966
দিন	-9.93018
▁গবেষণা	-9.93043
▁Park	-9.93062
▁medicine	-9.93232
▁।।	-9.93237
▁চাল	-9.93248
▁theory	-9.93261
▁পার	-9.93271
খ	-9.93296
▁please	-9.93301
▁quite	-9.93339
▁লোক	-9.93351
▁currently	-9.93376
▁বে	-9.9343
▁কমে	-9.93478
▁positive	-9.9352
▁chemical	-9.93546
▁ময়মনসিংহ	-9.93555
▁testing	-9.93585
▁পরীক্ষায়	-9.936
▁ব	-9.93601
▁পার্টির	-9.93616
▁স্বপ্ন	-9.93634
▁হামলায়	-9.93645
▁code	-9.93646
▁প্রচ্ছদ	-9.93664
▁Please	-9.93787
▁receive	-9.93836
▁drug	-9.93863
▁anti	-9.93871
▁drugs	-9.93912
▁অনুরোধ	-9.93915
:||	-9.93979
▁টানা	-9.94012
▁জিয়া	-9.94079
▁কাউন্সিলর	-9.94147
be	-9.9415
▁date	-9.94159
।"	-9.94181
▁affected	-9.94192
▁south	-9.94192
▁Sun	-9.94223
term	-9.94355
▁software	-9.9437
▁ছাত্রলীগ	-9.94372
▁আসলে	-9.94377
▁deep	-9.94405
▁আজকের	-9.94449
▁অভিযানে	-9.94507
▁সার্ভিস	-9.94551
▁বলছে	-9.94555
▁Once	-9.94583
▁policy	-9.94592
▁north	-9.94597
▁গোলাম	-9.94604
▁বহু	-9.94655
▁চলবে	-9.947
▁ask	-9.94837
▁Internet	-9.94852
▁society	-9.94892
▁let	-9.94903
▁খেলার	-9.94918
line	-9.94932
▁শিল্প	-9.94993
ak	-9.94993
▁network	-9.95007
▁eyes	-9.95023
▁remains	-9.95031
▁নির্যাতন	-9.95041
শে	-9.95044
ler	-9.95098
▁খুবই	-9.95127
▁England	-9.95144
▁smaller	-9.95251
ous	-9.95265
▁মুসলিম	-9.95423
▁হুমকি	-9.95446
▁প্রবাসী	-9.95456
▁middle	-9.95604
▁অভিযুক্ত	-9.95622
থ	-9.95656
▁গল্প	-9.95701
▁বিজ্ঞান	-9.95735
▁বঙ্গবন্ধুর	-9.95797
▁মানুষকে	-9.95802
▁চলমান	-9.9587
▁mouth	-9.95915
▁একটু	-9.95953
▁ছাড়াও	-9.95965
▁died	-9.95975
▁আলীর	-9.95976
▁Can	-9.96037
কালে	-9.96043
ro	-9.96069
▁teacher	-9.96129
▁ব্যাট	-9.96159
▁কোম্পানি	-9.96174
▁game	-9.96182
▁নিহতের	-9.96187
▁নিজেকে	-9.96212
▁দুর্ঘটনা	-9.96237
▁শুভেচ্ছা	-9.96248
▁আমিন	-9.96258
▁goal	-9.96287
▁hands	-9.96295
ad	-9.96395
▁চুরি	-9.9647
▁চীন	-9.96484
▁consider	-9.96486
আর	-9.96491
▁জনগণের	-9.96529
▁treat	-9.96536
▁রাজনীতি	-9.9656
▁আয়	-9.96569
নের	-9.96591
▁fat	-9.96613
▁market	-9.96651
▁responsible	-9.96704
▁বাড়ছে	-9.9678
৫০	-9.96791
▁ব্যবসা	-9.96811
▁told	-9.96881
▁দাস	-9.9691
▁Mar	-9.96917
▁lost	-9.97091
▁অপর	-9.97096
▁পূর্বাহ্ন	-9.97102
▁ইকবাল	-9.97114
▁Australia	-9.97125
▁মাধ্যমিক	-9.97176
ization	-9.97178
▁কেন্দ্রে	-9.97382
ছ	-9.97423
▁n	-9.97528
▁ক্ষমতা	-9.97553
ated	-9.97574
▁সোশ্যাল	-9.97658
▁ডেইলি	-9.97669
▁measure	-9.97778
▁ভ্যাকসিন	-9.9784
▁f	-9.97848
▁Service	-9.97876
প্র	-9.97944
▁শাখার	-9.98005
ড়া	-9.98043
▁করিম	-9.98097
▁professional	-9.98134
▁member	-9.98217
ac	-9.9825
▁appropriate	-9.98289
▁clean	-9.98378
▁native	-9.98416
▁applications	-9.98433
▁dog	-9.98434
▁রোগ	-9.98435
▁ভাইরাল	-9.98512
▁কিছুটা	-9.98622
হা	-9.98669
▁বলছেন	-9.98689
▁radiation	-9.98705
▁return	-9.98787
▁ডিজিটাল	-9.9879
▁Library	-9.98831
▁দিলে	-9.98863
মান	-9.98864
est	-9.98947
▁নিষেধাজ্ঞা	-9.98948
▁মির্জা	-9.98997
▁০৮	-9.99091
▁techniques	-9.99114
▁চূড়ান্ত	-9.99157
▁expected	-9.9918
▁reach	-9.99197
লেন	-9.99215
▁typically	-9.9925
▁regular	-9.99275
▁ডাক	-9.99319
▁seems	-9.9933
▁সমাজ	-9.99369
▁সামরিক	-9.99384
▁জমি	-9.9939
▁Even	-9.99404
ni	-9.99409
▁memory	-9.99433
▁named	-9.99441
▁নদী	-9.9949
▁application	-9.99524
▁লেনদেন	-9.99539
▁offer	-9.99619
▁essential	-9.9963
▁দিচ্ছে	-9.99646
▁রক্ষা	-9.99678
▁Al	-9.99683
mo	-9.99724
▁ক্লাব	-9.9974
▁version	-9.99806
▁সেটি	-9.99811
▁increasing	-9.99858
য়ার	-9.9987
ায়	-9.99871
▁বাদী	-9.99901
▁কিলোমিটার	-9.99973
২৯	-9.99992
▁মূল্য	-10.0002
▁হা	-10.001
▁সোহেল	-10.0011
▁হোসেনের	-10.0015
▁কালের	-10.0018
▁resource	-10.0023
▁location	-10.0028
▁waste	-10.003
▁নূর	-10.0031
ri	-10.0037
৯	-10.0042
):	-10.0069
▁articles	-10.0069
▁spring	-10.0071
▁received	-10.0075
▁standards	-10.0081
▁ম্যাজিস্ট্রেট	-10.0083
▁Press	-10.0083
▁dark	-10.0084
▁বিকাল	-10.0091
▁নেয়ার	-10.0094
▁tissue	-10.0096
▁স্থগিত	-10.0098
of	-10.0101
▁star	-10.0102
▁অনুমতি	-10.0106
▁Information	-10.0107
▁offers	-10.0111
▁অসুস্থ	-10.0114
▁gives	-10.0115
▁suggests	-10.0116
সভাপতি	-10.0118
মে	-10.0122
গা	-10.0123
▁দেব	-10.0124
▁shape	-10.0127
▁জল	-10.0129
▁My	-10.0134
▁tool	-10.0134
▁German	-10.0139
ol	-10.0142
▁acid	-10.0143
▁picture	-10.0151
▁temperatures	-10.0154
▁surgery	-10.0154
▁ocean	-10.0156
▁কয়েকজন	-10.0158
▁David	-10.0159
▁কৃষক	-10.0161
▁এবারের	-10.0163
০১	-10.0171
▁আনন্দ	-10.0174
▁কুমিল্লা	-10.0175
▁বীর	-10.0175
▁পুত্র	-10.018
▁importance	-10.0186
▁প্রশিক্ষণ	-10.0187
▁+	-10.0187
▁II	-10.0188
▁তাদেরকে	-10.0188
▁email	-10.0191
▁সামগ্রী	-10.0193
▁General	-10.0197
▁soon	-10.0204
▁০১	-10.0205
▁blue	-10.0206
▁al	-10.0207
▁সাল	-10.0209
▁bird	-10.0211
▁commonly	-10.0216
▁শহরে	-10.0223
▁আক্রান্তের	-10.0224
াল	-10.0224
সে	-10.0227
▁breast	-10.0232
▁Bengali	-10.0244
▁devices	-10.0248
▁places	-10.025
▁যুক্তরাষ্ট্র	-10.0256
▁পুরুষ	-10.0256
▁উৎসব	-10.0258
▁মাওলানা	-10.0261
▁তাঁরা	-10.0262
▁বাধা	-10.0265
সের	-10.0265
▁মিয়ার	-10.0266
▁প্রতিবাদে	-10.0269
▁যুব	-10.027
▁সংঘর্ষে	-10.0277
▁account	-10.0279
▁আম	-10.028
▁সাতক্ষীরা	-10.0282
▁private	-10.0291
ting	-10.0295
▁user	-10.0296
▁meet	-10.0301
▁elements	-10.0311
▁oxygen	-10.0313
▁২০১৫	-10.0313
▁ত্রাণ	-10.0315
▁Then	-10.0316
▁Latest	-10.0317
▁tend	-10.0317
▁ক্ষতি	-10.0318
▁attack	-10.0321
▁পারেনি	-10.0322
▁শ্রদ্ধা	-10.0327
ীর	-10.0335
▁মিডিয়া	-10.034
▁কল্যাণ	-10.0341
▁act	-10.0342
▁কিনা	-10.0342
▁talk	-10.0343
▁গোলে	-10.0344
▁cover	-10.0348
▁direct	-10.035
un	-10.0355
▁mother	-10.0356
▁ঘটনাটি	-10.0357
▁খানের	-10.0358
▁scale	-10.0361
ner	-10.0372
▁Program	-10.0375
▁চলেছে	-10.0378
▁১০০	-10.0382
▁তরুণ	-10.0385
>	-10.0388
▁educational	-10.0389
তেই	-10.0391
▁সফর	-10.0394
▁earlier	-10.0397
▁খোলা	-10.0399
▁করোনাভাইরাসে	-10.04
▁আট	-10.0401
▁ঘরের	-10.0406
▁বৃষ্টি	-10.0408
▁ইমরান	-10.0417
▁rise	-10.0423
▁চিকিৎসার	-10.0429
▁requires	-10.0433
▁immune	-10.0433
▁ক্রীড়া	-10.0433
▁৬০	-10.0435
▁save	-10.0443
ga	-10.0444
▁দিনাজপুর	-10.0446
▁goes	-10.045
▁ভাড়া	-10.0452
▁reports	-10.0454
▁স্বীকার	-10.0463
▁করেছিল	-10.0464
▁নাগরিক	-10.0471
▁নামাজ	-10.0482
▁ব্যক্তির	-10.0487
▁vision	-10.0488
ists	-10.049
▁দ্য	-10.0492
▁আলো	-10.0494
কো	-10.0502
▁mission	-10.0502
▁stories	-10.0504
ating	-10.0524
▁সপ্তাহ	-10.0526
▁প্রকল্পের	-10.053
▁তৃণমূল	-10.053
▁guide	-10.0534
▁কলকাতা	-10.0538
▁পাবে	-10.0538
▁জয়ের	-10.0538
▁কার্যকর	-10.0541
▁limited	-10.0545
▁আলমগীর	-10.0545
▁hope	-10.0548
▁অবশ্য	-10.055
▁BD	-10.0551
▁জেনে	-10.0555
▁বোর্ডের	-10.0558
ley	-10.0568
▁signs	-10.0569
শি	-10.0571
▁conservation	-10.0574
▁দূর	-10.0574
▁job	-10.0583
▁released	-10.0588
নগর	-10.0588
▁appears	-10.0598
by	-10.06
▁East	-10.0601
▁Over	-10.0604
েও	-10.0606
▁নিয়ম	-10.0606
▁প্রতিষ্ঠানের	-10.0607
j	-10.0609
▁দুর্ঘটনায়	-10.0612
▁won	-10.0613
▁লিখেছেন	-10.0613
ard	-10.0614
▁বিদ্যালয়	-10.0619
▁হাজির	-10.062
▁values	-10.0626
▁ব্যক্তিগত	-10.0628
▁bad	-10.0631
▁toward	-10.0637
▁processes	-10.0641
▁প্রভাব	-10.065
▁সরবরাহ	-10.0664
▁device	-10.0666
▁classroom	-10.0666
▁Energy	-10.0666
name	-10.0667
▁সেলিম	-10.0669
▁town	-10.0672
▁সিরিজের	-10.0673
▁review	-10.068
▁got	-10.0684
▁i	-10.0684
▁release	-10.0685
▁pay	-10.0686
▁click	-10.0692
৪৫	-10.07
ছি	-10.0704
▁বিদায়	-10.0705
▁decision	-10.0708
▁ভয়াবহ	-10.071
▁খুলে	-10.0714
▁forest	-10.0723
০৯	-10.0737
▁wild	-10.0739
time	-10.0743
espite	-10.0748
▁Project	-10.0749
▁High	-10.0751
▁আত্মহত্যা	-10.0753
▁গোয়েন্দা	-10.0753
▁brought	-10.0756
▁জীবনের	-10.0757
▁অসহায়	-10.0757
▁বিজয়	-10.0762
▁Indian	-10.0772
ance	-10.0772
▁৩৫	-10.0787
▁প্রশ্নের	-10.0789
▁সতর্ক	-10.0792
▁নং	-10.0808
▁asked	-10.0811
▁survey	-10.0812
▁mental	-10.0812
▁ফখরুল	-10.0817
▁historical	-10.082
▁moving	-10.0824
▁providing	-10.0824
for	-10.083
▁Mexico	-10.0837
▁হোক	-10.084
▁equipment	-10.0841
রু	-10.0841
▁Go	-10.085
▁প্রসঙ্গে	-10.0854
▁interesting	-10.0862
▁Click	-10.0864
▁sent	-10.0867
▁সফল	-10.0869
▁আইনে	-10.087
গত	-10.0872
▁explore	-10.0873
▁benefit	-10.0874
▁বক্তব্যে	-10.0876
▁লা	-10.0876
শা	-10.0877
▁উন্নত	-10.0887
▁সফরে	-10.0895
▁rare	-10.0896
▁সীমান্ত	-10.0904
▁send	-10.0905
▁bit	-10.0907
▁room	-10.0907
▁degrees	-10.0912
ish	-10.0913
▁previous	-10.0913
▁উদ্দেশ্যে	-10.0914
▁বিশিষ্ট	-10.0915
▁Food	-10.0918
▁moon	-10.092
▁Public	-10.0921
৩২	-10.0922
▁military	-10.0922
▁infections	-10.0924
▁মুক্ত	-10.0934
▁electricity	-10.0937
▁নিখোঁজ	-10.0937
▁বন্ধু	-10.0944
▁fast	-10.095
▁fun	-10.0956
▁base	-10.0963
▁Using	-10.0963
▁টাইমস	-10.0966
▁ঋণ	-10.0967
ইন	-10.0968
▁disorder	-10.0968
▁river	-10.097
▁costs	-10.0972
▁names	-10.0973
▁experts	-10.0974
▁House	-10.0976
▁পালিত	-10.0981
▁thus	-10.0984
▁নদীর	-10.0985
▁construction	-10.0988
▁সপ্তাহে	-10.0992
▁trying	-10.0995
▁আসবে	-10.0997
▁রাসেল	-10.0998
▁Technology	-10.0999
▁therapy	-10.1004
▁প	-10.1004
▁নগরীর	-10.1005
°	-10.1007
▁চালায়	-10.1007
▁showed	-10.1008
▁পদ	-10.101
▁ঘুরে	-10.1016
▁details	-10.1024
▁দাঁড়িয়েছে	-10.1027
▁thinking	-10.1029
▁জবাবে	-10.1029
▁এত	-10.103
▁creating	-10.104
▁journal	-10.1042
▁overall	-10.1043
▁শত	-10.1043
▁suggest	-10.1049
মন্ত্রী	-10.105
li	-10.1051
▁অংশগ্রহণ	-10.1053
▁ওয়ানডে	-10.1055
▁success	-10.1059
▁formed	-10.1067
▁মায়ের	-10.1067
▁জাহাঙ্গীর	-10.1067
▁বিভাগীয়	-10.1077
▁gene	-10.1082
▁অধ্যক্ষ	-10.1084
▁অথবা	-10.1084
▁went	-10.1084
▁successful	-10.1088
▁ইয়াবা	-10.1099
day	-10.1101
▁Their	-10.1104
▁Find	-10.1104
▁Note	-10.1115
▁অতিথির	-10.1121
▁ডট	-10.113
▁পোশাক	-10.1131
▁vaccine	-10.1136
▁নিরাপদ	-10.1136
ভা	-10.1137
▁mid	-10.1139
▁identified	-10.1154
▁আঘাত	-10.1155
▁রে	-10.1158
▁কর্মকর্তারা	-10.1162
ah	-10.1164
▁fields	-10.1167
▁adult	-10.1176
▁হাই	-10.1177
▁ফেসবুকে	-10.1177
▁ভাষা	-10.1182
▁ক্রিকেটার	-10.1185
▁০৭	-10.1188
▁পড়েন	-10.1189
▁companies	-10.119
▁আনোয়ার	-10.119
▁এমনকি	-10.1195
▁মাঠ	-10.1212
▁cultural	-10.1212
▁রশিদ	-10.1212
▁নুর	-10.1213
▁unit	-10.1219
▁শিশুর	-10.1223
▁জব্দ	-10.1225
▁নারীর	-10.1233
▁অবশেষে	-10.1234
▁পশ্চিম	-10.1235
▁নাকি	-10.1245
▁চাকরি	-10.1255
▁rock	-10.1266
▁France	-10.1276
▁Environmental	-10.1276
▁রাস্তায়	-10.1286
▁director	-10.1287
▁patterns	-10.1288
▁Mars	-10.1288
▁chance	-10.1288
▁Or	-10.1292
▁উদযাপন	-10.1296
▁wrote	-10.1297
ca	-10.1308
▁মনোনয়ন	-10.1314
▁beyond	-10.1315
▁isn	-10.1316
▁Sea	-10.1321
▁বিচারক	-10.1323
▁effort	-10.1334
▁www	-10.1335
▁মামুন	-10.1342
▁pages	-10.1343
▁রোগীর	-10.1349
ful	-10.136
▁seem	-10.136
▁remain	-10.1362
▁eight	-10.1364
▁নিষিদ্ধ	-10.1369
▁basis	-10.1369
▁stay	-10.1371
▁placed	-10.1372
▁Researchers	-10.1374
▁ওয়ার্ড	-10.138
▁examples	-10.1383
▁users	-10.139
▁অ্যা	-10.139
▁স্বাধীনতা	-10.1391
▁শক্তিশালী	-10.1396
▁Don	-10.1402
▁rich	-10.1407
▁পৃথিবী	-10.1412
▁piece	-10.1413
▁opportunity	-10.1414
▁০৪	-10.1416
▁sign	-10.1416
▁workers	-10.1421
▁organic	-10.1422
▁সরাসরি	-10.1423
▁এদের	-10.1423
▁আইনের	-10.1423
▁কো	-10.1424
▁যেসব	-10.1425
▁চাপ	-10.1433
▁thousands	-10.1435
▁ফুল	-10.1436
▁অর্থাৎ	-10.1441
▁বিবৃতিতে	-10.1444
▁followed	-10.1447
▁final	-10.1447
▁এসআই	-10.1447
দি	-10.1453
▁মসজিদ	-10.1454
▁wood	-10.146
▁প্রমাণ	-10.1471
▁পড়তে	-10.1475
▁ফি	-10.1476
▁খুন	-10.1481
▁০৫	-10.1482
তো	-10.1486
▁Black	-10.1491
▁plans	-10.1492
▁রাষ্ট্রপতি	-10.1495
▁choose	-10.1496
se	-10.1499
▁treated	-10.1502
▁আলাদা	-10.1503
▁stage	-10.1506
▁Development	-10.1507
▁upper	-10.151
▁dis	-10.1511
▁William	-10.1516
▁০৬	-10.1528
▁নিচে	-10.1528
▁hold	-10.1533
▁পারেননি	-10.1537
▁সঠিক	-10.154
০৫	-10.1542
▁কামনা	-10.1545
দার	-10.1547
▁steps	-10.1547
▁পারি	-10.1548
▁solution	-10.1551
▁hair	-10.1552
);	-10.1553
▁জানুয়ারী	-10.1555
▁digital	-10.1557
▁শুটিং	-10.1559
▁ওষুধ	-10.156
▁London	-10.1561
কু	-10.1562
▁টিভি	-10.1566
▁records	-10.1584
▁প্রস্তুত	-10.1584
▁latest	-10.159
▁নেতৃবৃন্দ	-10.1593
▁ইসলামী	-10.1594
▁০৩	-10.1597
▁commercial	-10.1598
▁property	-10.16
▁relatively	-10.1601
ter	-10.1602
▁ব্যবস্থাপনা	-10.1606
য	-10.1608
০২	-10.1615
▁হস্তান্তর	-10.1616
▁শিশুদের	-10.1617
…	-10.1623
▁সারাদেশে	-10.1625
▁via	-10.1629
▁অবশ্যই	-10.1634
▁ছিলো	-10.1637
▁seven	-10.164
▁anything	-10.1643
▁বিশ্বে	-10.1648
মু	-10.1654
▁running	-10.1659
▁খরচ	-10.166
▁থাকবেন	-10.1663
@	-10.1665
▁শান্তি	-10.1665
▁ফেরার	-10.1666
▁bottom	-10.1679
▁ছুটি	-10.1682
▁regions	-10.1682
▁খেলে	-10.1685
▁bone	-10.1687
▁দুর্নীতি	-10.1689
".	-10.1689
▁Congress	-10.169
▁tips	-10.1695
▁সমাবেশ	-10.1696
▁অনুষ্ঠানের	-10.1697
▁ডটকম	-10.1701
▁চালানো	-10.1711
▁Chinese	-10.1712
▁Con	-10.172
▁অধিদপ্তরের	-10.173
▁ছাত্রী	-10.1735
▁sample	-10.1738
▁everyone	-10.1739
▁প্রক্রিয়া	-10.1742
▁সাংস্কৃতিক	-10.1743
▁জে	-10.1751
▁একমাত্র	-10.1751
▁প্রতিষ্ঠা	-10.1753
▁তীব্র	-10.1758
▁college	-10.1772
▁শতাধিক	-10.1774
ত্ব	-10.1779
▁Council	-10.1783
▁reduced	-10.1785
▁দিল	-10.1788
▁distance	-10.1789
ted	-10.1789
▁বিল	-10.1795
▁character	-10.1804
▁math	-10.1808
▁ইমাম	-10.1811
০৬	-10.1816
৩১	-10.1818
▁increases	-10.1819
men	-10.1831
▁০২	-10.1832
▁সিলেটের	-10.1833
▁স্বাস্থ্যবিধি	-10.1841
▁বাংলার	-10.1849
▁সহজ	-10.1851
+	-10.1852
▁teach	-10.1853
▁পরিস্থিতিতে	-10.1862
▁যশোর	-10.1863
▁purpose	-10.1865
▁Two	-10.1867
ফা	-10.187
▁অত্যন্ত	-10.1871
▁didn	-10.1873
▁links	-10.1875
antho	-10.1876
▁extra	-10.1881
▁বিন	-10.1883
▁muscle	-10.1894
▁coming	-10.1897
▁সমস্ত	-10.1897
▁কেন্দ্রের	-10.1899
▁atmosphere	-10.1907
টে	-10.1907
go	-10.1909
▁practices	-10.191
▁Art	-10.1912
▁Foundation	-10.1917
▁সিং	-10.1919
ite	-10.192
per	-10.1922
▁স্থায়ী	-10.1924
▁highest	-10.1929
▁disorders	-10.1932
গঞ্জ	-10.1932
▁পরিচিত	-10.1935
▁উপদেষ্টা	-10.1937
▁differences	-10.1938
▁নির্ধারিত	-10.1953
▁Posted	-10.1953
▁leave	-10.1953
con	-10.1955
▁female	-10.1956
▁Learn	-10.1959
▁degree	-10.1959
▁authors	-10.1964
▁চতুর্থ	-10.1964
▁southern	-10.1964
▁functions	-10.1966
▁display	-10.1969
▁passed	-10.1972
▁ট্রেন	-10.1975
ology	-10.1976
▁garden	-10.1979
▁trade	-10.1982
▁Another	-10.1983
▁আবহাওয়া	-10.1985
▁রাস্তা	-10.1988
old	-10.1989
▁rules	-10.1993
▁hour	-10.1994
▁মমতা	-10.1995
▁Time	-10.1995
▁রাজ	-10.1996
▁habitat	-10.2001
▁pregnancy	-10.2002
▁উৎপাদন	-10.2006
▁সিনেমার	-10.2011
▁Professor	-10.2013
▁যুবলীগের	-10.2014
০৭	-10.2016
▁গ্রুপ	-10.2018
▁Green	-10.2026
▁বিডি	-10.203
▁influence	-10.2032
▁vegetables	-10.2033
আমি	-10.2034
▁সেখান	-10.2035
▁কঠিন	-10.2041
্	-10.2041
▁Union	-10.2042
▁কার্ড	-10.2044
▁দেশটিতে	-10.2046
▁করল	-10.2054
▁মূলত	-10.2054
▁সম্পূর্ণ	-10.2055
▁El	-10.2057
▁মতে	-10.2057
▁alcohol	-10.2058
▁১০টা	-10.2058
▁দারুণ	-10.2059
do	-10.206
▁items	-10.2061
mer	-10.2061
▁৭০	-10.2066
▁হয়তো	-10.2069
ছিলেন	-10.2074
▁মহা	-10.2078
▁সন্ত্রাসী	-10.2081
ষ্ট	-10.2083
ron	-10.2084
▁পাস	-10.2087
▁মিলে	-10.2088
▁বেতন	-10.2089
▁প্রসঙ্গত	-10.209
▁alone	-10.209
▁সত্যতা	-10.2091
▁নির্ধারণ	-10.2094
▁Western	-10.2094
▁Mo	-10.2096
নং	-10.2096
▁নাজমুল	-10.2099
▁মাসুদ	-10.2104
▁এশিয়া	-10.2105
▁আটকে	-10.2112
▁presented	-10.2116
▁becomes	-10.2116
▁মুখ্যমন্ত্রী	-10.2123
০৪	-10.2125
▁সংকট	-10.2126
▁models	-10.2126
▁g	-10.2136
▁তাপমাত্রা	-10.2138
▁এএম	-10.2145
▁son	-10.2146
▁Pacific	-10.2149
▁stars	-10.2154
▁table	-10.2157
▁woman	-10.2157
nd	-10.2157
▁properties	-10.2158
▁powerful	-10.2159
▁দর	-10.216
▁famous	-10.2163
▁মোটরসাইকেল	-10.2167
▁TV	-10.2167
িন	-10.2169
▁estimated	-10.2171
▁Copyright	-10.2172
▁warm	-10.2176
▁pattern	-10.2189
▁মসজিদে	-10.2192
রো	-10.2197
▁হিন্দু	-10.2198
▁described	-10.2203
৫৫	-10.221
▁Control	-10.2212
▁fresh	-10.2213
▁খারাপ	-10.2216
▁Y	-10.2229
▁গ	-10.2231
▁concept	-10.2235
▁changed	-10.2236
▁applied	-10.2239
▁ফলাফল	-10.2241
▁correct	-10.2241
ray	-10.2241
▁পানিতে	-10.2245
▁northern	-10.2246
▁friends	-10.2247
ence	-10.2247
▁diagnosis	-10.2248
▁causing	-10.2249
▁measures	-10.2253
▁Red	-10.2253
▁teeth	-10.2256
▁করেই	-10.2257
▁AM	-10.2267
▁গাছ	-10.2273
▁শক্তি	-10.2274
▁রাজ্যের	-10.2274
led	-10.2278
▁CO	-10.2283
▁বিপুল	-10.2286
▁গোটা	-10.2287
▁প্রেরণ	-10.2291
▁Jewish	-10.2292
▁প্রকৌশলী	-10.2293
▁ছবিটি	-10.2297
▁বললেন	-10.2298
▁finding	-10.2299
▁লড়াই	-10.2303
▁ওঠে	-10.2306
▁Na	-10.2316
▁covered	-10.2319
▁পাতা	-10.2321
▁বোমা	-10.2327
▁proper	-10.233
▁Date	-10.233
▁শিল্পী	-10.233
▁এনে	-10.2334
▁economy	-10.2335
▁প্রতিরোধ	-10.2336
▁break	-10.234
▁worked	-10.2343
▁অ্যাডভোকেট	-10.2345
▁male	-10.2347
▁square	-10.2348
▁decades	-10.2348
▁অর্থনীতি	-10.2353
▁feed	-10.2353
▁গো	-10.2354
▁annual	-10.2355
▁রকম	-10.2357
▁গ্রুপের	-10.2358
০৩	-10.2364
▁travel	-10.2367
▁approximately	-10.2371
▁সম্পদ	-10.2371
▁বাস্তবায়ন	-10.2371
▁আরেক	-10.2372
▁পড়ুন	-10.2373
▁শ্রেণির	-10.2374
▁pollution	-10.2375
▁চর	-10.2377
▁চোখ	-10.2384
Com	-10.2389
▁ten	-10.239
▁Post	-10.2392
X	-10.2396
ial	-10.2402
▁বিদেশি	-10.2402
▁সিভিল	-10.2405
▁বাণিজ্য	-10.2406
▁অর্থনৈতিক	-10.2407
▁populations	-10.2412
▁security	-10.2413
▁চট্টগ্রামের	-10.2416
জে	-10.2417
▁সুন্দর	-10.2422
হার	-10.243
▁explain	-10.2431
▁topic	-10.2434
▁road	-10.2436
▁মুক্তির	-10.2445
▁সড়কে	-10.2447
▁Z	-10.2453
▁chronic	-10.2454
▁Asia	-10.2455
▁genes	-10.2456
▁এন	-10.2459
▁store	-10.2461
▁ভাইরাসের	-10.2463
▁প্রিয়	-10.2465
▁separate	-10.2475
Z	-10.248
▁দরকার	-10.2482
▁যৌন	-10.2484
▁ফেরত	-10.2486
▁সর্ব	-10.2492
▁exposed	-10.2494
▁Human	-10.2494
▁ঘটনাস্থল	-10.2496
▁তামিম	-10.2498
▁inches	-10.2502
▁everything	-10.2505
▁progress	-10.2508
▁consumption	-10.2509
▁রানা	-10.251
▁দেখিয়ে	-10.2514
▁Spanish	-10.2515
▁injury	-10.2516
▁vitamin	-10.2516
▁গ্যাস	-10.2518
▁স্টেডিয়ামে	-10.252
স্ত	-10.252
▁conducted	-10.2522
▁মুহাম্মদ	-10.2526
▁ভবন	-10.2526
▁completely	-10.2537
▁Ocean	-10.2538
০৮	-10.2539
▁হাইকোর্ট	-10.2543
ৎ	-10.2545
▁পদত্যাগ	-10.2546
▁খুঁজে	-10.2559
▁কীভাবে	-10.2561
ize	-10.2561
da	-10.2562
▁কারাদণ্ড	-10.2563
▁Man	-10.2565
▁কিছুদিন	-10.2566
▁staff	-10.2566
▁একাদশ	-10.2568
▁Report	-10.2569
net	-10.2576
▁drive	-10.2578
▁grade	-10.2587
▁factor	-10.2589
▁ওয়ার্ডের	-10.259
▁situation	-10.2591
▁Japan	-10.2591
▁existing	-10.2591
▁therefore	-10.2597
▁System	-10.2605
▁huge	-10.2607
▁participants	-10.2608
▁স্থাপন	-10.261
▁generation	-10.2612
▁extremely	-10.2612
▁যত	-10.2613
ex	-10.2616
▁লিখিত	-10.2618
▁style	-10.2622
▁Germany	-10.2623
ci	-10.2624
▁nuclear	-10.2625
om	-10.2625
ph	-10.2626
উল	-10.2628
▁হ	-10.2629
▁yourself	-10.2629
▁ধারা	-10.2638
▁chemicals	-10.2641
▁et	-10.2644
▁multi	-10.2644
▁v	-10.2649
▁অপেক্ষা	-10.2661
নার	-10.2662
▁Air	-10.267
▁Disease	-10.2673
▁perform	-10.2689
▁snow	-10.2689
▁milk	-10.2695
▁লি	-10.2708
▁relationship	-10.2709
▁আউট	-10.2712
▁document	-10.2716
▁illness	-10.2717
▁options	-10.2718
▁করব	-10.2719
▁allowed	-10.2723
▁iron	-10.2723
▁চোখে	-10.2723
▁জেরে	-10.2723
▁slow	-10.2726
▁জিতে	-10.2729
▁বিকালে	-10.2734
▁মিজানুর	-10.2734
▁মোস্তফা	-10.2741
▁পরিচালিত	-10.2741
▁সালমান	-10.2745
▁মেলা	-10.2746
▁remember	-10.2746
▁আনতে	-10.2748
▁Guide	-10.2749
▁এন্ড	-10.275
ge	-10.2753
see	-10.2759
▁remove	-10.276
▁মেডিক্যাল	-10.2762
▁সড়কের	-10.2762
▁Make	-10.2762
▁ঘিরে	-10.2772
▁wildlife	-10.2772
▁অবস্থিত	-10.2772
▁organization	-10.2776
▁UK	-10.2779
▁চিঠি	-10.2779
▁যাত্রা	-10.2799
▁Cancer	-10.2803
▁রফিকুল	-10.2805
▁distribution	-10.2809
▁yellow	-10.2813
▁technologies	-10.2814
▁শুরুর	-10.2816
▁হোটেল	-10.2818
▁James	-10.282
▁একে	-10.2821
কাল	-10.2822
ড়ি	-10.2823
▁communication	-10.2823
▁কিশোর	-10.2827
র্	-10.2835
oc	-10.2836
▁visual	-10.2836
▁ক্লাবের	-10.2836
▁শাখা	-10.2842
▁film	-10.2843
▁খ	-10.2849
*	-10.285
▁ভোর	-10.2851
▁equal	-10.2856
▁বাবার	-10.2874
▁Lake	-10.2874
▁reference	-10.2877
ier	-10.2877
▁আদায়	-10.2879
▁ভিন্ন	-10.2885
▁direction	-10.2886
ical	-10.2887
▁machine	-10.2889
▁রেল	-10.2892
বো	-10.2894
ium	-10.2901
▁heavy	-10.2902
▁করলেও	-10.2904
▁dogs	-10.2906
▁negative	-10.2908
▁আপনাদের	-10.2912
▁উক্ত	-10.2915
▁সুমন	-10.2925
▁তুলনায়	-10.2931
▁নারায়ণগঞ্জ	-10.2931
izing	-10.2932
▁database	-10.2937
▁figure	-10.2941
▁depression	-10.2942
▁স্পোর্টস	-10.2943
ts	-10.2946
▁সহযোগী	-10.2951
▁আজাদ	-10.2955
▁চিত্র	-10.2958
▁ডিগ্রি	-10.2961
▁বলিউড	-10.2961
▁আশঙ্কা	-10.2974
▁drinking	-10.2975
▁financial	-10.2976
▁জঙ্গি	-10.2977
▁ages	-10.2978
▁glass	-10.2985
▁medications	-10.2991
৩৮	-10.2995
▁interested	-10.3
em	-10.3
▁চিন্তা	-10.3003
▁ওভারে	-10.3003
tra	-10.3011
▁kalerk	-10.3014
▁eventually	-10.3014
▁ইতোমধ্যে	-10.3016
▁infected	-10.3018
▁letter	-10.3025
related	-10.3029
▁reasons	-10.303
▁note	-10.3031
▁father	-10.3035
▁significantly	-10.3037
▁technique	-10.3043
▁মর্গে	-10.3046
এস	-10.3049
▁নির্বাচনী	-10.3054
▁engineering	-10.3059
▁gets	-10.3062
▁যাদের	-10.3063
মো	-10.3067
▁চরিত্রে	-10.3069
▁কর	-10.3069
▁জীবনে	-10.3074
▁কবি	-10.3076
▁cities	-10.3078
▁cross	-10.3079
▁foot	-10.3079
que	-10.3079
▁Life	-10.3082
▁যুদ্ধ	-10.3088
▁সীমান্তে	-10.3089
▁Free	-10.3097
পররাষ্ট্রমন্ত্রী	-10.3099
▁বঙ্গাব্দ	-10.3099
ha	-10.3103
▁কাল	-10.3109
▁জো	-10.3111
▁৪৫	-10.3112
▁আধুনিক	-10.3113
▁plastic	-10.3113
pe	-10.3113
▁আগামীকাল	-10.3115
▁carry	-10.3117
▁strategies	-10.3121
▁Updated	-10.3121
▁ওয়া	-10.3121
▁linked	-10.3125
▁Island	-10.3128
▁office	-10.3128
▁comment	-10.313
▁মান	-10.3141
▁starting	-10.3145
▁religious	-10.3147
▁warming	-10.3149
▁income	-10.3149
▁Healthwise	-10.3153
▁শামীম	-10.316
▁electrical	-10.3161
▁গা	-10.3163
▁কেবল	-10.3165
ka	-10.3166
▁amounts	-10.3166
▁প্রেসক্লাবের	-10.3167
▁introduced	-10.3169
▁perhaps	-10.3171
▁choice	-10.3172
▁Times	-10.3178
▁George	-10.3179
▁status	-10.3182
▁Paul	-10.3186
▁দেড়	-10.3187
▁notes	-10.3187
▁সক্ষম	-10.3189
▁flowers	-10.319
আই	-10.3192
মূলক	-10.3193
▁গেলেন	-10.3199
▁Church	-10.3199
▁কোম্পানির	-10.3199
▁coast	-10.32
▁Civil	-10.3201
▁সাইফুল	-10.3205
▁defined	-10.3206
▁forward	-10.3207
▁advice	-10.3207
▁homes	-10.3207
▁কমিশনের	-10.3208
▁মেসি	-10.321
ুজ্জামান	-10.3214
▁towards	-10.3215
▁recommended	-10.3216
▁শোনা	-10.3216
▁সার্বিক	-10.3217
▁urban	-10.3218
▁কর্মরত	-10.3218
▁meat	-10.3221
▁removed	-10.3226
▁wall	-10.3229
▁maintain	-10.3236
▁Pa	-10.324
▁board	-10.3244
ছিল	-10.3248
▁alternative	-10.3251
রী	-10.3253
▁micro	-10.3257
▁আসনে	-10.3259
▁অনলাইনে	-10.3261
▁saw	-10.3265
é	-10.3265
▁বিশাল	-10.3266
▁কমপ্লেক্সে	-10.3268
▁সদস্যের	-10.3274
▁apply	-10.3281
▁planning	-10.3284
▁ধাক্কা	-10.3287
▁টায়	-10.3289
▁এলাকাবাসী	-10.329
▁sky	-10.3295
▁মাথা	-10.3297
▁গুরুত্ব	-10.3299
▁যুবকের	-10.33
▁কত	-10.3304
▁Review	-10.3305
▁dead	-10.3307
▁Pro	-10.3314
▁exist	-10.3315
▁ময়নাতদন্ত	-10.3316
out	-10.3317
▁সমর্থন	-10.332
▁Pre	-10.3322
▁Florida	-10.3327
▁দেবেন	-10.3334
▁photo	-10.3339
▁fine	-10.3343
▁ক্ষতিগ্রস্ত	-10.3344
▁Google	-10.3344
▁খাতুন	-10.3347
▁মুহূর্তে	-10.3349
▁combination	-10.335
▁লিটন	-10.3351
▁রাশিয়া	-10.3356
▁previously	-10.3356
▁বিশ্বকাপের	-10.3357
▁failure	-10.3361
▁helping	-10.3362
▁কাটা	-10.3364
den	-10.3368
▁বন্দর	-10.3373
▁Office	-10.3374
▁Social	-10.3379
▁ear	-10.3383
▁reserved	-10.3385
▁Study	-10.339
▁inter	-10.339
▁marine	-10.3394
হীন	-10.3399
▁জোর	-10.3401
▁km	-10.3402
▁games	-10.3403
▁Roman	-10.3404
▁কোথাও	-10.3405
▁বিজিবি	-10.3407
▁টাঙ্গাইল	-10.3408
▁served	-10.3412
ber	-10.3413
▁structures	-10.3415
▁opportunities	-10.3416
▁ones	-10.3425
▁pro	-10.3426
▁continued	-10.3431
▁বিরাট	-10.3438
▁else	-10.3438
▁island	-10.3438
▁fight	-10.3445
৩৭	-10.3448
▁Inc	-10.3449
▁bodies	-10.3449
▁message	-10.3451
▁seeds	-10.3455
▁easier	-10.346
▁কাউকে	-10.3461
▁সংসদের	-10.3461
▁দলকে	-10.3463
▁lived	-10.3464
▁বাবু	-10.3468
▁treatments	-10.347
▁rule	-10.347
▁ধর্মীয়	-10.3472
▁majority	-10.3475
▁challenges	-10.3477
▁কন্যা	-10.3479
▁নেতারা	-10.3481
লু	-10.3483
▁সরিয়ে	-10.3484
গো	-10.3488
▁cent	-10.349
▁শরীরের	-10.349
hose	-10.3491
▁extreme	-10.3493
▁Columbia	-10.3499
▁দাঁড়িয়ে	-10.3503
▁মিডিয়ায়	-10.3504
▁মতবিনিময়	-10.3504
▁পূজা	-10.3506
▁কার্যালয়	-10.3508
▁Women	-10.3511
▁চাহিদা	-10.3516
lin	-10.3516
▁promote	-10.3516
les	-10.3518
▁সকলের	-10.352
▁colleagues	-10.3527
▁জন্মদিন	-10.3528
▁পেরে	-10.3529
▁balance	-10.353
▁ইউনিট	-10.3531
▁pet	-10.3534
▁dangerous	-10.3538
▁storm	-10.3539
▁সেতু	-10.354
▁eggs	-10.3549
▁সাধারন	-10.3549
▁emergency	-10.3553
▁observed	-10.3553
▁ডে	-10.3554
▁Next	-10.3561
▁consist	-10.3562
▁believed	-10.3564
▁চারটি	-10.3566
ুন	-10.3572
▁happen	-10.3579
▁Natural	-10.358
▁mobile	-10.3581
▁অ্যাপ	-10.3584
▁forces	-10.3585
▁ইরানের	-10.359
▁সংঘর্ষ	-10.359
▁অস্ট্রেলিয়া	-10.3592
▁পেছনে	-10.3601
▁library	-10.3603
▁উইকেটে	-10.3612
▁stem	-10.3612
▁Japanese	-10.3612
▁cool	-10.3614
▁hear	-10.3617
▁Scientists	-10.3622
▁Just	-10.3625
▁মহাপরিচালক	-10.3629
▁টেস্টে	-10.3633
▁radio	-10.3633
▁<	-10.3635
po	-10.3635
▁die	-10.3635
off	-10.3635
▁তোলা	-10.3639
▁আমির	-10.3646
▁anyone	-10.3646
▁capital	-10.3647
▁বন	-10.3649
৪২	-10.3649
শন	-10.3651
▁পরিষ্কার	-10.3651
▁changing	-10.3653
৪৩	-10.3654
▁moved	-10.3656
▁laws	-10.366
▁obesity	-10.3662
▁reducing	-10.3663
▁immediately	-10.3666
▁সংলগ্ন	-10.367
▁syndrome	-10.3674
▁Dec	-10.3676
▁ফিরিয়ে	-10.3676
▁Have	-10.368
▁জা	-10.3682
▁খাওয়া	-10.3689
বাংলা	-10.369
▁bio	-10.3692
▁আহবায়ক	-10.3692
io	-10.3693
▁সংবাদের	-10.3697
▁গরু	-10.3707
▁performed	-10.3708
▁volume	-10.3713
▁নগদ	-10.3713
ative	-10.3713
▁Bay	-10.3714
more	-10.3724
▁electric	-10.3729
▁দূরে	-10.3731
▁ব্যস্ত	-10.3732
৪৮	-10.3733
▁পদ্মা	-10.3733
▁চরম	-10.3734
▁samples	-10.3736
▁ডোজ	-10.374
▁challenge	-10.3743
▁looks	-10.3743
▁capacity	-10.3746
▁path	-10.3747
▁buildings	-10.3748
▁সন্তানের	-10.3749
▁জানাতে	-10.3753
▁discovery	-10.3753
▁বাসা	-10.3756
▁উদ্বোধনী	-10.3759
▁টা	-10.3759
▁seed	-10.3762
▁tested	-10.3762
▁Jan	-10.3764
▁পরিণত	-10.3764
▁giving	-10.377
▁organizations	-10.377
ster	-10.3771
▁host	-10.3777
▁কমেছে	-10.3778
ওয়া	-10.3778
জার	-10.3781
▁draw	-10.3786
▁একবার	-10.3788
▁nothing	-10.3788
▁cat	-10.3791
▁legal	-10.3796
▁ইউ	-10.3798
▁২০১৪	-10.3805
▁ব্যর্থ	-10.3808
▁Global	-10.381
▁কখনো	-10.3811
▁Le	-10.3815
৩৩	-10.3822
▁presence	-10.3823
▁স্কুলের	-10.3824
▁indicate	-10.3826
▁আহ্বায়ক	-10.3827
্স	-10.3828
▁president	-10.3834
▁মিলিয়ে	-10.3835
▁৩২	-10.3846
▁fever	-10.3846
▁পুড়ে	-10.3848
▁টেলিভিশন	-10.3849
▁Ma	-10.3853
▁ব্রিটিশ	-10.3857
▁নিজেই	-10.3857
▁spent	-10.3858
example	-10.3862
▁সাহা	-10.3863
▁mostly	-10.3865
▁স্ব	-10.3876
▁মাধ্যম	-10.3876
▁helped	-10.3878
ow	-10.388
▁metal	-10.388
▁জাকির	-10.3881
▁ইউনিয়নে	-10.3884
▁deaths	-10.3888
▁শাস্তি	-10.3893
▁১২টা	-10.3895
▁noted	-10.3897
▁এল	-10.3898
▁ইতিহাস	-10.3899
▁fully	-10.3899
▁layer	-10.3899
▁বদলে	-10.391
▁সচেতন	-10.3911
▁বিশ্ববিদ্যালয়ে	-10.3916
▁awareness	-10.3916
▁নদীতে	-10.3917
▁instance	-10.3922
▁becoming	-10.3922
▁আলোচিত	-10.3926
▁literature	-10.3927
▁price	-10.3931
▁church	-10.3936
▁ত্যাগ	-10.3937
এই	-10.3938
▁ভবনের	-10.3942
▁কল	-10.3945
▁race	-10.3953
▁Get	-10.3954
▁gain	-10.3959
▁নাই	-10.396
▁Central	-10.3968
▁doctors	-10.3968
গণ	-10.3973
▁corn	-10.3975
ভিত্তিক	-10.398
▁প্রফেসর	-10.3986
▁decisions	-10.3993
▁killed	-10.3994
▁লে	-10.3996
▁White	-10.4002
▁Resources	-10.4003
▁sports	-10.4003
▁খেয়ে	-10.4008
▁কারা	-10.4008
▁কক্ষে	-10.4008
▁girls	-10.4008
▁৮০	-10.4012
ger	-10.4013
▁পরবর্তীতে	-10.4013
▁enjoy	-10.4016
der	-10.4018
▁floor	-10.4019
▁গানের	-10.402
▁নাসির	-10.4021
▁নেতাদের	-10.4029
▁cycle	-10.4033
▁frequently	-10.4036
▁ঝুঁকি	-10.4039
▁core	-10.4039
▁drink	-10.4042
▁Car	-10.4048
▁studied	-10.4048
▁পড়েছেন	-10.4049
▁classes	-10.4053
he	-10.4055
▁demand	-10.4055
৩৯	-10.4059
▁অবরোধ	-10.4062
▁আহসান	-10.4067
▁রহিম	-10.4069
▁learned	-10.407
▁root	-10.4071
▁experiment	-10.4073
▁creation	-10.4073
▁মহান	-10.4074
▁জানালেন	-10.4075
▁officials	-10.408
▁evolution	-10.4086
▁tax	-10.4088
▁widely	-10.409
গামী	-10.4092
▁স্বরাষ্ট্র	-10.4098
▁কর্ম	-10.4099
▁অধিদপ্তর	-10.41
▁কমান্ডার	-10.4101
▁encourage	-10.4104
▁বাজেট	-10.4104
▁risks	-10.4104
di	-10.4106
▁exactly	-10.4107
▁করতেন	-10.4109
▁discussion	-10.4114
▁deal	-10.4116
▁asthma	-10.4118
▁Robert	-10.4119
▁রাষ্ট্র	-10.4119
▁পরই	-10.4121
▁ঝড়	-10.4121
▁তুলতে	-10.4123
▁meeting	-10.4123
▁Book	-10.4126
▁চেয়ারপারসন	-10.4127
▁watch	-10.4134
▁বাড়িয়ে	-10.4134
▁lesson	-10.4134
▁গণ	-10.4138
▁পৃথক	-10.4139
▁মৎস্য	-10.4139
▁gave	-10.4139
▁কুষ্টিয়া	-10.4139
▁পার্টি	-10.4146
▁কার্যালয়ের	-10.415
▁উভয়	-10.4154
▁স্মৃতি	-10.4158
▁পাল	-10.4161
▁আশ্রয়	-10.4161
▁ফাঁস	-10.4164
▁মি	-10.4169
▁পেঁয়াজ	-10.4176
▁আমদানি	-10.4177
▁মেয়ের	-10.4179
▁walk	-10.4182
▁carried	-10.4187
▁হামিদ	-10.4189
▁serve	-10.4196
▁পছন্দ	-10.4196
▁ব্যবধানে	-10.4197
▁সরকারী	-10.4197
▁output	-10.4202
▁prevention	-10.4203
▁actions	-10.4204
▁শো	-10.4204
▁flight	-10.4204
▁অবদান	-10.4206
▁সংস্করণ	-10.4206
▁salt	-10.421
▁শ্রী	-10.4214
▁civil	-10.4215
▁বোন	-10.4216
▁Are	-10.4217
চে	-10.4218
▁প্রথমবারের	-10.4221
tro	-10.4222
▁হারুন	-10.4224
▁pass	-10.4229
▁clinical	-10.4234
▁স্ত্রীর	-10.4236
▁ওয়েস্ট	-10.424
▁চট্টগ্রামে	-10.4241
▁target	-10.4242
▁যুবলীগ	-10.4243
▁context	-10.4245
পে	-10.4245
▁rain	-10.4247
ise	-10.4248
৩৪	-10.4249
▁সপ্তাহের	-10.4251
▁চ্যাম্পিয়ন	-10.4252
▁Nature	-10.4253
▁আসন্ন	-10.4259
▁components	-10.4259
▁western	-10.4264
▁fruits	-10.4265
▁files	-10.4268
▁Part	-10.4269
▁তারেক	-10.4269
▁Ph	-10.428
▁সার্জন	-10.4284
▁limit	-10.4285
৩৬	-10.4287
▁তিনজন	-10.4288
▁statement	-10.4293
▁ভয়	-10.4295
▁task	-10.4299
▁বিশ্বকাপে	-10.4301
▁recorded	-10.4302
▁দিয়েছিলেন	-10.4303
▁পরি	-10.4304
▁Encyclopedia	-10.4307
▁পয়েন্টে	-10.4309
▁ভা	-10.4312
ten	-10.4313
▁represent	-10.4313
▁পরিদর্শক	-10.4318
▁affects	-10.4319
▁wrong	-10.432
▁এজন্য	-10.4322
▁টার	-10.4322
▁industrial	-10.4323
রফে	-10.4326
▁দেখার	-10.4326
▁characteristics	-10.4327
বেন	-10.4327
▁বিজ্ঞপ্তি	-10.4328
লার	-10.4331
gov	-10.4331
▁হবেন	-10.4338
▁ওয়েব	-10.4339
▁Her	-10.434
▁diagnosed	-10.4342
▁হচ্ছেন	-10.4344
▁Climate	-10.4351
▁নামক	-10.4351
▁particles	-10.4352
▁লিমিটেড	-10.4354
▁জেল	-10.4355
▁official	-10.4355
▁ভ্রাম্যমাণ	-10.4356
▁মুজিব	-10.4362
▁৮টা	-10.4362
▁west	-10.4362
ke	-10.4364
▁speech	-10.4365
▁enter	-10.437
▁মসজিদের	-10.4371
▁stroke	-10.4372
▁সমালোচনা	-10.4378
▁Like	-10.4378
▁যৌথ	-10.4379
▁procedure	-10.438
▁academic	-10.438
▁সবুজ	-10.4381
ut	-10.4385
▁goals	-10.4392
▁কয়েকদিন	-10.4392
▁hit	-10.4393
▁box	-10.4394
▁ready	-10.4394
▁পারিবারিক	-10.4397
sh	-10.44
▁coal	-10.4401
▁উপায়	-10.4403
ors	-10.4407
min	-10.4409
▁advanced	-10.4409
▁insects	-10.441
▁মৃত্যুতে	-10.4413
▁pieces	-10.4415
▁numerous	-10.4417
▁বিকল্প	-10.4418
▁Bo	-10.4419
▁sex	-10.4424
▁নায়িকা	-10.4427
▁তালুকদার	-10.4427
▁দখল	-10.4429
▁resulting	-10.443
red	-10.443
▁আলোচনায়	-10.443
▁সেন্টার	-10.4431
▁নগর	-10.4432
▁solid	-10.4434
▁জাহিদ	-10.4435
▁east	-10.4438
▁concern	-10.444
▁attempt	-10.4443
▁মাহবুব	-10.4446
▁নন	-10.4453
▁নরেন্দ্র	-10.4455
▁দ্বারা	-10.4455
▁Both	-10.4466
▁strength	-10.4467
▁slightly	-10.4468
▁Views	-10.4469
▁কালাম	-10.4471
▁curriculum	-10.4481
▁Catholic	-10.4483
মন	-10.4484
▁আপনাকে	-10.4491
▁লিগ	-10.4496
▁faster	-10.4499
▁begins	-10.4501
▁ধন্যবাদ	-10.4503
▁বজায়	-10.4503
৫৯	-10.4506
▁Studies	-10.4507
▁প্রেম	-10.4513
সু	-10.4515
▁Greek	-10.4516
▁tiny	-10.4516
▁ভূমি	-10.4517
▁letters	-10.4518
ig	-10.4519
▁Data	-10.452
▁ম্যানেজার	-10.452
▁থাকছে	-10.4524
▁Let	-10.4526
▁চ্যানেল	-10.4526
▁background	-10.4526
▁সাংসদ	-10.4531
টিকে	-10.4532
▁বগুড়া	-10.4533
▁properly	-10.4535
▁লেখক	-10.4535
▁collected	-10.4535
▁বসবাস	-10.4536
▁Middle	-10.454
▁রূপ	-10.454
▁units	-10.4541
▁smoke	-10.4544
▁খবরে	-10.4545
▁enable	-10.4546
▁discuss	-10.4547
▁কর্মীদের	-10.4553
▁পুলিশকে	-10.4554
▁ধীরে	-10.4555
▁Archives	-10.4559
▁;	-10.4561
▁জুটি	-10.4561
▁শি	-10.4562
▁topics	-10.4563
▁block	-10.4565
কেও	-10.4567
▁বিজয়ী	-10.4568
way	-10.4572
▁||	-10.4573
▁primarily	-10.4578
▁worldwide	-10.4579
▁যেকোনো	-10.4579
.|	-10.4583
বাংলাদেশ	-10.4583
▁credit	-10.4585
▁describe	-10.4597
চি	-10.4597
▁কর্তৃপক্ষের	-10.4598
▁Latin	-10.4599
▁completed	-10.4599
▁খন্দকার	-10.4602
▁কুপিয়ে	-10.4603
if	-10.4611
▁comments	-10.4616
▁medication	-10.4617
▁ইনিংস	-10.4618
▁cholesterol	-10.4619
▁রাজ্যে	-10.4619
▁আসছেন	-10.462
ze	-10.462
যা	-10.462
▁নিউ	-10.4623
▁ভি	-10.4623
▁৩৬	-10.4623
▁detailed	-10.4623
▁ভেতরে	-10.463
▁কংগ্রেস	-10.4635
▁দমন	-10.4637
▁নষ্ট	-10.464
ান	-10.4641
▁ভোলা	-10.4641
▁রুহুল	-10.4646
ৈ	-10.4646
▁আকাশ	-10.4653
▁স্টেশন	-10.4655
so	-10.4662
▁ডেঙ্গু	-10.4665
▁মানব	-10.4665
▁পরিস্থিতির	-10.4668
▁Li	-10.4669
▁সুনামগঞ্জ	-10.467
▁prior	-10.4676
▁liver	-10.4677
▁যুক্তরাষ্ট্রে	-10.4683
চা	-10.4685
ho	-10.4686
mon	-10.4689
ip	-10.4693
▁k	-10.4694
▁দফায়	-10.4697
▁Group	-10.4698
▁explains	-10.47
▁con	-10.47
▁রাস্তার	-10.47
▁আসামী	-10.4701
েন	-10.4703
▁সুপ্রিম	-10.4706
▁Bengal	-10.4706
▁নির্মাতা	-10.4707
▁তৈরির	-10.4712
▁ডাক্তার	-10.4713
▁কিভাবে	-10.4714
▁সমাধান	-10.4719
▁track	-10.4723
▁Q	-10.4724
্যা	-10.4728
▁park	-10.4729
▁বাধ্য	-10.4729
▁মিয়ানমার	-10.473
▁continues	-10.4731
ide	-10.4732
▁achieve	-10.4732
▁হেফাজতে	-10.4741
নী	-10.4742
▁ঐ	-10.4743
▁শা	-10.4745
▁Government	-10.4746
▁কর্মকর্তাদের	-10.4746
▁পূর্ণ	-10.475
▁পিছিয়ে	-10.4756
▁সুলতানা	-10.4758
▁turned	-10.4765
▁আপিল	-10.4766
▁measured	-10.4766
▁referred	-10.4768
▁looked	-10.4769
▁ধারণ	-10.4769
▁সংবাদদাতা	-10.477
▁fluid	-10.4771
▁চাঁদপুর	-10.4778
▁Academy	-10.4779
▁visible	-10.4782
▁লাগে	-10.4791
▁সিরিজে	-10.4792
▁সংযোগ	-10.4793
▁উদ্দেশে	-10.4794
ya	-10.4795
▁millions	-10.4795
▁crops	-10.4797
▁showing	-10.4804
▁·	-10.4807
▁মানসিক	-10.4808
▁expect	-10.4809
▁কালো	-10.4809
৫৬	-10.481
▁ঢুকে	-10.4811
▁ভিড়	-10.4815
▁brown	-10.4815
▁অফিসে	-10.4822
▁onto	-10.4822
▁পজিটিভ	-10.483
▁নব	-10.483
▁Virginia	-10.4831
▁ইতিমধ্যে	-10.4834
▁camera	-10.4835
▁actual	-10.4837
▁প্রতিরোধে	-10.4841
▁স্	-10.4841
▁colors	-10.4845
▁ইন্টারনেট	-10.4849
▁sounds	-10.4855
ana	-10.486
▁phone	-10.486
▁আসন	-10.4864
▁ফোনে	-10.4866
▁যেভাবে	-10.4868
▁resistance	-10.4873
▁মিথ্যা	-10.4873
▁৩৩	-10.4876
▁aware	-10.4878
we	-10.4879
▁সংরক্ষণ	-10.4881
▁ঈদুল	-10.4884
▁আব্দু	-10.4887
▁নির্দিষ্ট	-10.4889
▁প্রতিযোগিতা	-10.4892
▁ত	-10.4893
▁কিছুই	-10.4896
▁মাশরাফি	-10.4897
▁hearing	-10.4899
▁সার্ভিসের	-10.4904
▁Learning	-10.4904
▁connection	-10.4907
▁internal	-10.4915
▁languages	-10.4916
▁তেমন	-10.4917
▁experiences	-10.4918
▁পতাকা	-10.4919
▁রেজাউল	-10.492
ti	-10.4923
▁sustainable	-10.4924
▁initial	-10.4927
▁farmers	-10.4928
▁containing	-10.4929
▁মহামারি	-10.4929
▁setting	-10.4929
▁youth	-10.4932
▁happens	-10.4933
▁Mr	-10.4934
▁Australian	-10.4938
▁নিকট	-10.4942
▁contrast	-10.4945
ূ	-10.4945
চার	-10.495
▁দায়ে	-10.495
েল	-10.4955
▁টাকায়	-10.4957
▁প্রত্যাহার	-10.4959
tion	-10.4962
▁liquid	-10.4963
সার	-10.4963
▁বিরোধ	-10.4974
▁ডুবে	-10.4977
টাই	-10.4981
▁দাফন	-10.4984
▁মুখপাত্র	-10.4984
▁ট্রাম্পের	-10.4986
▁magnetic	-10.4991
▁intended	-10.4992
ang	-10.4993
▁তদন্তের	-10.4995
▁একসঙ্গে	-10.4998
▁আন্দোলনের	-10.5
▁চ্যালেঞ্জ	-10.5008
▁monitoring	-10.5009
হাজ্ব	-10.5012
▁অফিসের	-10.5012
▁অঞ্চলের	-10.5015
▁নির্মিত	-10.5018
▁involves	-10.5018
▁ডোনাল্ড	-10.5023
▁ধরেই	-10.5023
▁copy	-10.5024
▁Un	-10.5027
▁সম্মান	-10.5028
ities	-10.5028
▁সার	-10.503
iv	-10.5037
▁বিমানবন্দরে	-10.5037
▁Canadian	-10.5042
▁সোনার	-10.5043
sa	-10.5044
▁৩৪	-10.5047
▁দিচ্ছেন	-10.5048
▁greenhouse	-10.5049
free	-10.505
▁বুঝতে	-10.5052
▁টন	-10.5055
▁লেগে	-10.5057
▁hospital	-10.5057
আমরা	-10.5061
▁শপথ	-10.5063
▁খুশি	-10.5064
▁জনে	-10.5067
▁বেঁধে	-10.5072
au	-10.5073
ham	-10.5075
▁mice	-10.5076
ম্প	-10.5076
▁nutrients	-10.5078
▁নিয়েই	-10.5079
৫৩	-10.5079
▁আদর্শ	-10.508
▁অঞ্চলে	-10.5081
▁রক্ত	-10.5087
▁motion	-10.5087
▁অল্প	-10.5088
▁বক্তারা	-10.509
▁pictures	-10.5092
▁Only	-10.5099
▁crop	-10.5099
▁aspects	-10.51
▁Reference	-10.5102
▁ভ	-10.5106
▁অবস্থার	-10.5107
▁bar	-10.511
▁double	-10.5114
▁Alzheimer	-10.5114
▁protected	-10.5116
বাড়ি	-10.5123
▁বিপরীতে	-10.5127
▁command	-10.5128
▁মেয়াদ	-10.5131
▁index	-10.5132
৫২	-10.5137
▁ল	-10.5137
▁vehicle	-10.5139
▁প্রিমিয়ার	-10.5141
▁দাখিল	-10.5143
▁lose	-10.5149
▁জ	-10.515
▁signal	-10.5152
▁former	-10.5154
▁himself	-10.5154
▁সংবাদমাধ্যম	-10.5154
▁supported	-10.516
▁concepts	-10.5166
৪৭	-10.5167
▁কর্তৃক	-10.5167
▁soft	-10.517
▁ফাইনালে	-10.5173
▁reaction	-10.5176
▁proteins	-10.5176
▁Page	-10.5177
নিউজ	-10.5178
বাদ	-10.5185
▁element	-10.5188
▁টু	-10.519
▁হয়েছিলেন	-10.5192
▁contribute	-10.5193
▁অভিষেক	-10.5196
▁ধরণের	-10.5196
ap	-10.5196
▁survive	-10.5199
৫৭	-10.5203
▁stand	-10.5208
▁round	-10.521
▁বলেছে	-10.5212
▁thin	-10.5216
▁concerns	-10.522
▁ব্যাটসম্যান	-10.5228
▁Thomas	-10.5229
op	-10.5231
▁দুজন	-10.5234
▁assessment	-10.5236
▁super	-10.5239
▁সুরক্ষা	-10.5241
▁সূচক	-10.5241
▁খোঁজ	-10.5247
▁দিবাগত	-10.5247
▁documents	-10.5254
▁improved	-10.5255
▁joint	-10.5262
back	-10.5262
▁উন্নয়নের	-10.5263
ship	-10.5264
▁ক্লাস	-10.5265
▁পেলেন	-10.5265
▁hundreds	-10.5267
৫৮	-10.5274
▁সারাদেশ	-10.5278
▁২০০	-10.5278
▁কারণেই	-10.5283
▁সমাজের	-10.5283
▁বরাদ্দ	-10.5286
▁অস্ট্রেলিয়ার	-10.5287
▁পররাষ্ট্র	-10.5289
▁wear	-10.5289
▁determined	-10.5295
gen	-10.5297
fi	-10.5297
▁পেলে	-10.5299
▁জামাল	-10.53
▁প্রচুর	-10.53
▁শুরুতে	-10.5303
▁potentially	-10.5303
▁window	-10.5323
▁recommend	-10.5324
▁biological	-10.533
ba	-10.5331
▁প্রতিষ্ঠাতা	-10.5331
▁solutions	-10.5336
▁আব্দুল্লাহ	-10.534
▁Ca	-10.5341
▁কলকাতার	-10.5347
▁manage	-10.5347
▁screen	-10.5348
▁অতি	-10.5348
▁forests	-10.5349
ভার	-10.5353
▁প্রাক্তন	-10.5354
pt	-10.5355
▁Its	-10.5356
৪৯	-10.536
▁maps	-10.5362
▁stream	-10.5367
▁মেহেদী	-10.5367
▁রাজি	-10.5367
▁occurred	-10.5368
লাম	-10.538
▁Agency	-10.5381
দী	-10.5382
▁agricultural	-10.5383
▁combined	-10.5384
▁মেশিন	-10.5388
▁পাশের	-10.5389
▁৯০	-10.5392
▁পাচ্ছে	-10.5392
▁হতো	-10.5395
৪৪	-10.5403
ping	-10.5404
▁residents	-10.5405
ন্ড	-10.5411
▁বিজেপির	-10.5414
▁subjects	-10.5416
▁গুগল	-10.5418
▁surrounding	-10.5419
৫৪	-10.542
▁রিয়াল	-10.542
▁শিরোপা	-10.5421
▁View	-10.5425
▁সেনাবাহিনী	-10.543
তলা	-10.5432
লীগের	-10.5434
▁dioxide	-10.5435
▁Sciences	-10.5435
ren	-10.5435
▁comprehensive	-10.5448
▁morning	-10.5448
▁grown	-10.5449
▁kinds	-10.5452
▁চুল	-10.5453
ever	-10.5453
ko	-10.5456
▁independent	-10.5457
িতে	-10.5463
▁মিলন	-10.5466
▁রাখে	-10.5468
▁জাল	-10.5483
▁respect	-10.5484
▁Director	-10.5485
▁buy	-10.5487
[	-10.5487
▁Laboratory	-10.5489
▁technical	-10.5492
▁খেলোয়াড়	-10.5492
▁nutrition	-10.5494
▁১১টায়	-10.5507
▁blog	-10.5507
ey	-10.5509
▁smoking	-10.5509
▁মিলনায়তনে	-10.5516
▁dust	-10.5518
▁computers	-10.5519
▁muscles	-10.552
▁Old	-10.5522
▁press	-10.5528
▁জুড়ে	-10.553
▁stomach	-10.553
▁কোর্ট	-10.5532
▁বলেই	-10.5535
▁মোল্লা	-10.5535
▁সভাপতিত্ব	-10.5535
▁উপস্থিতি	-10.5535
▁gold	-10.5536
▁jobs	-10.5539
vo	-10.554
▁laboratory	-10.5544
▁আল্লাহ	-10.5545
▁পৌরসভা	-10.5546
▁ইত্যাদি	-10.5546
▁সত্য	-10.5547
▁ঘণ্টার	-10.5548
▁engine	-10.5556
▁ভোরে	-10.5562
▁প্রশংসা	-10.5564
▁bright	-10.5564
▁Language	-10.5565
▁গাজীপুর	-10.5567
▁beautiful	-10.5568
বাজার	-10.5571
▁originally	-10.5571
▁আনার	-10.5571
▁ফাইনাল	-10.5573
▁সমিতি	-10.5575
▁impacts	-10.5576
▁di	-10.5576
use	-10.5578
▁Comments	-10.5579
▁r	-10.5581
▁শ্রমিকদের	-10.5585
▁parent	-10.5585
▁storage	-10.5585
▁Monday	-10.5585
▁পড়ার	-10.5586
▁সাড়া	-10.5586
▁শুনে	-10.5588
▁UN	-10.5591
▁feature	-10.5596
▁দৃশ্য	-10.5596
bo	-10.5597
▁fossil	-10.5597
▁Britain	-10.5599
▁চৌধুরীর	-10.5599
▁রুবেল	-10.5603
▁বেরিয়ে	-10.5606
▁Previous	-10.5606
▁Media	-10.5607
▁Prevention	-10.5613
▁Ar	-10.5618
▁প্রকাশ্যে	-10.5619
▁গরম	-10.5619
▁efficient	-10.562
▁sexual	-10.5624
▁wine	-10.5625
▁যাওয়ায়	-10.5629
board	-10.5632
▁ওজন	-10.5633
▁গণমাধ্যম	-10.5635
▁fit	-10.5636
ধ	-10.5636
▁definition	-10.5637
▁নারীদের	-10.5639
▁print	-10.564
▁অফ	-10.5642
end	-10.5646
▁ঘোষ	-10.5649
▁পর্যটন	-10.5654
▁intake	-10.5656
▁স্বামীর	-10.5659
▁এসেছেন	-10.566
rd	-10.5663
▁renewable	-10.5665
▁Dictionary	-10.5668
▁cm	-10.567
▁দপ্তর	-10.5676
▁practical	-10.5676
৪১	-10.5678
▁হিসাব	-10.5681
water	-10.5684
▁বাজারের	-10.5686
▁experiments	-10.5686
▁টিকিট	-10.5687
▁খেতে	-10.5688
▁গলায়	-10.5688
▁আপনারা	-10.5693
ning	-10.5694
ুয়া	-10.5694
▁পঠিত	-10.5696
▁১১টার	-10.5697
▁origin	-10.5704
eg	-10.5705
▁কর্মীরা	-10.5707
▁Rights	-10.5707
▁Heart	-10.5708
▁মনির	-10.5709
▁sand	-10.5712
▁ভাইরাসে	-10.5713
▁poverty	-10.5715
▁চ	-10.5716
▁৩৭	-10.572
▁lab	-10.572
▁ন	-10.5726
▁Lo	-10.573
qui	-10.5732
শিক্ষাপ্রতিষ্ঠান	-10.5733
▁List	-10.5733
▁Source	-10.5733
িম	-10.5733
▁Network	-10.5738
▁phase	-10.5739
over	-10.5739
▁fear	-10.574
▁flat	-10.5744
▁জনগণ	-10.5744
▁এসএসসি	-10.5745
▁depending	-10.5749
▁ফ	-10.5751
▁রাষ্ট্রদূত	-10.5751
▁wanted	-10.5753
▁কোহলি	-10.5753
▁পরিবারকে	-10.5757
▁decline	-10.5758
বিরোধী	-10.5758
▁format	-10.576
▁ডিবি	-10.5761
▁ব্যয়	-10.5763
▁জড়িয়ে	-10.5764
▁যাবেন	-10.5765
▁রাশিয়ার	-10.5768
▁Christian	-10.5771
▁কর্তব্যরত	-10.578
▁বরং	-10.5782
▁requirements	-10.5784
▁আরেকটি	-10.5784
▁বাবুল	-10.5784
▁Before	-10.5788
ড়ে	-10.5789
▁vessels	-10.5789
▁মান্নান	-10.579
▁ভবনে	-10.5792
▁principles	-10.5793
▁মিলিয়ন	-10.5794
▁সংযুক্ত	-10.5794
▁Common	-10.5794
▁মারধর	-10.5799
▁title	-10.5807
▁অবনতি	-10.5808
▁Carolina	-10.5808
▁অথচ	-10.5808
▁সেনাবাহিনীর	-10.5813
▁processing	-10.5816
▁গাড়ির	-10.5821
▁centuries	-10.5822
▁Ohio	-10.5822
▁রযাবের	-10.5823
▁সুজন	-10.5824
▁ঘুম	-10.5825
▁Sa	-10.5827
▁policies	-10.5836
▁driving	-10.5836
&	-10.5845
ns	-10.5848
কর	-10.5848
িয়ার	-10.585
েজ	-10.5851
▁campaign	-10.5851
▁operations	-10.5852
ill	-10.5855
▁দফা	-10.586
তেও	-10.5861
▁aid	-10.5862
ম্যান	-10.5863
▁portion	-10.5866
▁relative	-10.5868
▁মাহফিল	-10.5868
▁হেরে	-10.5869
▁ইংল্যান্ড	-10.5871
▁formation	-10.5876
▁childhood	-10.5879
▁Long	-10.5881
▁সংক্রমণের	-10.5882
▁characters	-10.5884
If	-10.5885
▁Se	-10.5891
▁Land	-10.5891
▁Survey	-10.5892
▁operating	-10.5893
▁heard	-10.5896
▁যানবাহন	-10.5899
▁prepare	-10.5899
▁Sp	-10.59
▁reflect	-10.59
all	-10.5902
yl	-10.5903
ins	-10.5904
▁waters	-10.5904
▁আগুনে	-10.5906
▁kept	-10.5907
▁উপাচার্য	-10.5907
▁quick	-10.5908
▁normally	-10.5909
▁Thus	-10.591
▁roots	-10.5911
▁efficiency	-10.5917
▁মাদ্রাসা	-10.5917
▁largely	-10.5917
▁হাজারের	-10.5917
ice	-10.5917
▁En	-10.5918
▁সুর	-10.5919
▁lifestyle	-10.5922
▁reached	-10.5926
▁playing	-10.5931
▁la	-10.5933
▁সাইকেল	-10.5933
▁painting	-10.5936
▁bill	-10.5938
▁ভবিষ্যতে	-10.5939
▁keeping	-10.5942
▁Ka	-10.5944
মার	-10.5947
▁ক্রিকেটে	-10.5947
▁গিয়েছিল	-10.5948
▁Hospital	-10.5949
▁suffer	-10.5949
▁unknown	-10.595
▁enhance	-10.5951
▁suggested	-10.5952
▁perfect	-10.5953
▁ছাড়াই	-10.5954
▁ঝিনাইদহ	-10.5957
▁Ra	-10.5959
▁লাইন	-10.5959
▁twice	-10.5964
▁হোসাইন	-10.5964
▁career	-10.5964
▁landscape	-10.5966
▁Commission	-10.5967
▁সালাম	-10.5967
সন	-10.597
▁প্রয়োগ	-10.5974
tor	-10.5975
▁foreign	-10.5978
▁massive	-10.598
▁Native	-10.598
Re	-10.598
▁তথা	-10.5992
▁Me	-10.5993
প্রতি	-10.5994
▁voice	-10.5996
▁ইংল্যান্ডের	-10.5997
▁Michael	-10.5998
▁রাতের	-10.5999
▁Check	-10.5999
▁মিল	-10.5999
▁রেজা	-10.5999
▁ব্রাহ্মণবাড়িয়া	-10.6004
▁টেকনাফ	-10.6006
▁station	-10.6007
▁বাড়তে	-10.6007
▁Mary	-10.6008
▁ছেলের	-10.6009
▁কলেজে	-10.6011
▁চলতে	-10.6014
▁জানি	-10.6015
▁battle	-10.6015
▁height	-10.6016
▁fill	-10.6016
▁Take	-10.6017
ring	-10.602
▁babies	-10.6021
ব্য	-10.6027
▁সংস্কৃতি	-10.6028
হি	-10.6028
uc	-10.6029
▁পাঠ	-10.6032
▁reduction	-10.6038
▁কখনও	-10.604
▁জবাব	-10.6042
▁আরিফ	-10.6056
▁download	-10.6056
▁court	-10.6063
▁কর্মসূচির	-10.6066
▁মহাসড়কের	-10.6066
▁পাচ্ছেন	-10.6067
▁broad	-10.6069
▁Who	-10.6071
পার	-10.6073
▁বিনামূল্যে	-10.6079
▁সাদা	-10.6079
▁সিনেমায়	-10.6081
▁করবো	-10.6082
▁জাহান	-10.6083
▁Family	-10.6083
bi	-10.6089
bd	-10.609
দু	-10.6091
ina	-10.6093
▁ছাড়	-10.6096
▁connected	-10.61
▁Well	-10.6103
▁বলেছিলেন	-10.6104
▁আমেরিকার	-10.611
▁ship	-10.6114
▁accurate	-10.6117
wa	-10.612
her	-10.6121
▁আহবান	-10.6122
▁অভিযোগের	-10.6128
▁আমেরিকা	-10.6129
লী	-10.6137
▁ফুট	-10.6141
▁raise	-10.6147
▁নায়ক	-10.6148
▁threat	-10.6153
▁কারো	-10.6153
▁বিনিয়োগ	-10.6156
▁ইচ্ছা	-10.6166
▁drought	-10.617
৪৬	-10.6171
▁ফা	-10.6172
▁নজর	-10.6179
▁Good	-10.618
▁ব্যবহৃত	-10.618
▁screening	-10.6183
▁Federal	-10.6185
▁listed	-10.6186
▁played	-10.6188
▁Ko	-10.6191
▁Keep	-10.6194
▁পলাতক	-10.6195
▁Breaking	-10.6197
▁string	-10.6199
▁হু	-10.6206
▁Search	-10.6207
▁Charles	-10.6209
▁ব্যাটিং	-10.6209
▁Conservation	-10.621
▁leaders	-10.621
▁consumers	-10.6219
▁স্বাগত	-10.622
bit	-10.6223
mi	-10.6229
▁provider	-10.623
▁calcium	-10.6239
▁সহযোগিতায়	-10.6241
▁pick	-10.6241
▁Ho	-10.6242
▁spend	-10.6243
▁mainly	-10.6243
▁প্রিন্ট	-10.6248
▁regional	-10.625
▁মঞ্জুর	-10.6256
▁পে	-10.626
▁সেঞ্চুরি	-10.6263
▁ঘূর্ণিঝড়	-10.6266
▁বন্দ্যোপাধ্যায়	-10.6268
▁Friday	-10.6269
▁freedom	-10.6269
▁card	-10.6271
ইউ	-10.6273
▁সেগুলো	-10.6273
▁ফ্লাইট	-10.6275
▁চেক	-10.6279
▁aren	-10.6281
▁জজ	-10.6281
▁clearly	-10.6283
▁গঠিত	-10.6285
lu	-10.6285
▁দি	-10.6297
▁kidney	-10.6303
এক	-10.6304
▁আহতদের	-10.6305
▁শীর্ষে	-10.6309
ius	-10.6311
▁vital	-10.6312
▁ফরিদপুর	-10.6316
▁নিজে	-10.6316
▁ক্ষমতায়	-10.6317
▁frequency	-10.6318
▁ভোটার	-10.6325
▁নিবন্ধন	-10.6327
▁Tuesday	-10.6328
▁excellent	-10.6328
▁রাজ্জাক	-10.6328
কালীন	-10.6331
▁kill	-10.6332
▁কাপ	-10.6333
▁রাজা	-10.6336
▁মিটার	-10.634
▁গ্রহণের	-10.634
▁otherwise	-10.6344
ai	-10.6346
▁শ্রীলঙ্কা	-10.6347
▁edge	-10.6351
▁appeared	-10.6352
▁নেতার	-10.6352
▁রা	-10.6353
▁রোহিঙ্গাদের	-10.6354
▁শিক্ষামন্ত্রী	-10.6355
▁sequence	-10.6355
▁percentage	-10.6356
▁পূরণ	-10.6357
▁giant	-10.6357
▁cars	-10.6365
▁Management	-10.6372
▁injuries	-10.6372
▁vast	-10.6372
▁Law	-10.6375
▁নম্বরে	-10.6375
▁খেলাধুলা	-10.6376
▁walking	-10.6377
▁facilities	-10.6387
▁taste	-10.6388
▁পরিচালনায়	-10.6388
▁Martin	-10.6389
ong	-10.639
▁Wednesday	-10.6392
▁প্রেমের	-10.6392
▁returned	-10.6392
gi	-10.6393
▁শব্দ	-10.6393
▁produces	-10.6395
▁violence	-10.6396
▁পর্যায়ের	-10.6405
▁prepared	-10.6409
▁শরীফ	-10.6409
tu	-10.6411
▁waves	-10.6414
dy	-10.6416
▁কামরুল	-10.6417
▁ক্ষমা	-10.6418
ons	-10.6419
▁tumor	-10.6424
▁জাতিসংঘের	-10.6426
▁expression	-10.6437
▁মাত্রা	-10.6441
▁labor	-10.6447
▁agriculture	-10.6447
▁Nations	-10.6448
▁district	-10.6449
▁স্কুলে	-10.6451
▁ফর	-10.6457
ff	-10.6457
▁মাল	-10.6458
▁hundred	-10.6461
▁এইচ	-10.6465
মেন্ট	-10.6466
▁অসংখ্য	-10.6466
▁পঞ্চম	-10.6466
▁সাম্প্রতিক	-10.6467
▁saying	-10.6472
▁দোকানে	-10.6472
▁drop	-10.6473
▁গেলেও	-10.6475
▁consequences	-10.6476
▁বিদেশে	-10.6477
▁Instead	-10.6479
itis	-10.6484
ions	-10.6486
▁facts	-10.6488
▁সিলেটে	-10.6488
▁দুর্দান্ত	-10.6492
▁ক্রয়	-10.6493
ঙ্গা	-10.6493
▁selected	-10.6496
বাহী	-10.6499
ability	-10.65
vi	-10.6505
▁stone	-10.6508
",	-10.6516
▁focused	-10.652
▁স্পষ্ট	-10.6521
▁এক্সপ্রেস	-10.6522
▁adding	-10.653
▁বিদেশ	-10.6532
▁Environment	-10.6532
▁seek	-10.6536
▁পুনরায়	-10.6537
▁attacks	-10.6538
▁explained	-10.6538
▁পেসার	-10.6539
▁হাজী	-10.654
▁দেহ	-10.6541
▁আপাতত	-10.6541
▁diversity	-10.6545
▁জাফর	-10.6546
▁৪৮	-10.6549
▁choices	-10.6549
ক্ষ	-10.655
▁রেখেছে	-10.6552
▁fly	-10.6554
▁চক্রবর্তী	-10.6556
▁নিচ্ছে	-10.6557
ab	-10.656
There	-10.6561
▁উন্নয়নে	-10.6562
▁valuable	-10.6568
▁ডেস্কঃ	-10.6568
▁periods	-10.6577
▁কার	-10.658
▁helpful	-10.6582
▁Jesus	-10.6583
▁Wildlife	-10.6583
▁greatest	-10.6585
▁সমাবেশে	-10.6587
▁হাট	-10.6589
▁guidelines	-10.659
▁typical	-10.6592
▁পাক	-10.6592
▁পানির	-10.6592
এফ	-10.6598
▁উপসর্গ	-10.6599
দেশ	-10.661
▁শরীর	-10.6611
▁পিস	-10.6611
▁চাওয়া	-10.6613
^	-10.6613
za	-10.6614
▁traffic	-10.6617
▁farm	-10.6619
▁উল্লাহ	-10.662
▁Windows	-10.662
▁ঘন্টা	-10.6621
ov	-10.6624
▁মাটিতে	-10.6626
ile	-10.6626
ure	-10.6627
▁হাওলাদার	-10.6629
mail	-10.6631
▁novel	-10.6638
▁rocks	-10.6641
▁শাকিব	-10.6645
৫১	-10.6646
▁দূরত্ব	-10.6646
▁detect	-10.6648
▁Dhaka	-10.665
▁electronic	-10.6653
▁input	-10.6654
এন	-10.6657
▁universe	-10.6659
▁procedures	-10.666
▁বিনা	-10.6662
▁অভিজ্ঞতা	-10.6662
▁বরাত	-10.6664
▁ইনিংসে	-10.6667
▁raised	-10.6667
▁বন্যা	-10.667
▁০	-10.6672
▁experienced	-10.6673
▁পরও	-10.6673
▁জন্যই	-10.6675
▁inflammation	-10.668
▁rapidly	-10.668
▁লাগিয়ে	-10.6684
▁৩৯	-10.6686
▁যুবককে	-10.6691
▁শুধুমাত্র	-10.6691
▁বিসিবি	-10.6691
▁একদিন	-10.6692
জু	-10.6693
▁Richard	-10.6696
ised	-10.6698
▁advantage	-10.6699
▁decade	-10.67
▁fundamental	-10.67
▁closely	-10.6706
▁যুক্তরাজ্য	-10.6709
▁motor	-10.6711
▁views	-10.6711
▁shared	-10.6711
▁Southern	-10.6712
mm	-10.6712
tin	-10.6714
▁ইফতার	-10.6717
▁lung	-10.672
▁প্রতিরক্ষা	-10.6721
▁ঐতিহাসিক	-10.6725
▁সিএনজি	-10.6727
ec	-10.6729
▁constant	-10.6731
▁Da	-10.6737
▁গায়ে	-10.674
▁obtain	-10.6741
▁purposes	-10.6741
▁divided	-10.6745
▁সংসার	-10.6747
▁ধ্বংস	-10.6747
▁charge	-10.6747
▁bones	-10.6749
▁বেঁচে	-10.6752
▁স্মার্টফোন	-10.6752
▁fishing	-10.6752
▁সুপারিশ	-10.6752
▁transport	-10.6755
▁decided	-10.6759
▁Under	-10.676
▁moment	-10.6762
▁দুধ	-10.6763
▁feeling	-10.6764
▁বেশিরভাগ	-10.6767
▁introduction	-10.6767
▁Jews	-10.6769
ose	-10.677
ঞ্জ	-10.6771
▁ভোটের	-10.6772
▁উদ্দীন	-10.6774
▁slowly	-10.6775
▁আবারো	-10.6775
▁worth	-10.6778
▁চি	-10.6778
▁পুরোপুরি	-10.6783
▁শফিকুল	-10.6783
▁Type	-10.6784
▁satellite	-10.6785
▁producing	-10.6786
▁ডেকে	-10.6788
▁দশ	-10.6788
▁touch	-10.6789
▁calories	-10.679
▁Child	-10.6791
▁spot	-10.6796
▁প্রতীক	-10.6796
ub	-10.6798
▁স্বাক্ষরিত	-10.6799
▁specifically	-10.6801
▁fewer	-10.6801
▁কম্পিউটার	-10.6801
▁রাম	-10.6803
▁finally	-10.6807
▁regularly	-10.6809
▁teens	-10.6813
▁করছিলেন	-10.6816
▁THE	-10.6816
▁scientist	-10.6816
▁রিমান্ড	-10.682
▁studying	-10.6824
▁জের	-10.6826
▁describes	-10.6827
▁৫০০	-10.683
রাজ	-10.683
▁appearance	-10.683
fe	-10.6835
▁মৌসুমে	-10.6836
▁nine	-10.6842
য়ান	-10.6846
▁ব্যবহারের	-10.685
▁offered	-10.685
▁taught	-10.6851
▁Ba	-10.6858
▁agencies	-10.686
▁আইনশৃঙ্খলা	-10.6861
▁proposed	-10.6862
▁select	-10.6862
▁বৃষ্টির	-10.6868
▁ধরতে	-10.6868
▁মনি	-10.6868
▁মানবিক	-10.6875
▁শাহজালাল	-10.6876
▁tropical	-10.6877
▁Valley	-10.6877
▁প্রত্যাশা	-10.6877
▁অপহরণ	-10.6882
▁ইন্টারন্যাশনাল	-10.6883
▁regarding	-10.6884
টু	-10.6887
বল	-10.6888
▁Math	-10.6889
লীগ	-10.6892
▁Christ	-10.6893
▁সাফল্য	-10.6893
▁conventional	-10.6894
▁updated	-10.6896
▁speak	-10.6896
▁কাপড়	-10.6898
▁এটাই	-10.6898
▁ক্যাম্প	-10.6906
lic	-10.6907
▁strategy	-10.6908
▁molecules	-10.691
▁lessons	-10.6913
hi	-10.6915
▁করেনি	-10.6917
▁জাতিসংঘ	-10.6918
▁পরের	-10.6918
si	-10.6921
not	-10.6922
▁সোনা	-10.6927
▁Treatment	-10.6927
▁সং	-10.6928
▁চীনা	-10.693
▁Chapter	-10.693
▁ডাঃ	-10.6932
▁Israel	-10.6934
▁বাঙালি	-10.6935
▁sensitive	-10.6936
html	-10.694
▁সংসদে	-10.695
গুলির	-10.6956
▁কেমন	-10.6957
▁era	-10.696
▁মাদরাসা	-10.6963
▁সাব	-10.6965
▁Services	-10.6966
▁প্রতিবন্ধী	-10.6967
▁নির্যাতনের	-10.6967
▁readers	-10.6967
▁সমস্যার	-10.6969
▁Administration	-10.697
▁বাড়ানো	-10.6973
▁detail	-10.6973
▁legs	-10.6976
▁ফেব্রুয়ারী	-10.6977
▁ফ্রি	-10.6977
▁ক্যামেরা	-10.6978
▁বাসের	-10.6979
▁সরে	-10.698
▁abuse	-10.6983
▁পক্ষের	-10.6985
▁survival	-10.6986
▁লাগবে	-10.6987
▁Where	-10.6996
ফি	-10.7001
▁বাংলাদেশকে	-10.7002
▁Northern	-10.7003
▁Mark	-10.7006
▁notice	-10.7007
ঙ্ক	-10.7008
▁Star	-10.701
▁হোটেলে	-10.7011
▁sharing	-10.7011
▁স্বাধীন	-10.7016
▁vary	-10.702
ft	-10.7022
▁টুর্নামেন্ট	-10.7023
▁leaf	-10.7028
▁আগেও	-10.7034
▁diverse	-10.7035
▁গুণ	-10.7035
▁assist	-10.7036
▁horse	-10.7036
▁সেখানেই	-10.7038
▁Thursday	-10.7039
▁রোধে	-10.7039
▁নেতাকর্মীরা	-10.7042
▁একদিনে	-10.7042
▁Early	-10.7044
▁operation	-10.7046
▁leader	-10.7051
▁naturally	-10.7052
▁manner	-10.7052
▁ড্র	-10.7052
▁এভাবে	-10.7052
ens	-10.7061
▁ভাষায়	-10.7063
▁Power	-10.7063
▁আঞ্চলিক	-10.7066
ন্ট	-10.7071
▁decrease	-10.7072
▁funding	-10.7072
▁দাবী	-10.7075
ot	-10.708
▁respond	-10.7083
▁উদ্দেশ্য	-10.7088
▁relationships	-10.709
▁toxic	-10.7091
▁১০টায়	-10.7096
▁রোগীদের	-10.7096
▁Atlantic	-10.7097
▁habits	-10.7106
▁Every	-10.7106
▁কষ্ট	-10.7107
▁handle	-10.7108
▁আগ্রহ	-10.7113
▁narrow	-10.7114
▁Board	-10.7114
▁সাগর	-10.7118
▁হে	-10.7119
▁orbit	-10.7121
▁bangla	-10.7121
▁পরিশোধ	-10.7121
মুক্ত	-10.7124
▁Brown	-10.7124
▁আজিজ	-10.7127
ভূমি	-10.7128
▁tube	-10.7129
▁রাহুল	-10.713
▁মালেক	-10.713
▁harmful	-10.7131
▁Solar	-10.7131
▁সবকিছু	-10.7135
▁গলা	-10.7135
▁replace	-10.7136
▁Henry	-10.7138
fish	-10.7142
▁শীর্ষক	-10.7142
খালী	-10.7145
▁friend	-10.7145
▁স্বেচ্ছাসেবক	-10.7146
▁Heritage	-10.7146
▁responsibility	-10.7146
▁উঠতে	-10.7146
▁আসাদুজ্জামান	-10.7146
▁মাটি	-10.715
▁Chicago	-10.7151
▁ব্যক্তিকে	-10.7151
ন্দ	-10.7154
▁অর্থমন্ত্রী	-10.7156
▁শনাক্তের	-10.716
▁familiar	-10.7161
wood	-10.7163
▁উত্তেজনা	-10.7164
▁signals	-10.7169
▁বলিউডের	-10.717
▁উল	-10.7171
▁possibly	-10.7172
▁extensive	-10.7173
▁rapid	-10.7173
▁কুমিল্লার	-10.7173
▁বোলিং	-10.7177
▁মেয়েকে	-10.7178
▁হযরত	-10.7178
ped	-10.7179
▁নৌ	-10.7183
▁অ্যাড	-10.7186
কেই	-10.719
▁Plan	-10.7191
▁মোদি	-10.7193
▁করেননি	-10.7197
▁younger	-10.7203
▁Contact	-10.7204
▁refers	-10.7204
▁calls	-10.7208
▁nerve	-10.721
▁মন্ডল	-10.721
▁জুয়েল	-10.721
▁আবাসিক	-10.7211
▁depends	-10.7212
▁effectively	-10.7213
▁estimates	-10.7216
▁শান্ত	-10.7217
▁মানিক	-10.722
▁উন্নতি	-10.7223
▁Ha	-10.7224
▁যাত্রীদের	-10.7224
▁সরকারকে	-10.7228
▁রায়ের	-10.7228
▁Any	-10.7232
▁launched	-10.7236
▁নোটিশ	-10.7238
▁answers	-10.7238
▁pounds	-10.7239
▁বৃদ্ধির	-10.7241
▁ফাউন্ডেশন	-10.7241
▁neck	-10.7241
work	-10.7242
▁সদ্য	-10.7244
▁county	-10.7247
▁honor	-10.7249
▁researcher	-10.7252
▁ইং	-10.726
▁Change	-10.726
▁Court	-10.7262
ডা	-10.7262
▁স্বীকৃতি	-10.7263
▁component	-10.7264
▁monitor	-10.7265
▁Peter	-10.7266
▁cognitive	-10.7266
▁যোগদান	-10.7266
▁৩৮	-10.7266
▁বিবেচনায়	-10.7266
▁pretty	-10.7275
▁arms	-10.7276
াস	-10.7278
▁মোকাবিলায়	-10.728
▁নির্দেশে	-10.7287
রাও	-10.729
▁agency	-10.7292
field	-10.7292
▁গাঁজা	-10.7293
nt	-10.7294
▁prices	-10.7298
দ্য	-10.7299
▁vehicles	-10.7299
▁institutions	-10.7299
▁cards	-10.7303
▁met	-10.7306
▁এরশাদ	-10.7308
▁চিহ্নিত	-10.7309
▁কারনে	-10.7309
What	-10.731
▁forced	-10.731
▁আসর	-10.7313
▁লকডাউনের	-10.7313
▁resolution	-10.732
▁রো	-10.7322
▁আকবর	-10.7324
▁রায়হান	-10.7325
▁ball	-10.7326
▁ex	-10.7326
▁বিবিসি	-10.7329
২০২০	-10.7331
▁approaches	-10.7333
▁Start	-10.7336
▁বিধি	-10.7338
▁অপু	-10.7338
▁মানবাধিকার	-10.7341
▁কমিউনিটি	-10.7341
▁Among	-10.7341
▁ব্যথা	-10.7341
▁sick	-10.7342
▁emotional	-10.7344
▁mountain	-10.7344
▁পু	-10.7347
▁পদ্ধতি	-10.7348
▁arm	-10.7351
তু	-10.7352
ময়	-10.7354
বু	-10.7354
▁symbol	-10.7355
▁en	-10.7355
▁ওয়েবসাইট	-10.7357
act	-10.7362
▁জোট	-10.7362
▁citizens	-10.7365
▁recognize	-10.7366
▁লিগের	-10.737
ps	-10.737
istic	-10.7374
াধীন	-10.7378
▁পাবলিক	-10.7379
▁রমজান	-10.738
▁recognized	-10.7382
▁মোড়	-10.7386
াম	-10.7389
▁প্রাপ্ত	-10.739
▁leaving	-10.739
▁ন্যাশনাল	-10.7391
▁Sometimes	-10.7392
▁ভুয়া	-10.7392
ঙ	-10.7393
▁সন্দেহ	-10.7393
▁কমপক্ষ	-10.7396
▁worse	-10.7397
▁জানেন	-10.7399
▁শূন্য	-10.74
▁obtained	-10.7402
▁stored	-10.7403
▁বয়সে	-10.7404
▁৪৯	-10.7408
▁টুইট	-10.7409
▁remained	-10.741
▁master	-10.7412
গ্রাম	-10.7413
▁Though	-10.7417
▁Yet	-10.7419
স্	-10.7421
▁গুলিতে	-10.7421
▁lake	-10.7422
▁ভালোবাসা	-10.7422
▁ব্যুরো	-10.7423
▁sentence	-10.7425
▁Du	-10.7426
▁দিল্লি	-10.7426
▁আছি	-10.7427
▁relevant	-10.7428
▁breathing	-10.7437
▁mild	-10.7438
▁oral	-10.7442
▁পল্লী	-10.7447
▁সিরাজগঞ্জ	-10.7451
▁সাজা	-10.7452
▁Men	-10.7453
▁শিশুকে	-10.7453
▁পশ্চিমবঙ্গ	-10.7454
▁শ্রীলঙ্কার	-10.7458
খা	-10.7462
▁রেখেছেন	-10.7465
ker	-10.7467
▁opening	-10.7472
▁Christmas	-10.7473
▁department	-10.7475
▁দিনব্যাপী	-10.7477
▁server	-10.7478
▁ক্যা	-10.7478
▁sweet	-10.7479
▁বু	-10.7481
mp	-10.7482
▁museum	-10.7483
লের	-10.7484
▁দর্শক	-10.7484
▁controlled	-10.7486
▁feeding	-10.7486
▁নীল	-10.7489
▁physician	-10.7492
▁গাছের	-10.7494
AL	-10.7496
ble	-10.7502
▁Vi	-10.7506
▁পিটিয়ে	-10.7506
▁ওপেনার	-10.7509
▁বৈ	-10.7514
level	-10.7515
▁starts	-10.752
▁Di	-10.7523
▁অজ্ঞাত	-10.7523
▁কোথায়	-10.7524
▁ফাউন্ডেশনের	-10.7525
▁selection	-10.7527
হু	-10.7527
▁কক্সবাজারের	-10.7529
▁রোড	-10.7531
▁increasingly	-10.7534
ok	-10.7539
▁sector	-10.7539
▁Sunday	-10.7541
▁সন্ধান	-10.7542
▁পাসপোর্ট	-10.7542
▁edition	-10.7542
▁সম	-10.7544
▁নুসরাত	-10.7546
এল	-10.7548
▁historic	-10.7549
▁প্রদর্শন	-10.7549
▁instruments	-10.7551
▁রিট	-10.7551
▁organisms	-10.7554
▁স্বাক্ষর	-10.7555
▁Channel	-10.7557
েশন	-10.7558
▁Back	-10.756
▁বাড়াতে	-10.756
৬০	-10.7561
last	-10.7563
▁Live	-10.7565
ade	-10.7566
▁৪৩	-10.7566
▁claim	-10.7569
▁leads	-10.7572
▁মজুমদার	-10.7573
▁মাস্টার	-10.7576
▁বার্ষিক	-10.7577
▁Per	-10.7583
▁আইনি	-10.7586
▁wish	-10.7587
▁nations	-10.7588
▁স্ত্রীকে	-10.7588
▁tradition	-10.7589
▁talking	-10.7589
▁extent	-10.759
▁পরেই	-10.7591
▁governments	-10.7594
▁sort	-10.7595
▁coastal	-10.7595
▁viruses	-10.7599
▁ইতিহাসে	-10.7601
scale	-10.7601
▁মেরে	-10.7602
▁অধীনে	-10.7602
▁ছাত্রদলের	-10.7603
▁প্রত্যেক	-10.7605
▁Plant	-10.7605
▁হাকিম	-10.7606
▁interactive	-10.7608
▁ক্রিকেটের	-10.7609
▁substance	-10.761
▁Ni	-10.7611
▁Asian	-10.7613
▁ব্রাজিল	-10.7614
▁নীতি	-10.7615
▁Update	-10.7616
▁সংগীত	-10.7617
▁sets	-10.7617
▁option	-10.7617
▁Up	-10.7622
▁Po	-10.7625
▁broken	-10.7625
▁মার	-10.7629
উদ্দিন	-10.763
ach	-10.7633
▁Photo	-10.7637
▁৫৫	-10.7637
▁৭৫	-10.7637
▁Such	-10.7638
▁concerned	-10.7638
▁সেতুমন্ত্রী	-10.7642
▁catch	-10.7644
▁অর্থবছরে	-10.7647
▁revealed	-10.7648
uk	-10.765
▁brief	-10.7652
▁Design	-10.7655
▁নেবে	-10.7656
▁expensive	-10.7658
▁represents	-10.7659
▁photos	-10.7663
▁certainly	-10.7664
▁উপস্থাপন	-10.7665
▁ideal	-10.7669
▁tells	-10.7675
▁reality	-10.7679
▁wave	-10.7682
▁decide	-10.7684
▁nose	-10.7686
▁বিস্তার	-10.769
▁array	-10.7695
▁Image	-10.7696
▁দরজা	-10.7696
▁conflict	-10.7697
▁ইরান	-10.7697
▁observations	-10.7705
▁Kids	-10.7706
▁tea	-10.7707
ud	-10.7708
▁ছুটে	-10.7709
▁স্টক	-10.771
▁উদ্দিনের	-10.7711
tz	-10.7714
▁eastern	-10.7716
▁Safety	-10.7716
▁মানে	-10.7719
▁examine	-10.772
▁Committee	-10.7726
▁communicate	-10.7726
▁autism	-10.7726
▁Lord	-10.7726
▁রাষ্ট্রীয়	-10.7727
▁সমান	-10.7728
▁artists	-10.7728
▁conference	-10.773
▁একথা	-10.7732
▁Moon	-10.7733
▁Colorado	-10.7743
▁অনু	-10.7747
▁লিগে	-10.7749
▁রস	-10.775
▁sp	-10.7754
▁except	-10.7758
▁ঝুল	-10.7759
▁principal	-10.776
▁rural	-10.776
▁ছ	-10.7763
▁বারবার	-10.7764
▁concentration	-10.7764
▁ওয়ার্ডে	-10.7766
▁৭২	-10.7767
টো	-10.7773
▁রবিউল	-10.7776
▁insulin	-10.7777
▁Company	-10.7777
▁Forest	-10.7779
▁ভাইয়ের	-10.778
▁chief	-10.7789
▁জনকন্ঠ	-10.7797
▁বিশেষজ্ঞ	-10.78
▁Work	-10.7804
▁household	-10.7805
▁nor	-10.7806
▁filled	-10.7807
▁couple	-10.7809
▁programming	-10.7812
mar	-10.7813
মত	-10.7816
▁জ্ঞান	-10.7817
ible	-10.7817
▁managed	-10.7821
▁এগুলো	-10.7822
▁drawing	-10.7823
▁জয়ী	-10.7827
▁খ্রিস্টাব্দ	-10.7828
▁আশ্বাস	-10.7829
▁EPA	-10.7829
▁নিন্দা	-10.783
▁marked	-10.7831
▁generated	-10.7832
▁কর্মকর্তার	-10.7837
▁ওয়ার্ল্ড	-10.7839
▁মীর	-10.7844
▁অধিকাংশ	-10.7846
▁gender	-10.7846
পূর্ণ	-10.7846
▁contained	-10.7848
▁নেতাকর্মীদের	-10.7851
▁party	-10.7853
▁অঞ্চল	-10.7854
▁trouble	-10.7855
▁৪৪	-10.7856
▁physics	-10.7859
▁সক্রিয়	-10.7863
▁স্বাধীনতার	-10.7865
▁whom	-10.7868
▁থেকেও	-10.787
▁ঘোষিত	-10.787
let	-10.7872
▁রাজশাহীর	-10.7872
pro	-10.7872
▁instrument	-10.7872
▁এক্স	-10.7875
▁USA	-10.7876
▁নাটক	-10.7877
▁পেল	-10.7878
▁১০টি	-10.788
▁মেট্রোপলিটন	-10.788
▁meters	-10.7883
can	-10.7889
▁participate	-10.789
▁আইপিএল	-10.7891
▁ধাক্কায়	-10.7892
▁ইয়াবাসহ	-10.7893
ম্ব	-10.7894
▁বর্ষ	-10.7895
▁Russian	-10.7896
ক্স	-10.7896
▁walls	-10.7898
▁সংবর্ধনা	-10.7899
▁ফিরতে	-10.79
▁generate	-10.7914
▁favorite	-10.7916
▁সকলকে	-10.7918
which	-10.7926
times	-10.7927
my	-10.7928
গুলোকে	-10.7929
EP	-10.7929
▁Agriculture	-10.7932
▁biggest	-10.7932
▁অভিনন্দন	-10.7932
▁পুরনো	-10.7932
▁seeing	-10.7937
▁৪২	-10.794
▁দক্ষতা	-10.7942
▁চাষ	-10.7943
▁Street	-10.795
▁ভূ	-10.7952
▁fair	-10.7954
▁রেলওয়ে	-10.7956
▁trial	-10.7962
▁remaining	-10.7963
▁পর্ব	-10.7965
▁বাড়ানোর	-10.7965
▁environments	-10.7966
▁খোকন	-10.7967
kin	-10.797
▁Fish	-10.7971
▁figures	-10.7972
িল	-10.7978
▁Sch	-10.7982
▁ব্যারিস্টার	-10.7985
▁truth	-10.7985
▁maximum	-10.7985
▁ইলিশ	-10.7988
পত্র	-10.7988
▁compounds	-10.799
▁Nov	-10.7991
such	-10.7991
▁গড়	-10.7993
IST	-10.7996
▁এলে	-10.7999
ell	-10.8001
▁bed	-10.8006
▁sold	-10.8006
pur	-10.8007
▁refer	-10.8008
▁hormone	-10.8009
▁প্রয়োজনে	-10.8016
▁অনেকটা	-10.8022
▁গিয়েছিলেন	-10.8024
▁launch	-10.8025
▁ক্রাইম	-10.8029
▁কিনে	-10.8031
▁পাঁচটি	-10.8033
dis	-10.8034
▁নিউজিল্যান্ড	-10.8037
▁আহম্মেদ	-10.8037
▁exchange	-10.8037
▁উপরে	-10.8039
▁ওমর	-10.8039
▁আনুষ্ঠানিকভাবে	-10.8039
▁organized	-10.804
hand	-10.8042
▁establish	-10.8043
▁দান	-10.8044
ator	-10.8048
▁shot	-10.8048
▁গতি	-10.8051
▁Download	-10.8053
fer	-10.8054
োয়া	-10.8055
▁journey	-10.8055
▁মোতায়েন	-10.8055
▁বাম	-10.8056
▁কাউন্সিল	-10.8063
▁Bank	-10.8065
▁মিরপুর	-10.8065
ging	-10.8071
▁মেম্বার	-10.8073
▁২০১৩	-10.8074
▁Ask	-10.8077
▁locations	-10.808
▁derived	-10.8089
▁supplies	-10.809
▁চিকিৎসকরা	-10.809
▁টেক	-10.8093
▁শর্ত	-10.8095
▁সান	-10.8096
ক্র	-10.8096
▁৪১	-10.8097
▁আফ্রিকার	-10.8099
▁harm	-10.8102
▁error	-10.8103
▁cats	-10.8103
lan	-10.8106
▁ঘোষণার	-10.8107
▁নিম্ন	-10.8108
▁দেখানো	-10.8108
▁ইউএনও	-10.8109
▁Ta	-10.8109
▁জমির	-10.8111
▁লাইফ	-10.8113
▁biology	-10.8114
▁বিমানবন্দর	-10.8117
▁stages	-10.8121
▁গানটি	-10.8121
▁দৃষ্টি	-10.8131
রত	-10.8131
▁প্রতিযোগিতায়	-10.8136
▁ওভার	-10.8137
▁ধ	-10.8141
▁Dis	-10.8143
▁পারছেন	-10.8144
▁মাননীয়	-10.8144
▁দুইজন	-10.8144
▁মহামারী	-10.8146
▁কারখানা	-10.8147
▁সদরের	-10.8149
▁অন	-10.8154
▁তোলার	-10.8158
▁সামান্য	-10.8161
▁মেজর	-10.8161
▁ব্যক্তিদের	-10.8165
▁মামলাটি	-10.8166
▁infants	-10.8166
▁সোয়া	-10.8166
▁২টি	-10.8168
▁throat	-10.8172
▁ইউনিভার্সিটি	-10.8172
▁movements	-10.8175
har	-10.8177
▁transfer	-10.8179
▁external	-10.8179
▁Through	-10.8179
▁জমিতে	-10.8183
্ব	-10.8184
▁Mc	-10.8184
▁lungs	-10.8186
▁orange	-10.819
▁printed	-10.8193
▁চাঁদ	-10.8194
called	-10.8194
▁conduct	-10.8196
▁মন্দির	-10.8197
▁solve	-10.8197
▁বাঁধ	-10.8203
▁indicates	-10.8206
▁প্রতিনিধিঃ	-10.8208
ৌ	-10.821
▁জনক	-10.821
▁একুশে	-10.8212
▁প্রতিবেশী	-10.8214
▁battery	-10.8215
▁জখম	-10.8215
▁তল্লাশি	-10.8215
▁covers	-10.8216
▁রবি	-10.8216
▁entry	-10.8216
port	-10.8216
ms	-10.8218
▁স্বর্ণ	-10.8218
▁attached	-10.8219
▁যাবত	-10.8221
▁Ben	-10.8231
▁Feb	-10.8231
কারীদের	-10.8231
▁pregnant	-10.8233
▁সুরমা	-10.8233
▁শাহরুখ	-10.824
pi	-10.8242
▁successfully	-10.8244
▁instruction	-10.8244
▁মার্কেট	-10.8245
▁Russia	-10.825
®	-10.8251
▁spacecraft	-10.8251
▁আরবের	-10.8255
▁হৃদয়	-10.8258
▁chain	-10.826
▁insect	-10.8261
▁king	-10.8262
▁Special	-10.8268
▁Organization	-10.8269
▁rising	-10.8269
▁meal	-10.828
বান	-10.8281
▁burning	-10.8285
▁meant	-10.8286
▁District	-10.8287
▁মোস্তাফিজুর	-10.8287
▁খাওয়ার	-10.8287
▁publication	-10.8288
▁sheet	-10.829
▁creative	-10.8293
▁দেশীয়	-10.8294
▁Help	-10.8299
দে	-10.83
▁column	-10.8304
▁expert	-10.8306
▁wait	-10.8308
ত্ত	-10.8311
▁সহজেই	-10.8313
ville	-10.8315
▁বিবেচনা	-10.8315
▁mark	-10.8316
▁measurements	-10.8316
▁sides	-10.8317
▁হাসি	-10.8323
রণ	-10.8323
▁শিক্ষকদের	-10.8323
▁হকের	-10.8323
▁মেয়েদের	-10.8325
▁প্রকার	-10.8325
▁join	-10.8326
▁মৃতদেহ	-10.8333
▁count	-10.8335
▁cutting	-10.8336
ID	-10.8338
▁আগ্রহী	-10.8339
▁boys	-10.834
▁অপরদিকে	-10.8341
▁ca	-10.8345
▁খাগড়াছড়ি	-10.8349
?"	-10.8357
▁debt	-10.8359
▁জসিম	-10.8359
▁capable	-10.836
ib	-10.8362
▁CDC	-10.8362
▁করলো	-10.8363
▁মিনিটের	-10.8365
▁chapter	-10.837
▁peak	-10.837
▁বিদ্যালয়ে	-10.8375
▁Pratidin	-10.8377
লিয়া	-10.8377
▁তদন্তে	-10.8378
▁Species	-10.8381
▁পূর্বে	-10.8383
▁tried	-10.8387
▁শহিদুল	-10.8389
▁breeding	-10.839
RC	-10.8391
▁কারও	-10.8392
▁দে	-10.8394
ick	-10.8395
▁বাড়তি	-10.8395
▁জামায়াত	-10.8395
▁pair	-10.8396
▁secondary	-10.8398
▁lists	-10.8399
▁আনসার	-10.8399
▁ফিচার	-10.84
▁লু	-10.84
▁বন্ধের	-10.8407
▁ইতিমধ্যেই	-10.8413
▁৬৫	-10.8417
▁Word	-10.8418
▁Fe	-10.8418
▁প্রার্থীর	-10.8428
side	-10.8428
und	-10.8429
▁courses	-10.843
▁religion	-10.8432
▁অনুসারে	-10.8432
▁হাবিবুর	-10.8433
▁বলার	-10.8433
q	-10.8435
▁শিরোনাম	-10.8435
▁কাটিয়ে	-10.8439
▁গুঞ্জন	-10.845
▁Arctic	-10.845
▁leg	-10.8451
▁dedicated	-10.8451
▁আমিনুল	-10.8452
▁Ne	-10.8455
▁discover	-10.8456
▁medicines	-10.8456
▁implement	-10.8458
▁foundation	-10.8458
▁রাজু	-10.8462
▁দায়িত্বে	-10.8463
ward	-10.8464
▁collect	-10.8468
▁vulnerable	-10.8469
▁Georgia	-10.8469
▁এনামুল	-10.8469
▁আক্রমণ	-10.8473
▁lots	-10.8474
▁গাজী	-10.8478
▁peace	-10.8479
▁মোটর	-10.848
▁follows	-10.8482
▁আশরাফুল	-10.8485
You	-10.8486
▁যথেষ্ট	-10.8487
▁lay	-10.8491
▁৭১	-10.8492
▁সাঈদ	-10.8494
▁closer	-10.8496
▁marriage	-10.8497
▁ধাপে	-10.8502
▁closed	-10.8502
▁discussed	-10.8503
▁estimate	-10.851
▁প্রয়াত	-10.851
▁cancers	-10.8511
▁recommendations	-10.8515
▁পড়লে	-10.8515
▁Hall	-10.8516
pre	-10.852
▁আফ্রিকা	-10.8521
▁আড়াই	-10.8522
▁নোয়াখালী	-10.8523
▁মাদকদ্রব্য	-10.8524
▁y	-10.8526
ag	-10.8529
▁houses	-10.853
▁Gu	-10.8536
▁professionals	-10.8537
▁tall	-10.8538
▁যথাযথ	-10.854
with	-10.8542
▁উপাদান	-10.8542
bar	-10.8545
▁depth	-10.8548
▁trip	-10.8548
▁জু	-10.8551
▁border	-10.8552
▁situations	-10.8554
▁ক্ষোভ	-10.8556
▁equivalent	-10.8561
▁Newspaper	-10.8561
▁Care	-10.8561
▁presentation	-10.8562
▁মর্যাদা	-10.8563
▁thousand	-10.8564
থা	-10.8566
▁antibiotics	-10.8571
med	-10.8572
▁চালান	-10.8572
▁নির্মাণের	-10.8575
od	-10.8576
▁happened	-10.8578
cho	-10.8579
▁coffee	-10.8579
▁ভিটামিন	-10.8579
▁recovery	-10.8582
▁ফিরেছেন	-10.8584
▁নয়া	-10.859
▁খাতে	-10.8592
▁শাহীন	-10.8594
▁পত্রিকা	-10.8594
▁পাঠানোর	-10.8598
▁identity	-10.8598
▁যিনি	-10.8598
▁ফরিদ	-10.8599
ological	-10.8601
▁নেবেন	-10.8607
▁অলরাউন্ডার	-10.8617
▁প্রতিশ্রুতি	-10.8617
▁সৌরভ	-10.8617
▁hole	-10.8619
ki	-10.8622
▁আইসিসি	-10.8622
▁টেস্টের	-10.8631
▁রাজধানীতে	-10.8632
▁photographs	-10.8633
▁প্রাকৃতিক	-10.8635
▁মনোনীত	-10.8636
▁Protection	-10.8636
▁কথায়	-10.8636
ঢাকা	-10.8639
pos	-10.864
▁reader	-10.864
▁Bar	-10.8642
US	-10.8642
▁Marine	-10.8644
াত	-10.8644
বাস	-10.8647
▁পাশ	-10.8647
▁composition	-10.8649
ER	-10.865
▁ভার্চুয়াল	-10.865
▁improving	-10.8654
▁announced	-10.8656
▁শেরপুর	-10.8662
▁পাই	-10.8665
ification	-10.8668
▁description	-10.8668
কুল	-10.8672
▁Saturday	-10.8673
set	-10.8677
▁domestic	-10.8678
▁জনতা	-10.868
▁button	-10.868
▁stands	-10.868
▁দরিদ্র	-10.8681
▁Try	-10.8682
▁করপোরেশনের	-10.8683
▁bank	-10.8688
▁দায়ী	-10.869
▁তারিখে	-10.8692
▁Army	-10.8694
▁carefully	-10.8696
chi	-10.8696
ji	-10.8699
type	-10.8703
▁নিয়েও	-10.8705
▁পাবনা	-10.8709
▁দুর্ঘটনার	-10.871
▁ঠেকাতে	-10.871
▁greatly	-10.8711
▁colour	-10.8711
▁newspaper	-10.8716
▁adopted	-10.8716
▁আলি	-10.8717
▁ট্রেনের	-10.8724
বী	-10.8725
▁টাইম	-10.8728
▁Therefore	-10.8729
▁acres	-10.8732
▁একজনের	-10.8733
▁সিদ্দিকী	-10.8738
ks	-10.8738
▁সুলতান	-10.8739
▁Author	-10.8746
▁ইন্ডিয়া	-10.8749
▁implementation	-10.8751
▁Bible	-10.8751
▁শর্মা	-10.8752
▁ইউনিটের	-10.8755
▁ভেতর	-10.8756
ran	-10.8758
▁immediate	-10.8761
▁অপেক্ষায়	-10.8762
▁পাল্টা	-10.8766
▁পলাশ	-10.8767
▁Italy	-10.8767
br	-10.8768
▁organs	-10.8772
▁সাইট	-10.8773
▁Ge	-10.8773
”.	-10.878
▁চত্বরে	-10.8782
car	-10.8783
▁paint	-10.8784
▁shall	-10.8786
▁হয়রানি	-10.8786
প্রাপ্ত	-10.8787
▁Diabetes	-10.879
▁সম্পর্কিত	-10.8792
▁নিউজিল্যান্ডের	-10.8793
▁mothers	-10.8793
AS	-10.8796
▁বার্ষিকী	-10.8798
▁ভিসা	-10.8799
▁permanent	-10.8799
▁ইট	-10.88
ect	-10.8803
▁participation	-10.8805
▁কোরআন	-10.8805
king	-10.8806
▁transportation	-10.8806
▁wet	-10.8806
ung	-10.8808
▁মাদ্রাসার	-10.8809
but	-10.881
▁দিয়েছি	-10.881
▁frequent	-10.8812
চর	-10.8814
▁হারে	-10.8816
▁Ireland	-10.8824
▁Division	-10.8824
▁তাছাড়া	-10.8825
▁ইসলামিক	-10.8825
▁suffering	-10.8826
▁burn	-10.8827
▁সাধারণত	-10.8829
▁সন্ত্রাস	-10.883
▁ভক্ত	-10.8831
▁পাড়া	-10.8835
▁হালকা	-10.8838
▁turns	-10.884
▁mechanism	-10.884
▁বহিষ্কার	-10.8843
▁ময়না	-10.8843
▁৪৭	-10.8844
▁frame	-10.8845
▁বয়ে	-10.8846
cy	-10.8847
▁আসরে	-10.8851
▁আনুষ্ঠানিক	-10.8852
▁পটুয়াখালী	-10.8858
▁perspective	-10.8859
▁মোদী	-10.8859
▁rivers	-10.8862
▁minimum	-10.8862
▁শাহজাহান	-10.8862
▁assistance	-10.8862
িজ	-10.8864
▁breath	-10.8864
▁mis	-10.8865
▁গণমাধ্যমকে	-10.8867
▁endangered	-10.8868
▁straight	-10.8868
গু	-10.8873
▁প্রার্থীদের	-10.8873
▁Oct	-10.8877
▁crisis	-10.8881
পু	-10.8881
▁budget	-10.8881
▁exhibit	-10.8882
▁variable	-10.8885
গার	-10.8886
▁tasks	-10.8887
▁আল্লাহর	-10.8889
hu	-10.889
▁সাক্ষাৎকারে	-10.8891
▁দিয়েছিল	-10.8894
▁ahead	-10.8894
▁purchase	-10.8895
▁fiber	-10.8895
▁টিকার	-10.8897
gar	-10.8905
▁এয়ার	-10.8906
▁reactions	-10.8908
▁পৌন	-10.8912
%)	-10.8918
▁সঞ্চালনায়	-10.8922
▁তম	-10.8924
▁depend	-10.8924
▁সংস্কার	-10.8926
▁জাতি	-10.8928
Q	-10.893
▁demonstrate	-10.8931
▁generations	-10.8931
low	-10.8931
াই	-10.8933
bu	-10.8937
book	-10.8939
▁লন্ডন	-10.894
▁শিগগিরই	-10.8941
▁বর	-10.8948
▁stock	-10.8949
▁flower	-10.8951
▁associate	-10.8953
িকা	-10.8954
()	-10.8954
▁cord	-10.8958
▁সেজন্য	-10.8958
▁ঈদে	-10.8963
▁আন	-10.8964
▁inner	-10.8966
ians	-10.8967
▁modified	-10.8967
▁সহায়তায়	-10.8968
▁নারীকে	-10.8968
▁substances	-10.8974
ik	-10.8975
▁unless	-10.8975
▁cultures	-10.8976
▁জেলে	-10.8976
▁Zealand	-10.8977
▁medium	-10.8977
▁architecture	-10.8977
▁রিপন	-10.8978
▁aircraft	-10.8978
▁nearby	-10.8979
▁min	-10.898
▁visitors	-10.8981
শান	-10.8983
▁যাচাই	-10.8983
▁৫টা	-10.8984
▁rely	-10.8988
▁Station	-10.8989
ee	-10.899
▁opened	-10.899
▁partners	-10.8993
▁Lu	-10.8995
▁অপরাজিত	-10.8997
▁ডেপুটি	-10.8997
▁পার্বত্য	-10.8997
▁Facebook	-10.8997
▁দুর্যোগ	-10.8998
▁সেতুর	-10.8999
▁Engineering	-10.8999
▁বাঁচাতে	-10.9001
▁acids	-10.9002
▁সভার	-10.9004
▁বোতল	-10.9008
ries	-10.9009
▁পেয়েছি	-10.9012
মুখী	-10.9013
পুরে	-10.9014
▁outer	-10.9015
▁দলটির	-10.9016
▁অস্বীকার	-10.9016
▁বিশ্বব্যাপী	-10.9016
▁artist	-10.9017
▁Eastern	-10.9017
▁অন্যদের	-10.902
▁চাপা	-10.902
▁ভাঙচুর	-10.9021
AP	-10.9022
▁বিগত	-10.9023
▁কুড়িগ্রাম	-10.9026
▁Age	-10.9028
▁কন	-10.9029
▁গাড়িতে	-10.9031
our	-10.9036
▁কিছুক্ষণ	-10.9038
▁বিক্রির	-10.904
▁transition	-10.904
বার্তা	-10.9049
▁Open	-10.9053
ver	-10.9053
▁plate	-10.9054
▁Egypt	-10.9054
▁কোর্টের	-10.9054
▁মাংস	-10.9055
▁ডাউনলোড	-10.9056
▁চাকমা	-10.9057
▁দেখেন	-10.9057
▁পণ্যের	-10.9059
ন্স	-10.9061
▁extended	-10.9064
▁অবস্থানে	-10.9065
▁সেন্টারে	-10.9065
▁বালু	-10.9071
▁Young	-10.9072
sis	-10.9075
▁বেঞ্চ	-10.9077
▁বিকাশ	-10.9078
▁thick	-10.908
To	-10.9082
▁Smith	-10.9082
বর	-10.9084
well	-10.9085
▁তালা	-10.9087
▁Chi	-10.9087
আমার	-10.9087
▁ডিম	-10.9088
▁Su	-10.9088
sc	-10.909
▁অ্যাকাউন্ট	-10.9091
▁যাচ্ছিল	-10.9092
▁Paris	-10.9093
▁একা	-10.9093
▁competition	-10.9094
▁diameter	-10.9094
▁অপরাধে	-10.9095
▁mentioned	-10.9095
▁dance	-10.9096
▁Leave	-10.9096
শত	-10.9098
▁ভ্যান	-10.9101
▁ওয়ান	-10.9101
▁islands	-10.9101
ING	-10.9101
▁Lincoln	-10.9101
নিয়া	-10.9102
▁debate	-10.9105
▁রোগে	-10.9107
IS	-10.9113
▁Community	-10.9113
▁মোশাররফ	-10.9113
▁নোট	-10.9114
▁রাউন্ড	-10.9114
▁শে	-10.9115
▁Philadelphia	-10.9116
▁বেছে	-10.9116
▁নাঈম	-10.9119
LE	-10.912
▁grain	-10.912
▁দত্ত	-10.9122
▁সবসময়	-10.9123
▁৫৬	-10.9127
▁তৃণমূলের	-10.9127
▁দায়	-10.9129
▁item	-10.9129
▁নরসিংদী	-10.913
▁felt	-10.9133
▁Test	-10.9136
▁university	-10.9137
▁apart	-10.914
ীন	-10.9142
▁involving	-10.9144
▁জানাজা	-10.9144
▁unusual	-10.9147
▁ডাকাত	-10.9151
বিদ	-10.9151
▁nervous	-10.9153
▁স্পিকার	-10.9153
▁৫২	-10.9154
▁Second	-10.9158
▁Bio	-10.9158
▁warning	-10.9158
▁egg	-10.9158
▁Bi	-10.9159
োর	-10.916
▁III	-10.9162
uff	-10.9165
▁w	-10.9165
▁চলেছেন	-10.9168
ES	-10.9169
▁persons	-10.9169
News	-10.9171
▁মুক্তিযুদ্ধের	-10.9172
▁রাতেই	-10.9172
▁সংগৃহীত	-10.9179
▁প্রচারণা	-10.9183
▁Anti	-10.9183
▁ন্যায়	-10.9184
ea	-10.9184
▁নিচ্ছেন	-10.9187
▁মিস	-10.9187
▁ফিল্ম	-10.9187
▁Ga	-10.9188
▁plane	-10.919
▁planets	-10.9194
ene	-10.9194
▁justice	-10.9196
▁collections	-10.9196
▁তরফে	-10.9201
unt	-10.9203
▁নিরাপত্তার	-10.9204
যুক্ত	-10.9205
▁assess	-10.9205
▁আলোচনার	-10.9206
ep	-10.9209
রাম	-10.9211
▁৩০০	-10.9214
▁হেড	-10.9214
নু	-10.9217
▁angle	-10.9218
▁করপোরেশন	-10.9221
▁instructions	-10.9221
▁layers	-10.9223
▁পশু	-10.9229
▁represented	-10.9229
জনের	-10.9231
▁crucial	-10.9232
▁বরখাস্ত	-10.9232
▁ভূঁইয়া	-10.9232
▁prefer	-10.9233
▁rice	-10.9233
▁panel	-10.9233
▁অঙ্গ	-10.9234
▁জিজ্ঞাসাবাদ	-10.9238
▁সো	-10.9239
ার্স	-10.9242
▁Standards	-10.9245
▁চলা	-10.9245
▁অধিদফতরের	-10.925
▁dollars	-10.9255
▁noise	-10.9257
▁ভ্রমণ	-10.9261
▁tail	-10.9266
▁গ্রহন	-10.9267
২০২১	-10.9268
▁প্রদেশের	-10.9268
▁একদল	-10.927
▁মিষ্টি	-10.9271
▁মোড়ে	-10.9272
▁আশরাফ	-10.9273
▁কড়া	-10.9274
▁Fire	-10.9275
▁পর্বে	-10.9275
▁খেলায়	-10.9275
iz	-10.9277
▁৫টি	-10.9279
▁Mac	-10.928
▁প্রাথমিকভাবে	-10.9281
▁Will	-10.9281
▁repair	-10.9281
▁সঙ্গী	-10.9283
▁কর্মশালা	-10.9284
pa	-10.9286
▁বিবাহ	-10.9288
▁Bill	-10.9291
ify	-10.9294
▁হাবিব	-10.9295
che	-10.9297
rich	-10.9298
ata	-10.9299
fa	-10.9299
▁replaced	-10.9301
▁নবী	-10.9308
▁gases	-10.9309
▁সোহাগ	-10.9311
▁অনুদান	-10.9311
▁opposite	-10.9311
▁argument	-10.9313
▁তথ্যমন্ত্রী	-10.9315
▁everyday	-10.9315
▁তুরস্কের	-10.9316
▁কংগ্রেসের	-10.932
ED	-10.9322
▁creates	-10.9328
▁collaboration	-10.9331
▁smooth	-10.9331
▁seat	-10.9331
্যান্ট	-10.9339
▁এমনটাই	-10.9342
▁achieved	-10.9344
▁zero	-10.9346
▁এইচএসসি	-10.9347
▁sections	-10.9347
▁exact	-10.9349
▁density	-10.9349
▁facility	-10.9351
▁crew	-10.9352
ets	-10.9355
▁দুজনের	-10.9359
▁ট্রাস্ট	-10.936
▁Italian	-10.936
▁চারজন	-10.9361
▁deliver	-10.9361
▁evaluation	-10.9362
▁দুইটি	-10.9363
▁finished	-10.9363
▁কৃষকদের	-10.9364
▁সম্মাননা	-10.9365
▁বাছাই	-10.9366
▁television	-10.9371
▁Boston	-10.9371
▁বিএসএফ	-10.9372
▁preventing	-10.9372
▁sight	-10.9376
ঘ	-10.9379
▁জিয়াউ	-10.9384
▁capture	-10.9386
▁wealth	-10.9387
▁পায়ে	-10.9389
▁হাফিজ	-10.939
▁ক্লিক	-10.9391
▁moisture	-10.9392
▁অবাক	-10.9392
▁ইঞ্জিন	-10.9394
ja	-10.9396
▁গ্রাহকদের	-10.9396
▁লঞ্চ	-10.9397
▁Paper	-10.9397
▁চলছিল	-10.9399
▁grass	-10.9401
▁বার্তায়	-10.9403
▁Ru	-10.9406
▁examined	-10.9406
▁standing	-10.9408
▁Michigan	-10.9412
▁মঙ্গল	-10.9413
▁band	-10.9414
▁cited	-10.9414
▁লিমিটেডের	-10.9415
For	-10.9416
▁plays	-10.9416
▁exhibition	-10.9417
▁মতোই	-10.9418
▁Pe	-10.9419
স্বাস্থ্যমন্ত্রী	-10.9419
ox	-10.9422
▁chest	-10.9422
তায়	-10.9424
▁tri	-10.943
▁রাশেদ	-10.943
▁behaviors	-10.9431
▁Centre	-10.9432
▁disabilities	-10.9432
▁police	-10.9432
▁ইঙ্গিত	-10.9432
▁স্বপন	-10.9432
রিয়া	-10.9434
res	-10.9434
▁match	-10.9444
দল	-10.9446
সব	-10.9449
ারি	-10.9451
▁secure	-10.9454
▁প্রতিষ্ঠানে	-10.9454
ob	-10.9454
▁limits	-10.9455
▁অনেকের	-10.9456
▁plus	-10.9457
▁আতঙ্ক	-10.9457
▁সিস্টেম	-10.9458
ified	-10.9458
nic	-10.9459
▁এফ	-10.946
ুক	-10.9462
ple	-10.9464
েন্ট	-10.9468
তদন্ত	-10.9468
▁হবিগঞ্জ	-10.9471
▁গণতন্ত্র	-10.9476
▁লক্ষ্মীপুর	-10.9476
হান	-10.9479
▁boost	-10.9482
▁অধিক	-10.9482
▁করেও	-10.9482
▁ঐক্য	-10.9482
▁বো	-10.9486
▁দিবসে	-10.9487
▁ক্যাম্পের	-10.9487
▁remote	-10.9487
▁Year	-10.9489
illa	-10.949
িস	-10.949
গান	-10.9492
▁ভুক্তভোগী	-10.9493
▁Local	-10.9493
▁ধার্য	-10.9493
▁paid	-10.9493
▁existence	-10.9493
▁Does	-10.9494
▁দা	-10.9498
▁l	-10.9499
▁ধরেন	-10.9502
ক্ত	-10.9502
▁partner	-10.9503
▁planting	-10.9503
▁হাইকোর্টের	-10.9504
▁cooking	-10.9504
▁ব্যবসায়ীরা	-10.9509
রিক	-10.9509
▁Ro	-10.9509
গে	-10.9513
▁mathematics	-10.9513
▁মহাসড়কে	-10.9514
▁predict	-10.9514
▁নিযুক্ত	-10.9517
▁মানুষদের	-10.9524
ন্ন	-10.9527
▁moderate	-10.9531
ঠ	-10.9533
▁Oregon	-10.9533
▁ইউসুফ	-10.9533
▁নাগাদ	-10.9533
▁যেহেতু	-10.9534
শীল	-10.9536
▁association	-10.9537
▁posted	-10.9539
▁Pi	-10.9539
▁Fort	-10.954
পর	-10.954
▁সানি	-10.9551
▁প্রেক্ষিতে	-10.9554
▁stuff	-10.9554
▁কিনতে	-10.9554
▁উপভোগ	-10.9554
▁Tech	-10.9558
▁Am	-10.9559
▁হাওয়া	-10.9559
gu	-10.956
▁gone	-10.9561
▁tract	-10.9561
▁Three	-10.9563
down	-10.9563
▁businesses	-10.9565
▁bear	-10.9565
▁literacy	-10.9565
▁প্রযোজনা	-10.9567
▁গণমাধ্যমে	-10.9568
▁agree	-10.957
▁খতিয়	-10.957
▁ফেলা	-10.957
▁define	-10.9571
ck	-10.9572
▁জোন	-10.9575
▁exam	-10.9575
▁যাত্রীবাহী	-10.9575
▁founded	-10.9576
▁manufacturing	-10.9578
▁চির	-10.9579
▁অবৈধভাবে	-10.9579
▁সম্ভাব্য	-10.9579
▁surprised	-10.958
▁army	-10.958
▁Add	-10.9581
▁৫১	-10.9581
▁clothing	-10.9582
▁তেমনি	-10.9582
▁ঘন্টায়	-10.9584
▁reviewed	-10.9585
ans	-10.9586
▁বেনাপোল	-10.9586
#	-10.9586
▁পারলে	-10.9589
▁blocks	-10.9593
▁ক্ষুদ্র	-10.9595
▁হানিফ	-10.9595
▁প্রবল	-10.9598
▁ব্যবসায়ীদের	-10.9599
▁ডিএসই	-10.9599
▁Coast	-10.9599
▁অমিত	-10.9599
▁Hill	-10.96
▁Rome	-10.9601
▁runs	-10.9603
▁এমনই	-10.9603
▁দলটি	-10.9606
▁প্রতিক্রিয়া	-10.9608
▁ধারায়	-10.961
▁মরহুম	-10.9613
▁Republic	-10.9614
▁possibility	-10.9615
bb	-10.9616
▁Spain	-10.9617
▁ডান	-10.9619
▁wasn	-10.9623
▁Blue	-10.9624
▁Bur	-10.9625
▁Reading	-10.9632
▁Obama	-10.9636
▁স্থানান্তর	-10.9636
hr	-10.9638
স্টার	-10.9639
▁ফাইল	-10.9641
▁rose	-10.9641
▁glucose	-10.9645
▁Ri	-10.9645
▁focuses	-10.9647
▁centre	-10.9649
▁কর্মচারী	-10.965
মের	-10.9651
য়াল	-10.9651
▁ছা	-10.9653
▁difficulty	-10.9653
িয়ান	-10.9656
▁জিনিস	-10.9657
▁infrastructure	-10.9657
▁নিলেন	-10.9664
বির	-10.967
ক্ষণ	-10.9671
▁ecosystem	-10.9672
▁obvious	-10.9672
▁ভাব	-10.9673
▁দুদক	-10.9674
▁সচেতনতা	-10.9675
▁sunlight	-10.9678
▁ইউটিউব	-10.9679
▁Johnson	-10.968
COM	-10.9681
▁!	-10.9681
▁পড়ছে	-10.9684
▁বৃদ্ধ	-10.9688
▁rarely	-10.969
ura	-10.9692
▁বিতর্ক	-10.9694
▁lies	-10.9694
দ্র	-10.9695
▁গুজব	-10.9698
▁evaluate	-10.9698
▁অনুসরণ	-10.9698
ture	-10.9698
▁বিশ্বজুড়ে	-10.9699
▁Finally	-10.97
▁আগ	-10.97
light	-10.9704
▁tissues	-10.9705
▁damaged	-10.971
পুলিশ	-10.9719
▁সিরাজুল	-10.972
▁ছায়া	-10.9721
▁Unfortunately	-10.9724
▁সংখ্যক	-10.9724
▁দাশ	-10.9726
▁Ke	-10.9728
▁৫৪	-10.9732
▁Big	-10.9734
▁ছাত্রীকে	-10.9737
▁wife	-10.974
▁biodiversity	-10.974
▁পাইলট	-10.974
▁grew	-10.974
▁কাপুর	-10.9745
▁মেসির	-10.9747
▁৬৪	-10.9749
জুড়ে	-10.9756
▁formal	-10.9757
▁cure	-10.9758
▁উন্মুক্ত	-10.9761
gue	-10.9763
▁prove	-10.9764
▁দর্শকদের	-10.9767
▁বিপ্লব	-10.9768
American	-10.9769
▁usage	-10.977
▁counter	-10.9772
েস	-10.9774
▁তালেবান	-10.9774
zi	-10.9776
▁তখনই	-10.9779
▁দেশকে	-10.978
▁transmission	-10.9782
▁widespread	-10.9782
▁knew	-10.9782
▁ভোটগ্রহণ	-10.9782
টন	-10.9783
▁internet	-10.9785
▁writer	-10.9786
▁Key	-10.9786
▁stick	-10.9786
▁train	-10.9787
allowing	-10.9788
▁fighting	-10.9788
িতা	-10.9789
▁Hu	-10.979
ডে	-10.979
▁খাবারের	-10.9793
▁ব্যাগ	-10.9793
qu	-10.9794
▁clouds	-10.9794
করণ	-10.9795
▁ভিতরে	-10.9801
▁মন্ত্রিপরিষদ	-10.9803
▁বাঁধা	-10.9803
▁camp	-10.9806
▁integrated	-10.9807
ably	-10.9808
▁females	-10.9808
▁Collection	-10.9809
▁anxiety	-10.981
জান	-10.981
▁Arts	-10.9811
▁প্রেসক্লাব	-10.9815
▁claims	-10.982
▁বিচ্ছিন্ন	-10.9821
▁fuels	-10.9822
▁স্মরণ	-10.9823
▁steel	-10.9824
▁mixed	-10.9824
ভিডিও	-10.9825
▁Print	-10.9826
▁পাচার	-10.983
▁explanation	-10.9831
▁disaster	-10.9831
▁মঞ্চে	-10.9831
ুল্লাহ	-10.9832
▁OF	-10.9837
▁প্রকৃত	-10.9838
▁tons	-10.9841
▁রিজভী	-10.9841
▁খালি	-10.9841
▁exciting	-10.9845
▁plenty	-10.9845
▁আস্থা	-10.9845
▁suitable	-10.9846
▁বিতর্কিত	-10.9846
▁Joseph	-10.985
▁রানী	-10.985
বন	-10.9851
▁machines	-10.9852
▁প্লে	-10.9853
ng	-10.9857
▁সচিবালয়ে	-10.9859
▁প্রতিষ্ঠানটি	-10.986
▁লাইভ	-10.9861
▁Light	-10.9861
▁entirely	-10.9862
▁Missouri	-10.9866
▁accuracy	-10.9866
▁Ch	-10.9866
পরিদর্শক	-10.9866
▁অ্যাকশন	-10.9866
▁বিখ্যাত	-10.9867
▁roughly	-10.9869
▁সাহিত্য	-10.9872
▁adds	-10.9872
▁holes	-10.9872
▁৪৬	-10.9873
▁পয়সা	-10.9875
▁আইডি	-10.9876
দান	-10.9877
▁joined	-10.9878
▁complications	-10.9882
▁involve	-10.9886
▁পরিষেবা	-10.9887
▁Field	-10.9887
▁permission	-10.9888
▁রিয়াদ	-10.9888
▁offering	-10.9888
tan	-10.9889
▁টপ	-10.9891
▁Symptoms	-10.9891
▁supports	-10.9893
▁centers	-10.9894
▁installed	-10.9895
▁measurement	-10.9897
tes	-10.9901
▁engineers	-10.9904
▁trans	-10.9906
▁প্রার্থনা	-10.9908
▁মতামত	-10.9908
▁Gulf	-10.9908
▁দ	-10.9909
ায়ন	-10.9912
ঞ্চ	-10.9913
▁Aug	-10.9913
vis	-10.9914
▁minute	-10.9914
▁ভক্তদের	-10.9914
▁tumors	-10.992
▁রপ্তানি	-10.9921
▁৩টি	-10.9923
▁ঘন	-10.9927
▁টহল	-10.993
▁hydrogen	-10.993
▁কমাতে	-10.9931
known	-10.9932
▁putting	-10.9932
▁শিক্ষার্থীর	-10.9936
osis	-10.9936
▁feelings	-10.9937
েক	-10.9944
ari	-10.9944
▁papers	-10.9948
▁males	-10.9949
▁Pan	-10.995
▁aim	-10.995
▁ফুটবলার	-10.9951
▁ভেঙ্গে	-10.9951
▁লক্ষণ	-10.9952
▁পাট	-10.9955
▁cloud	-10.9955
▁মোকাবেলায়	-10.9955
▁door	-10.9958
▁village	-10.9958
long	-10.9963
▁ফেরদৌস	-10.9964
▁ইনস্টিটিউট	-10.9968
▁sell	-10.997
▁বিতরন	-10.9972
▁combat	-10.9974
▁grid	-10.9974
berg	-10.9979
▁১টি	-10.9979
▁কোরবানি	-10.998
▁জনাব	-10.9981
▁স্টার	-10.9987
▁নেত্রী	-10.9989
▁আপ	-10.9992
▁consumer	-10.9992
▁creatures	-10.9993
▁Louis	-10.9993
▁বাড়বে	-10.9993
▁জোরদার	-10.9994
▁Maryland	-10.9994
▁accounts	-10.9995
▁engage	-10.9996
▁Call	-10.9999
▁সাব্বির	-11.0001
▁Did	-11.0001
▁Va	-11.0005
▁Blood	-11.0007
▁consistent	-11.001
▁advance	-11.001
▁vocabulary	-11.0015
▁সৌন্দর্য	-11.0015
▁কৃষকের	-11.0017
▁সবজি	-11.0021
▁অনুশীলন	-11.0022
▁captured	-11.0023
▁নেতাকর্মী	-11.0024
▁ভোটে	-11.0029
▁কানাডা	-11.0029
▁molecular	-11.0029
▁detected	-11.003
▁Pennsylvania	-11.0036
▁accessible	-11.0037
▁networks	-11.0038
▁করিয়ে	-11.0038
▁Comment	-11.0039
▁ভে	-11.0041
▁সমুদ্র	-11.0041
▁opinion	-11.0046
▁statistics	-11.0049
▁flag	-11.005
▁দিল্লির	-11.0053
ভুক্ত	-11.0056
▁মারাত্মক	-11.0056
▁vote	-11.0056
▁housing	-11.0058
▁আচরণ	-11.0058
▁পদক	-11.0059
▁Portal	-11.006
িংয়ের	-11.0061
▁extend	-11.0061
▁drinks	-11.0064
পূর্ব	-11.0069
mit	-11.0069
▁drawn	-11.0071
han	-11.0074
ল্লা	-11.0074
▁টুইটারে	-11.0074
▁চালানোর	-11.0077
▁বাসে	-11.0078
▁নাসিম	-11.0079
▁imaging	-11.0079
এসআই	-11.008
▁funded	-11.008
zo	-11.0081
ware	-11.0086
▁কৌশল	-11.0089
▁o	-11.0091
▁পাওয়ায়	-11.0091
▁shell	-11.0097
▁নওগাঁ	-11.0098
▁lands	-11.0099
▁label	-11.01
▁ভিত্তি	-11.0101
▁স্থানীয়দের	-11.0103
▁ছাত্রীর	-11.0109
▁minerals	-11.011
যে	-11.0111
▁senior	-11.0111
▁চিনি	-11.0112
▁পাঠিয়ে	-11.0113
স্ক	-11.0113
গন	-11.0114
▁উদ্বেগ	-11.0115
▁উপস্থিতিতে	-11.0115
▁ছাড়িয়ে	-11.0116
▁অক্সিজেন	-11.012
▁সুষ্ঠু	-11.0121
▁কমিয়ে	-11.0122
▁thanks	-11.0122
▁ইব্রাহিম	-11.0122
▁mathematical	-11.0122
▁গুলিবিদ্ধ	-11.0122
▁request	-11.0122
▁লতিফ	-11.0122
▁Massachusetts	-11.0125
েড	-11.0126
কর্মী	-11.0127
▁হুমায়ুন	-11.0127
▁regulations	-11.013
▁পরিবর্তনের	-11.0133
টিক	-11.0133
▁supporting	-11.0137
▁pen	-11.0138
▁বক্স	-11.0138
▁app	-11.0142
▁moral	-11.0142
▁পরিবেশন	-11.0144
▁administration	-11.0144
▁পড়াশোনা	-11.0144
▁তরুণী	-11.0145
▁লম্বা	-11.0145
ae	-11.0145
▁colon	-11.0145
▁সংঘর্ষের	-11.0147
▁convert	-11.0147
▁invasive	-11.0152
▁tip	-11.0154
▁হি	-11.0157
▁গুলো	-11.0157
▁বিধিনিষেধ	-11.0159
▁ring	-11.0161
▁মুম্বাই	-11.0164
▁covering	-11.0165
▁আনুমানিক	-11.0166
▁mortality	-11.0166
▁sodium	-11.0166
▁বৃষ্টিপাত	-11.0166
▁Los	-11.0167
▁CD	-11.0167
▁Har	-11.0167
েট	-11.0168
▁মৌলভীবাজার	-11.017
▁log	-11.0173
▁বুকে	-11.0173
▁thoughts	-11.0173
▁চলার	-11.0174
▁branch	-11.0176
▁Fund	-11.0177
▁আলমের	-11.018
▁আইনগত	-11.0182
▁যাচ্ছি	-11.0188
▁circle	-11.0188
▁Amader	-11.0188
▁দেলোয়ার	-11.0188
▁সংক্ষিপ্ত	-11.0188
ino	-11.0192
▁শ্রমিকরা	-11.0194
▁destroyed	-11.0197
▁laser	-11.0199
▁হজ	-11.02
▁surfaces	-11.0202
▁serving	-11.0202
▁seconds	-11.0203
▁ships	-11.0207
▁ভিডিওতে	-11.0209
▁সাক্ষাৎ	-11.0209
▁tobacco	-11.021
ory	-11.0212
▁প্রেমিক	-11.0214
▁recognition	-11.0215
▁routine	-11.0215
▁পার্ক	-11.0216
▁৯টার	-11.0217
▁lo	-11.0218
point	-11.022
▁telescope	-11.0221
▁মধু	-11.0221
▁aged	-11.0223
▁holding	-11.0224
▁নাগরিকদের	-11.0224
▁রাজস্ব	-11.0226
house	-11.0227
▁pull	-11.0227
▁behaviour	-11.0228
সো	-11.0228
▁প্রতিপক্ষ	-11.0229
▁বিষ	-11.023
▁ট	-11.023
▁ক্যাম্পে	-11.023
▁Several	-11.0231
▁জ্বালানি	-11.0233
▁ভারী	-11.0234
▁habitats	-11.0236
▁চোট	-11.0236
▁listen	-11.0239
http	-11.0239
▁দেখুন	-11.0242
▁consume	-11.0242
▁গেলো	-11.0242
▁issued	-11.0243
tri	-11.0244
▁লিড	-11.0244
▁mix	-11.0247
▁ecosystems	-11.0248
▁Harvard	-11.0253
▁Avoid	-11.0255
▁Model	-11.0255
▁ঝালকাঠি	-11.0259
▁হাফেজ	-11.0262
▁boat	-11.0264
পো	-11.0268
▁speaking	-11.0269
▁aims	-11.0269
▁intense	-11.027
▁করছিল	-11.0275
▁ক্ষেপণাস্ত্র	-11.0275
▁পর্যাপ্ত	-11.0275
▁যাবজ্জীবন	-11.0275
▁সংরক্ষিত	-11.0275
▁পদ্ধতিতে	-11.0275
▁হচ্ছিল	-11.0276
▁অন্তর্ভুক্ত	-11.0279
▁বিক্রয়	-11.0282
▁t	-11.0283
▁supplement	-11.0283
▁ট্রাফিক	-11.0286
▁holiday	-11.0287
▁winds	-11.0292
▁Large	-11.0293
▁excess	-11.0297
▁Illinois	-11.0297
▁confirmed	-11.0305
▁জ্বর	-11.0306
▁ill	-11.0311
▁বন্দরে	-11.0312
▁প্যানেল	-11.0313
▁স্বার্থে	-11.0319
▁চুয়াডাঙ্গা	-11.0319
▁সরঞ্জাম	-11.0319
▁legislation	-11.0319
▁excessive	-11.032
ek	-11.0322
va	-11.0323
▁PDF	-11.0323
▁authority	-11.0324
▁song	-11.0328
▁mineral	-11.0328
▁accepted	-11.0329
▁presents	-11.033
▁sharp	-11.0331
▁soldiers	-11.0332
▁সম্পর্কের	-11.0333
▁বাংলাদেশী	-11.0333
▁জাহাজ	-11.0335
▁রনি	-11.0338
tv	-11.0339
▁মিউজিক	-11.0342
▁caught	-11.0342
lar	-11.0343
▁port	-11.0343
▁টস	-11.0349
শো	-11.0349
▁বিমানের	-11.035
▁falls	-11.035
▁রশীদ	-11.0353
▁স্থাপনা	-11.0355
▁নির্ভর	-11.0358
▁সীমিত	-11.0364
▁মালামাল	-11.0364
▁৫৯	-11.0364
▁কবীর	-11.0364
▁আরোহী	-11.0365
স্প	-11.0366
▁acts	-11.0367
▁mechanisms	-11.0367
▁Wikipedia	-11.0372
▁পুলিশে	-11.0373
»	-11.0373
▁মাহি	-11.0376
▁আত্মীয়	-11.0376
▁পাখি	-11.0377
▁wants	-11.0383
হাট	-11.0385
▁truly	-11.0386
▁Sha	-11.0387
▁Kolkata	-11.0391
▁compare	-11.0391
▁musical	-11.0393
▁অটো	-11.0394
াব	-11.0394
পরিচালক	-11.0394
▁সতর্কতা	-11.0397
▁অবসর	-11.0398
tal	-11.0399
▁ত্বকের	-11.0401
▁শিশুটির	-11.0402
তী	-11.0403
▁বিনিময়	-11.0406
▁দুর্নীতির	-11.0406
▁investment	-11.0406
cal	-11.0408
▁উপলক্ষ্যে	-11.0408
▁ত্রি	-11.0408
▁সাইবার	-11.0409
▁অসাধারণ	-11.041
▁stable	-11.041
▁দুর্বৃত্তরা	-11.041
▁রোনালদো	-11.0411
▁উৎসবের	-11.0411
▁arrived	-11.0412
▁চলচ্চিত্রের	-11.0412
▁সঙ্গীত	-11.0413
stone	-11.0415
▁windows	-11.0415
▁ইংরেজি	-11.0418
▁জালাল	-11.042
▁ইংলিশ	-11.0426
bl	-11.0427
▁পরিপ্রেক্ষিতে	-11.0431
▁রূপান্তর	-11.0431
▁চিকিৎসকের	-11.0431
▁কাগজ	-11.0432
▁treating	-11.0432
▁arts	-11.0433
▁যাক	-11.0434
▁cast	-11.0436
▁মুক্তিযুদ্ধ	-11.044
ত্র	-11.0441
▁responses	-11.0442
▁কোরিয়ার	-11.0444
▁daughter	-11.0444
▁বিদ্যুতের	-11.0445
▁টুর্নামেন্টের	-11.0447
▁Wi	-11.0447
▁Centers	-11.0448
MA	-11.0451
ر	-11.0451
▁ফিতর	-11.0452
▁educators	-11.0453
বিষয়ক	-11.0453
ama	-11.0453
▁রোগের	-11.0454
স্তা	-11.0456
▁নার্স	-11.0457
▁বাস্তবায়নে	-11.0459
▁সংগ্রাম	-11.0459
▁পত্র	-11.0461
▁অপারেশন	-11.0463
▁হ্যা	-11.0467
▁Step	-11.047
ding	-11.0472
sen	-11.0473
▁exists	-11.0474
তন	-11.0475
েন্স	-11.0475
▁ব্যাপার	-11.0477
▁ফোনের	-11.0478
▁supplements	-11.0485
▁expressed	-11.0485
▁preserve	-11.0485
▁rocket	-11.0485
▁সমৃদ্ধ	-11.0486
▁category	-11.0486
py	-11.0489
▁ডিএমপি	-11.0489
▁Jo	-11.0489
▁strain	-11.049
▁বাইডেন	-11.0492
▁improvement	-11.0493
▁চক্রের	-11.0493
▁messages	-11.0494
▁Sub	-11.0495
▁চাঁপাইনবাবগঞ্জ	-11.0497
▁যোগ্যতা	-11.0497
▁allergies	-11.0498
▁আয়ের	-11.0499
বাড়ী	-11.0501
▁বাগান	-11.0502
▁ভুলে	-11.0505
NEWS	-11.0507
▁সিসি	-11.0509
▁Si	-11.0509
▁বাগেরহাট	-11.051
▁বলি	-11.0512
▁distinct	-11.0512
He	-11.0514
▁realize	-11.0514
▁উত্তোলন	-11.0516
▁আসিফ	-11.0518
▁chemistry	-11.0518
▁ratio	-11.0518
▁একের	-11.052
▁Nutrition	-11.052
▁পরিবর্তে	-11.052
▁উজ্জ্বল	-11.052
▁ঐক্যবদ্ধ	-11.052
ez	-11.0521
ছিলাম	-11.0521
▁Show	-11.0522
যোগ্য	-11.0523
▁গার্ড	-11.0524
▁interact	-11.0526
▁তাও	-11.053
▁২০১২	-11.0531
art	-11.0533
▁ম্যাচটি	-11.0533
▁সদস্যকে	-11.0534
ay	-11.0534
head	-11.0534
▁জোড়া	-11.0535
▁knows	-11.0535
▁Watch	-11.0538
▁৪টি	-11.0539
▁Historical	-11.054
▁respiratory	-11.0543
▁Site	-11.0543
▁ডিসি	-11.0543
ঙ্গ	-11.0545
▁Sports	-11.0547
state	-11.0551
▁সেদিন	-11.0552
▁দম্পতি	-11.0553
▁বন্দি	-11.0553
▁একেবারে	-11.0554
á	-11.0554
ther	-11.0555
`	-11.0555
war	-11.0558
▁বগুড়ার	-11.0559
▁holds	-11.0559
▁Article	-11.0561
ris	-11.0562
▁mono	-11.0563
▁সিরাজ	-11.0564
▁''	-11.0566
▁প্রতিষ্ঠিত	-11.0566
▁হায়দার	-11.0566
▁impossible	-11.0566
▁পর্যবেক্ষণ	-11.0566
▁রোহিত	-11.0566
▁সমস্যায়	-11.0568
▁রুশ	-11.057
▁জলবায়ু	-11.057
ৃ	-11.0572
বাসী	-11.0575
▁desert	-11.0581
▁মেলার	-11.0581
▁জন্যে	-11.0582
▁bi	-11.0585
▁অনেকটাই	-11.0586
▁mi	-11.0587
▁voltage	-11.0588
▁doubt	-11.0588
▁নোবেল	-11.0588
▁leadership	-11.0589
▁এসএম	-11.059
▁farming	-11.059
▁ধারাবাহিকতায়	-11.0591
▁distributed	-11.0591
▁Royal	-11.0591
sp	-11.0592
▁অভাব	-11.0596
ants	-11.0598
")	-11.0598
▁দুদকের	-11.0599
▁tooth	-11.0599
making	-11.0602
MS	-11.0604
েরা	-11.0606
▁ওয়েবসাইটে	-11.061
They	-11.061
▁পারভেজ	-11.0611
▁married	-11.0611
OS	-11.0612
▁zone	-11.0612
▁pp	-11.0613
▁newly	-11.0616
▁কতটা	-11.0617
শু	-11.0618
▁মানববন্ধনে	-11.0622
▁Sylhet	-11.0623
▁এবারও	-11.0625
▁AND	-11.0626
শী	-11.0627
▁শ্রেষ্ঠ	-11.0634
▁receiving	-11.0634
▁Bureau	-11.0634
▁প্রমূখ	-11.0634
▁transmitted	-11.0634
▁grains	-11.0634
▁গ্রেফতারকৃত	-11.0635
▁আসছিল	-11.0637
▁sit	-11.0641
PS	-11.0643
▁expand	-11.0647
▁infant	-11.0649
▁ma	-11.0649
▁compound	-11.065
▁Look	-11.065
mb	-11.0651
▁পড়বে	-11.0652
▁turning	-11.0653
ming	-11.0654
▁reliable	-11.0657
▁ইসমাইল	-11.0657
▁গবেষণায়	-11.0657
▁আয়োজনের	-11.066
▁বিধান	-11.066
▁roads	-11.066
▁shapes	-11.0663
▁৫৩	-11.0664
form	-11.0664
▁ব্যক্ত	-11.0665
▁ফ্রান্স	-11.0666
▁অনন্য	-11.0672
▁যাই	-11.0672
▁বহন	-11.0676
▁কলকাতায়	-11.0677
▁Top	-11.0677
▁beneficial	-11.0679
▁necessarily	-11.0679
▁underlying	-11.068
▁virtual	-11.0683
▁নিত্য	-11.0684
▁প্রযুক্তির	-11.0684
▁failed	-11.0687
▁observe	-11.0691
▁approved	-11.0694
▁interface	-11.0696
▁Ab	-11.0697
▁আশপাশের	-11.0699
)|	-11.0701
▁মুরাদ	-11.0702
▁cardiovascular	-11.0702
▁লিখে	-11.0703
▁vaccines	-11.0705
▁signed	-11.0706
gin	-11.0709
▁স্পিনার	-11.071
As	-11.0715
▁trained	-11.0715
▁contents	-11.0717
▁escape	-11.0718
▁organ	-11.0718
▁মদ	-11.0721
▁৯টা	-11.0721
▁২য়	-11.0723
▁ব্যাটালিয়ন	-11.0725
▁bigger	-11.0727
▁fatty	-11.0727
▁সমন্বয়	-11.0727
ations	-11.0728
▁delivery	-11.073
▁জামে	-11.0733
▁Te	-11.0735
▁গ্রাহক	-11.0737
▁ব্যাটিংয়ে	-11.0739
▁lights	-11.0741
▁@	-11.0742
এইচ	-11.0743
▁সমর্থকদের	-11.0744
বিল	-11.0745
▁এরপরই	-11.0746
shaped	-11.0747
ল্ড	-11.0748
▁relief	-11.0749
নাল	-11.0752
▁connect	-11.0754
▁পাঠান	-11.0755
▁একজনকে	-11.0756
▁পরিবহনের	-11.0759
▁গুলশান	-11.076
ছা	-11.076
▁raw	-11.076
ny	-11.0762
▁connections	-11.0763
class	-11.0764
▁juice	-11.0766
▁গ্রেফতারের	-11.0769
▁dramatic	-11.0771
▁অবিলম্বে	-11.0771
▁পরিসংখ্যান	-11.0771
▁পরাজিত	-11.0772
▁cattle	-11.0772
sion	-11.0772
▁শ্রম	-11.0772
▁authorities	-11.0773
▁fourth	-11.0773
▁৫৭	-11.0774
▁understood	-11.0776
ford	-11.0785
▁ফাঁড়ি	-11.0788
▁Wall	-11.0789
▁Pass	-11.0794
▁জাপান	-11.0796
▁moves	-11.0796
▁oldest	-11.0798
▁robot	-11.0801
▁session	-11.0801
▁আজম	-11.0801
▁১৪২৮	-11.0801
▁Force	-11.0802
ita	-11.0805
▁মহামারির	-11.0806
az	-11.0808
▁অভি	-11.0809
▁route	-11.081
ric	-11.0811
▁comparison	-11.0812
▁খু	-11.0814
▁fats	-11.0816
▁amazing	-11.0818
▁phenomenon	-11.0818
▁ফরহাদ	-11.0818
▁mouse	-11.0818
▁heating	-11.0818
বার্ষিকী	-11.0819
▁সেন	-11.0821
▁Cross	-11.0821
▁অর	-11.0822
cur	-11.0822
▁atoms	-11.0823
▁আবদুর	-11.083
▁copyright	-11.0831
▁cup	-11.0831
▁sensor	-11.0832
ا	-11.0834
▁preparation	-11.0836
শার	-11.0836
▁Scotland	-11.0841
▁recycling	-11.0841
▁spectrum	-11.0841
▁হাছান	-11.0841
▁হেলাল	-11.0841
▁Biology	-11.0842
▁দুলাল	-11.0843
▁chosen	-11.0843
▁সিনহা	-11.0847
▁কাজল	-11.0851
▁interests	-11.0851
▁সনদ	-11.0851
▁marks	-11.0852
▁goods	-11.0855
▁ইস্যুতে	-11.0855
▁নারায়ণগঞ্জের	-11.0858
▁brings	-11.0859
▁সত্যি	-11.0864
▁roof	-11.0864
▁শ্রেণি	-11.0865
▁branches	-11.0868
ওয়ার	-11.0871
val	-11.0875
▁Fair	-11.0877
▁রণবীর	-11.0877
▁জয়ে	-11.0878
SA	-11.0879
▁encouraged	-11.088
০০০	-11.088
century	-11.0882
▁players	-11.0885
▁territory	-11.0888
▁অটোরিকশা	-11.0889
▁রু	-11.0889
▁exercises	-11.089
▁রাঙামাটি	-11.0892
▁Santa	-11.0892
▁constructed	-11.0896
▁বেল	-11.0896
মী	-11.0897
▁পেশ	-11.0897
▁harvest	-11.09
▁শুরুতেই	-11.0901
▁facing	-11.0905
▁agreement	-11.0907
▁pets	-11.0907
▁outcomes	-11.0909
▁bread	-11.0909
mes	-11.091
▁বার্সেলোনা	-11.0911
▁planned	-11.0912
▁তৈরী	-11.0912
▁মুশফিকুর	-11.0912
▁শেয়ারবাজার	-11.0915
▁আফগানিস্তানের	-11.0917
ew	-11.0923
▁পিছনে	-11.0923
▁implications	-11.0924
ডিসি	-11.0924
▁investigate	-11.0927
▁BC	-11.0928
▁controls	-11.0929
▁চালাচ্ছে	-11.093
বের	-11.093
▁ফেরি	-11.093
ভাই	-11.093
দেশের	-11.0933
▁অভ্যন্তরীণ	-11.0935
▁কাছাকাছি	-11.0935
▁AIDS	-11.0935
▁মুকুল	-11.0936
▁ultimately	-11.0937
▁ভেবে	-11.0938
▁কবে	-11.0938
▁horses	-11.0939
ned	-11.0941
▁ongoing	-11.0942
▁unable	-11.0945
▁প্রযোজক	-11.0945
▁পাড়ি	-11.0945
▁বিশেষজ্ঞরা	-11.0948
▁Current	-11.0948
▁Alaska	-11.0951
▁আসামির	-11.0955
▁কর্পোরেশনের	-11.0955
▁panels	-11.0957
▁কিশোরী	-11.096
▁পুকুর	-11.096
▁পাকা	-11.096
▁protecting	-11.0963
▁৪টা	-11.0963
▁যমুনা	-11.0964
▁আজকে	-11.0964
▁খাতের	-11.0965
▁রং	-11.0966
▁threatened	-11.0968
▁ইস্যু	-11.0968
▁load	-11.0969
▁par	-11.0969
▁নবম	-11.0971
▁নিলে	-11.0972
▁দিয়েই	-11.0972
▁demonstrated	-11.0972
born	-11.0974
▁finds	-11.0976
ফুল	-11.0977
▁division	-11.0978
▁ব্যাখ্যা	-11.0982
▁nitrogen	-11.0982
▁রিফাত	-11.0982
▁একইসঙ্গে	-11.0982
▁↑	-11.0982
▁সম্প্রদায়ের	-11.0982
▁লড়াইয়ে	-11.0985
▁ডাল	-11.0991
▁জোটের	-11.0991
ane	-11.0994
▁eliminate	-11.0998
▁বিধানসভা	-11.0998
▁silver	-11.1001
▁initiative	-11.1002
▁trends	-11.1004
▁worst	-11.1005
▁জরুরী	-11.1005
▁শুল্ক	-11.1005
▁identifying	-11.101
▁bullying	-11.101
▁ঠাকুরগাঁও	-11.101
▁প্রশাসনিক	-11.101
▁ফ্রান্সের	-11.101
▁বৈশ্বিক	-11.101
▁কান	-11.1015
সমূহ	-11.1015
▁Wood	-11.1016
▁ভু	-11.1016
▁Physical	-11.1017
▁ভাবনা	-11.1019
▁Inter	-11.102
▁হুদা	-11.1023
ven	-11.1028
▁কিংবদন্তি	-11.1029
▁grows	-11.1029
গ্র	-11.1029
▁Van	-11.1031
ইল	-11.1033
▁illnesses	-11.1036
▁Wa	-11.1042
▁রহস্য	-11.1044
▁gravity	-11.1046
▁secret	-11.1049
▁Head	-11.1051
tain	-11.1053
▁বান্দরবান	-11.1053
▁Conference	-11.1053
▁calendar	-11.1053
▁spiritual	-11.1053
▁প্রভাবে	-11.1054
▁coral	-11.1054
▁এরকম	-11.1054
▁নিহতদের	-11.1055
▁graduate	-11.1055
SC	-11.1056
▁পর্দায়	-11.1057
▁নির্	-11.1058
আজ	-11.1058
▁আরা	-11.1059
▁প্রদানের	-11.1061
▁মাঠের	-11.1062
▁জিয়াকে	-11.1063
▁সিদ্ধান্তের	-11.1065
▁ব্যা	-11.1066
▁sum	-11.1067
গাঁও	-11.1068
sch	-11.1069
▁owners	-11.1069
▁entered	-11.1074
▁strongly	-11.1075
▁Policy	-11.1077
▁exploration	-11.1077
▁steam	-11.1077
▁আবদুল্লাহ	-11.1077
▁detection	-11.1079
par	-11.1081
▁গোলের	-11.1083
দিয়া	-11.1084
▁delivered	-11.1089
▁storms	-11.1095
▁জাপানের	-11.1096
ঠা	-11.1096
▁রঙের	-11.1097
▁সিদ্দিক	-11.1099
▁রক্ষায়	-11.1099
▁আবরার	-11.1101
▁শীত	-11.1103
▁browser	-11.1105
▁bringing	-11.1106
▁ফরম	-11.1107
▁dates	-11.1107
▁দাগ	-11.1107
▁categories	-11.1108
ঘর	-11.1112
wi	-11.1115
▁Ex	-11.1115
রাই	-11.1115
▁অনুসন্ধান	-11.1116
graph	-11.1122
▁লন্ডনে	-11.1123
▁পরিমাণে	-11.1124
▁innovative	-11.1124
▁সশস্ত্র	-11.1124
▁রচনা	-11.1125
▁ঘাট	-11.1126
▁জানিয়েছিলেন	-11.1127
▁swelling	-11.1129
▁সেকেন্ড	-11.1129
▁mammals	-11.1132
ella	-11.1134
▁win	-11.1134
gon	-11.1134
▁ক্রিকেটারদের	-11.1139
▁mechanical	-11.114
▁drivers	-11.114
▁indicated	-11.1141
▁shift	-11.1145
দ্ধ	-11.1145
▁concrete	-11.1148
▁কেনার	-11.1149
Our	-11.1149
▁সম্পাদনা	-11.115
▁…	-11.115
▁প্রোগ্রাম	-11.1152
▁spots	-11.1156
▁missing	-11.1157
▁চরিত্র	-11.1159
▁আত্ম	-11.1161
▁Name	-11.1163
▁কাতার	-11.1163
▁চুক্তির	-11.1166
▁scene	-11.117
▁cheese	-11.1172
▁cotton	-11.1172
▁যাতায়াত	-11.1172
▁framework	-11.1173
▁elected	-11.1175
▁resulted	-11.1182
▁Map	-11.1182
▁সূত্রের	-11.1182
▁se	-11.1183
▁গোপালগঞ্জ	-11.1188
▁পাথর	-11.1189
▁Talk	-11.1189
▁স্বাদ	-11.1191
▁খেলবে	-11.1192
▁danger	-11.1194
aw	-11.1195
▁সাময়িক	-11.1196
▁gap	-11.1196
▁রাখুন	-11.1197
▁ওপেন	-11.1199
▁evolved	-11.12
▁minor	-11.1203
▁Assessment	-11.1204
▁টের	-11.1204
▁Building	-11.1207
▁meals	-11.1207
▁উদ্যোক্তা	-11.1207
▁pi	-11.1211
▁struggle	-11.1211
▁তে	-11.1212
▁abnormal	-11.1214
▁সাইফ	-11.1214
pm	-11.1215
▁বিচারের	-11.1216
▁বিধ্বস্ত	-11.1217
▁oceans	-11.1219
▁earthquake	-11.1219
▁চার্জ	-11.122
▁লাইসেন্স	-11.1221
▁বিচ্ছেদ	-11.1221
▁স্বতন্ত্র	-11.1221
▁Remember	-11.1221
▁উড়িয়ে	-11.1221
▁spending	-11.1223
▁রাজীব	-11.1223
▁জামান	-11.1223
▁রেডিও	-11.1223
▁Know	-11.1223
▁Ja	-11.1226
ঘাট	-11.1229
▁wonderful	-11.1235
▁thyroid	-11.1236
▁গাজীপুরের	-11.1239
▁মেলায়	-11.1241
▁পাঠিয়েছে	-11.1241
▁Mu	-11.1242
▁push	-11.1242
▁movie	-11.1244
▁variation	-11.1244
▁indeed	-11.1245
▁সংবাদটি	-11.1246
▁খ্যাত	-11.1246
▁formula	-11.1247
▁পালনের	-11.1249
▁তারই	-11.1251
▁বোঝা	-11.1253
▁Jun	-11.1258
▁express	-11.1258
পাড়ার	-11.1258
▁আন্দোলনে	-11.1259
▁trials	-11.126
▁৭৩	-11.1262
▁artificial	-11.1264
right	-11.1264
IC	-11.1265
▁ব্যবসায়ীকে	-11.1266
▁mg	-11.1268
আমাদের	-11.1269
▁Twitter	-11.1269
▁dairy	-11.1269
▁mixture	-11.1269
▁স্লোগান	-11.1271
ula	-11.1271
ণ্ড	-11.1271
▁bleeding	-11.1272
▁রান্না	-11.1273
▁Student	-11.1276
▁Century	-11.1278
বাগ	-11.1278
log	-11.1278
▁Music	-11.1279
▁audio	-11.128
লিন	-11.1282
▁গু	-11.1282
▁analyze	-11.1286
▁protective	-11.1287
▁রুটে	-11.1291
oid	-11.1292
▁bus	-11.1293
▁গণধর্ষণ	-11.1294
▁লেখেন	-11.1294
▁Francisco	-11.1294
▁ওসমানী	-11.1294
▁ডিভাইস	-11.1296
▁Mississippi	-11.1297
▁fell	-11.1298
▁সেবার	-11.1298
▁নে	-11.1299
▁এক্ষেত্রে	-11.1303
▁dose	-11.1303
▁গঠনের	-11.1304
▁জমে	-11.1307
ett	-11.1311
▁intensity	-11.1315
▁চীনে	-11.1316
▁শাস্তির	-11.1316
▁election	-11.1317
▁pilot	-11.1317
▁lens	-11.1317
▁নিবেদন	-11.1318
▁Small	-11.1318
▁smell	-11.1318
▁interactions	-11.1318
▁পরিশ্রম	-11.1318
▁প্রো	-11.1319
▁carrying	-11.1319
▁এরা	-11.1319
▁rover	-11.1319
▁overweight	-11.132
▁alert	-11.132
▁এরমধ্যে	-11.132
▁ক্যাম্পাসে	-11.132
▁মনিরুল	-11.1321
▁Area	-11.1321
▁pot	-11.1323
▁parallel	-11.1324
স্ব	-11.1325
▁ফেনী	-11.1325
▁গাইবান্ধা	-11.1328
▁সংগ্রহের	-11.1329
▁MS	-11.1335
▁শৃঙ্খলা	-11.1339
▁Gen	-11.1339
ria	-11.1342
▁identification	-11.1342
▁সফটওয়্যার	-11.1342
▁earliest	-11.1342
▁আসামিদের	-11.1344
▁somewhat	-11.1345
▁disk	-11.1347
নায়	-11.1348
▁সেট	-11.1349
দুল	-11.1349
াবাদ	-11.1351
from	-11.1352
▁da	-11.1354
▁আর্জেন্টিনা	-11.1356
▁সৈকত	-11.1357
▁Section	-11.1359
▁sufficient	-11.1359
▁বৈশাখ	-11.136
▁আরিফুল	-11.1361
▁ecological	-11.1361
▁faith	-11.1363
ini	-11.1364
▁reveal	-11.1365
▁maintained	-11.1366
put	-11.1366
▁ফসল	-11.1366
▁urine	-11.1367
rin	-11.1368
▁interaction	-11.1369
▁বিস্ফোরণ	-11.1369
▁কর্মহীন	-11.1369
▁Nile	-11.1372
RA	-11.1374
তুল	-11.1376
▁Action	-11.1376
▁আওয়ার	-11.1377
▁ধারাবাহিক	-11.1378
ase	-11.1378
▁মিরাজ	-11.1379
▁উৎসবে	-11.138
▁inspired	-11.1381
▁weak	-11.1382
▁করতেই	-11.1383
▁cap	-11.1383
▁schedule	-11.1384
▁বীজ	-11.1384
▁রাজশাহীতে	-11.1386
▁আফগান	-11.1386
hy	-11.1387
▁চামড়া	-11.1391
▁partnership	-11.1392
▁পরিবারে	-11.1394
▁লো	-11.1396
▁আকারে	-11.1397
▁Rock	-11.1397
▁net	-11.1399
▁পাকিস্তানি	-11.1399
▁skill	-11.14
▁৭৮	-11.1407
▁tank	-11.1408
▁আফগানিস্তান	-11.141
▁reaching	-11.1415
▁measuring	-11.1416
▁ডিরেক্টর	-11.1416
▁প্রদীপ	-11.1416
▁Mount	-11.1416
▁prey	-11.1419
▁Convention	-11.1422
▁সাহেব	-11.1426
vin	-11.1429
▁সিনেমাটি	-11.1433
▁উঠছে	-11.1436
▁Sal	-11.1436
র্জ	-11.1437
▁হলুদ	-11.1437
▁Visit	-11.1438
▁চোর	-11.1438
▁destroy	-11.1439
▁conversation	-11.1441
▁মেট্রো	-11.1442
▁polar	-11.1442
▁examination	-11.1442
▁পরদিন	-11.1443
▁এজেন্ট	-11.1447
▁viewed	-11.1448
▁principle	-11.145
্ল	-11.1458
made	-11.1459
▁পর্যালোচনা	-11.1466
▁BdST	-11.1466
▁extension	-11.1466
▁উচ্ছেদ	-11.1466
▁nano	-11.1466
▁accept	-11.1469
▁একপর্যায়ে	-11.1469
▁happening	-11.1475
ces	-11.1476
▁২০১১	-11.1477
▁মূর্তি	-11.1478
▁Indians	-11.148
▁রেড	-11.1482
▁প্রিয়াঙ্কা	-11.1483
▁ভিডিওটি	-11.1488
▁হারিয়েছে	-11.149
▁এড়াতে	-11.149
▁ঘরোয়া	-11.1491
▁চালিয়েছে	-11.1492
▁fires	-11.1493
▁Constitution	-11.1498
▁Oxford	-11.1501
su	-11.1501
▁troops	-11.1504
মাত্র	-11.1505
▁পাহাড়	-11.1506
▁relations	-11.1508
▁উৎস	-11.1509
▁landing	-11.1512
cl	-11.1512
▁videos	-11.1515
▁varieties	-11.1515
▁রওনা	-11.1515
▁girl	-11.1517
▁adequate	-11.1518
▁trend	-11.1519
▁engines	-11.1519
▁ইউনিটে	-11.152
▁সিম	-11.1522
▁হাতের	-11.1523
▁fairly	-11.1523
ِ	-11.1523
▁শাকিল	-11.1523
▁tape	-11.1524
▁দেখাতে	-11.1524
্র	-11.1525
২০১৯	-11.1528
▁mode	-11.1528
▁beans	-11.1529
▁প্রতিযোগিতার	-11.1529
▁ঘোষনা	-11.153
▁Teacher	-11.1533
▁ethnic	-11.1535
EC	-11.1537
▁enormous	-11.154
▁শারমিন	-11.154
ole	-11.154
▁guess	-11.154
▁ব্যাটারি	-11.1542
▁ended	-11.1545
অ্যা	-11.1547
AT	-11.1552
▁sc	-11.1553
▁ঠিকানা	-11.1558
▁রতন	-11.1558
▁সম্প্রচার	-11.1562
▁ends	-11.1563
▁আশঙ্কাজনক	-11.1565
▁flying	-11.1566
▁firm	-11.1568
▁Think	-11.1568
▁৬৮	-11.1568
▁আসাদ	-11.157
cent	-11.157
▁প্রাইভেট	-11.1571
▁belief	-11.1573
জী	-11.158
▁দামে	-11.1581
TA	-11.1583
▁বুঝে	-11.1584
▁mountains	-11.1584
▁নেট	-11.1585
No	-11.1586
▁writes	-11.1586
▁Number	-11.1589
RI	-11.1589
▁তুমি	-11.1589
▁৭টা	-11.159
▁complicated	-11.1591
▁composed	-11.1591
▁৩টা	-11.1592
▁aspect	-11.1593
▁Wisconsin	-11.1594
?”	-11.1597
▁happy	-11.1598
▁watching	-11.1598
▁শ্রেণীর	-11.1599
▁migration	-11.16
▁committee	-11.1601
▁বিনিময়ে	-11.1606
▁ব্রাজিলের	-11.1607
▁celebrate	-11.161
▁খা	-11.1611
▁দীপিকা	-11.1611
▁রহমানকে	-11.1612
▁contemporary	-11.1615
▁epidemic	-11.1615
▁ক্ষমতাসীন	-11.1615
▁সমাপনী	-11.1615
▁সংকেত	-11.1616
▁আনে	-11.1619
▁মৃত্যুবরণ	-11.1621
▁এখনই	-11.1622
▁ক্যারিয়ার	-11.1622
▁২৫০	-11.1625
▁ফিরোজ	-11.163
life	-11.1632
▁trigger	-11.1633
mor	-11.164
▁চেম্বার	-11.1641
▁থেমে	-11.1641
▁দিবসের	-11.1644
▁এলো	-11.1644
▁সাকিবের	-11.1648
▁আরোপ	-11.1649
▁Kansas	-11.165
▁বেশী	-11.1654
▁গৃহবধূর	-11.166
টেক	-11.1663
▁মিশিয়ে	-11.1666
▁বিজনেস	-11.1666
▁চলাকালে	-11.1666
rate	-11.1666
▁disability	-11.1666
▁feedback	-11.1666
▁jump	-11.1667
▁Unlike	-11.1667
▁Cor	-11.1671
▁মোমেন	-11.1673
▁mm	-11.1674
▁ম্যা	-11.1674
▁ঐতিহ্য	-11.1675
▁h	-11.1677
▁রিমান্ডে	-11.168
▁বাংলায়	-11.1681
▁প্রাণী	-11.1682
CO	-11.1684
▁threats	-11.1684
▁rays	-11.1685
▁রোজ	-11.1686
▁kilometers	-11.1691
▁theories	-11.1691
▁bridge	-11.1692
▁investigation	-11.1694
▁register	-11.1695
▁৫৮	-11.1696
oo	-11.1698
▁পরপরই	-11.1698
▁Index	-11.1699
▁NEWS	-11.1705
▁Grand	-11.1706
▁গেট	-11.1707
▁Little	-11.1708
part	-11.1709
▁flash	-11.1713
▁মুশফিক	-11.1714
▁guidance	-11.1716
▁incidence	-11.1716
▁influenza	-11.1716
▁Clean	-11.1717
▁Digital	-11.1717
▁মাসুম	-11.1719
▁translation	-11.172
▁scores	-11.172
▁finger	-11.172
▁তাহের	-11.1727
▁cough	-11.1727
▁কারখানায়	-11.1727
▁পত্রিকার	-11.1728
▁versions	-11.1729
▁transform	-11.1733
▁কাশ্মীর	-11.1735
But	-11.1736
india	-11.174
▁twenty	-11.1742
▁পরমাণু	-11.1742
▁উল্লেখযোগ্য	-11.1743
▁Road	-11.1744
▁দেশজুড়ে	-11.1744
ney	-11.1746
▁Limited	-11.1747
bed	-11.1751
▁চালাতে	-11.1751
▁রযালি	-11.1752
▁magnitude	-11.1755
▁সাপ	-11.176
most	-11.1761
▁usual	-11.1764
▁লবণ	-11.1767
▁সংক্রমিত	-11.1767
▁broadcast	-11.1768
▁ছেলেকে	-11.1768
▁মাহমুদউল্লাহ	-11.1768
▁অভিনীত	-11.1768
▁চলচ্চিত্রে	-11.1769
mann	-11.177
▁proven	-11.1771
▁পো	-11.1772
▁অগ্রগতি	-11.1773
▁Soviet	-11.1773
▁হানা	-11.1774
Without	-11.1775
▁recommends	-11.1775
including	-11.1775
▁আধা	-11.1776
ough	-11.1779
▁মুন	-11.1779
▁craft	-11.178
cul	-11.1784
▁grades	-11.1785
▁বিশ	-11.179
BD	-11.1791
▁maybe	-11.1792
▁smart	-11.1793
▁destruction	-11.1793
▁heritage	-11.1793
▁industries	-11.1793
▁মিত্র	-11.1794
▁elementary	-11.1794
▁healthcare	-11.1795
সাধারণ	-11.1797
▁audience	-11.1797
▁dream	-11.1797
▁কিডনি	-11.1798
▁কবিতা	-11.18
▁Java	-11.18
▁directions	-11.1802
▁জামাত	-11.1802
▁Queen	-11.1805
▁occurring	-11.1809
▁সমঝোতা	-11.1811
▁nest	-11.1816
ā	-11.1819
▁কনস্টেবল	-11.1819
▁সত্ত্বেও	-11.1819
▁খালেদ	-11.1819
▁মনোনয়নপত্র	-11.1819
▁ফেসবুকের	-11.1821
dic	-11.1821
▁চিফ	-11.1822
র্ক	-11.1822
▁সেসব	-11.1823
▁crime	-11.1823
জনিত	-11.1824
els	-11.1827
▁calling	-11.1828
▁affecting	-11.1829
▁ইউরো	-11.183
ou	-11.1833
▁খুনের	-11.1834
era	-11.1834
▁mention	-11.1836
▁আকার	-11.1838
▁Parents	-11.1839
▁৪০০	-11.1842
▁ষড়যন্ত্র	-11.1842
▁stated	-11.1843
cut	-11.1843
▁ছিটকে	-11.1844
▁নীতিমালা	-11.1844
▁Iowa	-11.1845
▁নেইমার	-11.1845
▁module	-11.1849
▁serves	-11.1849
▁Vitamin	-11.1851
cher	-11.1853
ates	-11.1855
▁asking	-11.1855
▁ভয়ে	-11.1856
▁নোয়াখালীর	-11.1857
ُ	-11.1857
২০১৮	-11.1858
▁circuit	-11.1859
▁settings	-11.186
RE	-11.1862
কল	-11.1864
▁street	-11.1864
▁টুইটার	-11.1865
▁নাটোর	-11.1865
▁aging	-11.1866
▁Physics	-11.187
▁বিলিয়ন	-11.1871
▁ছিনতাই	-11.1873
▁হবার	-11.1873
▁Islands	-11.1873
▁চিৎকার	-11.1873
▁সংবাদপত্র	-11.1874
▁সেবন	-11.1874
▁concluded	-11.1875
▁পেঁয়াজের	-11.1876
ST	-11.1878
▁সিংহ	-11.1878
▁প্রা	-11.1879
▁false	-11.1879
An	-11.188
▁Clinical	-11.1881
▁Non	-11.1881
▁parties	-11.1882
▁observation	-11.1886
▁হাসানের	-11.1886
▁concentrations	-11.1889
▁দশম	-11.189
গি	-11.1893
▁Table	-11.1893
▁ল্যাবে	-11.1894
av	-11.1895
▁careful	-11.1895
▁thread	-11.1896
PA	-11.1896
▁অষ্টম	-11.1896
▁acute	-11.1896
▁গণতান্ত্রিক	-11.1896
▁হাইওয়ে	-11.1896
ica	-11.1896
▁Mi	-11.1897
▁যুদ্ধে	-11.1897
▁৬টি	-11.1898
▁চেয়েছেন	-11.1902
▁চমক	-11.1903
▁Books	-11.1904
▁dealing	-11.1904
▁কলা	-11.1909
▁সমন্বয়ে	-11.1909
int	-11.1913
▁৮৫	-11.1915
▁stations	-11.1918
▁maintenance	-11.1922
▁অবহিত	-11.1922
▁অতিক্রম	-11.1922
▁সুশান্ত	-11.1922
▁row	-11.1922
▁clay	-11.1922
▁Full	-11.1925
▁গাড়িটি	-11.1925
yo	-11.1928
▁ধরার	-11.1928
AR	-11.1929
▁passing	-11.193
SE	-11.1932
▁wire	-11.1933
▁aimed	-11.1935
▁absorb	-11.1937
▁ওয়াশিংটন	-11.1937
▁বৈঠকের	-11.1944
▁ইন্তেকাল	-11.1948
▁specified	-11.1949
▁একক	-11.195
ara	-11.1951
▁পরিবেশে	-11.1952
▁dietary	-11.1952
ual	-11.1952
▁কারিগরি	-11.1952
ধা	-11.1952
▁হাল	-11.1953
pan	-11.1953
▁Lee	-11.1953
ফার	-11.1957
ments	-11.1957
▁শিক্ষার	-11.1958
▁বাগ	-11.1965
that	-11.1971
জের	-11.1972
≣	-11.1974
▁Arizona	-11.1974
▁জবানবন্দি	-11.1974
▁Kingdom	-11.1974
▁রাকিব	-11.1975
▁ইউনাইটেড	-11.1975
টের	-11.1976
▁lakes	-11.1976
▁নয়ন	-11.1977
▁ingredients	-11.1978
▁forming	-11.1979
▁দ্বীপ	-11.198
gg	-11.1984
▁flows	-11.1985
▁annually	-11.1988
▁attract	-11.1989
▁মার্ক	-11.199
কারি	-11.1992
▁bag	-11.1993
▁দফতর	-11.1993
▁লাখের	-11.1996
▁grant	-11.1997
গুলিতে	-11.1998
▁theme	-11.1999
▁split	-11.2
▁সেল	-11.2003
▁variables	-11.2003
▁রব	-11.2004
▁ভর্তির	-11.2005
▁জগতে	-11.2005
hood	-11.2007
rum	-11.2009
▁একাডেমি	-11.2009
প্ত	-11.201
▁maintaining	-11.2012
▁falling	-11.2012
▁Risk	-11.2013
▁wheat	-11.2016
▁হোসেনকে	-11.2017
▁নজরে	-11.2017
▁flavor	-11.2019
▁বয়সের	-11.2019
▁শের	-11.202
<	-11.2022
▁মনের	-11.2023
বোধ	-11.2024
▁ওসমান	-11.2025
▁bacterial	-11.2025
▁শাসন	-11.2025
▁লকডাউনে	-11.2026
▁হোয়াইট	-11.2026
▁removal	-11.2026
▁অর্ধেক	-11.2027
▁anywhere	-11.2028
▁Story	-11.2029
▁lowest	-11.2031
▁সংসদীয়	-11.2032
▁তদন্তকারী	-11.2032
▁সম্প্রসারণ	-11.2032
▁asteroid	-11.2033
▁বাড়ী	-11.2034
▁পিতার	-11.2034
du	-11.2034
▁শু	-11.2035
▁ক্যান্সার	-11.2035
▁সৌম্য	-11.2036
▁এতদিন	-11.2037
ites	-11.204
▁Ku	-11.2044
▁ছিলাম	-11.2045
▁Low	-11.2049
▁তু	-11.2049
bin	-11.2051
▁Teachers	-11.2052
▁Revolution	-11.2052
▁deer	-11.2052
▁atmospheric	-11.2052
▁পূর্ণাঙ্গ	-11.2053
▁Ad	-11.2054
▁শিব	-11.2054
▁অধিদফতর	-11.2054
▁সরদার	-11.2054
▁বাচ্চু	-11.2059
▁spin	-11.2061
▁prescription	-11.2062
▁সম্মেলনের	-11.2062
▁কেক	-11.2067
িয়	-11.2068
▁ক্লাবে	-11.2069
▁ইসলামকে	-11.2071
▁প্রচেষ্টা	-11.2071
▁কাট	-11.2074
▁তি	-11.2075
▁Brazil	-11.2076
▁aggressive	-11.2078
▁operate	-11.2078
▁সর্বনিম্ন	-11.2079
▁রুল	-11.2079
▁প্রাণঘাতী	-11.2079
▁বলিউডে	-11.2079
▁coverage	-11.2081
▁isolated	-11.2081
▁assistant	-11.2083
▁পাকিস্তানে	-11.2085
▁সাক্ষী	-11.2087
▁বদলি	-11.2089
▁districts	-11.2093
▁গৃহবধূ	-11.2093
▁intervention	-11.2095
▁কাটার	-11.2095
▁relation	-11.2097
▁chart	-11.21
▁Mon	-11.2102
▁Consider	-11.2105
▁dementia	-11.2105
▁expansion	-11.2105
▁ষষ্ঠ	-11.2105
▁Clark	-11.2105
▁editor	-11.2106
▁pesticides	-11.2106
▁gradually	-11.2107
▁printing	-11.2109
▁দেখেছেন	-11.2111
ভে	-11.2115
▁painful	-11.2115
দিনের	-11.2116
▁defense	-11.2118
▁অধিবেশন	-11.2121
বাদী	-11.2125
▁নিজাম	-11.213
▁challenging	-11.2132
▁powder	-11.2132
▁কন্ট্রোল	-11.2132
▁EU	-11.2132
edu	-11.2133
▁ne	-11.2134
▁শিক্ষকের	-11.2138
▁boy	-11.2138
▁জনপ্রিয়তা	-11.2141
▁agreed	-11.2142
▁particle	-11.2144
sy	-11.2144
▁ed	-11.2146
▁জয়া	-11.2146
▁কার্যক্রমের	-11.2147
▁pe	-11.2148
▁Unit	-11.215
▁ত্বক	-11.2151
▁Radio	-11.2152
ano	-11.2155
▁ক্যাম্পাস	-11.2156
াতে	-11.2156
▁Working	-11.2156
▁জার্নাল	-11.2158
▁Minnesota	-11.2158
▁algae	-11.2158
▁criteria	-11.2158
▁significance	-11.2158
▁সম্মিলিত	-11.2158
ress	-11.2158
কান্দি	-11.2158
▁তালিকাভুক্ত	-11.2159
▁পেরিয়ে	-11.2162
▁দুবাই	-11.2166
▁websites	-11.2168
▁lifetime	-11.217
green	-11.2172
▁specialist	-11.2172
▁মঞ্চ	-11.2172
CC	-11.2173
▁bees	-11.2174
▁ব্লক	-11.2175
▁মেঘনা	-11.2177
des	-11.2178
▁ভাতা	-11.218
▁যশোরের	-11.2181
▁vegetation	-11.2185
▁কর্নেল	-11.2185
বিডি	-11.2187
▁নিয়োগের	-11.2188
▁আলু	-11.2188
▁comprise	-11.219
▁sensors	-11.219
▁employees	-11.2191
▁shorter	-11.2191
▁random	-11.2191
বছর	-11.2193
▁yield	-11.2193
▁interior	-11.2195
▁contract	-11.2195
মোট	-11.2199
▁চামচ	-11.2199
When	-11.2199
▁Standard	-11.2205
▁ফেরেন	-11.2207
▁প্রশাসকের	-11.2208
▁Week	-11.2209
▁অস্থায়ী	-11.221
▁এডভোকেট	-11.2211
▁ইউরোপীয়	-11.2212
▁cleaning	-11.2212
▁filter	-11.2213
▁৭৬	-11.2213
▁১৫০	-11.2213
▁প্রমাণিত	-11.2216
সী	-11.2219
▁ভাগ্য	-11.222
▁vessel	-11.222
▁fixed	-11.2221
ন্না	-11.2222
▁লিওনে	-11.2223
▁decreased	-11.2224
▁victims	-11.2224
author	-11.2225
য়ো	-11.2231
▁wonder	-11.2232
ফে	-11.2233
▁উত্তরা	-11.2234
▁Ten	-11.2235
isation	-11.2235
▁ফেলেছে	-11.2237
del	-11.2238
▁Support	-11.2238
▁prominent	-11.2238
▁আরাফাত	-11.2238
ণা	-11.2242
▁খামার	-11.2243
ele	-11.2243
▁poem	-11.2247
▁শহিদ	-11.2248
▁কোটা	-11.2249
▁Gar	-11.225
▁দেওয়ায়	-11.2252
▁দপ্তরের	-11.2253
▁আব্বাস	-11.2253
▁ভিত্তিক	-11.2254
▁reduces	-11.2256
▁ch	-11.2256
▁ওঠার	-11.2256
▁নড়াইল	-11.2256
▁blow	-11.2258
ারের	-11.2263
▁৬৬	-11.2265
কান	-11.2265
▁galaxies	-11.2265
▁টুয়েন্টিফোর	-11.2265
▁ঐতিহ্যবাহী	-11.2265
▁যোগ্য	-11.2265
▁মহাসড়ক	-11.2267
▁fed	-11.2267
▁PhD	-11.2269
▁চিকিৎসকদের	-11.227
▁পরা	-11.2273
▁হত	-11.2277
▁রুপি	-11.2278
▁৬৭	-11.2279
▁ডিজাইন	-11.2282
▁দেশটি	-11.2282
্বরাষ্ট্রমন্ত্রী	-11.2282
▁verb	-11.2283
▁বরাবর	-11.2283
শ্রী	-11.2283
▁phones	-11.2283
র্থ	-11.2284
ru	-11.2286
SS	-11.2287
▁USDA	-11.2287
▁Tom	-11.2288
▁এনজিও	-11.2292
▁সিকদার	-11.2292
▁losing	-11.2292
▁committed	-11.2292
▁সুস্থতা	-11.23
▁মৌ	-11.2302
▁তলা	-11.2304
▁Place	-11.231
▁ভেসে	-11.231
$	-11.2313
view	-11.2313
▁Materials	-11.2315
▁০০	-11.2316
▁অল	-11.2317
▁chances	-11.2317
▁Census	-11.2319
▁beauty	-11.2319
▁জ্যেষ্ঠ	-11.2319
▁শাহাদাত	-11.2319
▁ট্যাবলেট	-11.2319
▁ইলিয়াস	-11.2319
▁অ্যাওয়ার্ড	-11.2319
▁copper	-11.2319
▁latter	-11.2319
▁ভাস্কর্য	-11.2319
▁killing	-11.2321
▁বাণিজ্যিক	-11.2321
▁স্বল্প	-11.2322
sta	-11.2323
tur	-11.2326
▁কর্পোরেশন	-11.2326
▁brother	-11.2329
▁রফিক	-11.2329
▁ঘনিষ্ঠ	-11.2329
▁flood	-11.233
জাতীয়	-11.2332
▁দুঃখ	-11.2333
▁errors	-11.2334
ডো	-11.2335
▁neuro	-11.2342
▁Follow	-11.2344
▁কুরআন	-11.2346
▁স্কোর	-11.2346
▁fascinating	-11.2349
▁গানে	-11.2351
▁ধাওয়া	-11.2353
▁নিল	-11.2354
▁optical	-11.2354
▁জানে	-11.2355
▁অর্ডার	-11.2356
▁pairs	-11.2356
▁characteristic	-11.2357
▁করানো	-11.2357
▁টেনে	-11.236
▁বাইক	-11.2361
▁processed	-11.2361
▁DC	-11.2362
lia	-11.2367
▁paintings	-11.237
ঝ	-11.237
▁কিশোরগঞ্জ	-11.2371
▁batteries	-11.2373
▁সঞ্জয়	-11.2373
▁কেনা	-11.2373
▁Weather	-11.2374
▁extract	-11.2375
মিন	-11.2376
▁Ed	-11.2377
▁পারছে	-11.2378
▁ফেলতে	-11.238
▁allergic	-11.2381
▁বসানো	-11.2382
▁breaking	-11.2383
ষ্ঠ	-11.2384
▁streams	-11.2386
▁উপকরণ	-11.2387
▁dynamic	-11.2387
▁saving	-11.2389
চট্টগ্রাম	-11.239
▁বুক	-11.2392
▁FDA	-11.2395
▁Out	-11.2396
ef	-11.2397
▁আকর্ষণ	-11.2399
▁Andrew	-11.24
▁Secretary	-11.24
▁মাই	-11.2402
ute	-11.2402
▁শিরোনামে	-11.2402
▁জানাচ্ছি	-11.2403
▁শীতের	-11.2403
▁হ্যান্ড	-11.2403
▁মালয়েশিয়া	-11.2404
▁politics	-11.2406
▁displays	-11.2406
ign	-11.2407
▁texts	-11.2407
▁দোকানের	-11.2408
▁consumed	-11.241
ev	-11.241
ess	-11.241
▁genome	-11.2411
▁towns	-11.2411
▁achievement	-11.2412
▁Description	-11.2413
▁৬টা	-11.2414
▁faces	-11.2415
▁বিপর্যয়	-11.2416
▁খোলার	-11.2416
▁শ্রমিকের	-11.2418
▁শরিফ	-11.2418
▁breed	-11.242
▁PC	-11.2421
cha	-11.2422
▁Based	-11.2424
▁hyper	-11.2425
▁bite	-11.2425
▁ছুটির	-11.2425
▁Popular	-11.2426
▁rainfall	-11.2427
▁Electronic	-11.2427
▁shallow	-11.2428
▁hurt	-11.2428
▁dense	-11.2429
ani	-11.2429
▁displayed	-11.243
▁শাহিন	-11.2431
▁Trans	-11.2431
▁overview	-11.2432
▁owner	-11.2432
▁assigned	-11.2432
িও	-11.2433
▁na	-11.2433
▁দেশগুলোর	-11.2438
▁Select	-11.2438
▁গোষ্ঠী	-11.2439
qua	-11.2441
▁Need	-11.2443
▁বগুড়ায়	-11.2444
▁বড়ুয়া	-11.2445
▁driver	-11.2446
hour	-11.2446
eb	-11.2447
সম	-11.2448
▁গবেষক	-11.245
▁জামালপুর	-11.2453
▁বাই	-11.2454
▁শোভাযাত্রা	-11.2455
ala	-11.2455
▁Edition	-11.2456
▁খেলেছেন	-11.2458
▁রয়টার্স	-11.2459
▁সই	-11.246
ডাঙ্গা	-11.2462
▁graph	-11.2464
ন্দা	-11.2468
▁astronomers	-11.2469
বদ্ধ	-11.247
▁ban	-11.247
▁ব্র্যান্ড	-11.2471
pp	-11.2472
▁ইতালি	-11.2473
▁আকাশে	-11.2473
▁পুকুরে	-11.2474
▁বললে	-11.2482
▁galaxy	-11.2482
▁প্রতিনিয়ত	-11.2482
▁neither	-11.2482
▁Farm	-11.2483
▁declared	-11.2485
▁Jr	-11.2486
▁ইন্ডিজ	-11.2486
▁ঘুষ	-11.2486
▁ছোট্ট	-11.2486
▁emphasis	-11.2488
▁MA	-11.2488
▁দায়রা	-11.2489
▁analyzed	-11.2491
▁Questions	-11.2491
▁alive	-11.2496
নাথ	-11.2496
▁correctly	-11.2497
▁অভিনয়ের	-11.2498
▁পায়নি	-11.2499
▁আলোর	-11.25
▁৬১	-11.2502
▁Four	-11.2502
▁platform	-11.2502
▁পোস্টে	-11.2503
▁switch	-11.2503
▁নাইট	-11.2505
▁ঘ	-11.2507
▁gray	-11.2507
ইয়া	-11.2508
▁স্পেশাল	-11.2509
▁Volume	-11.2509
▁diarrhea	-11.2509
▁hepatitis	-11.2509
▁উল্টো	-11.2509
▁ফয়সাল	-11.2509
▁শাহরিয়ার	-11.251
▁বাণী	-11.251
▁প্রাণহানি	-11.251
▁revolution	-11.2512
▁Ac	-11.2512
▁characterized	-11.2513
oon	-11.2514
▁নাগরিকত্ব	-11.2514
্ম	-11.2514
▁quarter	-11.2517
▁বিরাজ	-11.2517
▁employed	-11.2523
সির	-11.2523
গুন	-11.2524
▁আইএস	-11.2527
▁ওঠা	-11.2527
▁ওয়াল	-11.2528
উন	-11.2528
▁fur	-11.2529
▁Color	-11.2531
▁vertical	-11.2532
ock	-11.2532
▁stronger	-11.2532
▁Saint	-11.2534
▁দেখি	-11.2536
▁চিঠিতে	-11.2536
▁Empire	-11.2537
▁continuing	-11.2537
▁গোসল	-11.2537
▁সমবায়	-11.2537
tis	-11.2537
▁philosophy	-11.2538
ography	-11.2538
▁সেখানকার	-11.2541
সিক	-11.2547
▁gathered	-11.2547
▁brush	-11.2547
▁কার্যকরী	-11.2549
▁Sir	-11.2549
date	-11.2551
▁সত্যিই	-11.2551
▁৬৩	-11.2552
Ma	-11.2553
ola	-11.2553
ink	-11.2553
▁সন্দেহে	-11.2559
▁বৃত্তি	-11.256
▁manual	-11.256
▁psychological	-11.2565
▁stopped	-11.2566
str	-11.2568
▁নাটকে	-11.2569
▁intellectual	-11.2569
▁আলোকে	-11.257
▁হাউস	-11.257
▁Related	-11.2572
▁Comp	-11.2574
▁Tips	-11.2575
▁wings	-11.2576
নোর	-11.2579
▁employment	-11.258
▁মিডিয়ার	-11.2582
▁আমলে	-11.2583
▁IN	-11.2584
wing	-11.2584
▁suffered	-11.2585
pen	-11.2585
▁হয়েছি	-11.2586
▁malaria	-11.2587
▁অধিবেশনে	-11.2587
▁প্রতিদিনের	-11.2588
▁এশিয়ান	-11.2588
▁functional	-11.2592
▁buried	-11.2592
▁প্রার্থীরা	-11.2593
▁tough	-11.2593
oma	-11.2594
air	-11.2594
▁কৃষ্ণ	-11.2597
▁sport	-11.2599
▁পছন্দের	-11.2599
tus	-11.2599
▁সার্কেল	-11.26
▁seasonal	-11.2601
▁cream	-11.2603
▁implemented	-11.2608
▁confidence	-11.261
▁চকরিয়া	-11.2613
dge	-11.262
▁executive	-11.262
▁remarkable	-11.262
▁Daniel	-11.262
▁ড্রোন	-11.2621
▁সাহায্যে	-11.2622
▁mature	-11.2624
▁taxes	-11.2628
▁চাকরির	-11.2628
▁shaped	-11.2629
▁মাকে	-11.263
লাল	-11.2632
▁funds	-11.2634
▁stores	-11.2638
hal	-11.2638
লাই	-11.2638
▁Create	-11.264
▁divide	-11.264
matic	-11.2643
▁আহমেদের	-11.2643
▁Diet	-11.2644
▁corner	-11.2645
▁Modern	-11.2648
▁obese	-11.2648
▁প্রভাবশালী	-11.2648
▁বিরল	-11.2652
▁অনিয়ম	-11.2652
▁১৪২৭	-11.2655
ada	-11.2658
▁pipe	-11.2659
▁circumstances	-11.266
▁farms	-11.2661
▁ভিউ	-11.2661
▁passage	-11.2663
▁অংশে	-11.267
▁আমন্ত্রণ	-11.2671
▁সংবিধান	-11.2671
▁উত্তরে	-11.2673
▁জিজ্ঞাসাবাদের	-11.2674
▁ears	-11.2674
▁reveals	-11.2676
▁কামরুজ্জামান	-11.2676
▁রাই	-11.2677
▁মনিরুজ্জামান	-11.2677
▁উইন্ডোজ	-11.2677
▁ভূমিকম্প	-11.268
▁জনপ্রশাসন	-11.2681
াদ	-11.2681
▁mold	-11.2682
▁trace	-11.2683
▁pure	-11.2684
▁দিবসটি	-11.2685
▁বেড়াতে	-11.2686
▁শুনতে	-11.2686
▁সংশোধন	-11.2692
▁থা	-11.2693
▁খুলনার	-11.2694
▁মুদ্রা	-11.2695
▁magazine	-11.2698
ডিবি	-11.2698
▁নেটওয়ার্ক	-11.2699
▁viral	-11.27
▁gained	-11.2701
▁sole	-11.2702
▁দেহে	-11.2703
▁রফতানি	-11.2703
▁Garden	-11.2703
েশ	-11.2703
▁হোয়াটসঅ্যাপ	-11.2704
ich	-11.2704
amp	-11.2704
▁variations	-11.2705
▁Wales	-11.2706
▁Eye	-11.2707
grade	-11.2709
▁শিবগঞ্জ	-11.271
▁লেগেছে	-11.2711
foot	-11.2713
▁Set	-11.2714
▁registered	-11.2716
▁৬২	-11.2717
▁positions	-11.2717
ভারত	-11.2717
▁essay	-11.2718
▁victim	-11.2718
▁IUCN	-11.272
▁কবরস্থানে	-11.2721
uch	-11.2723
▁সূর্য	-11.2724
▁react	-11.2725
َ	-11.2725
ীদের	-11.2726
▁ইঞ্জিনিয়ার	-11.2727
▁কার্তিক	-11.2732
▁Often	-11.2733
▁contributions	-11.2733
▁forget	-11.2733
▁gardens	-11.2738
▁ইউএস	-11.2739
▁অধিকারী	-11.274
▁ওপরে	-11.2745
▁খাত	-11.2746
▁Wind	-11.2747
▁styles	-11.2749
পুরের	-11.2749
▁চে	-11.2749
▁Resource	-11.2749
▁adapted	-11.275
▁vitamins	-11.2751
ন্ডি	-11.2753
▁App	-11.2754
▁আসামিকে	-11.2755
▁Schools	-11.2755
▁অভাবে	-11.2755
▁মহল	-11.2755
নিক	-11.2756
▁স্নাতক	-11.276
▁Elizabeth	-11.276
▁হেলথ	-11.276
▁flexible	-11.276
▁কাগজপত্র	-11.276
▁কর্মসূচী	-11.276
▁ছাই	-11.2761
▁experimental	-11.2761
▁আটককৃত	-11.2762
▁ইতিহাসের	-11.2762
প্রতিদ্বন্দ্বিতা	-11.2764
▁শরিফুল	-11.277
ena	-11.277
রহাট	-11.2773
▁Scientific	-11.2773
▁Cha	-11.2774
▁Introduction	-11.2775
পুরুষ	-11.2776
▁workshop	-11.2776
▁Code	-11.2776
▁default	-11.2777
▁প্রাঙ্গণে	-11.2779
▁soils	-11.2782
▁phrase	-11.2783
▁রুমে	-11.2784
Co	-11.2787
▁neurons	-11.2788
▁ইঞ্চি	-11.2788
▁হুঁশিয়ারি	-11.279
▁জানাই	-11.279
▁laid	-11.2792
▁পেশায়	-11.2794
▁~	-11.2794
cro	-11.2795
ানো	-11.2796
▁Cambridge	-11.2797
▁hunting	-11.2799
box	-11.2799
▁পরেও	-11.28
▁ব্যক্তিত্ব	-11.28
▁সমর্থক	-11.28
▁auto	-11.2802
▁স্যার	-11.2805
▁মোকাবিলা	-11.2809
â	-11.2812
▁ব্লগ	-11.2814
▁allergy	-11.2817
▁হ্রাস	-11.2817
▁silicon	-11.2817
▁elsewhere	-11.2817
▁Scott	-11.2817
▁জলিল	-11.2818
▁Access	-11.2819
▁রকেট	-11.2819
▁পোস্টার	-11.2823
▁পাননি	-11.2825
৬৫	-11.2828
▁Economic	-11.2832
▁পার্শ্ববর্ত	-11.2838
och	-11.2839
▁বরিশালে	-11.284
াইল	-11.2841
▁mining	-11.2841
sha	-11.2842
don	-11.2843
▁differ	-11.2845
▁insurance	-11.2845
▁literary	-11.2845
▁veterinarian	-11.2845
▁ম্যানেজমেন্ট	-11.2845
▁dental	-11.2845
▁থানাধীন	-11.2846
জনকে	-11.2846
▁আগষ্ট	-11.2846
▁রাজবাড়ী	-11.2846
▁আকতার	-11.2848
rk	-11.2852
▁নেত্রকোনা	-11.2852
▁রোডের	-11.2853
▁cooling	-11.2857
▁hidden	-11.2858
▁athletes	-11.2861
▁ta	-11.2861
▁চক্র	-11.2862
cc	-11.2863
▁develops	-11.2865
▁রাজনীতিতে	-11.2866
▁spray	-11.2867
হর	-11.2868
▁apparent	-11.2868
▁le	-11.2872
হে	-11.2873
▁Battle	-11.2874
▁Diego	-11.2874
▁automatically	-11.2874
▁Micro	-11.2874
▁origins	-11.2875
▁উন্মোচন	-11.2877
▁antibodies	-11.2879
▁সূচনা	-11.2881
▁whatever	-11.2883
path	-11.2884
▁নাহিদ	-11.2884
▁প্রতিপক্ষের	-11.2885
CH	-11.2886
▁Ti	-11.2888
▁wash	-11.2893
▁পারছি	-11.2895
mel	-11.2896
▁spinal	-11.2897
▁Super	-11.29
িশ	-11.29
▁Explore	-11.29
কী	-11.29
▁Text	-11.2901
▁কনফারেন্স	-11.2901
▁knowing	-11.2901
▁ভ্রাম্যমান	-11.2902
▁মোজাম্মেল	-11.2902
▁আবেদীন	-11.2902
▁উপযুক্ত	-11.2904
▁extinction	-11.2905
উর	-11.2906
▁ফজলে	-11.2908
▁প্রকৌশল	-11.2908
▁মুন্সিগঞ্জ	-11.2909
▁para	-11.291
▁fatal	-11.2916
▁addresses	-11.2917
▁Credit	-11.2917
▁বাচ্চা	-11.2917
▁Systems	-11.2919
মির	-11.2921
▁ভাষণ	-11.2922
রাত	-11.2924
▁শিক্ষার্থীকে	-11.2924
▁Best	-11.2929
▁recover	-11.293
▁অনুষদ	-11.2931
▁মহিউদ্দিন	-11.2931
▁কোরিয়া	-11.2931
▁Senate	-11.2931
mus	-11.2931
▁শামসুল	-11.2932
▁দীপু	-11.2933
▁directed	-11.2936
▁অনূর্ধ্ব	-11.2936
▁ছাড়ার	-11.2945
▁mine	-11.2946
▁পুরুষের	-11.2947
▁bears	-11.2947
▁Mountain	-11.2948
▁introduce	-11.2948
▁shock	-11.2949
▁savings	-11.2949
▁Thanks	-11.2949
▁নানান	-11.2951
▁Tu	-11.2952
▁বঞ্চিত	-11.2952
▁imagine	-11.2952
ন্ধ	-11.2952
rup	-11.2956
▁adapt	-11.296
▁আপলোড	-11.296
▁আলিয়া	-11.2964
rn	-11.2964
▁effectiveness	-11.2966
▁promoting	-11.2968
▁কোয়ারেন্টাইনে	-11.2969
▁pop	-11.2969
▁believes	-11.297
▁মাতা	-11.297
▁customers	-11.2972
▁বোলার	-11.2973
▁ডলারের	-11.2974
▁আপন	-11.2977
▁deeper	-11.2978
▁আসল	-11.2979
▁মাছের	-11.2979
▁acquired	-11.2979
▁বৈধ	-11.298
▁surprise	-11.2981
▁regulate	-11.2981
▁মন্দিরে	-11.2981
▁HTML	-11.2982
▁তোমার	-11.2982
▁স্বর্ণের	-11.2984
▁Animal	-11.2985
▁এড	-11.2985
থি	-11.2986
সিলেট	-11.2988
▁Mexican	-11.2988
▁ইতিবাচক	-11.2988
▁Minister	-11.2989
ম্ম	-11.2989
▁arteries	-11.2989
▁প্রজন্মের	-11.2989
▁hardware	-11.299
ious	-11.2991
▁cook	-11.2991
▁নওগাঁর	-11.2992
▁পুড়িয়ে	-11.2992
ath	-11.2992
▁chair	-11.2993
▁personality	-11.2994
▁ফোর্স	-11.2995
▁Mass	-11.2996
▁Business	-11.2996
▁বিস্ফোরণে	-11.2996
▁du	-11.2999
▁বেকার	-11.3
ude	-11.3001
পেশার	-11.3001
▁ধর্মের	-11.3005
Be	-11.3006
▁evening	-11.3009
▁Tri	-11.3009
▁বিবৃতি	-11.301
▁জার্মান	-11.301
▁fault	-11.3013
▁অসুস্থতা	-11.3016
▁বরণ	-11.3017
▁ভাঙন	-11.3017
▁ঘাতক	-11.3018
▁নাট্য	-11.3018
▁তাল	-11.3018
▁pan	-11.3018
▁[.]	-11.3018
RS	-11.3019
mas	-11.3021
▁Still	-11.3021
▁targets	-11.3022
yn	-11.3023
▁দক্ষ	-11.3025
▁ছাত্রদল	-11.3026
▁কথাও	-11.3034
▁Lab	-11.3034
▁Level	-11.3035
▁মৃত্যুদণ্ড	-11.3039
onic	-11.3045
▁পুষ্টি	-11.3046
▁husband	-11.3046
▁দিলীপ	-11.3046
▁মুফতি	-11.3046
▁সোপর্দ	-11.3046
▁Navy	-11.3047
room	-11.3047
▁ধোনি	-11.3047
▁domain	-11.3051
▁টাইগারদের	-11.3051
অব	-11.3052
▁Should	-11.3053
▁তুরস্ক	-11.3054
▁ইউরোপের	-11.3054
even	-11.3055
fat	-11.3056
IT	-11.3057
▁১১টা	-11.3059
▁proof	-11.3063
▁বাসার	-11.3064
▁mosquito	-11.3072
▁পৌঁছেছে	-11.3072
▁Sam	-11.3073
▁temporary	-11.3075
▁violent	-11.3075
▁রাজনীতির	-11.3076
▁সাদেক	-11.3076
▁informed	-11.3077
▁জয়নাল	-11.3077
▁ভূমিকায়	-11.3078
পন	-11.3079
▁harder	-11.308
▁হলেই	-11.308
▁considerable	-11.308
▁seeking	-11.3081
▁Prof	-11.3081
▁ফেলার	-11.3083
CA	-11.3084
▁Edward	-11.3086
range	-11.3089
▁programme	-11.309
পদ	-11.309
▁একেবারেই	-11.3091
▁তারপরও	-11.3096
▁planted	-11.3096
▁objective	-11.3098
▁player	-11.3098
▁Hand	-11.3098
▁Gas	-11.3103
▁প্রায়ই	-11.3104
▁Statistics	-11.3105
▁Writing	-11.3105
▁সঙ্কট	-11.3105
▁সহকারি	-11.3107
▁ranging	-11.3109
▁ছয়টি	-11.3109
বাসীর	-11.311
▁নিয়েছিলেন	-11.311
These	-11.3112
▁কোম্পানিটির	-11.3112
ন্ডার	-11.3112
▁জুনিয়র	-11.3113
gr	-11.3114
mat	-11.3116
▁মোবাইলে	-11.3116
▁reporting	-11.3118
▁worry	-11.3118
press	-11.3118
▁সাভার	-11.3122
tar	-11.3122
▁Indonesia	-11.3129
▁নিবন্ধ	-11.3134
▁আকরাম	-11.3134
▁artery	-11.3134
▁install	-11.3136
▁comet	-11.3137
▁চিকিৎসায়	-11.3138
▁tubes	-11.3138
▁সন্ধ্যার	-11.3139
▁Brain	-11.3139
▁কক্ষ	-11.3141
▁ফোরাম	-11.3142
sky	-11.3144
বাজ	-11.3153
ros	-11.3157
▁wheel	-11.3158
▁সংকটে	-11.3158
ii	-11.3163
▁independence	-11.3163
▁বাঁচতে	-11.3163
▁বেসামরিক	-11.3163
▁আরবে	-11.3163
▁চলাকালীন	-11.3163
করোনা	-11.3165
▁Hav	-11.3167
▁begun	-11.3174
▁বৌদ্ধ	-11.3175
▁delay	-11.3176
▁যেকোন	-11.3177
▁contributed	-11.3181
নীয়	-11.3181
▁ভোগ	-11.3184
face	-11.3186
ভো	-11.3188
▁স্বপ্নের	-11.3189
▁নূরুল	-11.319
▁প্রত্যাহারের	-11.319
▁diagnostic	-11.3193
▁ঔষধ	-11.3193
▁চর্চা	-11.3194
▁পারব	-11.3195
about	-11.3196
▁পেটে	-11.3196
▁সেরে	-11.3197
▁haven	-11.3198
▁সংস্থাটি	-11.3202
▁reform	-11.3202
▁matters	-11.3202
▁Whether	-11.3202
▁constantly	-11.3203
দ্ব	-11.3203
▁ব্যাংকে	-11.3206
▁পরিচালনার	-11.3206
▁অফার	-11.3207
▁hospitals	-11.3208
▁ট্রলার	-11.3209
▁Following	-11.321
ল্যান্ড	-11.3211
▁গ্যা	-11.3214
▁প্রবাসীদের	-11.3215
▁হাইকোর্টে	-11.3215
ram	-11.3215
▁influenced	-11.3216
▁স্বামীকে	-11.3217
▁নাটোরের	-11.322
▁Count	-11.3221
▁অ্যাপল	-11.3221
▁lie	-11.3221
▁ফকির	-11.3222
দিক	-11.3222
▁fellow	-11.3222
▁আসুন	-11.3222
▁হরি	-11.3225
▁sizes	-11.3225
▁opposed	-11.3227
▁ধনী	-11.3227
▁বোধ	-11.3228
space	-11.3229
▁celebrated	-11.3231
▁Ver	-11.3232
▁Further	-11.3234
▁Irish	-11.3235
৭০	-11.3235
▁সাফ	-11.3238
▁hormones	-11.3239
্যাল	-11.3245
এমপি	-11.3245
▁illegal	-11.3246
De	-11.3246
▁whereas	-11.3248
▁pool	-11.3248
▁নারীরা	-11.3251
▁মিজান	-11.3251
▁Jupiter	-11.3252
▁Security	-11.3252
▁ডায়াবেটিস	-11.3252
▁debris	-11.3252
▁poetry	-11.3252
▁volunteers	-11.3252
▁Cal	-11.3255
▁linear	-11.3256
▁বাবর	-11.3256
▁আস	-11.3256
▁টাইগার	-11.3257
▁যুগ	-11.3261
▁dictionary	-11.3262
▁indigenous	-11.3263
▁বার্সা	-11.3266
▁distinguish	-11.3269
nate	-11.327
▁জনতার	-11.3271
▁earn	-11.3275
▁কমপ্লেক্সের	-11.3276
▁markets	-11.3278
▁copies	-11.3281
▁songs	-11.3282
▁incorporate	-11.3283
▁বাঁ	-11.3285
▁Zoo	-11.3288
▁controlling	-11.3289
▁জম্মু	-11.3291
▁দেওয়ান	-11.3292
▁communications	-11.3293
▁চেয়ারম্যানের	-11.3294
দো	-11.3296
▁আইসিসির	-11.3301
▁shelter	-11.3302
▁cluster	-11.3302
▁বস	-11.3306
▁manufacturers	-11.3308
▁raising	-11.3309
▁টুর্নামেন্টে	-11.331
▁prostate	-11.331
▁structural	-11.3311
▁পরোয়ানা	-11.3311
▁করত	-11.3311
▁overcome	-11.3311
▁যত্ন	-11.3314
▁gather	-11.3314
ore	-11.3316
▁relieve	-11.332
▁২০০৯	-11.332
▁স্টেট	-11.3322
▁pointed	-11.3323
▁diagnose	-11.3324
▁অগ্নিকাণ্ডের	-11.3328
▁ইমন	-11.3331
▁৭৪	-11.3332
▁fluids	-11.3333
▁consult	-11.3337
▁lighting	-11.3339
চু	-11.334
▁arthritis	-11.3341
▁intelligence	-11.3341
▁নিয়োজিত	-11.3341
▁swimming	-11.3341
▁বিরোধিতা	-11.3341
▁Dutch	-11.3342
▁varies	-11.3342
▁শতভাগ	-11.3342
school	-11.3342
▁loved	-11.3343
▁বিধায়ক	-11.3344
▁Figure	-11.3346
▁suggestions	-11.3347
▁বলেছি	-11.3348
▁চারা	-11.3348
রুল	-11.335
▁অ্যাসোসিয়েশন	-11.335
▁আত্মহত্যার	-11.3352
▁গ্লোবাল	-11.3353
▁ease	-11.3354
mark	-11.3354
▁Trade	-11.3354
▁`	-11.3354
▁construct	-11.3356
বৃন্দ	-11.3357
ery	-11.3359
ku	-11.336
▁households	-11.3362
▁প্রজ্ঞাপন	-11.3363
▁outbreak	-11.3365
▁Drug	-11.3365
▁precise	-11.3365
▁Share	-11.3366
▁পেট	-11.3367
ংক	-11.3368
হাজার	-11.3369
▁Holy	-11.337
▁Culture	-11.3371
▁Hebrew	-11.3371
▁ধর্মঘট	-11.3371
▁সাউথ	-11.3371
▁মাঝারি	-11.3371
▁থাকুন	-11.3371
▁আইফোন	-11.3371
▁ফটো	-11.3371
▁মিলবে	-11.3372
▁elderly	-11.3373
▁কৃতজ্ঞতা	-11.3373
▁nice	-11.3375
▁বাসভবনে	-11.3376
▁Perhaps	-11.3377
dar	-11.3378
ue	-11.3379
▁cuts	-11.338
AD	-11.3381
▁infectious	-11.3382
▁strengthen	-11.3386
▁waiting	-11.3387
▁Voice	-11.3387
▁returns	-11.3389
▁abilities	-11.3389
▁Down	-11.339
▁দিল্লিতে	-11.3392
য়েল	-11.3393
▁লোকসভা	-11.3394
▁sin	-11.3394
▁ran	-11.3397
▁im	-11.3397
▁আবদু	-11.3399
▁slaves	-11.3399
▁fatigue	-11.3401
▁বহাল	-11.3401
▁জন্মগ্রহণ	-11.3401
▁পাঠায়	-11.3402
▁mood	-11.3402
▁Angeles	-11.3402
▁evolutionary	-11.3403
▁গরুর	-11.3404
▁দুর্বল	-11.3404
▁সপ্তম	-11.3405
িস্ট	-11.3406
▁beach	-11.3406
▁বাদশা	-11.3409
▁সাপ্তাহিক	-11.3409
▁info	-11.341
▁ম্যান	-11.3412
some	-11.3413
▁Way	-11.3414
▁প্রতিষ্ঠানটির	-11.3415
▁সকলেই	-11.3417
▁ঢাবি	-11.3418
▁contaminated	-11.3421
▁listening	-11.3423
▁warmer	-11.3424
▁সহজে	-11.3424
▁সেমিফাইনালে	-11.3425
▁gland	-11.3426
▁Bell	-11.3427
এসপি	-11.3428
▁ক্যাম্পেইন	-11.3429
▁কুলাউড়া	-11.3431
▁ভাংচুর	-11.3431
▁সার্টিফিকেট	-11.3431
▁পূর্ববর্তী	-11.3432
▁underground	-11.3432
বীর	-11.3433
dra	-11.3434
▁প্রথমবার	-11.3435
▁abstract	-11.3437
▁বাতিলের	-11.3437
OR	-11.3438
▁সহসভাপতি	-11.3439
▁যানজট	-11.3441
rie	-11.3441
eth	-11.3442
▁Accessed	-11.3442
▁van	-11.3443
rac	-11.3444
▁Video	-11.3445
▁স্মার্ট	-11.3446
▁pose	-11.3452
▁essentially	-11.3452
▁spirit	-11.3453
din	-11.3454
▁ব্রা	-11.3455
▁none	-11.3455
▁preserved	-11.3456
▁CA	-11.3456
TE	-11.3456
▁ব্রিজ	-11.3456
cin	-11.3457
▁spreading	-11.3458
og	-11.3459
▁chocolate	-11.3461
▁কাশেম	-11.3461
▁রিটার্ন	-11.3461
▁mo	-11.3463
দুর	-11.3467
বিশ্ব	-11.3468
post	-11.3468
fin	-11.3469
are	-11.347
▁বুলবুল	-11.3471
▁Port	-11.3471
▁নিয়েছি	-11.3473
▁অভিভাবক	-11.3476
▁bound	-11.3476
▁predators	-11.3477
▁বিদ্রোহী	-11.3477
▁Korea	-11.3479
▁হত্যাকাণ্ডের	-11.3479
▁৯৫	-11.348
▁যন্ত্র	-11.3483
▁অভিযানের	-11.3489
▁জান	-11.349
▁বানিয়ে	-11.349
▁বিট	-11.3491
▁আসেনি	-11.3492
▁conversion	-11.3492
shi	-11.3493
▁যাত্রীরা	-11.3493
▁প্রকাশিতঃ	-11.3493
▁occasionally	-11.3495
▁hip	-11.35
"?	-11.3501
লায়	-11.3501
pon	-11.3502
▁pink	-11.3502
▁ঠাকুরগাঁওয়ে	-11.3502
▁Play	-11.3503
▁৯টায়	-11.3503
▁তুলেছেন	-11.3503
▁traits	-11.3503
সং	-11.3504
ima	-11.3505
▁expanded	-11.3506
▁Far	-11.3506
▁vs	-11.3506
mod	-11.3507
পাড়ায়	-11.3507
▁Linux	-11.3509
aka	-11.3514
▁Within	-11.3514
▁subsequent	-11.3517
▁plot	-11.3517
▁minimize	-11.3518
▁সঙ্গেই	-11.3519
▁nutrient	-11.352
▁অপরিবর্তিত	-11.3522
▁পুরাতন	-11.3522
▁সেক্রেটারি	-11.3522
▁জায়েদ	-11.3522
▁Furthermore	-11.3522
▁sitting	-11.3523
▁comfortable	-11.3523
EN	-11.3524
▁entering	-11.3531
▁যশোরে	-11.3532
▁Sand	-11.3533
কাটা	-11.3533
jo	-11.3534
গাছ	-11.3536
▁assume	-11.3538
▁রাখবে	-11.354
▁agents	-11.3543
▁sciences	-11.3545
dd	-11.3545
▁hatch	-11.3549
ball	-11.355
▁attempts	-11.3552
▁heavily	-11.3552
▁prevalence	-11.3552
▁মল্লিক	-11.3552
▁জহিরুল	-11.3554
▁বাস্তবায়নের	-11.3556
ْ	-11.3556
▁settled	-11.3558
▁keeps	-11.3558
িটি	-11.3559
▁engaged	-11.3564
ju	-11.3565
▁তহবিল	-11.3567
▁converted	-11.3567
▁বেন	-11.3569
টুকু	-11.3571
sized	-11.3572
lon	-11.3572
▁কাউন্সিলের	-11.3579
IP	-11.358
▁হই	-11.3582
ug	-11.3582
বিহীন	-11.3583
▁IST	-11.3583
▁ourselves	-11.3583
▁ঊর্ধ্বতন	-11.3583
▁দ্রব্য	-11.3583
▁rash	-11.3584
▁স্টেশনে	-11.3585
▁classified	-11.3585
▁scan	-11.3585
▁মাগুরা	-11.3586
▁Month	-11.3586
ening	-11.3587
▁কক্সবাজারে	-11.3587
ডার	-11.3587
▁Gi	-11.359
▁গতিতে	-11.359
▁ছবিটির	-11.3591
▁resistant	-11.3592
জো	-11.3595
▁জনগণকে	-11.3596
▁নির্দেশনায়	-11.3597
▁তথ্যের	-11.3597
মাস	-11.3597
▁আসরের	-11.3598
▁২০১০	-11.3599
▁উৎসাহ	-11.3599
▁directory	-11.3599
▁রায়ে	-11.3601
▁নগরের	-11.3605
ope	-11.3606
▁ট্রাইব্যুনাল	-11.3606
▁পৃথিবীতে	-11.3606
▁vegetable	-11.3608
▁continuous	-11.3608
▁করতো	-11.361
▁exploring	-11.3614
▁অস্ত্রোপচার	-11.3614
▁আবিষ্কার	-11.3614
▁প্রকোপ	-11.3614
▁kitchen	-11.3614
▁বেড়া	-11.3615
▁Barta	-11.3616
▁সম্পত্তি	-11.3617
ctor	-11.3618
MC	-11.3619
▁teams	-11.3623
ving	-11.3623
▁পরাজয়	-11.3624
▁Develop	-11.3625
▁Point	-11.3625
▁চিহ্ন	-11.3627
▁census	-11.3628
▁interview	-11.3628
▁কেননা	-11.3629
wide	-11.363
▁designs	-11.3634
▁semi	-11.3636
▁একাডেমির	-11.3637
And	-11.3637
▁বিপদ	-11.3637
▁RE	-11.3638
▁hopes	-11.3639
▁commitment	-11.3639
▁কর্মকর্তাকে	-11.364
৮০	-11.3644
▁distant	-11.3644
▁নকল	-11.3645
▁Editor	-11.3647
rr	-11.3648
▁দো	-11.3652
▁IP	-11.3652
▁banks	-11.3652
▁passes	-11.3653
▁deficiency	-11.3654
▁Leading	-11.3655
▁বর্ণনা	-11.3655
▁reaches	-11.3657
ili	-11.3658
▁খালেক	-11.366
▁predicted	-11.366
▁প্রতারণা	-11.366
▁লাগানো	-11.3661
▁Jul	-11.3663
▁suspect	-11.3665
▁ইতালির	-11.3665
র্ট	-11.3665
ste	-11.3666
খে	-11.3667
▁safely	-11.3671
ches	-11.3671
▁মিশন	-11.3671
চ্ছ	-11.3675
▁পেট্রোল	-11.3675
▁Creek	-11.3675
▁ভট্টাচার্য	-11.3675
▁ডেভিড	-11.3675
▁removing	-11.3676
পাল	-11.3676
▁মানিকগঞ্জ	-11.3678
▁vomiting	-11.3678
▁বাশার	-11.3681
▁Grade	-11.3682
▁বাদল	-11.3683
▁সেমিনার	-11.3684
▁inch	-11.3684
▁script	-11.3687
specific	-11.3694
▁অমান্য	-11.3695
▁heads	-11.3696
▁molecule	-11.3697
▁আগাম	-11.3697
▁Col	-11.3697
▁Frank	-11.3699
▁ব্যাংকিং	-11.3699
▁parks	-11.3699
ash	-11.3699
▁দূর্ঘটনা	-11.37
avi	-11.37
র্ন	-11.37
▁substantial	-11.3701
▁suit	-11.3702
non	-11.3704
▁saved	-11.3705
▁roll	-11.3705
▁পদের	-11.3706
▁Premier	-11.3706
▁ISBN	-11.3706
▁ফরাসি	-11.3706
▁বেশকিছু	-11.3707
▁fix	-11.3708
▁priority	-11.3709
▁উদ্ধারের	-11.371
▁regard	-11.3711
▁facilitate	-11.3712
▁ফে	-11.3712
cus	-11.3712
▁টাইগাররা	-11.3712
▁বিজ্ঞানীরা	-11.3713
ular	-11.3715
▁representing	-11.3716
also	-11.3719
BS	-11.372
▁ছিন	-11.372
ese	-11.3723
বেদ	-11.3724
▁draft	-11.3725
▁wouldn	-11.3728
▁১২টায়	-11.3729
▁j	-11.3729
So	-11.373
▁Spring	-11.3733
▁ইউক্রেন	-11.3735
▁ফজলুল	-11.3737
▁আখতার	-11.3737
▁মোনাজাত	-11.3737
▁digestive	-11.3738
hen	-11.3739
▁তেলের	-11.3741
সেল	-11.3743
▁স্ট্যাটাস	-11.3744
▁স্বজনরা	-11.3744
▁আইসিটি	-11.3745
▁পাঁচজন	-11.3745
▁discrimination	-11.3745
▁এড়িয়ে	-11.375
▁প্রদেশে	-11.3754
▁কারাদন্ড	-11.3755
▁আলাপ	-11.3756
▁শিবির	-11.3756
▁Healthy	-11.3757
▁Yes	-11.3757
▁জানার	-11.3759
gal	-11.376
▁কারাগার	-11.3762
▁দেয়ায়	-11.3764
ides	-11.3765
▁সিআইডি	-11.3765
rid	-11.3767
বক	-11.3767
▁এএসআই	-11.3767
▁জল্পনা	-11.3768
▁Microsoft	-11.3768
▁honey	-11.3769
▁sustainability	-11.3769
▁Being	-11.377
ls	-11.3771
▁পশ্চিমবঙ্গে	-11.3773
▁Tell	-11.3773
▁রেখেই	-11.3775
▁faced	-11.3777
▁heal	-11.3778
▁ID	-11.3781
▁nutritional	-11.3781
▁নেশা	-11.3784
▁Later	-11.3784
▁কৃষকরা	-11.3785
ক্রমে	-11.3786
TV	-11.3786
▁সন্ত্রাসীরা	-11.3786
▁প্রতিদ্বন্দ্বী	-11.3787
▁score	-11.3788
▁insight	-11.3789
▁কমপ্লেক্স	-11.3789
▁কিশোরীকে	-11.3792
▁outdoor	-11.3795
▁অলিম্পিক	-11.3796
▁Vol	-11.3796
▁প্রণয়ন	-11.38
▁রযালী	-11.38
▁uniform	-11.3801
▁জনসংযোগ	-11.3801
▁দখলে	-11.3802
▁গাজা	-11.3802
▁Mediterranean	-11.3805
top	-11.3806
▁em	-11.3806
▁IV	-11.3807
▁বাসটি	-11.3807
▁নেপাল	-11.3808
▁৮৮	-11.3809
▁থাকছেন	-11.3811
▁gear	-11.3812
▁emotions	-11.3817
▁বিসিএস	-11.3818
▁কর্মসংস্থান	-11.382
▁ADHD	-11.382
▁container	-11.3823
▁কেড়ে	-11.3825
▁কালীগঞ্জ	-11.3828
▁Jersey	-11.3831
▁anniversary	-11.3831
▁উল্টে	-11.3831
▁tongue	-11.3831
▁মেধাবী	-11.3831
▁livestock	-11.3831
▁নিক্ষেপ	-11.3831
▁ফ্যাশন	-11.3832
▁কাঁচা	-11.3832
▁বিশ্বনাথ	-11.3832
▁Trust	-11.3833
▁বারের	-11.3834
▁blind	-11.3834
▁এসেছিলেন	-11.3836
▁glands	-11.3839
▁proportion	-11.384
load	-11.384
lam	-11.3841
▁ইঞ্জিনিয়ারিং	-11.3842
ছবি	-11.3843
▁profile	-11.3843
▁খেলোয়াড়দের	-11.3843
ক্ল	-11.3843
▁improvements	-11.3843
▁জালে	-11.3844
▁ইউরোপ	-11.3847
▁sheets	-11.3848
▁ব্যবসায়	-11.3849
tha	-11.3849
▁favor	-11.3849
▁diets	-11.3851
bel	-11.3852
▁ব্র	-11.3853
▁টাঙ্গাইলে	-11.3854
▁ডাকা	-11.3854
▁ডিসেম্বরে	-11.3856
▁Sound	-11.3857
▁brains	-11.3859
▁fingers	-11.386
▁বার্ন	-11.3861
▁কর্মসূচিতে	-11.3861
▁beneath	-11.3863
▁দাঁড়াতে	-11.3863
▁ধুয়ে	-11.3863
newsbd	-11.3863
িনী	-11.3865
▁prescribed	-11.3866
▁মহ	-11.3866
ষা	-11.3867
▁ইন্ডিয়ান	-11.3868
▁হাউজ	-11.3868
▁nuts	-11.387
TH	-11.3873
▁শ্বশুর	-11.3873
▁ভাট	-11.3873
lit	-11.3874
▁empty	-11.3874
▁Mountains	-11.3876
▁পুজো	-11.3879
▁equally	-11.3879
lot	-11.3879
▁scholars	-11.388
▁bottle	-11.3883
▁addressed	-11.3885
▁End	-11.3887
▁separated	-11.3887
▁equation	-11.3891
▁fifth	-11.3891
▁Title	-11.3892
▁কিম	-11.3892
▁বাধ্যতামূলক	-11.3894
▁ল্যাপটপ	-11.3894
▁Supreme	-11.3894
▁availability	-11.3894
▁শওকত	-11.3894
▁বিপাকে	-11.3894
▁সূত্রপাত	-11.3895
▁যাচ্ছিলেন	-11.3896
▁considering	-11.3896
▁universal	-11.3898
▁তোলে	-11.3899
।[	-11.3902
▁নেগেটিভ	-11.3903
gan	-11.3905
▁মিয়ানমারে	-11.3905
";	-11.3907
▁ভিপি	-11.3908
▁ত্রুটি	-11.391
meter	-11.3911
inch	-11.3912
▁Making	-11.3912
▁মাসিক	-11.3914
▁রিয়াজ	-11.3916
▁সুখ	-11.3917
▁gr	-11.392
▁cheap	-11.3921
▁গণমাধ্যমের	-11.3922
▁ভারতকে	-11.3923
▁attend	-11.3923
▁plain	-11.3923
▁কুমিল্লায়	-11.3924
▁Lewis	-11.3926
▁Ontario	-11.3926
▁mercury	-11.3926
▁shadow	-11.3926
▁willing	-11.3926
▁Louisiana	-11.3926
▁devote	-11.3926
▁প্রবণতা	-11.3926
▁রীতিমতো	-11.3926
▁restoration	-11.3927
▁দেশব্যাপী	-11.3927
▁ভোক্তা	-11.3927
▁পর্যটক	-11.3927
ert	-11.3928
▁প্রতিবছর	-11.3932
▁Currently	-11.3933
▁২টা	-11.3935
len	-11.3936
▁ধাপ	-11.3937
▁objectives	-11.3937
▁pin	-11.394
▁প্রি	-11.394
▁প্রান্তে	-11.3941
▁menu	-11.3942
▁Wild	-11.3942
▁Bre	-11.3944
▁মূল্যায়ন	-11.3945
EL	-11.3946
▁কাশি	-11.395
▁spine	-11.3951
▁Fri	-11.3952
▁sudden	-11.3952
▁friendly	-11.3952
test	-11.3953
▁supposed	-11.3954
▁প্যা	-11.3956
dimensional	-11.3957
▁clock	-11.3957
▁susceptible	-11.3957
▁পিএনএস	-11.3957
▁দাঁত	-11.3957
▁আপত্তি	-11.3958
▁প্রদক্ষিণ	-11.3958
bidesh	-11.3958
rick	-11.3958
▁dating	-11.3961
▁visited	-11.3965
▁কোপা	-11.3967
▁developmental	-11.3967
▁বোনের	-11.3968
▁শট	-11.3972
How	-11.3974
▁Mother	-11.3976
key	-11.3977
▁RNA	-11.3977
▁behavioral	-11.3978
las	-11.3979
▁মানের	-11.398
▁ক্যাচ	-11.3981
▁সমালোচনার	-11.3981
▁ধানমন্ডি	-11.3982
▁reverse	-11.3983
জ্ঞ	-11.3984
▁sentences	-11.3987
▁afford	-11.3988
▁sa	-11.3989
▁অবতরণ	-11.3989
▁psychology	-11.3989
▁মারুফ	-11.3989
▁মনসুর	-11.399
▁অবসান	-11.399
▁তাৎক্ষণিক	-11.3991
▁লিটার	-11.3991
▁pump	-11.3993
▁representation	-11.3995
▁তৎপরতা	-11.3996
barta	-11.3999
card	-11.3999
▁seemed	-11.3999
টেন	-11.4001
nu	-11.4002
▁Computer	-11.4002
▁৯৮	-11.4005
▁৭৭	-11.4008
▁solving	-11.4008
▁শক্ত	-11.4009
▁আজও	-11.401
▁prime	-11.4013
তিনি	-11.4013
▁PA	-11.4014
▁জরিপ	-11.4017
▁colored	-11.4017
▁trauma	-11.4021
▁experiencing	-11.4021
determining	-11.4021
▁animation	-11.4021
▁Future	-11.4021
▁দাঁড়াল	-11.4022
▁weapons	-11.4023
▁globe	-11.4024
▁repeated	-11.4026
▁licensed	-11.4027
▁shed	-11.4027
▁mu	-11.4029
▁বসু	-11.4029
▁Pu	-11.403
▁এতো	-11.4031
▁থাকি	-11.4031
সময়	-11.4031
▁চাপে	-11.4035
▁নাটকের	-11.404
▁জার্সি	-11.404
▁দেয়নি	-11.4042
▁ছড়া	-11.4043
rays	-11.4043
▁focusing	-11.4043
▁Pat	-11.4043
▁losses	-11.4044
▁ক্রেতা	-11.4046
▁কাজটি	-11.4049
▁loud	-11.405
af	-11.4051
▁মঈন	-11.4052
▁অভিনব	-11.4053
▁boundaries	-11.4053
▁অভ্যাস	-11.4054
▁সাহস	-11.4055
ানোর	-11.4055
ন্ডা	-11.4056
▁AP	-11.4057
ইং	-11.4058
▁vi	-11.406
▁আইসোলেশনে	-11.4061
▁আসামিরা	-11.4061
▁নেতাকে	-11.4062
▁মামুনুল	-11.4063
▁কাঠ	-11.4063
▁physically	-11.4069
active	-11.407
▁Bra	-11.4071
▁racial	-11.4073
▁ট্রেনে	-11.4073
borne	-11.4074
▁geo	-11.4075
▁lunch	-11.4082
page	-11.4083
▁Hol	-11.4083
সাই	-11.4084
▁contribution	-11.4084
▁vol	-11.4085
▁বন্যার	-11.4085
▁Observatory	-11.4085
▁pneumonia	-11.4085
▁hypothesis	-11.4085
▁টেলিযোগাযোগ	-11.4085
▁মিলাদ	-11.4086
▁BanglaNews	-11.4087
▁>>	-11.4087
▁Br	-11.4088
▁Blog	-11.409
▁membrane	-11.409
▁আছ	-11.4091
▁kid	-11.4092
▁পর্বের	-11.4092
▁পরীক্ষার্থী	-11.4093
▁পালা	-11.4093
তৎকালীন	-11.4093
▁খবরের	-11.4094
▁তাসকিন	-11.4094
▁healthier	-11.4095
▁Words	-11.4097
▁সহিংসতা	-11.4098
▁ফু	-11.4098
▁হরতাল	-11.4099
▁এটিএম	-11.41
bon	-11.41
▁আক্রান্তদের	-11.41
▁painted	-11.4107
▁desire	-11.4108
bre	-11.4109
▁কন্ঠ	-11.411
▁বিক্রেতা	-11.4112
▁দেরি	-11.4112
▁ভিসি	-11.4115
▁কোম্পানী	-11.4116
▁abundant	-11.4118
▁substitute	-11.4118
▁নিরপেক্ষ	-11.4118
▁বচ্চন	-11.4118
▁তানভীর	-11.4118
▁শ্বাসকষ্ট	-11.4118
▁dramatically	-11.4119
তারা	-11.4119
▁ধারালো	-11.412
▁প্যাকেট	-11.412
▁সাই	-11.412
পতি	-11.4121
▁Nu	-11.4122
▁শোকের	-11.4124
▁wearing	-11.4124
▁retain	-11.4126
read	-11.4126
▁concerning	-11.4127
▁Which	-11.4128
▁spelling	-11.4129
▁মন্ত্রণালয়ে	-11.4129
▁joints	-11.413
▁ঠাকুর	-11.4131
▁বাড়ার	-11.4137
▁confirm	-11.4137
▁Cat	-11.4137
Di	-11.4138
▁loop	-11.4138
্ট	-11.414
ties	-11.4141
▁জন্মদিনে	-11.4143
▁বরগুনা	-11.4144
Con	-11.4144
▁যেটা	-11.4145
▁lawn	-11.4146
ati	-11.4149
▁হেলিকপ্টার	-11.4149
▁volunteer	-11.4149
▁CBN	-11.415
▁ভবিষ্যৎ	-11.415
▁চিত্রনায়িকা	-11.415
▁reproductive	-11.415
▁ইসি	-11.4153
▁jaw	-11.4154
▁কবলে	-11.4154
▁সার্চ	-11.4154
রায়	-11.4156
▁৬৯	-11.4156
▁recording	-11.416
▁চুলের	-11.4161
▁Regional	-11.4164
▁সাম্প্রদায়িক	-11.4164
▁পেজে	-11.4164
▁দাবীতে	-11.4165
▁deadly	-11.4166
friendly	-11.4168
▁সম্রাট	-11.4172
দেশিক	-11.4172
▁AD	-11.4172
▁productive	-11.4173
▁নাচ	-11.4174
▁উখিয়া	-11.4174
▁calculate	-11.4175
▁writers	-11.4176
▁universities	-11.4183
▁কঙ্গনা	-11.4183
▁রিকশা	-11.4183
▁শাওন	-11.4183
▁counties	-11.4184
tre	-11.4185
▁নকশা	-11.4186
▁difficulties	-11.4186
▁সীমা	-11.4187
▁রামু	-11.4187
লেই	-11.419
▁classic	-11.4194
ীতে	-11.4197
▁অভিজ্ঞ	-11.4197
▁ইনস্টাগ্রামে	-11.4199
cle	-11.4199
▁স্টেশনের	-11.42
▁লালমনিরহাট	-11.42
▁অনুষ্ঠানটি	-11.4202
▁Master	-11.4203
▁কুকুর	-11.4205
▁Somoy	-11.4206
verse	-11.4211
ken	-11.4211
খো	-11.4211
▁update	-11.4213
▁সন্তানদের	-11.4215
▁নিয়ন্ত্রক	-11.4215
▁প্রবীণ	-11.4215
▁বর্ণাঢ্য	-11.4215
▁dropped	-11.4216
▁সুপারস্টার	-11.4217
▁Dan	-11.4217
▁palm	-11.4217
▁মুখ্য	-11.4219
tech	-11.422
▁virtually	-11.4223
▁নেপালের	-11.4223
cat	-11.4225
▁প্রত্যক্ষদর্শী	-11.4226
শক্তি	-11.4226
▁surgical	-11.4228
▁গণপরিবহন	-11.4228
▁fashion	-11.4228
▁আজিজুল	-11.4229
উল্লাহ	-11.4229
▁৮২	-11.4233
▁কারখানার	-11.4234
zz	-11.4234
▁ভর	-11.4235
▁featured	-11.4239
▁welcome	-11.424
▁বিদ্যা	-11.4241
▁thermal	-11.4241
▁কাম	-11.4241
▁Shi	-11.4241
row	-11.4244
▁কপি	-11.4246
▁Practice	-11.4248
▁emerging	-11.4248
▁পিস্তল	-11.4248
▁genus	-11.4248
▁foster	-11.4248
▁আলাউদ্দিন	-11.4248
▁submit	-11.4248
▁বিপরীত	-11.4249
▁দেখলে	-11.4249
পাত	-11.425
▁শ্রীপুর	-11.4251
বড়	-11.4251
▁driven	-11.4251
▁Nation	-11.4254
▁গবেষকরা	-11.4254
▁হতাহতের	-11.4258
▁দেবী	-11.4258
▁Ban	-11.4262
▁surveys	-11.4263
▁CT	-11.4264
▁মেহেরপুর	-11.4264
▁spoken	-11.4264
▁sensitivity	-11.4266
িনা	-11.4269
▁ক্ষতির	-11.4269
▁Educational	-11.4269
▁গ্রিন	-11.4272
▁বিরত	-11.4273
▁খালাস	-11.4274
▁traditions	-11.4275
▁খাল	-11.4276
র্ম	-11.4277
▁accident	-11.4277
▁Mor	-11.4281
▁Return	-11.4281
▁নেমেছে	-11.4281
▁ম্যাক	-11.4283
▁doses	-11.4283
Pro	-11.4284
▁recycled	-11.4284
▁Additionally	-11.4285
▁Team	-11.4287
▁sessions	-11.4288
জির	-11.4291
▁স্মিথ	-11.4295
▁producers	-11.4296
▁slavery	-11.4298
aff	-11.43
▁bulbs	-11.4301
▁bo	-11.4301
▁Looking	-11.4303
▁মন্ত্রীর	-11.4304
▁সক্ষমতা	-11.4304
▁টার্গেট	-11.4305
▁discharge	-11.4306
nch	-11.4306
াংশ	-11.4308
▁খানকে	-11.4311
▁জটিল	-11.4311
▁poly	-11.4313
▁ordinary	-11.4313
▁ক্ষতিগ্রস্থ	-11.4314
▁প্রিন্স	-11.4314
বারের	-11.4315
ণী	-11.4316
pat	-11.4317
▁মুসলমানদের	-11.4318
▁repeat	-11.432
▁ওইদিন	-11.4323
▁আইপিএলের	-11.4324
▁৩টায়	-11.4327
▁চাপায়	-11.433
▁appeal	-11.4331
▁ক্ষয়ক্ষতি	-11.4334
আপ	-11.4335
▁৮টায়	-11.4336
▁highlights	-11.4338
▁জিজ্ঞাসাবাদে	-11.4338
TS	-11.4339
▁pitch	-11.4339
▁ইনজুরি	-11.4339
▁breaks	-11.4342
▁healing	-11.4343
▁Cu	-11.4346
▁Curiosity	-11.4346
▁abundance	-11.4346
▁স্যাটেলাইট	-11.4346
▁সেলসিয়াস	-11.4346
▁ইয়াসমিন	-11.4347
▁কান্না	-11.4347
▁differently	-11.4347
▁province	-11.4347
▁conclusion	-11.4348
▁enzyme	-11.4348
gy	-11.4348
▁settlement	-11.4348
▁TO	-11.435
▁imp	-11.435
▁apparently	-11.4353
▁Amazon	-11.4355
▁eaten	-11.4356
▁মৌসুমী	-11.4362
▁metals	-11.4362
▁বেলাল	-11.4362
▁আন্তরিক	-11.4363
rus	-11.4366
▁শিশুটিকে	-11.4367
▁বালিকা	-11.4368
▁Bas	-11.4368
▁হার্ট	-11.4368
uri	-11.4368
▁দিনাজপুরে	-11.4369
▁channel	-11.4372
াক	-11.4373
▁Historic	-11.4376
▁আইপিএলে	-11.4376
▁ত্রিপুরা	-11.4377
বর্তী	-11.4378
▁campus	-11.4379
▁methane	-11.438
▁হান্নান	-11.438
▁relating	-11.438
▁নাশকতা	-11.438
▁describing	-11.438
▁innovation	-11.4381
▁রোজা	-11.4381
মনি	-11.4382
▁১২টি	-11.4383
▁দুটো	-11.4383
▁Arm	-11.4383
▁মুছে	-11.4384
▁gun	-11.4386
▁peer	-11.4388
ern	-11.4393
▁ঝ	-11.4396
▁যুদ্ধের	-11.4396
▁এসেছিল	-11.44
▁lecture	-11.44
▁spaces	-11.4401
▁জিম্বাবুয়ে	-11.4402
▁হিরো	-11.4404
Deshe	-11.4404
▁custom	-11.4406
▁হলের	-11.4408
OP	-11.4408
ট্র	-11.4411
▁ঢেউ	-11.4413
▁computing	-11.4413
▁ঝামেলা	-11.4413
▁restore	-11.4413
▁অস্বাভাবিক	-11.4413
▁মানা	-11.4414
ইট	-11.4414
▁সমাপ্ত	-11.4415
▁আগমন	-11.4416
▁একাধিকবার	-11.4417
▁meter	-11.4421
▁Staff	-11.4421
▁হট	-11.4422
▁নাম্বার	-11.4422
▁হেফাজত	-11.4422
টাও	-11.4425
চ্ছে	-11.4425
▁ওয়ার্ক	-11.4428
▁throw	-11.4428
র্ত	-11.4428
▁astronauts	-11.4429
▁বরিশালের	-11.443
সচিব	-11.4432
word	-11.4432
বিস্তারিত	-11.4434
বাহ	-11.4434
▁সুন্দরী	-11.4434
▁বন্ধুদের	-11.4434
▁exception	-11.4435
▁ho	-11.4435
By	-11.4437
▁স্বার্থ	-11.4437
▁ল্যাব	-11.4438
▁strange	-11.4443
▁সভাপতির	-11.4443
▁মতিন	-11.4443
▁beliefs	-11.4443
▁circulation	-11.4446
▁faculty	-11.4446
▁temple	-11.4448
▁surprising	-11.4448
Bo	-11.445
▁ফেরা	-11.445
াদি	-11.445
▁statements	-11.4452
cr	-11.4452
eastern	-11.4456
▁package	-11.4458
▁রেজিস্ট্রার	-11.4458
▁একসময়	-11.4458
▁এসপি	-11.446
▁মৃত্যুকালে	-11.446
▁charged	-11.4463
▁এমনটা	-11.4466
being	-11.4466
▁claimed	-11.4467
▁শরণার্থী	-11.4474
cell	-11.4474
▁কৌশলে	-11.4475
pl	-11.4479
▁চেন্নাই	-11.4479
▁Vietnam	-11.4479
▁Hubble	-11.448
▁contributing	-11.448
▁participating	-11.448
▁রিজার্ভ	-11.448
▁suicide	-11.448
▁দগ্ধ	-11.448
▁ক্ষতিপূরণ	-11.448
▁প্রজেক্ট	-11.448
▁regardless	-11.448
ধর	-11.4482
▁কমিটিতে	-11.4484
▁kit	-11.4484
▁wetlands	-11.4485
▁গিয়েছেন	-11.4485
dent	-11.4485
▁প্রকাশনা	-11.4492
▁WHO	-11.4494
▁applying	-11.4494
▁Oil	-11.4495
▁স্বদেশ	-11.4496
▁infrared	-11.4498
▁stones	-11.4499
fully	-11.4499
বাই	-11.45
tter	-11.45
▁slave	-11.4501
▁যুবদল	-11.4502
wan	-11.4503
▁হতাশ	-11.4503
▁সেটাই	-11.4504
▁owned	-11.4506
▁rough	-11.4508
▁মাহমুদুল	-11.4509
▁functioning	-11.4509
▁চার্জশিট	-11.4513
▁প্রভাষক	-11.4513
▁মোতাবেক	-11.4513
▁যথাক্রমে	-11.4513
▁fought	-11.4513
▁sought	-11.4514
▁dependent	-11.4514
▁যুবরাজ	-11.4514
▁Fa	-11.4515
▁১৯৭১	-11.4515
▁outcome	-11.4516
▁tribes	-11.4517
▁designated	-11.4519
▁replacement	-11.452
▁ঘাটে	-11.452
▁outdoors	-11.452
ওয়ে	-11.4521
▁দেশি	-11.4523
▁নীলফামারী	-11.4524
▁satellites	-11.4524
▁মাদ্রিদ	-11.4524
▁তোলেন	-11.4525
▁কিংস	-11.4527
▁electronics	-11.4527
pri	-11.453
▁Sep	-11.453
▁flooding	-11.4533
িদের	-11.4533
▁হস্তক্ষেপ	-11.4535
▁lift	-11.4536
ulate	-11.4537
▁Ice	-11.4538
▁শ্যামল	-11.454
care	-11.454
ওয়ান	-11.4541
▁speeds	-11.4543
▁Par	-11.4543
▁symbols	-11.4547
▁lunar	-11.4547
▁Davis	-11.4547
▁আলোকিত	-11.4547
▁ব্রেকিং	-11.4548
▁তথ্যপ্রযুক্তি	-11.4548
▁evil	-11.455
গঞ্জে	-11.455
▁strike	-11.455
IL	-11.4551
▁মুন্সীগঞ্জ	-11.4552
▁বাজেটে	-11.4552
bal	-11.4553
▁teen	-11.4554
ux	-11.4556
িট	-11.4556
▁£	-11.4557
▁রংপুরে	-11.4558
▁এমএ	-11.4561
▁পঞ্চগড়	-11.4562
জ্জ	-11.4562
▁নামিয়ে	-11.4564
▁রাষ্ট্রপতির	-11.4567
▁রুম	-11.4567
▁ব্যান্ড	-11.4569
aries	-11.4571
▁Fi	-11.4573
▁গানটির	-11.4574
kar	-11.4575
▁pine	-11.4575
▁combine	-11.4576
▁curve	-11.4577
ava	-11.4578
দর	-11.4578
dia	-11.458
▁Kentucky	-11.4581
▁উত্তীর্ণ	-11.4581
▁জব্বার	-11.4581
▁পারভীন	-11.4581
▁ভৈরব	-11.4581
জাত	-11.4582
▁স্বজনদের	-11.4586
▁mile	-11.4586
▁মালয়েশিয়ায়	-11.459
খবর	-11.459
▁loose	-11.4592
▁accurately	-11.4593
▁noun	-11.4595
ক্রি	-11.4596
mic	-11.4597
amine	-11.4597
দিকে	-11.4597
▁ordered	-11.46
get	-11.4601
▁আটকা	-11.4602
▁গান্ধী	-11.4602
▁coat	-11.4604
▁stems	-11.4604
▁বিরতি	-11.4604
ras	-11.4606
vert	-11.4607
কন	-11.4608
পক্ষের	-11.4614
▁Telescope	-11.4615
▁চোপড়া	-11.4615
▁grammar	-11.4615
▁photograph	-11.4617
▁ঘাটতি	-11.4617
▁sheep	-11.4618
▁মেধা	-11.462
▁খুলনায়	-11.4623
▁Analysis	-11.4623
▁fail	-11.4626
▁officer	-11.4626
▁মিম	-11.4629
▁ancestors	-11.463
▁যুগান্তর	-11.4631
▁রাখবেন	-11.4632
▁advances	-11.4634
▁traveling	-11.4634
▁৯টি	-11.4635
▁Teaching	-11.4637
▁নজরদারি	-11.4639
AM	-11.4639
▁Reserve	-11.4641
▁কল্যাণে	-11.4641
▁ইন্ডিজের	-11.4643
▁Quality	-11.4649
▁absence	-11.4649
▁capabilities	-11.4649
▁আইয়ুব	-11.4649
▁ম্যানচেস্টার	-11.4649
▁Results	-11.4649
▁কান্তি	-11.4649
▁পাঠাতে	-11.4649
▁শিল্পকলা	-11.4649
▁Mission	-11.465
▁injured	-11.4651
▁অবসরপ্রাপ্ত	-11.4657
▁শফিউল	-11.4657
▁needle	-11.4659
▁turtles	-11.466
▁ইসরাইলের	-11.466
স্টা	-11.466
▁প্রতিদিনই	-11.466
▁ছাড়িয়েছে	-11.4662
▁Gold	-11.4662
▁telling	-11.4663
বহ	-11.467
ency	-11.4671
▁নিচের	-11.4671
▁Programme	-11.4673
▁আবহাওয়ার	-11.4674
▁করো	-11.4675
▁Islam	-11.4676
রিন	-11.4676
▁বস্তা	-11.4678
কমার্স	-11.4678
▁চলাচলের	-11.4679
▁rear	-11.468
▁technological	-11.4683
▁configuration	-11.4683
▁নবনির্বাচিত	-11.4683
▁স্প্যানিশ	-11.4683
▁পাহাড়ি	-11.4683
▁দাঁড়ায়	-11.4683
▁literally	-11.4684
▁পোর্টাল	-11.4685
▁shoes	-11.4685
▁Much	-11.4688
▁illustrated	-11.4689
▁রিপোর্টে	-11.469
▁মেক্সিকো	-11.4691
hor	-11.4691
রান	-11.4692
লেও	-11.4693
▁scheduled	-11.4693
ছড়ি	-11.4695
▁Lakes	-11.4696
▁হাস	-11.4697
▁corresponding	-11.4699
▁বন্যায়	-11.4699
▁ক্রিকেটাররা	-11.4701
▁৮১	-11.4701
▁Tags	-11.4704
▁edges	-11.4704
▁রঙ	-11.4704
▁cow	-11.4705
▁expanding	-11.4706
ax	-11.4711
CE	-11.4711
▁শঙ্কা	-11.4712
▁pack	-11.4713
▁Has	-11.4715
▁ক্ষমতার	-11.4715
▁volcanic	-11.4717
▁শিকদার	-11.4717
▁ফিটনেস	-11.4717
▁অর্থায়নে	-11.4717
▁documented	-11.4718
▁জাতীয়তাবাদী	-11.4718
▁শ্রেণী	-11.4718
▁Hard	-11.472
▁মৃত্যুবার্ষিকী	-11.4721
▁Short	-11.4723
প্রাণ	-11.4723
▁ফুড	-11.4724
▁ভোটারদের	-11.4731
iness	-11.4731
▁defects	-11.4732
power	-11.4732
▁বৈদ্যুতিক	-11.4733
▁সময়ই	-11.4733
▁Definition	-11.4734
▁লাইনে	-11.4734
▁tour	-11.4736
▁NC	-11.4738
নীতি	-11.474
▁মল	-11.474
▁ফোরামের	-11.4742
▁গজ	-11.4743
▁দুজনকে	-11.4745
▁হতেই	-11.4746
▁স্মরণে	-11.4747
▁বয়স্ক	-11.4748
▁প্রধানমন্ত্রীকে	-11.4748
▁লোকজনের	-11.4748
▁মোটা	-11.4749
▁স্পর্শ	-11.4751
▁utility	-11.4751
▁telephone	-11.4751
▁দালাল	-11.4751
▁প্যাকেজ	-11.4752
▁জিপিএ	-11.4752
▁মুমিনুল	-11.4752
▁Carbon	-11.4752
কর্মীদের	-11.4752
▁বাসিন্দারা	-11.4752
▁LED	-11.4754
▁invented	-11.4754
nes	-11.4755
▁learners	-11.4755
▁moist	-11.4756
▁whales	-11.4756
▁celebration	-11.4756
▁উত্তম	-11.4757
▁Us	-11.476
eng	-11.4763
lum	-11.4763
▁strains	-11.4764
▁spatial	-11.4764
▁ইচ্ছে	-11.4765
▁contamination	-11.4767
ique	-11.4767
▁criminal	-11.4768
▁deposits	-11.4773
রহ	-11.4774
▁Examples	-11.4774
▁ব্য	-11.4775
▁সামাদ	-11.4775
▁করলেই	-11.4777
▁calm	-11.4777
SP	-11.4779
মুল	-11.478
ient	-11.4782
▁Che	-11.4784
▁বন্দুক	-11.4784
▁chose	-11.4785
▁ending	-11.4786
টায়	-11.4786
▁সমবেদনা	-11.4786
▁Living	-11.4786
▁খেলেন	-11.4787
▁সহায়ক	-11.4787
▁পরিমান	-11.4789
▁vaccination	-11.4791
▁অন্যায়	-11.4792
▁sister	-11.4793
▁Provide	-11.4794
▁Tra	-11.4796
▁references	-11.4798
▁১২০	-11.48
table	-11.4801
▁sales	-11.4803
ক্রম	-11.4804
NC	-11.4804
▁Sta	-11.4806
▁শয্যা	-11.4809
CR	-11.4813
▁চালকের	-11.4816
▁কুয়েত	-11.4816
▁জড়িতদের	-11.4816
মেন	-11.4818
EA	-11.4819
শের	-11.482
▁উপেক্ষা	-11.482
▁বর্ধিত	-11.482
▁স্মারক	-11.482
east	-11.4821
▁accompanied	-11.4822
▁তাপস	-11.4822
নির	-11.4824
lands	-11.4825
▁বিজিবির	-11.4825
▁knee	-11.4826
▁হালিম	-11.4826
▁ব্যবধান	-11.4827
▁সৎ	-11.4828
▁ব্যবহারকারীদের	-11.4829
▁desired	-11.4829
▁গড়ার	-11.483
▁আবেগ	-11.4832
ski	-11.4832
▁টিকাদান	-11.4833
UR	-11.4833
▁ডিএসইতে	-11.4834
▁purchased	-11.4834
body	-11.4835
খানা	-11.4837
rit	-11.4838
▁স্বাগতিক	-11.4845
▁ধসে	-11.4847
!"	-11.4847
▁jet	-11.4848
▁sperm	-11.4848
▁Recent	-11.4851
▁জানানোর	-11.4853
▁narrative	-11.4855
▁বাবলু	-11.4855
▁Extension	-11.4855
▁Stephen	-11.4855
▁minister	-11.4855
তিন	-11.4856
▁respectively	-11.4857
▁Apple	-11.4858
▁মিন্টু	-11.4858
কেন্দ্র	-11.4863
eh	-11.4863
▁adolescents	-11.4865
Mo	-11.4865
▁ফ্লাইটে	-11.4866
▁containers	-11.4866
▁cycles	-11.4867
▁পুঁজিবাজারে	-11.4868
▁মিলেছে	-11.4868
!)	-11.4868
ome	-11.4869
▁দূষণ	-11.4875
▁যুক্তি	-11.4877
▁recall	-11.488
▁cave	-11.4883
▁ধর	-11.4883
▁Right	-11.4888
▁Syndicate	-11.489
▁শ্রীলংকা	-11.489
▁Between	-11.489
ave	-11.489
▁তুমুল	-11.489
▁quantum	-11.489
▁তলিয়ে	-11.489
▁Version	-11.489
▁সোনালী	-11.489
▁শাড়ি	-11.4891
Al	-11.4891
▁appointed	-11.4891
BA	-11.4892
lay	-11.4894
▁gum	-11.4896
▁vein	-11.4898
▁মহিলাদের	-11.4899
▁টিকে	-11.49
oli	-11.4905
▁সমর্থকরা	-11.4907
▁compete	-11.4908
▁poison	-11.4909
▁একাদশে	-11.4909
▁forth	-11.491
▁পতন	-11.491
▁স্টেডিয়াম	-11.4911
▁beam	-11.4911
রূপ	-11.4912
how	-11.4912
▁বিস্ফোরণের	-11.4913
▁বিদেশী	-11.4917
▁শান্তিপূর্ণ	-11.492
▁ভক্তরা	-11.492
▁collecting	-11.492
live	-11.4921
▁arch	-11.4922
▁মর	-11.4925
▁Holocaust	-11.4925
▁ফরোয়ার্ড	-11.4925
▁দুদিন	-11.4925
▁মতলব	-11.4925
▁প্রান্ত	-11.4925
▁Always	-11.4925
▁productivity	-11.4925
▁মজিদ	-11.4926
▁বায়ু	-11.4926
▁Class	-11.4927
▁meaningful	-11.4928
িকে	-11.4932
▁৮টি	-11.4934
▁Cur	-11.4938
▁প্রজাতির	-11.4938
ধারী	-11.4939
mal	-11.4941
▁Give	-11.4941
▁পরিচিতি	-11.4942
▁illustrations	-11.4945
▁electrons	-11.4946
▁Diseases	-11.4953
▁রোধ	-11.4954
Bangla	-11.4955
▁ঘা	-11.4957
▁Initiative	-11.496
▁মোশারফ	-11.496
▁Douglas	-11.496
▁দ্বিগুণ	-11.496
▁triangle	-11.496
▁সেন্সর	-11.496
▁ফান্ড	-11.496
▁ব্যবস্থাপক	-11.4961
▁ডাকসু	-11.4962
▁বিমানে	-11.4963
▁tables	-11.4963
▁সৃষ্টির	-11.4965
বিসি	-11.4966
▁fraction	-11.4967
▁chips	-11.4967
▁specialized	-11.4968
▁tracking	-11.4969
▁toys	-11.4969
bri	-11.4971
▁Origin	-11.4971
▁ইন্টার	-11.4975
▁ranges	-11.4979
▁thereby	-11.4979
▁Fact	-11.4984
pers	-11.4989
▁রক্ষার	-11.4989
সোমবার	-11.499
উপজেলা	-11.499
▁ছাড়তে	-11.4991
▁arguments	-11.4992
▁অ্যাটর্নি	-11.4995
▁কুদ্দুস	-11.4995
▁অর্জুন	-11.4995
▁Major	-11.4996
▁poll	-11.4996
▁metres	-11.4996
▁ক্ষতিকর	-11.4996
তন্ত্র	-11.4996
▁scales	-11.4997
▁সিরিয়ার	-11.4998
▁ডাকাতি	-11.4998
▁edited	-11.5002
▁texture	-11.5003
▁Topics	-11.5003
▁interpretation	-11.5004
▁কার্য	-11.5004
▁span	-11.5005
▁২০০৮	-11.5005
▁Course	-11.5008
ators	-11.5008
▁Mal	-11.501
৯০	-11.501
▁initially	-11.501
▁Case	-11.5012
গড়	-11.5013
▁প্ল্যাটফর্ম	-11.5014
▁ft	-11.5014
▁performing	-11.5015
ologist	-11.5015
▁ফিরছেন	-11.5017
lock	-11.5018
▁ফুলবাড়ী	-11.5019
▁Links	-11.5024
▁Core	-11.5024
সেন	-11.5024
▁adverse	-11.5025
▁৯৯	-11.5025
▁সিইও	-11.5026
bra	-11.5027
PDF	-11.5027
▁রাজস্থান	-11.5027
▁জিতেছে	-11.5029
▁enzymes	-11.5029
▁expedition	-11.503
▁hygiene	-11.503
▁therapies	-11.503
▁আঙুল	-11.503
▁সাপেক্ষে	-11.503
▁argue	-11.5031
▁Cell	-11.5031
▁খায়রুল	-11.5031
▁ডেভেলপমেন্ট	-11.5032
▁ক্যারিয়ারের	-11.5032
▁জাগো	-11.5032
pu	-11.5034
▁Hour	-11.5034
▁›	-11.5036
▁খেয়াল	-11.5036
▁তবুও	-11.5037
▁adopt	-11.5037
▁আমিরাতের	-11.5037
mu	-11.5038
vel	-11.5041
▁proved	-11.5044
▁poisoning	-11.5046
ott	-11.5049
▁kg	-11.5051
high	-11.5052
ুদ্দিন	-11.5052
▁পল	-11.5054
▁মোকাবেলা	-11.5058
লাইন	-11.5062
▁সালমানের	-11.5063
Last	-11.5063
▁specimens	-11.5064
▁আঘাতে	-11.5065
▁তফসিল	-11.5066
▁Universe	-11.5066
▁বৈশিষ্ট্য	-11.5066
▁ব্যক্তিবর্গ	-11.5066
ফিক	-11.5066
▁ছিনতাইকারী	-11.5067
▁mapping	-11.5067
▁একেএম	-11.5068
PNS	-11.507
▁আল্লাম	-11.5072
▁ব্রিফিংয়ে	-11.5073
▁Bu	-11.5073
▁vector	-11.5074
ET	-11.5074
▁দুস্থ	-11.5075
▁nodes	-11.5075
▁বুয়েট	-11.5076
িরা	-11.5079
▁granted	-11.508
▁চাঁপাইনবাবগঞ্জে	-11.5082
▁manager	-11.5082
নাম	-11.5084
▁নিষেধ	-11.5085
▁সাফল্যের	-11.5085
she	-11.5091
▁specialists	-11.5094
ডেন	-11.5095
▁proceed	-11.5101
▁Pakistan	-11.5102
▁companion	-11.5102
▁preparing	-11.5102
▁skull	-11.5102
▁প্রচণ্ড	-11.5102
▁শিথিল	-11.5102
▁Utah	-11.5102
▁ওয়াজেদ	-11.5102
▁লাগছে	-11.5102
▁crown	-11.5106
rim	-11.5108
▁calculated	-11.511
▁logic	-11.5112
▁গেম	-11.5114
▁searching	-11.5117
ME	-11.5118
▁সমাজে	-11.5119
▁pa	-11.5119
▁দিনটি	-11.5123
▁visits	-11.5123
sum	-11.5123
▁৮৪	-11.5126
▁বাস্তব	-11.513
▁Ken	-11.513
▁suggesting	-11.513
▁encounter	-11.5136
▁মূল্যে	-11.5136
▁ইরফান	-11.5137
▁কোয়ার্টার	-11.5137
▁বসুন্ধরা	-11.5137
œ	-11.5137
▁মঠবাড়িয়া	-11.5137
That	-11.5137
▁নাজিম	-11.5137
▁অভিবাসী	-11.5138
মিয়ানমারের	-11.5138
▁managing	-11.5138
▁Deep	-11.5139
▁আমান	-11.514
▁তিনজনকে	-11.514
▁চেয়েছিলেন	-11.5141
কান্দা	-11.5141
vit	-11.5142
▁দশক	-11.5146
▁discusses	-11.5147
▁সূচি	-11.5147
▁টেকনোলজি	-11.5148
▁Chief	-11.5149
▁viewing	-11.5153
▁Youth	-11.5154
▁হো	-11.5154
▁প্রতারণার	-11.5154
▁logical	-11.5157
▁ফিলিস্তিনি	-11.5158
▁অপসারণ	-11.5159
See	-11.5159
▁Indiana	-11.516
▁নাহার	-11.5161
▁highlight	-11.5161
ographic	-11.5162
ean	-11.5162
▁আয়োজক	-11.5162
▁রাফি	-11.5166
▁উঠেছেন	-11.5169
কোভিড	-11.5171
▁existed	-11.5172
▁১১টি	-11.5172
ister	-11.5173
▁Ancient	-11.5173
▁Tennessee	-11.5173
▁erosion	-11.5173
▁identical	-11.5173
▁সেন্ট্রাল	-11.5173
▁Agricultural	-11.5173
▁Jefferson	-11.5173
▁ঠান্ডা	-11.5173
▁গৌতম	-11.5173
▁radioactive	-11.5173
▁colonies	-11.5174
▁সংগঠনটির	-11.5174
▁Link	-11.5175
▁tap	-11.5175
▁সম্ভবত	-11.5176
▁establishment	-11.5179
▁lock	-11.518
▁কোচিং	-11.518
▁আটকের	-11.5181
▁puzzle	-11.5183
▁neighbor	-11.5183
▁spider	-11.5183
▁discussions	-11.5183
▁Pediatrics	-11.5183
▁সহায়তার	-11.5184
▁তত্ত্বাবধানে	-11.5188
itch	-11.5188
▁রুপ	-11.5191
▁তারাই	-11.5194
জিয়া	-11.5195
▁Pope	-11.5196
▁Ya	-11.5196
▁এলাকাবাসীর	-11.5196
▁prevented	-11.5199
কর্মীরা	-11.52
▁Skin	-11.52
▁বাসভবন	-11.5203
▁bra	-11.5204
▁বসিয়ে	-11.5204
▁সহযোগিতার	-11.5205
ন্দ্র	-11.5205
Health	-11.5207
text	-11.5207
▁comfort	-11.5208
▁বিসিবির	-11.5209
▁প্রতিপাদ্য	-11.5209
▁অগ্রাধিকার	-11.5209
▁Gallery	-11.5209
▁decay	-11.5209
▁cooperation	-11.5209
▁Geographic	-11.5209
▁কম্বল	-11.5209
▁মাদকের	-11.5209
▁ha	-11.521
ফল	-11.5214
▁suddenly	-11.5215
▁handling	-11.5215
▁সাজ্জাদ	-11.5216
▁Available	-11.5217
▁couldn	-11.5218
▁Jim	-11.5219
▁ঘুরতে	-11.522
▁সাতটি	-11.5221
▁মেইল	-11.5221
▁regarded	-11.5221
▁বক্তা	-11.5222
▁Advanced	-11.5223
ace	-11.5224
ীরা	-11.5224
via	-11.5225
▁Consumer	-11.5227
▁ধর্ষক	-11.5228
link	-11.5229
umb	-11.5229
▁opinions	-11.5229
▁বাবাকে	-11.523
▁pollutants	-11.5231
▁প্রদর্শনী	-11.5232
তর	-11.5232
▁গৃহ	-11.5233
▁ভালোবাসার	-11.5237
▁হয়েছিলো	-11.5238
▁দূতাবাসের	-11.524
worth	-11.524
▁রাজিব	-11.5243
▁কোর্টে	-11.5243
ye	-11.5244
▁আত্মসমর্পণ	-11.5245
▁ক্ষুব্ধ	-11.5245
▁কার্যনির্বাহী	-11.5245
▁স্বেচ্ছাসেবী	-11.5245
▁railroad	-11.5245
▁transparent	-11.5245
▁পূর্বাভাস	-11.5245
▁মৌলিক	-11.5246
▁জিততে	-11.5246
▁ডিআইজি	-11.5246
▁fl	-11.5246
▁হাড়	-11.5247
▁মাহবুবুর	-11.5248
rant	-11.5249
▁mosquitoes	-11.5249
▁সম্পদের	-11.5249
▁wise	-11.525
২০১৭	-11.525
▁উইকিপিডিয়া	-11.525
▁colony	-11.5253
▁চাঞ্চল্য	-11.5254
▁doors	-11.5256
▁CH	-11.5257
▁তিনজনের	-11.5257
town	-11.5258
▁৯২	-11.5259
▁কোহলির	-11.5259
▁দশকের	-11.5259
▁ইয়া	-11.5263
▁এসেছি	-11.5266
▁দিলেও	-11.5266
▁fan	-11.5267
▁সুনামগঞ্জে	-11.5268
▁Pet	-11.527
▁pests	-11.527
▁atomic	-11.5272
▁inform	-11.5274
্যু	-11.5275
িব	-11.5276
▁অনুভূতি	-11.5277
▁বাইরের	-11.5278
▁trust	-11.5278
cap	-11.528
▁অন্তঃসত্ত্বা	-11.5281
▁aquatic	-11.5281
▁হলিউড	-11.5281
▁পিকআপ	-11.5281
▁অমিতাভ	-11.5281
▁ozone	-11.5281
▁৯১	-11.5282
▁আশেপাশে	-11.5282
▁attractive	-11.5282
▁discoveries	-11.5283
▁unlike	-11.5283
▁হারের	-11.5283
▁এরশাদের	-11.5285
▁সুন্দরবন	-11.5286
▁প্রাদুর্ভাব	-11.5286
▁স্বজন	-11.5287
▁৮৭	-11.5291
▁সৈয়দপুর	-11.5291
▁Sleep	-11.5291
▁transformation	-11.5291
▁mar	-11.5292
▁শিশুটি	-11.5292
▁algorithm	-11.5292
▁কখন	-11.5292
▁chicken	-11.5292
▁spill	-11.5293
▁Five	-11.5293
কাজ	-11.5296
য়ন	-11.5298
▁সেন্টারের	-11.5299
▁ভ্যাকসিনের	-11.5302
পাড়	-11.5303
প্রত্যক্ষদর্শীরা	-11.5305
▁cameras	-11.5307
েন্দ্র	-11.5311
mile	-11.5311
ত্তা	-11.5311
▁মহড়া	-11.5313
▁শিক্ষিকা	-11.5313
য়েট	-11.5314
ote	-11.5314
▁rises	-11.5316
▁মোহাম্মদপুর	-11.5316
pdf	-11.5317
▁লাইট	-11.5317
▁libraries	-11.5318
▁রোবট	-11.5318
▁চিত্রনায়ক	-11.5318
▁চলুন	-11.5318
Read	-11.5319
ump	-11.532
▁pest	-11.5322
▁Sign	-11.5322
ila	-11.5322
▁hence	-11.5323
▁Off	-11.5323
▁Usually	-11.5326
La	-11.5328
▁finish	-11.5328
▁আমেরিকান	-11.5331
▁advantages	-11.5331
▁সাগরে	-11.5335
▁দিলো	-11.5335
▁৯৭	-11.5336
▁নই	-11.5337
▁roles	-11.5339
▁খেল	-11.5341
▁stack	-11.5343
▁সম্পৃক্ত	-11.5345
rat	-11.5353
▁shut	-11.5354
▁legend	-11.5354
▁রওশন	-11.5354
▁সিলিন্ডার	-11.5354
▁varied	-11.5354
▁irrigation	-11.5354
▁Peace	-11.5355
▁ময়লা	-11.5355
▁মেট্রিক	-11.5356
lip	-11.5356
▁ফলন	-11.5358
▁সর	-11.5358
▁মায়া	-11.536
ধারা	-11.5361
▁bell	-11.5362
▁ফাঁকা	-11.5362
▁streets	-11.5363
▁উঠবে	-11.5364
▁তুলেছে	-11.5364
take	-11.5365
▁installation	-11.5367
▁Due	-11.5367
▁tr	-11.537
▁আদায়ের	-11.5372
▁Additional	-11.5373
▁Jones	-11.5374
▁drill	-11.5375
▁তুল	-11.5377
gram	-11.5378
osa	-11.538
▁collapse	-11.5383
pped	-11.5383
▁অন্যান্যদের	-11.5383
▁বক্তৃতা	-11.5383
▁শত্রু	-11.5383
AN	-11.5386
Le	-11.5388
▁Bush	-11.5389
▁জগন্নাথপুর	-11.539
▁glue	-11.5391
▁সজীব	-11.5391
world	-11.5392
▁আকর্ষণীয়	-11.5392
▁হাফিজুর	-11.5393
▁fitness	-11.5394
step	-11.5395
▁দেখছেন	-11.5395
▁engineer	-11.5396
▁বাড়ায়	-11.5396
▁সালমা	-11.5397
uck	-11.5399
শিপ	-11.54
▁frozen	-11.5402
UN	-11.5403
▁গবেষণার	-11.5404
▁headache	-11.5404
▁মজার	-11.5404
▁মেলে	-11.5405
▁এসি	-11.5408
▁realized	-11.5408
▁publications	-11.541
▁ওয়ালটন	-11.5414
▁breathe	-11.5415
▁Example	-11.5416
▁মালয়েশিয়ার	-11.5416
▁প্লাস	-11.5419
▁য	-11.5419
▁বিশ্লেষণ	-11.542
▁তলায়	-11.5421
▁stretch	-11.5422
▁Ber	-11.5423
▁paying	-11.5423
▁দূতাবাস	-11.5423
▁physicians	-11.5424
ل	-11.5426
▁Confederate	-11.5428
▁Hurricane	-11.5428
▁burden	-11.5428
▁বখাটে	-11.5428
▁মেদিনীপুর	-11.5428
▁সর্বস্তরে	-11.5428
▁গরীব	-11.5428
▁Travel	-11.5428
▁alter	-11.5428
▁silk	-11.5428
▁Death	-11.5428
▁lining	-11.5429
▁অমর	-11.5429
▁গৌরব	-11.5429
▁plates	-11.5431
▁মশা	-11.5431
▁Anne	-11.5432
▁administered	-11.5433
▁Jackson	-11.5437
IM	-11.5437
▁nurse	-11.5439
▁জিন	-11.544
▁fertilizer	-11.5441
▁ধরন	-11.5442
▁ab	-11.5443
▁onset	-11.5444
▁শাসক	-11.5445
▁বাতাস	-11.5446
▁গ্রেপ্তারের	-11.5448
কায়	-11.5448
▁Em	-11.5448
৫টি	-11.5449
▁পড়ায়	-11.545
▁কেয়ার	-11.5452
▁৭৯	-11.5454
▁জাতের	-11.5454
▁rid	-11.5457
▁ফাঁসি	-11.5457
▁কুল	-11.5457
▁মোদির	-11.5458
▁দিবে	-11.5461
▁bond	-11.5462
tte	-11.5463
প্রিয়	-11.5465
▁Kennedy	-11.5465
▁অঙ্গীকার	-11.5465
▁কূটনৈতিক	-11.5465
▁অগাস্ট	-11.5465
▁prototype	-11.5465
▁kingdom	-11.5465
▁টিভির	-11.5465
▁thrive	-11.5465
NA	-11.5468
versus	-11.5468
▁কার্	-11.5469
▁ট্রফি	-11.5469
▁ba	-11.5469
▁যৌথভাবে	-11.5469
bury	-11.5469
▁সালেহ	-11.547
▁Arab	-11.547
▁সিটির	-11.547
▁পুরান	-11.5471
▁পর্যটকদের	-11.5471
▁এভাবেই	-11.5473
▁বন্ধে	-11.5474
▁এজাহার	-11.5474
▁ভাষণে	-11.5476
list	-11.5476
▁ব্র্যাক	-11.5478
PL	-11.5479
▁ফ্ল্যাট	-11.5479
▁গণনা	-11.548
▁শহীদুল	-11.548
হিত	-11.5481
▁MIT	-11.5482
▁১ম	-11.5484
▁লক্ষ্মীপুরে	-11.5484
ttle	-11.5485
▁award	-11.5486
▁রেলপথ	-11.5486
▁survived	-11.5486
▁বহুল	-11.5487
▁সৃষ্ট	-11.5487
▁succeed	-11.5491
▁sleeping	-11.5494
▁কমানোর	-11.5494
জয়	-11.5495
▁tight	-11.5501
▁মনো	-11.5502
▁Dakota	-11.5502
▁precipitation	-11.5502
▁ভালুকা	-11.5502
▁জড়ো	-11.5502
▁personnel	-11.5503
▁bowel	-11.5503
▁BBC	-11.5504
Ref	-11.5504
ইউএনও	-11.5504
আপডেট	-11.5504
▁প্রদেশ	-11.5504
▁চল	-11.5505
ن	-11.5508
▁আনোয়ারুল	-11.5508
pin	-11.551
▁chip	-11.5512
▁মিঠুন	-11.5513
▁ভার	-11.5514
▁trail	-11.5515
▁পারফরম্যান্স	-11.5515
▁প্রতীকে	-11.5515
ora	-11.5515
▁আব	-11.5516
LA	-11.5516
▁সমর্থিত	-11.5516
▁posts	-11.5516
▁barriers	-11.5516
▁রোডে	-11.5516
▁basin	-11.552
▁পরিদর্শনে	-11.552
▁আত্মার	-11.5523
htm	-11.5523
▁হাদিস	-11.5526
▁কাটাতে	-11.5527
ges	-11.5528
▁genetics	-11.5528
▁চেষ্টার	-11.5529
▁archaeological	-11.553
▁অপারেটর	-11.5533
▁scope	-11.5533
▁৭টি	-11.5534
▁জিবি	-11.5535
▁graphic	-11.5537
▁নামতে	-11.5538
▁পড়	-11.5538
▁extraordinary	-11.5539
▁occurrence	-11.5539
▁আখাউড়া	-11.5539
▁চমৎকার	-11.5539
▁প্রণোদনা	-11.5539
▁hypertension	-11.5539
▁অর্পণ	-11.5539
▁breakfast	-11.5539
▁Choose	-11.5539
▁সাহেদ	-11.5539
ale	-11.5539
▁করণীয়	-11.5539
▁dying	-11.5539
▁পরিচয়পত্র	-11.554
▁peers	-11.554
▁brand	-11.5541
▁elevated	-11.5541
▁ঝিনাইদহে	-11.5541
▁Im	-11.5542
▁Zone	-11.5543
▁crack	-11.5543
▁৮৬	-11.5543
▁মেয়েটি	-11.5546
▁metabolic	-11.5547
▁কলম	-11.555
▁Safe	-11.5551
▁agent	-11.5554
▁মাটির	-11.5557
▁মাঝি	-11.5558
▁Sc	-11.556
▁পাড়ার	-11.5561
▁Understanding	-11.5561
▁ফেডারেশন	-11.5563
াকে	-11.5563
▁বিগ	-11.5563
▁reflection	-11.5564
▁প্রকৃতি	-11.5566
Do	-11.5566
▁যুক্তরাজ্যে	-11.5567
▁balanced	-11.5568
lines	-11.557
ending	-11.5571
▁quiet	-11.5571
▁ডাই	-11.5571
▁মুখের	-11.5572
▁কালি	-11.5572
▁সিদ্ধান্তে	-11.5575
ack	-11.5576
▁bladder	-11.5576
▁encouraging	-11.5576
▁metabolism	-11.5576
▁খসড়া	-11.5576
▁assembly	-11.5576
▁বর্জ্য	-11.5576
▁পৌঁছানো	-11.5576
▁উত্তরবঙ্গ	-11.5577
▁শিক্ষাবর্ষে	-11.5577
▁intensive	-11.5577
▁distinctive	-11.5577
OT	-11.5578
চালিত	-11.558
▁৯৬	-11.558
▁প্রেমে	-11.5583
tr	-11.5584
র্ণ	-11.5584
▁descriptions	-11.5585
▁ash	-11.5586
▁assumed	-11.5586
▁pH	-11.5587
▁ভালোভাবে	-11.559
▁bulb	-11.5591
▁Apr	-11.5592
▁জন্যও	-11.5593
ake	-11.5596
▁গ্রুপে	-11.5599
াজ	-11.56
▁চাচা	-11.5602
খ্যাত	-11.5603
▁৮৩	-11.5604
লির	-11.5605
▁মণ্ডল	-11.5608
▁Grant	-11.5609
▁উইকেটের	-11.561
▁ব্যাপী	-11.5611
▁acting	-11.5612
▁ঢুকতে	-11.5614
▁মুহম্মদ	-11.5614
▁খারিজ	-11.5614
▁Chemical	-11.5614
▁এরইমধ্যে	-11.5614
▁Northwest	-11.5614
▁dinosaurs	-11.5615
▁Bridge	-11.5615
▁অনশন	-11.5615
▁লক্ষে	-11.5616
▁Line	-11.5617
▁genetically	-11.5617
atur	-11.562
▁Son	-11.5622
▁অপ	-11.5623
▁কাস্টমস	-11.5623
storm	-11.5624
▁আউয়াল	-11.5624
▁extinct	-11.5625
▁বিস্ফোরক	-11.5625
▁ka	-11.5628
▁rooms	-11.5629
▁environmentally	-11.5631
▁ফেলেন	-11.5633
▁বইয়ের	-11.5633
fl	-11.5635
েবল	-11.5635
▁bath	-11.5636
▁electron	-11.5636
▁ব্যবহারকারী	-11.5638
▁releases	-11.5639
cer	-11.564
ক্রান্ত	-11.5645
প্রা	-11.5647
▁তরফ	-11.5647
til	-11.5648
▁বেশির	-11.565
▁accidents	-11.5651
টিং	-11.5651
▁engaging	-11.5651
▁আংশিক	-11.5651
▁বৃহত্তম	-11.5651
▁মর্মান্তিক	-11.5651
▁ঝগড়া	-11.5651
▁quantities	-11.5651
▁দেখেছি	-11.5652
▁hunger	-11.5653
▁দুপুরের	-11.5654
কিউ	-11.5656
▁lu	-11.5658
▁চ্যানেলে	-11.5661
bro	-11.5661
”)	-11.5664
▁বন্ধুত্ব	-11.5665
▁কিশোরীর	-11.5666
▁adaptation	-11.5668
▁participated	-11.5668
ines	-11.5671
▁গি	-11.5672
itz	-11.5675
tine	-11.5675
▁founder	-11.5675
▁Williams	-11.5677
▁আর্	-11.5677
▁hydro	-11.5677
▁পড়ল	-11.5678
কর্মচারী	-11.5679
▁চাঁদা	-11.5679
▁আফগানিস্তানে	-11.568
DI	-11.5681
▁union	-11.5681
▁ফুটবলের	-11.5682
law	-11.5683
▁meteor	-11.5684
▁bark	-11.5684
IA	-11.5685
▁imagination	-11.5689
▁placing	-11.5689
▁summary	-11.5689
▁পজেটিভ	-11.5689
requiring	-11.5689
▁impressive	-11.5689
▁চেপে	-11.5689
▁preferred	-11.5689
▁expertise	-11.5689
▁শতক	-11.569
▁reefs	-11.569
▁সুখবর	-11.569
▁washing	-11.5691
▁powers	-11.5692
▁surrounded	-11.5692
▁মিছিলে	-11.5692
▁partial	-11.5693
▁Oklahoma	-11.5694
▁partially	-11.5694
▁demonstrates	-11.5695
▁টিপু	-11.5701
▁shade	-11.5701
▁মুম্বই	-11.5702
▁teaches	-11.5702
ডিপি	-11.5704
▁গম	-11.5708
শিক্ষা	-11.5709
▁labels	-11.571
▁খালিদ	-11.5712
▁অ্যাসোসিয়েশনের	-11.5715
তলী	-11.5718
▁analyses	-11.5719
▁slight	-11.5724
▁god	-11.5724
জুল	-11.5725
▁ইস	-11.5726
▁মৌসুম	-11.5726
▁medieval	-11.5727
▁ডিসপ্লে	-11.5727
▁stability	-11.5727
▁মজুদ	-11.5727
▁নথি	-11.5727
▁persistent	-11.5727
▁Justice	-11.5728
▁tab	-11.5728
▁involvement	-11.5728
▁টিপস	-11.5728
▁vice	-11.5729
▁cash	-11.573
▁marketing	-11.573
▁patch	-11.573
▁sore	-11.5731
▁Never	-11.5731
▁wooden	-11.5733
▁পশুর	-11.5733
▁চাইতে	-11.5733
প্রধান	-11.5735
[...]
